'<pad>_'
'<EOS>_'
', _'
'._'
'the_'
''_'
'de_'
'of_'
'to_'
'la_'
'and_'
'a_'
'_'
's_'
'et_'
'l_'
'-_'
'des_'
'à_'
'les_'
'le_'
'in_'
'd_'
'’_'
'en_'
'is_'
'that_'
'est_'
'que_'
'du_'
'I_'
'on_'
'un_'
'for_'
'une_'
'pour_'
'you_'
'dans_'
'?_'
'- _'
' (_'
'. _'
'it_'
'be_'
'The_'
'pas_'
'qui_'
'with_'
'au_'
'sur_'
'as_'
'e_'
'are_'
't_'
'ce_'
'par_'
') _'
'ne_'
'by_'
'this_'
'have_'
'/_'
'il_'
'not_'
'n_'
'plus_'
'qu_'
' ?_'
'or_'
'y_'
'vous_'
'was_'
'an_'
'Je_'
'at_'
'from_'
'aux_'
'we_'
'will_'
'me_'
'sont_'
'nous_'
'es_'
'Le_'
'se_'
'ou_'
'has_'
'!_'
'avec_'
'which_'
'ont_'
'je_'
'm_'
'C_'
'all_'
'être_'
'1_'
'can_'
' _'
'Il_'
'ing_'
'r_'
'La_'
'Les_'
'its_'
'It_'
'2_'
'their_'
'You_'
'A_'
': _'
'your_'
'été_'
'c_'
'but_'
'L_'
'would_'
',_'
' - _'
'been_'
'; _'
'..._'
'do_'
'son_'
'pays_'
'ed_'
'more_'
' – _'
'Commission_'
'cette_'
'fait_'
'nt_'
'one_'
're_'
'In_'
'they_'
'ces_'
'er_'
'my_'
'comme_'
'ai_'
'also_'
' !_'
'We_'
'should_'
'mais_'
'out_'
'about_'
'were_'
'tout_'
'other_'
'3_'
'elle_'
'leur_'
'there_'
'he_'
'up_'
'é_'
'what_'
'no_'
'si_'
'non_'
'faire_'
'bien_'
'like_'
'Europe_'
'5_'
'... _'
')._'
'This_'
'European_'
'tu_'
'so_'
'know_'
'(_'
'our_'
'4_'
'autres_'
'), _'
'if_'
'Canada_'
'ses_'
'peut_'
'J_'
'time_'
'même_'
'who_'
'What_'
'information_'
'On_'
'sa_'
'En_'
' "_'
'had_'
'Union_'
'us_'
'only_'
'new_'
'his_'
'countries_'
'' _'
'than_'
'just_'
'Tu_'
'ils_'
'aussi_'
'must_'
'Mr_'
'entre_'
'S_'
'international_'
'these_'
'était_'
'• _'
'services_'
'No_'
'any_'
'right_'
'ça_'
'But_'
'Vous_'
'some_'
'Nations_'
'them_'
'M_'
':_'
'need_'
'into_'
'such_'
'when_'
'te_'
'now_'
'ment_'
'Nous_'
'tous_'
'don_'
'6_'
'people_'
'j_'
'States_'
';_'
'deux_'
'question_'
'work_'
'z_'
'o_'
've_'
'And_'
'moi_'
'7_'
'leurs_'
'ons_'
'important_'
'That_'
'get_'
'very_'
'll_'
'politique_'
' : _'
'Et_'
'développement_'
'United_'
'may_'
'here_'
'well_'
'part_'
'him_'
'her_'
'votre_'
'place_'
'suis_'
'Mais_'
'és_'
'D_'
'États_'
'take_'
'Council_'
'également_'
'i_'
'point_'
'use_'
'over_'
'ant_'
'très_'
'rapport_'
'public_'
'could_'
'sans_'
'two_'
'report_'
'made_'
'make_'
'those_'
'où_'
'doit_'
'Conseil_'
'President_'
'10_'
'ée_'
'He_'
'0_'
' “_'
'mon_'
'lui_'
'between_'
'go_'
'see_'
'ly_'
'world_'
'national_'
'first_'
'under_'
'" _'
'long_'
'situation_'
'years_'
'ainsi_'
'way_'
'droits_'
'8_'
'notre_'
'contre_'
'Ce_'
'want_'
'ng_'
'% _'
'autre_'
'support_'
'Oh_'
'monde_'
'soit_'
'avoir_'
'year_'
'If_'
'where_'
'9_'
'européenne_'
'most_'
'good_'
'membres_'
'travail_'
'ent_'
'development_'
'programme_'
'many_'
'Si_'
'dont_'
'rights_'
'sécurité_'
'economic_'
'Dans_'
'possible_'
'think_'
'cas_'
'because_'
'how_'
'social_'
'encore_'
'Committee_'
'va_'
'policy_'
'service_'
'temps_'
'dire_'
'There_'
'country_'
'Un_'
'through_'
'even_'
'protection_'
'being_'
'al_'
'là_'
'E_'
'2000_'
'sous_'
'Pour_'
'"_'
'system_'
'human_'
'dit_'
'2002_'
'They_'
'political_'
'General_'
'nos_'
'2003_'
'après_'
'against_'
'including_'
'ici_'
'2001_'
'much_'
'h_'
'back_'
'got_'
'droit_'
'ans_'
'fois_'
'able_'
'Elle_'
'000_'
'questions_'
'ation_'
'action_'
'toutes_'
'she_'
'Président_'
'ées_'
'moins_'
'avait_'
'avons_'
')_'
'sera_'
'US_'
'government_'
'ma_'
'session_'
'As_'
'did_'
'Non_'
'homme_'
'before_'
'vie_'
'partie_'
'after_'
'15_'
'peu_'
'article_'
'Convention_'
'2004_'
'avant_'
'économique_'
'too_'
'application_'
'same_'
'toute_'
'personnes_'
'jour_'
'programmes_'
'peuvent_'
'financial_'
'Member_'
'then_'
'compte_'
'For_'
'said_'
'both_'
'T_'
'santé_'
'am_'
'ion_'
' _'
'ait_'
'20_'
'man_'
'down_'
'plan_'
'Une_'
'say_'
'efforts_'
'système_'
'going_'
'EU_'
'Monsieur_'
'cours_'
'cet_'
'So_'
'used_'
'De_'
'À_'
'still_'
'politiques_'
'avez_'
'30_'
'mesures_'
'gouvernement_'
'parties_'
'k_'
'order_'
'sais_'
'enfants_'
'come_'
'conditions_'
'faut_'
'car_'
'Oui_'
'China_'
'2005_'
'voir_'
'help_'
'doivent_'
'elles_'
'cadre_'
'institutions_'
'cela_'
'does_'
'within_'
'number_'
'accord_'
'health_'
'g_'
'toujours_'
'own_'
'donc_'
'P_'
'nombre_'
'12_'
'Parliament_'
'Yeah_'
'afin_'
'change_'
'x_'
'ra_'
'population_'
'global_'
'Unis_'
'three_'
'années_'
'Well_'
'hui_'
'matière_'
'All_'
' $_'
'Ils_'
'without_'
'11_'
'last_'
'” _'
'ez_'
'life_'
'age_'
'marché_'
'b_'
'toi_'
'p_'
'depuis_'
'women_'
'production_'
'market_'
'hotel_'
'position_'
'vue_'
'process_'
'niveau_'
'find_'
'mise_'
'2006_'
'respect_'
'day_'
'end_'
'tion_'
'moment_'
'déjà_'
'demande_'
'ers_'
'each_'
'while_'
'budget_'
'something_'
'B_'
'She_'
'Parlement_'
' , _'
'security_'
'projet_'
'issues_'
'chose_'
'alors_'
'International_'
'site_'
'rs_'
'ci_'
'future_'
'ts_'
'To_'
'nouveau_'
'Comité_'
'pourrait_'
'How_'
'why_'
'high_'
'besoin_'
'hôtel_'
'case_'
'provide_'
'général_'
' ._'
'veux_'
'tant_'
'really_'
'concernant_'
'grande_'
'set_'
'rien_'
'quoi_'
'per_'
'recherche_'
'off_'
'base_'
'Hotel_'
'ton_'
'shall_'
'level_'
'femmes_'
'during_'
'course_'
'ions_'
'great_'
'children_'
'manière_'
'lieu_'
'R_'
'law_'
'Unies_'
'prendre_'
'Ça_'
'ns_'
'notamment_'
'2007_'
'gonna_'
'exemple_'
'ressources_'
'internationale_'
'continue_'
'européen_'
'résolution_'
'face_'
'today_'
'large_'
'produits_'
'better_'
'activités_'
'Cette_'
'aujourd_'
'importance_'
'fin_'
'? _'
' « _'
'resolution_'
'problème_'
'aide_'
'issue_'
'give_'
'ie_'
'f_'
'ensemble_'
'measures_'
'État_'
'certain_'
'available_'
'savoir_'
'based_'
'bon_'
'fact_'
'00_'
'little_'
'less_'
'quand_'
'processus_'
'certains_'
'since_'
'type_'
'groupe_'
'ceux_'
'raison_'
'grand_'
'areas_'
'Au_'
'area_'
'activities_'
'vers_'
'gestion_'
'beaucoup_'
'peux_'
'members_'
'date_'
'again_'
'Chine_'
'means_'
'année_'
'access_'
'secteur_'
'25_'
'trois_'
'relations_'
'cause_'
'already_'
'look_'
'devrait_'
'ur_'
'never_'
'believe_'
'millions_'
'données_'
'mettre_'
'mean_'
'New_'
'seulement_'
'serait_'
'chaque_'
'14_'
'vote_'
'attention_'
'lors_'
'best_'
'Yes_'
'1999_'
'view_'
'Des_'
'jamais_'
'around_'
'façon_'
'13_'
'every_'
'eu_'
'second_'
'next_'
'24_'
'main_'
'eux_'
'ensure_'
'croissance_'
'community_'
'Ces_'
'problèmes_'
'coopération_'
'160_'
'. - _'
'term_'
'taux_'
'power_'
'maintenant_'
'ies_'
'générale_'
'Canadian_'
'resources_'
'trop_'
'million_'
'few_'
'State_'
'N_'
'put_'
'ement_'
'meeting_'
'free_'
'particular_'
'ni_'
'example_'
'total_'
'points_'
'further_'
'nouvelle_'
'juste_'
'another_'
'17_'
'vais_'
'prix_'
'might_'
'decision_'
'18_'
'room_'
'personne_'
'business_'
'France_'
'trade_'
'tell_'
'cannot_'
'taken_'
'growth_'
'Why_'
'dollars_'
'50_'
'u_'
'selon_'
'premier_'
'needs_'
'mesure_'
'jusqu_'
'given_'
'data_'
'ge_'
'When_'
'’ _'
'sommes_'
'nom_'
'didn_'
'force_'
'ble_'
'Bien_'
'nature_'
'mes_'
'assistance_'
' _'
'terme_'
'rôle_'
'informations_'
'pouvoir_'
'paix_'
'effet_'
'call_'
'Assemblée_'
'. _'
'tes_'
'problem_'
'première_'
'different_'
'air_'
'America_'
'role_'
'period_'
'mois_'
'chez_'
'At_'
'working_'
'quelques_'
'accès_'
'2008_'
'mieux_'
'Group_'
'Government_'
'research_'
'policies_'
'parce_'
'local_'
'affaires_'
'let_'
'entreprises_'
' :_'
'full_'
'document_'
'centre_'
'O_'
'F_'
'économie_'
'provided_'
'implementation_'
'vos_'
'particulier_'
'following_'
'away_'
'Qu_'
'www_'
'laquelle_'
'administration_'
'organisations_'
'minutes_'
'therefore_'
'state_'
'plusieurs_'
'major_'
'étaient_'
'money_'
'Office_'
'Internet_'
'doing_'
'cooperation_'
'control_'
'always_'
' '_'
'pendant_'
'participation_'
'page_'
'devons_'
'Let_'
'utilisation_'
'family_'
'current_'
'ry_'
'nouvelles_'
'interest_'
'Par_'
'région_'
'home_'
'far_'
'done_'
'UE_'
'sure_'
'êtes_'
'ville_'
'sector_'
'result_'
'real_'
'management_'
'Hey_'
'pourquoi_'
'objectifs_'
'G_'
' % _'
'concerne_'
'become_'
'My_'
'Pourquoi_'
'21_'
'whether_'
'suite_'
'mondiale_'
'domaine_'
'These_'
'! _'
'ta_'
'ques_'
'legal_'
'décision_'
'environnement_'
'effective_'
'education_'
'directive_'
'résultats_'
'président_'
'Secretary_'
'Now_'
'necessary_'
'making_'
'forces_'
'compris_'
'clear_'
'risk_'
'related_'
'période_'
'name_'
'common_'
'called_'
'16_'
'quelque_'
'personnel_'
'com_'
'care_'
'reste_'
'Assembly_'
'water_'
'violence_'
'transport_'
'police_'
'pense_'
'hope_'
'euro_'
'contrôle_'
'World_'
'documents_'
' » _'
'société_'
'found_'
'citoyens_'
'ordre_'
'mis_'
'account_'
'justice_'
'celui_'
'basis_'
'Don_'
'war_'
'qualité_'
'peace_'
'note_'
'."_'
'small_'
'sein_'
'With_'
'Iran_'
'regard_'
'group_'
'Programme_'
'economy_'
'among_'
'100_'
'regional_'
'matter_'
'However_'
'special_'
'Commissioner_'
'., _'
'together_'
'rate_'
'military_'
'capital_'
'assurer_'
'actions_'
'proposition_'
'old_'
'loi_'
'developing_'
'&_'
'solution_'
'proposal_'
'guerre_'
'bonne_'
'Health_'
'soient_'
'Tout_'
'problems_'
'past_'
'Comment_'
' | _'
'ux_'
'six_'
'pris_'
'present_'
'ic_'
'22_'
'Merci_'
'yet_'
'private_'
'ments_'
'line_'
'impact_'
'Article_'
'vu_'
'initiative_'
'comment_'
'aider_'
'rules_'
'products_'
'nuclear_'
'increase_'
'include_'
'Que_'
'vraiment_'
'voudrais_'
'thing_'
'celle_'
'Y_'
'DE_'
'"._'
'œuvre_'
'terms_'
'quality_'
'party_'
'however_'
'energy_'
'zone_'
'st_'
'region_'
'Development_'
'1998_'
'debate_'
'ca_'
'égard_'
'section_'
'required_'
'présent_'
'particularly_'
'nouveaux_'
'seront_'
'nécessaire_'
'intérêt_'
'agreement_'
'adopted_'
'visant_'
'open_'
'love_'
'crisis_'
'cent_'
'Do_'
'état_'
'sujet_'
'progress_'
'general_'
'2009_'
'soutien_'
'Comme_'
'taking_'
'Service_'
'Organisation_'
'Okay_'
'Mme_'
'staff_'
'least_'
'key_'
' [_'
'specific_'
'form_'
'culture_'
'paragraphe_'
'food_'
'five_'
'emploi_'
'Come_'
'American_'
' '
'recent_'
'held_'
'groups_'
'formation_'
'city_'
'souvent_'
'ever_'
'dernier_'
'[_'
'others_'
'chambres_'
'Etats_'
'II_'
'training_'
'nombreux_'
'initiatives_'
'One_'
'Africa_'
'jours_'
'groupes_'
'um_'
'keep_'
'chance_'
'avis_'
'Centre_'
'sûr_'
'pouvez_'
'having_'
'fonds_'
'décembre_'
'draft_'
'Pas_'
'Iraq_'
'opinion_'
'capacity_'
'ailleurs_'
'version_'
'partir_'
'Not_'
'stay_'
'sens_'
'foreign_'
'crise_'
'communication_'
'cases_'
'project_'
'kind_'
'font_'
'costs_'
'value_'
'projets_'
'left_'
'famille_'
'ous_'
'once_'
'direction_'
'National_'
'40_'
'el_'
'agit_'
'using_'
'risque_'
'lot_'
'donné_'
'th_'
'needed_'
'feel_'
'days_'
'address_'
'Minister_'
'French_'
'whole_'
'program_'
'eau_'
'dois_'
'Cela_'
'évaluation_'
'things_'
'tax_'
'outre_'
'création_'
'commission_'
'] _'
'23_'
'ministre_'
'Alors_'
'Act_'
'relevant_'
'enough_'
'God_'
' : _'
'third_'
'passé_'
'often_'
'aucun_'
'19_'
'technologies_'
'moyen_'
'coming_'
'building_'
'approach_'
'aient_'
'Where_'
'Is_'
'simple_'
'person_'
'night_'
'Amérique_'
'étant_'
'valeur_'
'subject_'
'petit_'
'mal_'
'dialogue_'
'anything_'
'Just_'
' — _'
'publique_'
'cost_'
'citizens_'
'60_'
'field_'
'due_'
'aucune_'
'nothing_'
'eur_'
'Republic_'
'December_'
'31_'
'systems_'
'mission_'
'land_'
'authorities_'
'\u_'
'U_'
'Afrique_'
'several_'
'results_'
'proposed_'
'promotion_'
'ient_'
'Community_'
'thought_'
'rooms_'
'dernière_'
'contribution_'
'aurait_'
'aller_'
'Bureau_'
'présente_'
'ls_'
'femme_'
'experts_'
'économiques_'
'titre_'
'systèmes_'
'short_'
'review_'
'renseignements_'
'organizations_'
'months_'
'gens_'
'examen_'
'developed_'
'éducation_'
'urs_'
'until_'
'start_'
'rates_'
'obligations_'
'forme_'
'close_'
'argent_'
'Security_'
'Rights_'
'trouve_'
'sociale_'
'office_'
'men_'
'list_'
'dispositions_'
'27_'
'reports_'
'rather_'
'member_'
'marchés_'
'agenda_'
'ure_'
'show_'
'seul_'
'objectif_'
'lorsque_'
'hommes_'
'fully_'
'established_'
'devraient_'
'June_'
'existe_'
'bring_'
'Ontario_'
'upon_'
'unique_'
'play_'
'greater_'
'environment_'
'débat_'
'donner_'
'crois_'
'Human_'
'vrai_'
'veut_'
'pu_'
'projects_'
'plutôt_'
'met_'
'fais_'
'especially_'
'avaient_'
'requirements_'
'provides_'
'heures_'
'above_'
'énergie_'
'lutte_'
'levels_'
'communauté_'
'appropriate_'
'Secrétaire_'
'ves_'
'seule_'
'occasion_'
'experience_'
'discrimination_'
'trouver_'
'run_'
'idée_'
'Germany_'
'29_'
' & _'
'ère_'
'society_'
'seen_'
'pay_'
'organisation_'
'individual_'
'house_'
'hard_'
'four_'
'coordination_'
'changes_'
'bar_'
'28_'
'talk_'
'stop_'
'parler_'
'itself_'
'intérêts_'
'Ne_'
'établissement_'
'won_'
'stratégie_'
'règlement_'
'plupart_'
'makes_'
'importante_'
'environmental_'
'commerce_'
'ayant_'
'avenir_'
'améliorer_'
'Japan_'
'utiliser_'
'took_'
'paragraph_'
'meet_'
'low_'
'central_'
'aspects_'
'May_'
'various_'
'told_'
'led_'
'job_'
'income_'
'travaux_'
'offre_'
'nécessaires_'
'moyens_'
'hand_'
'autant_'
'though_'
'tel_'
'sorry_'
'ligne_'
'leaders_'
'debt_'
'clients_'
'child_'
'technology_'
'rapporteur_'
'obtenir_'
'investment_'
'instruments_'
'create_'
'Groupe_'
'Are_'
'1997_'
'test_'
'progrès_'
'markets_'
'leave_'
'intérieur_'
'hours_'
'dépenses_'
'besoins_'
'Your_'
'September_'
'plans_'
'longer_'
'industry_'
'responsibility_'
'concerned_'
'addition_'
'Services_'
'Conference_'
'Board_'
'times_'
'states_'
'semble_'
'relatives_'
'propre_'
'price_'
'pourraient_'
'performance_'
'framework_'
'final_'
'everything_'
'East_'
'Bush_'
'26_'
' ; _'
'serious_'
'nce_'
'ire_'
'exercice_'
'wish_'
'renforcer_'
'live_'
'either_'
'ch_'
'ago_'
'Web_'
' « _'
'importe_'
'devant_'
'davantage_'
'choix_'
'permet_'
'organismes_'
'nationale_'
'legislation_'
'court_'
'train_'
'opportunity_'
'jeunes_'
'internationales_'
'Who_'
'République_'
'tions_'
'ted_'
'relative_'
'parents_'
'fiscal_'
'décisions_'
'deuxième_'
'certaines_'
'An_'
'wrong_'
'ty_'
'risques_'
'res_'
'nombreuses_'
'included_'
'financement_'
'ations_'
'ask_'
'views_'
'table_'
'strong_'
'sites_'
'personal_'
'os_'
'objet_'
'ness_'
'liste_'
'etc_'
'early_'
'démocratie_'
'civil_'
'capacité_'
'V_'
'Thank_'
'Qui_'
'First_'
'té_'
'strategy_'
'près_'
'natural_'
'fonction_'
'eurs_'
'durable_'
'direct_'
'choses_'
'House_'
'Dieu_'
'Can_'
' ..._'
'technical_'
'règles_'
'ront_'
'please_'
'governments_'
'Russia_'
'Israel_'
'types_'
'restaurant_'
'deal_'
'cultural_'
'aid_'
'&#_'
'provisions_'
'positive_'
'permettre_'
'offers_'
'doesn_'
'amount_'
'across_'
'Good_'
'school_'
'mind_'
'light_'
'decisions_'
'Of_'
'March_'
'1990_'
'towards_'
'techniques_'
'status_'
'safety_'
'rendre_'
'offer_'
'immigration_'
'http_'
'forward_'
'cinq_'
'big_'
'South_'
') (_'
'understand_'
'responsible_'
'propose_'
'mer_'
'By_'
'young_'
'turn_'
'source_'
'régime_'
'prise_'
'liberté_'
'lead_'
'involved_'
'increased_'
'différents_'
'crime_'
'additional_'
'Please_'
'Our_'
'H_'
'Court_'
'://_'
' «_'
' > _'
'structure_'
'single_'
'procédure_'
'move_'
'mort_'
'discussion_'
'standards_'
'significant_'
'responsabilité_'
'happened_'
'half_'
'along_'
'1996_'
'try_'
'side_'
'poverty_'
'fort_'
'effort_'
'déclaration_'
'considered_'
'behalf_'
'ate_'
'approche_'
'anti_'
'allow_'
'October_'
'Mrs_'
'wanted_'
'termes_'
'share_'
'participants_'
'ors_'
'na_'
'existing_'
'enfant_'
'dernières_'
'.”_'
'week_'
'reason_'
'mère_'
'living_'
'efficace_'
'conflict_'
'commercial_'
' / _'
'�_'
'tels_'
'sources_'
'solutions_'
'sent_'
'received_'
'idea_'
'celles_'
'came_'
'billion_'
'adoption_'
'Ã_'
'ways_'
'v_'
'sorte_'
'sense_'
'rule_'
'rapports_'
'quatre_'
'ity_'
'develop_'
'accordance_'
'Est_'
'1995_'
'étais_'
'ue_'
'propositions_'
'passer_'
'mondial_'
'interests_'
'engagement_'
'début_'
'benefits_'
'bas_'
'armes_'
'aime_'
'Dr_'
'Bank_'
'vertu_'
'thank_'
'reform_'
'nationales_'
'montant_'
'location_'
'known_'
'financière_'
'entreprise_'
'companies_'
'aura_'
'Some_'
'Allez_'
'traitement_'
'poor_'
'okay_'
'likely_'
'histoire_'
'heart_'
'charge_'
'avais_'
'assez_'
'Special_'
'Get_'
'père_'
'normes_'
'knowledge_'
'faveur_'
'construction_'
'conformément_'
'company_'
'Russie_'
'Quand_'
'self_'
'principe_'
'petite_'
'juin_'
'gouvernements_'
'domaines_'
'difficult_'
'almost_'
'Quoi_'
'Nord_'
'workers_'
'terrorisme_'
'ter_'
'proposals_'
'programs_'
'permis_'
'passe_'
'commitment_'
'collaboration_'
'changement_'
'chambre_'
'achieve_'
'After_'
'voie_'
'rapidement_'
'particulièrement_'
'loin_'
'fs_'
'bureau_'
'amendments_'
'Treaty_'
'ONU_'
'régions_'
'principles_'
'mêmes_'
'ier_'
'era_'
'domestic_'
'autorités_'
'Mon_'
'Department_'
'réunion_'
'remain_'
'persons_'
'juillet_'
'européens_'
'dirigeants_'
'balance_'
'bad_'
'ar_'
'W_'
'Look_'
'true_'
'suivi_'
'practice_'
'potential_'
'pauvreté_'
'nbsp_'
'guy_'
'co_'
'John_'
'Constitution_'
'Avec_'
'Allemagne_'
'2010_'
'ting_'
'quel_'
'nationaux_'
'employment_'
'annual_'
'UN_'
'Obama_'
'55_'
'éléments_'
'texte_'
'study_'
'request_'
'propos_'
'message_'
'later_'
'goods_'
'former_'
'ds_'
'double_'
'commun_'
'banks_'
'York_'
'British_'
'words_'
'treatment_'
'step_'
'porte_'
'influence_'
'industrie_'
'history_'
'grâce_'
'exchange_'
'else_'
'discussions_'
'contact_'
'auprès_'
'actually_'
'November_'
'Here_'
'top_'
'relation_'
'oil_'
'environ_'
'contributions_'
'concerns_'
'art_'
'actuelle_'
'Paris_'
'India_'
'Chinese_'
'90_'
'terrorism_'
'tenu_'
'return_'
'quite_'
'mai_'
'ine_'
'head_'
'demandé_'
'arrive_'
'Then_'
'K_'
'April_'
'surtout_'
'septembre_'
'réduire_'
'quelle_'
'possibilité_'
'lequel_'
'jeu_'
'improve_'
'image_'
'hear_'
'funding_'
'effect_'
'dû_'
'dès_'
'distribution_'
'demander_'
'côté_'
'Tribunal_'
'Public_'
'Did_'
'_'
'trying_'
'thus_'
'tard_'
'sustainable_'
'seems_'
'rest_'
'outside_'
'nécessité_'
'lorsqu_'
'intention_'
'banques_'
'abord_'
'Information_'
'études_'
'étude_'
' - _'
'providing_'
'property_'
'parmi_'
'novembre_'
'membre_'
'meilleure_'
'looking_'
'ia_'
'heure_'
'focus_'
'expected_'
'centrale_'
'Afghanistan_'
'80_'
'", _'
'telle_'
'technique_'
'réponse_'
'opérations_'
'located_'
'evidence_'
'bank_'
'agreements_'
'agencies_'
'X_'
'July_'
'similar_'
'response_'
'recommendations_'
'quelqu_'
'prises_'
'post_'
'parle_'
'opposition_'
'octobre_'
'nice_'
'dessus_'
'democracy_'
'consider_'
'changements_'
'below_'
'Or_'
'standard_'
'quant_'
'pratique_'
'modern_'
'législation_'
'haut_'
'ful_'
'fournir_'
'ex_'
'donne_'
'disposition_'
'concern_'
'Social_'
'Loi_'
'Economic_'
'w_'
'venir_'
'themselves_'
'near_'
'instrument_'
'increasing_'
'grandes_'
'funds_'
'comes_'
'body_'
'agreed_'
'activité_'
'Sud_'
'Party_'
'Parties_'
'zones_'
'répondre_'
'remains_'
'reduce_'
'produit_'
'parti_'
'importants_'
'game_'
'fine_'
'efficacité_'
'agree_'
'Division_'
'weapons_'
'regarding_'
'preuve_'
'nes_'
'infrastructure_'
'death_'
'concerning_'
'climate_'
'augmentation_'
'articles_'
'agriculture_'
'Indeed_'
'rait_'
'puis_'
'promouvoir_'
'privé_'
'origine_'
'official_'
'nations_'
'hold_'
'fundamental_'
'father_'
'créer_'
'consultations_'
'clearly_'
'active_'
'Moreover_'
'transition_'
'success_'
'space_'
'réduction_'
'language_'
'janvier_'
'intervention_'
'inflation_'
'consultation_'
'constitue_'
'actuellement_'
'absence_'
'Fund_'
'/ _'
'_'
'vois_'
'principal_'
'pratiques_'
'parts_'
'meilleur_'
'maison_'
'limited_'
'item_'
'ires_'
'défense_'
'dette_'
'demand_'
'applications_'
'Research_'
', "_'
'vigueur_'
'simply_'
'sait_'
'rural_'
'range_'
'procedures_'
'mandat_'
'ité_'
'frais_'
'asked_'
'West_'
'TV_'
'Madame_'
'Depuis_'
'Asia_'
'45_'
'♪ _'
'saying_'
'prices_'
'objectives_'
'minimum_'
'milliards_'
'mars_'
'ling_'
'lack_'
'intégration_'
'growing_'
'getting_'
'genre_'
'Notre_'
'January_'
'Go_'
'African_'
'soins_'
'principes_'
'nuit_'
'financières_'
'democratic_'
'code_'
'challenges_'
'Organization_'
'.  _'
'welcome_'
'valeurs_'
'telles_'
'soon_'
'niveaux_'
'gentlemen_'
'exploitation_'
'entendu_'
'difficile_'
'crimes_'
'confiance_'
'act_'
'Affairs_'
'traité_'
'statement_'
'regulation_'
'pouvons_'
'paid_'
'negotiations_'
'freedom_'
'fins_'
'financiers_'
'centres_'
'English_'
'56_'
'vision_'
'surveillance_'
'suivant_'
'submitted_'
'permanent_'
'internal_'
'friends_'
'follow_'
'excellent_'
'doute_'
'consensus_'
'communities_'
'commune_'
'communautaire_'
'Plus_'
'Où_'
'Because_'
'went_'
'tête_'
'station_'
'soir_'
'sociétés_'
'revenu_'
'promote_'
'minute_'
'manque_'
'content_'
'While_'
'Plan_'
'Ouais_'
'H'
'Conférence_'
'text_'
'protéger_'
'propres_'
'month_'
'model_'
'longtemps_'
'innovation_'
'grands_'
'fight_'
'faible_'
'esprit_'
'economies_'
'context_'
'century_'
'assessment_'
'représentants_'
'représentant_'
'representatives_'
'recently_'
'populations_'
'dis_'
'directly_'
'coûts_'
'alternative_'
'Members_'
'Asie_'
'200_'
'vas_'
'tenir_'
'saw_'
'require_'
'regions_'
'purpose_'
'procedure_'
'options_'
'nts_'
'essential_'
'easy_'
'démocratique_'
'currently_'
'civile_'
'apply_'
'accords_'
'Report_'
'North_'
'Director_'
'Agency_'
'établir_'
'toutefois_'
'semaine_'
'protect_'
'prevent_'
'prepared_'
'operations_'
'militaire_'
'faites_'
'facilities_'
'election_'
'effets_'
'directement_'
'différentes_'
'contexte_'
'clairement_'
'alone_'
'Ukraine_'
'Israël_'
'Fonds_'
'Association_'
'Après_'
'voulez_'
'planning_'
'mother_'
'matters_'
'exigences_'
'espère_'
'effects_'
'complete_'
'bodies_'
'beautiful_'
'basic_'
'adopté_'
'Turkey_'
'Pakistan_'
'M'
'); _'
'©_'
'spécial_'
'modèle_'
'condition_'
'ally_'
'01_'
'--_'
'élections_'
'woman_'
'travailleurs_'
'ten_'
'sir_'
'récemment_'
'puisse_'
'garantir_'
'everyone_'
'chef_'
'appelle_'
'appel_'
'ants_'
'Section_'
'Program_'
'Mission_'
'His_'
'ES_'
'wide_'
'web_'
'vont_'
'team_'
'talking_'
'soutenir_'
'situations_'
'rich_'
'option_'
'oeuvre_'
'late_'
'ks_'
'ir_'
'ique_'
'impossible_'
'girl_'
'event_'
'decided_'
'competition_'
'Western_'
'Code_'
'vient_'
'victimes_'
'values_'
'strategic_'
'réseau_'
'read_'
'rapide_'
'product_'
'obligation_'
'm'
'joint_'
'higher_'
'design_'
'bles_'
'atteindre_'
'answer_'
'ance_'
'ability_'
'Saint_'
'OK_'
'From_'
'vis_'
'sort_'
'siècle_'
'secteurs_'
'rise_'
'representative_'
'reported_'
'remember_'
'phase_'
'juridique_'
'internationaux_'
'ings_'
'guys_'
'décidé_'
'drug_'
'book_'
'amis_'
'Right_'
'Central_'
'57_'
'  _'
'“_'
'éviter_'
'élaboration_'
'throughout_'
'ready_'
'peuple_'
'peine_'
'oui_'
'nation_'
'morning_'
'libre_'
'ges_'
'expressed_'
'equipment_'
'emplois_'
'conséquences_'
'conclusion_'
'communications_'
'avril_'
'appui_'
'anglais_'
'administrative_'
'Kosovo_'
'Cour_'
'voiture_'
'town_'
'séance_'
'someone_'
'science_'
'reçu_'
'requires_'
'maximum_'
'majorité_'
'ladies_'
'fille_'
'created_'
'corruption_'
'Tous_'
'Gouvernement_'
'Cet_'
'works_'
'supported_'
'spending_'
'simplement_'
'receive_'
'prévention_'
'priority_'
'négociations_'
'lois_'
'financier_'
'expérience_'
'ante_'
'Japon_'
'): _'
'élevé_'
'« _'
' ?_'
'ures_'
'tour_'
'majority_'
'lives_'
'jouer_'
'euros_'
'establishment_'
'dead_'
'applicable_'
'américain_'
'ale_'
'HIV_'
'35_'
'uses_'
'technologie_'
'succès_'
'réforme_'
'reasons_'
'publiques_'
'presque_'
'org_'
'ke_'
'investissement_'
'hell_'
'die_'
'der_'
'demandes_'
'cy_'
'concurrence_'
'carte_'
'biens_'
'analysis_'
'X'
'Inde_'
'Banque_'
'yourself_'
'trouvé_'
'takes_'
'stability_'
'sanctions_'
'route_'
'recommandations_'
'propriété_'
'probably_'
'prison_'
'previous_'
'organization_'
'km_'
'includes_'
'gender_'
'federal_'
'entrée_'
'déclaré_'
'destruction_'
'credit_'
'conclusions_'
'concept_'
'brought_'
'analyse_'
'Cependant_'
'Bon_'
'=_'
'ères_'
'x'
'sociaux_'
'record_'
'publics_'
'principaux_'
'existence_'
'elections_'
'disponibles_'
'consideration_'
'according_'
']_'
'THE_'
'Son_'
'Since_'
'Other_'
'Même_'
'500_'
'02_'
'volonté_'
'visit_'
'supply_'
'sound_'
'raisons_'
'material_'
'killed_'
'capacités_'
'budgétaire_'
'américaine_'
'aire_'
'addressed_'
'word_'
'whose_'
'stabilité_'
'réalité_'
'partenaires_'
'opportunities_'
'meetings_'
'ley_'
'leadership_'
'investissements_'
'essentiel_'
'entire_'
'contained_'
'comprendre_'
'approved_'
'activity_'
'Working_'
'Uh_'
'R'
'Institute_'
'High_'
'Action_'
'+_'
'uniquement_'
'terrain_'
'style_'
'présidence_'
'procédures_'
'phone_'
'original_'
'milieu_'
'lle_'
'leading_'
'jobs_'
'heard_'
'film_'
'ey_'
'establish_'
'designed_'
'coup_'
'aware_'
'avantages_'
'amélioration_'
'allowed_'
'Irak_'
'* _'
'wants_'
'speak_'
'ser_'
'savez_'
'référence_'
'rester_'
'province_'
'prend_'
'laisser_'
'isn_'
'implement_'
'figure_'
'distance_'
'cycle_'
'coût_'
'connection_'
'conférence_'
'conflit_'
'causes_'
'breakfast_'
'agents_'
'University_'
'Palestinian_'
'Commissaire_'
'Ah_'
'échange_'
'» _'
'traditional_'
'risks_'
'revenus_'
'red_'
'provision_'
'principle_'
'pied_'
'news_'
'mode_'
'individuals_'
'gone_'
'encourage_'
'da_'
'committed_'
'check_'
'board_'
'ated_'
'assurance_'
'although_'
'Women_'
'German_'
'Finally_'
'Agreement_'
'32_'
'1994_'
'wait_'
'union_'
'structures_'
'plein_'
'nte_'
'ground_'
'gas_'
'danger_'
'consommateurs_'
'class_'
'build_'
'Italy_'
' % _'
'ues_'
'transports_'
'thinking_'
'sud_'
'stable_'
'says_'
'safe_'
'réformes_'
'reach_'
'présence_'
'ping_'
'noted_'
'net_'
'media_'
'industrial_'
'images_'
'fire_'
'external_'
'estime_'
'espace_'
'dispose_'
'ding_'
'devenir_'
'crédit_'
'crucial_'
'conséquent_'
'committee_'
'carried_'
'behind_'
'assets_'
'ais_'
'Policy_'
'Elles_'
' $ _'
'◦ _'
'understanding_'
'sociales_'
'signifie_'
'résultat_'
'patients_'
'nucléaire_'
'ler_'
'iques_'
'institution_'
'importantes_'
'enseignement_'
'dix_'
'cut_'
'ary_'
'apporter_'
'adhésion_'
'accept_'
'Korea_'
'Even_'
'Enfin_'
'violations_'
'via_'
'troisième_'
'successful_'
'started_'
'requested_'
'peur_'
'objective_'
'ner_'
'liés_'
'increasingly_'
'events_'
'employés_'
'délégation_'
'dollar_'
'cal_'
'February_'
'70_'
'1er_'
'1992_'
',” _'
'écrit_'
'travers_'
'stage_'
'seem_'
'salle_'
'représente_'
'pêche_'
'présenté_'
'présenter_'
'proposé_'
'practices_'
'poste_'
'partners_'
'lost_'
'guide_'
'français_'
'difficultés_'
'corps_'
'continuer_'
'consommation_'
'collègues_'
'ard_'
'Communauté_'
'AIDS_'
'équipe_'
'émissions_'
'walk_'
'votes_'
'voix_'
'travailler_'
'torture_'
'tandis_'
'série_'
'stand_'
'responsables_'
'regime_'
'presented_'
'perspective_'
'pauvres_'
'ministère_'
'labour_'
'kill_'
'ive_'
'integration_'
'finance_'
'factors_'
'eaux_'
'delegation_'
'cover_'
'client_'
'clair_'
'bus_'
'associated_'
'allez_'
'agricultural_'
'ad_'
'actuel_'
'ables_'
'S'
'Q'
'Premier_'
'Ministère_'
'Ma_'
'EUR_'
'75_'
'échelle_'
'terre_'
'taxes_'
'restrictions_'
'renforcement_'
'regulations_'
'reference_'
'perhaps_'
'operation_'
'mandate_'
'lower_'
'huge_'
'gouvernementales_'
'gave_'
'enjoy_'
'divers_'
'continued_'
'ck_'
'benefit_'
'bed_'
'appliquer_'
'annexe_'
'War_'
'Toutefois_'
'Such_'
'See_'
'Room_'
'More_'
'Management_'
'Arab_'
'yeux_'
'uh_'
'trust_'
'sang_'
'photo_'
'participer_'
'offrir_'
'monitoring_'
'looks_'
'fond_'
'fils_'
'facile_'
'exécution_'
'départ_'
'authority_'
'affected_'
'Voilà_'
'Maybe_'
'Ainsi_'
'33_'
'âge_'
'tiers_'
'sation_'
'road_'
'publication_'
'pression_'
'monétaire_'
'internet_'
'indeed_'
'humanitarian_'
'février_'
'fall_'
'enable_'
'disponible_'
'conflits_'
'clean_'
'circumstances_'
'cependant_'
'agir_'
'V'
'George_'
'58_'
'économies_'
'wasn_'
'urgence_'
'threat_'
'suit_'
'strengthen_'
'ship_'
'pretty_'
'places_'
'examiner_'
'ensuite_'
'demain_'
'conference_'
'computer_'
'combat_'
'carry_'
'août_'
'anyone_'
'ahead_'
'Rapporteur_'
'Middle_'
'Law_'
'Justice_'
'I'
'Business_'
'Although_'
'36_'
' ? _'
'zation_'
'users_'
'suivre_'
'réalisation_'
'rons_'
'reduction_'
'prochaine_'
'petits_'
'permettant_'
'officials_'
'laws_'
'knew_'
'guidelines_'
'guarantee_'
'friend_'
'file_'
'derniers_'
'chinois_'
'beginning_'
'arrangements_'
'arms_'
'achieved_'
'Thanks_'
'Many_'
'Like_'
'L'
' ‘_'
'ème_'
'ze_'
'utilisé_'
'studies_'
'size_'
'sex_'
'relationship_'
'recours_'
'radio_'
'press_'
'lesquels_'
'gc_'
'expression_'
'cœur_'
'creation_'
'attendre_'
'américains_'
'amendements_'
'Selon_'
'Russian_'
'Note_'
'G'
'Ca_'
'August_'
' . _'
'véritable_'
'steps_'
'reporting_'
'provincial_'
'pressure_'
'payer_'
'independent_'
'hour_'
'highly_'
'hands_'
'giving_'
'contribute_'
'choice_'
'calls_'
'border_'
'became_'
'affaire_'
'St_'
'Most_'
'Maintenant_'
'Israeli_'
'Great_'
'.._'
' ♪_'
' », _'
'viens_'
'ring_'
'ries_'
'reached_'
'presse_'
'normal_'
'network_'
'mine_'
'locaux_'
'forte_'
'forms_'
'extent_'
'evaluation_'
'européennes_'
'critères_'
'comprehensive_'
'challenge_'
'chacun_'
'candidats_'
'amendement_'
'accident_'
'USA_'
'Turquie_'
'GDP_'
'E'
'During_'
'34_'
'É'
'transfer_'
'students_'
'régional_'
'remercier_'
'rai_'
'purposes_'
'probablement_'
'payment_'
'nord_'
'langue_'
'indiqué_'
'fut_'
'enquête_'
'développer_'
'drive_'
'door_'
'convient_'
'convention_'
'contract_'
'beyond_'
'agent_'
'added_'
'Spain_'
'Force_'
'Financial_'
'Air_'
'03_'
' -- _'
'égalité_'
'tte_'
'tiens_'
'territoire_'
'ss_'
'seraient_'
'semaines_'
'réunions_'
'resolutions_'
'referred_'
'processes_'
'pages_'
'knows_'
'issued_'
'goes_'
'export_'
'documentation_'
'criminal_'
'contenu_'
'compétences_'
'charges_'
'average_'
'armée_'
'Two_'
'Trade_'
'Sur_'
'People_'
'P'
'Inc_'
'III_'
'City_'
'Certains_'
'CN_'
'époque_'
'wife_'
'travel_'
'stated_'
'sign_'
'shows_'
'produced_'
'petites_'
'notes_'
'music_'
'moyenne_'
'menace_'
'juridiques_'
'iers_'
'faisant_'
'expert_'
'equal_'
'details_'
'comptes_'
'comprend_'
'claims_'
'choose_'
'canadien_'
'aurais_'
'applied_'
'ancien_'
'Peut_'
'LA_'
'Forum_'
'1'
'. '
'évolution_'
' » _'
'youth_'
'weeks_'
'vite_'
'tuer_'
'responsable_'
'puissance_'
'méthodes_'
'mots_'
'mentioned_'
'mail_'
'i'
'happen_'
'frontières_'
'front_'
'favour_'
'endroit_'
'durant_'
'croire_'
'critical_'
'consequences_'
'comfortable_'
'certainly_'
'biais_'
'appear_'
'Rapport_'
'Québec_'
'Orient_'
'OF_'
'N'
'Messieurs_'
'David_'
') '
'zed_'
'truth_'
'situé_'
'setting_'
'scale_'
'rie_'
'offices_'
'militaires_'
'introduction_'
'initial_'
'farmers_'
'fair_'
'failed_'
'extremely_'
'employees_'
'diverses_'
'directives_'
'confidence_'
'canadienne_'
'ami_'
'accepter_'
'Donc_'
'59_'
'–_'
'worked_'
'vivre_'
'virus_'
'utilisateurs_'
'schools_'
'sale_'
'reality_'
'overall_'
'ouverture_'
'monetary_'
'leader_'
'largest_'
'interested_'
'ins_'
'improved_'
'identify_'
'families_'
'exception_'
'ens_'
'earlier_'
'déterminer_'
'directeur_'
'devait_'
'claim_'
'capable_'
'bit_'
'actes_'
'Windows_'
'Votre_'
'Protocol_'
'J'
'Add_'
'A'
'51_'
'49_'
', '
'user_'
'usage_'
'substances_'
'shown_'
'series_'
'satisfaction_'
'résoudre_'
'relating_'
'primary_'
'possibility_'
'perdu_'
'paper_'
'online_'
'myself_'
'modifications_'
'missions_'
'medical_'
'massive_'
'liées_'
'happy_'
'goal_'
'fera_'
'fear_'
'désormais_'
'créé_'
'connaissances_'
'compliance_'
'complex_'
'campagne_'
'attitude_'
'animal_'
'Regional_'
'Have_'
'EN_'
'? - _'
'54_'
'tomorrow_'
'stuff_'
'sing_'
'search_'
'relatif_'
'pose_'
'portant_'
'physical_'
'parvenir_'
'médias_'
'moitié_'
'mechanisms_'
'lignes_'
'identified_'
'ian_'
'humains_'
'himself_'
'gaz_'
'garde_'
'entitled_'
'efficaces_'
'disease_'
'devez_'
'continues_'
'comité_'
'chercher_'
'boy_'
'aimed_'
'acceptable_'
'D'
'Congo_'
'300_'
'ying_'
'win_'
'w'
'victims_'
'veulent_'
'supplémentaires_'
'satellite_'
'reforms_'
'priorities_'
'peuples_'
'parfois_'
'package_'
'outcome_'
'n'
'methods_'
'liens_'
'licence_'
'invite_'
'iez_'
'grave_'
'entier_'
'duty_'
'durée_'
'creating_'
'couple_'
'commissaire_'
'classe_'
'chemin_'
'awareness_'
'amour_'
'ages_'
'add_'
'Rome_'
'@_'
'1991_'
' ! _'
'ya_'
'thanks_'
'strategies_'
'statut_'
'retour_'
'prêt_'
'prévu_'
'profit_'
'priorité_'
'pouvait_'
'positions_'
'politics_'
'numéro_'
'ms_'
'legislative_'
'insurance_'
'ines_'
'gros_'
'fonctions_'
'envers_'
'emissions_'
'contains_'
'completely_'
'compensation_'
'commerciaux_'
'certaine_'
'card_'
'campaign_'
'begin_'
'acts_'
'T'
'Prime_'
'Portugal_'
'Foreign_'
'Déclaration_'
'99_'
'39_'
'06_'
' »._'
'whom_'
'statistiques_'
'statements_'
'scope_'
'resource_'
'nucléaires_'
'nor_'
'mauvais_'
'maintenir_'
'locales_'
'journée_'
'faciliter_'
'exactly_'
'elements_'
'defined_'
'damage_'
'cross_'
'continent_'
'consumption_'
'constitution_'
'commencé_'
'commencer_'
'cancer_'
'VIH_'
'Sous_'
'Secretariat_'
'Paul_'
'Ms_'
'Food_'
'Etat_'
'Cuba_'
'B'
'élément_'
'zing_'
'vital_'
'village_'
'ties_'
'story_'
'shot_'
'réserve_'
'régionaux_'
'pétrole_'
'prêts_'
'pourra_'
'mécanismes_'
'maybe_'
'materials_'
'maintien_'
'maintain_'
'king_'
'join_'
'ism_'
'implemented_'
'ii_'
'goals_'
'faits_'
'défis_'
'despite_'
'constituent_'
'conscience_'
'connais_'
'completed_'
'chômage_'
'San_'
'K'
'Global_'
'05_'
'– _'
'établissements_'
'voted_'
'useful_'
'stock_'
'species_'
'souhaite_'
'skills_'
'seven_'
'serve_'
'scientifiques_'
'scientific_'
'running_'
'recognition_'
'quickly_'
'procès_'
'parlé_'
'montrer_'
'manner_'
'inside_'
'industries_'
'impression_'
'immediately_'
'enlargement_'
'em_'
'currency_'
'contraire_'
'consumers_'
'communautés_'
'changed_'
'began_'
'auteur_'
'adresse_'
'accepted_'
'Today_'
'Summit_'
'Santé_'
'Presidency_'
'ON_'
'Mesdames_'
'Directive_'
'Canadiens_'
'C'
'42_'
'1993_'
' " _'
'étrangère_'
'étrangers_'
'tellement_'
'taille_'
'soumis_'
'réglementation_'
'records_'
'produce_'
'powers_'
'médicaments_'
'musique_'
'movement_'
'loss_'
'lit_'
'lettre_'
'j'
'intended_'
'hit_'
'gain_'
'feu_'
'features_'
'failure_'
'f'
'erreur_'
'efficient_'
'contrat_'
'collection_'
'chargé_'
'U'
'Sans_'
'Royaume_'
'Rien_'
'Mexico_'
'Ireland_'
'Grande_'
'Date_'
'Chairman_'
'Bonjour_'
'Avant_'
'Administration_'
'37_'
'," _'
'étrangères_'
'´_'
'voulais_'
'stratégique_'
'send_'
'relatifs_'
'ratification_'
'priorités_'
'ouverte_'
'ones_'
'moral_'
'maladie_'
'machine_'
'lumière_'
'institutional_'
'improving_'
'id_'
'humaine_'
'governmental_'
'gotta_'
'gars_'
'g'
'friendly_'
'financing_'
'eyes_'
'ements_'
'determine_'
'crises_'
'appelé_'
'WP_'
'Project_'
'Ottawa_'
'Only_'
'Latin_'
'Hello_'
'Governments_'
'Espagne_'
'Environment_'
'Any_'
' ... _'
' :_'
'tools_'
'tirer_'
'tendance_'
'software_'
'regular_'
'prevention_'
'planification_'
'perfect_'
'méthode_'
'meilleurs_'
'hausse_'
'fish_'
'fast_'
'exist_'
'emerging_'
'effectively_'
'difference_'
'couldn_'
'contient_'
'conduct_'
'arrêter_'
'amendment_'
'aires_'
'adopter_'
'Washington_'
'Under_'
'Règlement_'
'Point_'
'Ko'
'Kingdom_'
'IT_'
'ET_'
'CE_'
'Al_'
'AC_'
'47_'
'évaluer_'
'étranger_'
'école_'
'y'
'vente_'
'unemployment_'
'undertaken_'
'tried_'
'traiter_'
'séjour_'
'star_'
'servir_'
'sectors_'
'secret_'
'sea_'
'régionales_'
'réaliser_'
'relativement_'
'race_'
'port_'
'pollution_'
'maladies_'
'longue_'
'lesquelles_'
'languages_'
'k'
'interne_'
'installations_'
'identification_'
'heureux_'
'ga_'
'formes_'
'format_'
'faite_'
'entry_'
'enfin_'
'déclarations_'
'differences_'
'cuisine_'
'conseil_'
'closed_'
'caractère_'
'baby_'
'autorité_'
'attend_'
'accent_'
'Wait_'
'Uni_'
'Très_'
'Table_'
'Nice_'
'Federal_'
'Eh_'
'Agence_'
'48_'
'43_'
'2'
'1980_'
'événements_'
'établi_'
'wouldn_'
'waiting_'
'ver_'
'téléphone_'
'tué_'
'transparence_'
'tenue_'
'surface_'
'suivants_'
'strengthening_'
'stocks_'
'save_'
'recognized_'
'puissent_'
'payments_'
'partout_'
'ordinateur_'
'montre_'
'limit_'
'illegal_'
'généralement_'
'governance_'
'globale_'
'facteurs_'
'extérieur_'
'encourager_'
'easily_'
'déjeuner_'
'devoir_'
'conséquence_'
'collective_'
'camp_'
'bois_'
'blood_'
'b'
'aim_'
'adequate_'
'accessible_'
'Take_'
'Second_'
'Q_'
'Ministry_'
'Lorsque_'
'Initiative_'
'Egypt_'
'Each_'
'Directeur_'
'95_'
'voulons_'
'venu_'
'u'
'tradition_'
'target_'
'sport_'
'signed_'
's'
'restaurants_'
'rendu_'
'professional_'
'principalement_'
'peoples_'
'mass_'
'marchandises_'
'links_'
'letter_'
'interventions_'
'index_'
'humaines_'
'haute_'
'familles_'
'expect_'
'expansion_'
'empêcher_'
'emergency_'
'dy_'
'dimension_'
'cher_'
'RO'
'Quel_'
'Part_'
'PIB_'
'Madam_'
'La'
'Ja'
'IC'
'Gaza_'
'F'
'Aboriginal_'
'04_'
'”._'
'”, _'
'yes_'
'written_'
'whatever_'
'vise_'
'urgent_'
'télévision_'
'totalement_'
'totale_'
'sortir_'
'sommet_'
'reviews_'
'release_'
'published_'
'principales_'
'president_'
'photos_'
'parking_'
'ot_'
'obstacles_'
'matériel_'
'limits_'
'laisse_'
'girls_'
'facilitate_'
'extension_'
'explain_'
'exercise_'
'ensuring_'
'dossier_'
'delivery_'
'dehors_'
'decline_'
'd'
'criteria_'
'core_'
'consumer_'
'club_'
'caused_'
'break_'
'aspect_'
'advance_'
'Y'
'Sorry_'
'Safety_'
'Moi_'
'Hi_'
'Charter_'
'Brazil_'
'According_'
'96_'
'52_'
'44_'
'38_'
'). _'
'èrent_'
'ys_'
'unless_'
'tribunal_'
'trait_'
'task_'
'sse_'
'sexual_'
'régionale_'
'religion_'
'ps_'
'prévoit_'
'possibilités_'
'pension_'
'particulière_'
'malgré_'
'largement_'
'historical_'
'fonctionnement_'
'fonctionnaires_'
'filles_'
'files_'
'decide_'
'cultures_'
'cs_'
'compter_'
'association_'
'allows_'
'advantage_'
'adopt_'
'accueil_'
'Salut_'
'Présidente_'
'Protection_'
'Moyen_'
'Declaration_'
'$_'
'website_'
'video_'
'veiller_'
'variety_'
'tic_'
'territory_'
'reconnaissance_'
'recevoir_'
'quement_'
'practical_'
'patient_'
'parole_'
'multi_'
'mot_'
'menu_'
'matin_'
'link_'
'kids_'
'je'
'integrated_'
'instead_'
'guess_'
'fer_'
'eight_'
'délai_'
'doubt_'
'discussed_'
'disarmament_'
'di_'
'competitive_'
'commissions_'
'comments_'
'ch'
'armed_'
'allons_'
'ain_'
'agricole_'
'advice_'
'Those_'
'Rooms_'
'O'
'Jean_'
'Jack_'
'Italie_'
'Irlande_'
'-- _'
'étoiles_'
'writing_'
'utilisés_'
'substance_'
'served_'
'rend_'
'reflect_'
'recommended_'
'reading_'
'proper_'
'prior_'
'presence_'
'pouvoirs_'
'postes_'
'pleinement_'
'pass_'
'ning_'
'mouvement_'
'ministres_'
'lien_'
'l'
'jeune_'
'isme_'
'inter_'
'ideas_'
'hurt_'
'hot_'
'fondamentaux_'
'followed_'
'developments_'
'determined_'
'dessous_'
'default_'
'dealing_'
'conservation_'
'conception_'
'communes_'
'clé_'
'climatique_'
'buy_'
'belle_'
'avoid_'
'animaux_'
'alimentaire_'
'W'
'Ra'
'Nothing_'
'Italian_'
'Hé_'
'FI'
'Cor'
'Accord_'
': (_'
': "_'
'800_'
'1989_'
'. - (_'
'visite_'
'vehicle_'
'transmission_'
'tonight_'
'terres_'
'stress_'
'street_'
'ste_'
'spécifiques_'
'sol_'
'sion_'
'réception_'
'planned_'
'placed_'
'participate_'
'neither_'
'names_'
'mains_'
'kept_'
'infrastructures_'
'informed_'
'indispensable_'
'indicated_'
'incidence_'
'hors_'
'ha_'
'ence_'
'efficiency_'
'drugs_'
'decade_'
'becoming_'
'adoptée_'
'Voici_'
'UNESCO_'
'Michael_'
'Co'
'Américains_'
';&#_'
'400_'
'11'
'"'
'worry_'
'vérité_'
'toward_'
'terrorist_'
'suivante_'
'stratégies_'
'spirit_'
'spend_'
'réfugiés_'
'responsabilités_'
'premières_'
'pre_'
'pourtant_'
'pe_'
'partis_'
'operating_'
'opening_'
'offered_'
'modification_'
'moderne_'
'membership_'
'medium_'
'marche_'
'implementing_'
'helped_'
'he'
'fun_'
'frère_'
'forced_'
'floor_'
'finances_'
'finally_'
'famous_'
'elected_'
'définition_'
'delà_'
'degree_'
'decades_'
'connu_'
'chefs_'
'changer_'
'bonnes_'
'autour_'
'announced_'
'Yet_'
'Regulation_'
'RA'
'Ne'
'LE_'
'Education_'
'Ben_'
'Aujourd_'
' -_'
'vieux_'
'v'
'utile_'
'truc_'
'transactions_'
'telephone_'
'supporting_'
'suggest_'
'stronger_'
'speed_'
'shit_'
'seeking_'
'seek_'
'respecter_'
'regulatory_'
'reduced_'
'promise_'
'otherwise_'
'opinions_'
'occupation_'
'moving_'
'mines_'
'lie_'
'installation_'
'humain_'
'housing_'
'express_'
'engagements_'
'ended_'
'discuss_'
'customers_'
'consistent_'
'consiste_'
'communautaires_'
'chances_'
'associations_'
'accroître_'
'Tell_'
'SA'
'PC_'
'Once_'
'LI'
'Institut_'
'FAO_'
'Executive_'
'Description_'
'Ceci_'
'07_'
'élargissement_'
'écoles_'
'voulait_'
'van_'
'tri'
'tient_'
'terroristes_'
'sts_'
'sm_'
'relatively_'
'précisément_'
'provinces_'
'pourrez_'
'popular_'
'perte_'
'partnership_'
'ongoing_'
'merci_'
'lose_'
'it'
'idées_'
'historique_'
'guests_'
'fédéral_'
'function_'
'ff_'
'felt_'
'exports_'
'ethnic_'
'entendre_'
'effectiveness_'
'députés_'
'draw_'
'dossiers_'
'died_'
'described_'
'deep_'
'copy_'
'contribuer_'
'commerciales_'
'circulation_'
'choisir_'
'ceci_'
'calling_'
'bre'
'bientôt_'
'arriver_'
'argument_'
'appeler_'
'Will_'
'Regulations_'
'PA'
'Over_'
'OR_'
'Na'
'Mar'
'Lisbon_'
'Grand_'
'Du_'
'Chief_'
'Booking_'
''._'
'élaborer_'
'wanna_'
'volume_'
'violation_'
'sta'
'sida_'
'sed_'
'secrétariat_'
'scientifique_'
'règle_'
'pourrais_'
'perdre_'
'partner_'
'mondialisation_'
'mec_'
'ma'
'limites_'
'lieux_'
'learn_'
'lancer_'
'immediate_'
'ging_'
'fucking_'
'faudra_'
'eurozone_'
'discours_'
'dangerous_'
'connaître_'
'compromis_'
'built_'
'bord_'
'ajouter_'
'Street_'
'Mac'
'MA'
'Japanese_'
'Islamic_'
'Greece_'
'CI'
'Asian_'
'Also_'
'%._'
'électronique_'
'worth_'
'watch_'
'transfert_'
'trans'
'supports_'
'subventions_'
'submit_'
'starting_'
'sometimes_'
'résolutions_'
'recovery_'
'professionnels_'
'pro'
'poser_'
'pleine_'
'pièces_'
'perspectives_'
'per'
'p'
'orientation_'
'nouvel_'
'mises_'
'mis'
'measure_'
'ki_'
'keeping_'
'ka_'
'items_'
'ise_'
'identité_'
'haven_'
'garder_'
'fuel_'
'fighting_'
'detailed_'
'connaissance_'
'comprends_'
'compared_'
'che_'
'chapitre_'
'catégorie_'
'bar'
'auront_'
'arrivé_'
'approval_'
'Z'
'Vice_'
'Ta'
'Ri'
'RE_'
'Pourtant_'
'Poland_'
'PC'
'Ok_'
'London_'
'Hamas_'
'CD_'
'53_'
'ya'
'véhicules_'
'voisins_'
'unité_'
'transparency_'
'supposed_'
'suppose_'
'spent_'
'souligner_'
'situated_'
'seuls_'
'sentiment_'
'règlements_'
'ro_'
'rising_'
'recherches_'
'rd_'
'publications_'
'prove_'
'produire_'
'prochain_'
'poursuivre_'
'playing_'
'permettent_'
'partage_'
'ob'
'nearly_'
'mécanisme_'
'mobile_'
'method_'
'manage_'
'logiciel_'
'livre_'
'langues_'
'investigation_'
'instance_'
'individus_'
'granted_'
'firms_'
'extrêmement_'
'extra_'
'continuing_'
'contain_'
'considère_'
'conducted_'
'autochtones_'
'auquel_'
'approbation_'
'ah_'
'achieving_'
'achat_'
'Stop_'
'Spanish_'
'Quelle_'
'Microsoft_'
'Me_'
'Ku'
'IS_'
'Haut_'
'Furthermore_'
'EC_'
'Chaque_'
'Canadians_'
'0'
' = _'
'  _'
'yeah_'
'voté_'
'voting_'
'track_'
'thousands_'
'supplémentaire_'
'standing_'
'sortie_'
'so'
'raised_'
'promoting_'
'planète_'
'penser_'
'ory_'
'operational_'
'officers_'
'observations_'
'ny_'
'naturelles_'
'modifier_'
'mo'
'mark_'
'learning_'
'latest_'
'invited_'
'immigrants_'
'identity_'
'ide_'
'grow_'
'garantie_'
'fédérale_'
'fichiers_'
'exprimer_'
'exportations_'
'entièrement_'
'enter_'
'ely_'
'eligible_'
'e'
'coeur_'
'cherche_'
'champ_'
'center_'
'baisse_'
'avantage_'
'augmenter_'
'ating_'
'advanced_'
'\\_'
'Ya'
'Ver'
'Un'
'Red_'
'LE'
'LA'
'Its_'
'Democratic_'
'Bar'
'27'
'24'
', “_'
'étape_'
'équilibre_'
' '
'za'
'vulnerable_'
'unies_'
'trafic_'
'tableau_'
'sérieux_'
'spéciale_'
'sharing_'
'shared_'
'sept_'
'rue_'
'rice_'
'respond_'
'rent_'
'recognize_'
'proximité_'
'probable_'
'potentiel_'
'porter_'
'plaît_'
'pi'
'percent_'
'organisme_'
'oral_'
'numbers_'
'networks_'
'middle_'
'mi_'
'lutter_'
'lines_'
'judicial_'
'ite_'
'gets_'
'generally_'
'fisheries_'
'facilement_'
'equality_'
'enhance_'
'doctor_'
'daily_'
'continuent_'
'conseils_'
'commitments_'
'cinquante_'
'cation_'
'budgétaires_'
'bout_'
'auraient_'
'appears_'
'als_'
'alinéa_'
'accorder_'
'accession_'
'a'
'Toutes_'
'RE'
'Peter_'
'Pendant_'
'Lu'
'Framework_'
'DA'
'CE'
'AC'
'31'
'échanges_'
'worldwide_'
'tâche_'
'tor'
'te'
'supérieur_'
'suffisamment_'
'sub_'
'separate_'
'sauf_'
'revoir_'
'reducing_'
'procéder_'
'proche_'
'privée_'
'plaisir_'
'personnels_'
'organized_'
'observer_'
'né_'
'mm_'
'mention_'
'meilleures_'
'matières_'
'managed_'
'lt_'
'ka'
'introduced_'
'increases_'
'ina'
'forest_'
'figures_'
'explique_'
'expertise_'
'electronic_'
'department_'
'consolidation_'
'conduit_'
'compromise_'
'composition_'
'comportement_'
'commentaires_'
'combien_'
'clés_'
'ci'
'capitaux_'
'budgets_'
'bathroom_'
'attacks_'
'agissant_'
'Toronto_'
'Parce_'
'Nouvelle_'
'Ni'
'Excuse_'
'Deux_'
'Debian_'
'Christ_'
'Annex_'
'Alberta_'
'Advisory_'
'AND_'
'65_'
'46_'
'3'
'vol_'
'villes_'
'universal_'
'turned_'
'trouvent_'
'trial_'
'sujets_'
'structural_'
'speaking_'
'siège_'
'sales_'
'réalisés_'
'round_'
'responsibilities_'
'refugees_'
'pleased_'
'pensais_'
'organes_'
'opened_'
'ok_'
'ne'
'limite_'
'largely_'
'ko'
'ist_'
'holding_'
'historic_'
'hi_'
'gains_'
'fête_'
'fuck_'
'forum_'
'feeling_'
'examine_'
'eat_'
'difficulties_'
'del_'
'courant_'
'contacts_'
'communiquer_'
'commence_'
'certainement_'
'catégories_'
'candidate_'
'born_'
'attack_'
'asking_'
'architecture_'
'appeal_'
'alliance_'
'aliments_'
'actifs_'
'UNICEF_'
'Review_'
'Representative_'
'Regarde_'
'RI'
'NE'
'Corée_'
'Christian_'
'Che'
'Bo'
'30'
'150_'
'10'
');_'
'élevés_'
'wood_'
'voyage_'
'vaut_'
'terrible_'
't'
'suivantes_'
'spread_'
'soi_'
'sme_'
'secretariat_'
'seconde_'
'reprise_'
'reconnaître_'
'puisque_'
'pool_'
'players_'
'picture_'
'obtained_'
'multilateral_'
'marque_'
'larger_'
'lancé_'
'ial_'
'hier_'
'gouvernance_'
'forget_'
'feature_'
'faudrait_'
'exposition_'
'espoir_'
'entrer_'
'enterprises_'
'enregistrement_'
'enquêtes_'
'délégations_'
'définir_'
'déficit_'
'défi_'
'da'
'cro'
'corporate_'
'considerable_'
'compétence_'
'competitiveness_'
'borders_'
'arabe_'
'agency_'
'actual_'
'abuse_'
'absolutely_'
'Very_'
'Use_'
'Traité_'
'System_'
'Se'
'Panel_'
'NO'
'Meeting_'
'Malgré_'
'Lo'
'Lisbonne_'
'Forces_'
'Europeans_'
'Does_'
'DES_'
'Corporation_'
'Children_'
'Car_'
'Berlin_'
'Another_'
'Americans_'
'AT'
' : « _'
'white_'
'waste_'
'vingt_'
'ur'
'under'
'una'
'ttes_'
'traitements_'
'temporary_'
'survey_'
'suffit_'
'sides_'
'sessions_'
'semblent_'
'sant_'
'réussi_'
'réponses_'
'régler_'
'réalisé_'
'requests_'
'religious_'
'relief_'
'released_'
'recettes_'
'reasonable_'
'raise_'
'publié_'
'présentation_'
'provenant_'
'prie_'
'politicians_'
'played_'
'partenariat_'
'paiement_'
'organisé_'
'offering_'
'ntes_'
'minorités_'
'imagine_'
'ill_'
'hospital_'
'helpful_'
'gauche_'
'follows_'
'fit_'
'faith_'
'faisait_'
'expliquer_'
'easier_'
'diversity_'
'dinner_'
'devient_'
'departments_'
'definition_'
'ded_'
'daughter_'
'correct_'
'conventions_'
'controls_'
'consultatif_'
'considéré_'
'cash_'
'businesses_'
'box_'
'assure_'
'annex_'
'alive_'
'agricoles_'
'actuelles_'
'Would_'
'Université_'
'TI'
'Sir_'
'Pro'
'Park_'
'Palestine_'
'Martin_'
'Last_'
'Guide_'
'FMI_'
'Church_'
'Both_'
'Amendment_'
'Alliance_'
'Agriculture_'
'5'
'20'
'1988_'
'08_'
'twenty_'
'tribunaux_'
'treaty_'
'tool_'
'telling_'
'suggested_'
'substantial_'
'seriously_'
'returned_'
'reconnu_'
'recommande_'
'rapid_'
'quiet_'
'profiter_'
'producteurs_'
'pro_'
'notice_'
'neuf_'
'mètres_'
'messages_'
'linked_'
'leaving_'
'juge_'
'ira_'
'inspection_'
'innovative_'
'ideal_'
'hip_'
'gérer_'
'gives_'
'ger_'
'fund_'
'fortement_'
'ferme_'
'den_'
'dangereux_'
'compétitivité_'
'closely_'
'carbon_'
'bu'
'brother_'
'britannique_'
'beau_'
'ass_'
'appuyer_'
'acteurs_'
'WIPO_'
'Ti'
'Sha'
'Sam_'
'Pi'
'Personne_'
'OMC_'
'Nos_'
'Mexique_'
'In'
'HA'
'Every_'
'Columbia_'
'Argentina_'
'22'
' »._'
'wa'
'urban_'
'tu'
'travaille_'
'tonnes_'
'tests_'
'susceptibles_'
'southern_'
'signature_'
'revenir_'
'représentent_'
'registered_'
'pursuant_'
'properly_'
'permettra_'
'ouvert_'
'obstacle_'
'mémoire_'
'monsieur_'
'maintenance_'
'lire_'
'limiter_'
'inter'
'indépendance_'
'indique_'
'har'
'habitants_'
'flux_'
'finalement_'
'fifty_'
'extensive_'
'expenditures_'
'establishing_'
'elsewhere_'
'défaut_'
'devront_'
'devra_'
'devenu_'
'demands_'
'conclure_'
'conclu_'
'canadiennes_'
'bureaux_'
'banque_'
'avions_'
'aren_'
'antes_'
'acheter_'
'Ro'
'NGOs_'
'Mom_'
'Mo'
'Le'
'Go'
'ED_'
'Data_'
'Brésil_'
'Be_'
'AR'
'97_'
'21'
'1872_'
' ('
'éliminer_'
'ène_'
'z'
'voilà_'
'vice_'
'utilisées_'
'unable_'
'ture_'
'traite_'
'traditions_'
'testing_'
'super_'
'stakeholders_'
'sitting_'
'sensitive_'
'réseaux_'
'récente_'
'regarde_'
'reconstruction_'
'quot_'
'quartier_'
'purchase_'
'prévenir_'
'préparer_'
'précédent_'
'proceedings_'
'principale_'
'preparation_'
'pire_'
'notion_'
'negative_'
'mariage_'
'listen_'
'li'
'lement_'
'lecture_'
'learned_'
'labor_'
'kid_'
'io_'
'involving_'
'intellectuelle_'
'impôt_'
'impose_'
'implications_'
'ice_'
'happens_'
'gun_'
'eye_'
'employee_'
'drop_'
'drogues_'
'différence_'
'destination_'
'den'
'covered_'
'contracts_'
'con_'
'cities_'
'changing_'
'c'
'broad_'
'bringing_'
'bri'
'bi'
'attempt_'
'atteint_'
'atmosphere_'
'assist_'
'anti'
'annoncé_'
'américaines_'
'allowing_'
'Z_'
'Timor_'
'Three_'
'Therefore_'
'Te'
'Support_'
'Strategy_'
'So'
'Saddam_'
'SI'
'River_'
'Ouest_'
'No'
'Millennium_'
'Industry_'
'IP'
'Give_'
'Document_'
'Control_'
'Com'
'Ben'
'BA'
'77_'
'600_'
'6'
'09_'
') - _'
'worse_'
'wing_'
'weapon_'
'voluntary_'
'tôt_'
'trouble_'
'transparent_'
'traffic_'
'targets_'
'stratégiques_'
'sleep_'
'secure_'
'savons_'
'savings_'
'riches_'
'revised_'
'registration_'
'rappeler_'
'préserver_'
'presidential_'
'portée_'
'piece_'
'paying_'
'passed_'
'passage_'
'ourselves_'
'mérite_'
'miss_'
'ministères_'
'mentionné_'
'mental_'
'mener_'
'marine_'
'judiciaire_'
'ji'
'interdiction_'
'improvement_'
'guest_'
'games_'
'formal_'
'fishing_'
'favorable_'
'facing_'
'educational_'
'droite_'
'diseases_'
'diplomatic_'
'deficit_'
'considération_'
'confirmed_'
'chercheurs_'
'caractéristiques_'
'bear_'
'aéroport_'
'auxquels_'
'associés_'
'alimentaires_'
'adjoint_'
'Time_'
'Romania_'
'Protocole_'
'Netherlands_'
'NEW_'
'Muslim_'
'Ministers_'
'Lord_'
'Kyoto_'
'Indian_'
'Gra'
'Federation_'
'Authority_'
'41_'
'40'
'étudiants_'
'étapes_'
'énergétique_'
'weight_'
'violent_'
'vidéo_'
'treated_'
'sé_'
'surprise_'
'ssi'
'solidarité_'
'sky_'
'signe_'
'seeing_'
'sciences_'
'retard_'
'rendement_'
'pre'
'powerful_'
'pertes_'
'path_'
'particuliers_'
'parlementaire_'
'mutual_'
'multiples_'
'monnaie_'
'migrants_'
'manifestations_'
'lay_'
'kg_'
'jeux_'
'ja'
'interprétation_'
'imposed_'
'ile_'
'ien_'
'husband_'
'h'
'fourth_'
'fondée_'
'except_'
'espèces_'
'equipped_'
'détails_'
'drinking_'
'donateurs_'
'diversité_'
'dites_'
'digital_'
'determination_'
'dad_'
'contribué_'
'considérer_'
'complète_'
'choisi_'
'black_'
'beach_'
'bases_'
'arrivée_'
'approvisionnement_'
'approuvé_'
'applies_'
'anciens_'
'aimerais_'
'accéder_'
'accounts_'
'Tu'
'To'
'Sierra_'
'Sea_'
'Ou_'
'Ministre_'
'Membres_'
'Ma'
'LES_'
'Inter'
'IN_'
'Har'
'Grâce_'
'Fo'
'FA'
'Dis_'
'Di'
'Dad_'
'CA'
'Attends_'
'98_'
'61_'
'50'
' ? - _'
'wealth_'
'vaste_'
'update_'
'tés_'
'tourisme_'
'tive_'
'territoires_'
'ten'
'ster_'
'statistics_'
'sert_'
'selected_'
'réserves_'
'revolution_'
'remercie_'
'remained_'
'reception_'
'quatrième_'
'quarter_'
'professionnelle_'
'prochaines_'
'physique_'
'parliamentary_'
'parc_'
'pain_'
'outils_'
'né'
'ni'
'nent_'
'nd_'
'motion_'
'match_'
'lé'
'ko_'
'investments_'
'instructions_'
'gs_'
'gro'
'fournit_'
'fondamentales_'
'factor_'
'ette_'
'eront_'
'employer_'
'els_'
'ele'
'dynamique_'
'disaster_'
'diffusion_'
'detail_'
'de'
'cool_'
'contrast_'
'classes_'
'claire_'
'che'
'calme_'
'bility_'
'bilateral_'
'ar'
'anymore_'
'alternatives_'
'album_'
'Work_'
'Vraiment_'
'Third_'
'TO_'
'TION_'
'Resources_'
'Quebec_'
'Police_'
'PE'
'OECD_'
'Néanmoins_'
'Make_'
'Genève_'
'Civil_'
'Bruxelles_'
'Bill_'
'Al'
'AB'
'85_'
'02'
'''
'ï'
'équipements_'
'xi'
'widely_'
'welcomed_'
'voice_'
'vo'
'utilisateur_'
'ut_'
'up'
'sufficient_'
'su_'
'su'
'ski_'
'sh_'
'rez_'
'rappelle_'
'putting_'
'protecting_'
'prospects_'
'proportion_'
'pourcentage_'
'para_'
'outil_'
'origin_'
'obvious_'
'obtenu_'
'numerous_'
'navires_'
'namely_'
'modèles_'
'mobilité_'
'mment_'
'migration_'
'micro'
'mechanism_'
'mari_'
'losses_'
'listed_'
'le'
'latine_'
'introduce_'
'intellectual_'
'instant_'
'im_'
'humanitaire_'
'hein_'
'hand'
'graves_'
'flow_'
'firm_'
'fil_'
'fasse_'
'fail_'
'exclusion_'
'essayer_'
'envoyé_'
'ents_'
'engage_'
'développés_'
'donnée_'
'district_'
'distinction_'
'demeure_'
'declaration_'
'dated_'
'crédits_'
'charged_'
'centaines_'
'canadiens_'
'bancaire_'
'ba_'
'arrêt_'
'annuel_'
'addressing_'
'acte_'
'accommodation_'
'accepté_'
'absolument_'
'War'
'Tony_'
'Saskatchewan_'
'Robert_'
'Richard_'
'Po'
'Pays_'
'Pacific_'
'Miss_'
'MO'
'Li'
'IV_'
'IF'
'Geneva_'
'Frank_'
'El'
'De'
'Costa_'
'CEE_'
'CD'
'Britain_'
'Be'
'AD'
'93_'
'73_'
'29'
'250_'
','
''
''
'équitable_'
'éni'
'voulu_'
'voit_'
'vitesse_'
've'
'uni'
'traités_'
'the'
'television_'
'summer_'
'stes_'
'sports_'
'specifically_'
'sought_'
'signal_'
'sets_'
'scène_'
'révision_'
'réellement_'
'réduit_'
'regards_'
'refer_'
'rapporteurs_'
'raient_'
'prévues_'
'préoccupations_'
'privés_'
'prime_'
'premiers_'
'opération_'
'oir_'
'ngs_'
'monitor_'
'mistake_'
'mid_'
'menaces_'
'map_'
'lly_'
'laid_'
'internes_'
'interesting_'
'informal_'
'ine'
'indigenous_'
'indicators_'
'inclusion_'
'helping_'
'happening_'
'générales_'
'ft_'
'fruits_'
'foot_'
'fini_'
'favoriser_'
'experiences_'
'exercer_'
'exclusive_'
'estimates_'
'enta'
'débats_'
'drawn_'
'division_'
'device_'
'defense_'
'defence_'
'courage_'
'construire_'
'conflicts_'
'collectivités_'
'cold_'
'coffee_'
'chair_'
'catastrophes_'
'career_'
'candidates_'
'boys_'
'bons_'
'bonds_'
'ban_'
'availability_'
'arguments_'
'appointed_'
'ances_'
'afraid_'
'ade_'
'White_'
'Total_'
'Sal'
'Restaurant_'
'Really_'
'Ph'
'Per'
'PS'
'OMPI_'
'Montréal_'
'Mi'
'Madrid_'
'Lake_'
'Jo'
'Hôtel_'
'He'
'Grèce_'
'Gi'
'Family_'
'Entre_'
'Direction_'
'Bretagne_'
'Australia_'
'Amnesty_'
'92_'
'vérifier_'
'vin_'
'vieille_'
'ts'
'titres_'
'thereby_'
'ters_'
'sûre_'
'specified_'
'sor'
'sons_'
'silence_'
'sell_'
'réel_'
'requirement_'
'ral_'
'préparation_'
'primarily_'
'prends_'
'paragraphs_'
'noms_'
'models_'
'milliers_'
'mettant_'
'libertés_'
'laissé_'
'ium_'
'ises_'
'intermédiaire_'
'independence_'
'impôts_'
'imposer_'
'imports_'
'huh_'
'host_'
'ha'
'grounds_'
'gamme_'
'gagner_'
'forêts_'
'for'
'focused_'
'fellow_'
'everybody_'
'envie_'
'eni'
'découvrir_'
'di'
'desire_'
'database_'
'containing_'
'conferences_'
'complètement_'
'command_'
'character_'
'bio'
'avance_'
'assess_'
'as'
'animals_'
'amounts_'
'adaptation_'
'actif_'
'accounting_'
'WTO_'
'Unfortunately_'
'Tra'
'Shi'
'Sa_'
'Puis_'
'Pacte_'
'PNUD_'
'Open_'
'Northern_'
'Maman_'
'Listen_'
'Laisse_'
'Hong_'
'Home_'
'Given_'
'Finance_'
'Er'
'El_'
'Dia'
'Day_'
'Cooperation_'
'Check_'
'COM_'
'Bro'
'Bio'
'Belarus_'
'Allons_'
'613_'
'41'
'35'
'33'
'23'
'01'
'états_'
'za_'
'wi'
'vérification_'
'viable_'
'unit_'
'trouverez_'
'trafficking_'
'tan'
'summit_'
'spéciales_'
'spoke_'
'shopping_'
'sement_'
'seat_'
'russe_'
'ri_'
'restent_'
'requis_'
'reflected_'
'r'
'protected_'
'privées_'
'previously_'
'prepare_'
'post'
'populaire_'
'poids_'
'ped_'
'patrimoine_'
'participé_'
'ouvre_'
'oublié_'
'oli'
'occur_'
'occupe_'
'occasions_'
'observation_'
'notification_'
'nine_'
'mor'
'mauvaise_'
'lles_'
'joué_'
'joue_'
'ized_'
'intervenir_'
'installed_'
'inquiète_'
'immédiatement_'
'idéal_'
'honneur_'
'highest_'
'hate_'
'futures_'
'futur_'
'fruit_'
'frontière_'
'faces_'
'extended_'
'expectations_'
'essentiellement_'
'entered_'
'ee'
'déchets_'
'deliver_'
'contrats_'
'conduite_'
'complet_'
'coalition_'
'cité_'
'ches_'
'chers_'
'centrales_'
'cartes_'
'capitale_'
'bénéficier_'
'buffet_'
'budgetary_'
'banking_'
'applique_'
'appareil_'
'analyses_'
'allemand_'
'affairs_'
'Transport_'
'Sé'
'Society_'
'School_'
'SP'
'Pologne_'
'Papa_'
'PRO'
'Official_'
'ME'
'Kong_'
'Ki'
'IP_'
'ING_'
'GA'
'EI'
'Da'
'Criminal_'
'Covenant_'
'Child_'
'CP'
'CC'
'Arrête_'
'2011_'
'%, _'
'"?_'
'élèves_'
'échec_'
'wonderful_'
'voire_'
'visible_'
'versions_'
'vacances_'
'ul'
'territorial_'
'tal_'
'sse'
'south_'
'souligné_'
'somme_'
'solidarity_'
'smoking_'
'sit_'
'shi'
'responses_'
'resolve_'
'reserves_'
'recommandation_'
'raising_'
'radical_'
'productivity_'
'possibles_'
'ports_'
'peaceful_'
'owned_'
'operate_'
'onal_'
'ol_'
'moteur_'
'morts_'
'mom_'
'marriage_'
'manger_'
'lu'
'logical_'
'loans_'
'isation_'
'investors_'
'infection_'
'html_'
'globalization_'
'félicite_'
'fresh_'
'fixed_'
'finding_'
'financer_'
'fabrication_'
'fa'
'expenses_'
'excessive_'
'examiné_'
'ers'
'er'
'enforcement_'
'ee_'
'ea'
'drink_'
'devrions_'
'description_'
'derrière_'
'delivered_'
'cur'
'culturel_'
'cra'
'correspond_'
'convaincu_'
'concentration_'
'complexe_'
'commerciale_'
'civils_'
'chi'
'café_'
'bou'
'asile_'
'arme_'
'anniversaire_'
'alimentation_'
'ali'
'affect_'
'accrue_'
'Ye'
'UK_'
'Thus_'
'Switzerland_'
'Sa'
'Royal_'
'PD'
'OS'
'Labour_'
'King_'
'Ka'
'Juste_'
'HI'
'Fi'
'Fe'
'ER_'
'EN'
'ECB_'
'Despite_'
'CS'
'Budget_'
'AV'
'AI'
'68_'
'38'
'24h_'
'2013_'
'1987_'
'. (_'
'.'
'*_'
') _'
' ( _'
'évidence_'
'® _'
'vert_'
'understood_'
'un'
'transformation_'
'trading_'
'touch_'
'ter'
'tensions_'
'supervision_'
'suicide_'
'stations_'
'stade_'
'somebody_'
'solide_'
'sister_'
'showing_'
'showed_'
'severe_'
'régimes_'
'revenue_'
'resulting_'
'represent_'
'regarder_'
'quotas_'
'pull_'
'processing_'
'parfait_'
'par'
'ouvrir_'
'occuper_'
'montré_'
'modified_'
'meant_'
'meaning_'
'me'
'maintained_'
'machines_'
'locale_'
'livres_'
'launched_'
'lands_'
'kes_'
'ization_'
'involvement_'
'intégrer_'
'instamment_'
'ino'
'ical_'
'ib'
'hearing_'
'heading_'
'gold_'
'genuine_'
'fiscale_'
'fields_'
'extraordinaire_'
'extend_'
'exactement_'
'evening_'
'euse_'
'ets_'
'essentiels_'
'essayé_'
'essais_'
'employé_'
'détention_'
'détail_'
'désolée_'
'dépôt_'
'dépend_'
'défendre_'
'décider_'
'demonstrated_'
'dar'
'dance_'
'critiques_'
'critique_'
'counter_'
'concours_'
'concluded_'
'commande_'
'combined_'
'closer_'
'cible_'
'catastrophe_'
'candidat_'
'bénéfices_'
'bon'
'autorisation_'
'author_'
'attaques_'
'asylum_'
'arrested_'
'apprendre_'
'appreciate_'
'ana'
'aircraft_'
'Yu'
'Yo'
'Viens_'
'Val'
'Tor'
'Site_'
'Ses_'
'RS_'
'Plusieurs_'
'OR'
'News_'
'NC'
'Multi'
'Mont'
'Mediterranean_'
'Media_'
'Keep_'
'IN'
'Hi'
'Her'
'GR'
'Foundation_'
'Earth_'
'Département_'
'Do'
'DU_'
'Clinton_'
'Charte_'
'Before_'
'Austria_'
'Am'
';: _'
'191'
'о'
'élection_'
'»._'
' ; _'
'  _'
'yer_'
'worst_'
'welfare_'
'weak_'
'véritablement_'
'véhicule_'
'vé'
'vehicles_'
'vast_'
'units_'
'tique_'
'textes_'
'sses_'
'signé_'
'si'
'sho'
'servi_'
'réels_'
'rt_'
'retrouver_'
'représentation_'
'rejected_'
'regret_'
'pénale_'
'préalable_'
'possession_'
'pointed_'
'pièce_'
'pit'
'paiements_'
'packages_'
'owing_'
'oh_'
'nourriture_'
'nement_'
'na'
'modes_'
'modalités_'
'mi'
'majeure_'
'maintaining_'
'looked_'
'lla'
'ky_'
'ki'
'ker_'
'ju'
'invitation_'
'investisseurs_'
'intervenants_'
'ing'
'inform_'
'indicate_'
'ille_'
'ically_'
'ia'
'heads_'
'génération_'
'geo'
'fi'
'farm_'
'ess_'
'erreurs_'
'entirely_'
'effectivement_'
'disposer_'
'ction_'
'contrôler_'
'congratulate_'
'confusion_'
'components_'
'compagnie_'
'comfort_'
'climat_'
'cli'
'circonstances_'
'cations_'
'bébé_'
'audit_'
'arts_'
'approximately_'
'apprentissage_'
'appareils_'
'achievement_'
'Ze'
'Va_'
'Tri'
'Sweden_'
'Sure_'
'Star_'
'Star'
'Secrétariat_'
'Sam'
'SS'
'Rule_'
'Quant_'
'Par'
'Palestiniens_'
'Pacifique_'
'Ol'
'Ob'
'Notes_'
'Nigeria_'
'Mer'
'ME_'
'Leone_'
'Islam_'
'Instead_'
'ID_'
'Guinea_'
'Further_'
'Dis'
'Dan'
'DR'
'Company_'
'Charles_'
'Bas_'
'Atlantic_'
'Ar'
'Ad'
': “_'
'89_'
'86_'
'66_'
'4'
'25'
'.-_'
', (_'
') : _'
'('
' » (_'
'élimination_'
'écran_'
'write_'
'window_'
'widespread_'
'walking_'
'vivent_'
'vivant_'
'utilisée_'
'utilise_'
'truly_'
'trip_'
'thème_'
'teur_'
'taxe_'
'taxation_'
'sélection_'
'suggestions_'
'square_'
'sensibilisation_'
'senior_'
'savais_'
'répondu_'
'root_'
'recommendation_'
'quick_'
'profits_'
'precisely_'
'pouvant_'
'plant_'
'plainte_'
'pick_'
'partly_'
'palestinien_'
'outcomes_'
'obligatoire_'
'moments_'
'mini_'
'merely_'
'mené_'
'marketing_'
'marked_'
'maman_'
'mainly_'
'ja_'
'ities_'
'ional_'
'intérieure_'
'intelligence_'
'inscrit_'
'imposition_'
'identifier_'
'honorable_'
'her'
'guarantees_'
'green_'
'garçon_'
'fra'
'fichier_'
'faibles_'
'experienced_'
'excuse_'
'estimated_'
'erait_'
'entend_'
'encouraging_'
'el'
'dog_'
'dispute_'
'directe_'
'devices_'
'des'
'depends_'
'courts_'
'contrary_'
'constater_'
'comprennent_'
'classification_'
'civilian_'
'chosen_'
'chacune_'
'ce'
'category_'
'cat'
'carbone_'
'camps_'
'burden_'
'bottom_'
'becomes_'
'balanced_'
'attaque_'
'ateur_'
'assume_'
'arrangement_'
'appropriée_'
'applicables_'
'adultes_'
'adoptées_'
'accidents_'
'Which_'
'Vol'
'Venezuela_'
'UNDP_'
'Tom_'
'Source_'
'Ser'
'SO'
'Rwanda_'
'Rock_'
'QUE_'
'Pe'
'PDF_'
'OTAN_'
'OC'
'Nevertheless_'
'NI'
'NATO_'
'NA'
'Mike_'
'Manitoba_'
'Lors_'
'Kenya_'
'James_'
'IMF_'
'Eastern_'
'Désolé_'
'Czech_'
'Chambre_'
'Brunswick_'
'Based_'
'Bar_'
'Ba'
'BR'
'Aux_'
'Airport_'
'; (_'
';'
': '
'94_'
'82_'
'7'
'64_'
'15'
' «&#_'
' '
'wishes_'
'usually_'
'tâches_'
'troops_'
'trends_'
'tra'
'tomber_'
'tin'
'threats_'
'territories_'
'ta'
'supplies_'
'strongly_'
'specialized_'
'soft_'
'settlement_'
'se'
'salles_'
'rêve_'
'régulièrement_'
'réduite_'
'respective_'
'residence_'
'requête_'
'remplir_'
'rejoindre_'
'rang_'
'proof_'
'promised_'
'progresser_'
'prestations_'
'poly'
'plants_'
'parlementaires_'
'paragraphes_'
'para'
'pa'
'officielle_'
'oa'
'négociation_'
'néanmoins_'
'non'
'movements_'
'moved_'
'ministers_'
'limitée_'
'involves_'
'invasion_'
'interdit_'
'impacts_'
'iii_'
'ie'
'huit_'
'hen'
'heavy_'
'harmonisation_'
'généraux_'
'go'
'gift_'
'generation_'
'films_'
'fication_'
'faux_'
'facteur_'
'explained_'
'envoyer_'
'environnementale_'
'enti'
'effectuer_'
'désarmement_'
'du'
'drogue_'
'dre_'
'dimensions_'
'différences_'
'crazy_'
'contenant_'
'considérablement_'
'considérable_'
'conforme_'
'con'
'comply_'
'colleagues_'
'col'
'characteristics_'
'changé_'
'carrying_'
'books_'
'bal'
'ato'
'approaches_'
'appreciation_'
'app'
'anc'
'acquisition_'
'Without_'
'Welcome_'
'Their_'
'Ten'
'Tax_'
'TRANS_'
'Su'
'Science_'
'Quelqu_'
'Professor_'
'Pin'
'Parti_'
'Page_'
'PCT_'
'ONG_'
'Nouveau_'
'Monday_'
'Merc'
'Malheureusement_'
'Kim_'
'Hussein_'
'Hold_'
'Google_'
'For'
'Fa'
'Environmental_'
'Des'
'Democrats_'
'Del'
'DS_'
'Colombia_'
'Ce'
'Blair_'
'Belgium_'
'Beijing_'
'Aussi_'
'Aucune_'
'Agenda_'
'AP'
'8'
'32'
'192'
'. _'
'. "_'
')(_'
'… _'
'êt'
'émission_'
'° _'
'zo'
'ze'
'yours_'
'warm_'
'war'
'visiteurs_'
'viennent_'
'undertake_'
'touche_'
'tabled_'
'susceptible_'
'summary_'
'suggests_'
'successfully_'
'shower_'
'shape_'
'sen_'
'sections_'
'secrétaire_'
'salaires_'
'réaction_'
'rose_'
'rl'
'researchers_'
'rentrer_'
'rencontre_'
'receiving_'
'ration_'
'quantité_'
'provisoire_'
'protocole_'
'prolifération_'
'prestation_'
'pourront_'
'possède_'
'plenary_'
'permit_'
'ore_'
'op_'
'og'
'officer_'
'nti'
'nomination_'
'nd'
'minorities_'
'ière_'
'ita'
'ish_'
'interface_'
'indicateurs_'
'incentives_'
'improvements_'
'importation_'
'implique_'
'grant_'
'gare_'
'gal'
'fondamentale_'
'foi_'
'flight_'
'fan_'
'familiale_'
'faisons_'
'facts_'
'expenditure_'
'exc'
'ethniques_'
'espagnol_'
'entretien_'
'entre'
'enne_'
'engager_'
'emphasis_'
'dur_'
'download_'
'detention_'
'destinées_'
'contributed_'
'consulter_'
'connexion_'
'conférences_'
'concrete_'
'component_'
'compagnies_'
'committees_'
'comités_'
'cohesion_'
'clause_'
'ck'
'chimiques_'
'cast_'
'cable_'
'bra'
'bitch_'
'believes_'
'bain_'
'background_'
'avancés_'
'authorized_'
'attaquer_'
'ati'
'appris_'
'annuelle_'
'annonce_'
'an'
'ales_'
'aims_'
'aides_'
'activement_'
'VI_'
'Suède_'
'Roumanie_'
'PH'
'Order_'
'On'
'Occident_'
'Network_'
'NG_'
'Manager_'
'Man_'
'Là_'
'Londres_'
'Life_'
'Joint_'
'Jesus_'
'IS'
'Greek_'
'Gre'
'Everything_'
'Européens_'
'Et'
'Encore_'
'En'
'Dès_'
'Du'
'Congress_'
'Club_'
'Charlie_'
'Center_'
'Brussels_'
'Bay_'
'BO'
'At'
'An'
'Ai'
'Affaires_'
'AM'
'; '
'700_'
'2012_'
'193'
'16'
'120_'
'...._'
'-'
')'
'équipement_'
'zi'
'worried_'
'ware_'
'victim_'
'unlikely_'
'university_'
'totally_'
'ti_'
'teaching_'
'targeted_'
'suppression_'
'sub'
'straight_'
'store_'
'speech_'
'souhaitez_'
'significantly_'
'sexe_'
'server_'
'sauna_'
'rurales_'
'replace_'
'remplacer_'
'remote_'
'relève_'
'recommend_'
'recession_'
'q_'
'prospérité_'
'prennent_'
'pou'
'permettrait_'
'park_'
'papa_'
'ow_'
'ouest_'
'organiser_'
'or'
'offrant_'
'obtain_'
'ng'
'nces_'
'mp'
'modernes_'
'master_'
'maritime_'
'logique_'
'lin_'
'legitimate_'
'killing_'
'ives_'
'intitulé_'
'indépendant_'
'importations_'
'ilité_'
'hon'
'historiques_'
'greatest_'
'ght_'
'functions_'
'française_'
'ford_'
'fonctionne_'
'fees_'
'exportation_'
'erie_'
'environnementaux_'
'enormous_'
'dream_'
'dou'
'différent_'
'devrais_'
'devenue_'
'dettes_'
'dedicated_'
'dates_'
'célèbre_'
'cuts_'
'correctement_'
'constitute_'
'compatible_'
'combattre_'
'collègue_'
'coffre_'
'chan'
'cally_'
'cadres_'
'bé'
'brevets_'
'blanc_'
'binding_'
'ay_'
'avion_'
'auteurs_'
'attends_'
'atteinte_'
'assurances_'
'approprié_'
'ana_'
'amended_'
'aine_'
'actuels_'
'aa'
'Youth_'
'Vancouver_'
'Trans'
'Ton_'
'TO'
'TE_'
'Sur'
'Super_'
'Soviet_'
'Sin'
'Should_'
'Seigneur_'
'Saudi_'
'SU'
'RC'
'PS_'
'PI'
'Officer_'
'My'
'Mes_'
'Jusqu_'
'Implementation_'
'IT'
'Green_'
'Following_'
'Fax_'
'Faites_'
'ED'
'Dites_'
'Cra'
'Cho'
'Chamber_'
'Best_'
'A5_'
'91_'
'81_'
'63_'
'2015_'
'%_'
'� _'
'ènes_'
'á'
'», _'
'witness_'
'vues_'
'vendre_'
'underlying_'
'témoins_'
'tentative_'
'tend_'
'teams_'
'super'
'suffering_'
'stick_'
'souligne_'
'soldats_'
'sick_'
'sexes_'
'serving_'
'sentence_'
'réa'
'remise_'
'remettre_'
'relever_'
'ras_'
'rare_'
'ran_'
'ra'
'qualified_'
'pur'
'présentée_'
'préciser_'
'précis_'
'prosperity_'
'productivité_'
'preuves_'
'pensons_'
'oti'
'ordinary_'
'odi'
'o'
'murder_'
'mourir_'
'mostly_'
'missing_'
'merc'
'malheureusement_'
'logiciels_'
'load_'
'lié_'
'lady_'
'iste_'
'intergovernmental_'
'installer_'
'indiquer_'
'inclure_'
'ignore_'
'hôpital_'
'homes_'
'hair_'
'glad_'
'functioning_'
'football_'
'findings_'
'existent_'
'essence_'
'era'
'enregistré_'
'enf'
'ec'
'décennies_'
'dynamic_'
'disant_'
'culturels_'
'constructive_'
'conformité_'
'concert_'
'cohésion_'
'cing_'
'choices_'
'chief_'
'cheveux_'
'char'
'catch_'
'believed_'
'belief_'
'avancées_'
'auparavant_'
'atmosphère_'
'ara'
'airport_'
'actively_'
'abandon_'
'ab'
'Wi'
'Vo'
'Veuillez_'
'TA'
'Summary_'
'Political_'
'PP'
'PHP_'
'Or'
'Old_'
'OCDE_'
'Mon'
'Min'
'Jordan_'
'ION_'
'Help_'
'Gor'
'Energy_'
'EC'
'Développement_'
'Decision_'
'DO'
'DI'
'Compte_'
'Communications_'
'Common_'
'Col'
'Bra'
'Black_'
'Bi'
'Balkans_'
'Argentine_'
'About_'
'ATION_'
'AS'
'69_'
'43'
'28'
'26'
'110_'
'í'
'étroite_'
'éthique_'
'énorme_'
'â_'
'ws_'
'west_'
'voyez_'
'venue_'
'vend'
'valuable_'
'troupes_'
'tie_'
'teurs_'
'sé'
'suspect_'
'sur'
'substantive_'
'student_'
'stri'
'stone_'
'somewhere_'
'slow_'
'shut_'
'sh'
'salon_'
'récession_'
'revient_'
'ret'
'represented_'
'remaining_'
'refugee_'
'ree'
'realize_'
'rapidly_'
'que'
'précise_'
'proliferation_'
'producers_'
'presidency_'
'plane_'
'out'
'orientations_'
'oire_'
'offrent_'
'nu'
'nt'
'none_'
'no'
'navigation_'
'naturel_'
'naissance_'
'minority_'
'men'
'mar'
'manufacturing_'
'managers_'
'lu_'
'lies_'
'liaison_'
'lessons_'
'las_'
'lar'
'jardin_'
'ir'
'ip'
'investigations_'
'il'
'gu'
'gar'
'funded_'
'formed_'
'flexible_'
'facility_'
'ext'
'exemption_'
'everywhere_'
'eventually_'
'et'
'espèce_'
'ends_'
'encouraged_'
'email_'
'element_'
'electoral_'
'effectués_'
'effectué_'
'démocratiques_'
'démarche_'
'décrit_'
'difficiles_'
'demonstrate_'
'degré_'
'define_'
'deficits_'
'copies_'
'convergence_'
'considérables_'
'considering_'
'concentrer_'
'communs_'
'combination_'
'coin_'
'clubs_'
'clo'
'chiffres_'
'carrière_'
'buildings_'
'broke_'
'block_'
'battle_'
'automatically_'
'augmenté_'
'attached_'
'ateurs_'
'arrêté_'
'apartment_'
'anyway_'
'ami'
'ambiance_'
'ama'
'agréable_'
'admission_'
'acquis_'
'aborder_'
'Year_'
'Water_'
'Voir_'
'Uni'
'UT'
'UN'
'Trois_'
'Toute_'
'Sudan_'
'Sou'
'Sommet_'
'Ru'
'Road_'
'Ren'
'Question_'
'Portuguese_'
'Peu_'
'PO'
'Os'
'OP'
'ON'
'NE_'
'Mou'
'Luxembourg_'
'Island_'
'Ir'
'Holy_'
'Ga'
'Fédération_'
'Free_'
'Find_'
'Draft_'
'Cyprus_'
'Cu'
'Congrès_'
'Colombie_'
'Cha'
'Bre'
'Beau'
'BCE_'
'As'
'Amsterdam_'
'Afin_'
';» _'
'88_'
'79_'
'72_'
'67_'
'48'
'1960_'
'' '
'# _'
' : "_'
'ö'
'ón_'
'électricité_'
'électeurs_'
'è'
'ä'
'Église_'
'watching_'
'warning_'
'voters_'
'uvre_'
'updated_'
'université_'
'und'
'travaillent_'
'tor_'
'talks_'
'talent_'
'supérieure_'
'subsequent_'
'subsection_'
'stopped_'
'sti'
'stars_'
'st'
'ssement_'
'soutenu_'
'sentiments_'
'sensible_'
'select_'
'sel'
'réussite_'
'résidence_'
'ré'
'ri'
'revenues_'
'retraite_'
'rendez_'
'register_'
'reflects_'
'rea'
're'
'raw_'
'pénal_'
'puisqu_'
'prête_'
'proved_'
'profile_'
'professionals_'
'productive_'
'prisonniers_'
'poursuite_'
'plénière_'
'player_'
'permanente_'
'peri'
'pensions_'
'participating_'
'partager_'
'outstanding_'
'output_'
'organisée_'
'opposed_'
'om_'
'older_'
'noise_'
'nel_'
'mountain_'
'modifié_'
'mal'
'magnifique_'
'lots_'
'logement_'
'len'
'lasting_'
'lai'
'ked_'
'iné'
'intégré_'
'interaction_'
'intentions_'
'inte'
'informer_'
'iens_'
'helps_'
'féliciter_'
'fumeurs_'
'fourni_'
'formulation_'
'formulaire_'
'finished_'
'figurent_'
'ferait_'
'favorables_'
'exemples_'
'executive_'
'equally_'
'ell_'
'distributed_'
'displaced_'
'dia'
'depend_'
'demi_'
'delay_'
'criminalité_'
'coupable_'
'corporations_'
'convinced_'
'consent_'
'conclude_'
'commis_'
'com'
'colère_'
'click_'
'chaîne_'
'capture_'
'cabinet_'
'bli'
'attirer_'
'arrived_'
'armées_'
'ano_'
'ani'
'allocation_'
'allait_'
'accueille_'
'abus_'
'Zimbabwe_'
'Sustainable_'
'Sim'
'Provincial_'
'Permanent_'
'Perhaps_'
'Palestinians_'
'Nova_'
'Mal'
'Linux_'
'Journal_'
'Iraqi_'
'Guest_'
'Guerre_'
'Guatemala_'
'Finland_'
'Fin'
'Fi_'
'Facilities_'
'Enterprise_'
'Due_'
'Doha_'
'DE'
'Cop'
'Cold_'
'Certaines_'
'Cal'
'CP_'
'CO2_'
'CAR'
'Bulgaria_'
'Bou'
'Athlétisme_'
'Anti'
'Administrative_'
'68'
'44'
'- '
''
'évidemment_'
'étiez_'
'étendre_'
'éli'
'é'
'Égypte_'
'yesterday_'
'wn_'
'wake_'
'ver'
'utilisant_'
'uns_'
'ug'
'ue'
'télé'
'turning_'
'tro'
'trend_'
'transit_'
'timely_'
'stupid_'
'ssion_'
'souviens_'
'souhaitent_'
'soleil_'
'smaller_'
'sis_'
'simples_'
'shoot_'
'serveur_'
'ser'
'seconds_'
'secondary_'
'savent_'
'rid_'
'recommandé_'
'reaching_'
'questionnaire_'
'pursue_'
'présentés_'
'proposée_'
'professionnelles_'
'producing_'
'prioritaires_'
'pri'
'pressions_'
'possibly_'
'planet_'
'pilote_'
'peacekeeping_'
'parent_'
'overcome_'
'ou'
'ménages_'
'montrent_'
'mit'
'min_'
'menée_'
'married_'
'marques_'
'lists_'
'liability_'
'ld_'
'ku'
'judge_'
'japonais_'
'ières_'
'ize_'
'instances_'
'ienne_'
'idi'
'hé'
'hundred_'
'humanity_'
'households_'
'hor'
'hopes_'
'holder_'
'healthy_'
'habitude_'
'géo'
'gay_'
'garanties_'
'fre'
'fragile_'
'foundation_'
'fore'
'fle'
'faced_'
'exposé_'
'examined_'
'eva'
'equivalent_'
'encontre_'
'elimination_'
'electricity_'
'ef'
'een_'
'ed'
'délais_'
'driving_'
'disposent_'
'dignity_'
'destiné_'
'crée_'
'croissante_'
'coverage_'
'courses_'
'couleur_'
'conviction_'
'constituer_'
'consommateur_'
'connexes_'
'connaissez_'
'configuration_'
'concernés_'
'codes_'
'caught_'
'boat_'
'bla'
'biggest_'
'ber'
'behavior_'
'ban'
'ball_'
'avocat_'
'avancer_'
'au'
'ative_'
'associé_'
'army_'
'arising_'
'appels_'
'anywhere_'
'adressée_'
'adore_'
'adolescents_'
'administratives_'
'adi'
'absolute_'
'abroad_'
'Zi'
'Treasury_'
'Training_'
'Supreme_'
'Stan'
'Shut_'
'ST_'
'Rules_'
'Représentant_'
'Ram'
'Pu'
'Prince_'
'Peace_'
'OL'
'Number_'
'Nu'
'Nor_'
'Never_'
'Mor'
'Mary_'
'Lorsqu_'
'Lea'
'Kan'
'Ji'
'Je'
'IR'
'Ho'
'Friday_'
'Express_'
'Ei'
'Deuxièmement_'
'Dep'
'Co_'
'CO'
'Bangladesh_'
'Australie_'
'Attendez_'
'71_'
'42'
'34'
'1970_'
'#_'
'" (_'
''
'”'
'—_'
'ê'
'zero_'
'yr'
'whereas_'
'wage_'
'voitures_'
'voici_'
'visée_'
'vent_'
'unités_'
'ultimately_'
'ual_'
'twice_'
'tly_'
'tit'
'tim'
'terrasse_'
'tendances_'
'taire_'
'tables_'
'sy_'
'supprimer_'
'stance_'
'spécifique_'
'soutient_'
'soirée_'
'socio_'
'societies_'
'sla'
'sixth_'
'signs_'
'sharp_'
'servent_'
'serais_'
'selection_'
'saving_'
'sauver_'
'révolution_'
'répond_'
'ru'
'rou'
'ros'
'riche_'
'rg'
'revanche_'
'reserve_'
'reproduction_'
'representing_'
'ratio_'
'quitter_'
'puissant_'
'proposer_'
'progressive_'
'pra'
'portion_'
'pla'
'pin'
'penses_'
'penalty_'
'pauvre_'
'partenariats_'
'parfaitement_'
'over'
'oublier_'
'os'
'operators_'
'oni'
'on'
'oi'
'ocean_'
'obviously_'
'observateurs_'
'north_'
'ner'
'multi'
'mouvements_'
'mortgage_'
'miles_'
'mat'
'lived_'
'length_'
'lac'
'journaux_'
'isse'
'islamique_'
'interim_'
'innocent_'
'incidents_'
'ime_'
'ility_'
'ians_'
'hy'
'household_'
'hin'
'hed_'
'ham_'
'hall_'
'gre'
'gratuitement_'
'gap_'
'fix_'
'fill_'
'fermement_'
'extrême_'
'existantes_'
'excellence_'
'examination_'
'evil_'
'essai_'
'entente_'
'eng'
'ene'
'emp'
'elo'
'eliminate_'
'east_'
'désolé_'
'don'
'dirait_'
'destroy_'
'destinés_'
'couverture_'
'correspondant_'
'corner_'
'cor'
'constitutional_'
'connaît_'
'confirm_'
'comporte_'
'comparaison_'
'collapse_'
'ber_'
'aurez_'
'assumed_'
'assign'
'arrière_'
'arrival_'
'armés_'
'appliqué_'
'appeared_'
'ano'
'ancienne_'
'amp_'
'ambitious_'
'ala'
'accountability_'
'accise_'
']._'
'Zu'
'TP'
'Syrie_'
'Sta'
'Secondly_'
'Sala'
'SE'
'Réunion_'
'Putin_'
'Port_'
'Parmi_'
'Pardon_'
'PT_'
'PM'
'Nov'
'Nobel_'
'Mu'
'Mm_'
'Ltd_'
'Limited_'
'Lebanon_'
'Lar'
'Kar'
'Indonesia_'
'IM'
'Her_'
'Henry_'
'Han'
'Ghana_'
'GO'
'Fuck_'
'Fra'
'Fla'
'Fine_'
'EP'
'EADS_'
'Dar'
'Customs_'
'Countries_'
'Commentaires_'
'Chapter_'
'Cas'
'Car'
'Breakfast_'
'Branch_'
'Bel'
'Barack_'
'BI'
'BE'
'Aucun_'
'Au'
'Application_'
'Annexe_'
'?'
';; _'
'90'
'83_'
'39'
'18'
'', _'
'! '
'évident_'
'étudier_'
'ére'
'écouter_'
'á_'
' », _'
'zu'
'work'
'willing_'
'vulnérables_'
'vouloir_'
'voter_'
'visés_'
'vies_'
'victoire_'
'vely_'
'utiles_'
'universités_'
'ums_'
'tur'
'troubles_'
'tree_'
'traditionnels_'
'tourner_'
'tourist_'
'touchant_'
'thinks_'
'theory_'
'tested_'
'tasks_'
'tab'
'sun_'
'suites_'
'submission_'
'strength_'
'stories_'
'ssent_'
'shift_'
'sal'
'répression_'
'rémunération_'
'routes_'
'roll_'
'returns_'
'retirer_'
'retirement_'
'ressemble_'
'reprises_'
'represents_'
'rend'
'reflète_'
'quelconque_'
'qua'
'prévue_'
'prévisions_'
'précieux_'
'protocol_'
'promises_'
'print_'
'potentially_'
'positif_'
'po'
'passagers_'
'pal'
'pace_'
'ours_'
'organe_'
'ont'
'offres_'
'nta'
'nda'
'médecin_'
'musulmans_'
'mu'
'mondiales_'
'mon'
'modernisation_'
'minister_'
'milliard_'
'midi_'
'mg_'
'mettent_'
'majeur_'
'légitimité_'
'lt'
'listes_'
'li_'
'launch_'
'lam'
'kilomètres_'
'ition_'
'italien_'
'irré'
'ire'
'involve_'
'intéressant_'
'intégrée_'
'innovations_'
'informé_'
'indication_'
'indemnité_'
'ig'
'ication_'
'hydro'
'humanité_'
'holds_'
'grown_'
'geographical_'
'ge'
'ft'
'forth_'
'fo'
'flexibility_'
'female_'
'faute_'
'faim_'
'exposure_'
'exists_'
'exact_'
'eu'
'efficacement_'
'dîner_'
'décennie_'
'dro'
'dri'
'dor'
'demandent_'
'cutting_'
'customs_'
'culturelle_'
'croyais_'
'contrôles_'
'contribue_'
'continuera_'
'considérée_'
'confirmé_'
'concentrations_'
'commercialisation_'
'collecte_'
'climatiques_'
'cla'
'cinquième_'
'cho'
'certification_'
'campaigns_'
'camera_'
'bro'
'birth_'
'bath_'
'bande_'
'autrement_'
'auto'
'attente_'
'ars_'
'arrête_'
'arabes_'
'appuie_'
'appliquent_'
'applicant_'
'appartenant_'
'appartement_'
'angle_'
'ane_'
'actors_'
'acquired_'
'aba'
'YOU_'
'Wi_'
'VI'
'Unit_'
'Turkish_'
'Terre_'
'Technology_'
'Technical_'
'Tal'
'Ta_'
'Strasbourg_'
'Sarkozy_'
'Ré'
'Roma_'
'Re'
'Products_'
'Private_'
'Pap'
'Merkel_'
'Merde_'
'Man'
'Mala'
'MP_'
'MD'
'Lin'
'Legal_'
'LO'
'Interactive_'
'Indi'
'Guidelines_'
'GE'
'Ed'
'EM'
'Dra'
'Deputy_'
'Dea'
'DC_'
'Cher'
'Ceux_'
'Captain_'
'Call_'
'Burundi_'
'BU'
'Arabia_'
'Ali'
'Adoption_'
'Access_'
'AG'
'62_'
'49'
'190'
'12'
'04'
' ] _'
'‑_'
'а'
'ési'
'épargne_'
'â'
'­_'
'yo'
'ye'
'wars_'
'wall_'
'vre_'
'voyageurs_'
'voyages_'
'ving_'
'van'
'und_'
'té'
'treat_'
'tre_'
'tourism_'
'théorie_'
'tenter_'
'technological_'
'tarif_'
'sés_'
'surprising_'
'stu'
'struggle_'
'statistique_'
'statistical_'
'soumettre_'
'sois_'
'sized_'
'ships_'
'shares_'
'sexuelle_'
'serai_'
'screen_'
'scheduled_'
'sa'
'réelle_'
'récentes_'
'ré_'
'rh'
'religions_'
'relax_'
'regimes_'
'refuse_'
'referendum_'
'recommends_'
'ram'
'puts_'
'push_'
'pul'
'proposées_'
'ple_'
'ple'
'pieds_'
'permitted_'
'periods_'
'performances_'
'pensez_'
'pensent_'
'participant_'
'pacifique_'
'owner_'
'ort'
'omi'
'observed_'
'norme_'
'nommé_'
'nne'
'méta'
'multiple_'
'movie_'
'mouth_'
'menées_'
'memory_'
'marry_'
'mari'
'makers_'
'ly'
'liée_'
'liberal_'
'la'
'ke'
'iti'
'isi'
'invités_'
'investir_'
'install_'
'immobilier_'
'ied_'
'ica'
'hu'
'ho'
'hardly_'
'génétique_'
'guidance_'
'gri'
'gagné_'
'freedoms_'
'flows_'
'fell_'
'favor_'
'fans_'
'extra'
'expériences_'
'exprimé_'
'expensive_'
'exige_'
'examples_'
'envisager_'
'environnementales_'
'ens'
'ela'
'economics_'
'détenus_'
'dé'
'duties_'
'disasters_'
'disa'
'diagnostic_'
'designated_'
'der'
'dear_'
'dealt_'
'covering_'
'corresponding_'
'coopérer_'
'convaincre_'
'considers_'
'conduire_'
'composé_'
'complexes_'
'college_'
'collectivité_'
'cin'
'chute_'
'church_'
'chu'
'careful_'
'care'
'capabilities_'
'calcul_'
'bénéficiaires_'
'broken_'
'bras_'
'bound_'
'blue_'
'bit'
'bes_'
'barriers_'
'aérien_'
'attentes_'
'assessed_'
'argued_'
'are'
'ards_'
'appropriées_'
'appartient_'
'alle'
'adapter_'
'acquérir_'
'accueillir_'
'accordée_'
'acceptance_'
'ac_'
'Yugoslavia_'
'Wall_'
'Terr'
'Station_'
'Staff_'
'Something_'
'Serbie_'
'SE_'
'Questions_'
'Prague_'
'Pra'
'Philippines_'
'Pen'
'Pass'
'Partnership_'
'PPE_'
'Out'
'Nobody_'
'Mil'
'Mc'
'Mark_'
'Macedonia_'
'Laissez_'
'Kuwait_'
'ID'
'Gen'
'Fer'
'Everyone_'
'Euro'
'EA_'
'Droits_'
'Dor'
'Could_'
'Contact_'
'Combien_'
'Case_'
'CT'
'CM'
'Bur'
'Big_'
'AS_'
'ACP_'
'99'
'80'
'74_'
'... - _'
', '_'
'$ _'
' . . _'
' &_'
''
'” (_'
'équipes_'
'électorale_'
'édition_'
'écoute_'
'weren_'
'water'
'vou'
'utilisent_'
'unacceptable_'
'travaillé_'
'transportation_'
'traduction_'
'ti'
'th'
'terrorists_'
'tele'
'survival_'
'suitable_'
'suffisant_'
'stake_'
'spot_'
'sixième_'
'située_'
'sensibles_'
'sel_'
'scar'
'satisfaire_'
'san'
'répartition_'
'ron'
'ride_'
'reviewed_'
'retourner_'
'representation_'
'remove_'
'refused_'
'rais_'
'radio'
'quels_'
'putain_'
'pure_'
'prévoir_'
'prop'
'programming_'
'printemps_'
'presents_'
'pr'
'pouvaient_'
'photo'
'perform_'
'passant_'
'ownership_'
'ose_'
'officiels_'
'officielles_'
'officiel_'
'oca'
'observe_'
'numérique_'
'normally_'
'nobody_'
'negotiating_'
'médecins_'
'ming_'
'metal_'
'merde_'
'mentale_'
'man'
'lovely_'
'lo_'
'lin'
'licences_'
'libéralisation_'
'levée_'
'leaves_'
'kr_'
'kin_'
'ji_'
'ite'
'introducing_'
'input_'
'informatique_'
'industriel_'
'incidences_'
'ince'
'ina_'
'in'
'illness_'
'illa'
'humanitaires_'
'hoc_'
'hey_'
'hes_'
'harm_'
'habitat_'
'guaranteed_'
'grand'
'gis'
'genetic_'
'garden_'
'funny_'
'functional_'
'fr_'
'fournisseurs_'
'fournis_'
'fondamental_'
'feet_'
'falls_'
'expand_'
'existants_'
'exceptional_'
'estimations_'
'espérons_'
'entrepris_'
'entraîner_'
'entière_'
'engagés_'
'ei'
'effectuée_'
'eb'
'démocrates_'
'drinks_'
'dose_'
'donor_'
'dispositif_'
'disponibilité_'
'disparu_'
'disent_'
'dies_'
'dependent_'
'cul_'
'conversion_'
'contributing_'
'conserver_'
'confortable_'
'comparable_'
'cle_'
'chérie_'
'chemical_'
'cell_'
'categories_'
'cal'
'busy_'
'boss_'
'bol'
'bizarre_'
'berg_'
'beauty_'
'battre_'
'ates_'
'asset_'
'arrears_'
'argue_'
'apporte_'
'appointment_'
'anybody_'
'ampleur_'
'amie_'
'affirmé_'
'affectation_'
'ado'
'adjustment_'
'ade'
'acting_'
'ace'
'Za'
'Within_'
'VO'
'Thursday_'
'Thomas_'
'Taiwan_'
'TE'
'Status_'
'Scientific_'
'ST'
'SD'
'Pre'
'Power_'
'Pierre_'
'Paper_'
'Norway_'
'Moldova_'
'Max_'
'MON'
'MENT_'
'Len'
'Lan'
'Ke'
'Jacques_'
'Hal'
'Ha'
'Guilty_'
'Gro'
'Ger'
'Fr'
'Fisheries_'
'Exchange_'
'ES'
'ER'
'DC'
'Cro'
'Commerce_'
'Caribbean_'
'CH'
'CA_'
'Bonne_'
'Archives_'
'Air'
'Ac'
'95'
'78_'
'70'
'13'
'.  _'
' - '
' %._'
''
' (_'
'îles_'
'êtres_'
'événement_'
'zz'
'workshops_'
'wonder_'
'wine_'
'we'
'visits_'
'vis'
'villages_'
'vide_'
'victory_'
'veuillez_'
'ut'
'upper_'
'uns'
'undertaking_'
'uncertainty_'
'ul_'
'uk'
'tures_'
'traditionnelles_'
'tiques_'
'technologiques_'
'tangible_'
'sustainability_'
'surplus_'
'stra'
'storage_'
'spéciaux_'
'spring_'
'soviétique_'
'sorti_'
'soin_'
'sinon_'
'sample_'
'rre'
'roi_'
'rit'
'restricted_'
'replaced_'
'repas_'
'rencontrer_'
'remédier_'
'remboursement_'
'reg'
'raisonnable_'
'rail_'
'raf'
'rac'
'quo_'
'q'
'publicité_'
'pu'
'présentées_'
'présents_'
'préoccupation_'
'préc'
'proud_'
'proches_'
'prisoners_'
'preventing_'
'presentation_'
'prefer_'
'precise_'
'posts_'
'pleasant_'
'phones_'
'pertinentes_'
'peines_'
'passée_'
'paquet_'
'oo'
'obtenus_'
'nulle_'
'noter_'
'northern_'
'nit'
'nie_'
'nia'
'ney_'
'médicaux_'
'moindre_'
'mo_'
'micro_'
'mets_'
'masse_'
'loved_'
'lou'
'log'
'listing_'
'limitations_'
'limitation_'
'lev'
'ken'
'judges_'
'journal_'
'iso'
'io'
'invest_'
'instruction_'
'industrielle_'
'indications_'
'illes_'
'ila'
'ign'
'houses_'
'hi'
'handle_'
'guilty_'
'golf_'
'generate_'
'frequently_'
'fraude_'
'fourniture_'
'foster_'
'fixé_'
'finds_'
'finale_'
'fier_'
'ferroviaire_'
'fault_'
'falling_'
'extérieure_'
'extreme_'
'explore_'
'explanation_'
'exceptions_'
'estiment_'
'estimate_'
'essentielle_'
'error_'
'engaged_'
'enfance_'
'eli'
'ear'
'déployés_'
'dumping_'
'dos_'
'dly_'
'divorce_'
'discipline_'
'difficulté_'
'dh'
'determining_'
'depth_'
'depending_'
'dep'
'declared_'
'cy'
'culturelles_'
'cru'
'cri'
'courriel_'
'controlled_'
'constant_'
'confrontation_'
'complicated_'
'complaints_'
'chargée_'
'cars_'
'carefully_'
'car'
'brings_'
'bridge_'
'brain_'
'bo_'
'bateau_'
'bars_'
'back'
'aspirations_'
'ale'
'agences_'
'africains_'
'africaine_'
'administrations_'
'ace_'
'ac'
'ably_'
'West'
'We'
'Wa'
'WG_'
'WE'
'Venez_'
'Tur'
'Tel_'
'TA_'
'Sécurité_'
'Sub_'
'Ste'
'Se_'
'Rica_'
'Revenue_'
'Projet_'
'Port'
'Plat'
'Partie_'
'OSCE_'
'Next_'
'NT_'
'Museum_'
'Mac_'
'Lou'
'Ivoire_'
'Internal_'
'Inc'
'Ici_'
'INT'
'Hol'
'Hezbollah_'
'GU'
'Front_'
'Fais_'
'FR_'
'Euro_'
'Employment_'
'ET'
'Deuxième_'
'Côte_'
'Contracting_'
'Char'
'Change_'
'CN'
'C5_'
'Bir'
'Assistance_'
'Art_'
'Arm'
'Angola_'
'AN_'
'AE'
'900_'
'55'
'52'
'200'
'195'
'105_'
'... '
'...'
'.. _'
'.)_'
''
'н'
'île_'
'établis_'
'énormes_'
'élevée_'
'échéant_'
'ète_'
'· _'
'ym'
'yl_'
'xe'
'wor'
'wind_'
'wages_'
'volontaire_'
'visiter_'
'visa_'
'vin'
'verbal_'
'uti'
'uri'
'unfortunately_'
'typical_'
'tum'
'tres_'
'transaction_'
'topics_'
'tle_'
'till_'
'tension_'
'talked_'
'substantially_'
'streets_'
'sto'
'stic_'
'stands_'
'sson_'
'ss'
'spacious_'
'spa_'
'soi'
'ski'
'similaires_'
'scolaire_'
'saved_'
'sake_'
'runs_'
'river_'
'rer_'
'repose_'
'renewed_'
'relance_'
'regularly_'
'reconnus_'
'recon'
'quer_'
'présentes_'
'provisional_'
'promis_'
'privacy_'
'pregnant_'
'pon'
'pli'
'plage_'
'placé_'
'permission_'
'perd'
'percentage_'
'pensé_'
'payable_'
'pay'
'patent_'
'participated_'
'partenaire_'
'papier_'
'palestinienne_'
'organised_'
'ora'
'opposite_'
'ole'
'oires_'
'occurred_'
'narrow_'
'mondiaux_'
'mol'
'mod'
'mobility_'
'mm'
'mineurs_'
'marks_'
'mai'
'législatif_'
'logy_'
'lle'
'late'
'laissez_'
'joined_'
'ième_'
'ists_'
'istes_'
'island_'
'ise'
'iri'
'intéressés_'
'interpretation_'
'injury_'
'ingly_'
'infections_'
'indé'
'ifs_'
'iel_'
'ida'
'ici'
'hou'
'honour_'
'h00_'
'générations_'
'grade_'
'gent'
'gan'
'furniture_'
'furent_'
'fraud_'
'fous_'
'fort'
'fishermen_'
'fired_'
'figurant_'
'fifth_'
'fat_'
'fallait_'
'exécutif_'
'ethical_'
'ery_'
'entering_'
'engineering_'
'endo'
'enabling_'
'eating_'
'député_'
'déposé_'
'déficits_'
'déclin_'
'diverse_'
'discuter_'
'discovered_'
'directrices_'
'directions_'
'dip'
'dignité_'
'dig'
'destroyed_'
'datée_'
'damn_'
'customer_'
'consacré_'
'connected_'
'connaissent_'
'confrontés_'
'confirmer_'
'concrètes_'
'comprenant_'
'comm'
'combinaison_'
'clothes_'
'clinical_'
'climatisation_'
'calendrier_'
'bénéficie_'
'bly_'
'blement_'
'biologique_'
'auxquelles_'
'automatiquement_'
'attitudes_'
'artists_'
'apporté_'
'alt'
'agriculteurs_'
'administratif_'
'accroissement_'
'ablement_'
'Yukon_'
'YORK_'
'Win'
'Whether_'
'WA'
'Until_'
'UNCTAD_'
'UE'
'Tan'
'Taliban_'
'TC'
'Susan_'
'Sri_'
'Société_'
'Small_'
'Server_'
'Serbia_'
'Scotia_'
'SR_'
'SC_'
'Qua'
'Nombre_'
'Mus'
'Mur'
'Mel'
'Med'
'Mat'
'MP'
'Live_'
'Leur_'
'Leave_'
'Ju'
'Irish_'
'Iranian_'
'Head_'
'Fort'
'Figure_'
'FBI_'
'Enjoy_'
'Ecoute_'
'EL'
'Dép'
'Défense_'
'Delegation_'
'Daniel_'
'DVD_'
'DM'
'Culture_'
'Conf'
'Chu'
'Chi'
'Care_'
'Camp'
'CO_'
'CF'
'Blo'
'Bla'
'Beach_'
'Band'
':'
'9'
'67'
'47'
'46'
'37'
'212_'
'2020_'
'1982_'
'14'
'*'
') _'
') [_'
'! - _'
' >_'
'étique_'
'érer_'
'élu_'
'écart_'
'winning_'
'wer'
'welcomes_'
'wearing_'
'volé_'
'viande_'
'valid_'
'tted_'
'transmettre_'
'transfers_'
'traditionnelle_'
'tou'
'topic_'
'terminer_'
'temperature_'
'technologique_'
'taught_'
'survive_'
'surprised_'
'suggestion_'
'suffer_'
'subsidies_'
'strike_'
'strict_'
'souhaiterais_'
'sou'
'shop_'
'seminars_'
'seeks_'
'sea'
'schedule_'
'sch'
'salaire_'
'récents_'
'rouge_'
'rightly_'
'retrait_'
'restore_'
'reliable_'
'relationships_'
'recorded_'
'reaction_'
'railway_'
'publicly_'
'présidents_'
'précédemment_'
'prouver_'
'proceed_'
'preparing_'
'pouvais_'
'pourrons_'
'policymakers_'
'pol'
'personnelles_'
'perception_'
'pee'
'payé_'
'parliament_'
'parlement_'
'ov_'
'ore'
'oppose_'
'occupied_'
'nés_'
'nge_'
'nez_'
'nc'
'named_'
'mé'
'moyennes_'
'motifs_'
'mos'
'morte_'
'meurtre_'
'metres_'
'meets_'
'meat_'
'malade_'
'lying_'
'luxury_'
'lo'
'lits_'
'line'
'liked_'
'lettres_'
'leads_'
'lation_'
'landscape_'
'land'
'lancement_'
'lance_'
'kar'
'jurisdiction_'
'juges_'
'joueurs_'
'ites_'
'invention_'
'introduire_'
'inscrire_'
'incurred_'
'imaginer_'
'illégale_'
'ics_'
'highlighted_'
'heritage_'
'headed_'
'hau'
'hang_'
'handicapés_'
'ham'
'gra'
'gouvernementaux_'
'globalisation_'
'gli'
'glass_'
'ged_'
'gate_'
'fun'
'frères_'
'founded_'
'fonctionner_'
'financed_'
'fenêtre_'
'explosion_'
'exploiter_'
'evaluate_'
'espérer_'
'escape_'
'esc'
'ero'
'erne'
'entities_'
'enjeux_'
'engagé_'
'ending_'
'employers_'
'emplacement_'
'effectuées_'
'economists_'
'dépit_'
'duration_'
'drawing_'
'dra_'
'donnent_'
'dommages_'
'divisions_'
'directed_'
'diplomatique_'
'dina'
'dil'
'difficulty_'
'derived_'
'deeply_'
'cti'
'croyez_'
'criticism_'
'crew_'
'courte_'
'cooperate_'
'conçu_'
'consentement_'
'confirmation_'
'compréhension_'
'completion_'
'competence_'
'commit_'
'commandes_'
'commandant_'
'combating_'
'clos_'
'citizen_'
'cheap_'
'chauffage_'
'certificate_'
'centuries_'
'bre_'
'boom_'
'bo'
'blame_'
'bet_'
'basée_'
'aurons_'
'attendent_'
'attended_'
'attendant_'
'art'
'apparently_'
'apo'
'allant_'
'alia_'
'aise_'
'air'
'advisory_'
'advantages_'
'adults_'
'accomplis_'
'accompli_'
'accessibles_'
'] [_'
'Wow_'
'Wal'
'US'
'Tro'
'Tre'
'Travel_'
'Tibet_'
'Tele'
'Tar'
'TR'
'Syrian_'
'Swiss_'
'Suisse_'
'Still_'
'Situé_'
'Scott_'
'RÉ'
'Rep'
'RU'
'Première_'
'Persons_'
'PA_'
'Market_'
'Ly'
'Long_'
'Line_'
'Library_'
'Liban_'
'Lib'
'Les'
'Land'
'Lam'
'José_'
'Indonésie_'
'Hmm_'
'Having_'
'Governing_'
'Got_'
'Georgia_'
'Ge'
'GI'
'GH'
'GE_'
'Franc'
'Financing_'
'Fed_'
'FOR_'
'Ele'
'Dutch_'
'Drug_'
'Cour'
'Constitutional_'
'Communication_'
'Clients_'
'Click_'
'Class_'
'Ci'
'Chypre_'
'Chair_'
'Cause_'
'CR'
'Bru'
'Bosnie_'
'Beaucoup_'
'BC_'
'Autres_'
'Appendix_'
'AK'
'94'
'86'
'84_'
'81'
'75'
'60'
'54'
'51'
'1986_'
'194'
'17'
'130_'
'03'
'00'
'. -_'
'" '
' � _'
' : '
'’'
'étions_'
'élus_'
'élaboré_'
'église_'
'écrire_'
'âgées_'
'É_'
'« _'
'«_'
'{\\_'
'wrote_'
'workplace_'
'wear_'
'voies_'
'visiting_'
'via'
'verra_'
'vement_'
'valoir_'
'usual_'
'urged_'
'unt'
'une'
'unde'
'tric'
'trente_'
'treaties_'
'tranquille_'
'tours_'
'tone_'
'tiré_'
'terrace_'
'teachers_'
'tea_'
'taxi_'
'sée_'
'sweet_'
'surrounding_'
'surgi'
'surely_'
'supplied_'
'suffered_'
'subs'
'stro'
'strengthened_'
'stimulus_'
'spécialement_'
'souveraineté_'
'soutenue_'
'song_'
'sold_'
'smart_'
'sions_'
'signaler_'
'shouldn_'
'sexy_'
'secours_'
'scientists_'
'scheme_'
'sb'
'réside_'
'réchauffement_'
'récent_'
'réagir_'
'ry'
'rock_'
'ro'
'rian_'
'revi'
'retrouve_'
'resulted_'
'restructuring_'
'restriction_'
'respondents_'
'resolved_'
'resistance_'
'reservation_'
'représenter_'
'rent'
'rel'
'recrutement_'
'reconciliation_'
'rating_'
'rance_'
'quin'
'qui'
'présentent_'
'pré'
'providers_'
'professionnel_'
'professeur_'
'preliminary_'
'poisson_'
'platform_'
'piscine_'
'phénomène_'
'physiques_'
'pertinents_'
'personnelle_'
'pending_'
'pe'
'partnerships_'
'panel_'
'originally_'
'opportunité_'
'offence_'
'object_'
'noc'
'nk'
'newly_'
'neuvième_'
'necessarily_'
'médecine_'
'mur'
'municipal_'
'mountains_'
'mortality_'
'minimal_'
'min'
'medicine_'
'mate_'
'mant'
'managing_'
'manager_'
'mad_'
'lè'
'lundi_'
'losing_'
'lic'
'latter_'
'justification_'
'jouent_'
'jou'
'isa'
'internally_'
'infraction_'
'inclus_'
'incident_'
'immense_'
'htm_'
'hs_'
'hmm_'
'here'
'hauts_'
'grateful_'
'grants_'
'gou'
'fus'
'forever_'
'flu'
'fla'
'fiscaux_'
'finir_'
'filled_'
'filing_'
'fermé_'
'fat'
'farming_'
'far'
'expense_'
'expanded_'
'exciting_'
'excess_'
'ete'
'essay'
'ert'
'entreprendre_'
'enables_'
'employed_'
'eme'
'eh_'
'earth_'
'déterminé_'
'déploiement_'
'définitive_'
'défini_'
'déclare_'
'duquel_'
'driven_'
'dra'
'douche_'
'do'
'discharge_'
'disabilities_'
'devenus_'
'deli'
'dark_'
'cé'
'croit_'
'croissant_'
'cre'
'cour_'
'count_'
'copyright_'
'converti'
'contents_'
'constitué_'
'conformes_'
'communiste_'
'combine_'
'co'
'chat_'
'capitaine_'
'capables_'
'cab'
'bâtiment_'
'but'
'bs_'
'broader_'
'borne_'
'boost_'
'bis_'
'biennal_'
'beings_'
'beat_'
'bains_'
'automobile_'
'audience_'
'attempts_'
'assisté_'
'assa'
'arrest_'
'ard'
'answers_'
'amp'
'adresser_'
'adoptés_'
'accélérer_'
'William_'
'Whi'
'Vi'
'Ve'
'Try_'
'Tru'
'Syria_'
'Sub'
'Stratégie_'
'Square_'
'Spi'
'Space_'
'Sor'
'Sen'
'Ros'
'Results_'
'Rappelant_'
'Que'
'Pur'
'Prodi_'
'Place_'
'Pat'
'Pa'
'Over'
'OT'
'OS_'
'OMS_'
'OI'
'OD'
'Noël_'
'Net_'
'Net'
'Muslims_'
'Morgan_'
'Montreal_'
'Major_'
'MS'
'MINU'
'Luc'
'Kra'
'Kirk_'
'Inn_'
'IL'
'IE'
'Heritage_'
'Four_'
'Far'
'Esta'
'Empire_'
'ENT_'
'DÉ'
'Drugs_'
'Denmark_'
'DP'
'Chinois_'
'CIHR_'
'CC_'
'Bye_'
'Bus'
'Box_'
'Blue_'
'Barroso_'
'Ban'
'BL'
'Auto'
'Algeria_'
'Additional_'
'AM_'
'AL_'
'76_'
'71'
'58'
'45'
'1985_'
', « _'
'):_'
'%) _'
' /_'
' ) _'
''
'— _'
'т'
'ü'
'éventuellement_'
'étroitement_'
'étage_'
'équité_'
'électro'
'ég'
'échantillon_'
'Écoute_'
'© _'
'zéro_'
'yan_'
'wise_'
'wider_'
'western_'
'weather_'
'wan'
'vraie_'
'visited_'
'virtually_'
'victime_'
'vic'
'vi_'
'ventes_'
'uta'
'ura'
'ules_'
'ule'
'tru'
'tis_'
'til'
'tic'
'tentatives_'
'tchèque_'
'tar'
'séjourner_'
'sun'
'subsequently_'
'strange_'
'ssant_'
'sounds_'
'soumises_'
'somewhat_'
'solve_'
'ske'
'significance_'
'sic'
'seventh_'
'seemed_'
'secrets_'
'secondaires_'
'season_'
'sar'
'saisir_'
'résistance_'
'répercussions_'
'réparation_'
'réglementaire_'
'rythme_'
'ruling_'
'rues_'
'rs'
'rr'
'row_'
'ris'
'rices_'
'reçoit_'
'renouvelables_'
'religieuses_'
'relevance_'
'rejet'
'refusé_'
'refuser_'
'refers_'
'recall_'
'rant_'
'rage_'
'racism_'
'périodes_'
'ps'
'préfère_'
'prostitution_'
'pros'
'propriétaire_'
'profondément_'
'prescriptions_'
'portent_'
'politically_'
'po_'
'plate_'
'placement_'
'pic'
'participent_'
'paramètres_'
'paquets_'
'ously_'
'oriented_'
'organise_'
'ordinaire_'
'observers_'
'objets_'
'noté_'
'noir_'
'nette_'
'negotiated_'
'nch'
'naturally_'
'motif_'
'morale_'
'mono'
'modifiée_'
'med_'
'mani'
'maisons_'
'législatives_'
'lli'
'll'
'lets_'
'leisure_'
'legitimacy_'
'legally_'
'lect'
'lc'
'lat'
'lait_'
'lage_'
'lac_'
'killer_'
'jury_'
'jeunesse_'
'jeter_'
'istic_'
'ison_'
'ious_'
'intense_'
'infractions_'
'indicates_'
'inde'
'import_'
'hoped_'
'hea'
'hautes_'
'handed_'
'gue_'
'gratitude_'
'gradually_'
'governing_'
'gor'
'gi'
'ger'
'gen'
'ga'
'fédéraux_'
'fulfil_'
'frame_'
'focusing_'
'flexibilité_'
'fleet_'
'ffe'
'ettes_'
'ethnique_'
'eta'
'estimé_'
'es'
'entités_'
'enhancing_'
'enhanced_'
'empire_'
'eighth_'
'ea_'
'déclarer_'
'dur'
'drivers_'
'driver_'
'dreams_'
'doutes_'
'districts_'
'distinct_'
'directeurs_'
'devaient_'
'deployment_'
'demanding_'
'delegations_'
'defeat_'
'deemed_'
'decrease_'
'deco'
'debates_'
'cycles_'
'creative_'
'coups_'
'coordinated_'
'conversation_'
'continuous_'
'constaté_'
'consists_'
'considérés_'
'conjointement_'
'cong'
'conf'
'condamné_'
'concernées_'
'computers_'
'comp'
'claimed_'
'ched_'
'cha'
'cells_'
'cat_'
'cap'
'cad'
'bénéficient_'
'bâtiments_'
'bulletin_'
'bruit_'
'boulot_'
'boire_'
'blo'
'bilatéraux_'
'biennium_'
'beauté_'
'be'
'bataille_'
'band_'
'bag_'
'bag'
'audio_'
'assigned_'
'appliquée_'
'apparent_'
'apart_'
'améliorations_'
'amazing_'
'allocated_'
'allais_'
'ais'
'airports_'
'aid'
'ag'
'adds_'
'accurate_'
'Zo'
'VA'
'Up'
'Um_'
'Ts'
'Times_'
'TPS_'
'Stability_'
'Spa_'
'Soudan_'
'Smoking_'
'Slovenia_'
'Sign'
'Si'
'Sher'
'She'
'Sau'
'SL'
'Rou'
'Rob'
'Rec'
'Procedure_'
'Prends_'
'Pact_'
'PME_'
'PE_'
'Olympic_'
'Morocco_'
'Monitoring_'
'Millénaire_'
'MAR'
'Libya_'
'Lang'
'ILO_'
'Hy'
'Hon'
'HO'
'Gar'
'Fu'
'Fondation_'
'Fat'
'Européenne_'
'EA'
'Dé'
'DU'
'Cre'
'Corporate_'
'Conformément_'
'Conditions_'
'Comp'
'Caraïbes_'
'Ca'
'Ber'
'Barr'
'Bal'
'Arthur_'
'Area_'
'Alex_'
'Ag'
'AP_'
'?"_'
'? '
'87_'
'61'
'57'
'129_'
'" ?_'
' ▪ _'
'  _'
'…'
'л'
'ía_'
'établies_'
'éri'
'ér'
'équivalent_'
'éo'
'élé'
'writer_'
'workshop_'
'whi'
'waters_'
'warming_'
'vor'
'voient_'
'vit_'
'visées_'
'visas_'
'violences_'
'videos_'
'vez_'
'verre_'
'vaccins_'
'use'
'universities_'
'universelle_'
'unions_'
'ty'
'totalité_'
'top'
'tons_'
'titulaire_'
'tennis_'
'tape_'
'tan_'
'tabac_'
'sœur_'
'sérieusement_'
'séminaire_'
'symbol_'
'sum_'
'suddenly_'
'stressed_'
'stood_'
'sovereignty_'
'sovereign_'
'souvenir_'
'soil_'
'sive_'
'sin'
'simplification_'
'signes_'
'she'
'sd'
'scolaires_'
'sad_'
'révélé_'
'résultant_'
'réglementations_'
'réf'
'rod'
'roads_'
'ris_'
'retain_'
'ressort_'
'repeat_'
'rep'
'rencontré_'
'rena'
'remind_'
'remarks_'
'rem'
'religieux_'
'refus_'
'recourir_'
'reconnaît_'
'rds_'
'ray_'
'ras'
'quit'
'pêcheurs_'
'péri'
'pursuing_'
'pt_'
'prévus_'
'prudence_'
'prenant_'
'pratiquement_'
'pour'
'posé_'
'portes_'
'portable_'
'pop_'
'pie'
'pictures_'
'phrase_'
'pher'
'pha'
'pdf_'
'passengers_'
'parfaite_'
'paraît_'
'pa_'
'ought_'
'oubli'
'osi'
'opportunités_'
'op'
'onto_'
'ond'
'ology_'
'offerts_'
'offert_'
'occidental_'
'négatif_'
'nou'
'neighbouring_'
'nearby_'
'nde'
'ncy_'
'naturellement_'
'mur_'
'minibar_'
'mina'
'mic'
'mes'
'meal_'
'maître_'
'mart'
'manufacturers_'
'légitime_'
'lé_'
'lucky_'
'lobby_'
'limité_'
'license_'
'lecteur_'
'laboratoire_'
'ks'
'justifier_'
'jun'
'judgment_'
'journalistes_'
'ix_'
'iv_'
'ités_'
'iss'
'internationally_'
'integrity_'
'int'
'initiated_'
'infl'
'ill'
'hundreds_'
'humans_'
'horrible_'
'hasn_'
'guère_'
'gouverneur_'
'gle'
'gio'
'gg'
'generated_'
'fu'
'fournisseur_'
'fou_'
'fortune_'
'fondé_'
'feed_'
'fate_'
'familiar_'
'fai'
'fabricants_'
'expulsion_'
'expos'
'exploration_'
'exploit_'
'exit_'
'exempt_'
'exclusively_'
'eve'
'erm'
'eo'
'environments_'
'entends_'
'ent'
'enjoyed_'
'enabled_'
'emm'
'eco'
'ech'
'détruire_'
'découvert_'
'dure'
'doors_'
'display_'
'disability_'
'din'
'diminution_'
'dic'
'devriez_'
'dents_'
'dedans_'
'dan'
'ct'
'covers_'
'couvrir_'
'couples_'
'counter'
'cot'
'cop_'
'conventional_'
'contribuent_'
'contraintes_'
'conseiller_'
'connus_'
'confronté_'
'confort_'
'conciliation_'
'compléter_'
'comparison_'
'color_'
'cm_'
'circuit_'
'chinoise_'
'chapter_'
'certes_'
'cant'
'boîte_'
'bought_'
'bilan_'
'behaviour_'
'basi'
'attractions_'
'attracti'
'at'
'assumer_'
'assi'
'arro'
'arise_'
'appoint_'
'annually_'
'anniversary_'
'anim'
'ancient_'
'aménagement_'
'alcohol_'
'ak_'
'afford_'
'advertising_'
'adverse_'
'adopte_'
'ad'
'ach'
'accepte_'
'[ _'
'Yougoslavie_'
'Watch_'
'Was'
'Village_'
'Vietnam_'
'Van_'
'Uruguay_'
'UNHCR_'
'UL'
'Tour_'
'Through_'
'Team_'
'Task_'
'Storage_'
'Statistics_'
'Son'
'Six_'
'Several_'
'Search_'
'Sar'
'SA_'
'Reserve_'
'Requests_'
'Red'
'Queen_'
'Promotion_'
'Prix_'
'Plaza_'
'Out_'
'Ou'
'Op'
'OA'
'Nuclear_'
'Nor'
'Nicolas_'
'Nick_'
'NRC_'
'Myanmar_'
'Musée_'
'Music_'
'Mari'
'Mah'
'MS_'
'MC'
'List_'
'Lieutenant_'
'Lanka_'
'Language_'
'LU'
'Kha'
'Investment_'
'Insurance_'
'IC_'
'Hor'
'Headquarters_'
'Habitat_'
'Gui'
'Guests_'
'Free'
'Father_'
'FE'
'FC_'
'Excusez_'
'Evaluation_'
'EM_'
'Directorate_'
'Desk_'
'Design_'
'Der'
'Deposit_'
'Defence_'
'Danemark_'
'Crime_'
'Certes_'
'Capital_'
'Californie_'
'CHA'
'CB'
'Building_'
'Bu'
'Bon'
'Az'
'Autriche_'
'Assistant_'
'Anna_'
'Acc'
'AN'
'AF'
'? !_'
'76'
'36'
'1979_'
'1974_'
'08'
'.) _'
')}_'
'''_'
' «&_'
' ;_'
''
'е'
'œuvres_'
'éte'
'éra'
'éné'
'énergétiques_'
'énergies_'
'élève_'
'électroniques_'
'écrite_'
'ève_'
'Étant_'
'websites_'
'wave_'
'vita'
'vendredi_'
'variables_'
'upt'
'unity_'
'undermine_'
'u0027'
'transferts_'
'tobacco_'
'tis'
'théâtre_'
'thèmes_'
'therapy_'
'terminé_'
'tac'
'systématiquement_'
'succeed_'
'ssa'
'spécialistes_'
'speakers_'
'spa'
'soul_'
'souci_'
'solely_'
'sle'
'sheets_'
'seules_'
'selling_'
'scene_'
'scared_'
'sca'
'savait_'
'sau'
'résulte_'
'réputation_'
'réflexion_'
'règne_'
'rta'
'rt'
'row'
'risquent_'
'rie'
'returning_'
'requiert_'
'removed_'
'remis_'
'remarques_'
'remarque_'
'raciale_'
'quet_'
'question'
'présentant_'
'protect'
'proposes_'
'prom'
'profonde_'
'profil_'
'profession_'
'processed_'
'prescribed_'
'pourrions_'
'pos_'
'pointe_'
'pleasure_'
'plays_'
'plaintes_'
'placer_'
'pig'
'pierre_'
'partisans_'
'papers_'
'pan'
'owners_'
'organs_'
'organizational_'
'ores_'
'opa'
'ons'
'od'
'nz'
'norms_'
'noi'
'nn'
'nationals_'
'nal_'
'médicale_'
'mène_'
'ms'
'monthly_'
'montants_'
'mn'
'missiles_'
'minor_'
'metr'
'maximale_'
'matériels_'
'mailman_'
'lowest_'
'locked_'
'lla_'
'linguistic_'
'lending_'
'leg_'
'kitchen_'
'journalists_'
'isolation_'
'iser_'
'intend_'
'int_'
'insufficient_'
'initiale_'
'inequality_'
'indépendante_'
'indiquent_'
'incorporated_'
'incomp'
'implies_'
'impl'
'ignor'
'ic'
'hôte_'
'ht'
'hoping_'
'handling_'
'han_'
'gue'
'goût_'
'gov_'
'gouvernementale_'
'gon'
'gn'
'glo'
'gh_'
'generations_'
'garçons_'
'gan_'
'fying_'
'futurs_'
'furnished_'
'formule_'
'foot'
'financé_'
'filed_'
'ferai_'
'fax_'
'faster_'
'familiales_'
'facto_'
'extérieures_'
'extradition_'
'exposed_'
'excellente_'
'eth'
'est'
'essentially_'
'essaie_'
'envisage'
'entrepreneurs_'
'encourages_'
'en'
'employeurs_'
'emi'
'ema'
'edge_'
'déterminée_'
'désir_'
'définit_'
'décr'
'duc'
'ds'
'diss'
'disputes_'
'discut'
'discussing_'
'disc'
'dis'
'desk_'
'das_'
'dangers_'
'côtés_'
'craft_'
'court'
'correction_'
'corporation_'
'contre'
'contradict'
'constraints_'
'constitutes_'
'constate_'
'consolider_'
'complémentaires_'
'competent_'
'compare_'
'colour_'
'collected_'
'coast_'
'coal_'
'cles_'
'clarify_'
'civilisation_'
'citoyenneté_'
'check'
'chargés_'
'chap_'
'cerveau_'
'cards_'
'buying_'
'brutal_'
'boissons_'
'bite_'
'bi_'
'begun_'
'beer_'
'bea'
'bateaux_'
'bat_'
'barre'
'awarded_'
'aviation_'
'ast'
'asiatique_'
'arti'
'appelée_'
'apparition_'
'ambition_'
'allé_'
'alliés_'
'allies_'
'alleged_'
'alcool_'
'aidé_'
'affecting_'
'af'
'admissibles_'
'admissible_'
'adjustments_'
'adhere'
'acid_'
'achievements_'
'accordé_'
'accomplir_'
'accompanied_'
'acc'
'abandoned_'
'Young_'
'You'
'Wilson_'
'Wednesday_'
'Was_'
'UNECE_'
'Toi_'
'Suite_'
'Smith_'
'Sil'
'Shu'
'Schengen_'
'Sch'
'SAR'
'Rotary_'
'Rio_'
'Relations_'
'Reform_'
'Rather_'
'RT'
'RES_'
'Quelles_'
'Put_'
'Publications_'
'Prevention_'
'Pay'
'Palais_'
'PU'
'PR'
'POUR_'
'Ow'
'Natural_'
'Nat'
'NEPAD_'
'Mé'
'Mozambique_'
'Monetary_'
'Mexican_'
'Medical_'
'Meanwhile_'
'Me'
'Mau'
'Mali_'
'MAN'
'Lithuania_'
'Lee_'
'Lab'
'Ken'
'KI'
'KE'
'Joseph_'
'Joe_'
'Ing'
'Hel'
'Hai'
'Géorgie_'
'Gordon_'
'Fun'
'Fle'
'Festival_'
'FR'
'FC'
'Extra'
'Eu'
'Es_'
'Ensuite_'
'Enc'
'Documents_'
'Disarmament_'
'Dec'
'DO_'
'Croatia_'
'Country_'
'Coordination_'
'Chile_'
'Cap'
'Can'
'CANADA_'
'Brown_'
'Bob_'
'Beh'
'Ay'
'Autre_'
'Ash'
'Arabie_'
'Anne_'
'Ab'
'AL'
'AA_'
'AA'
'98'
'91'
'69'
'66'
'62'
'53'
'201'
'1950_'
'100'
'05'
'/'
'...?_'
'))._'
'!'
' –_'
'éventail_'
'évaluations_'
'étrange_'
'équip'
'éla'
'ès_'
'âme_'
'¨_'
'~_'
'ye_'
'yd'
'wood'
'wo'
'weekend_'
'walls_'
'vols_'
'visent_'
'verification_'
'venant_'
'ved_'
'usine_'
'urge_'
'universitaires_'
'uli'
'ua'
'tue'
'tude_'
'tte'
'trials_'
'travellers_'
'trained_'
'terror_'
'temporaire_'
'tea'
'tche'
'tat'
'sy'
'supérieurs_'
'suffisante_'
'suffi'
'succ'
'subsidiary_'
'stages_'
'spoken_'
'speaker_'
'soup'
'solides_'
'soldiers_'
'slightly_'
'signing_'
'significative_'
'shops_'
'serre_'
'septième_'
'sali'
'sac_'
'résidents_'
'rédaction_'
'rob'
'rm'
'rk'
'ressource_'
'residents_'
'resident_'
'requiring_'
'remplacement_'
'relie'
'ratified_'
'rat'
'racial_'
'quota_'
'quelles_'
'qualifiés_'
'puissances_'
'ption_'
'pte'
'pt'
'préféré_'
'précédente_'
'précision_'
'provenance_'
'prouvé_'
'promoted_'
'programmation_'
'primaire_'
'ppo'
'poursuit_'
'pourriez_'
'positifs_'
'port'
'plats_'
'pers_'
'permits_'
'performed_'
'pen'
'paye'
'patterns_'
'patron_'
'path'
'passion_'
'particulières_'
'parlez_'
'pari'
'pack_'
'oxy'
'outs'
'outlined_'
'oth'
'ordinateurs_'
'ordinaires_'
'orders_'
'opérationnel_'
'ope'
'officier_'
'objection_'
'nécessairement_'
'noti'
'normale_'
'nna'
'nets_'
'ned_'
'nau'
'nationality_'
'nat'
'mous'
'moteurs_'
'monuments_'
'ministérielle_'
'mer'
'longues_'
'logistique_'
'lise'
'library_'
'lent_'
'lag'
'kit_'
'kilo'
'ker'
'jurisdictions_'
'jan'
'ira'
'inscription_'
'industriels_'
'incompatible_'
'incapacité_'
'inca'
'inc'
'impr'
'importantly_'
'impe'
'ili'
'ik'
'ignorance_'
'héros_'
'hotels_'
'honourable_'
'honey_'
'home'
'holiday_'
'herself_'
'hei'
'head'
'hat'
'gos'
'gentil_'
'gathered_'
'frein'
'freely_'
'fournie_'
'fou'
'fondées_'
'fon'
'fixe_'
'feuille_'
'favorite_'
'fashion_'
'fallen_'
'facultatif_'
'exclusivement_'
'exclu'
'euses_'
'estimation_'
'esp'
'equity_'
'epi'
'envoie_'
'entity_'
'engine_'
'engage'
'endroits_'
'ences_'
'employeur_'
'eg'
'edit'
'ecte'
'décès_'
'durables_'
'disait_'
'disais_'
'directs_'
'diplomacy_'
'diminué_'
'différente_'
'devises_'
'deserve_'
'definitely_'
'cui'
'ct_'
'crédibilité_'
'credits_'
'credibility_'
'cou'
'cop'
'contract'
'constantly_'
'considèrent_'
'command'
'cker_'
'civilians_'
'citoyen_'
'cien'
'cari'
'carburant_'
'caméra_'
'cali'
'ca'
'bur'
'bombe_'
'biologiques_'
'bill_'
'bilité_'
'bid'
'bia'
'belles_'
'bel_'
'beds_'
'bearing_'
'aw'
'autorisé_'
'auto_'
'ats_'
'ateliers_'
'assessments_'
'ascenseur_'
'arm_'
'argu'
'appropriés_'
'appren'
'apport'
'ans'
'amend_'
'ame'
'al'
'ain'
'aimes_'
'agence_'
'agen'
'afternoon_'
'`_'
'Winnipeg_'
'Wii_'
'WC_'
'Vie'
'Va'
'Tunisia_'
'Tit'
'Tha'
'Sunday_'
'Steve_'
'Sometimes_'
'Simon_'
'Salle_'
'STA'
'SR'
'SF'
'Roman_'
'Region_'
'Ref'
'Recalling_'
'Ray_'
'Rand'
'RES'
'RD'
'Quelques_'
'Pers'
'Name_'
'NT'
'ND'
'Mis'
'Made'
'Location_'
'Lettre_'
'Lei'
'Kir'
'Jun'
'Jones_'
'Johnson_'
'Jake_'
'Islands_'
'Intergovernmental_'
'Int'
'Index_'
'Hungary_'
'Guinée_'
'Growth_'
'Gri'
'Garden_'
'GST_'
'GN'
'Funds_'
'Five_'
'Environnement_'
'Désolée_'
'Developing_'
'Desjardins_'
'Den'
'Dal'
'Chili_'
'Champ'
'CL'
'CI_'
'Bulgarie_'
'Br'
'Boy'
'Bor'
'Better_'
'Bas'
'Back_'
'Ap'
'Ambassadeur_'
'87'
'77'
'65'
'115_'
'..." _'
'), (_'
') : _'
'�'
'р'
'и'
'établie_'
'ép'
'éna'
'égo'
'éch'
'âgés_'
'Écosse_'
' (_'
'zar'
'yu'
'xa'
'worthy_'
'win'
'whoa_'
'veri'
'vent'
'va'
'us'
'ure'
'unp'
'underway_'
'unanimité_'
'ular_'
'uer_'
'tz_'
'tub'
'trouvant_'
'trains_'
'traditionnel_'
'tough_'
'tos'
'tort_'
'tors_'
'tolérance_'
'tol'
'tired_'
'tiny_'
'time'
'tif_'
'tia'
'throw_'
'thirty_'
'thi'
'texts_'
'tch'
'tap'
'taires_'
'syndicats_'
'swimming_'
'suspected_'
'survie_'
'subjects_'
'stockage_'
'ster'
'stabilisation_'
'soyez_'
'soutiens_'
'soutiennent_'
'souris_'
'som'
'solid_'
'soli'
'socialiste_'
'situés_'
'similaire_'
'sie_'
'sie'
'servi'
'sentir_'
'sec'
'score_'
'sco'
'sc_'
'sanitaires_'
'saison_'
'sail'
'réglementaires_'
'rus'
'rot'
'rop'
'roots_'
'ron_'
'rin'
'reçues_'
'revealed_'
'reu'
'rest'
'resse'
'respectively_'
'requérant_'
'requesting_'
'remarquer_'
'reject_'
'regulated_'
'recognised_'
'realistic_'
'rated_'
'rares_'
'quer'
'quasi_'
'pursued_'
'prés'
'protégés_'
'proposés_'
'producer_'
'pressures_'
'pilotes_'
'pil'
'ph'
'pest'
'persistent_'
'permettez_'
'passenger_'
'parles_'
'parlements_'
'pare'
'pairs_'
'pair_'
'ox_'
'ova'
'ose'
'ordres_'
'oon_'
'ong'
'ona'
'omis'
'olo'
'ok'
'ois_'
'officiellement_'
'of'
'oe'
'occidentale_'
'nted_'
'nse'
'notably_'
'normalement_'
'nor'
'ninth_'
'nic'
'negotiate_'
'nds_'
'naturelle_'
'métro_'
'mp_'
'montagne_'
'mix_'
'mistakes_'
'mille_'
'meta'
'mere_'
'ment'
'mauvaises_'
'matériaux_'
'marqué_'
'macroeconomic_'
'luck_'
'ls'
'lock_'
'lift_'
'leçons_'
'lay'
'lawyers_'
'lan'
'kidding_'
'kh'
'keys_'
'jugement_'
'joueur_'
'jo_'
'jo'
'ist'
'invité_'
'interpret'
'intensive_'
'institutionnels_'
'inquiétudes_'
'incluant_'
'inad'
'impressive_'
'implant'
'idiot_'
'ial'
'holders_'
'hiver_'
'hic'
'hauteur_'
'hall'
'h30_'
'gé'
'gotten_'
'gin'
'fy_'
'froid_'
'fri'
'franchi'
'franc_'
'fought_'
'ferr'
'exposés_'
'expe'
'exi'
'exhibit'
'evolution_'
'esse'
'ere_'
'ep'
'env'
'enterprise_'
'enregistrés_'
'ement'
'ees_'
'eas'
'détruit_'
'détermination_'
'détection_'
'désigné_'
'dépasse_'
'démographique_'
'démo'
'découlant_'
'dure_'
'donnant_'
'dominant_'
'domicile_'
'dogs_'
'disque_'
'disposal_'
'disappeared_'
'dirais_'
'diminuer_'
'diable_'
'destinée_'
'democracies_'
'demi'
'dai'
'côte_'
'currencies_'
'cum'
'cré'
'creates_'
'couvert_'
'cour'
'correctly_'
'copie_'
'continental_'
'constat'
'conjunction_'
'confi'
'condamn'
'concepts_'
'compétents_'
'complic'
'compa'
'commissaires_'
'collect'
'colleague_'
'coastal_'
'claires_'
'claimant_'
'citizenship_'
'chrétiens_'
'ching_'
'chien_'
'charbon_'
'channels_'
'chain_'
'certainty_'
'cel'
'caus'
'campagnes_'
'cache'
'bye_'
'bud'
'brevet_'
'bref_'
'blu'
'bibliothèque_'
'band'
'balle_'
'bags_'
'ba'
'az'
'ave'
'avancée_'
'aval'
'autonomie_'
'aut'
'augmente_'
'atory_'
'ast_'
'asi'
'apprécie_'
'appropriations_'
'approches_'
'appro'
'apportées_'
'appartements_'
'apparaît_'
'ap'
'angry_'
'amongst_'
'alg'
'ajoutée_'
'ajoute_'
'adulte_'
'admit_'
'accusé_'
'accru_'
'accordingly_'
'accorde_'
'accompli'
'abe'
'Whatever_'
'Wei'
'WHO_'
'Version_'
'Van'
'Under'
'USB_'
'UND'
'Trésor_'
'Tom'
'Tokyo_'
'Tiens_'
'TIR_'
'TH'
'Super'
'Sun_'
'Stu'
'Stor'
'Sto'
'Sol'
'Senior_'
'Self_'
'Say_'
'Sat'
'Santa_'
'Sand'
'Salvador_'
'Round_'
'Rod'
'Ret'
'Records_'
'Read_'
'RI_'
'RC_'
'Quels_'
'Pérou_'
'Ps_'
'Prot'
'Press_'
'Pres'
'Premièrement_'
'Ple'
'Pla'
'Pie'
'Permettez_'
'Past'
'PER'
'Optional_'
'Nairobi_'
'NO_'
'Mot'
'Maroc_'
'Main_'
'Looks_'
'Local_'
'Lia'
'Lau'
'Land_'
'Lac'
'LAN'
'Kevin_'
'Kara'
'Journée_'
'Jim_'
'Jewish_'
'Inf'
'Industrial_'
'Income_'
'Import'
'Ill'
'ISO_'
'IO'
'IG'
'ICE'
'HP_'
'Games_'
'Fundamental_'
'Full_'
'Fro'
'Fri'
'Form_'
'Finances_'
'Film_'
'Ex'
'Eco'
'EF'
'Déc'
'Dom'
'Doctor_'
'Digital_'
'DIS'
'Cultural_'
'Cross_'
'Content_'
'Communities_'
'Commissariat_'
'Cla'
'Chris_'
'Centres_'
'Celui_'
'Casino_'
'CG'
'CF_'
'CAN'
'BP'
'Avis_'
'Ari'
'Angleterre_'
'Ang'
'Among_'
'Algérie_'
'Ale'
'Afghan_'
'Adam_'
'Abs'
'AU_'
'ARC_'
'78'
'56'
'350_'
'1990s_'
'1981_'
'1978_'
'189'
'180_'
'130'
'103_'
'+'
' − _'
' » '
' »'
' : (_'
' - _'
' + _'
' #_'
'• '
'”_'
'ôt'
'ît_'
'éva'
'érie'
'équipées_'
'épreuve_'
'ém'
'élevées_'
'électoral_'
'élargir_'
'çons_'
'È'
'°_'
' ;_'
'yn'
'withdraw_'
'wit'
'wherever_'
'wee'
'wed_'
'warned_'
'vul'
'von_'
'vité_'
'veto_'
'versus_'
'varia'
'val'
'vaccination_'
'ussi'
'usly_'
'usa'
'uring_'
'urgency_'
'upset_'
'unlike_'
'unes_'
'undoubtedly_'
'ude'
'ub'
'tragedy_'
'traduit_'
'tr'
'tourne_'
'to'
'tle'
'tire'
'tira'
'tiennent_'
'tial_'
'ths_'
'threatened_'
'tenus_'
'tenant_'
'tec'
'tch_'
'taste_'
'tas_'
'séparation_'
'systematic_'
'swe'
'swa'
'suprême_'
'supporters_'
'sufficiently_'
'stupéfiants_'
'stor'
'stl'
'stin'
'ste'
'staying_'
'statut'
'ssions_'
'split_'
'spe'
'soumise_'
'sortes_'
'sols_'
'slowly_'
'situe_'
'sit'
'signalé_'
'shortly_'
'short'
'shame_'
'serves_'
'servant_'
'script_'
'schemes_'
'sc'
'saisi_'
'révisé_'
'réussir_'
'rétablissement_'
'rétablir_'
'rti'
'roles_'
'rire_'
'reçoivent_'
'revue_'
'retained_'
'resort_'
'renovated_'
'remo'
'registre_'
'rats_'
'rain'
'quotidienne_'
'quantities_'
'qualifications_'
'pé'
'pti'
'psycho'
'préservation_'
'préparatoire_'
'provider_'
'prospect_'
'profound_'
'profondes_'
'produisent_'
'primaires_'
'pressing_'
'preserve_'
'prescription_'
'preparatory_'
'pp'
'possibilities_'
'politiciens_'
'poissons_'
'play'
'plantes_'
'pill'
'picked_'
'pes'
'pers'
'permettront_'
'periodic_'
'pensée_'
'peau_'
'pat'
'pacte_'
'orc'
'optional_'
'oppos'
'ong_'
'ond_'
'ome'
'ologie_'
'og_'
'ode'
'octroi_'
'occurring_'
'objects_'
'nul_'
'nsi'
'nov'
'nk_'
'nis'
'nin'
'night'
'nf'
'neo'
'médical_'
'm²_'
'museum_'
'moves_'
'mort'
'mora'
'modest_'
'moderate_'
'missile_'
'militants_'
'mem'
'mecs_'
'mau'
'marge_'
'manu'
'manifest'
'mange'
'male_'
'magic_'
'légale_'
'lun'
'lon_'
'listening_'
'liquid_'
'life'
'libres_'
'les'
'lancée_'
'lan_'
'laissant_'
'kind'
'judiciary_'
'journey_'
'jointly_'
'ject'
'jar'
'izing_'
'isé_'
'intérieures_'
'intégrité_'
'intergouvernementales_'
'ini'
'inh'
'inférieur_'
'inevitable_'
'individuels_'
'indemnisation_'
'ima'
'illi'
'iles_'
'ignorer_'
'ignored_'
'ieux_'
'identifying_'
'id'
'icul'
'hôtels_'
'hyper'
'hyp'
'hospitals_'
'horse_'
'hit'
'heat_'
'heart'
'has'
'géographique_'
'gy_'
'gueule_'
'guerres_'
'gross_'
'grew_'
'gratuit_'
'granting_'
'grain_'
'gne_'
'gne'
'gestionnaires_'
'gem'
'gel'
'fréquence_'
'fortes_'
'flag_'
'fixer_'
'fiabilité_'
'feront_'
'fermeture_'
'fee_'
'fal'
'fairly_'
'faillite_'
'expr'
'explicitly_'
'expanding_'
'existant_'
'exigence_'
'excédent_'
'exceed_'
'examining_'
'estate_'
'esa'
'ere'
'environmentally_'
'entré_'
'enemy_'
'ende'
'encourage'
'enchant'
'eff'
'economically_'
'détérior'
'dépendance_'
'dép'
'dénom'
'démocraties_'
'définies_'
'défi'
'défa'
'décon'
'dé_'
'dry_'
'dormir_'
'donors_'
'domin'
'docteur_'
'dle'
'dizaines_'
'dissemination_'
'disparition_'
'disk_'
'disabled_'
'dir'
'différends_'
'devo'
'devise_'
'desirable_'
'describe_'
'demandeurs_'
'definitions_'
'defend_'
'dece'
'deaths_'
'dd'
'damaging_'
'dal'
'crossing_'
'critère_'
'couleurs_'
'corp'
'convenu_'
'contenus_'
'conta'
'constante_'
'constamment_'
'considérées_'
'connect'
'confidentialité_'
'concernent_'
'compete_'
'communique'
'come'
'combler_'
'colonies_'
'coherent_'
'coc'
'clientèle_'
'cle'
'classified_'
'civiles_'
'cigarettes_'
'ciel_'
'charming_'
'centri'
'cens'
'cen'
'cargo_'
'bot'
'bord'
'blind_'
'bis'
'bing_'
'billets_'
'bee'
'aï'
'axée_'
'award_'
'awa'
'automobiles_'
'augment'
'auberge_'
'atténuer_'
'attain'
'ase'
'arte'
'archives_'
'approve_'
'annulation_'
'annoncer_'
'amé'
'ambitieux_'
'ambi'
'ake'
'ai'
'agissait_'
'agi'
'affi'
'affects_'
'ae'
'adult_'
'adopting_'
'administered_'
'adding_'
'adapt'
'acquitter_'
'acknowledged_'
'acheté_'
'accusation_'
'acceptation_'
'abandonner_'
']'
'Who'
'WI'
'Voi'
'Video_'
'VE_'
'Unless_'
'UM'
'Top_'
'Think_'
'Test'
'Tableau_'
'TS_'
'TELUS_'
'Syn'
'Sy'
'Sus'
'Stra'
'Stay_'
'Statement_'
'Southern_'
'Singapore_'
'Show_'
'Ship'
'Senate_'
'See'
'Sab'
'SMEs_'
'SC'
'Risk_'
'Ris'
'Rei'
'Radio_'
'Rad'
'RR'
'Quelque_'
'Pré'
'Province_'
'Property_'
'Professional_'
'Process_'
'Parliamentary_'
'PL'
'OH'
'Numéro_'
'Nom_'
'NA_'
'Mos'
'Mira'
'Micro'
'Men'
'May'
'Marshall_'
'Marie_'
'Main'
'Mai'
'Mahmoud_'
'MI'
'Lula_'
'Louis_'
'Los_'
'Lit'
'Kur'
'Kin'
'Keynes_'
'Ker'
'Kam'
'KA'
'Johannesburg_'
'Jan'
'Jac'
'JU'
'Info'
'IND'
'Hour_'
'Hau'
'HS'
'Gue'
'Grace_'
'Gestion_'
'Geo'
'FU'
'FO'
'FIN'
'Experts_'
'Exp'
'Everybody_'
'Ethiopia_'
'Edition_'
'Easy_'
'EX'
'Durant_'
'Donne_'
'District_'
'Daw'
'DN'
'DA_'
'Cy'
'Copyright_'
'Clar'
'Chávez_'
'Chef_'
'Chan'
'Catholic_'
'Canadiennes_'
'CEO_'
'CAN_'
'Bé'
'Bosnia_'
'Bol'
'Ayant_'
'Avez_'
'Arts_'
'Articles_'
'Army_'
'Ara'
'Appeal_'
'Annual_'
'Angela_'
'Andy_'
'Albania_'
'Ala'
'Ak'
'Ah'
'Accordingly_'
'Abe'
'ASEAN_'
'> _'
'63'
'59'
'205_'
'.&_'
' "..._'
''
' '
'  _'
'’._'
'в'
'š'
'év'
'étiquetage_'
'épi'
'émergents_'
'élo'
'éci'
'éa'
'Év'
'»'
'{_'
'zo_'
'ward_'
'vit'
'visitors_'
'visites_'
'visage_'
'venez_'
'vant_'
'valable_'
'vacation_'
'uste'
'uranium_'
'unprecedented_'
'unilateral_'
'uniform_'
'unification_'
'uf'
'tue_'
'tting_'
'trouvera_'
'trou'
'trees_'
'tre'
'trade'
'traces_'
'touchés_'
'tolér'
'tolerance_'
'timing_'
'tied_'
'threatening_'
'thousand_'
'textile_'
'teacher_'
'tas'
'tarifs_'
'tar_'
'tail'
'tackle_'
'sûrement_'
'systemic_'
'syndrome_'
'symptômes_'
'swing'
'surmonter_'
'succession_'
'subvention_'
'subir_'
'studio_'
'stock'
'sting_'
'star'
'stagnation_'
'ssai'
'spo'
'souverain'
'sound'
'sonne'
'sondages_'
'son'
'sole_'
'solaire_'
'smell_'
'sma'
'siècles_'
'sin_'
'shel'
'sha'
'settled_'
'serons_'
'seri'
'serez_'
'sensibiliser_'
'secondaire_'
'scu'
'schi'
'scen'
'satisfied_'
'salary_'
'safeguard_'
'sacrifi'
'résumé_'
'réservation_'
'réductions_'
'rédigé_'
'réclam'
'réalisations_'
'richesse_'
'ria'
'revêt_'
'responded_'
'resist'
'reservations_'
'reproductive_'
'repos_'
'reply_'
'renforcé_'
'rendent_'
'ren'
'remarkable_'
'relancer_'
'rejet_'
'registres_'
'regardless_'
'recording_'
'reb'
'reas'
'rass'
'rapides_'
'rain_'
'raci'
'quiconque_'
'quantités_'
'pushed_'
'purchased_'
'prédi'
'précises_'
'procédé_'
'printed_'
'pricing_'
'prendra_'
'precious_'
'power'
'posted_'
'pos'
'porté_'
'portefeuille_'
'poorest_'
'pis'
'pilot_'
'pes_'
'personnellement_'
'pensait_'
'pencher_'
'pel_'
'ped'
'passion'
'passa'
'part'
'parlons_'
'orn'
'ordered_'
'orateurs_'
'onal'
'oll'
'offences_'
'occurrence_'
'née_'
'nu_'
'nie'
'nic_'
'nge'
'new'
'neuro'
'nettoyage_'
'nettement_'
'nes'
'neighbors_'
'nb'
'naturels_'
'naire_'
'médi'
'montée_'
'module_'
'ml'
'mid'
'mers_'
'mentionn'
'mentation_'
'mel'
'medi'
'mb'
'manufacture_'
'mandatory_'
'lon'
'loisirs_'
'lis_'
'liquidity_'
'letters_'
'let'
'lesson_'
'lem'
'lake_'
'laissent_'
'kt'
'kl'
'kinds_'
'kha'
'justified_'
'justifi'
'judiciaires_'
'judg'
'jolie_'
'joie_'
'jail_'
'is'
'irai'
'inégalités_'
'intégrés_'
'integral_'
'inspections_'
'insister_'
'innovat'
'inhabitants_'
'info_'
'inacceptable_'
'imported_'
'imper'
'impasse_'
'ight'
'ification_'
'ich'
'hébergement_'
'honest_'
'hole_'
'ho_'
'histoires_'
'hire_'
'hide_'
'hidden_'
'heureuse_'
'hero_'
'hem'
'han'
'génie_'
'génial_'
'greenhouse_'
'grav'
'gr'
'gon_'
'gau'
'garantit_'
'gang_'
'froide_'
'frappé_'
'foyers_'
'fournissent_'
'forums_'
'formé_'
'formulées_'
'forests_'
'flying_'
'fl'
'fiscales_'
'file'
'fied_'
'fi_'
'ff'
'feuilles_'
'fermer_'
'fau'
'fan'
'fair'
'fails_'
'facilitation_'
'exprime_'
'exigé'
'ev_'
'ett'
'eti'
'esco'
'ept'
'eon'
'envergure_'
'entraîné_'
'ennemis_'
'ennemi_'
'enn'
'endorse_'
'endi'
'emprunt'
'emprisonnement_'
'emphasise_'
'emerged_'
'elli'
'electro'
'ek_'
'ection_'
'eastern_'
'ear_'
'détr'
'détaillées_'
'département_'
'démontré_'
'découverte_'
'décide_'
'débattre_'
'dying_'
'drôle_'
'dropped_'
'doctrine_'
'disso'
'discriminat'
'dirigeant_'
'die'
'dial_'
'dest'
'designs_'
'descend'
'demandons_'
'decides_'
'deci'
'deals_'
'dea'
'dat'
'créée_'
'créant_'
'cru_'
'cosy_'
'convey'
'consolidate_'
'consign'
'considerations_'
'conservat'
'consequence_'
'condamnés_'
'concrets_'
'conci'
'conce'
'comprises_'
'comportements_'
'competitors_'
'commencent_'
'color'
'coll'
'clu'
'closing_'
'classique_'
'circle_'
'choc_'
'checks_'
'chanson_'
'cere'
'cellules_'
'cease_'
'cco'
'cc'
'causé_'
'cart'
'captain_'
'cai'
'cache_'
'bénéfice_'
'button_'
'buts_'
'burn_'
'bul'
'brothers_'
'broadly_'
'bres_'
'breaking_'
'bomb_'
'blow'
'biological_'
'billions_'
'bigger_'
'bid_'
'belonging_'
'bel'
'bedrooms_'
'bail_'
'axe_'
'avère_'
'aviez_'
'avi'
'aver'
'autoroute_'
'authors_'
'aurai_'
'aud'
'attract_'
'attentats_'
'ational_'
'atelier_'
'assister_'
'assassin'
'aria'
'appellent_'
'appearance_'
'aper'
'apa'
'anonym'
'ang'
'and'
'amoureux_'
'amn'
'allo'
'alité_'
'ains_'
'aimé_'
'aiment_'
'aident_'
'admis_'
'acr'
'accusations_'
'acce'
'Xbox_'
'Wo'
'Vienne_'
'Var'
'Up_'
'Unlike_'
'Town_'
'Toujours_'
'Too_'
'Th'
'Texas_'
'Tea'
'Tch'
'Tarif'
'TVH_'
'TF'
'Survey_'
'Subs'
'Soi'
'Slovakia_'
'Skype_'
'Sco'
'Sciences_'
'Sc'
'Sant'
'San'
'SM'
'SIDA_'
'Roman'
'Repr'
'Reports_'
'Recherche_'
'REA'
'Prêt'
'Programs_'
'Product_'
'Post'
'Play'
'Peru_'
'Patrimoine_'
'Patent_'
'PSE_'
'PN'
'PL_'
'PLA'
'PES'
'PAR'
'Outre_'
'OU'
'OIT_'
'OB'
'Newfoundland_'
'Nation_'
'Mei'
'Meg'
'Measures_'
'Mart'
'Marc'
'Libye_'
'Lev'
'Letter_'
'Larry_'
'Languages_'
'LIN'
'Kazakhstan_'
'JA'
'Isn_'
'Is'
'Introduction_'
'Imp'
'Imm'
'Ie_'
'IBM_'
'Hu'
'Heureusement_'
'Harry_'
'Hague_'
'HST_'
'HE'
'Gun'
'Gate'
'Funding_'
'Fort_'
'Firstly_'
'FT'
'Expe'
'England_'
'Ec'
'Dy'
'Dun'
'Dre'
'Damn_'
'DS'
'DD'
'Continue'
'Consumer_'
'Cond'
'Competition_'
'Chicago_'
'Change'
'Cer'
'Carr'
'Cabinet_'
'CON'
'Budgetary_'
'Bot'
'Book_'
'Black'
'Bis'
'Bell_'
'Belgique_'
'Bai'
'BM'
'Ava'
'Aug'
'Assessment_'
'Anti_'
'Ana'
'Agent_'
'Ade'
';?_'
'97'
'89'
'85'
'82'
'74'
'360_'
'240_'
'1984_'
'192_'
'1373_'
'1000_'
') – _'
' *_'
' ''
' "'
''
'€'
'с'
'ó'
'ï_'
'évite'
'ét'
'épouse_'
'émis_'
'ément_'
'élabor'
'économistes_'
'éclair'
'échantillons_'
'échange'
'èle'
'ç'
'ÉR'
'zen_'
'yi'
'wl'
'withdrawal_'
'winter_'
'whereby_'
'warrant_'
'wa_'
'vêtements_'
'voulaient_'
'vet'
'vesti'
'vessels_'
'venus_'
'vastes_'
'varied_'
'validation_'
'vaisseau_'
'ué_'
'utilité_'
'unf'
'undertakings_'
'uncon'
'um'
'uille'
'twelve_'
'tron'
'transformer_'
'trait'
'trailer_'
'toxic_'
'ton'
'tombe_'
'title_'
'ticket_'
'thirds_'
'tent_'
'temp'
'tement_'
'séminaires_'
'séances_'
'sustained_'
'surveiller_'
'surve'
'suggéré_'
'subsidiarité_'
'storm_'
'stimuler_'
'sted_'
'starts_'
'sphere_'
'spectacle_'
'souvien'
'solde_'
'smi'
'skin_'
'sk_'
'signa'
'sight_'
'shooting_'
'sheet_'
'sen'
'segment_'
'sees_'
'seats_'
'scénarios_'
'scrutin_'
'sch_'
'saur'
'satisfait_'
'saine_'
'réunir_'
'réjouis_'
'réduisant_'
'récupérer_'
'rup'
'rte'
'royal_'
'roughly_'
'rol'
'riz'
'rio'
'rial_'
'reviewing_'
'reveal_'
'retire_'
'restera_'
'ressortissants_'
'respected_'
'reso'
'rese'
'requises_'
'reprendre_'
'repos'
'remont'
'rement_'
'remarqué_'
'relevé_'
'regarded_'
'refo'
'rede'
'receipt_'
'rarement_'
'ralentissement_'
'ral'
'rai'
'radiation_'
'rable_'
'quit_'
'pursuit_'
'puissants_'
'préparé_'
'préliminaire_'
'préjudice_'
'précédents_'
'profond_'
'proc'
'priv'
'poursuites_'
'pola'
'plenty_'
'plain'
'plafond_'
'phi'
'phases_'
'perfectly_'
'pattern_'
'patri'
'pati'
'password_'
'partition_'
'parliaments_'
'parl'
'paras_'
'ot'
'ost'
'orientale_'
'opportun_'
'oma'
'ole_'
'ol'
'oge'
'offr'
'occupé_'
'obligé_'
'obliged_'
'oblige_'
'objections_'
'négocier_'
'négoci'
'numériques_'
'num'
'ns'
'nne_'
'nier_'
'nh'
'necessity_'
'nda_'
'nac'
'mét'
'mérit'
'mètre_'
'multinational_'
'mou'
'motor_'
'mot'
'monter_'
'missed_'
'miser'
'metro_'
'meters_'
'messieurs_'
'measured_'
'mea'
'marcher_'
'manières_'
'malaria_'
'légèrement_'
'luxe_'
'lunch_'
'long'
'ller_'
'lité_'
'lim'
'likelihood_'
'lights_'
'libération_'
'liberalisation_'
'kick_'
'justify_'
'jam'
'israélienne_'
'isolated_'
'investi'
'invested_'
'intra'
'intimidation_'
'interview_'
'interdire_'
'intensité_'
'install'
'ini_'
'informés_'
'infer'
'infa'
'inex'
'iness_'
'indépendants_'
'indiquant_'
'incombe_'
'incertitude_'
'incentive_'
'imprimé'
'importer_'
'impliqués_'
'impa'
'immuni'
'immigrant_'
'imi'
'iment_'
'illicit_'
'iff'
'ides_'
'ident'
'ian'
'héritage_'
'hurry_'
'hunger_'
'hot'
'hol'
'hing_'
'highlight_'
'headquarters_'
'gui'
'guard_'
'gru'
'grosse_'
'gratuite_'
'gna'
'ght'
'generat'
'gel_'
'gas'
'garage_'
'gaining_'
'frequency_'
'free'
'four'
'formula_'
'fonctionnalités_'
'flo'
'flights_'
'fest'
'feelings_'
'fe'
'ez'
'exporter_'
'exiger_'
'exemplaire_'
'exchanges_'
'exceptionnelle_'
'esta'
'ert_'
'erra'
'erna'
'eous_'
'envisage_'
'entrepren'
'entra'
'enthousiasme_'
'enseignants_'
'endorsed_'
'emphasized_'
'emballage_'
'eld_'
'ek'
'earned_'
'dûment_'
'dés'
'déroule'
'déplacement_'
'déma'
'débatt'
'dront_'
'douze_'
'douleur_'
'dom'
'divided_'
'dispositifs_'
'displayed_'
'director_'
'digne_'
'differ'
'devienne_'
'custody_'
'cus'
'cu'
'cted_'
'créés_'
'créati'
'cruel'
'crop_'
'cous'
'courrier_'
'courante_'
'correspondent_'
'cope_'
'cooking_'
'convenient_'
'contribuable_'
'continué_'
'consult'
'constitu'
'connue_'
'connections_'
'conjointe_'
'confess'
'conducting_'
'compos'
'comport'
'compensat'
'commencement_'
'comme'
'collect_'
'coe'
'cler'
'clauses_'
'clarification_'
'citer_'
'cinéma_'
'cie'
'cheval_'
'cher'
'chal'
'cd'
'cca'
'cav'
'causing_'
'carr'
'cann'
'can'
'camion_'
'cadeau_'
'cac'
'burn'
'boot_'
'booking_'
'blocks_'
'blessures_'
'birthday_'
'birds_'
'begins_'
'bbe'
'bb'
'bas'
'baro'
'baisser_'
'badly_'
'autorise_'
'automatic_'
'auspices_'
'attractive_'
'attending_'
'att'
'assorti'
'asso'
'assessing_'
'assembl'
'asiatiques_'
'aro'
'arn'
'arbitra'
'apprécier_'
'apport_'
'applying_'
'appliquées_'
'appartenance_'
'apparemment_'
'ape'
'ané'
'annuels_'
'ane'
'anciennes_'
'alliances_'
'allemande_'
'allegations_'
'ajouté_'
'aisé'
'aie_'
'ah'
'aggregate_'
'actualité_'
'acti'
'acknowledge_'
'aci'
'accused_'
'accou'
'accompagné_'
'academic_'
'abuses_'
'] '
'\\'
'XXIe_'
'XI'
'Wil'
'Whoa_'
'Vos_'
'Vienna_'
'Vic'
'Vas_'
'Valley_'
'UNI'
'Type_'
'Trust_'
'Together_'
'Tin'
'Tim_'
'Thaïlande_'
'Tant_'
'Tai'
'T4'
'Système_'
'Studies_'
'Stephen_'
'Start_'
'Standard_'
'Solana_'
'Ski'
'Similarly_'
'Seuls_'
'Series_'
'Sauf_'
'Saturday_'
'Sales_'
'STAT'
'SB'
'Roc'
'Rh'
'Return_'
'Rest'
'Resolution_'
'Reg'
'RS'
'RN'
'RD_'
'Quality_'
'Qatar_'
'Protect'
'Pri'
'Poutine_'
'Por'
'Population_'
'Pop'
'Pas'
'Part'
'Pan'
'PRE'
'PAC_'
'Ombudsman_'
'Oil_'
'ORT'
'Neither_'
'Movement_'
'Monte'
'Minutes_'
'Mini'
'Met'
'McG'
'Master_'
'Mark'
'Marg'
'Map'
'Mad'
'MM'
'MIN'
'MHz_'
'MB_'
'Luke_'
'Located_'
'Ladies_'
'LS'
'LC'
'Ky'
'Kremlin_'
'JE'
'Item_'
'Inter_'
'Id'
'Ibid_'
'IA_'
'Huh_'
'Hei'
'Heads_'
'Hay'
'Hat'
'Hand'
'Gu'
'Green'
'Gh'
'Gee'
'GP'
'Francisco_'
'Forget_'
'Forest_'
'Flo'
'Fifth_'
'FS'
'Examen_'
'Eth'
'Esc'
'Eng'
'Emp'
'Elli'
'Eddie_'
'EP_'
'Doi'
'Doc_'
'Disp'
'Discrimination_'
'Directors_'
'Demande_'
'DNA_'
'DG'
'DAT'
'Conduct_'
'Concern'
'Con'
'Compliance_'
'Colonel_'
'College_'
'Cit'
'Celle_'
'Catherine_'
'Carl'
'CV'
'CU'
'CK'
'Burma_'
'Budapest_'
'Brian_'
'Brand'
'Bos'
'Bienvenue_'
'Bert'
'Bat'
'Barcelone_'
'BER'
'Audit_'
'Ath'
'Arc'
'Apple_'
'Angel'
'Analysis_'
'Amy_'
'Alt'
'Albert_'
'Aide_'
'Age_'
'AT_'
'ADN_'
'963_'
'84'
'72'
'1983_'
'1967_'
'1930_'
'19'
'186'
'125_'
'102_'
'101_'
'06'
'.  _'
'.  _'
'..."_'
'- "_'
'). — (_'
''?_'
'%'
' –'
''
' '
'été'
'éma'
'électrique_'
'écu'
'échelon_'
'Écoutez_'
'» (_'
' »'
'yp'
'yen_'
'yb'
'yant'
'ws'
'wondering_'
'with'
'wished_'
'wild_'
'welcoming_'
'wea'
'wan_'
'vulnerability_'
'voyons_'
'voyage'
'volontaires_'
'volet_'
'voi'
'vivement_'
'viole'
'veu'
'vengeance_'
'ven_'
'vary_'
'variation_'
'vani'
'valu'
'uv'
'uo'
'unnecessary_'
'universe_'
'united_'
'ume'
'ula'
'uit_'
'ui'
'uci'
'ua_'
'télécommunications_'
'tus_'
'tter_'
'truct'
'trouvai'
'trou_'
'trillion_'
'trea'
'tram'
'tract'
'tm'
'tin_'
'thy_'
'ther_'
'tendant_'
'tal'
'tag'
'sèche_'
'switch_'
'swi'
'swear_'
'suspension_'
'supporte'
'sugar_'
'succeeded_'
'subi_'
'stér'
'structurels_'
'structurelles_'
'striking_'
'stores_'
'steel_'
'stayed_'
'squa'
'spiritual_'
'speeches_'
'spaces_'
'sp'
'soulevées_'
'sod'
'sna'
'slow'
'sleeping_'
'sir'
'simultanément_'
'shock_'
'sez_'
'sexuels_'
'sex'
'serv'
'sensitivity_'
'sem'
'segments_'
'scénario_'
'screening_'
'scr'
'saurait_'
'satisfactory_'
'sam'
'rêves_'
'réunis_'
'régulation_'
'réci'
'rush'
'rp'
'romantic_'
'rn_'
'rmin'
'rme'
'rivière_'
'ritu'
'rip'
'rib'
'ria_'
'rgi'
'reçus_'
'revision_'
'restructuration_'
'ress_'
'respectivement_'
'renewal_'
'rencontres_'
'remi'
'remarquable_'
'rely_'
'relates_'
'rejection_'
'regrette_'
'referring_'
'reductions_'
'recueillir_'
'recruitment_'
'reci'
'reasonably_'
'readily_'
'rde'
'rci'
'rappelé_'
'ranging_'
'ramp'
'rah'
'rag'
'quarters_'
'quarante_'
'put'
'purely_'
'purchasing_'
'purchases_'
'punishment_'
'publier_'
'présidentielle_'
'préoccupé_'
'prém'
'préf'
'provoquer_'
'proven_'
'prohibited_'
'progressivement_'
'progressi'
'profite_'
'prof'
'prenez_'
'prenantes_'
'premi'
'preferred_'
'pred'
'portrait_'
'pont_'
'point'
'plait_'
'plaisante'
'pieces_'
'phon'
'phe'
'personally_'
'perceived_'
'passing_'
'pars_'
'paroles_'
'parlent_'
'pant'
'pani'
'pain'
'overt'
'organic_'
'opposants_'
'ono'
'onna'
'one'
'ological_'
'oirs_'
'odo'
'occupa'
'nutrition_'
'notifi'
'ners_'
'negotiation_'
'neg'
'nav'
'nai'
'mps_'
'mpo'
'mour'
'moto'
'monk'
'mond_'
'modeste_'
'model'
'mobiliser_'
'mixed_'
'miss'
'minorité_'
'ministerial_'
'milieux_'
'mettez_'
'meter_'
'mesurer_'
'measurement_'
'massacre_'
'mark'
'magazine_'
'loud_'
'lor'
'lock'
'locations_'
'ln'
'livraison_'
'liquidités_'
'limitées_'
'libérer_'
'liberty_'
'lg'
'lawyer_'
'lacunes_'
'label_'
'knife_'
'jure_'
'jump_'
'japonaise_'
'ivi'
'ito_'
'iron_'
'inviter_'
'invisible_'
'investigate_'
'invent'
'intéressées_'
'interference_'
'integrate_'
'institutionnelle_'
'installé_'
'instability_'
'insisté_'
'insist_'
'injured_'
'initially_'
'ining_'
'infringement_'
'ined_'
'indu'
'indo'
'individually_'
'inclusive_'
'inadequate_'
'impunité_'
'imo'
'ight_'
'ifying_'
'ient'
'ielle_'
'iation_'
'house'
'honor_'
'hl'
'handicapées_'
'haine_'
'gènes_'
'guns_'
'grab_'
'gme'
'globe_'
'girlfriend_'
'gie_'
'gers_'
'generating_'
'gai'
'fé'
'fréquente'
'foundations_'
'forêt_'
'forestry_'
'forcé_'
'foods_'
'fol'
'fly_'
'fli'
'fleurs_'
'fixés_'
'firstly_'
'fire'
'fen'
'fe_'
'faiblesse_'
'fabriqué'
'extérieurs_'
'extraction_'
'expuls'
'export'
'expliqué_'
'excluded_'
'excessive'
'exceptionnel_'
'ew_'
'evident_'
'everyday_'
'estimons_'
'esti'
'essentielles_'
'esi'
'ered_'
'entrave'
'entité_'
'enseignements_'
'encourageant_'
'emission_'
'ellement_'
'eenth_'
'educated_'
'ecological_'
'ease_'
'détaillée_'
'détaillé_'
'déséquilibres_'
'désa'
'déra'
'démi'
'délic'
'déf'
'dues_'
'doubles_'
'douanes_'
'dot'
'dons_'
'dominated_'
'doc_'
'dit'
'discover_'
'disclosure_'
'diriger_'
'dirige_'
'dieu_'
'df'
'devoted_'
'demo'
'defi'
'debts_'
'dde'
'dare_'
'célébr'
'cure_'
'cup'
'cross'
'criminels_'
'credible_'
'couvre_'
'coup'
'count'
'counselling_'
'cote_'
'cosm'
'corriger_'
'copine_'
'conçus_'
'contribuables_'
'contradiction_'
'contente_'
'contemporary_'
'const'
'console_'
'considerably_'
'consacrée_'
'conqu'
'conformity_'
'competing_'
'communicate_'
'combiné'
'collat'
'cleaning_'
'clar'
'cited_'
'cite_'
'cit'
'cine'
'ché_'
'château_'
'cherchent_'
'chemicals_'
'chat'
'cessé_'
'cesse_'
'cessation_'
'catholique_'
'carn'
'cardi'
'caractères_'
'capt'
'capitalisme_'
'cap_'
'cano'
'calme'
'calm_'
'calendar_'
'cacher_'
'bête_'
'burg_'
'bull'
'brand_'
'br'
'boyfriend_'
'bouton_'
'boutique_'
'bouche_'
'bonus_'
'boa'
'blog'
'bin_'
'bed'
'barre_'
'bail'
'avancé_'
'ava'
'autorisés_'
'austerity_'
'attendu_'
'assistant_'
'assemblée_'
'array_'
'arde'
'approfondie_'
'approch'
'anne'
'amo'
'am'
'allowance_'
'affirmer_'
'adapted_'
'achèvement_'
'achats_'
'accumulation_'
'accountable_'
'accompagne_'
'accept'
'absorbe'
'abolition_'
'Works_'
'Woods_'
'Wood'
'Well'
'Vir'
'Ville_'
'VE'
'VAT_'
'Using_'
'UNEP_'
'Tuesday_'
'Travail_'
'Trac'
'Tour'
'Tho'
'Terrorism_'
'Tak'
'Systems_'
'Symantec_'
'Sun'
'Study_'
'Stat'
'Spirit_'
'Someone_'
'Soft'
'Soc'
'Sma'
'Sh'
'Session_'
'Sector_'
'Rev_'
'Ressources_'
'Res'
'Remember_'
'Reco'
'Recent_'
'Rate_'
'RSS_'
'RP'
'RG'
'Quatre_'
'QUI'
'Père_'
'Proactive_'
'Priv'
'Prie_'
'Premières_'
'Post_'
'Plant'
'Planning_'
'Pl'
'Person'
'Paragraphe_'
'Palace_'
'Original_'
'Ori'
'Opportunities_'
'Operations_'
'Online_'
'Not'
'Nan'
'NU'
'NPT_'
'NH'
'Mugabe_'
'Mondiale_'
'Mlle_'
'Military_'
'Mid'
'Michel_'
'Medi'
'Marine_'
'Maria_'
'MONUC_'
'MB'
'Lor'
'Kath'
'Jews_'
'Jerusalem_'
'Jay_'
'Jamais_'
'Iv'
'Ins'
'IR_'
'IF_'
'IB'
'Hongrie_'
'Home'
'High'
'Herzégovine_'
'Général_'
'Gentoo_'
'Gaulle_'
'Gau'
'Game_'
'GL'
'Finlande_'
'Fall'
'Evi'
'Eli'
'Edit'
'Ea'
'END'
'EL_'
'EE'
'Dublin_'
'Don'
'Disclosure_'
'Din'
'Democracy_'
'Decides_'
'Dav'
'Dan_'
'Cut'
'Corr'
'Copenhague_'
'Copenhagen_'
'Compa'
'Communist_'
'Coll'
'Clo'
'Chirac_'
'Ch'
'Cau'
'Cat'
'California_'
'COMP'
'CHE'
'CAT'
'Brazilian_'
'Botswana_'
'Boo'
'Bin'
'Berlusconi_'
'Benn'
'Bene'
'Bee'
'Base_'
'BS'
'B5_'
'Aut'
'Attention_'
'Atlantique_'
'Anyway_'
'Andrew_'
'Ami'
'Allah_'
'Affi'
'Ado'
'Abbas_'
'ATI'
'ASFC_'
'64'
'220_'
'203'
'1st_'
'1976_'
'1973_'
'188'
'170_'
'125'
'114_'
'109_'
'() _'
' €_'
' -, _'
' * _'
''
''
'♪_'
'œu'
'ôme_'
'ô'
'évoqu'
'étis'
'équilibrée_'
'énoncés_'
'én'
'électriques_'
'échoué_'
'éc'
'ât'
'Équipe_'
'£'
'|_'
'{'
'zy_'
'zin'
'zes_'
'yl'
'workforce_'
'worker_'
'wisdom_'
'weekly_'
'vérifi'
'vécu_'
'volatile_'
'vola'
'vol'
'vo_'
'vity_'
'vi'
'verte_'
'vendeur_'
'uve'
'utilization_'
'utilisez_'
'urgently_'
'unto_'
'unsu'
'univers_'
'uniques_'
'uniforme_'
'unfair_'
'udi'
'ud_'
'uch'
'uant_'
'télécharger_'
'typically_'
'twentieth_'
'turns_'
'treatments_'
'transporte'
'transmitted_'
'transferred_'
'tombé_'
'tirés_'
'tire_'
'timetable_'
'tid'
'throw'
'there'
'tet'
'terrifi'
'terminée_'
'termina'
'tenté_'
'tells_'
'telecommunications_'
'tech_'
'tant'
'systématique_'
'suspects_'
'suppliers_'
'superior_'
'superbe_'
'suivent_'
'suggère_'
'sucre_'
'successes_'
'str'
'stat'
'stall'
'stabiliz'
'sso'
'spécialisées_'
'spi'
'spare_'
'souhaitons_'
'soucie'
'some'
'sol'
'socialis'
'sn'
'siti'
'silver_'
'signer_'
'sig'
'shed_'
'shad'
'sensor'
'sending_'
'secured_'
'sectoral_'
'sche'
'scenario_'
'scan_'
'sauvetage_'
'sauvegarde_'
'sat_'
'sand'
'samedi_'
'sain'
'sad'
'sacrifice_'
'révèle_'
'réserv'
'réform'
'réconciliation_'
'run'
'rui'
'rubrique_'
'rov'
'roof_'
'roo'
'rom'
'rist'
'rings_'
'rig'
'rier_'
'ric'
'revo'
'restrictive_'
'restoration_'
'respecte_'
'resc'
'repro'
'repeatedly_'
'repe'
'rendus_'
'rendant_'
'renc'
'rembourser_'
'relaxation_'
'rejeté_'
'recognizes_'
'rechercher_'
'realized_'
'rayon'
'ratifier_'
'rarely_'
'rap'
'racisme_'
'qué_'
'quitté_'
'quitte_'
'quart_'
'périphériques_'
'périodiques_'
'py_'
'punish'
'publiés_'
'publi'
'ptions_'
'prépare_'
'préoccupe'
'provoqué_'
'protocoles_'
'protests_'
'protest_'
'prote'
'prot'
'propriétaires_'
'proph'
'properties_'
'promo'
'progresse'
'preparations_'
'pren'
'poursuivi_'
'potable_'
'possèdent_'
'posed_'
'pho'
'phenomenon_'
'pertinent_'
'peace'
'parvenus_'
'parti'
'partagent_'
'parrain'
'parallel_'
'pap'
'pag'
'pad'
'oye'
'oya'
'oy'
'overview_'
'ov'
'ouvrage_'
'our'
'oun'
'ouais_'
'ote_'
'ota'
'osa'
'ori'
'organisées_'
'organis'
'oque'
'opposer_'
'oph'
'onis'
'oncle_'
'onc'
'oiseaux_'
'och'
'occupy_'
'occidentaux_'
'oc'
'obe'
'nécessite_'
'nte'
'nst'
'notified_'
'nni'
'nevertheless_'
'nervous_'
'nding_'
'nder'
'nded_'
'nate'
'mères_'
'myst'
'mutuel'
'musée_'
'murder'
'munitions_'
'multitude_'
'motivation_'
'modéré'
'mobilisation_'
'mmer'
'ministry_'
'milk_'
'mie_'
'mentionner_'
'meaningful_'
'mati'
'marr'
'manuel_'
'mainstreaming_'
'magn'
'madame_'
'mad'
'mac'
'lés_'
'lve'
'lux'
'luc'
'loose_'
'loo'
'locally_'
'live'
'likes_'
'lieutenant_'
'lica'
'leçon_'
'lendemain_'
'law'
'laiss'
'ladite_'
'kr'
'jui'
'jugé_'
'jol'
'joindre_'
'jack'
'iu'
'itt'
'ith'
'issu'
'iranien_'
'ior'
'inu'
'intitulée_'
'interp'
'intera'
'institu'
'instaurer_'
'instabilité_'
'inscri'
'ins'
'inquiétude_'
'injection_'
'ingu'
'inférieure_'
'informati'
'individuelles_'
'incorporate_'
'impré'
'immigrés_'
'imagination_'
'ilé'
'ig_'
'ieth_'
'ien'
'ido'
'ideology_'
'hostels_'
'hma'
'hemi'
'heal'
'hc_'
'harmful_'
'hard'
'hai'
'géré_'
'gère_'
'guitar'
'gs'
'grill'
'graphique_'
'gran'
'grad'
'glace_'
'gla'
'genocide_'
'gant'
'fusion_'
'forthcoming_'
'fonctionnent_'
'focuses_'
'flou'
'flat_'
'finger'
'fili'
'fid'
'fiction_'
'fibres_'
'fiables_'
'ferme'
'ferais_'
'fer'
'façons_'
'fardeau_'
'fantas'
'familial_'
'facilitating_'
'ey'
'exécuter_'
'extending_'
'expressions_'
'expose_'
'exister_'
'exh'
'excuses_'
'examens_'
'eusement_'
'essi'
'eria'
'erai_'
'envi'
'ene_'
'encr'
'enc'
'enact'
'empower'
'embargo_'
'ej'
'ede'
'ect'
'déposée_'
'déposer_'
'dépenser_'
'dépasser_'
'définitions_'
'dy'
'drunk_'
'dres_'
'draw'
'douce_'
'doubts_'
'doter_'
'doctors_'
'dle_'
'distract'
'dise'
'directrice_'
'directes_'
'dio'
'dial'
'devrons_'
'deviennent_'
'deu'
'detection_'
'det'
'dessin'
'deposit_'
'deployed_'
'denied_'
'demeurent_'
'dele'
'defining_'
'decorated_'
'declare_'
'decisive_'
'deadl'
'darling_'
'créanciers_'
'criminals_'
'coûte_'
'counsel_'
'costume_'
'costly_'
'cord'
'coordonner_'
'coordinating_'
'coordinate_'
'cooperative_'
'convictions_'
'contractuel'
'contra'
'conti'
'conteste'
'contest_'
'conten'
'contamination_'
'consultative_'
'considérations_'
'cons'
'congé_'
'confront'
'condemned_'
'concurrentiel_'
'concurrent'
'compren'
'complexité_'
'complement_'
'complaint_'
'comparer_'
'compara'
'comi'
'combattants_'
'cohérente_'
'cohérence_'
'cod'
'coa'
'closure_'
'clon'
'clock_'
'cking_'
'cies_'
'cide_'
'chè'
'cht'
'chronic_'
'chase'
'charme_'
'channel_'
'cham'
'chaleur_'
'ceremony_'
'centers_'
'cellule_'
'ced_'
'cave_'
'cast'
'carrier_'
'cara'
'capacities_'
'cameras_'
'bénéficiaire_'
'bru'
'broadcasting_'
'britanniques_'
'brief_'
'brave_'
'bonheur_'
'bone_'
'bomb'
'ble'
'bil'
'betray'
'bet'
'beaches_'
'battery_'
'basé_'
'banni'
'bank'
'balances_'
'bak'
'aéronefs_'
'aériennes_'
'awards_'
'avoiding_'
'autorisée_'
'autoriser_'
'augmentant_'
'atte'
'ate'
'assume'
'associer_'
'asseoir_'
'ascen'
'arrête'
'arbitrary_'
'arb'
'appuyant_'
'apportent_'
'analyser_'
'amener_'
'ambitions_'
'ambigu'
'alo'
'allégations_'
'alin'
'alike_'
'alien_'
'ak'
'ajustements_'
'aine'
'agro'
'agisse_'
'aged_'
'aga'
'affiliate'
'advised_'
'adressées_'
'ado_'
'admi'
'adapt_'
'ach_'
'accounted_'
'aca'
'abatt'
'YS'
'Writ'
'Were_'
'Wea'
'Walter_'
'WS'
'Vite_'
'Victoria_'
'Use'
'Us_'
'Universal_'
'UA'
'Trip'
'Tim'
'Thor'
'Thailand_'
'Territory_'
'Territories_'
'TS'
'TRA'
'Swedish_'
'Supp'
'Sul'
'Stea'
'Spring_'
'Sho'
'Seulement_'
'Set_'
'Set'
'Senegal_'
'Schedule_'
'Sarah_'
'Sad'
'SUR_'
'Roth'
'Rosa'
'Roger_'
'Revolution_'
'Resource_'
'Regardez_'
'Refer'
'ROM_'
'Provide_'
'Prof'
'Prize_'
'Privacy_'
'Porta'
'Pil'
'Paul'
'PM_'
'Ouganda_'
'Ordre_'
'Ora'
'Off'
'Od'
'OM'
'OG'
'OE'
'Norvège_'
'Nature_'
'NS_'
'NS'
'Monaco_'
'Mitchell_'
'Mess'
'Marco_'
'Mao_'
'Malta_'
'Malaysia_'
'MA_'
'Lui_'
'Likewise_'
'Leste_'
'Lastly_'
'LR'
'LL_'
'LL'
'Koweït_'
'Kor'
'Kon'
'Key_'
'Kelly_'
'Karl_'
'Kai'
'Jésus_'
'Jud'
'Joy'
'Jimmy_'
'Jen'
'Jane_'
'Inte'
'Institutions_'
'Infrastructure_'
'Informations_'
'Independent_'
'Ib'
'ISS'
'IONS_'
'Hous'
'Hou'
'Hot'
'Herzegovina_'
'Has_'
'Gulf_'
'Gru'
'Goals_'
'Gin'
'Gender_'
'Gas'
'Gam'
'GRA'
'G8_'
'Fried'
'Fre'
'Fore'
'Florence_'
'Final_'
'FL'
'Euros'
'Europ'
'Es'
'Eritrea_'
'End_'
'Elizabeth_'
'Election_'
'Egyptian_'
'Egypte_'
'ENT'
'Duc'
'Donald_'
'Devi'
'Dev'
'Def'
'Darfur_'
'DP_'
'Crown_'
'Croatie_'
'Corps_'
'Compar'
'Coast_'
'Christmas_'
'Choice_'
'Chapitre_'
'Champion'
'Cameron_'
'Call'
'CW'
'CS_'
'COP_'
'CONT'
'COD_'
'CAMBRIDGE_'
'Bun'
'Bulletin_'
'Britannique_'
'Brit'
'Brad'
'Boston_'
'Bonsoir_'
'Bonn'
'Bangkok_'
'Bah'
'Azerbaijan_'
'Armenia_'
'Arb'
'Applaudissements_'
'Ant'
'Annan_'
'Amendments_'
'Ambassador_'
'Almost_'
'Allô_'
'Alan_'
'Ahmadinejad_'
'Agricultural_'
'Age'
'Actually_'
'Accueil_'
'ASS'
'APP'
'ANN'
'AF_'
'A3'
'88'
'202'
'201_'
'1968_'
'1945_'
'.” _'
'.&#_'
'." _'
'* '
' `_'
' )._'
' ("_'
' %) _'
' %'
'▪ _'
'™ _'
'ür'
'üh'
'û'
'ôt_'
'ête_'
'éventuelle_'
'étonne'
'étati'
'établit_'
'éta'
'émi'
'égale_'
'édit'
'çant_'
'ão_'
'Éc'
'º_'
'zer_'
'zan'
'you'
'yield'
'wireless_'
'willingness_'
'weakness_'
'vérifié_'
'volunteers_'
'voices_'
'visibles_'
'vieillissement_'
'vidéos_'
'vici'
'vert'
'versa'
'verd'
'vague_'
'vag'
'ust_'
'ust'
'ury_'
'uro'
'urg_'
'unre'
'uno'
'universitaire_'
'uma'
'ultra'
'ultimate_'
'ule_'
'ulaire_'
'ud'
'télécopie'
'turn'
'tter'
'trucs_'
'trouble'
'triggered_'
'traumati'
'trat'
'translation_'
'transform_'
'trans_'
'tranch'
'trai'
'trahi'
'trace_'
'trace'
'touchées_'
'total'
'toile'
'toe'
'tile_'
'tiendra_'
'tickets_'
'thé'
'thorough_'
'tha'
'tent'
'tene'
'teen'
'teach_'
'tau'
'tation_'
'tall'
'tali'
'tain'
'sérieuses_'
'sélectionné'
'sweet'
'sus'
'surpr'
'supplement_'
'sudden_'
'substitution_'
'stuck_'
'stem'
'steady_'
'statute_'
'stand'
'spécialisés_'
'spécialiste_'
'spy'
'spar'
'span'
'souplesse_'
'soulevé_'
'souffrances_'
'socio'
'slip'
'sion'
'sing'
'signification_'
'shipping_'
'sexuelles_'
'sew'
'seminar_'
'semi_'
'semblait_'
'scrap'
'saoudite_'
'sand_'
'saluer_'
'salariés_'
'salaries_'
'sage_'
'résolu_'
'réso'
'réparti'
'régissant_'
'réalisa'
'rub'
'rse'
'roule'
'roc'
'riva'
'ring'
'rigid_'
'rge'
'rever'
'respectifs_'
'requise_'
'repren'
'repair_'
'renouvellement_'
'rendue_'
'remplace'
'removal_'
'remedy_'
'rell'
'releases_'
'rele'
'refine'
'redé'
'reconnaissent_'
'reassur'
'rear'
'reaffirm'
'rce'
'rc'
'ratifié_'
'rati'
'rapprochement_'
'range'
'ralenti'
'qués_'
'quent_'
'quat'
'quantity_'
'quantitative_'
'pétrolières_'
'purement_'
'publiée_'
'pse'
'préférable_'
'précédentes_'
'prononcer_'
'promesse_'
'procédés_'
'procurement_'
'procure'
'proba'
'privatisation_'
'prescrit'
'pregnancy_'
'potentiellement_'
'positives_'
'posent_'
'porc'
'policiers_'
'poi'
'pillar_'
'perm'
'performing_'
'perdue_'
'pension'
'pea'
'pc'
'patience_'
'passi'
'passes_'
'partially_'
'partial_'
'paro'
'parlait_'
'pareil_'
'pardon_'
'parcours_'
'parameters_'
'param'
'painful_'
'pai'
'pack'
'oï'
'owe'
'ovi'
'oversight_'
'ouvertes_'
'outl'
'outbreak_'
'orphan'
'orienter_'
'ord'
'opéra'
'opti'
'operated_'
'onne_'
'onde'
'ombre_'
'oles_'
'oke'
'oint'
'offs'
'oci'
'obtention_'
'observa'
'obscur'
'néo'
'néglige'
'numéros_'
'numér'
'noyau_'
'noticed_'
'nl'
'nir'
'newspaper_'
'nettoy'
'nder_'
'nct'
'nci'
'nche'
'nazi'
'navette_'
'nationalism_'
'nard_'
'naires_'
'mélange_'
'mé_'
'mènent_'
'mutually_'
'mortalité_'
'monétaires_'
'mont'
'momentum_'
'modula'
'mobilis'
'mist'
'mining_'
'minds_'
'massage_'
'marqu'
'marin_'
'manifestement_'
'mang'
'magnificent_'
'légi'
'lycée_'
'lum'
'los_'
'logements_'
'loan_'
'lling_'
'lier_'
'libéré'
'librement_'
'lia_'
'legacy_'
'lee'
'leak'
'lave_'
'laundering_'
'lamp'
'labelling_'
'kit'
'kilometres_'
'kie'
'kel'
'justement_'
'joining_'
'ive'
'iva'
'ission'
'islamistes_'
'ision'
'ion'
'inverse_'
'inutile_'
'intégrante_'
'intervien'
'intern'
'intergouvernementale_'
'interactive_'
'insu'
'instar_'
'insolvency_'
'insert'
'inse'
'inputs_'
'inherent_'
'inf'
'iner_'
'industrialisés_'
'indirect_'
'indienne_'
'inculp'
'incapable_'
'inaugur'
'immédiat_'
'imb'
'im'
'illus'
'ij'
'identique_'
'icie'
'ich_'
'hè'
'hydrog'
'hungry_'
'huitième_'
'hr_'
'homo'
'his'
'hh'
'het_'
'hel'
'hectares_'
'heavily_'
'harmoni'
'harassment_'
'hadn_'
'gée_'
'gé_'
'guéri'
'guaranteeing_'
'gt'
'grosses_'
'gravité_'
'grandi'
'governed_'
'gma'
'gie'
'ghe'
'gestionnaire_'
'gera'
'generous_'
'gener'
'gari'
'gard'
'gaps_'
'gag'
'fulfilled_'
'fuite_'
'fuels_'
'fter_'
'fréquent'
'frustration_'
'friendship_'
'fournies_'
'founding_'
'fortifi'
'formulée_'
'formula'
'forming_'
'forment_'
'flee'
'fix'
'fitness_'
'firmly_'
'fires_'
'fatigue_'
'fallu_'
'faisais_'
'extraordinary_'
'externe_'
'expressing_'
'expresses_'
'explor'
'exploitations_'
'explicitement_'
'existait_'
'exhaustive_'
'exemplaires_'
'exclure_'
'ex'
'ew'
'europ'
'eso'
'ese_'
'entraîne_'
'entertain'
'entend'
'eno'
'enemies_'
'enda'
'encour'
'empêche_'
'empreintes_'
'emerge_'
'embryo'
'emb'
'elegant_'
'ein'
'eggs_'
'effondrement_'
'eate'
'earn_'
'développe'
'détrui'
'détermine'
'déterminant_'
'déten'
'désire'
'dépression_'
'dépense_'
'dépens'
'dénonc'
'définis_'
'défendu'
'décideurs_'
'dwell'
'dus_'
'dramatically_'
'dramatic_'
'drag'
'doute'
'doté_'
'domination_'
'dive'
'dits_'
'distort'
'disposons_'
'dispers'
'discretion_'
'disappear_'
'dictatorship_'
'devin'
'devais_'
'detected_'
'detainees_'
'detained_'
'desired_'
'design'
'deserves_'
'ders_'
'dent_'
'denrées_'
'declining_'
'deb'
'dealer_'
'dam'
'côt'
'cts_'
'cto'
'cta'
'croient_'
'cris'
'cree'
'crash_'
'cove'
'coupe_'
'correspond'
'convincing_'
'controlling_'
'cont'
'consultants_'
'consolidated_'
'consistant_'
'conservative_'
'conjoint_'
'confortables_'
'conform'
'concessions_'
'compétente_'
'comprise_'
'complété'
'compli'
'compilation_'
'communiqué_'
'commodity_'
'commander_'
'commandement_'
'coloni'
'collaborer_'
'collabore'
'colla'
'clinique_'
'climb'
'clarifi'
'cke'
'cibles_'
'charit'
'charge'
'champs_'
'challenging_'
'cf_'
'ces'
'censé_'
'cater'
'cancel'
'cake_'
'bénéficié_'
'bureaucrat'
'bugs_'
'buddy_'
'bubble_'
'brac'
'boutiques_'
'bour'
'boug'
'bother_'
'bond_'
'blow_'
'bière_'
'biodiversity_'
'bene'
'ben'
'belong_'
'bedroom_'
'bec'
'ballo'
'bais'
'awful_'
'aventure_'
'avancement_'
'autorisées_'
'austérité_'
'atténuation_'
'attribué'
'attribution_'
'attenti'
'atteints_'
'atr'
'asks_'
'aside_'
'aru'
'arra'
'aquaculture_'
'appel'
'antérieure_'
'anni'
'anes'
'amples_'
'amitié_'
'amen'
'allowances_'
'alla'
'ald_'
'ajustement_'
'ail'
'affirma'
'afficher_'
'adjusted_'
'adjacent_'
'addresses_'
'ada_'
'ada'
'acquire_'
'accueilli_'
'abri_'
'abd'
'\u\u'
'['
'Zélande_'
'Xi'
'XXX'
'Will'
'Wikitravel_'
'Wie'
'Water'
'Wall'
'Vid'
'Victor_'
'User_'
'USD_'
'UR_'
'UNO'
'Ty'
'Tunisie_'
'Tun'
'Trou'
'Trent'
'Transfer_'
'Tourism_'
'Thirdly_'
'Ther'
'Test_'
'Temp'
'Technologies_'
'Tat'
'TV'
'TN'
'TB_'
'Swi'
'Suivant_'
'Sti'
'Speed_'
'Socialist_'
'Slo'
'Sl'
'Sky'
'Situation_'
'Seattle_'
'Sche'
'Scan'
'Savi'
'Sacr'
'Sach'
'STO'
'STI'
'SN'
'SI_'
'Réserve_'
'Réseau_'
'Ross_'
'Robin_'
'Rich'
'Rev'
'Rem'
'Regi'
'Reduc'
'Rea'
'Ray'
'Ral'
'Radi'
'Rac'
'RF'
'Quin'
'Publish'
'Progress_'
'Poor_'
'Polish_'
'Points_'
'Plans_'
'Phone_'
'Peu'
'Pete_'
'Patte'
'Parl'
'Parfois_'
'Para'
'Palm'
'Pala'
'POP'
'PAR_'
'OM_'
'OL_'
'Norm'
'New'
'Nev'
'Netanyahu_'
'Nancy_'
'Namibia_'
'NL_'
'Mubarak_'
'Moscow_'
'Mobili'
'Mind'
'Miami_'
'Malawi_'
'Mag'
'MP3_'
'Lé'
'Love_'
'Let'
'Leg'
'Learning_'
'Lav'
'Laura_'
'Latvia_'
'Labrador_'
'LC_'
'Kit'
'Kel'
'Kad'
'Jou'
'Jamaica_'
'Jam'
'Istanbul_'
'Isa'
'Inspection_'
'Informal_'
'Inde'
'IRSC_'
'INTER'
'IM_'
'IMP'
'ICA'
'IA'
'Hurry_'
'Hospital_'
'History_'
'Histoire_'
'Helsinki_'
'Heating_'
'Has'
'Harris_'
'Hall_'
'Halifax_'
'Hab'
'HU'
'HTML_'
'HR_'
'HCR_'
'Gé'
'Good'
'Glo'
'Gil'
'Gestionnaire_'
'Germans_'
'Gall'
'Gal'
'GT'
'GPS_'
'GEN'
'Forms_'
'Fire_'
'Finnish_'
'Finalement_'
'FA_'
'Expl'
'Ever_'
'Estonia_'
'Eric_'
'Env'
'End'
'Edward_'
'EE_'
'Dur'
'Double_'
'Dou'
'Dell_'
'Currency_'
'Cru'
'Cou'
'Cost'
'Consequently_'
'Confi'
'Cod'
'Close_'
'Cliquez_'
'Climate_'
'Cli'
'Clean_'
'Class'
'Cin'
'Chas'
'Chairperson_'
'Cath'
'Castro_'
'Carlo'
'Cara'
'CTI'
'CONS'
'CNUCED_'
'Bull'
'Border_'
'Bil'
'Berg'
'Bea'
'Barcelona_'
'BE_'
'Autorité_'
'Autochtones_'
'Aust'
'Auditors_'
'Arrêtez_'
'Ann'
'And'
'Amb'
'Aide'
'Adv'
'Address_'
'Ada'
'Aba'
'>'
'='
'<'
';»'
';&_'
'79'
'235_'
'210_'
'1972_'
'187'
'003'
'%), _'
'$'
'!"_'
' …'
' --_'
' -'
' %, _'
' $._'
'üb'
'étal'
'épidémie_'
'énoncées_'
'énerv'
'émergence_'
'émerge'
'élevage_'
'égal_'
'écri'
'écosystèmes_'
'éb'
'Ê'
'Éta'
'Â'
'®'
'zoo'
'zie_'
'zi_'
'zh'
'ymp'
'yla'
'yard_'
'yan'
'wishing_'
'wheel'
'whatsoever_'
'wer_'
'weaknesses_'
'warm'
'walks_'
'vérifie'
'végéta'
'vé_'
'vr'
'voudrait_'
'vot'
'voisin_'
'virtual_'
'villa'
'viewed_'
'vie'
'veness_'
'veille_'
'variété_'
'variable_'
'urges_'
'ups'
'unstable_'
'universel_'
'unfa'
'unb'
'una_'
'ultra_'
'ully_'
'ulation_'
'ulat'
'uit'
'uil'
'ught'
'témoin_'
'typ'
'tués_'
'turb'
'tube_'
'tt_'
'tt'
'trips_'
'tren'
'transmit_'
'translate_'
'transatlantic_'
'towns_'
'tourists_'
'touristiques_'
'totales_'
'toire_'
'tion'
'thoroughly_'
'thon_'
'thin_'
'tendent_'
'tc'
'tax'
'tati'
'tape'
'tanks_'
'sûrs_'
'sûreté_'
'suspicious_'
'sure'
'supplément_'
'suppl'
'superb_'
'summ'
'suivie_'
'suffisantes_'
'strip'
'string_'
'strain_'
'stipule_'
'steal_'
'spots_'
'sportives_'
'sponsors_'
'spill'
'specify_'
'specialists_'
'souhait'
'sondage_'
'sole'
'solarium_'
'snow_'
'slept_'
'ska'
'sk'
'simi'
'signals_'
'sible_'
'shoes_'
'shak'
'seurs_'
'seras_'
'semblable_'
'sei'
'seekers_'
'seed_'
'sect'
'sec_'
'script'
'scream'
'schéma_'
'scarce'
'sauve'
'sak'
'rôles_'
'répondent_'
'régulière_'
'références_'
'réfléchir_'
'réclamations_'
'réclamation_'
'réalise'
'ruined_'
'ruin'
'rud'
'rounds_'
'ronde_'
'roi'
'rise'
'ridicule_'
'richesses_'
'rich'
'rge_'
'reverse_'
'retra'
'retards_'
'retail_'
'resté_'
'restored_'
'responding_'
'resolving_'
'reserved_'
'reproduc'
'repris_'
'repouss'
'repeated_'
'rentabilité_'
'renforçant_'
'renforcée_'
'renforce_'
'renewable_'
'religieuse_'
'reliability_'
'refusal_'
'refuge_'
'redi'
'red'
'recover_'
'recognise_'
'receives_'
'ray'
'rationnelle_'
'rational_'
'rassemble'
'rapprocher_'
'rappel'
'rang'
'rand'
'raisonnables_'
'radicale'
'ract'
'quée_'
'quet'
'quest_'
'pêches_'
'pét'
'pushing_'
'pus'
'pur_'
'publiquement_'
'présente'
'préférences_'
'prosecution_'
'prononcé'
'prominent_'
'progressé_'
'produces_'
'problématique_'
'prisons_'
'prince'
'pride_'
'preventive_'
'presenting_'
'premièrement_'
'pratiqué'
'pousser_'
'pouss'
'potentiels_'
'pot_'
'pot'
'porte'
'porno_'
'por'
'populaires_'
'politiquement_'
'polio_'
'pod'
'pm'
'plages_'
'placés_'
'place'
'pl'
'piste_'
'pisse'
'pira'
'pio'
'piano_'
'phy'
'photographe'
'pharmacie'
'pesticides_'
'pert'
'pent'
'penalties_'
'paysage_'
'passées_'
'pan_'
'packaging_'
'ows_'
'owe_'
'outer_'
'ott'
'origina'
'oria'
'ordonnance_'
'orat'
'opérationnels_'
'onn'
'omb'
'officieuses_'
'offensive_'
'océan_'
'obst'
'observé_'
'obs'
'néra'
'not'
'normalisation_'
'nominal_'
'nn_'
'nist'
'nell'
'neige_'
'neat'
'nea'
'ndo'
'nationali'
'nat_'
'nar'
'nant_'
'métier_'
'médic'
'myth'
'mut'
'musulman_'
'mun'
'multim'
'mph'
'mpe'
'mpa'
'moon_'
'mood_'
'monopoly_'
'moc'
'mix'
'millénaire_'
'milli'
'milita'
'mili'
'mile_'
'mettra_'
'methodology_'
'mentaux_'
'medicines_'
'mechanical_'
'meantime_'
'meals_'
'mber'
'mba'
'maîtrise_'
'mation_'
'maternelle_'
'match'
'manual_'
'manquer_'
'mandates_'
'mana'
'malt'
'malheur'
'maintenu_'
'législative_'
'légal_'
'lower'
'longueur_'
'logic_'
'logi'
'llo'
'lled_'
'linguistique_'
'light'
'lie'
'licencié'
'libe'
'lib'
'less'
'lei'
'leas'
'last'
'lass'
'lant'
'langage_'
'lade'
'laboratoires_'
'lab'
'kid'
'kers_'
'joy'
'journaliste_'
'joue'
'joke_'
'jet'
'isc'
'irement_'
'iqu'
'inégalité_'
'inventory_'
'invalid'
'intéresser_'
'intéressante_'
'inti'
'interviews_'
'interpreted_'
'intensifier_'
'integrating_'
'instauration_'
'inspiration_'
'inquiry_'
'ino_'
'injuries_'
'inhabit'
'informe'
'influe'
'infected_'
'individuel_'
'indirectly_'
'indicating_'
'incorporation_'
'inclut_'
'incitation_'
'impressionnant'
'immobiliers_'
'imbalances_'
'illusion_'
'ille'
'hus'
'humili'
'hum'
'hra'
'hostel_'
'hospitality_'
'hospitali'
'hos'
'hood_'
'honor'
'hme'
'hid'
'hes'
'hers_'
'hautement_'
'hat_'
'harmonie_'
'hal'
'habituellement_'
'habilit'
'géographiques_'
'génétiques_'
'géni'
'guides_'
'gues'
'gren'
'graphy_'
'grandement_'
'gouvernemental_'
'gog'
'glan'
'gene'
'gee'
'gates_'
'gained_'
'gagne_'
'gagne'
'gad'
'félicitons_'
'félicit'
'fusil'
'fulfil'
'fréquemment_'
'fro'
'frequent_'
'frein_'
'foul'
'forty_'
'formats_'
'forestières_'
'foremost_'
'folle_'
'fold_'
'fluctuations_'
'flotte_'
'flood'
'flaw'
'fixation_'
'fist'
'finish_'
'financées_'
'ffin'
'ffect'
'fewer_'
'fet'
'feeding_'
'feedback_'
'fassent_'
'farms_'
'fare_'
'faithful_'
'factory_'
'fabricant_'
'exécuté'
'explicit_'
'explains_'
'expiration_'
'exigeant'
'excluding_'
'examinées_'
'examinée_'
'evi'
'evaluations_'
'espaces_'
'eri'
'enth'
'entertainment_'
'engagée_'
'enco'
'ence'
'ena'
'emmener_'
'eliminating_'
'elect'
'ela_'
'ega'
'effray'
'edition_'
'ean_'
'développé_'
'déteste_'
'désespéré'
'dériv'
'déplacées_'
'dépendent_'
'démocrate_'
'délivré'
'défe'
'décisionnel_'
'déc'
'débo'
'dÃ_'
'dun'
'dum'
'drew_'
'doo'
'donn'
'dm'
'divine_'
'disturbing_'
'dispens'
'discriminatory_'
'discre'
'discr'
'dirai_'
'dining_'
'différend_'
'diff'
'dge_'
'destinations_'
'desperate_'
'descriptions_'
'depression_'
'deposits_'
'deposit'
'departmental_'
'dens'
'denominat'
'declarations_'
'debtor_'
'dating_'
'dant'
'cyni'
'cute_'
'crowd_'
'crops_'
'criminali'
'cream_'
'craintes_'
'crack'
'council_'
'correspondance_'
'corrected_'
'corde'
'coordonnées_'
'continueront_'
'continue'
'continua'
'continu'
'consult_'
'construit_'
'construi'
'consomme'
'consistently_'
'consiste'
'conseill'
'consacrer_'
'conformer_'
'confine'
'confidentiel'
'concert'
'concerné_'
'conc'
'compétition_'
'comptable_'
'composed_'
'compose_'
'complémentaire_'
'complexity_'
'compenser_'
'combustibles_'
'cip'
'cid'
'chère_'
'chronique_'
'chlor'
'chi_'
'chemins_'
'checked_'
'characters_'
'chant_'
'cea'
'cau'
'caché_'
'bâti'
'bât'
'by'
'bureaucratic_'
'bright_'
'breath_'
'breach_'
'brav'
'boxes_'
'bor'
'boost'
'boli'
'boards_'
'bloqué'
'block'
'bloc_'
'blessé_'
'bless'
'bip'
'biodiversité_'
'bina'
'bin'
'bili'
'bie_'
'begg'
'beg_'
'batt'
'bati'
'bath'
'bastard_'
'barrières_'
'bandes_'
'backs_'
'ax_'
'autrefois_'
'auriez_'
'attacked_'
'attache'
'atri'
'ator_'
'atic_'
'asym'
'assure'
'assassinat_'
'aspir'
'artistes_'
'arriv'
'arm'
'aris'
'aries_'
'ardi'
'arbres_'
'appropriately_'
'appreciated_'
'appre'
'appeals_'
'apartments_'
'antérieur'
'ant'
'annulé_'
'anno'
'ands_'
'analyst'
'amenta'
'allég'
'allie'
'ala_'
'aille_'
'aggressive_'
'affr'
'affiché'
'affiche_'
'adr'
'administré'
'admettre_'
'adj'
'adequately_'
'acute_'
'actives_'
'acqui'
'acides_'
'ache'
'accuracy_'
'accumulate'
'accréditation_'
'absolue_'
'absent_'
'abord'
'abo'
'abb'
'ab_'
'Zh'
'Zac'
'Yugoslav_'
'Wor'
'Wolf'
'Wis'
'Wayne_'
'Walker_'
'Vu_'
'Visit'
'Verheugen_'
'Vegas_'
'Vatican_'
'Varia'
'Us'
'Ur'
'Unit'
'USS'
'UNIDO_'
'UC'
'Troisièmement_'
'Torture_'
'Top'
'Ton'
'Tir'
'Thu'
'Tac'
'TUR'
'TAL'
'TAC'
'T1'
'Sydney_'
'Sui'
'Ster'
'Statut_'
'Standards_'
'Sport_'
'Spock_'
'Spo'
'Spa'
'Souven'
'Soulign'
'Sm'
'Sit'
'Singapour_'
'Shit_'
'Shel'
'Shall_'
'Sex'
'STE'
'SQL_'
'SIM'
'Rép'
'Ryan_'
'Rural_'
'Ross'
'Rose_'
'Romney_'
'Rom'
'Response_'
'Republican_'
'Release_'
'Refugees_'
'Recommandation_'
'Rebecca_'
'Reagan_'
'Rab'
'RO_'
'Py'
'Près_'
'Provision'
'Principal'
'Prima'
'Prenez_'
'Power'
'Pou'
'Pot'
'Player_'
'Photocopying_'
'Philipp'
'Phase_'
'Peters'
'Personal_'
'Peoples_'
'Pension_'
'Passe'
'Participation_'
'Paragraph_'
'Panama_'
'Pal'
'Pack_'
'Overview_'
'Organiz'
'Operati'
'Oo'
'Ocean_'
'Nur'
'Nik'
'Ni_'
'Nam_'
'NP'
'Méditerranée_'
'Mum'
'Mul'
'Much_'
'Moscou_'
'Model_'
'Mode'
'Mod'
'Mir'
'Mill'
'Mental_'
'Men_'
'Memorandum_'
'Medicine_'
'McM'
'McC'
'Matt_'
'Mas'
'Marc_'
'Maastricht_'
'MT'
'MPO_'
'MIS'
'Luggage_'
'Little_'
'Lisa_'
'Link'
'Liechtenstein_'
'Lie'
'Libert'
'LS_'
'LP'
'LDCs_'
'Kyle_'
'Korean_'
'Kn'
'Kill'
'Kie'
'Key'
'Kat'
'Kal'
'KL'
'Juan_'
'It'
'Interest'
'Instrument'
'Indigenous_'
'Indiens_'
'Il'
'Ia'
'Hotels_'
'Hostelsclub_'
'Honor'
'Heav'
'Harvard_'
'Hard'
'Hara'
'Hamm'
'Haiti_'
'HR'
'HP'
'Golden_'
'Gold'
'Gat'
'Garr'
'GMOs_'
'Fuji'
'Francis_'
'Former_'
'Flash_'
'Fish_'
'File'
'Exi'
'Est'
'Ep'
'Encourage'
'Elimination_'
'EMENT_'
'EME'
'Drive_'
'Danny_'
'DI_'
'DFO_'
'Cé'
'Cuban_'
'Cry'
'Cot'
'Core_'
'Cool_'
'Contract_'
'Contra'
'Conte'
'Consultations_'
'Consider_'
'Colin_'
'Coc'
'Coalition_'
'Clos'
'Cinquième_'
'Chérie_'
'Chuck'
'Chez_'
'Castle_'
'Carol'
'Cape_'
'Cambodia_'
'Cam'
'Calderón_'
'Cadre_'
'Cab'
'CRP_'
'COMM'
'CIT'
'CH_'
'Burkina_'
'Burg'
'Bissau_'
'Between_'
'Bam'
'Bach'
'Australian_'
'Aun'
'Ask'
'Appar'
'Angeles_'
'Am_'
'Activités_'
'Aar'
'ACT'
'? -_'
'750_'
'204_'
'1977_'
'1949_'
'179'
'155'
'132'
'122'
'- (_'
') .'
''' _'
'!!!'
' [[_'
'ﬁc'
'ﬁ'
'œil_'
'évolutions_'
'évidente_'
'évacuation_'
'étroit'
'étiquet'
'établissant_'
'és'
'éro'
'équipé_'
'énoncé_'
'éminent'
'émergentes_'
'émanant_'
'élargie_'
'éclate'
'échecs_'
'än'
'án'
'zon'
'zer'
'ysi'
'ypt'
'yc'
'worries_'
'wines_'
'wig'
'wi_'
'weird_'
'wash_'
'wand'
'wal'
'véritables_'
'voyai'
'volatilit'
'visé_'
'violé'
'vil'
'view'
'vid'
'vention'
'vendu_'
'veille'
'variations_'
'var'
'vapeur_'
'vail'
'vagues_'
'utter'
'utili'
'urbains_'
'urbaine_'
'upgrade_'
'unwi'
'unsustainable_'
'unm'
'unlimited_'
'unilatérale'
'ung_'
'ung'
'unfor'
'unch'
'uncertain_'
'unanimously_'
'ult_'
'ulo'
'uin'
'uct'
'tueur_'
'triste_'
'trick_'
'transpo'
'transplant'
'transitional_'
'transcend'
'tranche_'
'trajecto'
'toxiques_'
'touristique_'
'touché_'
'tombe'
'toll_'
'toilettes_'
'tn'
'tlan'
'titles_'
'tise'
'tien_'
'thérapeutique'
'thématiques_'
'thro'
'thor'
'thereof_'
'theme_'
'thematic_'
'terroriste_'
'territoriale_'
'temporarily_'
'temporaires_'
'technically_'
'tariff_'
'sérieuse_'
'séque'
'syst'
'symptoms_'
'sympa_'
'symbole_'
'sv'
'sustain_'
'surviv'
'surpris_'
'supérieures_'
'supervise'
'sul'
'suiv'
'suicid'
'sue'
'suck'
'successor_'
'styl'
'strictly_'
'stricte'
'strai'
'stati'
'stal_'
'stad'
'spécialisée_'
'spatiales_'
'souscrit_'
'soul'
'souhait_'
'souffrir_'
'songs_'
'solving_'
'solar_'
'socially_'
'slo'
'situ'
'sil'
'signaux_'
'sights_'
'shr'
'shing_'
'shelter_'
'shareholders_'
'sever'
'serveurs_'
'servants_'
'separation_'
'separated_'
'senti'
'scandal'
'satisfaisant'
'samples_'
'salue_'
'sala'
'sag'
'rê'
'révisée_'
'réunit_'
'réuni_'
'résidu'
'répéter_'
'répondants_'
'répond'
'réjoui'
'régula'
'régl'
'référen'
'référ'
'réformer_'
'réelles_'
'réalisée_'
'rus_'
'rum_'
'routine_'
'rous'
'roman'
'rocket'
'robe_'
'riz_'
'risky_'
'rique_'
'rim'
'riding_'
'ridiculous_'
'reve'
'retailers_'
'restrict_'
'restreint'
'ressenti'
'respectés_'
'respectent_'
'resist_'
'représentés_'
'repair'
'remuneration_'
'remedies_'
'relèvent_'
'reliance_'
'relaxing_'
'rejette_'
'reflection_'
'reflecting_'
'redo'
'reconnue_'
'recommand'
'recherch'
'rebo'
'reat'
'realities_'
'realis'
'real'
'read'
'rb'
'rar'
'rapportant_'
'rapi'
'ran'
'ramener_'
'rach'
'quote_'
'qualifi'
'quai'
'quadr'
'pér'
'péd'
'péché'
'pun'
'publiées_'
'pton'
'prêtre'
'prévalence_'
'prépara'
'préa'
'prudent'
'protéines_'
'protégées_'
'prospère_'
'propriétés_'
'proposons_'
'propagation_'
'promesses_'
'profondeur_'
'procurer_'
'procr'
'proclaim'
'prié_'
'privileged_'
'prevailing_'
'prete'
'presse'
'predict_'
'precedence_'
'prec'
'pousse_'
'pourparlers_'
'pote_'
'possesse'
'portugais_'
'polluants_'
'polari'
'poke'
'pleur'
'pleas'
'plan'
'plais'
'placée_'
'pizza_'
'pistes_'
'pirate'
'pipeline_'
'pin_'
'philosophie_'
'philosophi'
'pharmaco'
'phant'
'perçu'
'perturb'
'persist'
'perse'
'perpet'
'perce'
'peni'
'peer_'
'patro'
'patrioti'
'passés_'
'participa'
'parlant_'
'parallèle_'
'palais_'
'paie_'
'ozone_'
'overs'
'outreach_'
'ound'
'ote'
'osp'
'orthodox'
'orphelins_'
'orm'
'ordonn'
'ordinat'
'orange_'
'ora_'
'opérer_'
'opul'
'onz'
'ony_'
'onne'
'ographi'
'officiers_'
'officially_'
'oduc'
'oda'
'océans_'
'occupent_'
'occ'
'obtien'
'obligatoires_'
'négative_'
'nqu'
'nowadays_'
'notable_'
'nonetheless_'
'nomi'
'nom'
'neu'
'nerve'
'neighbours_'
'ndan'
'naval'
'nationalist_'
'nage'
'my'
'mutuelle_'
'musical_'
'murs_'
'municipalities_'
'moul'
'mosqu'
'montr'
'modify_'
'modernization_'
'mobili'
'ministériel_'
'migrations_'
'met'
'mentionnés_'
'mensuel'
'menant_'
'menacé_'
'mena'
'maturité_'
'mato'
'matches_'
'marines_'
'marg'
'mans'
'mann_'
'mandats_'
'mamm'
'malades_'
'majeurs_'
'majeures_'
'magasins_'
'machinery_'
'mach'
'mab'
'législat'
'lut'
'lune_'
'lp'
'lourd_'
'lord_'
'loop'
'lom'
'logo_'
'lisation_'
'lip'
'lion'
'linking_'
'libellé_'
'liabilities_'
'leu'
'lesse'
'lente_'
'lb'
'laugh'
'lau'
'laps'
'kur'
'kle'
'kis'
'kins_'
'kat'
'jum'
'joy_'
'joli_'
'jeudi_'
'iz'
'itions_'
'issance_'
'israéliennes_'
'israélien_'
'irs_'
'ip_'
'ional'
'invitons_'
'invit'
'intéressé_'
'intéresse_'
'interrupt'
'interrogat'
'interprété'
'interior_'
'interco'
'interact'
'intelligent_'
'intellectuel'
'inta'
'insuffisance_'
'inspire_'
'inquiéter_'
'inquiétant'
'injuste_'
'infra'
'informa'
'influenza_'
'infi'
'inexp'
'industrielles_'
'indig'
'incorpor'
'incomes_'
'inco'
'inciter_'
'impunity_'
'imposent_'
'immédiate_'
'immunity_'
'imina'
'illé'
'illicite_'
'ik_'
'igne'
'ified_'
'ier'
'iding_'
'idat'
'ict'
'ices_'
'iat'
'hôpitaux_'
'hypothèse_'
'hybrid'
'hur'
'huile_'
'hui'
'hug'
'horaires_'
'hope'
'hir'
'hike'
'heli'
'hasard_'
'habitue'
'habite'
'habille'
'généralis'
'génocide_'
'gus'
'gul'
'guidé'
'guer'
'green'
'grass_'
'gouvern'
'gno'
'gni'
'glori'
'gil'
'giga'
'gh'
'gen_'
'fére'
'fur'
'fui'
'front'
'freeze_'
'frapper_'
'fragment'
'fraction_'
'fossiles_'
'formuler_'
'fondations_'
'fonci'
'flic_'
'flash_'
'flag'
'filtr'
'filter_'
'ffi'
'fect'
'favorisant_'
'favor'
'faisaient_'
'fais'
'faille_'
'facult'
'factu'
'faction_'
'exported_'
'exploité'
'experimental_'
'exp'
'exerce_'
'exerc'
'execution_'
'excite'
'exceptionnels_'
'exceeding_'
'exam'
'exacerb'
'etic_'
'esto'
'ession_'
'esh'
'ering_'
'erez_'
'equitable_'
'episode_'
'envahi'
'ensures_'
'enshrined_'
'enrichi'
'enl'
'enjoying_'
'engaging_'
'encouragement_'
'ena_'
'empty_'
'employ'
'embarrass'
'eman'
'electric_'
'effectif_'
'edly_'
'edi'
'ecti'
'eck_'
'développées_'
'détriment_'
'déstabilis'
'dés_'
'dépôts_'
'déplacé'
'démontre'
'délivrance_'
'déli'
'dégagé'
'défaite_'
'décou'
'déclara'
'décev'
'déb'
'dual_'
'drie'
'dress_'
'drafting_'
'dr'
'dop'
'dommage_'
'dominance_'
'doc'
'dividend'
'divide_'
'dition'
'distinguer_'
'dispose'
'dismissed_'
'disco'
'dirty_'
'directors_'
'diplomatiques_'
'dien'
'diamond_'
'dete'
'destin_'
'destabiliz'
'depart'
'delivering_'
'delighted_'
'del'
'defect'
'deeper_'
'decreased_'
'declar'
'dangereuses_'
'dance'
'dame_'
'damages_'
'cées_'
'cè'
'cus_'
'cultiv'
'cue'
'cte'
'crée'
'crédible_'
'cr'
'cousin_'
'courants_'
'cos'
'coopérative'
'continuation_'
'contenir_'
'contacter_'
'consume'
'constitutionnel_'
'conservé'
'conse'
'connecting_'
'connait'
'congrès_'
'confortablement_'
'confirm'
'concluding_'
'concludes_'
'concentra'
'comptent_'
'compte'
'compréhensible_'
'composée_'
'composantes_'
'completing_'
'complementary_'
'commence'
'combustion_'
'combatt'
'comb'
'colonne'
'colonial_'
'collaborate'
'cola'
'coach_'
'cliniques_'
'classiques_'
'clarity_'
'cked_'
'civilisations_'
'circu'
'cime'
'ciency_'
'chéri_'
'chou'
'chocolat_'
'chin'
'chet'
'cherché_'
'chasse_'
'chaos_'
'cesser_'
'cess'
'certificats_'
'cents_'
'cente'
'centa'
'cement_'
'carries_'
'canon'
'calculation_'
'bun'
'build'
'bucks_'
'bu_'
'brésilien'
'brut_'
'brun'
'briefly_'
'brea'
'bran'
'bourses_'
'bourse_'
'boundary_'
'borrowing_'
'boot'
'bois'
'blind'
'blan'
'bird_'
'biotechnologie_'
'bills_'
'beneficiaries_'
'benchmark'
'basse_'
'balcony_'
'baie_'
'bai'
'bagagerie_'
'aye'
'axe'
'await'
'avertissement_'
'autori'
'autonomes_'
'automatique_'
'auss'
'aul'
'auberges_'
'atur'
'attribut'
'atti'
'attentivement_'
'attendu'
'attendons_'
'attempting_'
'attempted_'
'atlantique_'
'atis'
'ath_'
'assuré_'
'assurant_'
'associées_'
'assiste'
'asser'
'ass'
'ase_'
'asa'
'arrivent_'
'arrestation_'
'arin'
'ari'
'argentin'
'ardo_'
'architectural_'
'aque'
'appuy'
'apprécie'
'approuver_'
'approuve_'
'apprend'
'appelons_'
'appellant_'
'appelant_'
'apologize_'
'antérieures_'
'antis'
'annuler_'
'annu'
'annonce'
'anda'
'amuse'
'amine'
'aman'
'altitude_'
'alter_'
'allocations_'
'alli'
'align'
'albeit_'
'aging_'
'aggression_'
'africain_'
'affirmation_'
'affectées_'
'affaibli'
'adéquate_'
'advocates_'
'advisor'
'advances_'
'administrateurs_'
'activists_'
'actionnaires_'
'acted_'
'accomplished_'
'accomplish_'
'accompagner_'
'absurde_'
'aboutir_'
']]'
'Yi'
'Yas'
'XP_'
'XL'
'Willi'
'Wiki'
'Where'
'Web'
'Wan'
'WW'
'WIN'
'Violence_'
'View_'
'View'
'VAL'
'Utilise'
'Understanding_'
'Uganda_'
'UPS_'
'UNMI'
'UNITAR_'
'UNC'
'UD'
'Trav'
'Transportation_'
'Tow'
'Tomorrow_'
'Theo'
'Termin'
'Tenez_'
'Tab'
'TRE'
'TPSGC_'
'TIC_'
'THE'
'TER'
'TEN'
'Supplément_'
'Summer'
'Submi'
'Strategic_'
'Statute_'
'Statements_'
'Standing_'
'Spr'
'Sound_'
'Somalie_'
'Somalia_'
'Solid'
'Soci'
'Slovénie_'
'Shanghai_'
'Serge'
'Sect'
'Sec'
'Scr'
'Schröder_'
'Sahara_'
'SIN'
'SH'
'SG'
'Récemment_'
'Rouge_'
'Roo'
'Resort_'
'Rein'
'Register'
'Reference_'
'Rece'
'Real'
'Rat'
'Ras'
'RP_'
'Quite_'
'Qui'
'Pér'
'Pul'
'Pros'
'Proc'
'Prin'
'Pr'
'Pour'
'Postes_'
'Porte'
'Physic'
'Pet'
'Performance_'
'Perfect_'
'Participants_'
'PRI'
'PP_'
'PNUE_'
'Oz'
'Oua'
'Orl'
'Olympi'
'Offences_'
'Oc'
'ONU'
'ONT'
'OLAF_'
'Nicholas_'
'Nia'
'Nepal_'
'Naz'
'Nag'
'NN'
'N1_'
'MÉ'
'Mother_'
'Morsi_'
'Moo'
'Montre'
'Monde_'
'Mol'
'Moham'
'Modifi'
'Miles_'
'Marty_'
'Mara'
'Mano'
'Mani'
'Malaisie_'
'Making_'
'MM_'
'MDGs_'
'Lyn'
'Lun'
'Lot'
'Log'
'Loc'
'Livre_'
'Liu_'
'Liste_'
'Lis'
'Limit'
'Lil'
'Lig'
'Liberia_'
'Lem'
'Leader_'
'Later_'
'Las_'
'LCD_'
'Kofi_'
'Kids_'
'Kh'
'Judge_'
'Jin'
'Jia'
'Jeu'
'Javier_'
'Java_'
'Jan_'
'Israéliens_'
'Islamist_'
'Inv'
'Inuit_'
'Intelligence_'
'Inn'
'Industries_'
'Improve'
'IST'
'IRE_'
'Hus'
'Hun'
'Hos'
'Hitler_'
'Herb'
'Haïti_'
'Haz'
'Ham'
'HD'
'HC'
'HA_'
'Governor_'
'Geno'
'Gas_'
'Gary_'
'Garde'
'GUE_'
'Français_'
'Franklin_'
'Francophone_'
'Fran'
'Format_'
'Ford_'
'Fol'
'Feed'
'Faut_'
'Fau'
'Faso_'
'Excellent_'
'Euh_'
'Essa'
'Epi'
'Ensur'
'Engineering_'
'Eglise_'
'Economics_'
'Eb'
'Ear'
'EST_'
'ESC'
'ENTS_'
'ECT'
'ECO'
'Décide_'
'Dr'
'Documentation_'
'Disc'
'Det'
'Demain_'
'Deep'
'Darfour_'
'Danish_'
'Dam'
'DIN'
'Customer_'
'Cup_'
'Credit_'
'Court'
'Coul'
'Cos'
'Conven'
'Conse'
'Comple'
'Compagnie_'
'Commander_'
'Cle'
'Claude_'
'Cis'
'Christi'
'Cent'
'Cart'
'CRS'
'COU'
'CONC'
'CLE'
'CAL'
'Bud'
'Buc'
'Bruce_'
'Britanniques_'
'Bri'
'Bren'
'Bour'
'Bolkestein_'
'Bay'
'Ban_'
'Ball'
'Bab'
'B3_'
'Arch'
'Applications_'
'Année_'
'Ama'
'Alle'
'Ali_'
'Alf'
'Airlines_'
'Airbus_'
'Aid_'
'Aff'
'Activities_'
'Ach'
'ANT_'
'ALL_'
'AH'
'AGE'
': «_'
'73'
'1975_'
'140_'
'137_'
'118_'
'107_'
', «_'
'+ _'
'% '
' ´ '
'  _'
' ? '
' : «'
' :'
' ! - _'
'€™_'
'…_'
'ŕ_'
'č'
'ć_'
'ú'
'ïn'
'în'
'í_'
'ë_'
'évoqué_'
'éventuelles_'
'évalués_'
'évaluée'
'étonnant_'
'éto'
'étiques_'
'équat'
'épa'
'énormément_'
'éno'
'émettre_'
'élites_'
'éga'
'édé'
'éducatif_'
'écologiques_'
'écologique_'
'éco'
'éclairage_'
'écl'
'écarts_'
'ètre_'
'èrement_'
'ène'
'èle_'
'ède'
'çai'
'Éco'
'´ _'
' !_'
'~ _'
'zy'
'ys'
'yo_'
'yle_'
'yellow_'
'wri'
'wipe'
'whilst_'
'washe'
'ward'
'wai'
'vulnérable_'
'vulnérabilité_'
'vs_'
'vra'
'volontairement_'
'vocational_'
'viva'
'virtu'
'violate'
'vins_'
'viendra_'
'vide'
'vib'
'vessel_'
'ves'
'versi'
'verse'
'venture_'
'vau'
'varient_'
'varie'
'validity_'
'vai'
'vac'
'ution'
'urne'
'urin'
'urgi'
'ura_'
'ups_'
'updates_'
'upcoming_'
'universali'
'unemployed_'
'undergo'
'uncom'
'unbe'
'ull'
'ui_'
'ueu'
'uble'
'témoigne'
'twi'
'tuée'
'tunnels_'
'trouv'
'tropical'
'troph'
'troop_'
'tromper_'
'trompe'
'tro_'
'trip'
'tril'
'trib'
'trem'
'travaille'
'transporteurs_'
'toxicit'
'tourne'
'touche'
'tom'
'toires_'
'toilet_'
'tiv'
'tical'
'théorique'
'textu'
'tester_'
'test'
'terreur_'
'terra'
'tern'
'teri'
'tenues_'
'teneur_'
'tendency_'
'tempt'
'tel'
'techni'
'tb'
'targeting_'
'tani'
'sér'
'séparés_'
'symbols_'
'symboli'
'syl'
'suspendu'
'surveys_'
'supr'
'suppo'
'supplier_'
'sunn'
'summarize'
'subsidy_'
'submissions_'
'subi'
'stupide_'
'studying_'
'struct'
'stre'
'stored_'
'stopping_'
'sters_'
'sten'
'stea'
'stag'
'stabilis'
'ssez_'
'sser_'
'spéculati'
'soulign'
'soulever_'
'soulage'
'souffert_'
'sooner_'
'sombre_'
'soc'
'sièges_'
'sien_'
'shuttle_'
'shortcomings_'
'shin'
'shifts_'
'sharply_'
'shal'
'sg'
'seuil_'
'settlements_'
'sett'
'servir'
'sente'
'sensibilité_'
'selective_'
'seize_'
'sed'
'securities_'
'secou'
'secondly_'
'secondes_'
'scores_'
'sco_'
'scandale'
'sava'
'sauvé_'
'sauvegarder_'
'salva'
'salut'
'saisie_'
'sah'
'safely_'
'sacré'
'sacr'
'sach'
'sable_'
'révolutionnaire_'
'républicain'
'régul'
'réfléchi'
'réalités_'
'rÃ_'
'rurale_'
'rue'
'ru_'
'rsi'
'royale_'
'round'
'ror'
'ropo'
'rooted_'
'rne'
'riment'
'rif'
'ridge'
'reviens_'
'retrouvent_'
'retombées_'
'retenues_'
'restauration_'
'respects_'
'respectant_'
'resign'
'reside'
'requérant'
'requ'
'représenté_'
'renseignement_'
'renowned_'
'reno'
'rene'
'remerci'
'remar'
'relâch'
'reli'
'relate_'
'rela'
'reint'
'rehabilitation_'
'regulators_'
'regulate_'
'regardez_'
'regard'
'reflètent_'
'refl'
'reduces_'
'recul_'
'recouvrement_'
'recom'
'recept'
'rece'
'realization_'
'readiness_'
'rdo'
'rdi'
'ration'
'rat_'
'rappelle'
'raj'
'quête_'
'qué'
'quasiment_'
'qualités_'
'qualifié_'
'pô'
'pétition'
'pât'
'purs'
'pulled_'
'puiss'
'puce'
'publici'
'ptu'
'pto'
'ptic'
'psychologique_'
'psychi'
'prévoyant_'
'préside'
'préférence_'
'proxy_'
'provoqu'
'provinciaux_'
'protège_'
'proportional'
'pron'
'promen'
'prolongée_'
'projected_'
'prohibition_'
'profess'
'productions_'
'procureur_'
'proceeding_'
'proactive_'
'privilège'
'privati'
'priori'
'prim'
'presu'
'prestig'
'prenne_'
'prejudice_'
'preach'
'praise'
'practic'
'poursuiv'
'posée_'
'possess_'
'poss'
'poses_'
'portfolio_'
'portait_'
'pop'
'pomp'
'polonais_'
'poll_'
'police'
'poli'
'plé'
'plum'
'pluie'
'plong'
'plateau_'
'plastique_'
'plante_'
'plant'
'pioneer'
'pine'
'pid'
'picturesque_'
'phor'
'ph_'
'pet_'
'perp'
'penal'
'pel'
'paye_'
'payant'
'pav'
'pause_'
'patents_'
'passive_'
'parcs_'
'paradox'
'paradis_'
'ow'
'overr'
'overh'
'overd'
'ouvriers_'
'outrage'
'outr'
'oute'
'ouille'
'oublie_'
'oste'
'oso'
'oris'
'organique'
'orateur_'
'optique_'
'optimal_'
'oppression_'
'opposé_'
'opportun'
'opo'
'operative_'
'operates_'
'onné_'
'om'
'ola'
'oie_'
'oid'
'off'
'oes_'
'oeil_'
'oche'
'occurs_'
'obligés_'
'oba'
'nça'
'nurse_'
'ntion'
'nsé'
'nowhere_'
'novateur'
'nourri'
'nod'
'noble_'
'nnie'
'nique'
'nies_'
'newspapers_'
'newsletter_'
'net'
'ndis'
'nationalité_'
'nationaliste'
'nal'
'nais_'
'musicale'
'mus'
'municipalités_'
'muni'
'multinationales_'
'mul'
'mr'
'mpt'
'mout'
'montagnes_'
'mona'
'modules_'
'minimize_'
'mini'
'minera'
'mien_'
'midst_'
'mess_'
'menus_'
'mentionnées_'
'mente'
'mentali'
'mens'
'menacent_'
'memories_'
'melt'
'measuring_'
'mbo'
'massif_'
'mass'
'mask'
'marking_'
'marier_'
'marginalis'
'mara'
'manufacturer_'
'manual'
'mangé_'
'manche'
'malaise_'
'major'
'législations_'
'lâche'
'lte'
'lr'
'lova'
'loi'
'log_'
'ller'
'liti'
'literature_'
'liquid'
'lina'
'limit'
'libéraux_'
'libéral_'
'liberalization_'
'lez_'
'lers_'
'ler'
'legi'
'leg'
'lecteurs_'
'learn'
'lea'
'lds_'
'lava'
'landm'
'landing_'
'lance'
'lace'
'knowing_'
'know'
'kni'
'kma'
'km'
'kle_'
'kir'
'kidnappe'
'keyword_'
'keeps_'
'juris'
'jugé'
'jug'
'jet_'
'ié_'
'ivo'
'itor'
'ito'
'iter_'
'isée_'
'isolement_'
'isolate'
'ionis'
'inutiles_'
'intérimaire_'
'intérim_'
'introduit_'
'intran'
'intolerance_'
'interna'
'interdis'
'interactions_'
'insult'
'insulaires_'
'insuffisant_'
'institutionnel_'
'installés_'
'inspired_'
'insistan'
'inscrits_'
'inscrites_'
'innovant'
'injustice_'
'injusti'
'inject'
'inhibit'
'inherit'
'inhal'
'ington_'
'inflation'
'infecté'
'infant_'
'iner'
'ineffic'
'indépendamment_'
'industrialized_'
'industrialis'
'indien_'
'incr'
'incon'
'inci'
'incendies_'
'inappropriate_'
'inali'
'imé'
'imposée_'
'impos'
'importé'
'import'
'imply_'
'impliqué_'
'impartial_'
'immeuble_'
'imagine'
'illégal_'
'illustre'
'illicites_'
'ilit'
'ih'
'iga'
'if'
'ieuses_'
'iels_'
'idrc_'
'idiot'
'identit'
'ideal'
'ica_'
'hôtes_'
'hétéro'
'hérit'
'hyper_'
'hy_'
'hostile_'
'hl_'
'hiérarchi'
'hie'
'hib'
'heurte'
'heroi'
'herb'
'hence_'
'heating_'
'hbo'
'habitant_'
'habit'
'habil'
'gêne'
'gérés_'
'généré'
'génér'
'gy'
'guiding_'
'grossi'
'grid_'
'grecque'
'greatly_'
'grati'
'graph'
'got'
'gori'
'globally_'
'glisse'
'gible_'
'giant_'
'gha'
'gging_'
'ggi'
'gest'
'genres_'
'gear_'
'gea'
'gati'
'gale'
'fédérales_'
'fug'
'fré'
'fru'
'foyer_'
'foutre_'
'fourr'
'forts_'
'formulated_'
'formel'
'forgot_'
'forgive_'
'fool_'
'fondés_'
'fonctionna'
'fluid_'
'floors_'
'fit'
'financés_'
'fin'
'fiche_'
'fica'
'fic'
'ffe_'
'feux_'
'ferons_'
'females_'
'feels_'
'fausse_'
'faun'
'familiari'
'fabrique'
'fa_'
'expédit'
'exploit'
'explicite_'
'explications_'
'explication_'
'exercent_'
'executed_'
'excursions_'
'evolv'
'evaluating_'
'estation_'
'essaye_'
'essayai'
'essa'
'espion'
'escal'
'err'
'ero_'
'erio'
'erin'
'erh'
'erg'
'erd'
'eral_'
'eral'
'eradication_'
'equi'
'environs_'
'environnemental_'
'entretien'
'entende'
'entail_'
'enrichment_'
'ennes_'
'enlever_'
'enlarged_'
'enh'
'englobe_'
'engineer'
'enforce_'
'endur'
'endor'
'endeavour_'
'end'
'encod'
'enca'
'empris'
'emic'
'elle'
'elderly_'
'eir'
'eho'
'edo'
'editor_'
'ective_'
'eci'
'détourne'
'désignés_'
'dépos'
'dépassé_'
'dépasse'
'délit_'
'dégu'
'dégradation_'
'défenseurs_'
'décret_'
'découp'
'décharge'
'débit_'
'dw'
'drone'
'douz'
'doux_'
'doses_'
'dorm'
'donnez_'
'dol'
'doi'
'documented_'
'divorce'
'diversif'
'divergences_'
'distribué_'
'distribuer_'
'distr'
'distingue_'
'disse'
'dispos'
'disparu'
'discuté_'
'discovery_'
'disciplinaire'
'diplôme_'
'diplomatie_'
'ding'
'dimanche_'
'diffus'
'diet_'
'diam'
'devis'
'detect_'
'deta'
'describes_'
'deri'
'dera'
'deprived_'
'dependence_'
'denial_'
'dence_'
'demographic_'
'democrat'
'demandant_'
'demandais_'
'deliver'
'degrees_'
'defend'
'defa'
'deadline_'
'danse_'
'dad'
'custom'
'curtai'
'cul'
'ctua'
'ctions_'
'créance'
'cry_'
'crit'
'crie'
'creditors_'
'crap_'
'craignent_'
'courir_'
'coul'
'couch'
'coté_'
'corrompu'
'corr'
'corn_'
'cops_'
'coordonn'
'coordinator'
'coo'
'conviendrait_'
'convened_'
'contrôlée_'
'contrairement_'
'contraception_'
'content'
'consulté_'
'consulted_'
'consultant_'
'constructif_'
'constituée_'
'constituera'
'constituen'
'consommé'
'conserve_'
'conscients_'
'confront_'
'confidentiality_'
'confident_'
'conduis'
'concerted_'
'concernée_'
'compétitif'
'compétentes_'
'compétent_'
'comput'
'compress'
'compr'
'composés_'
'complainant_'
'compl'
'compile'
'competenc'
'communiqués_'
'commercial'
'comfortably_'
'collaborative_'
'coefficient_'
'cluster_'
'clothing_'
'clicking_'
'circum'
'circula'
'choisisse'
'choisis'
'chio'
'childhood_'
'chest_'
'cherche'
'chen'
'chee'
'chaussures_'
'chaud_'
'chass'
'chas'
'charity_'
'champion'
'certified_'
'centime'
'celebrati'
'celebrate_'
'caution_'
'cate_'
'capability_'
'candle'
'canada_'
'cana'
'calibre_'
'cale_'
'cala'
'caisses_'
'bét'
'burg'
'bunch_'
'bulk_'
'bt'
'brutale'
'brui'
'branches_'
'brai'
'boîtes_'
'bouteille_'
'boundaries_'
'boul'
'bouge_'
'boucle'
'born'
'bore'
'book'
'bold_'
'blend'
'blanc'
'bienfaisance_'
'bien'
'beside'
'bes'
'benefited_'
'belongs_'
'belge_'
'bei'
'beaux_'
'bau'
'bat'
'basically_'
'barely_'
'bands_'
'ballot_'
'baiser_'
'backed_'
'bac'
'bab'
'aéroports_'
'aéro'
'ays_'
'autonome_'
'autodétermination_'
'authentic_'
'aut_'
'aus'
'augmentent_'
'attire'
'atteste'
'attendais_'
'atteintes_'
'attaché'
'ata'
'assumption_'
'assis_'
'ash'
'artistic_'
'artist_'
'artific'
'arrêt'
'arranged_'
'arrange_'
'arma'
'ark_'
'arit'
'arg'
'architect'
'arc'
'aquatic_'
'apprécié_'
'apportée_'
'apparu_'
'appart'
'aph'
'antip'
'antico'
'anticipated_'
'answered_'
'animation_'
'ani_'
'anger_'
'ange'
'anda_'
'analys'
'ample_'
'amm'
'amenities_'
'amateurs_'
'allum'
'allu'
'allemandes_'
'all'
'alist'
'alism_'
'aj'
'aint'
'aig'
'aha'
'agression_'
'agressi'
'affectés_'
'affecte'
'aff'
'advocate_'
'advise_'
'adventure'
'adolescent'
'admissibilit'
'administrer_'
'administratifs_'
'administr'
'adjust_'
'adhér'
'adapté_'
'acu'
'acier_'
'accusés_'
'accommodate_'
'accesso'
'abst'
'abortion_'
'abordé_'
'Zealand_'
'XX_'
'Wit'
'Welfare_'
'Week'
'WO'
'WA_'
'Vladimir_'
'Vis'
'Vincent_'
'Vin'
'Villa_'
'Vil'
'VII_'
'UX_'
'URL_'
'UNA'
'UH'
'Téléphone_'
'Trouver_'
'Troisième_'
'Trib'
'Trek_'
'Transit'
'Trait'
'Tommy_'
'Tol'
'Tip_'
'Thro'
'Thi'
'The'
'Ter'
'Taylor_'
'Tampere_'
'TT'
'TRI'
'TOU'
'TI_'
'THI'
'TC_'
'Superi'
'Sup'
'Subject_'
'Str'
'Spl'
'Spending_'
'Speak'
'Some'
'Sn'
'Sharon_'
'Shan'
'Seu'
'Serb'
'Sem'
'Secret'
'Santos_'
'SW'
'SUR'
'SHO'
'SG_'
'SCT_'
'SAN'
'Résolution_'
'Russell_'
'Rui'
'Rot'
'Roa'
'Riv'
'Reste_'
'Relax_'
'Recommendations_'
'Recommendation_'
'Reb'
'Real_'
'Raj'
'Rachel_'
'RA_'
'Quar'
'Qaeda_'
'Qa'
'Proliferation_'
'Produits_'
'Pro_'
'Prev'
'Presidents_'
'Pren'
'Pon'
'Poly'
'Politique_'
'Pol'
'Plan'
'Pere'
'Penn'
'Peni'
'Payment'
'Parad'
'Pam'
'Pag'
'PT'
'PRÉS'
'Opti'
'Om'
'Obviously_'
'Obs'
'Objectifs_'
'Notice_'
'Nine_'
'Niger_'
'Nico'
'News'
'Nelson_'
'Neil_'
'Need'
'Nar'
'Nam'
'NR'
'NOT_'
'NI_'
'Médi'
'Musharraf_'
'Move_'
'Mountain'
'More'
'Monte_'
'Money_'
'Modern'
'Mise_'
'Ministerial_'
'Milosevic_'
'Miller_'
'Mean'
'McK'
'Massa'
'Marina_'
'Manuel_'
'Malte_'
'Make'
'MU'
'MEPs_'
'MED'
'MC_'
'Lud'
'Lucy_'
'Long'
'Lois_'
'Loa'
'Live'
'Lind'
'Left_'
'Laundry_'
'Late'
'Lakes_'
'LT'
'Kru'
'Kri'
'Kl'
'Kho'
'Khan_'
'KG'
'Jeux_'
'Jersey_'
'JP'
'Inu'
'Intér'
'Integration_'
'Install'
'Impl'
'Immuni'
'Imagine_'
'Ian_'
'ISP'
'INS'
'INA'
'IEN'
'Hum'
'Hu_'
'Horaires_'
'Happy_'
'Hamilton_'
'Had_'
'HE_'
'H1'
'Greg_'
'Grands_'
'Goe'
'Glen'
'Gazette_'
'GC_'
'Fur'
'Front'
'Fly'
'Fli'
'Fix'
'Fit'
'Fifty_'
'Field_'
'Feli'
'Fal'
'Fair_'
'Export_'
'Export'
'Exe'
'Except_'
'Europol_'
'Este'
'Esp'
'Employees_'
'Emm'
'Elevator_'
'Electronic_'
'Effect'
'Educational_'
'Edu'
'Edmonton_'
'Ecuador_'
'EX_'
'EB'
'Déte'
'Dés'
'Dura'
'Dru'
'Droit_'
'Dog'
'Dji'
'Dj'
'Disabled_'
'Didn_'
'Dem'
'Definit'
'Deb'
'Day'
'Daddy_'
'DRAS_'
'DG_'
'Cres'
'Creati'
'Coun'
'Coordinator_'
'Coopération_'
'Conventions_'
'Contents_'
'Consult'
'Consideration_'
'Conservation_'
'Concernant_'
'Conce'
'Complete_'
'Commun'
'Commonwealth_'
'Commissioners_'
'Coh'
'Coa'
'Clearly_'
'Classification_'
'Claire_'
'Churchill_'
'Chamb'
'Chai'
'Chacun_'
'Certificat'
'Carte'
'Cari'
'Capt'
'Capacity_'
'Cannes_'
'Cance'
'Camb'
'CRI'
'COR'
'COM'
'COL'
'CIA_'
'CAS'
'CAP_'
'By'
'Bridge_'
'Bref_'
'Bravo_'
'Boug'
'Borde'
'Boe'
'Blu'
'Bishop_'
'Birmanie_'
'Bible_'
'Bey'
'Bern'
'Being_'
'BY_'
'BC'
'BB'
'BAS'
'Austrian_'
'Atte'
'Attach'
'Asseyez_'
'Asse'
'Art'
'Anything_'
'Any'
'Antonio_'
'André_'
'Alte'
'Alm'
'Allo'
'Alexandr'
'Again_'
'Addition'
'Add'
'Ad_'
'Acad'
'Abby_'
'Abb'
'AW'
'AR_'
'ANC'
'AIR_'
':] _'
': $_'
'96'
'92'
'211_'
'1948_'
'174'
'169_'
'154'
'149'
'117_'
'112_'
'106_'
'0s_'
'07'
'002'
'000'
'/ '
', $_'
') :_'
'& '
'"..._'
' ?"_'
' .'
' )'
' '
''
''
''
'€_'
'” – _'
'ût'
'ø'
'ôle'
'ña'
'évité'
'éventualité_'
'évalué_'
'étudiée'
'étudié_'
'étr'
'étern'
'étendue_'
'érent'
'éral'
'équivalent'
'équilibré_'
'épo'
'épisode_'
'élégante'
'éloigne'
'élever_'
'élan_'
'élaborés_'
'égi'
'égal'
'écrivai'
'écouté_'
'éati'
'èmes_'
'ÉE'
'ÉC'
'»)'
'µ'
'°'
' -, _'
'zz_'
'zion'
'zens'
'yt'
'yst'
'yield_'
'wrong'
'writers_'
'wound_'
'worrying_'
'wildlife_'
'wild'
'wie'
'widen'
'wic'
'whenever_'
'well'
'wel'
'web'
'wasted_'
'was'
'vy'
'vrir'
'visual_'
'visions_'
'visibility_'
'virtue_'
'violated_'
'viol'
'viendr'
'viab'
'versé'
'verro'
'veno'
'veni'
'ven'
'vas'
'vaccin_'
'uvre'
'uté'
'utmost_'
'utility_'
'ustr'
'uss'
'usr_'
'usc'
'ural'
'unilat'
'underground_'
'umb'
'ulate'
'uer'
'uement_'
'télé_'
'tè'
'typique'
'tw'
'tute'
'tun'
'trick'
'travelling_'
'transporté'
'transporter_'
'transnational_'
'transfront'
'transformed_'
'transforme'
'traitées_'
'traitent_'
'trail_'
'trac'
'tow'
'tourné_'
'tourn'
'touristes_'
'tour'
'touchent_'
'touched_'
'tory_'
'tortured_'
'toc'
'tk'
'titi'
'tir_'
'tionne'
'tine'
'tight_'
'tics_'
'thérapie_'
'thé_'
'thu'
'thri'
'threshold_'
'threaten_'
'thl'
'thie'
'tez_'
'terri'
'terminate_'
'tere'
'tentent_'
'tende'
'températures_'
'température_'
'temperatures_'
'tem'
'teeth_'
'taxpayers_'
'tam'
'talents_'
'take'
'tactique_'
'tabli'
'sépar'
'sées_'
'sédui'
'séc'
'syn'
'sword_'
'suspend_'
'survivre_'
'surv'
'surrounded_'
'surp'
'surge_'
'surf'
'supprim'
'suppress'
'supporter_'
'supplementary_'
'suggesting_'
'subparagraph_'
'stup'
'stuff'
'struggling_'
'strikes_'
'strictes_'
'stimulant'
'statue'
'stables_'
'ssl'
'ssing_'
'square'
'spécifiquement_'
'spécialités_'
'spr'
'spl'
'spin'
'spectacular_'
'soyons_'
'sour'
'soulève_'
'soulève'
'souhaiter_'
'sortant_'
'sophisticated_'
'solvab'
'socioéconomique'
'snow'
'smile_'
'sman_'
'sm'
'sli'
'side'
'sia'
'shadow_'
'sha_'
'severely_'
'sensation_'
'sens'
'semblables_'
'seal'
'sculpt'
'scru'
'screwed_'
'sauter_'
'satur'
'satisfy_'
'satisfaits_'
'satellites_'
'sap'
'sais'
'saint_'
'safeguards_'
'sacré_'
'sache_'
'réé'
'réviser_'
'rétro'
'résidant_'
'rési'
'réservé_'
'rémunéré'
'réin'
'réglé_'
'régi'
'référendum_'
'réexamen_'
'réciproque'
'réc'
'réalisées_'
'réaliste_'
'réactions_'
'rv'
'rulers_'
'ruled_'
'rth'
'roy'
'roup'
'roug'
'rog'
'rné'
'rna'
'rma'
'rly_'
'rk_'
'rium_'
'rigueur_'
'rigorous'
'rien'
'ridi'
'rican'
'rians_'
'revisi'
'reven'
'retrouvé_'
'retro'
'retourne'
'rete'
'resumed_'
'restr'
'restes_'
'restant'
'resta'
'ress'
'responsive_'
'respect'
'res'
'reputation_'
'représenta'
'replacement_'
'reo'
'renv'
'renouvelable_'
'renouve'
'renonc'
'reme'
'remarquable'
'rejoint_'
'rejoin'
'reintegration_'
'reh'
'regrett'
'refund'
'reforme'
'refai'
'recti'
'recover'
'reconstitu'
'recommen'
'recognizing_'
'rebuild'
'reactions_'
'rch'
'ravie_'
'rassembler_'
'raph'
'rant'
'rank'
'rando'
'quotidien_'
'quinze_'
'quil'
'quez_'
'quanti'
'quant'
'périodique_'
'pénétr'
'pén'
'pyr'
'pute_'
'publishing_'
'publisher'
'préventive_'
'présumé'
'présidente_'
'préserv'
'préparés_'
'préparée'
'préoccupée_'
'pré_'
'proximity_'
'provinciale_'
'provi'
'prov'
'promising_'
'projet'
'projection_'
'prohibit'
'programm'
'profi'
'professions_'
'produites_'
'produite_'
'prochains_'
'probl'
'privilégié'
'priest_'
'prier_'
'press'
'preserving_'
'prescri'
'pres'
'prerequisite'
'precedent_'
'pratiqu'
'ppl'
'pping_'
'pourv'
'pounds_'
'portuaire'
'portions_'
'pornographi'
'popula'
'pont'
'polici'
'pocket_'
'poche_'
'pluri'
'plu'
'plomb'
'plead'
'plat_'
'plastic_'
'pita'
'pist'
'pien'
'pie_'
'photographi'
'phas'
'pez_'
'pet'
'perçoivent_'
'pervers'
'pertinente_'
'pertinence_'
'perpetrators_'
'permanents_'
'pen_'
'pell'
'patiente'
'passport_'
'partiellement_'
'partiel'
'partagée_'
'partag'
'parlera'
'parité_'
'parfum'
'panoram'
'panique_'
'painting_'
'paci'
'overwhelming_'
'ove'
'ouv'
'outline'
'outdoor_'
'ourg_'
'oue'
'otage'
'oro'
'orchestr'
'orale'
'opérationnelle_'
'optimist'
'opte'
'opt_'
'opponents_'
'opi'
'opens_'
'ood_'
'oo_'
'onie'
'ome_'
'oldest_'
'oing_'
'offerte_'
'offens'
'offend'
'oed'
'oco'
'oce'
'occupés_'
'occupational_'
'obten'
'observateur_'
'obli'
'néerlandais_'
'nè'
'ny'
'nw'
'nter'
'noy'
'nota'
'nomin'
'noirs_'
'nid'
'ngue'
'nger_'
'nement'
'nels_'
'neighborhood_'
'needle'
'nde_'
'naï'
'navire_'
'navigateur_'
'navi'
'naut'
'nas'
'nage_'
'mêl'
'méditerranéenne_'
'museums_'
'murdered_'
'municipalit'
'moreover_'
'morceaux_'
'monster_'
'monopole_'
'monitored_'
'mois'
'modifiant_'
'modi'
'mma'
'mixte_'
'mir_'
'mic_'
'mettons_'
'messager'
'merveille'
'merits_'
'mera'
'mentir_'
'mens_'
'mediat'
'matérielle'
'matic'
'mas_'
'mas'
'marre'
'market'
'marié_'
'maritimes_'
'mar_'
'manqué_'
'manque'
'mano'
'manifesté_'
'manifeste_'
'manifeste'
'malf'
'mala'
'main'
'mage_'
'magasin_'
'macro_'
'légaux_'
'luxueu'
'lus'
'lumineu'
'lumi'
'lue'
'low'
'lourde_'
'lounge_'
'locate_'
'loading_'
'littéra'
'liquide_'
'lique'
'linguistiques_'
'linger'
'liga'
'lic_'
'libér'
'lian'
'liable_'
'lf'
'lentement_'
'lend_'
'len_'
'lement'
'lection'
'ld'
'launching_'
'laugh_'
'latitude_'
'lati'
'lar_'
'lap'
'lant_'
'lain'
'kin'
'kill'
'key'
'keen_'
'juridiquement_'
'juridiction'
'jugée_'
'juger_'
'judgement_'
'journalis'
'jor'
'jeté_'
'iét'
'iés_'
'iz_'
'itant_'
'ita_'
'isti'
'issement'
'issa'
'ish'
'irresp'
'iront_'
'ironi'
'inévitable_'
'invoqué'
'invitée_'
'invites_'
'investi_'
'invalidité_'
'intègre_'
'intrusi'
'introdu'
'intr'
'interven'
'interr'
'interpr'
'intermi'
'interc'
'intensity_'
'intensification_'
'intends_'
'insécurité_'
'insurg'
'insuffisante_'
'instru'
'instantly_'
'inspir'
'inspecteurs_'
'insiste_'
'insi'
'insect'
'inquiet'
'ink'
'inis'
'ingénie'
'ingr'
'inform'
'influenc'
'infini'
'ines'
'inent'
'individuelle_'
'individuali'
'individu_'
'indispensables_'
'indifféren'
'indice_'
'indi'
'indemnités_'
'inconv'
'incont'
'incite_'
'incitations_'
'incarn'
'inal_'
'inability_'
'impu'
'imposées_'
'imposing_'
'impliquer_'
'imperative_'
'impartialit'
'immunité_'
'immatricul'
'ime'
'imagina'
'ileges_'
'idéale_'
'idé'
'identifié_'
'icit'
'icat'
'ible_'
'hémi'
'hé_'
'hurt'
'human'
'hs'
'hri'
'hre'
'hr'
'hp'
'horizon_'
'hoo'
'honte_'
'honnête_'
'hone'
'homolog'
'homog'
'hod'
'hne_'
'hm_'
'hired_'
'hesitat'
'hement_'
'height_'
'hate'
'harmonize'
'harmonisé'
'hanging_'
'hange'
'habituelle'
'généreu'
'générer_'
'gut'
'guin'
'guar'
'gratuit'
'governor_'
'goo'
'gluc'
'glob'
'gle_'
'gir'
'gifts_'
'geni'
'genes_'
'gend'
'gar_'
'gam'
'fér'
'fur_'
'fundamentalis'
'fumer_'
'ful'
'fuel'
'french_'
'fraîche'
'franc'
'foutu'
'fout_'
'fournissant_'
'fortun'
'formidable_'
'forgotten_'
'footing_'
'fonc'
'flics_'
'fiss'
'finest_'
'finalis'
'figured_'
'fie'
'fich'
'fia'
'ffs_'
'ffre'
'festivals_'
'fears_'
'favori'
'fauteuil_'
'father'
'false_'
'fall'
'faculté'
'facilité'
'facilite_'
'exécute'
'extremism_'
'externes_'
'exter'
'exprimés_'
'exprimées_'
'exprimée_'
'exposer_'
'expedit'
'executives_'
'excédents_'
'excès_'
'exclusif'
'exclue'
'excess'
'even'
'euti'
'eut'
'ester'
'essor_'
'esse_'
'esh_'
'ese'
'erson'
'erect'
'envoy'
'envoi_'
'envelop'
'entrées_'
'entraîne'
'entrance_'
'ention_'
'ensured_'
'ensi'
'ensem'
'enlevé'
'enforced_'
'endless_'
'endettement_'
'emmen'
'emit'
'embe'
'eil_'
'efi'
'effr'
'effor'
'effectifs_'
'effect'
'economist_'
'ecl'
'ead_'
'dévers'
'détaillés_'
'désiré'
'désigne_'
'désert'
'désaccord_'
'dérange'
'dépréci'
'déposant_'
'déployer_'
'déplacer_'
'déplacements_'
'déni'
'démon'
'démarr'
'délo'
'délits_'
'délibérément_'
'dél'
'défend'
'déduit'
'décrites_'
'décrit'
'découlent_'
'découle_'
'décide'
'déchir'
'déch'
'débuté_'
'débar'
'dysf'
'dui'
'drove_'
'drill'
'dresse'
'drama_'
'dp'
'downs'
'download'
'donations_'
'dock'
'dji'
'diz'
'divin'
'diversification_'
'dite_'
'distribute_'
'distinctive_'
'dist'
'dispute'
'disons_'
'dishes_'
'dish'
'discriminatoire_'
'discret'
'disciplinary_'
'dirigé_'
'directory_'
'diffusé_'
'differ_'
'dictature_'
'diagnosis_'
'developers_'
'desquelles_'
'desi'
'depo'
'deny_'
'demonstrations_'
'demandée_'
'dema'
'delete_'
'degradation_'
'defines_'
'defending_'
'dee'
'deducti'
'declined_'
'deck'
'db'
'damaged_'
'câ'
'custom_'
'cuisin'
'cubain'
'ctanc'
'créent_'
'créature_'
'crois'
'creuse'
'creu'
'crainte_'
'craint_'
'coïncide'
'couverts_'
'courtes'
'couronn'
'coupables_'
'correspondants_'
'correlat'
'corrections_'
'coordonnée_'
'convena'
'contrôlé_'
'contreba'
'continu_'
'contextual_'
'contemporain_'
'consula'
'constitutionnelle_'
'consid'
'consi'
'connect_'
'conjug'
'confused_'
'confier_'
'conditioning_'
'condemn_'
'concret_'
'concentré'
'concentrate_'
'comptabilité_'
'compt'
'comportant_'
'compatibilit'
'comparative_'
'communistes_'
'commissione'
'commises_'
'commentaire_'
'commend_'
'commend'
'collectif_'
'coins_'
'coherence_'
'coh'
'cocktail_'
'clé'
'clear'
'cleane'
'clean'
'classic_'
'classi'
'classement_'
'clairs_'
'ciat'
'cian'
'chute'
'chron'
'chrom'
'chir'
'chip_'
'chiens_'
'cherchai'
'chen_'
'chem'
'cheese_'
'chaud'
'chargées_'
'champion_'
'champagne_'
'chairs_'
'chairman_'
'cessent_'
'certifié'
'certificates_'
'certificat_'
'cert'
'cercle_'
'cer_'
'cepti'
'censés_'
'catalogue_'
'caste'
'cas'
'caractéristique_'
'capitals_'
'cani'
'candida'
'cancell'
'canal'
'camb'
'cam'
'calculs_'
'calculated_'
'cabi'
'butt'
'bullet_'
'bulle_'
'brillant'
'branche_'
'branch_'
'boulevers'
'bouch'
'bot_'
'boo'
'blé_'
'bloo'
'blica'
'biot'
'biog'
'bio_'
'bill'
'bilis'
'bienvenue_'
'bicycle'
'bic'
'ben_'
'belt_'
'beat'
'bay'
'bassin_'
'banquiers_'
'bankers_'
'banan'
'ball'
'balcon_'
'ayons_'
'ayez_'
'axés_'
'avoided_'
'avan'
'authori'
'aurions_'
'attrap'
'attachement_'
'atom'
'ath'
'ately_'
'astro'
'aster'
'assured_'
'assent'
'assembly_'
'assainissement_'
'artistique_'
'artis'
'armé_'
'armements_'
'argues_'
'archive_'
'arable_'
'apt'
'approuvée_'
'apportés_'
'applicants_'
'applaud'
'ao_'
'ao'
'antenn'
'ancie'
'anat'
'améliorée_'
'amor'
'ament'
'amende_'
'ambulance_'
'amba'
'alu'
'altogether_'
'alongside_'
'alize'
'alien'
'alcool'
'alc'
'alarm_'
'ake_'
'ajoute'
'aimer_'
'agréable'
'agrees_'
'agne'
'agiss'
'age'
'affronter_'
'affronte'
'affordable_'
'affirmative_'
'affiche'
'affecté_'
'affecter_'
'affair_'
'aero'
'adéquat'
'adver'
'ads_'
'adopte'
'admitted_'
'administrateur_'
'adaptés_'
'activate'
'acquitt'
'ack_'
'accro'
'accompagne'
'acceptent_'
'accentu'
'absurd'
'absten'
'absorb'
'abrog'
'aboli'
'abili'
'abi'
'abandonné'
'Xiao'
'XVII'
'Workshop_'
'Word_'
'Weapons_'
'Walk'
'WKH_'
'WITH_'
'WD_'
'Vé'
'Volume_'
'Vita'
'Ves'
'Verts_'
'Vers'
'VER'
'Ut'
'Um'
'Ul'
'UNRWA_'
'UNIT'
'UNFPA_'
'Téléc'
'Té'
'Turk'
'Trop_'
'Treatment_'
'Treaties_'
'Touch'
'Though_'
'Terrace_'
'Tam'
'TY_'
'TW'
'TTE'
'TRANS'
'TOR'
'TON_'
'Sunni_'
'Sud'
'Subsection_'
'Structural_'
'Steph'
'Steering_'
'Soyez_'
'Sony_'
'Soleil_'
'Sol_'
'Sla'
'Siège_'
'Sites_'
'Signature_'
'Sig'
'Share_'
'Sens'
'Seminar_'
'Securities_'
'Secur'
'Sea'
'Saoudi'
'Sai'
'Safe'
'SYST'
'SS_'
'SP_'
'SION'
'SIL_'
'SEA'
'SCO'
'S0'
'Résumé_'
'Région_'
'Run_'
'Roy_'
'Roosevelt_'
'Ron'
'Rol'
'Roi_'
'Robert'
'Rit'
'Rick'
'Retr'
'Responsible_'
'Reporting_'
'Rental_'
'Rena'
'Registry_'
'Registration_'
'Recognizing_'
'Recently_'
'Rapp'
'Rain'
'RM'
'RAI'
'Quarte'
'QW'
'Putain_'
'Psych'
'Proche_'
'Proce'
'Priority_'
'Prepare'
'Prec'
'Poste'
'Pope_'
'Pont'
'Pit'
'Pia'
'Philip_'
'Petit_'
'Peri'
'Perc'
'Ped'
'Pear'
'Parti'
'Parte'
'Parr'
'Park'
'Parent'
'PI_'
'PIC_'
'PHA'
'PF'
'PD_'
'Otherwise_'
'Others_'
'Opp'
'OP_'
'None_'
'Nokia_'
'Nin'
'Nikon_'
'Nicole_'
'Nicaragua_'
'Newspapers_'
'Neu'
'Neg'
'Nazi_'
'Nas'
'NOR'
'NIC'
'Municipal'
'Mort'
'Moon_'
'Montenegro_'
'Mit'
'Mist'
'Mine_'
'Mexica'
'Mets_'
'Meli'
'McCo'
'Matthew_'
'Math'
'Material'
'Mars'
'Margaret_'
'Mann'
'Magazine_'
'MAT'
'MAN_'
'Lyon_'
'Louise_'
'Light'
'Licence_'
'Lel'
'Lebanese_'
'Large_'
'Lady_'
'LT_'
'LTD_'
'LLE'
'LG'
'Knowledge_'
'Kas'
'Karen_'
'K1A_'
'Justification_'
'Jet'
'Jeff_'
'JO_'
'Itali'
'Issues_'
'Io'
'Internationale_'
'Intell'
'Integrated_'
'Innovation_'
'Industrie_'
'Ind'
'Ign'
'IX_'
'IU'
'ITC'
'IRU_'
'IMA'
'IDE'
'ICT_'
'ICC_'
'IAL'
'Hostel_'
'Hiro'
'Helen'
'Heath'
'Haye_'
'Hawk'
'Hanna'
'Guan'
'Grenad'
'Greater_'
'Gran'
'Grad'
'Goods_'
'Golfe_'
'Golf_'
'Gl'
'Gan'
'GS'
'Fuku'
'Friendly_'
'Frequen'
'Fox_'
'Fourth_'
'Found'
'Finding'
'Fatah_'
'Faire_'
'FOR'
'FM_'
'FH'
'FDI_'
'FD'
'Explor'
'Expert_'
'Excellency_'
'Evan'
'Espa'
'Environ'
'Entr'
'Economy_'
'Early_'
'EG'
'EEC_'
'Déco'
'Dut'
'Docteur_'
'Disney_'
'Discipline_'
'Direct_'
'Departmental_'
'Dean_'
'DPJ_'
'DL'
'Curr'
'Cul'
'Cris'
'County_'
'Coord'
'Consultation_'
'Cons'
'Conn'
'Conc'
'Competitive'
'Communis'
'Committees_'
'Commercial_'
'Comments_'
'Combat'
'Color'
'Collecti'
'Collaborati'
'Citi'
'Chr'
'Chil'
'Chancellor_'
'Certain_'
'Cel'
'Catal'
'Cast'
'Cardi'
'Card_'
'CRTC_'
'CNS'
'CNRC_'
'CID'
'CER'
'Bug'
'Budgets_'
'Brid'
'Bretton_'
'Break'
'Bras'
'Bow'
'Bond'
'Bolivia_'
'Blanc'
'Beth'
'Besides_'
'Beat'
'Basi'
'Barb'
'Bag'
'Bad'
'Back'
'BLE_'
'BIL'
'Award_'
'Aviation_'
'Aver'
'Available_'
'Atta'
'Asi'
'Aru'
'Arti'
'Arafat_'
'Arabes_'
'Appro'
'Appo'
'App'
'Always_'
'Alla'
'Agi'
'Against_'
'Af'
'Addi'
'Actuellement_'
'Activit'
'Active_'
'Acting_'
'Ace'
'Academy_'
'Absolutely_'
'ADR_'
'ACT_'
'??'
'93'
'83'
'720'
'500'
'208_'
'1966_'
'1962_'
'184'
'161'
'152_'
'139'
'136'
'134'
'128'
'120'
'119_'
'005'
'.(_'
', [_'
'***'
')) '
'( _'
'", "_'
' �_'
' ”'
' ['
' .._'
' . . . . '
' $'
''
'♪ ♪'
'” '
'’, _'
'к'
'з'
'œuvre'
'œurs_'
'ûte'
'ôn'
'î'
'ín'
'êche'
'évoquer_'
'évolué_'
'évoluer_'
'évi'
'éth'
'étend'
'éros'
'époux_'
'épargn'
'énonc'
'émotions_'
'émotion'
'ément'
'éman'
'édifi'
'écrit'
'écou'
'économiquement_'
'écologi'
'échouer'
'échapper_'
'écart'
'ève'
'èt'
'èg'
'è_'
'çu_'
'ça'
'Îles_'
'Éthiopie_'
'Élection'
'Éla'
'Él'
'Éd'
'¿_'
'·'
'| _'
'zn'
'zio'
'zen'
'yé_'
'yss'
'yez_'
'yed_'
'yea'
'xo'
'xenophobia_'
'xe_'
'wre'
'worth'
'wm'
'witnessed_'
'wis'
'winds'
'windows_'
'wholly_'
'wheat_'
'wellness_'
'wei'
'wedding_'
'waves_'
'wat'
'wanting_'
'walk'
'wait'
'vén'
'vre'
'voyager_'
'voisine'
'voisinage_'
'voil'
'vocation_'
'vivr'
'vivante'
'viv'
'vitale_'
'visuel'
'visual'
'visite'
'viruses_'
'viral'
'vir'
'vio'
'vingtième_'
'vign'
'vier'
'vicinity_'
'vertical_'
'verify_'
'verifi'
'verbale'
'vell'
'vel'
'veillant_'
'vegeta'
'varying_'
'varieties_'
'variant'
'valise'
'valide'
'vaccin'
'vable_'
'uts_'
'utes_'
'ute_'
'urn_'
'urgente_'
'urgen'
'upst'
'upl'
'upgrading_'
'unpre'
'unn'
'unjust'
'uner'
'undi'
'underw'
'understandable_'
'unction'
'ulte'
'ulta'
'uff'
'ueux_'
'uck'
'uan'
'têtes_'
'télévis'
'télécharg'
'turque_'
'turi'
'turcs_'
'tunnel_'
'tuera'
'tuberculose_'
'tté'
'ttle_'
'tta'
'tsunami_'
'truste'
'trouvez_'
'troubl'
'troi'
'triumph'
'trices_'
'treating_'
'traîne'
'traverse_'
'travailleur_'
'transposition_'
'transmis_'
'transmet'
'translated_'
'transformat'
'transf'
'tran'
'traits_'
'traduire_'
'traders_'
'tower'
'tournée_'
'tourna'
'tog'
'tirées_'
'tirent_'
'tips_'
'tige'
'tifs_'
'tienne_'
'thèque'
'thread'
'thick'
'therapi'
'themes_'
'thal'
'textiles_'
'tes'
'terrains_'
'termine'
'terda'
'tena'
'temple_'
'tely_'
'technocrat'
'tate'
'tarifaires_'
'tari'
'tai'
'tactics_'
'tacti'
'tackling_'
'table'
'taba'
'séparément_'
'sénateur'
'systémique'
'synergies_'
'syndicat_'
'swift'
'suspended_'
'survived_'
'surroundings_'
'surre'
'surprisingly_'
'surprend'
'surgery_'
'supposé_'
'superficie'
'sup'
'sum'
'successive'
'subventionn'
'subsidiarity_'
'subscribe_'
'stunning_'
'studied_'
'stresses_'
'strengths_'
'ston_'
'stimulati'
'stic'
'steri'
'stereo'
'stem_'
'stee'
'steam'
'steal'
'starv'
'ssan'
'sr'
'spécifié'
'spouse_'
'sporti'
'spoil'
'spite_'
'spin_'
'sph'
'spectr'
'spectateurs_'
'spect'
'specifications_'
'special'
'soutenu'
'soumission_'
'soulevé'
'souhaité_'
'souhaitai'
'sorte'
'somm'
'solo_'
'socialistes_'
'soar'
'smooth_'
'slot'
'slee'
'slav'
'sity_'
'sis'
'sional_'
'sincere_'
'simultaneously_'
'simultan'
'signale'
'sib'
'shre'
'shore_'
'shine_'
'shell_'
'shar'
'sf'
'settings_'
'servira_'
'service'
'serge'
'separately_'
'sends_'
'semestre_'
'sels_'
'seized_'
'seigne'
'secrète'
'secretary_'
'searching_'
'scolari'
'sche_'
'scenarios_'
'savoirs_'
'sauvages_'
'saut'
'satisfa'
'sante'
'sanitaire_'
'sampling_'
'saisis'
'sain_'
'sacrifices_'
'révélée'
'révolution'
'rétabli'
'résulte'
'répertoire_'
'répand'
'régis'
'récolte_'
'réalis'
'réaffirme'
'réacteur'
'rvat'
'russes_'
'rumo'
'ruc'
'rto'
'rra'
'routier_'
'roni'
'road'
'rive'
'rival_'
'riv'
'risquer'
'rion'
'rily_'
'right'
'rica'
'ric_'
'rhétorique_'
'rhetoric_'
'rf'
'rew'
'revol'
'revive'
'reviv'
'reviendrait_'
'reversi'
'revers'
'reuni'
'retenus_'
'resu'
'responsabilisation_'
'respecting_'
'resi'
'rescue_'
'requi'
'repu'
'représentait_'
'repression_'
'reposer_'
'reportedly_'
'repli'
'reparti'
'renvoyé_'
'rentré'
'rentable_'
'renommé'
'renminbi_'
'rencontr'
'remplis'
'remonte_'
'reminds_'
'relevé'
'reiterate'
'rein'
'regulat'
'registra'
'rega'
'references_'
'refer'
'redress'
'redistribution_'
'redev'
'recycling_'
'recyclage_'
'recul'
'rectificati'
'recourse_'
'recou'
'reconnais_'
'recommandée'
'recommandons_'
'recensement_'
'recalled_'
'realise_'
'reacti'
'rche'
'ravi_'
'rappela'
'randonnée_'
'ranch'
'rail'
'raffin'
'radar_'
'quitte'
'quir'
'quen'
'quart'
'qualifiée_'
'qual'
'qa'
'pêche'
'pénurie_'
'péniten'
'pup'
'puissante_'
'publish_'
'psychologi'
'psychiatri'
'prévoient_'
'préven'
'prétend_'
'présidé'
'présidentielles_'
'préparati'
'préfére'
'précieuse_'
'prudent_'
'provoke'
'provinciales_'
'protestation'
'prostitu'
'propag'
'promotes_'
'prome'
'progression_'
'profoundly_'
'profite'
'procéd'
'procède_'
'probabilité_'
'prize_'
'privatization_'
'prin'
'primauté_'
'prevail'
'prestataires_'
'prendrai'
'preferences_'
'preferen'
'prefer'
'pragmati'
'pped_'
'powder'
'posées_'
'posséder_'
'porté'
'porta'
'poorer_'
'pommes_'
'polis'
'poison'
'poc'
'pluralis'
'plug'
'platforms_'
'plat'
'plas'
'plante'
'planifi'
'planes_'
'plaide'
'plafon'
'placements_'
'piég'
'pivot'
'pir'
'pills_'
'pile_'
'physio'
'physicians_'
'physi'
'phr'
'pertaining_'
'persuade'
'persua'
'personali'
'perpétue'
'permitting_'
'permettraient_'
'permanence_'
'performant'
'perdent_'
'peak_'
'payée_'
'pau'
'passera_'
'passeport_'
'pass'
'parviennent_'
'parvenu_'
'participe_'
'parity_'
'paris'
'paraître_'
'parallèlement_'
'papiers_'
'pants_'
'panels_'
'pane'
'pandemic'
'painte'
'paint_'
'pacifiques_'
'own'
'ouver'
'outputs_'
'outlook_'
'outb'
'ourn'
'oul_'
'oua'
'ots_'
'osit'
'orient'
'ori_'
'organ_'
'opérationnelles_'
'optimale'
'opium_'
'ophob'
'operati'
'oné'
'onu'
'onnée'
'onction'
'omy_'
'omo'
'omm'
'olympique'
'oligarch'
'olais_'
'olai'
'oh'
'offset_'
'offici'
'od_'
'octroyé'
'obtaining_'
'nôtre'
'négociateur'
'nutriti'
'nutrient'
'nun'
'nue'
'ntly_'
'ntiel'
'nth'
'nsion'
'novel_'
'novatrice'
'nouveauté'
'nost'
'nose_'
'normales_'
'norma'
'nommer_'
'nominations_'
'nnes_'
'nights_'
'nig'
'nien'
'neri'
'nen'
'ndr'
'navigate'
'naissan'
'nad'
'métr'
'métha'
'més_'
'mér'
'ménage_'
'médiati'
'multip'
'multilingu'
'multilatérales_'
'mpl'
'movies_'
'mounted_'
'moto_'
'motivations_'
'mothers_'
'mortgages_'
'monstre_'
'modifi'
'mode'
'mobilize_'
'mobiles_'
'mme'
'mit_'
'misunderstanding'
'miracle_'
'mique_'
'minuit_'
'mille'
'mil'
'migra'
'mien'
'micros'
'meurent_'
'metric'
'mess'
'merveilleux_'
'merge'
'mercredi_'
'mental'
'mend'
'medieval_'
'maternal_'
'massive'
'masc'
'marins_'
'marb'
'map'
'manufacture'
'manipulation_'
'manipul'
'managerial_'
'maltrait'
'mali'
'maker_'
'maigre'
'magnifiques_'
'magi'
'mage'
'macro'
'légitimes_'
'luxurious_'
'lusi'
'lung'
'lude'
'lst'
'lph'
'loving_'
'loves_'
'lourd'
'lop'
'locat'
'loc'
'loa'
'llo_'
'livr'
'list'
'lior'
'ling'
'limiting_'
'limite'
'lig'
'liers_'
'lied_'
'licensed_'
'licencie'
'liberalis'
'lesbi'
'legali'
'layer_'
'lave'
'lav'
'lança'
'lancé'
'lacking_'
'labo'
'kw'
'ku_'
'kto'
'kon'
'ket_'
'justifié_'
'justifie_'
'juridiction_'
'juice_'
'jets_'
'jalo'
'issus_'
'islands_'
'islam_'
'ised_'
'irrigation_'
'irregular'
'irr'
'iraniens_'
'ique'
'investigating_'
'intérieurs_'
'intéressent_'
'intégr'
'intimid'
'intervenu'
'interromp'
'interrogé'
'interinstitution'
'intergouvernemental_'
'instrumental'
'institutionnelles_'
'institut'
'insti'
'instable_'
'insensi'
'inquiét'
'inondations_'
'inner_'
'init'
'ingredients_'
'inge'
'influencer_'
'infirmière'
'inevitably_'
'inefficienc'
'induced_'
'indirectement_'
'indigènes_'
'indict'
'indicative_'
'indicateur_'
'index'
'ind_'
'inclu'
'impérati'
'impro'
'impress'
'imposé_'
'impliquent_'
'implication_'
'imparti'
'impar'
'immunod'
'imagin'
'illustrate'
'ignore'
'ige_'
'ifi'
'iennes_'
'idéologique_'
'ideolog'
'identifia'
'ide'
'icon'
'iba'
'iations_'
'iati'
'hér'
'hâte_'
'hypothécaire'
'hypothè'
'humble'
'hosted_'
'host'
'horizontal_'
'horizon'
'honest'
'hommage_'
'hom'
'holy_'
'hockey_'
'hn_'
'hell'
'helicopter_'
'hearts_'
'health'
'hazardous_'
'hazard_'
'hast'
'harvest_'
'harsh_'
'harmony_'
'hari'
'harge'
'handicap'
'hal_'
'hack'
'habits_'
'habitats_'
'habitation'
'génom'
'gène_'
'gâche'
'gym_'
'guise_'
'guards_'
'grossesse_'
'gras_'
'grandeur_'
'gorge_'
'gold'
'god'
'glaci'
'glac'
'gl'
'giv'
'gi_'
'gett'
'get'
'gentille_'
'gaz'
'gathering_'
'gare'
'gardien'
'gardens_'
'garanti_'
'gamin'
'gameplay_'
'gall'
'gage_'
'fut'
'functionality_'
'fuckin_'
'frustrat'
'fraud'
'francophon'
'fran'
'fragil'
'fourniss'
'fossé_'
'fortable_'
'forecast_'
'fondation_'
'fondateurs_'
'fonctionnalité_'
'foll'
'folk'
'foi'
'focal_'
'float'
'fleur'
'flat'
'fixes_'
'fiscalité_'
'finis'
'filling_'
'fil'
'fig'
'fift'
'fiducie_'
'festival_'
'fermée'
'fere'
'fem'
'feasible_'
'favorise'
'fatigué'
'fast'
'fashion'
'famine_'
'fame'
'facturé'
'extrait'
'extract_'
'expérimental'
'expédition_'
'exposées_'
'exporters_'
'explaining_'
'expl'
'expir'
'expert'
'expecting_'
'exigent_'
'exemptions_'
'ewe'
'eté_'
'ett_'
'ession'
'essayez_'
'essaie'
'espagnole_'
'escalade_'
'esca'
'erons_'
'erni'
'erl'
'erg_'
'eras_'
'erais_'
'envol'
'envisagées_'
'envisagé_'
'enveloppe_'
'entrusted_'
'entrent_'
'entremise_'
'enterr'
'ententes_'
'entamer_'
'enseigne_'
'enregistrements_'
'enracin'
'enlevé_'
'engra'
'engagées_'
'enforc'
'endommagé'
'encountered_'
'encounter_'
'enci'
'emploie_'
'emotional_'
'emotion'
'emergencies_'
'embrace_'
'emball'
'elu'
'ella_'
'elite_'
'eligibility_'
'elier'
'elect_'
'eld'
'elaborate'
'eim'
'eight'
'ei_'
'egi'
'eed'
'edia'
'ec_'
'eat'
'easi'
'earnings_'
'eant_'
'développeurs_'
'détien'
'détente_'
'détect'
'désor'
'désastre_'
'dér'
'déposés_'
'dépo'
'déplo'
'dépistage_'
'dépendan'
'départements_'
'dénu'
'démontrer_'
'démocratisation_'
'démissionn'
'démarrage_'
'démarches_'
'définitif_'
'définie_'
'défie'
'décédé'
'décor'
'décol'
'déclenché'
'déclarée_'
'déca'
'début'
'débouché'
'dz'
'dup'
'dude_'
'ducti'
'dt_'
'dron'
'dress'
'dozens_'
'down'
'doué'
'douceur_'
'douanière'
'dotées_'
'dotée_'
'dos'
'donnerai_'
'donnera_'
'doll'
'dogm'
'divisé'
'distribués_'
'distributeur'
'disqu'
'disposant_'
'disparités_'
'disp'
'disi'
'disciples_'
'disagree_'
'direct'
'dine_'
'diffuser_'
'differently_'
'diens_'
'did'
'dictate'
'dict'
'diar'
'dia_'
'devrez_'
'devil_'
'deviendra_'
'devastating_'
'deputy_'
'dent'
'denounce'
'delta_'
'delayed_'
'degrés_'
'defe'
'deepen'
'deem'
'decoration'
'dec'
'dc'
'databases_'
'céréales_'
'célébrer_'
'cz'
'cyber_'
'cyber'
'curieu'
'cultivation_'
'cult'
'culpabilité_'
'cule_'
'ctor'
'cting_'
'créées_'
'créat'
'crypt'
'croître_'
'croya'
'croisé'
'cribe'
'creditor_'
'credit'
'cred'
'coûter'
'courent_'
'courageu'
'coura'
'countryside_'
'counsel'
'couloir_'
'corro'
'coro'
'cool'
'convert_'
'contributes_'
'contribu'
'contraven'
'contrainte_'
'contraignante'
'contracté'
'contingents_'
'contiennent_'
'contextuelle_'
'contemp'
'contaminé'
'contaminated_'
'containment_'
'constructed_'
'constitution'
'conserv'
'consacre_'
'cons_'
'connex'
'conneries_'
'conjointes_'
'confié'
'confirme_'
'confidential_'
'condu'
'condol'
'conclu'
'concernai'
'comprenez_'
'compounds_'
'comporter_'
'comportent_'
'complément'
'complain'
'compatibles_'
'compar'
'communiquées_'
'communion_'
'communica'
'commercialis'
'combining_'
'combines_'
'column_'
'colors_'
'colon'
'colline'
'collecting_'
'colle'
'collaborateurs_'
'coerci'
'cob'
'cloud'
'cliquez_'
'clic'
'clandestine_'
'clan'
'clam'
'cites_'
'cite'
'cis_'
'cio_'
'cio'
'cili'
'cil'
'ciblé'
'cia_'
'chr'
'chop'
'choosing_'
'choisi'
'chis'
'chiffre_'
'checking_'
'chauss'
'chau'
'challenged_'
'chaleureuse_'
'chai'
'cera'
'cellula'
'cats_'
'cati'
'cares_'
'cancellation_'
'campaign'
'cafés_'
'béni'
'buyer'
'buste'
'bust'
'bus'
'bury_'
'burning_'
'burned_'
'bulle'
'buck'
'browse'
'breeding_'
'boucl'
'boration_'
'bombs_'
'bob'
'boats_'
'bloquer_'
'bleu'
'bled_'
'blanchiment_'
'blanche_'
'bisc'
'biomé'
'bilatéral_'
'bienvenu'
'bienn'
'bert_'
'bell_'
'beh'
'beam'
'batte'
'bast'
'bao_'
'banned_'
'bancaires_'
'bagages_'
'aér'
'az_'
'aya'
'axé_'
'ax'
'aw_'
'avou'
'avoirs_'
'avocats_'
'avenue_'
'autrichien'
'autorisa'
'automne_'
'autoc'
'auti'
'augmentations_'
'audition_'
'audi'
'attracted_'
'attorney_'
'atteign'
'atif_'
'astronom'
'assault_'
'asp_'
'ascertain'
'articulat'
'arrivés_'
'arrives_'
'arranger_'
'arose_'
'armo'
'aqua'
'aptitude_'
'approximate_'
'appliqua'
'appelés_'
'apparue'
'apparente_'
'apparence_'
'apparatus_'
'apparaissent_'
'appar'
'api'
'aperçu_'
'ap_'
'antir'
'antimi'
'ante'
'annoying_'
'analyze'
'ampli'
'amma'
'amer'
'amené_'
'ambassade_'
'alphabétisation_'
'allou'
'allergi'
'allegedly_'
'allaient_'
'ality_'
'alit'
'alis'
'alimenté'
'airs'
'airline'
'ailles_'
'aidera_'
'agrég'
'agra'
'aftermath_'
'afghan_'
'affirme_'
'affiliée_'
'affection'
'ae_'
'adéquates_'
'advancing_'
'adressé_'
'admir'
'admet'
'adjust'
'ades_'
'add'
'adapti'
'acknowledges_'
'acheteur_'
'accuse'
'accumule'
'accru'
'accordées_'
'accordent_'
'accompagnés_'
'accompagnée_'
'acco'
'accessoires_'
'accelerati'
'absent'
'abouti_'
'abouti'
'abolish'
'abilité_'
'abandonné_'
'abandonne'
'] . . _'
'YH'
'XXI'
'XML_'
'Wr'
'Wonder'
'Wel'
'Want_'
'WH'
'WAS'
'Vu'
'Voyons_'
'Volunt'
'Voice'
'Vit'
'Vista_'
'Visit_'
'Virgini'
'Viol'
'Vingt_'
'Veg'
'Vas'
'Vall'
'VIS'
'VIII_'
'Uzbekistan_'
'Uncle_'
'Ultimate'
'Ug'
'URE'
'ULA'
'Typ'
'Twi'
'Tue'
'Trinit'
'Tradi'
'Tou'
'Torre'
'Things_'
'Terms_'
'Term_'
'Telephone_'
'Target'
'Tanzania_'
'Tajikistan_'
'TU'
'TM_'
'TM'
'TL'
'TES_'
'TEM'
'Sweet'
'Surviv'
'Subcommittee_'
'Stone_'
'Stick'
'Sr'
'Speciali'
'Spe'
'Spar'
'Soon_'
'Snow'
'Sme'
'Sir'
'Silver'
'Side'
'Short_'
'Shor'
'Shaw_'
'Shari'
'Seule'
'Seri'
'Send'
'Senator_'
'Sel'
'Sean_'
'Scot'
'Schw'
'Scar'
'Save_'
'Sava'
'Saskatoon_'
'Sainte_'
'Saharan_'
'SPE'
'SOU'
'SIT'
'SIS_'
'SER'
'SAT'
'SADC_'
'Résultats_'
'Réf'
'Rédu'
'Ry'
'Russ'
'Rub'
'Roche'
'Revised_'
'Resi'
'Reserv'
'Rent'
'Regions_'
'Regard'
'Refugee_'
'Receiv'
'Ready_'
'Raf'
'REC'
'RAL_'
'QUES_'
'QUE'
'Précéde'
'Prosecutor_'
'Promis'
'Projets_'
'Projects_'
'Progr'
'Produ'
'Procedures_'
'Pricing_'
'Price_'
'Prese'
'Practic'
'Position_'
'Pop_'
'Politic'
'Plu'
'Petr'
'Pea'
'Parfait_'
'Parallèlement_'
'PR_'
'PMA_'
'PAS_'
'Otto'
'Oslo_'
'Oscar_'
'Ort'
'Organ'
'Ord'
'Opéra'
'Ooh_'
'Oh'
'Observat'
'Oa'
'OGM_'
'North'
'Non'
'Noi'
'Nintendo_'
'Night'
'Nick'
'Nic'
'Nero_'
'Near'
'Naturellement_'
'National'
'Nass'
'NY'
'NGO_'
'NGL_'
'Mét'
'Mémo'
'MySQL_'
'Munich_'
'Moro'
'Morales_'
'Monténégro_'
'Mom'
'Mik'
'Michelle_'
'Mettez_'
'Mesures_'
'Mem'
'McL'
'Mayor_'
'Mauritius_'
'Mass_'
'Markets_'
'Marketing_'
'Mario_'
'Marin'
'Manufactur'
'Manhattan_'
'Mak'
'Majesty_'
'Mainten'
'MIT'
'MIL'
'Lum'
'Luci'
'Loi'
'Linda_'
'Lim'
'Light_'
'License'
'Libéria_'
'Libyan_'
'Liberal_'
'Lex'
'Level_'
'Leurs_'
'Less'
'Leo_'
'League_'
'Lat'
'Laeken_'
'Laden_'
'Lac_'
'LONDON_'
'LD'
'Kr'
'Kou'
'Know'
'Kim'
'Kerry_'
'Kennedy_'
'Kee'
'Kay'
'Kati'
'KD'
'Jul'
'Jonathan_'
'Johnny_'
'Johan'
'Joan_'
'Jacob'
'Israelis_'
'Ironing_'
'Institutes_'
'Individuals_'
'Indians_'
'Ima'
'Ice'
'IL_'
'IGC_'
'IES_'
'Hyper'
'Hugo_'
'How'
'Hope_'
'Hoo'
'Honourable_'
'Honey_'
'Hom'
'Hollywood_'
'Hein_'
'Hein'
'Haven_'
'Hans_'
'Hamb'
'Haa'
'Guy_'
'Gus'
'Gua'
'Grant_'
'Governance_'
'Goth'
'Gos'
'Gold_'
'Golan_'
'Garc'
'Gand'
'Gai'
'Gabriel_'
'Gabon_'
'GM_'
'GA_'
'GAT'
'Freedom_'
'Fraser_'
'Fortunately_'
'Forg'
'Forestry_'
'Font'
'Fire'
'Financement_'
'Fina'
'Fiji_'
'Fich'
'Feu'
'Ferr'
'Fact'
'FT_'
'FEM'
'Extr'
'Expos'
'Explorer_'
'Excise_'
'Exam'
'Events_'
'Eva'
'Eurostat_'
'Ern'
'Equi'
'Equal_'
'Envoy'
[...]
