'<pad>_'
'<EOS>_'
' ._'
' , _'
'the_'
'ya_'
'go_'
'le_'
'e_'
'a_'
'of_'
'ka_'
'and_'
'to_'
'mo_'
'ba_'
'tsa_'
'o_'
'di_'
'in_'
'wa_'
'for_'
'tse_'
'-_'
' ( _'
'ga_'
'is_'
'la_'
'sa_'
'se_'
'ke_'
' ) _'
'or_'
'gore_'
'kwa_'
'that_'
'be_'
'The_'
'on_'
'fa_'
'kgotsa_'
'you_'
' : _'
'will_'
'as_'
'are_'
'jwa_'
'tla_'
'with_'
'mme_'
'from_'
' :_'
'by_'
'at_'
' - _'
''_'
'your_'
'Go_'
're_'
'( _'
'dira_'
's_'
'an_'
'ne_'
'nna_'
'._'
'South_'
'not_'
'have_'
'NWU_'
'yo_'
'bo_'
'tax_'
'gago_'
'tshwanetse_'
' > > _'
'A_'
'this_'
'na_'
'must_'
'was_'
'has_'
'" _'
'kopo_'
'it_'
' / _'
'lekgetho_'
'if_'
' ?_'
'which_'
'can_'
'Aforikaborwa_'
'YBB_'
'Fa_'
'year_'
'jaaka_'
'SARS_'
'fela_'
'who_'
'Potchefstroom_'
' )_'
'tswa_'
'mongwe_'
'pele_'
'also_'
'their_'
'nngwe_'
'tiro_'
'African_'
' . _'
' ,_'
'Campus_'
' ) ._'
'leng_'
'Africa_'
'1_'
'all_'
'may_'
'bona_'
'batho_'
'rona_'
' ;_'
'ngwaga_'
' ; _'
'ntlha_'
'application_'
'our_'
'Prof_'
'nako_'
'any_'
'grant_'
'we_'
'other_'
'baithuti_'
'one_'
' " _'
'2_'
'bone_'
'teng_'
'more_'
'madi_'
'been_'
'morago_'
'Kopo_'
'If_'
'gape_'
'gagwe_'
'office_'
' ) , _'
'they_'
'than_'
'income_'
'time_'
'thata_'
'This_'
'child_'
'jalo_'
'when_'
'form_'
'In_'
'students_'
'We_'
'nang_'
'motho_'
'jo_'
'I_'
'provisional_'
'Ka_'
'University_'
' . "_'
'should_'
'person_'
'where_'
'latelang_'
'first_'
'work_'
' , " _'
'people_'
'payment_'
'Re_'
'Department_'
'3_'
' | _'
' ' _'
'SASSA_'
'ngwana_'
'botlhokwa_'
'ntle_'
'tuelo_'
'National_'
'mmogo_'
'members_'
'dirisa_'
'about_'
'Mo_'
'eno_'
'Ms_'
'metsi_'
'service_'
'maemo_'
'such_'
'his_'
'dingwe_'
'years_'
'new_'
'Act_'
'yone_'
'were_'
'puso_'
'following_'
'neng_'
'godimo_'
'research_'
'information_'
'O_'
'use_'
'its_'
'do_'
'000_'
'within_'
'badiri_'
'botlhe_'
'Lefapha_'
'he_'
'6_'
'made_'
'but_'
'Tax_'
'It_'
' -_'
'tsaya_'
'4_'
'well_'
'tshedimosetso_'
'feta_'
'Mafikeng_'
'Setheo_'
'bile_'
'tlase_'
'Mr_'
'Mop_'
'% _'
'karolo_'
'van_'
'government_'
'tsotlhe_'
'bokgoni_'
'water_'
'apply_'
'nne_'
'into_'
'state_'
'number_'
'ditiro_'
'country_'
'thebolelo_'
'process_'
'Development_'
'30_'
'two_'
'dingwaga_'
'Dr_'
'take_'
'farologaneng_'
'Ke_'
'Education_'
'three_'
'these_'
'only_'
'ID_'
'thusa_'
'lwa_'
'dilo_'
'amogela_'
'during_'
'date_'
'Molao_'
'Khamphaseng_'
'social_'
'after_'
'batla_'
'tshwanetseng_'
'tsela_'
'thuto_'
'mokgwa_'
'lotseno_'
'2010_'
'thulaganyo_'
'her_'
'Services_'
'order_'
'kgolo_'
'days_'
'b_'
'she_'
'5_'
'staff_'
'Council_'
'tlhoka_'
'lo_'
'between_'
'there_'
'patlisiso_'
'directive_'
'certificate_'
'10_'
'no_'
'national_'
'amount_'
'duela_'
'Thuto_'
'public_'
'bobedi_'
'letlha_'
'Khamphase_'
'bana_'
'setheo_'
'make_'
'complete_'
'Se_'
'them_'
'sentle_'
'kgona_'
'development_'
'School_'
'Home_'
'tirelo_'
'institution_'
'available_'
'akaretsa_'
'relevant_'
'education_'
'dirwa_'
'kgwebo_'
'each_'
'through_'
'period_'
'business_'
'boleng_'
'yona_'
'tsamaiso_'
'up_'
'services_'
'foromo_'
'eo_'
'Faculty_'
'Ditirelo_'
'tsone_'
'required_'
'place_'
'Institutional_'
'tharo_'
'registration_'
'Application_'
'would_'
'second_'
'jaana_'
'Social_'
'seng_'
'nakwana_'
'fetileng_'
'12_'
'so_'
'says_'
'molao_'
'member_'
'letsatsi_'
'system_'
'setlhopha_'
'ntse_'
'learning_'
'Yunibesiti_'
'Sciences_'
'Bosetšhaba_'
'terms_'
'community_'
'jaanong_'
'ditirelo_'
'Office_'
'report_'
'proof_'
'need_'
'months_'
'management_'
'2009_'
'seabe_'
'campus_'
'before_'
'. _'
'ensure_'
'dintlha_'
'being_'
'taelo_'
'pay_'
'naga_'
'kantorong_'
'netefatsa_'
'tswelela_'
'rileng_'
'bosetšhaba_'
'under_'
'project_'
'dirang_'
'Vaal_'
'tiriso_'
'setšhaba_'
'lefatshe_'
'how_'
'2011_'
'student_'
'lengwe_'
'ithuta_'
'dikgwedi_'
'Service_'
'what_'
'tirong_'
'support_'
'received_'
'interest_'
'gaufi_'
'assessment_'
'You_'
'Disaense_'
'out_'
'tlhoko_'
'programme_'
'permit_'
'paid_'
'maleba_'
'ile_'
'court_'
'bopaki_'
'13_'
'To_'
'E_'
'working_'
'ruta_'
'nearest_'
'life_'
'Ga_'
'Director_'
'7_'
'romela_'
'rata_'
'kgone_'
'including_'
'g_'
'bank_'
'approved_'
'18_'
'yotlhe_'
'used_'
'training_'
'right_'
'like_'
'Tlhabololo_'
'Sekolo_'
'President_'
'tloga_'
'puo_'
'important_'
'banka_'
'bangwe_'
'- _'
'part_'
'Eloff_'
'request_'
'mabaka_'
'lona_'
'branch_'
'Triangle_'
'Centre_'
'us_'
'per_'
'over_'
'day_'
'What_'
'Register_'
'learners_'
'Tirelo_'
'without_'
'letter_'
'health_'
'does_'
'Le_'
'own_'
'leina_'
'kwadisa_'
'due_'
'North_'
'He_'
'Gape_'
'Eish_'
' !_'
'return_'
'palo_'
'nageng_'
'motlhankedi_'
'gare_'
'fitlha_'
'Thebolelo_'
'Affairs_'
'team_'
'taxpayer_'
'provide_'
'mekgwa_'
'lobakanyana_'
'loago_'
'itse_'
'international_'
'get_'
'area_'
'West_'
'world_'
'very_'
'those_'
'full_'
'dirisiwa_'
'bogolo_'
'Tsa_'
'Moporof_'
'Loago_'
'tlhabololo_'
'projects_'
'payments_'
'me_'
'many_'
'local_'
'fitlhelela_'
'ene_'
'baagi_'
'Ngaka_'
'Molaotheo_'
'Mohumagatsana_'
'Management_'
'Constitution_'
'Company_'
'An_'
'sengwe_'
'semmuso_'
'pedi_'
'2008_'
'za_'
'set_'
'school_'
'help_'
'group_'
'contact_'
'8_'
'university_'
'ntsha_'
'issued_'
'gone_'
'diforomo_'
'How_'
'According_'
'﻿_'
'maloko_'
'land_'
'include_'
'care_'
'age_'
'address_'
'Legoro_'
'thuso_'
'section_'
'romelwa_'
'provincial_'
'property_'
'my_'
'language_'
'had_'
'bogole_'
'Mokaedi_'
'Moh_'
'IRP_'
'IRP6_'
'Bokone_'
'9_'
'tshwanela_'
'some_'
'organisations_'
'much_'
'lefelo_'
'last_'
'jang_'
'institutions_'
'based_'
'Research_'
'Bophirima_'
'Aforika_'
'tota_'
'register_'
'permanent_'
'most_'
'five_'
'eng_'
'document_'
'children_'
'Theuns_'
'Rre_'
'2012_'
'15_'
'setse_'
'selegae_'
'ngwageng_'
'means_'
'kwala_'
'forms_'
'both_'
'When_'
'These_'
'Ngk_'
'@_'
'website_'
'registered_'
'official_'
'newa_'
'medical_'
'maatla_'
'higher_'
'dipoelo_'
'already_'
'activities_'
'value_'
'returns_'
'police_'
'outstanding_'
'money_'
'legislation_'
'four_'
'access_'
'Technology_'
'Merero_'
'90_'
'writing_'
'submitted_'
'submit_'
'setheong_'
'provided_'
'programmes_'
'nakong_'
'know_'
'kgatlhanong_'
'documents_'
'could_'
'20_'
'simolola_'
'maikarabelo_'
'bofelo_'
'applicable_'
'always_'
'able_'
'Tshedimosetso_'
'tshireletso_'
'sekao_'
'power_'
'now_'
'magareng_'
'ikonomi_'
'good_'
'ditlhopha_'
'copy_'
'All_'
'way_'
'tlhalosa_'
'tikologo_'
'seno_'
'recently_'
'maemong_'
'kgotlatshekelo_'
'c_'
'boitekanelo_'
'amogelwa_'
' ! _'
'tswang_'
'teaching_'
'sector_'
'said_'
'needs_'
'motlakase_'
'law_'
'fetang_'
'ditheo_'
'dipuo_'
'against_'
'academic_'
'Tlatsa_'
'wena_'
'siameng_'
'quality_'
'possible_'
'parent_'
'lekwalo_'
'high_'
'free_'
'employer_'
'conditions_'
'appointed_'
'ICD_'
'tlhokomelo_'
'then_'
'specific_'
'naya_'
'left_'
'continue_'
'completed_'
'book_'
'Science_'
'Mor_'
'Language_'
'Baithuti_'
'2007_'
'11_'
'security_'
'receive_'
'less_'
'lenaneo_'
'kitso_'
'company_'
'There_'
'Executive_'
'skills_'
'previous_'
'persons_'
'officer_'
'name_'
'mangwe_'
'lefelong_'
'kopa_'
'kgethegileng_'
'give_'
'financial_'
'final_'
'ditlhokego_'
'dithulaganyo_'
'dire_'
'different_'
'beilweng_'
'among_'
'Lekwa_'
' ) ( _'
'tsena_'
'tokafatsa_'
'tirisong_'
'still_'
'setlamo_'
'nnang_'
'million_'
'mathata_'
'fixed_'
'end_'
'employees_'
'botshelo_'
'association_'
'Vice_'
'They_'
'Khutlotharo_'
'For_'
'setso_'
'sekolo_'
'maikaelelo_'
'kantoro_'
'identity_'
'future_'
'ditshenyegelo_'
'dithuto_'
'dirile_'
'best_'
'Your_'
'Submit_'
'Legae_'
'Khansele_'
'Chancellor_'
'21_'
'while_'
'various_'
'thataro_'
'setifikeiti_'
'sekaseka_'
'otlhe_'
'necessary_'
'nao_'
'motheo_'
'leruri_'
'done_'
'dipalo_'
'bontsi_'
'become_'
'She_'
'Setlhopha_'
'SA_'
'Higher_'
'Ba_'
'tlisa_'
'tlhokega_'
'study_'
'private_'
'moo_'
'liable_'
'lefatsheng_'
'i_'
'ditokololo_'
'details_'
'agreement_'
'Tona_'
'Return_'
'Poresidente_'
'Lekgetho_'
'14_'
'tshwanelo_'
'rights_'
'record_'
'past_'
'next_'
'moputso_'
'even_'
'boraro_'
'basic_'
'account_'
'R1_'
'Health_'
'Diforomo_'
'tlhomamisa_'
'tlhano_'
'tlatsa_'
'supa_'
'six_'
'old_'
'ntsi_'
'established_'
'environment_'
'bua_'
'better_'
'another_'
'ac_'
'Tshireletso_'
'Tsamaiso_'
'Assembly_'
'60_'
'women_'
'violence_'
'tsenya_'
'policy_'
'kamogelo_'
'gammogo_'
'decision_'
'complaint_'
'bophara_'
'Note_'
'Kokoano_'
'Karolo_'
'International_'
'Cape_'
'2013_'
'universities_'
'translation_'
'took_'
'tlhokegang_'
'tlhama_'
'statement_'
'role_'
'respect_'
'porofense_'
'poraefete_'
'others_'
'nomoro_'
'level_'
'lecturer_'
'leba_'
'laesense_'
'involved_'
'gae_'
'energy_'
'conference_'
'basadi_'
'Lefatshe_'
'Committee_'
'Batho_'
'As_'
'worker_'
'tseno_'
'tlamela_'
'term_'
'taolo_'
'taken_'
'sure_'
'political_'
'matlole_'
'licence_'
'just_'
'further_'
'du_'
'disability_'
'dintsi_'
'countries_'
'building_'
'bongwe_'
'bolela_'
'Public_'
'Motlatsa_'
'tshwanelwa_'
'tsenngwa_'
'since_'
'same_'
'regard_'
'oketsa_'
'nokeng_'
'moithuti_'
'media_'
'malebana_'
'individual_'
'home_'
'dituelo_'
'dingwageng_'
'dikgato_'
'Republic_'
'Registrar_'
'Motho_'
'Complete_'
'Afrikaans_'
' : " _'
' " ._'
'want_'
'sepe_'
'seo_'
'pension_'
'opportunity_'
'mosola_'
'moduelalekgetho_'
'mmalwa_'
'meeting_'
'general_'
'expertise_'
'dithoto_'
'diragatsa_'
'dinaga_'
'case_'
'Ikonomi_'
'16_'
'tshwara_'
'total_'
'together_'
'tlhatlhobo_'
'taxable_'
't_'
'status_'
'special_'
'signed_'
'sena_'
'result_'
'party_'
'motsadi_'
'maintenance_'
'live_'
'lekwaloitshupo_'
'kwadiso_'
'kabelo_'
'issue_'
'given_'
'dirisiwang_'
'death_'
'de_'
'co_'
'centre_'
'cannot_'
'campuses_'
'bonwa_'
'batlang_'
'advice_'
'Revenue_'
'Information_'
'However_'
'Ela_'
'During_'
'Badiri_'
'24_'
'www_'
'tlhokang_'
'semolao_'
'see_'
'peomolao_'
'non_'
'matter_'
'making_'
'leloko_'
'lekala_'
'laola_'
'katiso_'
'kakaretso_'
'ikwadisa_'
'dijo_'
'develop_'
'currently_'
'capacity_'
'basis_'
'back_'
'Minister_'
'Lekgotla_'
'Forms_'
'visit_'
'tshekatsheko_'
'tokololo_'
'tlang_'
'tlaleletso_'
'subject_'
'share_'
'porojeke_'
'off_'
'mothapi_'
'mofuta_'
'married_'
'malatsing_'
'knowledge_'
'kana_'
'improve_'
'event_'
'economic_'
'ditsela_'
'der_'
'botsamaisi_'
'botlalo_'
'bonako_'
'State_'
'Senthara_'
'Rector_'
'Human_'
'100_'
'tshwanang_'
'third_'
'standard_'
'society_'
'sepodisi_'
'resources_'
'remuneration_'
'once_'
'older_'
'mošwa_'
'month_'
'molemeng_'
'kgwedi_'
'follows_'
'focus_'
'extension_'
'experience_'
'executive_'
'duelwa_'
'control_'
'assist_'
'amanang_'
'again_'
'Security_'
'Parliament_'
'Africans_'
'wish_'
'why_'
'tshwetso_'
'tsepameng_'
'tlhoma_'
'tlhokomela_'
'tiragatso_'
'read_'
'promote_'
'particular_'
'ono_'
'mmuso_'
'malatsi_'
'kgakololo_'
'import_'
'human_'
'held_'
'former_'
'every_'
'dirisana_'
'dipotso_'
'citizen_'
'bontsha_'
'Ya_'
'Report_'
'Puso_'
'Mme_'
'Kwa_'
'Fund_'
'Chairperson_'
'Bill_'
'2004_'
'supply_'
'rotloetsa_'
'protection_'
'note_'
'lefapha_'
'kopano_'
'him_'
'few_'
'family_'
'employment_'
'employee_'
'diphetogo_'
'birth_'
'authority_'
'arrangements_'
'areas_'
'World_'
'New_'
'Make_'
'Komiti_'
'Jaaka_'
'Deputy_'
'2005_'
'yunibesiti_'
'tsweletsa_'
'tlile_'
'tlhagisa_'
'tlamelo_'
'sepolotiki_'
'receipt_'
'lebelela_'
'languages_'
'issues_'
'foster_'
'follow_'
'especially_'
'dinageng_'
'current_'
'award_'
'Commission_'
'Agency_'
'2014_'
'2006_'
'young_'
'tlhola_'
'senior_'
'segolo_'
'responsibility_'
'residents_'
'neelana_'
'motlhatlheledi_'
'makes_'
'lone_'
'karolong_'
'going_'
'field_'
'effect_'
'dumela_'
'domestic_'
'dikarolo_'
'd_'
'committee_'
'above_'
'Thekenoloji_'
'Sekolong_'
'Saense_'
'Palamente_'
'Morago_'
'Honourable_'
'Government_'
'At_'
'About_'
'/_'
'tlotlegang_'
'tletseng_'
'tirisanommogo_'
'rulaganya_'
'researchers_'
'requirements_'
'representative_'
'present_'
'poso_'
'plan_'
'online_'
'melao_'
'khamphase_'
'kgonang_'
'implementation_'
'functions_'
'ditšhelete_'
'diporojeke_'
'bolwetse_'
'because_'
'assets_'
'applied_'
'amogetswe_'
'aga_'
'Setšhaba_'
'Romela_'
'PAYE_'
'On_'
'Mopitlwe_'
'Institute_'
'His_'
'26_'
'1998_'
'workers_'
'variety_'
'unless_'
'tshegetsa_'
'towards_'
'sone_'
'shall_'
'several_'
'prescribed_'
'organisation_'
'moeteledipele_'
'moemedi_'
'metshameko_'
'mafoko_'
'lekaleng_'
'khopi_'
'job_'
'format_'
'foreign_'
'ditherisano_'
'disease_'
'did_'
'beneficiary_'
'according_'
'Water_'
'Tuelo_'
'September_'
'Porofense_'
'Police_'
'October_'
'Ngongorego_'
'Legal_'
'Johan_'
'English_'
'Economic_'
'Dipuo_'
'Botsamaisi_'
'28_'
'whether_'
'unit_'
'tsona_'
'tlotla_'
'studies_'
'single_'
'reading_'
'rate_'
'published_'
'percentage_'
'parties_'
'obtained_'
'neela_'
'molemo_'
'maano_'
'lotlhe_'
'long_'
'kitsiso_'
'katoloso_'
'kae_'
'itsise_'
'hours_'
'head_'
'hand_'
'framework_'
'fishing_'
'example_'
'ditshwanelo_'
'dikgang_'
'buka_'
'additional_'
'addition_'
'Ofisi_'
'Mekgatlho_'
'Business_'
'Association_'
'After_'
'tswelelang_'
'too_'
'tlhogo_'
'thoto_'
'things_'
'technology_'
'success_'
'sebaka_'
'related_'
'referred_'
'provides_'
'ofising_'
'matsatsing_'
'loso_'
'list_'
'lelapa_'
'kumo_'
'industry_'
'groups_'
'fee_'
'ema_'
'diyunibesiti_'
'direla_'
'dinomoro_'
'degree_'
'cost_'
'charge_'
'bong_'
'boikuelo_'
'body_'
'boditšhabatšhaba_'
'appeal_'
'across_'
'SATI_'
'Members_'
'Kgwebo_'
'General_'
'Dithuto_'
'Day_'
'Court_'
'Contact_'
'50_'
'25_'
'1962_'
'written_'
'vehicle_'
'tlhaloganyo_'
'tetla_'
'tekatekano_'
'safety_'
'resident_'
'ra_'
'pegelo_'
'ntseng_'
'mowa_'
'mokaedi_'
'material_'
'marriage_'
'mantsi_'
'leo_'
'leader_'
'known_'
'gongwe_'
'electronic_'
'don_'
'dirisang_'
'change_'
'badirammogo_'
'around_'
'applying_'
'annual_'
'administration_'
'Tiro_'
'Phukwi_'
'Ofising_'
'Manager_'
'HIV_'
'Dira_'
'B_'
'April_'
'Annette_'
'800_'
'whole_'
'weeks_'
'valid_'
'tshegetso_'
'tladiwang_'
'tiragalo_'
'times_'
'temothuo_'
'sireletsa_'
'self_'
'reviewed_'
'regarding_'
'reference_'
'personal_'
'opportunities_'
'maximum_'
'main_'
'mafelong_'
'mabapi_'
'levels_'
'least_'
'kitla_'
'gonne_'
'find_'
'emela_'
'ditlankana_'
'dirwang_'
'dikopo_'
'complainant_'
'capital_'
'boemong_'
'beke_'
'assistance_'
'akanya_'
'Student_'
'Please_'
'Our_'
'Ngwaga_'
'Nako_'
'March_'
'Khomišene_'
'Conference_'
'19_'
'workshop_'
'words_'
'whose_'
'webosaete_'
'vessel_'
'trade_'
'tlhopha_'
'tlhomiwa_'
'tle_'
'tekanyetso_'
'teacher_'
'simolotse_'
'seed_'
'schools_'
'recognition_'
'ratang_'
'qualify_'
'potential_'
'ntšhwa_'
'mong_'
'merero_'
'manane_'
'maitemogelo_'
'look_'
'line_'
'letsogo_'
'lenyalo_'
'legislature_'
'legal_'
'kgaisano_'
'key_'
'infrastructure_'
'individuals_'
'implement_'
'great_'
'gantsi_'
'fetola_'
'dithata_'
'determine_'
'department_'
'competition_'
'communities_'
'circumstances_'
'challenges_'
'challenge_'
'bring_'
'bašwa_'
'badirisi_'
'aterese_'
'Support_'
'Sepodisi_'
'One_'
'Moranang_'
'May_'
'Lenane_'
'Lefapheng_'
'June_'
'Cabinet_'
'400_'
'31_'
' . ( _'
'yang_'
'users_'
'until_'
'thoko_'
'tharabololo_'
'task_'
'setseng_'
'send_'
'responsible_'
'refugee_'
'recent_'
'purposes_'
'product_'
'processes_'
'phitlhelelo_'
'mosiamelwa_'
'melawana_'
'mananeo_'
'longer_'
'learner_'
'leadership_'
'kgontsha_'
'growth_'
'gale_'
'function_'
'earn_'
'ditokomane_'
'director_'
'diragetseng_'
'dikgwetlho_'
'critical_'
'crime_'
'create_'
'course_'
'comply_'
'colleagues_'
'career_'
'bonno_'
'boemo_'
'black_'
'behalf_'
'applicant_'
'action_'
'Translation_'
'Patlisiso_'
'My_'
'Metsi_'
'Law_'
'February_'
'D_'
'Communication_'
'Borwa_'
'August_'
'65_'
'500_'
'tumelelo_'
'tshwarwa_'
'tshono_'
'tsewa_'
'successful_'
'short_'
'serve_'
'science_'
'review_'
'provision_'
'procedures_'
'presented_'
'practice_'
'position_'
'physical_'
'oketsegileng_'
'ngongorego_'
'monate_'
'moagi_'
'matters_'
'mail_'
'mabedi_'
'letters_'
'khamphaseng_'
'informed_'
'fiwa_'
'effective_'
'diriwa_'
'dinako_'
'digit_'
'didirisiwa_'
'developed_'
'declared_'
'contribution_'
'category_'
'bošeng_'
'big_'
'becomes_'
'bantsi_'
'atlega_'
'abuse_'
'United_'
'USA_'
'Thulaganyo_'
'Selegae_'
'No_'
'Molaotlhomo_'
'Learning_'
'Khuduthamaga_'
'December_'
'Boditšhabatšhaba_'
'Administration_'
' & _'
'winner_'
'usually_'
'using_'
'tšhono_'
'tsamaisa_'
'tlhamalalo_'
'tlaa_'
'thekenoloji_'
'taking_'
'spouse_'
'setšhabeng_'
'sele_'
'rules_'
'purpose_'
'province_'
'professional_'
'problem_'
'primary_'
'planning_'
'ofe_'
'numbers_'
'ntshiwa_'
'nnile_'
'neelwa_'
'natla_'
'morokotso_'
'misconduct_'
'meet_'
'measures_'
'mang_'
'mafelo_'
'lenane_'
'keep_'
'kapa_'
'interpreting_'
'intended_'
'increase_'
'included_'
'http_'
'forward_'
'fact_'
'external_'
'examination_'
'doctor_'
'dipholo_'
'certified_'
'bofelong_'
'bar_'
'ao_'
'Yunibesiting_'
'R_'
'R10_'
'Puo_'
'Maemo_'
'Kgosi_'
'Johannesburg_'
'Foromo_'
'Dituelo_'
'Ditshwanelo_'
'Dingongorego_'
'Child_'
'BI_'
'Agriculture_'
'://_'
'23_'
'1995_'
'tsayang_'
'tlhophiwa_'
'tlhaloganya_'
'tikologong_'
'started_'
'risk_'
'require_'
'requests_'
'regional_'
'reasons_'
'questions_'
'progress_'
'problems_'
'play_'
'phesente_'
'performance_'
'panel_'
'paka_'
'org_'
'ona_'
'normal_'
'never_'
'mothapiwa_'
'metswedi_'
'maina_'
'maikutlo_'
'living_'
'lecturers_'
'leaders_'
'kgaolo_'
'kaya_'
'inform_'
'gaisang_'
'gaisa_'
'freedom_'
'fokotsa_'
'fitlhela_'
'elected_'
'either_'
'efe_'
'duelela_'
'dirileng_'
'dimilione_'
'design_'
'deferred_'
'deduction_'
'contract_'
'come_'
'caregiver_'
'articles_'
'amounts_'
'actual_'
'Provincial_'
'Programme_'
'PhD_'
'More_'
'Maloko_'
'Maikaelelo_'
'Lotseno_'
'Guidelines_'
'Combrink_'
'Award_'
'29_'
'27_'
'1994_'
' . )_'
'yourself_'
'tshenyo_'
'transformation_'
'tlhaloso_'
'themselves_'
'testing_'
'temokerasi_'
'subsection_'
'seatla_'
'rile_'
'residence_'
'radio_'
'protect_'
'notice_'
'nature_'
'motlhokomedi_'
'mogala_'
'methods_'
'mekgatlho_'
'mefuta_'
'matsatsi_'
'lodge_'
'lemoga_'
'leka_'
'lead_'
'labour_'
'kwadilweng_'
'kemo_'
'kagiso_'
'institutional_'
'here_'
'hard_'
'gatisa_'
'farm_'
'far_'
'extent_'
'ena_'
'duty_'
'division_'
'ditlhopho_'
'ditiragalo_'
'dirilweng_'
'dikgwebo_'
'dikabelo_'
'dife_'
'delegates_'
'correct_'
'committed_'
'code_'
'botlhale_'
'bothati_'
'bopa_'
'benefit_'
'baya_'
'bakhoutu_'
'amogetse_'
'achievement_'
'UIF_'
'Tlhalosa_'
'Seetebosigo_'
'Pretoria_'
'Pele_'
'Kruger_'
'Kgotlatshekelo_'
'Kapa_'
'High_'
'Directorate_'
'Dintlha_'
'Dan_'
'Boitekanelo_'
'%_'
' " , _'
'yoo_'
'worth_'
'tlwaelegileng_'
'therefore_'
'start_'
'saense_'
'production_'
'principles_'
'plant_'
'phemiti_'
'phase_'
'paper_'
'page_'
'outside_'
'motswedi_'
'motor_'
'motlotlo_'
'mogopolo_'
'mmino_'
'master_'
'lot_'
'legae_'
'lebaka_'
'lapse_'
'katlego_'
'ikwadisetsa_'
'ikuela_'
'ikgolaganye_'
'identified_'
'food_'
'extra_'
'existing_'
'estimated_'
'equipment_'
'enable_'
'employed_'
'diteng_'
'dirilwe_'
'diporofense_'
'diphologolo_'
'consists_'
'common_'
'com_'
'coded_'
'citizens_'
'botoka_'
'boloka_'
'bokhutlong_'
'benefits_'
'babedi_'
'babatlisisi_'
'attended_'
'approach_'
'appointment_'
'ano_'
'akaretsang_'
'affidavit_'
'Tlhakole_'
'Study_'
'Studies_'
'Steps_'
'Setswana_'
'Section_'
'Provinces_'
'Pay_'
'PBS_'
'Moreketoro_'
'Madi_'
'Letlole_'
'Jwa_'
'Herman_'
'Form_'
'FNB_'
'Community_'
'By_'
'Any_'
'AIDS_'
'ABSA_'
'200_'
'tshameka_'
'treatment_'
'transfer_'
'teachers_'
'sustainable_'
'strategic_'
'sona_'
'small_'
'significant_'
'sephiri_'
'separate_'
'santse_'
'processed_'
'practical_'
'plans_'
'pholisi_'
'penalties_'
'operation_'
'mokgatlho_'
'mogolo_'
'modiri_'
'mining_'
'maduo_'
'lekoko_'
'lekaneng_'
'large_'
'ise_'
'implemented_'
'housing_'
'hands_'
'force_'
'fenya_'
'faculty_'
'expected_'
'exercise_'
'epe_'
'ela_'
'educational_'
'economy_'
'doing_'
'dividends_'
'ditlhapi_'
'dipholisi_'
'diegisitsweng_'
'dibuka_'
'defined_'
'dates_'
'daily_'
'context_'
'content_'
'clearly_'
'changes_'
'certain_'
'brand_'
'boikarabelo_'
'bodirelo_'
'became_'
'applies_'
'applications_'
'am_'
'affairs_'
'act_'
'YA_'
'Where_'
'Trust_'
'Seno_'
'Rights_'
'Prinsloo_'
'Piet_'
'Palo_'
'Other_'
'Labour_'
'Khonferense_'
'January_'
'Individuals_'
'IT_'
'Free_'
'Forum_'
'Excellence_'
'Commissioner_'
'Boikuelo_'
'Akatemi_'
'Academic_'
' ) ,_'
'whom_'
'week_'
'web_'
'vice_'
'values_'
'tshweetso_'
'tsamaya_'
'tlhophilweng_'
'systems_'
'survey_'
'space_'
'saenilwe_'
'requires_'
'reports_'
'remains_'
'raya_'
'processing_'
'procedure_'
'paying_'
'payable_'
'pass_'
'outcomes_'
'neetsweng_'
'moša_'
'molato_'
'mengwe_'
'manner_'
'leave_'
'khampaseng_'
'karolwana_'
'kalafi_'
'justice_'
'ikgolaganya_'
'having_'
'godisa_'
'front_'
'fish_'
'fees_'
'etela_'
'etc_'
'election_'
'diureng_'
'ditlhogo_'
'diragala_'
'diphitlhelelo_'
'dipatlisiso_'
'dikgolo_'
'dijalo_'
'dibeke_'
'developing_'
'determined_'
'deposit_'
'data_'
'continuous_'
'conduct_'
'class_'
'call_'
'build_'
'boikwadiso_'
'becoming_'
'batsofe_'
'away_'
'allocated_'
'aimed_'
'aim_'
'agricultural_'
'administrative_'
'achieved_'
'Van_'
'Teaching_'
'Taolo_'
'Porojeke_'
'P_'
'July_'
'HEQC_'
'Financial_'
'Ferikgong_'
'Engineering_'
'Do_'
'Description_'
'CC_'
'Board_'
'Badirisi_'
'Apply_'
'Academy_'
'36_'
'1997_'
' . . ._'
'winners_'
'wepe_'
'victims_'
'tumalano_'
'tseo_'
'tsebeng_'
'thusang_'
'taxes_'
'structure_'
'standards_'
'stakeholders_'
'shared_'
'serious_'
'sekasekwa_'
'secretary_'
'resolution_'
'relating_'
'rebolwa_'
'prize_'
'poverty_'
'phaposing_'
'pakeng_'
'open_'
'ntlheng_'
'notified_'
'normally_'
'moswi_'
'molaong_'
'metlha_'
'mentioned_'
'maloba_'
'maiteko_'
'maintain_'
'letsholo_'
'leno_'
'kopiwa_'
'kgolwane_'
'katlholo_'
'jone_'
'intaseteri_'
'includes_'
'ileketeroniki_'
'found_'
'fedisa_'
'fax_'
'expand_'
'eletsa_'
'effectively_'
'duelwang_'
'ditshwantsho_'
'dilemo_'
'dikolo_'
'depending_'
'decide_'
'deceased_'
'custody_'
'communication_'
'close_'
'buisa_'
'bao_'
'baeteledipele_'
'baemedi_'
'aspects_'
'added_'
'achieve_'
'accepted_'
'Who_'
'VAT_'
'Union_'
'Training_'
'Tikologo_'
'TV_'
'SITE_'
'SAPS_'
'Relations_'
'R89_'
'Plessis_'
'PDF_'
'Ntlha_'
'November_'
'Mametlelelo_'
'Makgetho_'
'Kantoro_'
'Justice_'
'Foundation_'
'Cup_'
'Complaints_'
'80_'
'760_'
'58_'
'22_'
'2002_'
'valuable_'
'tsalo_'
'tladiwa_'
'tertiary_'
'technical_'
'takes_'
'strategy_'
'sports_'
'specified_'
'site_'
'sekegwa_'
'sectors_'
'retelelwa_'
'results_'
'rebola_'
'rarabolola_'
'question_'
'puiso_'
'preparation_'
'positive_'
'pego_'
'participate_'
'paragraph_'
'nwu_'
'ntšha_'
'nosi_'
'natural_'
'monongwaga_'
'mission_'
'missing_'
'merger_'
'megala_'
'masisi_'
'market_'
'managers_'
'manage_'
'mafaratlhatlha_'
'letseno_'
'learn_'
'later_'
'kgato_'
'kgaisanong_'
'kalogo_'
'kailweng_'
'immediately_'
'ikwadiso_'
'history_'
'functional_'
'friendly_'
'expenditure_'
'employers_'
'edition_'
'duedisetsa_'
'diversity_'
'ditšhono_'
'discharge_'
'dikhamphase_'
'diatla_'
'copies_'
'contributed_'
'chairperson_'
'busediwa_'
'bosupi_'
'bosenyi_'
'books_'
'boitseanape_'
'boikhutso_'
'believes_'
'balance_'
'awards_'
'atereseng_'
'approval_'
'animal_'
'amogetsweng_'
'amogele_'
'amang_'
'akhaontong_'
'aims_'
'absent_'
'Year_'
'Unit_'
'Unemployment_'
'Trade_'
'Susan_'
'Stellenbosch_'
'Setlamo_'
'Second_'
'R50_'
'R44_'
'Q_'
'Protection_'
'Peomolao_'
'Once_'
'Nedbank_'
'Motsheganong_'
'Merwe_'
'Marlene_'
'Kwadiso_'
'Jan_'
'India_'
'Income_'
'Eskom_'
'Energy_'
'Dikgato_'
'Dean_'
'Corporate_'
'2003_'
'0_'
'win_'
'view_'
'uses_'
'unsuccessful_'
'union_'
'understand_'
'top_'
'tlotlo_'
'tlhotlhwa_'
'tlhomilweng_'
'tlhole_'
'tlhagiso_'
'tlhagisitse_'
'tlhagelela_'
'tladitsweng_'
'symptoms_'
'supporting_'
'steps_'
'sport_'
'soon_'
'sign_'
'siame_'
'sešwa_'
'setefikeiti_'
'series_'
'selo_'
'road_'
'put_'
'proud_'
'presence_'
'point_'
'overall_'
'often_'
'obtain_'
'objectives_'
'news_'
'moseja_'
'moreketoro_'
'mean_'
'listed_'
'liquidation_'
'laolwa_'
'konteraka_'
'kgonega_'
'kgatiso_'
'kelo_'
'itumedisang_'
'instance_'
'increasing_'
'improvement_'
'impact_'
'ii_'
'gompieno_'
'goal_'
'global_'
'fill_'
'events_'
'estate_'
'emergency_'
'eleketeroniki_'
'ditsamaiso_'
'diragadiwa_'
'dikarolelo_'
'didiriswa_'
'declaration_'
'council_'
'contribute_'
'concerned_'
'bothata_'
'boswa_'
'blood_'
'billion_'
'bathapiwa_'
'audit_'
'arrangement_'
'announced_'
'akarediwa_'
'admitted_'
'activity_'
'accordance_'
'abroad_'
'With_'
'Thanolo_'
'Some_'
'Sedimonthole_'
'Rephaboliki_'
'Quality_'
'Province_'
'Phatwe_'
'POTCHEFSTROOM_'
'Netefatsa_'
'NRF_'
'Mokgatlho_'
'Modini_'
'Mmasepala_'
'Mandela_'
'Madirelo_'
'Lenaneo_'
'Kgwadi_'
'Is_'
'Group_'
'Gauteng_'
'GO_'
'Further_'
'Finance_'
'Ditiro_'
'Diphalane_'
'Chief_'
'CTexT_'
'Boleng_'
'Boemo_'
'880_'
'17_'
'youth_'
'write_'
'workplace_'
'willing_'
'webosaeteng_'
'vote_'
'utlwa_'
'type_'
'tshoganyetso_'
'tsenela_'
'translators_'
'today_'
'tlileng_'
'tlhotlha_'
'tirisodikgoka_'
'teko_'
'tebang_'
'teams_'
'sun_'
'suitable_'
'station_'
'seven_'
'sekai_'
'saying_'
'robedi_'
'representatives_'
'post_'
'popego_'
'policies_'
'please_'
'passed_'
'output_'
'outcome_'
'neilweng_'
'nama_'
'music_'
'mosadi_'
'moletlo_'
'milione_'
'met_'
'matshwao_'
'matsapa_'
'makoko_'
'magolo_'
'm_'
'limited_'
'lenaane_'
'lekana_'
'leano_'
'latelwa_'
'kotsi_'
'kopana_'
'kgopolo_'
'kannweng_'
'kang_'
'kago_'
'itumelela_'
'isa_'
'investment_'
'importance_'
'hope_'
'guide_'
'golagana_'
'gangwe_'
'forum_'
'fail_'
'faculties_'
'export_'
'encourage_'
'electricity_'
'duelwe_'
'diura_'
'ditshiamelo_'
'ditsala_'
'ditlhatlhobo_'
'ditlamo_'
'disagree_'
'direct_'
'dintšhwa_'
'difference_'
'didikerii_'
'computer_'
'commit_'
'called_'
'budget_'
'botsalo_'
'bontshang_'
'bokao_'
'bokae_'
'boitumelo_'
'below_'
'baša_'
'batsayakarolo_'
'batlisisa_'
'attention_'
'atlegile_'
'assignments_'
'ama_'
'akatemi_'
'actions_'
'WHO_'
'Speaker_'
'Since_'
'Request_'
'Registration_'
'Provisional_'
'Old_'
'Municipal_'
'Moporesitente_'
'Mekgwa_'
'Master_'
'Louis_'
'Katiso_'
'Kabinete_'
'Insurance_'
'Grobler_'
'Environmental_'
'Eno_'
'Educational_'
'Domestic_'
'Ditiragalo_'
'Bojanala_'
'Arts_'
'And_'
'504_'
'40_'
'34_'
'08h00_'
'% ._'
'waste_'
'visits_'
'understanding_'
'turn_'
'tumelano_'
'tshola_'
'tshimologo_'
'tseneletseng_'
'tlhopho_'
'tlhophilwe_'
'tlhomile_'
'tlhago_'
'think_'
'thekontle_'
'suspended_'
'subjects_'
'strong_'
'spread_'
'something_'
'similar_'
'show_'
'selekanyo_'
'sale_'
'reng_'
'remain_'
'reduced_'
'rebotsweng_'
'proper_'
'prevent_'
'powers_'
'postgraduate_'
'portfolio_'
'players_'
'periods_'
'operations_'
'operate_'
'offices_'
'offer_'
'nyetswe_'
'nyala_'
'nepagetseng_'
'namely_'
'monna_'
'mmala_'
'menwana_'
'meepo_'
'marital_'
'manager_'
'malwetse_'
'malapa_'
'makwalo_'
'major_'
'mafapha_'
'lokgetho_'
'khoutu_'
'kgolagano_'
'kgodiso_'
'kgale_'
'kampo_'
'kabo_'
'industrial_'
'indicated_'
'husband_'
'however_'
'greater_'
'grade_'
'fund_'
'fraud_'
'farming_'
'failure_'
'facilities_'
'ever_'
'enhance_'
'eight_'
'early_'
'ditheong_'
'distribution_'
'dispute_'
'directors_'
'dipuisano_'
'dikhamphaseng_'
'dikgopolo_'
'died_'
'detailed_'
'democratic_'
'democracy_'
'demand_'
'delivered_'
'degrees_'
'deal_'
'conducted_'
'concept_'
'commitment_'
'clear_'
'choose_'
'categories_'
'botho_'
'bonnye_'
'board_'
'blue_'
'batlhatlheledi_'
'bathong_'
'bathapi_'
'baakanya_'
'awarded_'
'authorities_'
'authorised_'
'assignment_'
'araba_'
'akhaonto_'
'affected_'
'accredited_'
'abiwa_'
'Yuniti_'
'Tumelelo_'
'Tse_'
'Students_'
'Staff_'
'Spain_'
'Southern_'
'Residence_'
'Porofesa_'
'Pegelo_'
'Molotlegi_'
'Molaodi_'
'Mokwadisi_'
'Metshameko_'
'Marketing_'
'Lwetse_'
'Languages_'
'John_'
'Folio_'
'China_'
'Central_'
'Building_'
'Basadi_'
'Bank_'
'Authority_'
'Aterese_'
'Amanda_'
'Although_'
'59_'
'1993_'
'15h30_'
' . ._'
'yuniti_'
'tshwanelang_'
'tseleng_'
'ts_'
'topic_'
'tlwaelo_'
'tlhokomelong_'
'tlhatlhoba_'
'tlhabolola_'
'thereof_'
'thebolo_'
'thank_'
'strap_'
'spirit_'
'soil_'
'setshwantsho_'
'segolobogolo_'
'sediriswa_'
'samagana_'
'requested_'
'represented_'
'released_'
'rector_'
'really_'
'race_'
'provisions_'
'providing_'
'positions_'
'placed_'
'phoso_'
'pholo_'
'phetisetso_'
'particulars_'
'participation_'
'participants_'
'parents_'
'palogare_'
'pabalelo_'
'p_'
'nyetse_'
'noted_'
'ngaka_'
'mothamo_'
'mongongoregi_'
'mojeng_'
'module_'
'modirediloago_'
'modirakopo_'
'mmueledi_'
'mmele_'
'minor_'
'merafeng_'
'mental_'
'men_'
'matsalo_'
'matlho_'
'matlhano_'
'mareo_'
'maitseo_'
'maikemisetso_'
'maikano_'
'lives_'
'library_'
'lenaneong_'
'launched_'
'latela_'
'laolang_'
'kwantle_'
'khansele_'
'kgololosego_'
'kemedi_'
'kelotlhoko_'
'joint_'
'jobs_'
'ja_'
'itself_'
'intervention_'
'internal_'
'integrated_'
'indicate_'
'improved_'
'ileng_'
'ikaelela_'
'huge_'
'handling_'
'growing_'
'gontsi_'
'funds_'
'formal_'
'fit_'
'fight_'
'eye_'
'experts_'
'excluding_'
'examples_'
'establish_'
'equal_'
'envisaged_'
'entered_'
'enough_'
'ending_'
'empowerment_'
'eg_'
'ditumalano_'
'direkoto_'
'diragetse_'
'diporofenseng_'
'dikerii_'
'dikarabo_'
'dean_'
'damage_'
'contracts_'
'committees_'
'commercial_'
'combined_'
'claim_'
'cause_'
'carry_'
'box_'
'botsofe_'
'bongaka_'
'boineelo_'
'boeteledipele_'
'bidiwang_'
'bewa_'
'bega_'
'batshameki_'
'bala_'
'baka_'
'appropriate_'
'amegang_'
'along_'
'akgola_'
'air_'
'advance_'
'adopted_'
'academics_'
'abelwa_'
'Women_'
'Tsweetswee_'
'Town_'
'Thuso_'
'Soccer_'
'Should_'
'R752_'
'Puk_'
'Poelo_'
'Physical_'
'Motlhankedi_'
'MBA_'
'Lourens_'
'Limpopo_'
'Letsatsi_'
'Lekwaloitshupo_'
'Legorong_'
'Khanseleng_'
'Khampase_'
'Kgotsa_'
'Jacobs_'
'Jaanong_'
'Etela_'
'Disability_'
'Diporofense_'
'Dikhopi_'
'Coetzee_'
'Call_'
'Botlhe_'
'Both_'
'Bokgoni_'
'Awards_'
'Assessment_'
'1947_'
'150_'
'018_'
' >> _'
' : ( _'
'works_'
'won_'
'wife_'
'via_'
'tswelelopele_'
'tshwerwe_'
'trust_'
'toropo_'
'tlhalosang_'
'tlhaeletsano_'
'thutong_'
'thinking_'
'thapo_'
'target_'
'suspension_'
'supilweng_'
'sufficient_'
'stop_'
'stay_'
'siamang_'
'sekolong_'
'relations_'
'region_'
'records_'
'recognised_'
'receiving_'
'rates_'
'president_'
'practices_'
'perform_'
'pelo_'
'particularly_'
'participated_'
'otherwise_'
'ope_'
'ofisi_'
'offered_'
'offence_'
'objective_'
'nyalwa_'
'nuclear_'
'ntlhana_'
'nominated_'
'nominate_'
'needed_'
'morutabana_'
'molekane_'
'mokwalo_'
'moepo_'
'mistake_'
'metsotso_'
'mark_'
'majority_'
'maikatlapelo_'
'loss_'
'letlole_'
'lesson_'
'lekanya_'
'leboga_'
'lebeletswe_'
'latest_'
'khonferense_'
'kgatelelo_'
'kamano_'
'itsegeng_'
'inthaneteng_'
'inthanete_'
'internet_'
'interests_'
'interesting_'
'implementing_'
'ikaegile_'
'household_'
'holidays_'
'happened_'
'fitlhelwang_'
'file_'
'fetolwa_'
'female_'
'feletseng_'
'fana_'
'facilitate_'
'excellence_'
'everybody_'
'establishment_'
'efforts_'
'duties_'
'duelang_'
'ditirong_'
'distance_'
'directly_'
'diragalang_'
'dikhopi_'
'dikarata_'
'dikamano_'
'dikai_'
'diaparo_'
'departments_'
'cooperation_'
'comprehensive_'
'completion_'
'ceremony_'
'cases_'
'cared_'
'campaign_'
'botlhole_'
'bonwe_'
'bonwang_'
'bontle_'
'bommasepala_'
'boikaelelo_'
'atolosa_'
'assault_'
'asked_'
'ask_'
'approximately_'
'anama_'
'amongst_'
'amaganang_'
'alumni_'
'afidafiti_'
'active_'
'Western_'
'Web_'
'Two_'
'Tourism_'
'Tiriso_'
'Temothuo_'
'Sport_'
'Society_'
'Semolao_'
'Remember_'
'Read_'
'Phase_'
'Nuclear_'
'Natal_'
'Mokhuduthamaga_'
'Modulasetulo_'
'Leadership_'
'LRAD_'
'Innovation_'
'Industry_'
'Have_'
'HESA_'
'Grade_'
'Godimo_'
'Germany_'
'GCIS_'
'From_'
'FIFA_'
'European_'
'Ditheo_'
'Dikgwa_'
'Convocation_'
'Capital_'
'But_'
'Bouwman_'
'Boikaelelo_'
'Applications_'
'68_'
'yet_'
'workshops_'
'wide_'
'visited_'
'user_'
'units_'
'tshupetso_'
'tshireletsego_'
'tshela_'
'tsere_'
'try_'
'trained_'
'toloka_'
'tlhomela_'
'tlhokomelwe_'
'tlhokafetse_'
'tlhatlhobiwa_'
'tlhabololwa_'
'thus_'
'thari_'
'thanolo_'
'test_'
'temo_'
'taxpayers_'
'subtraction_'
'submission_'
'structures_'
'stolen_'
'stability_'
'speak_'
'source_'
'someone_'
'situated_'
'served_'
'sent_'
'sefe_'
'sections_'
'scheme_'
'salatseng_'
'saena_'
'ruri_'
'running_'
'rulagantsweng_'
'retirement_'
'researcher_'
'reform_'
'receives_'
'rebolelwa_'
'realise_'
'qualified_'
'provinces_'
'proposed_'
'produce_'
'porojekeng_'
'porofenseng_'
'peace_'
'passport_'
'pages_'
'pabalesego_'
'original_'
'oo_'
'nomoreng_'
'nnete_'
'neetswe_'
'nation_'
'molomo_'
'mogote_'
'modulasetulo_'
'moduedi_'
'mmeleng_'
'minimum_'
'merafe_'
'mekgele_'
'matshelo_'
'mararo_'
'maitsholo_'
'mabakeng_'
'love_'
'lodged_'
'light_'
'lekanyeditsweng_'
'lefapheng_'
'lebogela_'
'late_'
'kotsing_'
'kotlo_'
'konokono_'
'khuduthamaga_'
'kgweetsa_'
'kgoneng_'
'kgaolong_'
'kgang_'
'keteka_'
'kept_'
'katisa_'
'kafa_'
'kaelo_'
'investigation_'
'internationally_'
'innovation_'
'injury_'
'increased_'
'identify_'
'host_'
'honour_'
'hold_'
'guidelines_'
'grants_'
'gov_'
'gotlhe_'
'gope_'
'gatelela_'
'gareng_'
'friends_'
'fourth_'
'fingerprints_'
'feel_'
'feedback_'
'fano_'
'factors_'
'facility_'
'face_'
'extended_'
'expired_'
'experienced_'
'exceeds_'
'everyone_'
'evaluation_'
'environmental_'
'entitled_'
'enjoy_'
'engineering_'
'duelelwe_'
'down_'
'doctoral_'
'ditaelo_'
'district_'
'discrimination_'
'dirori_'
'dirisitsweng_'
'dingongorego_'
'dikumo_'
'dikago_'
'difficult_'
'diathikele_'
'diaterese_'
'designated_'
'cut_'
'continues_'
'constitutional_'
'consent_'
'competent_'
'civil_'
'city_'
'citizenship_'
'chemical_'
'central_'
'cards_'
'came_'
'bolelela_'
'boitshupo_'
'barutwana_'
'balemirui_'
'balekane_'
'bakaedi_'
'baakanyetsa_'
'baaging_'
'aware_'
'average_'
'attend_'
'assessed_'
'anyone_'
'admission_'
'acknowledge_'
'Wyk_'
'Verhoef_'
'Tlhopha_'
'Tlhokomelo_'
'Themba_'
'Swanepoel_'
'Strydom_'
'Seesemane_'
'Schedule_'
'Schalkwyk_'
'R20_'
'Policy_'
'Peter_'
'OF_'
'Natural_'
'Nations_'
'Nation_'
'Most_'
'Mmusakgotla_'
'Mananeo_'
'Local_'
'Let_'
'Lefelo_'
'Kuali_'
'Kgato_'
'Kgaisano_'
'Kereiti_'
'Jaco_'
'Individual_'
'Independent_'
'Fourie_'
'Engelbrecht_'
'Dithulaganyo_'
'Dealing_'
'De_'
'DHA_'
'Cost_'
'Constitutional_'
'Class_'
'Christmas_'
'Care_'
'C_'
'Bontsi_'
'Bona_'
'Bana_'
'Animal_'
'André_'
'Afrikaanse_'
'299_'
'1996_'
'140_'
'&_'
' , ( _'
'vision_'
'victim_'
'unions_'
'undergo_'
'unable_'
'tumalanong_'
'tseye_'
'traditional_'
'topics_'
'tools_'
'tlhwatlhwa_'
'tlhongwa_'
'tlhomamiso_'
'tlhapi_'
'throughout_'
'thomelo_'
'theilweng_'
'thapiwa_'
'tests_'
'temporary_'
'tell_'
'tala_'
'table_'
'statements_'
'specifically_'
'simololang_'
'setlhopheng_'
'sessions_'
'session_'
'sense_'
'sejalo_'
'scientific_'
'scale_'
'say_'
'safe_'
'rural_'
'rulaganyetsa_'
'romele_'
'rola_'
'respectively_'
'rental_'
'remember_'
'religion_'
'rekoto_'
'recommendations_'
'reasonable_'
'ranola_'
'produced_'
'pressure_'
'prepared_'
'possession_'
'popular_'
'polokesego_'
'plants_'
'pilot_'
'picture_'
'phokoletso_'
'phetogo_'
'phenšene_'
'phaseporoto_'
'personnel_'
'pattern_'
'partners_'
'owned_'
'organised_'
'orders_'
'ongoing_'
'offers_'
'nonofo_'
'nnye_'
'newang_'
'nationally_'
'municipal_'
'morafe_'
'molelo_'
'mmu_'
'mmoelwa_'
'minutes_'
'mile_'
'might_'
'measurement_'
'meaning_'
'mahala_'
'mafapheng_'
'lower_'
'lobaka_'
'liability_'
'lesome_'
'lephata_'
'lejwa_'
'laws_'
'kopanong_'
'kopane_'
'komiti_'
'kokoano_'
'khoso_'
'kgethisiwang_'
'kgakala_'
'karolwaneng_'
'jj_'
'itsisiwe_'
'item_'
'iseng_'
'irrigation_'
'investigate_'
'interface_'
'interested_'
'initiative_'
'influence_'
'incidents_'
'improving_'
'ideas_'
'house_'
'holder_'
'halofo_'
'half_'
'ground_'
'goreng_'
'goods_'
'focuses_'
'fields_'
'feteletseng_'
'favourite_'
'farologana_'
'fair_'
'experiences_'
'ensuring_'
'embassy_'
'elwa_'
'elections_'
'effort_'
'efficient_'
'discuss_'
'discharged_'
'diranta_'
'dipaka_'
'dikotlo_'
'dikgatiso_'
'dikantorong_'
'dikaelo_'
'die_'
'decided_'
'customary_'
'cultural_'
'criteria_'
'criminal_'
'credit_'
'created_'
'corporate_'
'core_'
'contributions_'
'constitution_'
'consecutive_'
'concluded_'
'compliance_'
'collect_'
'chancellor_'
'cash_'
'candidate_'
'calculation_'
'busy_'
'bursary_'
'buang_'
'bowena_'
'born_'
'bonang_'
'boima_'
'barutabana_'
'bararo_'
'bannaleseabe_'
'baithuting_'
'attempt_'
'assistant_'
'assess_'
'animals_'
'analysis_'
'allows_'
'agreed_'
'agenda_'
'afe_'
'adoption_'
'acting_'
'accounts_'
'ability_'
'abetsweng_'
'Youth_'
'Visser_'
'Tshekatsheko_'
'Tsela_'
'Tlhaloso_'
'Tlhaeletsano_'
'Thutogodimo_'
'Theron_'
'Submission_'
'Sports_'
'Special_'
'Sign_'
'Setefikeiti_'
'SIFE_'
'Ruta_'
'Reading_'
'Pretorius_'
'Premier_'
'Photo_'
'Mokwadise_'
'Mokgwa_'
'Lekwalo_'
'Klerk_'
'King_'
'Kakaretso_'
'Kagiso_'
'Kabelo_'
'K_'
'Ithuta_'
'Isa_'
'II_'
'Francois_'
'F1_'
'Eastern_'
'Ditšhelete_'
'Diphetogo_'
'Dilo_'
'Dijo_'
'Design_'
'Corporation_'
'Consult_'
'Compatriots_'
'Bosiamisi_'
'Barutabana_'
'Bafokeng_'
'Another_'
'Amerika_'
'Aid_'
'Agricultural_'
'75_'
'70_'
'48_'
'457_'
'33_'
'300_'
'2000_'
'worked_'
'ways_'
'votes_'
'views_'
'unique_'
'uk_'
'tsweletseng_'
'tsholofelo_'
'tsapa_'
'travel_'
'transport_'
'tlogela_'
'tlisiwang_'
'tlisiwa_'
'tlhotlheletsa_'
'tlhamiwa_'
'tlhabolotsweng_'
'tlhabana_'
'tlamelang_'
'title_'
'tirisano_'
'thapa_'
'tekanyo_'
'teach_'
'taolong_'
'taalsentrum_'
'swetsa_'
'successfully_'
'submitting_'
'statistics_'
'states_'
'stage_'
'sought_'
'soccer_'
'setlhogo_'
'setlankana_'
'senang_'
'select_'
'scarce_'
'saletseng_'
'retelelwe_'
'rest_'
'represent_'
'renewal_'
'regarded_'
'rebate_'
'real_'
'reached_'
'reach_'
'rather_'
'range_'
'products_'
'previously_'
'presentation_'
'popo_'
'plus_'
'pharologano_'
'passion_'
'ownership_'
'occupational_'
'objects_'
'nnileng_'
'nneng_'
'network_'
'negotiations_'
'multilingualism_'
'motšhini_'
'monthly_'
'moletlong_'
'mokopi_'
'mofatlhosi_'
'modini_'
'models_'
'membership_'
'matlolo_'
'marked_'
'mandate_'
'lwantsha_'
'losika_'
'looking_'
'liabilities_'
'letshwao_'
'letla_'
'lessons_'
'lekanang_'
'lefoko_'
'lecture_'
'launch_'
'kopong_'
'kolofo_'
'khupamarama_'
'khiro_'
'kgwele_'
'kgoboko_'
'kgobalo_'
'kgatlhego_'
'joo_'
'joined_'
'join_'
'items_'
'isagweng_'
'interview_'
'independent_'
'hosted_'
'hospital_'
'highly_'
'highest_'
'helped_'
'grow_'
'goroga_'
'gola_'
'goga_'
'gatisiwa_'
'ganwa_'
'foromong_'
'focused_'
'fire_'
'fatlhosa_'
'falola_'
'explain_'
'excellent_'
'everything_'
'etetse_'
'enter_'
'empower_'
'emetse_'
'emeile_'
'electronically_'
'dumalana_'
'drive_'
'ditshwaelo_'
'displayed_'
'disabilities_'
'dirutwa_'
'dirise_'
'direng_'
'diporokerama_'
'dipolotiki_'
'diphenšene_'
'dipatente_'
'dikonteraka_'
'dikolong_'
'dibasari_'
'developmental_'
'described_'
'dependency_'
'dedication_'
'decisions_'
'culture_'
'corruption_'
'conflict_'
'confirmed_'
'composition_'
'complaints_'
'clinic_'
'climate_'
'choir_'
'car_'
'buisana_'
'botshabelo_'
'botsalano_'
'bokete_'
'boitshwaro_'
'bogareng_'
'bitsa_'
'biological_'
'behind_'
'beginning_'
'bano_'
'bannye_'
'bafenyi_'
'attending_'
'article_'
'annuity_'
'allocation_'
'agreements_'
'agree_'
'agency_'
'adhere_'
'acknowledgement_'
'abelana_'
'\u_'
'Zuma_'
'Yuropa_'
'Wilma_'
'Venter_'
'Unisa_'
'UN_'
'Toit_'
'Tlotlegang_'
'Tlhoka_'
'Tlhogo_'
'Tlhatlhobo_'
'Timeframe_'
'That_'
'System_'
'Steyn_'
'Sejana_'
'SASS_'
'Prize_'
'Plan_'
'Pieter_'
'Phumzile_'
'PUK_'
'PSC_'
'PHOTO_'
'Niekerk_'
'Ngwana_'
'Nelson_'
'Neeletsanyo_'
'NSFAS_'
'Mpumalanga_'
'Motlatsamokhanseliri_'
'Mophato_'
'Mokhanseliri_'
'Moithuti_'
'Maitseo_'
'Letseno_'
'Leina_'
'Land_'
'Kobus_'
'Jacob_'
'Inšorense_'
'Here_'
'Grain_'
'Gore_'
'Foreisetata_'
'Focus_'
'FIT_'
'Erasmus_'
'Employee_'
'Elvis_'
'Ditlolomolao_'
'Dikopo_'
'Dikamano_'
'Christian_'
'Certificate_'
'CHE_'
'Botha_'
'Bosaense_'
'Are_'
'Among_'
'Also_'
'AND_'
'ANC_'
'600_'
' ..._'
' ! "_'
'worldwide_'
'word_'
'white_'
'went_'
'welcome_'
'wall_'
'umakiwang_'
'tsweletse_'
'tsietso_'
'tshwere_'
'tshwana_'
'tshelang_'
'tsewang_'
'tsentswe_'
'tsenang_'
'tsamaisong_'
'tsamaisana_'
'train_'
'tlholego_'
'tlhokafala_'
'tlhaola_'
'tlhagisiwang_'
'tlhaga_'
'tlabo_'
'thibela_'
'thaya_'
'tesetamente_'
'terminology_'
'supplied_'
'summons_'
'substance_'
'strategies_'
'story_'
'store_'
'software_'
'situation_'
'simololwa_'
'shows_'
'setting_'
'setegeniki_'
'serutwa_'
'seporofešenale_'
'separately_'
'sejanaga_'
'sebele_'
'sebakeng_'
'seats_'
'search_'
'scope_'
'schedule_'
'saletse_'
'rooms_'
'rometsweng_'
'residential_'
'representation_'
'reporting_'
'reported_'
'release_'
'rekisa_'
'regular_'
'registering_'
'refer_'
'rating_'
'rasiti_'
'publication_'
'promotion_'
'profit_'
'producer_'
'principal_'
'pp_'
'population_'
'pono_'
'pleased_'
'phone_'
'phisego_'
'performing_'
'payer_'
'patlisisong_'
'palogotlhe_'
'option_'
'officers_'
'nothing_'
'net_'
'muscle_'
'motseletseleng_'
'moruti_'
'mono_'
'moikarabedi_'
'model_'
'mmetshe_'
'misrepresent_'
'minister_'
'metšhini_'
'mesola_'
'melemo_'
'melelwane_'
'melato_'
'megopolo_'
'meetings_'
'measuring_'
'matswela_'
'matlakala_'
'mapodisi_'
'manual_'
'managed_'
'male_'
'makae_'
'maize_'
'maitlhomo_'
'magatwe_'
'madirelo_'
'machinery_'
'machine_'
'linguistic_'
'lemogile_'
'lebala_'
'lease_'
'leading_'
'lawful_'
'laboratory_'
'kwadisiwa_'
'kutlwano_'
'kopaneng_'
'knows_'
'km_'
'khutshwane_'
'kgotlhang_'
'kgatlhang_'
'kete_'
'kemonokeng_'
'kanego_'
'kaela_'
'judges_'
'itsiwe_'
'itseng_'
'ithutela_'
'isagwe_'
'involves_'
'involvement_'
'introduced_'
'interventions_'
'interpreters_'
'inspector_'
'innovative_'
'initiatives_'
'indigenous_'
'iii_'
'heart_'
'green_'
'granted_'
'gololwang_'
'gololwa_'
'goes_'
'giving_'
'gives_'
'gave_'
'gauta_'
'gatisitsweng_'
'gala_'
'fully_'
'frame_'
'foundation_'
'foromokopo_'
'foo_'
'fokoditsweng_'
'firm_'
'fetsa_'
'fetoga_'
'fetisiwa_'
'facilitation_'
'expansion_'
'exempt_'
'exchange_'
'except_'
'essential_'
'equally_'
'equality_'
'engagement_'
'ends_'
'encouraged_'
'enables_'
'duration_'
'duele_'
'dream_'
'documentation_'
'ditso_'
'disele_'
'directed_'
'dinnye_'
'dinao_'
'dikopano_'
'dikirii_'
'dikao_'
'developments_'
'designed_'
'description_'
'defence_'
'dealt_'
'creative_'
'courts_'
'counter_'
'cough_'
'costs_'
'considered_'
'consider_'
'connection_'
'confirming_'
'concrete_'
'commission_'
'comes_'
'classroom_'
'choice_'
'chief_'
'built_'
'bouta_'
'botshelong_'
'botlhoko_'
'bokana_'
'boditšhaba_'
'biggest_'
'behaviour_'
'batsadi_'
'baranodi_'
'bantsho_'
'banna_'
'balaodi_'
'badiredi_'
'attach_'
'apartheid_'
'answer_'
'amendment_'
'allowed_'
'advise_'
'add_'
'achievements_'
'abetswe_'
'\u _'
'While_'
'Violence_'
'Tshegetso_'
'Theology_'
'Teacher_'
'Such_'
'Sitemap_'
'Setso_'
'Senate_'
'Sekao_'
'SADC_'
'Roux_'
'Rooy_'
'Risk_'
'Rekoto_'
'Rapport_'
'R5_'
'R2_'
'Professional_'
'Preez_'
'Pienaar_'
'Pholo_'
'Phitlhelelo_'
'PU_'
'Over_'
'Only_'
'Naga_'
'Mutual_'
'Mrs_'
'Monongwaga_'
'Mongwe_'
'Mondays_'
'Moatlhodimogolo_'
'Mmueledi_'
'Mmope_'
'Mmino_'
'Meyer_'
'Mellet_'
'Matlole_'
'Matlobonno_'
'Marelize_'
'Maatla_'
'MPS_'
'Leruo_'
'Lenaane_'
'Labotlhano_'
'LE_'
'KwaZulu_'
'Kopa_'
'Kgolwane_'
'Kgolo_'
'Kgakololo_'
'Kemonokeng_'
'Karolothuto_'
'Interpreting_'
'Industrial_'
'Ikgolaganye_'
'Head_'
'HR_'
'Growth_'
'Fridays_'
'Frans_'
'Framework_'
'Foster_'
'Fela_'
'Explain_'
'Every_'
'Establish_'
'Ene_'
'Ditlhopha_'
'Ditlhogo_'
'Dipalo_'
'Di_'
'Dawid_'
'DSM_'
'Cultural_'
'Chamber_'
'Centres_'
'CEO_'
'Brazil_'
'Botsadi_'
'Botlhokatiro_'
'Bothati_'
'Bokaedi_'
'BMI_'
'Admission_'
'Address_'
'ATM_'
'38_'
'1977_'
'195_'
'00_'
'. " _'
'% , _'
'% ( _'
' ) ;_'
' ) ; _'
' ) : _'
' " ( _'
'yunibesiting_'
'x_'
'winning_'
'unemployment_'
'undertaking_'
'undertaken_'
'tshwaretswe_'
'tsholetsa_'
'tshole_'
'tsenyeletsa_'
'tsebe_'
'true_'
'transferred_'
'town_'
'tokomane_'
'tokafatso_'
'tlhomilwe_'
'tlhomamisitsweng_'
'tlhokomelang_'
'tlhalositswe_'
'tlhagisiwa_'
'tlhagelelang_'
'tlatse_'
'tlatsang_'
'thutogodimo_'
'thousand_'
'thereafter_'
'temogo_'
'temana_'
'targets_'
'sustainability_'
'step_'
'stated_'
'solutions_'
'solar_'
'skill_'
'side_'
'settlements_'
'setifikeite_'
'setatamente_'
'serori_'
'sell_'
'seemo_'
'season_'
'sciences_'
'satisfied_'
'sanitation_'
'rweleng_'
'rule_'
'reka_'
'reduce_'
'rebotswe_'
'ready_'
'readers_'
'rategang_'
'rand_'
'raise_'
'racial_'
'pusong_'
'profile_'
'procurator_'
'privacy_'
'prepare_'
'practitioners_'
'practitioner_'
'port_'
'porokerama_'
'poposešwa_'
'popontshwa_'
'played_'
'platform_'
'phimolwa_'
'passes_'
'partner_'
'participating_'
'palong_'
'pain_'
'owner_'
'opposed_'
'opinion_'
'operating_'
'offences_'
'occurred_'
'ntwa_'
'ntlo_'
'ngoka_'
'netefatso_'
'negative_'
'neelwang_'
'municipality_'
'multiplication_'
'motshameko_'
'mother_'
'morero_'
'molaotheo_'
'mokwaledi_'
'mokoro_'
'mogokgo_'
'modumo_'
'moamogedi_'
'mebala_'
'maungo_'
'matsholo_'
'mathematical_'
'materials_'
'masetase_'
'marketing_'
'maitseboa_'
'mailing_'
'maele_'
'link_'
'licences_'
'lesego_'
'leruo_'
'leroborobo_'
'length_'
'leitlho_'
'legoro_'
'led_'
'lebakeng_'
'laboratori_'
'kwadisitswe_'
'kopetsweng_'
'kopanngwa_'
'kontinenteng_'
'kokoanya_'
'koketso_'
'khamphane_'
'kgwebong_'
'kgatisong_'
'kgannyeng_'
'kakanyo_'
'journals_'
'journal_'
'invited_'
'intellectual_'
'integration_'
'instated_'
'indeed_'
'incident_'
'imported_'
'ikonoming_'
'ikanyega_'
'ikaega_'
'identification_'
'idea_'
'hundred_'
'honours_'
'homes_'
'hisetori_'
'highlighted_'
'happy_'
'grain_'
'gotlhelele_'
'globally_'
'getting_'
'game_'
'finding_'
'fetotsweng_'
'fetile_'
'fast_'
'facts_'
'exposure_'
'explains_'
'explaining_'
'expiry_'
'expert_'
'expanded_'
'exists_'
'excessive_'
'exceptional_'
'entity_'
'enterprises_'
'ekonomi_'
'dula_'
'ditsebe_'
'ditlamelo_'
'ditironyana_'
'ditharabololo_'
'diseases_'
'discussions_'
'disabled_'
'diromelwantle_'
'diphatlhatiro_'
'dipharologano_'
'dimela_'
'dilaesense_'
'dikwatlhao_'
'dikuno_'
'dikgoka_'
'dikarolong_'
'detail_'
'destination_'
'depth_'
'den_'
'demonstrate_'
'definitely_'
'dedicated_'
'dealing_'
'cross_'
'crop_'
'creation_'
'covering_'
'continuing_'
'continent_'
'consideration_'
'confidentiality_'
'concepts_'
'companies_'
'coming_'
'colleague_'
'clearance_'
'chosen_'
'characteristics_'
'changed_'
'certificates_'
'card_'
'busetsa_'
'bula_'
'broadcasting_'
'botsa_'
'boto_'
'bophelo_'
'bontshitse_'
'bonolo_'
'bonale_'
'bonalang_'
'boleele_'
'bolaodi_'
'bojanala_'
'bogologolo_'
'boemedi_'
'boasts_'
'blocks_'
'bilione_'
'biditswe_'
'beng_'
'believe_'
'batlhophi_'
'batlhankedi_'
'batle_'
'baeng_'
'avoid_'
'attorney_'
'arrested_'
'arabela_'
'appoint_'
'anything_'
'annum_'
'alike_'
'aid_'
'agriculture_'
'ago_'
'agencies_'
'aesthetic_'
'accreditation_'
'accompany_'
'academy_'
'Vaaldriehoek_'
'Tshwane_'
'Tonakgolo_'
'Tlhotlhwa_'
'Tiragalo_'
'Third_'
'Terasete_'
'Standards_'
'Small_'
'Sa_'
'Russia_'
'Rensburg_'
'R285_'
'Progress_'
'Potgieter_'
'Post_'
'Poole_'
'Pholisi_'
'People_'
'PBMR_'
'Officer_'
'Of_'
'Numeracy_'
'Ntlo_'
'Non_'
'Nel_'
'Mosupologo_'
'Molefe_'
'Mokhomišenara_'
'Mathematics_'
'Mathematical_'
'Mathata_'
'Mariëtte_'
'Maitsholo_'
'London_'
'Letsholo_'
'Khampaseng_'
'Kgotlapeomolao_'
'Kgotla_'
'Kgaolo_'
'Joubert_'
'Improvement_'
'Identity_'
'ITEA_'
'Harry_'
'HESS_'
'Green_'
'Governance_'
'Gantsi_'
'Gakologelwa_'
'Former_'
'Foramo_'
'Ferreira_'
'Dutch_'
'Documents_'
'Document_'
'Ditona_'
'Dirisa_'
'Dikgolagano_'
'Dikgang_'
'Deaf_'
'Convention_'
'Congress_'
'Companies_'
'Club_'
'CCMA_'
'Byline_'
'Buka_'
'Botho_'
'Bibi_'
'Batlatsa_'
'Basic_'
'Bakaulengwe_'
'BRICS_'
'BCom_'
'Awate_'
'Audrey_'
'Appeal_'
'Alternatively_'
'Advance_'
'Abuses_'
'Aardklop_'
'808_'
'44_'
'2167_'
'021_'
' ) ( ' _'
' ' ._'
' ' ) _'
'Δ_'
'woman_'
'wetsa_'
'welfare_'
'wela_'
'weight_'
'voluntary_'
'verification_'
'utswitsweng_'
'utswitswe_'
'unemployed_'
'umakilweng_'
'tuelelopele_'
'tswalelo_'
'tsosoloso_'
'tsosa_'
'tsibogela_'
'tsia_'
'tshwariwa_'
'tshwaragane_'
'tshwaetso_'
'tshwaelo_'
'tshomarelo_'
'tshimologong_'
'tsereganyo_'
'tsenyang_'
'tsamaela_'
'trial_'
'transaction_'
'track_'
'totobaditsweng_'
'togamaano_'
'tlosa_'
'tlhomelo_'
'tlhomamo_'
'tlhamilweng_'
'tlhakanya_'
'tlhaba_'
'tlala_'
'tirelong_'
'tiegiso_'
'threshold_'
'thotloetso_'
'theo_'
'telephonic_'
'telele_'
'tekanyetsomadi_'
'tatelano_'
'talk_'
'sworn_'
'sweetsa_'
'substantial_'
'stories_'
'spheres_'
'spent_'
'speaker_'
'sources_'
'solving_'
'shortly_'
'shelter_'
'seša_'
'seteišene_'
'sesole_'
'seriti_'
'sere_'
'sentences_'
'semorafe_'
'selected_'
'sefane_'
'sedirisiwa_'
'sedika_'
'secondary_'
'schemes_'
'rwala_'
'romelwe_'
'roll_'
'risks_'
'responsibilities_'
'represents_'
'repeated_'
'rente_'
'removal_'
'religious_'
'relationship_'
'regulatory_'
'regulations_'
'registrar_'
'refers_'
'recommended_'
'rarabololwa_'
'rape_'
'raised_'
'qualifications_'
'pula_'
'publications_'
'provider_'
'protected_'
'proceedings_'
'print_'
'prevention_'
'postal_'
'pollution_'
'points_'
'poelo_'
'planned_'
'placing_'
'pharakano_'
'peak_'
'patents_'
'partnership_'
'parliament_'
'owners_'
'ourselves_'
'opposing_'
'operational_'
'oketsegile_'
'officials_'
'occasion_'
'nyutlelia_'
'nutrition_'
'ntšhafatswa_'
'ntshiwang_'
'ntshitse_'
'nosetso_'
'north_'
'nonofileng_'
'newly_'
'newe_'
'neelang_'
'names_'
'municipalities_'
'multilingual_'
'mpampetse_'
'motswelwamosola_'
'motsamaisi_'
'motlhofo_'
'motlatsa_'
'moporofesa_'
'mopeleto_'
'mogatso_'
'mofenyi_'
'mofaladi_'
'mmasepala_'
'mmalwanyana_'
'mind_'
'mild_'
'method_'
'merogo_'
'mererong_'
'meputso_'
'medium_'
'medicine_'
'mebaraka_'
'matlotlo_'
'matlhagatlhaga_'
'matlha_'
'matlafatsa_'
'maswe_'
'maphata_'
'manufacturing_'
'manno_'
'mankge_'
'manaane_'
'man_'
'mampodi_'
'makisimamo_'
'mabogo_'
'lwala_'
'loeto_'
'lists_'
'linked_'
'letleletsweng_'
'lekgethong_'
'lebelo_'
'latelwang_'
'kwadisitsweng_'
'koo_'
'kile_'
'khomišene_'
'kgwetlho_'
'kgotlatshekelong_'
'kereiti_'
'jurisdiction_'
'jotlhe_'
'jono_'
'itirela_'
'interviews_'
'inspired_'
'input_'
'ikobela_'
'ikgapela_'
'honoured_'
'guest_'
'grew_'
'graphic_'
'graduates_'
'governance_'
'goals_'
'generation_'
'ganana_'
'gakolola_'
'gaabo_'
'fuel_'
'friend_'
'fresh_'
'fractions_'
'forged_'
'followed_'
'floor_'
'filweng_'
'fifth_'
'feteng_'
'festival_'
'farmers_'
'farmer_'
'failed_'
'eyes_'
'extraordinary_'
'extend_'
'express_'
'exclusively_'
'exceed_'
'evidence_'
'evening_'
'establishing_'
'equipped_'
'entry_'
'entities_'
'emotional_'
'email_'
'elsewhere_'
'electoral_'
'editor_'
'editions_'
'economically_'
'easy_'
'dust_'
'duplicate_'
'duelelwang_'
'download_'
'divorced_'
'dituediso_'
'ditshwetso_'
'ditshitshinyo_'
'ditoro_'
'ditlhare_'
'ditlhakapalo_'
'ditlamorago_'
'dithutong_'
'diteko_'
'ditekanyetso_'
'discussion_'
'discipline_'
'dirwe_'
'dirisiwe_'
'direga_'
'dipuong_'
'diphoso_'
'dipe_'
'dipampiri_'
'dipakeng_'
'dinaledi_'
'dilwana_'
'dilatlhwa_'
'dikotsi_'
'dikotlhao_'
'dikhoso_'
'dikgweding_'
'dikgomo_'
'dikgatlhegelo_'
'dikakanyo_'
'dignity_'
'differ_'
'didiriso_'
'diawate_'
'dialogue_'
'deputy_'
'depends_'
'deliver_'
'delegation_'
'daughter_'
'customs_'
'curriculum_'
'crops_'
'crisis_'
'cricket_'
'creating_'
'courses_'
'councils_'
'corporation_'
'copyright_'
'consumption_'
'confirmation_'
'concerning_'
'comprises_'
'complex_'
'compiled_'
'comments_'
'commence_'
'collaboration_'
'coal_'
'clerk_'
'chart_'
'charges_'
'celebrated_'
'cast_'
'candidates_'
'businesses_'
'botsatsa_'
'botsadi_'
'botlana_'
'botlakgolo_'
'boronse_'
'bontlhabongwe_'
'bolelele_'
'bokoa_'
'bokamoso_'
'bogolosegolo_'
'boela_'
'boalo_'
'boagi_'
'boa_'
'block_'
'bidiwa_'
'beeletsa_'
'batswasetlhabelo_'
'batliwa_'
'batlegang_'
'bapisiwa_'
'bagwebi_'
'babadi_'
'attached_'
'atlegileng_'
'athikele_'
'appreciate_'
'apara_'
'announce_'
'agiwa_'
'administered_'
'addressed_'
'acquire_'
'absence_'
'Zulu_'
'Zambia_'
'Why_'
'Webosaete_'
'Walt_'
'Viljoen_'
'Victim_'
'UK_'
'Tsweletso_'
'Tshwanelo_'
'Transformation_'
'Tirong_'
'Text_'
'Tamiflu_'
'THE_'
'Supreme_'
'Smith_'
'Smit_'
'Silicosis_'
'Setheong_'
'Sasol_'
'Safety_'
'Rugby_'
'Ruan_'
'Resources_'
'Regional_'
'Receiver_'
'Pusetso_'
'Project_'
'Principal_'
'Press_'
'Popo_'
'Phesente_'
'Panel_'
'Pan_'
'PUKfm_'
'Out_'
'Organisation_'
'Nngwe_'
'Ngwanaitseele_'
'Netherlands_'
'Moputso_'
'Molaong_'
'Moduelalekgetho_'
'Modiri_'
'Michelle_'
'Men_'
'Matlotlo_'
'Many_'
'Mafelo_'
'Maano_'
'Maaforikaborwa_'
'Linda_'
'Library_'
'Letlha_'
'Laesense_'
'Koos_'
'Kgwele_'
'Keresemose_'
'Kalafo_'
'Junior_'
'Ikemetseng_'
'III_'
'IEEE_'
'Humanities_'
'House_'
'Great_'
'Gokelela_'
'G_'
'Frikkie_'
'Foromokopo_'
'Following_'
'First_'
'Europe_'
'Each_'
'EXCELL_'
'E3_'
'Drupal_'
'Ditokololo_'
'Diphologolo_'
'Dibuka_'
'Defence_'
'DWAF_'
'Current_'
'Compensation_'
'Cloete_'
'Chapter_'
'Calculate_'
'Bodirelo_'
'Beeld_'
'Attach_'
'Accounting_'
'74_'
'62_'
'607_'
'260_'
'2001_'
'1965_'
'190_'
'120_'
'10111_'
'04_'
' ? ( _'
' . . . _'
' ! , _'
'wonderful_'
'witness_'
'winter_'
'weather_'
'wants_'
'wage_'
'voting_'
'volume_'
'vital_'
'veterinary_'
'verbal_'
'vaccine_'
'upon_'
'understood_'
'undergraduate_'
'umakiwa_'
'tšhelete_'
'tswelopele_'
'tswela_'
'tshwarelwa_'
'tshwarang_'
'tsholwa_'
'tshingwana_'
'tshiamelo_'
'tshegetsang_'
'tshedimosetsokakaretso_'
'tshaba_'
'tsene_'
'tsamaisiwang_'
'tsamaisiwa_'
'tsala_'
'trusts_'
'treated_'
'tlolomolao_'
'tlhomologileng_'
'tlhomamisiwa_'
'tlhokego_'
'tlhaolele_'
'tlhaolang_'
'tlhaloganye_'
'tlhakore_'
'tlhagisang_'
'tissue_'
'tirego_'
'tiisa_'
'thusitse_'
'thulaganyong_'
'thomeletso_'
'thirds_'
'thibelo_'
'theory_'
'territory_'
'temperature_'
'telephone_'
'techniques_'
'taught_'
'talks_'
'suteng_'
'surface_'
'supported_'
'supang_'
'sugar_'
'struggle_'
'strips_'
'stress_'
'strengthen_'
'stick_'
'stating_'
'starts_'
'stamped_'
'specialised_'
'solofela_'
'soap_'
'sk_'
'size_'
'sitting_'
'signs_'
'shown_'
'sheet_'
'sharing_'
'shaped_'
'sešweng_'
'severe_'
'settlement_'
'senya_'
'seminar_'
'semi_'
'seelo_'
'sebui_'
'sebopego_'
'seatleng_'
'schooling_'
'save_'
'samples_'
'salary_'
'sala_'
'saenweng_'
'rutang_'
'run_'
'ruling_'
'rough_'
'rotlhe_'
'root_'
'room_'
'rolatiro_'
'roads_'
'resolved_'
'reputable_'
'replacing_'
'rent_'
'renewed_'
'relationships_'
'rekotong_'
'rehabilitation_'
'reflected_'
'referense_'
'reduction_'
'reasonably_'
'reason_'
'ralala_'
'quite_'
'quickly_'
'pusoselegae_'
'puong_'
'publishing_'
'providers_'
'professor_'
'profession_'
'producers_'
'procurement_'
'printed_'
'principle_'
'prices_'
'pre_'
'possibilities_'
'portion_'
'poor_'
'ponelopele_'
'policing_'
'polelo_'
'polante_'
'plays_'
'planting_'
'phepa_'
'phatlha_'
'phasalatso_'
'permission_'
'performed_'
'pateletsa_'
'pandemic_'
'palamente_'
'overcome_'
'oli_'
'offset_'
'officially_'
'occurs_'
'obtaining_'
'nyalaneleng_'
'ntshe_'
'nosetsa_'
'night_'
'neetse_'
'neeletsanyo_'
'near_'
'nayang_'
'movements_'
'move_'
'motshameki_'
'motivation_'
'mothong_'
'montle_'
'monitoring_'
'monitor_'
'molwetse_'
'moleng_'
'mokitlana_'
'mokgele_'
'mokgatlo_'
'moitseanape_'
'moh_'
'modirelwa_'
'modern_'
'mmidi_'
'mmatota_'
'mmatlisisi_'
'mmaraka_'
'methodologies_'
'measure_'
'meal_'
'mathematics_'
'mass_'
'marks_'
'marapo_'
'maoto_'
'managing_'
'makgaolakgang_'
'makala_'
'maitirelo_'
'mainly_'
'maikaelelong_'
'magoro_'
'magae_'
'lunch_'
'low_'
'lotso_'
'looks_'
'lokwalo_'
'located_'
'loagong_'
'lived_'
'letshwaokgwebo_'
'letshoroma_'
'letsatsing_'
'letlhakore_'
'lekgetlo_'
'lehuma_'
'legally_'
'legacy_'
'lefe_'
'lebelelwa_'
'lebega_'
'leaf_'
'laletsa_'
'kwalwa_'
'kwadilwe_'
'kopanya_'
'kopanetsweng_'
'kokoantsweng_'
'kind_'
'khonferenseng_'
'khampase_'
'kgotlapeomolao_'
'kgonego_'
'kgonegang_'
'kgonagalo_'
'kgonagalang_'
'kgatelopele_'
'kananyo_'
'kalafo_'
'kaiwa_'
'j_'
'itemogela_'
'itekanetse_'
'isiwa_'
'involve_'
'interpretation_'
'intelligence_'
'injuries_'
'infection_'
'incentive_'
'imeili_'
'ikwadisitseng_'
'ikwadise_'
'ikemetseng_'
'ikaegilwe_'
'ikaegileng_'
'households_'
'holiday_'
'helps_'
'harm_'
'handed_'
'greatest_'
'graduation_'
'grades_'
'governmental_'
'gold_'
'golaganeng_'
'gokelela_'
'glass_'
'gaisana_'
'funding_'
'funded_'
'functioning_'
'formula_'
'formed_'
'formally_'
'foreigner_'
'forces_'
'fokotsega_'
'fitlhelelwa_'
'financially_'
'filled_'
'fetisa_'
'fellow_'
'feleletsa_'
'fekese_'
'feedlots_'
'favour_'
'faster_'
'fao_'
'fall_'
'extortion_'
'extensive_'
'expressed_'
'expectations_'
'exercises_'
'exciting_'
'excited_'
'esi_'
'entrepreneurial_'
'entire_'
'enacted_'
'eme_'
'eleletsa_'
'elect_'
'efficiency_'
'effectiveness_'
'earlier_'
'duetsweng_'
'duetswe_'
'dueleng_'
'driving_'
'driver_'
'driven_'
'draft_'
'divided_'
'ditšhabatšhaba_'
'ditogamaano_'
'ditlhophong_'
'ditlhaka_'
'dithutego_'
'dithoro_'
'display_'
'disciplinary_'
'disampole_'
'diromelwateng_'
'diriswa_'
'diretsweng_'
'diragadiwe_'
'diragadiwang_'
'dipuisanong_'
'diperesente_'
'dipeeletsong_'
'dipapatso_'
'dinonyane_'
'dilong_'
'dikgoreletsi_'
'dikgobalo_'
'dikgetsi_'
'dikgaisanong_'
'dikereiti_'
'dikanego_'
'dikadimo_'
'dielo_'
'diakhaonto_'
'deserves_'
'demokerasi_'
'demands_'
'deducted_'
'danger_'
'cycle_'
'cover_'
'counting_'
'conversion_'
'contributing_'
'continuously_'
'contains_'
'contain_'
'consulting_'
'consultation_'
'consult_'
'construction_'
'confidence_'
'compromise_'
'collective_'
'cold_'
'clothing_'
'clothes_'
'clients_'
'clean_'
'classes_'
'childhood_'
'check_'
'charged_'
'changing_'
'chance_'
'challenging_'
'carbon_'
'calls_'
'calendar_'
'calculated_'
'cables_'
'busiwa_'
'busa_'
'bulela_'
'bukeng_'
'buildings_'
'bronze_'
'breaks_'
'botsweretshi_'
'botsolotswa_'
'botsolotsa_'
'botlhano_'
'bosula_'
'border_'
'boranodi_'
'bophelong_'
'bookelong_'
'bontshiwa_'
'boneng_'
'bonala_'
'bojona_'
'boitsholo_'
'bogodimo_'
'bofe_'
'bodily_'
'beyond_'
'begwa_'
'balosika_'
'bag_'
'baakatemi_'
'awate_'
'arts_'
'artificial_'
'amogetseng_'
'amogelang_'
'amended_'
'amegileng_'
'amana_'
'alternative_'
'allowances_'
'allowable_'
'aligned_'
'advanced_'
'administer_'
'accountants_'
'accompanied_'
'accident_'
'abuser_'
'Yunibesithi_'
'Work_'
'Waal_'
'Vuuren_'
'Village_'
'Veterinary_'
'Vanderbijlpark_'
'Univ_'
'UNISA_'
'Tshepo_'
'Traditional_'
'Tommy_'
'Tlhomamisa_'
'Tlhagiso_'
'Tlhagisa_'
'Theo_'
'Thanyani_'
'Tekanyetso_'
'Technical_'
'Taelo_'
'T_'
'TSA_'
'Supply_'
'Standard_'
'Speak_'
'Spaniards_'
'Simango_'
'Sesotho_'
'Seminara_'
'Sekgala_'
'See_'
'SRC_'
'SETSHWANTSHO_'
'Robinson_'
'Robert_'
'River_'
'Repoto_'
'Relationships_'
'Related_'
'R62_'
'R3_'
'R31_'
'Provide_'
'Proof_'
'Primary_'
'PricewaterhouseCoopers_'
'Power_'
'Postma_'
'Postbank_'
'Poposešwa_'
'Plant_'
'Planning_'
'Personal_'
'Parenting_'
'PanSALB_'
'Oracle_'
'Open_'
'Official_'
'Occupational_'
'Oaths_'
'Nka_'
'Music_'
'Multilingual_'
'Motlakase_'
'Mothusa_'
'Moporesidente_'
'Moeteledipele_'
'Mmenejara_'
'Ministers_'
'Minerals_'
'Melvin_'
'Medical_'
'Matshwao_'
'Marius_'
'Malebana_'
'Maastricht_'
'Lowes_'
'Letswaokgwebo_'
'Letlhomeso_'
'Lekgotleng_'
'Lekala_'
'Learners_'
'Leaders_'
'LJ_'
'Kopano_'
'Kisch_'
'Kholetšhe_'
'Kevin_'
'KTS_'
'KA_'
'Jeremane_'
'Ithute_'
'Import_'
'Ikwadiso_'
'IV_'
'H1N1_'
'Grant_'
'Grades_'
'Good_'
'Golagana_'
'Gloria_'
'Gert_'
'Gae_'
'Foreign_'
'Fellow_'
'Favourite_'
'Ensure_'
'Elsa_'
'Elize_'
'East_'
'Ditshwetso_'
'Diterelo_'
'Dinao_'
'Dinaga_'
'Determine_'
'DM_'
'DI_'
'Corrie_'
'Copies_'
'Consumer_'
'Comrades_'
'Commerce_'
'Close_'
'Christo_'
'Choir_'
'Bureau_'
'British_'
'Boto_'
'Boswa_'
'Book_'
'Berg_'
'Batlatsatona_'
'Balaodi_'
'Bafenyi_'
'Art_'
'Arrange_'
'American_'
'Aforikanse_'
'Aferika_'
'A4_'
'89quat_'
'88_'
'78_'
'700_'
'32_'
'177_'
'012_'
' , "_'
' "_'
'€ " _'
'yuniting_'
'yellow_'
'wrote_'
'wishes_'
'wili_'
'whilst_'
'wherein_'
'weed_'
'webo_'
'vulnerable_'
'voters_'
'visual_'
'visible_'
'virus_'
'vir_'
'vacancies_'
'urge_'
'umaka_'
'u_'
'tyres_'
'types_'
'twenty_'
'tumelo_'
'tumedi_'
'tsweletso_'
'tswalo_'
'tsiboswa_'
'tshwarwang_'
'tshwaregile_'
'tshware_'
'tshwailwe_'
'tshiamo_'
'tsenelela_'
'tsamaelanang_'
'truly_'
'trip_'
'tribute_'
'tree_'
'transition_'
'towns_'
'tourism_'
'touch_'
'toro_'
'tolamo_'
'tokofatsa_'
'toads_'
'tlisetsa_'
'tlhotlhomiso_'
'tlhomo_'
'tlhometswe_'
'tlhomameng_'
'tlhoke_'
'tlhatlhobilweng_'
'tlhaolo_'
'tlhaloswang_'
'tlhalosiwang_'
'tlhagise_'
'tlhaelang_'
'tlhabolosa_'
'tlhabololong_'
'tlelaemete_'
'tila_'
'thusiwa_'
'thuse_'
'thought_'
'though_'
'thomelontle_'
'thobalano_'
'therisano_'
'therasete_'
'theme_'
'theft_'
'text_'
'tetlelelo_'
'terminated_'
'ten_'
'tekolo_'
'tekano_'
'tatofatso_'
'tariff_'
'switch_'
'surname_'
'suggestions_'
'substances_'
'stretch_'
'stream_'
'stored_'
'stipulate_'
'standing_'
'sponsored_'
'sphere_'
'spend_'
'speed_'
'speeches_'
'speech_'
'son_'
'sometimes_'
'socio_'
'societies_'
'sites_'
'simultaneously_'
'simultaneous_'
'signing_'
'sick_'
'siametseng_'
'shift_'
'sets_'
'sesupo_'
'sesepa_'
'servants_'
'senthara_'
'senola_'
'semela_'
'sekoloto_'
'sekgala_'
'segopotso_'
'sees_'
'seekers_'
'sediriso_'
'sebopegong_'
'seat_'
'saw_'
'saletsweng_'
'safely_'
'rwalang_'
'rutiwa_'
'rotloediwa_'
'rometswe_'
'robongwe_'
'respond_'
'resource_'
'resistance_'
'requester_'
'relief_'
'relation_'
'regularly_'
'reflect_'
'reconciliation_'
'recognise_'
'realised_'
'rain_'
'questionnaire_'
'qualifies_'
'protocol_'
'protective_'
'properly_'
'prior_'
'price_'
'prestigious_'
'premises_'
'pregnancy_'
'prefer_'
'porokeramo_'
'pontsho_'
'polao_'
'poison_'
'poetry_'
'placement_'
'picket_'
'phetolo_'
'phetiso_'
'phefo_'
'phatlhalatso_'
'phaposi_'
'pertaining_'
'personality_'
'permits_'
'peo_'
'peeletso_'
'pays_'
'paymentIRP6_'
'patelesegego_'
'patelesegang_'
'password_'
'pasa_'
'pampiri_'
'padi_'
'paakanyo_'
'overwhelming_'
'outputs_'
'optimal_'
'opela_'
'oketsega_'
'occur_'
'occupation_'
'observe_'
'obligations_'
'numerous_'
'ntšhwafatso_'
'ntsoma_'
'ntshang_'
'notify_'
'notification_'
'nnyaa_'
'nnoto_'
'nine_'
'ngogola_'
'netefatsang_'
'nervous_'
'neilwe_'
'neelane_'
'mpho_'
'movement_'
'moved_'
'mouth_'
'motswasetlhabelo_'
'motswako_'
'motshegare_'
'motlhatlhobi_'
'motlhala_'
'mothale_'
'moso_'
'moral_'
'moragonyana_'
'morafeng_'
'montšhwa_'
'monni_'
'moment_'
'molekgotla_'
'molawana_'
'molaetsa_'
'mokwadisi_'
'mokwadi_'
'mokanseliri_'
'mogare_'
'mogaleng_'
'modules_'
'modudi_'
'mmojule_'
'mmenejara_'
'milk_'
'mid_'
'micro_'
'metsing_'
'message_'
'mentally_'
'memory_'
'megolo_'
'mediro_'
'medal_'
'mechanical_'
'mebedi_'
'mašwa_'
'matshwanedi_'
'matlo_'
'maso_'
'marine_'
'maphateng_'
'manually_'
'mantle_'
'maketa_'
'maitekong_'
'magistrate_'
'maeto_'
'maatlafatsa_'
'maAforikaborwa_'
'lolameng_'
'loan_'
'load_'
'literature_'
'listen_'
'links_'
'licensing_'
'letswaokgwebo_'
'letsa_'
'letlapa_'
'let_'
'lephateng_'
'lemosiwang_'
'lekwalotetla_'
'lekile_'
'lekgotla_'
'leinakgwebo_'
'legolo_'
'legislatures_'
'lefaufau_'
'leeto_'
'lectures_'
'lebe_'
'learned_'
'leads_'
'lack_'
'label_'
'kwadileng_'
'kwadile_'
'kutlwalo_'
'konosetsa_'
'kinds_'
'kin_'
'kileng_'
'khutla_'
'khemo_'
'kgweding_'
'kgwebisano_'
'kgobokantsha_'
'kgetsi_'
'kgetse_'
'kgatlha_'
'kgaso_'
'kgaogantsweng_'
'kganetso_'
'ketelo_'
'kereke_'
'katlanegiso_'
'katisiwa_'
'karata_'
'kaelwa_'
'judiciary_'
'judge_'
'journey_'
'itlhokomelea_'
'ithutang_'
'itaya_'
'ipona_'
'iphitlhela_'
'investments_'
'invested_'
'introduce_'
'instruction_'
'inspection_'
'initials_'
'inequality_'
'indicates_'
'illustrations_'
'ikutlwa_'
'iketleeleditse_'
'ikemiseditse_'
'ikaeletse_'
'hisetoring_'
'hirisitsweng_'
'heliosphere_'
'heketara_'
'hearing_'
'heads_'
'hazardous_'
'happiness_'
'guidance_'
'golofetseng_'
'golf_'
'golaganya_'
'gatela_'
'gas_'
'games_'
'gain_'
'gabedi_'
'fundamental_'
'frequently_'
'fokolediwa_'
'fly_'
'flag_'
'fitlheletswe_'
'fitlheletse_'
'finger_'
'findings_'
'finalised_'
'fighting_'
'fever_'
'fentse_'
'felela_'
'fekesetse_'
'feditse_'
'fedisiwa_'
'features_'
'father_'
'factory_'
'facing_'
'facilitating_'
'explained_'
'existence_'
'exhibition_'
'ex_'
'eventually_'
'evaluated_'
'esteemed_'
'enrolment_'
'enquiries_'
'enjoyed_'
'engine_'
'en_'
'emphasis_'
'emerging_'
'emelwa_'
'eleketheroniki_'
'electric_'
'easily_'
'earned_'
'dynamic_'
'dumeletswe_'
'dumelelwa_'
'dumelelane_'
'drug_'
'drop_'
'dreams_'
'draw_'
'downloaded_'
'door_'
'ditšhaba_'
'ditsompelo_'
'ditsalo_'
'ditlolomolao_'
'ditlhagiso_'
'ditlhabololo_'
'ditifikeiti_'
'distinguished_'
'disposal_'
'discussed_'
'disaense_'
'dirisetsa_'
'direlang_'
'diragalela_'
'diporokeramo_'
'dipolelo_'
'diphemiti_'
'diphaposiborutelo_'
'dipegelo_'
'dipatlafalo_'
'dipalophatlo_'
'dilemong_'
'dikgono_'
'dikgetse_'
'dikgaolo_'
'dikatlego_'
'dikano_'
'dikamogelo_'
'dikagong_'
'dibukeng_'
'diboutu_'
'dibilione_'
'determination_'
'detainee_'
'describe_'
'decline_'
'decent_'
'deaths_'
'deans_'
'dangerous_'
'cultures_'
'credits_'
'councilor_'
'correctly_'
'cooperative_'
'containing_'
'consultants_'
'construct_'
'considerable_'
'conferences_'
'conducting_'
'condition_'
'conciliation_'
'completing_'
'compile_'
'competence_'
'compete_'
'compatible_'
'comparison_'
'communicate_'
'commissioned_'
'colour_'
'colloquium_'
'cohesion_'
'cm_'
'clinical_'
'church_'
'cell_'
'celebration_'
'celebrate_'
'caused_'
'caring_'
'buy_'
'bulwa_'
'buiwang_'
'builweng_'
'brought_'
'brings_'
'bothating_'
'bosigo_'
'bosiamisi_'
'borakanelong_'
'bopilwe_'
'bonnete_'
'bomankge_'
'bojalwa_'
'boikaego_'
'boeletsa_'
'bodumedi_'
'bodies_'
'boammaaruri_'
'bird_'
'bewang_'
'belong_'
'begiwa_'
'begin_'
'beetsweng_'
'bearing_'
'batoloki_'
'banking_'
'balelweng_'
'balelwa_'
'bakang_'
'badiring_'
'baatlhodi_'
'awareness_'
'atlhola_'
'athletes_'
'asylum_'
'art_'
'arrest_'
'arranged_'
'arola_'
'arms_'
'appreciation_'
'answers_'
'annually_'
'amendments_'
'amegeng_'
'alteration_'
'akgolelwa_'
'akanyang_'
'ahead_'
'advantage_'
'advancement_'
'adjustment_'
'addressing_'
'achieving_'
'accurate_'
'accountability_'
'accommodate_'
'abela_'
'abduction_'
'aba_'
'Zyl_'
'Yvonne_'
'Yes_'
'Written_'
'Works_'
'WorkWell_'
'Wellness_'
'Vorster_'
'Victor_'
'V_'
'VANDERBIJLPARK_'
'Use_'
'Tomorrow_'
'Toloka_'
'Tlhwatlhwa_'
'Tlamelo_'
'Their_'
'Terms_'
'Temo_'
'Taal_'
'TUT_'
'TRADE_'
'Sudan_'
'Status_'
'States_'
'Sonia_'
'Sitting_'
'Setlhogo_'
'Setifikeiti_'
'Send_'
'Semmuso_'
'Sekaseka_'
'Scott_'
'Scheppel_'
'Scheme_'
'Schaik_'
'Santana_'
'Saayman_'
'SRCS_'
'SPCA_'
'Royal_'
'Rand_'
'RSA_'
'R60_'
'R30_'
'Publishers_'
'Private_'
'Phemelo_'
'Permit_'
'Paul_'
'Order_'
'ON_'
'Nutrition_'
'Ntšhwa_'
'Nobel_'
'Nelia_'
'NCOP_'
'NB_'
'NASA_'
'Musiek_'
'Muki_'
'Motsekapa_'
'Motlotlegi_'
'Motlhatlheledi_'
'Motlatsamokanseliri_'
'Motheo_'
'Moprof_'
'Mokwalo_'
'Mokopi_'
'Mokaedimogolo_'
'Mogege_'
'Moemedi_'
'Melville_'
'Media_'
'Mashudu_'
'Maselesele_'
'Martinique_'
'Martin_'
'Marion_'
'Maria_'
'Maketa_'
'Maikano_'
'Magdel_'
'Madiba_'
'Madame_'
'M_'
'MA_'
'Louw_'
'Loerie_'
'Leon_'
'Leno_'
'Lecturer_'
'Leba_'
'Last_'
'Kumo_'
'Krüger_'
'Korea_'
'Koporasi_'
'Kingdom_'
'Kgolagano_'
'Kgaisanong_'
'Kellner_'
'Keep_'
'Kamogelo_'
'Kamano_'
'Kago_'
'Kabo_'
'KSIR_'
'KFS_'
'Joint_'
'Jean_'
'James_'
'Internal_'
'Interest_'
'Inter_'
'Institutions_'
'Institution_'
'Indian_'
'Ian_'
'Hendré_'
'Hendrik_'
'Hefer_'
'Hall_'
'Graduate_'
'Gompieno_'
'Gerber_'
'Gender_'
'Gareng_'
'Friday_'
'Freedom_'
'France_'
'Force_'
'Five_'
'Ferdinand_'
'Farologaneng_'
'Failure_'
'Facebook_'
'Everyone_'
'Enterprise_'
'Enquiries_'
'Employment_'
'Elroy_'
'Elizabeth_'
'E8_'
'Durban_'
'Duela_'
'Dubai_'
'Ditokomane_'
'Ditlhopho_'
'Ditlankana_'
'Directive_'
'Dikarolo_'
'Dikago_'
'Dibebofatsi_'
'Descartes_'
'Deduction_'
'Dawie_'
'DSU_'
'DST_'
'Customs_'
'Culture_'
'Criminal_'
'Control_'
'Computer_'
'Competition_'
'Cologne_'
'College_'
'Co_'
'Clients_'
'City_'
'Christine_'
'Chemical_'
'Change_'
'Buisa_'
'Buildings_'
'Broadcasting_'
'Bošeng_'
'Botswana_'
'Botsalano_'
'Botlhokwa_'
'Botlhaba_'
'Borakanelo_'
'Bonno_'
'Bolaodi_'
'Bokaeding_'
'Boikaego_'
'Boeta_'
'Boenjenere_'
'Bible_'
'Bantsho_'
'Bala_'
'Bakaedi_'
'Bafana_'
'Baemedi_'
'Babatlisisi_'
'Baagi_'
'Area_'
'Appendix_'
'Antoinette_'
'Amsterdam_'
'Alumni_'
'Alta_'
'Agreement_'
'Advisor_'
'Advancement_'
'Adv_'
'Additional_'
'Acting_'
'ASSAf_'
'ADS_'
'ACU_'
'=_'
'63_'
'52_'
'51_'
'41_'
'2016_'
'2015_'
'1990_'
'1738_'
'0800_'
'" ( _'
' /_'
'ж_'
'ša_'
'â_'
'younger_'
'ye_'
'window_'
'wellness_'
'welcomed_'
'watch_'
'wanted_'
'walk_'
'voted_'
'volumes_'
'visibility_'
'vibration_'
'vibrant_'
'version_'
'vegetable_'
'united_'
'unfit_'
'undertake_'
'tšhonne_'
'typical_'
'tumileng_'
'tswelele_'
'tsweetswee_'
'tswalwa_'
'tsofetse_'
'tsididi_'
'tshwerweng_'
'tshwereng_'
'tshwaela_'
'tshitshinngwang_'
'tshamekela_'
'tshalelo_'
'tsewe_'
'tsepamo_'
'tsentsweng_'
'tseleganya_'
'tsamayang_'
'tsamaong_'
'tsamaelana_'
'treat_'
'transportation_'
'translated_'
'traffic_'
'totobetseng_'
'tool_'
'tons_'
'tolokela_'
'told_'
'tobetsa_'
'tlotliwa_'
'tliswa_'
'tlisang_'
'tlhotlheletso_'
'tlhophile_'
'tlhometse_'
'tlhokafetseng_'
'tlhobolo_'
'tlhatlhobong_'
'tlhamaletseng_'
'tlhaloswa_'
'tlhalosetsa_'
'tlhale_'
'tlhagisitsweng_'
'tlhabela_'
'tlaleletsa_'
'thing_'
'thelebišene_'
'thefosano_'
'textbook_'
'teori_'
'tense_'
'tempiwa_'
'tells_'
'television_'
'telescope_'
'tasks_'
'tagafara_'
'supports_'
'supile_'
'sukiri_'
'subsequent_'
'sub_'
'style_'
'studied_'
'strengthening_'
'stock_'
'staying_'
'stations_'
'stable_'
'sponsor_'
'species_'
'speakers_'
'sound_'
'sotla_'
'solve_'
'solution_'
'solofelwa_'
'solid_'
'sole_'
'sold_'
'slip_'
'sliding_'
'slashes_'
'skin_'
'sixteen_'
'situations_'
'sireletsegileng_'
'simply_'
'simolole_'
'siamisa_'
'siama_'
'sharp_'
'shares_'
'sexually_'
'sexual_'
'setsha_'
'setlhoeng_'
'setlankaneng_'
'serves_'
'sensitive_'
'selling_'
'sekasekang_'
'seen_'
'seek_'
'secure_'
'seconds_'
'scientists_'
'scholarship_'
'saving_'
'salaries_'
'rulings_'
'rulagantswe_'
'rulaganngwa_'
'rugby_'
'rotloetsang_'
'roles_'
'revised_'
'revenue_'
'retarded_'
'resulted_'
'respective_'
'resolve_'
'reserved_'
'rerisana_'
'requirement_'
'reproduction_'
'representations_'
'repeatedly_'
'repeal_'
'renewable_'
'render_'
'regulate_'
'registrations_'
'refuses_'
'reetsa_'
'reducing_'
'recruitment_'
'recommendation_'
'recommend_'
'ranks_'
'pusetso_'
'puisano_'
'prospective_'
'proposal_'
'propagating_'
'program_'
'producing_'
'proclamation_'
'prizes_'
'prison_'
'priority_'
'priorities_'
'preparing_'
'precautions_'
'potso_'
'postbank_'
'positioning_'
'poraebete_'
'pollination_'
'pole_'
'poisonous_'
'poems_'
'playing_'
'places_'
'pina_'
'physically_'
'phetolelo_'
'phases_'
'phasalatsa_'
'phamolo_'
'perspective_'
'perfect_'
'pelaelo_'
'parts_'
'parameters_'
'papers_'
'papatso_'
'palelo_'
'paki_'
'overview_'
'organisms_'
'organisational_'
'ordinary_'
'options_'
'opening_'
'opened_'
'okamela_'
'offering_'
'occasions_'
'obstacles_'
'object_'
'nwa_'
'nomination_'
'nipple_'
'networks_'
'nepagetse_'
'neele_'
'nearly_'
'nationals_'
'named_'
'n_'
'myself_'
'multi_'
'moweng_'
'motšhoni_'
'motshwaramarapo_'
'motshelo_'
'motshamekong_'
'motshabi_'
'motseleganyi_'
'motlamedi_'
'moranodi_'
'mor_'
'molaotlhomo_'
'mokgotlhwane_'
'mogakolodi_'
'modirisi_'
'moderate_'
'millions_'
'migration_'
'metlele_'
'mentsi_'
'mention_'
'meletlo_'
'melaometheo_'
'mekwalo_'
'megawatts_'
'meets_'
'mechanisms_'
'matshosetsi_'
'matlhotlhapelo_'
'mathateng_'
'masters_'
'masalela_'
'marriages_'
'markets_'
'mariga_'
'marakanelong_'
'map_'
'manufacturer_'
'mantswe_'
'mametlelelo_'
'malwetsi_'
'makwaloitshupo_'
'makgetlo_'
'makgetho_'
'makgaolakgannyeng_'
'maintained_'
'mafatshe_'
'machines_'
'lung_'
'lomaganya_'
'lolamisa_'
'lola_'
'locally_'
'little_'
'literacy_'
'limit_'
'lewatle_'
'letshololo_'
'letlhare_'
'letlelelwe_'
'letlelela_'
'letlang_'
'lerato_'
'leletsa_'
'lekwalodikgang_'
'lekola_'
'lekgethwana_'
'lekanyetsa_'
'lekalekanang_'
'lekalekana_'
'legaeng_'
'leboteng_'
'lebile_'
'lebeletsweng_'
'lebeletse_'
'lebang_'
'lebaneng_'
'learnt_'
'learnership_'
'lay_'
'latlhegelwa_'
'laotsweng_'
'laolwang_'
'laetsweng_'
'laela_'
'laeboraring_'
'laboratories_'
'laboratoriamo_'
'kwalela_'
'kuranta_'
'korporatifi_'
'kopilwe_'
'kopang_'
'kolobetso_'
'knew_'
'khomphiutha_'
'kgotlang_'
'kgonne_'
'kgonege_'
'kgolegelong_'
'kgethololo_'
'kgatlhisang_'
'kg_'
'ketleetso_'
'keteko_'
'keletso_'
'keeping_'
'kayang_'
'katisitswe_'
'kaiwang_'
'kaga_'
'k_'
'jealousy_'
'iv_'
'itumetse_'
'itsisiweng_'
'itseela_'
'ithutileng_'
'itekanetseng_'
'itebaganya_'
'isegang_'
'isago_'
'ipaakanyetsa_'
'investigated_'
'invest_'
'interpreted_'
'interim_'
'inter_'
'intensify_'
'integrate_'
'insults_'
'instruments_'
'instructed_'
'instead_'
'installed_'
'inspiring_'
'insolvency_'
'insight_'
'initiated_'
'indoor_'
'increasingly_'
'impressed_'
'illustrated_'
'ikwadisitse_'
'ikemela_'
'ikaelelang_'
'ideal_'
'houses_'
'hosting_'
'hostels_'
'hospitals_'
'hisitori_'
'highlights_'
'highlight_'
'hesitate_'
'herself_'
'helpful_'
'hectare_'
'heat_'
'healthy_'
'heading_'
'hair_'
'h_'
'grown_'
'gratia_'
'grateful_'
'grass_'
'governing_'
'gorogile_'
'gopola_'
'gona_'
'golotse_'
'golden_'
'golaganngwang_'
'glimpse_'
'girls_'
'gift_'
'gets_'
'generations_'
'gatelelwa_'
'garden_'
'gana_'
'gakgamatsa_'
'gagamatsa_'
'furniture_'
'fruit_'
'freelance_'
'forest_'
'foramo_'
'flow_'
'fitlhelwa_'
'fitlhelele_'
'fitlhelelang_'
'fine_'
'finances_'
'finalise_'
'filing_'
'fetolelwa_'
'fetolang_'
'fetogile_'
'fete_'
'felelang_'
'feeds_'
'feditswe_'
'fatshe_'
'families_'
'familiar_'
'falls_'
'factor_'
'exposed_'
'explanation_'
'expenses_'
'expanding_'
'exempted_'
'excess_'
'excelled_'
'exactly_'
'etelela_'
'essence_'
'era_'
'equitable_'
'eposo_'
'environments_'
'enthusiasm_'
'engage_'
'enforcement_'
'endeavour_'
'encouraging_'
'emisetsa_'
'emetseng_'
'else_'
'eleven_'
'elements_'
'educators_'
'edited_'
'earns_'
'eFiling_'
'dumelelana_'
'dumelang_'
'duleng_'
'dule_'
'duetse_'
'dry_'
'drawn_'
'donated_'
'diyunibesiting_'
'ditsha_'
'dits_'
'ditlhaloso_'
'ditikologong_'
'distributed_'
'distress_'
'disputes_'
'discover_'
'disadvantaged_'
'diritibatsi_'
'diregang_'
'direction_'
'diragatsang_'
'dipuodintsi_'
'dipontsho_'
'dipoelothuto_'
'diplomatic_'
'diphetolo_'
'diphelelo_'
'diphaposing_'
'diofisi_'
'dintlo_'
'dinopolo_'
'dimojulu_'
'dilekanyo_'
'dikwalo_'
'dikumong_'
'dikotla_'
'dikhampaseng_'
'dikgotlatshekelo_'
'dikgatong_'
'dikgaolong_'
'dikerafo_'
'dikantoro_'
'diheketara_'
'digase_'
'dielemente_'
'dibaesekele_'
'device_'
'detained_'
'desired_'
'designation_'
'deregistration_'
'denomination_'
'demonstrated_'
'delivery_'
'deductions_'
'declined_'
'decentralised_'
'debate_'
'dead_'
'database_'
'dam_'
'crowned_'
'covers_'
'couple_'
'count_'
'cooperate_'
'cooking_'
'convinced_'
'controlled_'
'continued_'
'container_'
'contained_'
'consumer_'
'constitute_'
'consistent_'
'consignment_'
'considering_'
'congratulated_'
'confront_'
'confirms_'
'concern_'
'computers_'
'compulsory_'
'comprising_'
'comprehension_'
'complexity_'
'competitors_'
'compared_'
'communal_'
'commencement_'
'colours_'
'coloured_'
'closely_'
'client_'
'cited_'
'circuit_'
'champion_'
'chain_'
'centres_'
'cattle_'
'carrying_'
'calling_'
'busang_'
'burst_'
'burns_'
'bulk_'
'buise_'
'buile_'
'brown_'
'bright_'
'breeder_'
'bothapi_'
'boteng_'
'bosa_'
'borutabana_'
'borogiweng_'
'borataro_'
'bopiwa_'
'bope_'
'bonagalang_'
'bomo_'
'bolelo_'
'bokhutlo_'
'bokgoning_'
'bokgakaleng_'
'bojotlhe_'
'boithutelo_'
'boithaopo_'
'bogwenegwene_'
'boferefere_'
'bofaladi_'
'boene_'
'bobodu_'
'bobegannyeng_'
'boalong_'
'birds_'
'bill_'
'beilwe_'
'batsading_'
'batlhoki_'
'basetsana_'
'base_'
'bargaining_'
'baopedi_'
'balelwe_'
'balanced_'
'bakwang_'
'baitseanape_'
'baithaopi_'
'bagolo_'
'baesekele_'
'badirelwa_'
'badini_'
'availability_'
'automatically_'
'author_'
'atolositsweng_'
'atlanegisa_'
'atisa_'
'assurance_'
'assists_'
'assigned_'
'armed_'
'arithmetic_'
'approve_'
'appears_'
'appearance_'
'appear_'
'anthem_'
'annoying_'
'anniversary_'
'angle_'
'amogelwe_'
'amile_'
'amend_'
'alone_'
'allow_'
'alleged_'
'alignment_'
'akanngwa_'
'agents_'
'advisory_'
'advised_'
'advantages_'
'adult_'
'administrator_'
'adding_'
'actually_'
'actively_'
'achievers_'
'accounting_'
'accountable_'
'accommodation_'
'accolade_'
'accidents_'
'accessible_'
'acceptable_'
'abelwang_'
'abandoned_'
'Zimbabwe_'
'Yun_'
'Yifu_'
'Working_'
'Workers_'
'Wordfast_'
'William_'
'Wikus_'
'Which_'
'Westhuizen_'
'Werner_'
'Wellness4U_'
'Webosawte_'
'Waanders_'
'Viviers_'
'Vincent_'
'Universiteit_'
'Understanding_'
'Umaka_'
'Tumelano_'
'Tswelelang_'
'Tshomarelo_'
'Tshegetsa_'
'Trivia_'
'Totius_'
'Tota_'
'Tokololo_'
'Tokafatso_'
'Today_'
'Tlokwe_'
'Tlhago_'
'Time_'
'Thutabomodimo_'
'Thulo_'
'Thompson_'
'Therasete_'
'Theilweng_'
'Terminology_'
'Temana_'
'Teko_'
'Teachers_'
'Tambo_'
'Takalo_'
'Switzerland_'
'Sweden_'
'Sunday_'
'Summer_'
'Stop_'
'Statistics_'
'Statement_'
'Springboks_'
'Spring_'
'Spanish_'
'So_'
'SoNA_'
'Shoreline_'
'Selekanyo_'
'Sejeremane_'
'Sefora_'
'Seesimane_'
'Sector_'
'Sebui_'
'Search_'
'Seaforikanse_'
'Seabe_'
'Schutte_'
'S_'
'SI_'
'SAS_'
'SALGA_'
'SAILI_'
'Review_'
'Returns_'
'Rephaboliking_'
'René_'
'Reformed_'
'Rebate_'
'R80_'
'R500_'
'R11_'
'Protect_'
'PowerPoint_'
'Poso_'
'Port_'
'Porokerama_'
'Population_'
'Popego_'
'Poland_'
'Physics_'
'Phetogo_'
'Phenyo_'
'Phemiti_'
'Pharologano_'
'Phanele_'
'Performance_'
'Pego_'
'Partnership_'
'Participants_'
'Oosthuizen_'
'Online_'
'Olympic_'
'OSTS_'
'Nyutlelia_'
'Notice_'
'Nna_'
'Nicolene_'
'Nico_'
'Ngoato_'
'Next_'
'Neelana_'
'Nedlac_'
'Namibia_'
'Name_'
'NSI_'
'NQF_'
'NGO_'
'NEDLAC_'
'Multilingualism_'
'Motlatsamoreketoro_'
'Mosia_'
'Mosadi_'
'Morokotso_'
'Mopelong_'
'Monnasetulo_'
'Monday_'
'Molawana_'
'Molaotlhomong_'
'Molaodimogolo_'
'Mokhanseleri_'
'Mofenyi_'
'Mmuso_'
'Mmetshe_'
'Mmatlisisi_'
'Messrs_'
'Melao_'
'Meepo_'
'Matlhatso_'
'Mary_'
'Mari_'
'Marais_'
'Man_'
'Mafoko_'
'Ltd_'
'Lotlhe_'
'Literacy_'
'Link_'
'Liebenberg_'
'Licence_'
'Letloleng_'
'Lesotho_'
'Lelapa_'
'Lekoko_'
'Leano_'
'Kwantle_'
'Kwala_'
'Korporatifi_'
'Kokoanong_'
'Kitso_'
'Kihansi_'
'Kiewiet_'
'Kharikhulamong_'
'Kgomotso_'
'Kgethegileng_'
'Key_'
'Kemo_'
'Kaedi_'
'KGAOLO_'
'Just_'
'Johann_'
'Janse_'
'Internet_'
'Integrated_'
'Initiative_'
'Ingrid_'
'Inge_'
'Indeed_'
'Ikwadise_'
'ISS_'
'IABC_'
'History_'
'Her_'
'Haasbroek_'
'HEAIDS_'
'Games_'
'Furthermore_'
'Fisika_'
'Firstly_'
'Fika_'
'Fano_'
'Fanie_'
'Fakalthi_'
'F_'
'FW_'
'FET_'
'Even_'
'Erika_'
'Equity_'
'Equality_'
'Engagement_'
'Employers_'
'Emergency_'
'Elmarie_'
'Elbie_'
'Egypt_'
'Eastes_'
'Duvenhage_'
'Download_'
'Diyuniti_'
'Ditshwantsho_'
'Ditshiamiso_'
'Ditlhokego_'
'Dithendara_'
'Diporojeke_'
'Dipoelo_'
'Diploma_'
'Dipatlisiso_'
'Dingwaga_'
'Dikgwebo_'
'Deon_'
'Democratic_'
'Davhana_'
'Dam_'
'DFO_'
'DAC_'
'Curriculum_'
'Counselling_'
'Corruption_'
'Correctional_'
'Construction_'
'Communications_'
'Commonwealth_'
'Church_'
'Christelle_'
'Children_'
'Challenge_'
'Certificates_'
'Carla_'
'Carike_'
'Canada_'
'Cambridge_'
'Brits_'
'Botsereganyi_'
'Bosenyi_'
'Bone_'
'Bomankge_'
'Boiphediso_'
'Boenjineri_'
'Boenjeniri_'
'Bodumedi_'
'Bobegakgang_'
'Bobedi_'
'Black_'
'Blaauw_'
'Bertie_'
'Because_'
'Bašwa_'
'Batsamaisi_'
'Based_'
'Bakhuduthamaga_'
'Back_'
'Baakatemi_'
'BSc_'
'Applied_'
'Apart_'
'Anton_'
'Amendment_'
'Albert_'
'Advanced_'
'Activity_'
'Action_'
'AGOA_'
'93_'
'91_'
'8h00_'
'85_'
'79_'
'57_'
'49_'
'39_'
'37_'
'250_'
'1976_'
'1973_'
'116_'
'084_'
'011_'
' • _'
' = _'
' ; " ._'
' . ) _'
' + _'
' *_'
' ) ?_'
' ) . "_'
' ) ) _'
' ' - _'
' ' , _'
' ' , ' _'
' " - _'
'yono_'
'wisely_'
'wire_'
'wind_'
'wider_'
'widely_'
'wellbeing_'
'weditse_'
'websites_'
'wealth_'
'watching_'
'washing_'
'washed_'
'warranties_'
'warfare_'
'war_'
'walked_'
'waiting_'
'voice_'
'vocabulary_'
'visitors_'
'visa_'
'violent_'
'violation_'
'videos_'
'viable_'
'verify_'
'verbally_'
'venue_'
'vehicles_'
'validity_'
'vacancy_'
'uttering_'
'utlwe_'
'utlwalang_'
'unveiling_'
'unity_'
'unitary_'
'underway_'
'turns_'
'tswelelo_'
'tswaletswe_'
'tswala_'
'tsosolosa_'
'tsietsa_'
'tsiboso_'
'tshwenyang_'
'tshwenya_'
'tshwene_'
'tshwaya_'
'tshwasa_'
'tshwaro_'
'tshwarelelang_'
'tshwaragana_'
'tshwanelwang_'
'tshuba_'
'tsholola_'
'tshitshinyo_'
'tshenyego_'
'tshelanwang_'
'tsheko_'
'tserweng_'
'tsenngwe_'
'tsenngwang_'
'tsengwang_'
'tseneng_'
'trophy_'
'trillion_'
'tried_'
'trials_'
'trees_'
'transmitted_'
'transitional_'
'tour_'
'torture_'
'tooth_'
'tongue_'
'tomorrow_'
'tolerance_'
'tlwaetse_'
'tlotlwa_'
'tlosiwa_'
'tlogelwa_'
'tlisitse_'
'tlhotlheletsang_'
'tlhotlhelediwa_'
'tlhophelwa_'
'tlhometsweng_'
'tlhomelela_'
'tlhome_'
'tlhomamisitse_'
'tlhomamang_'
'tlhomama_'
'tlholeng_'
'tlhokomelwa_'
'tlhokomele_'
'tlhokege_'
'tlhokaina_'
'tlhofofatsa_'
'tlhodilweng_'
'tlhoafalo_'
'tlhatlosiwa_'
'tlhapa_'
'tlhaoletsweng_'
'tlhamo_'
'tlhalosiwa_'
'tlhaloganyong_'
'tlhakanyo_'
'tlhakane_'
'tlhaelo_'
'tlhabologo_'
'tlhabologang_'
'tletse_'
'tlamele_'
'tirokgolo_'
'tirisomašetla_'
'tiragalong_'
'tips_'
'tikwatikwe_'
'tiego_'
'thuseng_'
'thuo_'
'threats_'
'tholotiro_'
'thereby_'
'theoretical_'
'themes_'
'thekeniki_'
'thapilweng_'
'thankful_'
'tested_'
'territories_'
'terminal_'
'terekere_'
'tender_'
'tekeletso_'
'tekanyetsokabo_'
'technologies_'
'technological_'
'tatlhegelo_'
'taolomofero_'
'talked_'
'talented_'
'talente_'
'talent_'
'syndrome_'
'sustained_'
'suppliers_'
'supplementation_'
'supilwe_'
'supe_'
'sunflower_'
'sum_'
'suburb_'
'submissions_'
'strives_'
'strike_'
'strengthened_'
'strength_'
'streams_'
'storing_'
'stone_'
'stayed_'
'statutory_'
'statistical_'
'starting_'
'star_'
'stand_'
'stamp_'
'stages_'
'spotlight_'
'spending_'
'spelling_'
'speeding_'
'specifications_'
'speaking_'
'somepedi_'
'solofetswe_'
'solemn_'
'sneeze_'
'slightly_'
'sireleditsweng_'
'sintekeiting_'
'simple_'
'showed_'
'shopping_'
'ship_'
'shine_'
'shapes_'
'setulo_'
'setlhoa_'
'seteišeneng_'
'sete_'
'serwe_'
'serving_'
'seriously_'
'sepeite_'
'seoposengwe_'
'sentšhwa_'
'sending_'
'seminars_'
'seminara_'
'semester_'
'selekano_'
'selection_'
'sekema_'
'segompieno_'
'seeking_'
'securities_'
'secured_'
'screen_'
'satisfy_'
'satisfactory_'
'sand_'
'samaganang_'
'sadiwa_'
'rwesiwa_'
'rutwang_'
'rutiwang_'
'rulaganyeditsweng_'
'row_'
'round_'
'rotseng_'
'rora_'
'roots_'
'romelwang_'
'robotics_'
'reveal_'
'returned_'
'resulting_'
'respected_'
'resilience_'
'residences_'
'reside_'
'requiring_'
'representing_'
'repeat_'
'rendered_'
'renang_'
'removed_'
'reminded_'
'rekisiwa_'
'regions_'
'refuse_'
'refund_'
'redevelopment_'
'red_'
'recreational_'
'recorded_'
'recipient_'
'reasoning_'
'reality_'
'reader_'
'rated_'
'raraaneng_'
'raising_'
'rail_'
'quoted_'
'quarter_'
'quantity_'
'quantities_'
'qualification_'
'pursuit_'
'purification_'
'publishers_'
'publish_'
'psychologist_'
'psychologically_'
'protocols_'
'proportion_'
'promoting_'
'professors_'
'professionalism_'
'prof_'
'productivity_'
'probability_'
'privileged_'
'printing_'
'primarily_'
'preventing_'
'presiding_'
'preserving_'
'presenting_'
'prescribe_'
'premise_'
'preceding_'
'potlana_'
'potlakisa_'
'posts_'
'positively_'
'posetifi_'
'pose_'
'portfolios_'
'poraemari_'
'poisoning_'
'pointed_'
'poelong_'
'pleasure_'
'plate_'
'planted_'
'pitse_'
'photefolio_'
'phologolo_'
'pholesi_'
'phatlalatso_'
'phasaladiwe_'
'pharmaceutical_'
'perceived_'
'peoples_'
'peers_'
'peer_'
'peelo_'
'peaceful_'
'patients_'
'path_'
'pateletswa_'
'partnerships_'
'parental_'
'pagama_'
'pabalasego_'
'outlined_'
'outline_'
'origin_'
'organs_'
'organising_'
'organise_'
'organ_'
'ordination_'
'ordinating_'
'oral_'
'opinions_'
'operators_'
'opera_'
'opafatsa_'
'oketswa_'
'okediwa_'
'occupy_'
'occupiers_'
'occupied_'
'obliged_'
'oath_'
'nyalana_'
'nutritious_'
'nursing_'
'ntšhwafatsa_'
'ntshwa_'
'ntshiwe_'
'ntlhopheng_'
'notices_'
'notes_'
'nopolo_'
'nopola_'
'nomore_'
'noka_'
'nniwa_'
'niche_'
'ngakeng_'
'networking_'
'netefadiwa_'
'nerve_'
'naturalisation_'
'nationality_'
'murder_'
'mould_'
'motseneledi_'
'motoloki_'
'motlhakanelwa_'
'motivate_'
'mosifa_'
'mortal_'
'moromelateng_'
'morokotsong_'
'moriri_'
'moputsong_'
'mooko_'
'mookamedi_'
'monwana_'
'monoxide_'
'monetary_'
'molema_'
'molelwane_'
'mokwatla_'
'mokhomišenara_'
'mokgweetsi_'
'mogoso_'
'moento_'
'moeding_'
'moduela_'
'moano_'
'mmentlele_'
'mixed_'
'mitara_'
'minute_'
'minimise_'
'minerals_'
'mineral_'
'military_'
'midst_'
'middle_'
'meša_'
'metshamekong_'
'metseselegae_'
'metlae_'
'metheo_'
'metabolic_'
'messenger_'
'merit_'
'merely_'
'menu_'
'mene_'
'mefutafuta_'
'mefameng_'
'measured_'
'meaningful_'
'mašwi_'
'matlhale_'
'maternity_'
'masepala_'
'masego_'
'marang_'
'manyalo_'
'manontlhotlho_'
'mane_'
'mandated_'
'manchester_'
'mananeothuto_'
'mananeong_'
'mametleletswe_'
'makwalotshupo_'
'makgwafo_'
'makgoba_'
'magatong_'
'magato_'
'mafulo_'
'mabala_'
'loyalty_'
'lost_'
'losing_'
'lose_'
'longwe_'
'location_'
'loapi_'
'loans_'
'listens_'
'liquor_'
'liquidated_'
'limitation_'
'likely_'
'lighting_'
'lift_'
'librarian_'
'liaison_'
'letlelelwa_'
'letlalo_'
'leswe_'
'leruanyi_'
'lend_'
'lenaneothuto_'
'lenaaneng_'
'lelapeng_'
'lekgolo_'
'lekgetlho_'
'lekanyediwang_'
'legislative_'
'lebilwe_'
'lebelelwe_'
'lebaleng_'
'laying_'
'laugh_'
'largest_'
'laid_'
'laeborari_'
'labels_'
'kwalo_'
'kwale_'
'kwadisitse_'
'kutso_'
'kotara_'
'kopile_'
'kope_'
'kontinente_'
'koloi_'
'koketsego_'
'knowing_'
'kill_'
'kick_'
'khutswafaditsweng_'
'khomphiuta_'
'kharikhulamo_'
'kgotsofatsa_'
'kgotsofala_'
'kgonweng_'
'kgololo_'
'kgololesego_'
'kgatisomenwana_'
'kgathalesege_'
'kgaoganya_'
'kgaoganngwa_'
'kgalemo_'
'kgabaganyo_'
'kgabaganya_'
'kerafo_'
'keng_'
'kano_'
'kankere_'
'kamogelesego_'
'kamo_'
'kailwe_'
'kagosešwa_'
'kagong_'
'kaedi_'
'kadimo_'
'jwala_'
'justify_'
'justification_'
'junior_'
'judicial_'
'journalist_'
'jometeri_'
'itumeletse_'
'itsisa_'
'itsetsepela_'
'itsesiwe_'
'itsege_'
'itlhamela_'
'itlhaganedisa_'
'ithutwang_'
'ithute_'
'itekanela_'
'isiXhosa_'
'isagong_'
'iponela_'
'ipone_'
'ipeile_'
'ipeetse_'
'invoice_'
'inventors_'
'introduction_'
'intestate_'
'interviewed_'
'interruption_'
'interpreter_'
'internship_'
'interfere_'
'interdisciplinary_'
'intercultural_'
'interactive_'
'interaction_'
'interact_'
'intend_'
'inspire_'
'insolvent_'
'insists_'
'inquiry_'
'informal_'
'infections_'
'inevitable_'
'ineela_'
'indicators_'
'indicating_'
'indecent_'
'incorporation_'
'inappropriate_'
'impressive_'
'impression_'
'imposed_'
'importation_'
'imperative_'
'immediate_'
'imileng_'
'illness_'
'ikopantsha_'
'ikgapetse_'
'iketla_'
'ikaeletseng_'
'ideology_'
'iafrica_'
'hygiene_'
'hundreds_'
'hour_'
'hot_'
'holding_'
'heritage_'
'heavy_'
'heard_'
'headings_'
'hazards_'
'happen_'
'halls_'
'gwetlhang_'
'guardian_'
'gross_'
'greener_'
'greatly_'
'graph_'
'grandfather_'
'gradually_'
'governments_'
'governed_'
'govern_'
'gotlholela_'
'gotlhola_'
'got_'
'golela_'
'golang_'
'golagane_'
'godisang_'
'giver_'
'geographical_'
'genetic_'
'generated_'
'generate_'
'generally_'
'gender_'
'geared_'
'gathering_'
'gateletse_'
'gase_'
'gardens_'
'gapa_'
'gannwe_'
'galase_'
'gakologelwa_'
'gagametseng_'
'fun_'
'fulfil_'
'fudugang_'
'fountain_'
'founders_'
'founded_'
'forestry_'
'forced_'
'footprint_'
'fitness_'
'fiscal_'
'finance_'
'finally_'
'filter_'
'film_'
'filling_'
'fetswa_'
'fetlha_'
'fertiliser_'
'fertilisation_'
'fentseng_'
'felt_'
'feletse_'
'feet_'
'fedileng_'
'fatal_'
'farologanang_'
'famous_'
'falling_'
'faith_'
'fairly_'
'faced_'
'f_'
'extremely_'
'expression_'
'exporter_'
'explore_'
'expands_'
'exhaust_'
'excitement_'
'evaluate_'
'eteletswe_'
'eseng_'
'equity_'
'equip_'
'entries_'
'enthusiastic_'
'entertainment_'
'enterprise_'
'entail_'
'ensures_'
'enjoying_'
'enforce_'
'enabling_'
'empowered_'
'emotionally_'
'emigrated_'
'emeng_'
'embryo_'
'emang_'
'eligible_'
'electrical_'
'electorate_'
'effects_'
'editorial_'
'edge_'
'earth_'
'earnings_'
'dumelwang_'
'dumelwa_'
'dumelesegang_'
'dumelelwang_'
'dumalane_'
'dueletsweng_'
'duelelwa_'
'duelelang_'
'drama_'
'dr_'
'doubt_'
'donations_'
'doctrine_'
'diša_'
'diyuniti_'
'diyunibesithi_'
'divisions_'
'diverse_'
'ditshupetso_'
'ditshono_'
'ditshingwana_'
'ditshenekegi_'
'ditokololong_'
'ditlhotshwana_'
'ditlhopo_'
'ditlhoko_'
'ditlhaketlhake_'
'ditlhagiswa_'
'ditlhaeletsano_'
'ditlapele_'
'ditlankaneng_'
'dithulusu_'
'dithulaganyong_'
'dithomelontle_'
'dithebolo_'
'ditetla_'
'discusses_'
'discriminate_'
'disata_'
'dirweboleta_'
'diriwe_'
'dirisetswang_'
'dirisanang_'
'diring_'
'diragatseng_'
'diragale_'
'dipusoselegae_'
'diporojekeng_'
'diporo_'
'dipoloma_'
'dipolaseng_'
'dipolase_'
'diphetho_'
'dipeo_'
'dipelo_'
'dipalotlalo_'
'dipalangwa_'
'dintsho_'
'dintlheng_'
'dinomore_'
'dinner_'
'dinaane_'
'dimpopi_'
'dimpho_'
'dimmaraka_'
'dimenerale_'
'dilitara_'
'dikomiti_'
'dikolote_'
'dikoloi_'
'dikologa_'
'dikokomana_'
'dikhubiki_'
'dikhonferense_'
'dikhomputara_'
'dikhampase_'
'dikhafole_'
'dikgwebopotlana_'
'dikgatlhego_'
'dikgatlhegelong_'
'dikgaisano_'
'dikeretiti_'
'dikeletso_'
'dikatlanegiso_'
'dikarolwana_'
'dikabelotiro_'
'dijanaga_'
'difilimi_'
'difficulty_'
'differences_'
'diesel_'
'didipoloma_'
'dibetsa_'
'dibese_'
'dibekeng_'
'dibaleledi_'
'diarrhoea_'
'diabetes_'
'determines_'
'detention_'
'designate_'
'deserve_'
'derives_'
'dependent_'
'delivers_'
'definite_'
'defendant_'
'deemed_'
'deck_'
'decimal_'
'deadlines_'
'damages_'
'cycling_'
'cutting_'
'cultivated_'
'crew_'
'counselling_'
'coordinator_'
'convicted_'
'contravention_'
'consisting_'
'connected_'
'congratulate_'
'confidential_'
'concentration_'
'component_'
'completely_'
'competitive_'
'competitions_'
'competency_'
'competencies_'
'commits_'
'commissioner_'
'comment_'
'combination_'
'combat_'
'column_'
'collection_'
'collaborative_'
'codes_'
'club_'
'closest_'
'closer_'
'clock_'
'click_'
'clause_'
'claims_'
'cities_'
'checkers_'
'channels_'
'championship_'
'challenged_'
'chair_'
'ceremonies_'
'century_'
'centralised_'
'celebrations_'
'celebrating_'
'caught_'
'cats_'
'captain_'
'calculator_'
'butse_'
'bus_'
'bursaries_'
'burial_'
'buiwa_'
'broader_'
'broadcast_'
'bringing_'
'bridge_'
'breeding_'
'break_'
'branding_'
'boundary_'
'boundaries_'
'botšhotšhisi_'
'botsofeng_'
'botlhokomedi_'
'botlhokatiro_'
'bothateng_'
'botennyeng_'
'botegeniki_'
'bonya_'
'bonweng_'
'bonetetshi_'
'bonela_'
'bonaleng_'
'bolumu_'
'bolotloa_'
'bolong_'
'bolokelang_'
'bolesome_'
'bolaya_'
'bokone_'
'boitekanelong_'
'boipelaetso_'
'boimana_'
'boikuelelo_'
'bogwebi_'
'bogisiwa_'
'bogisa_'
'bogare_'
'bofitlha_'
'boemakepe_'
'boelediwa_'
'bodiri_'
'bobotlana_'
'boatlhodi_'
'blogs_'
'blessed_'
'bit_'
'birthday_'
'biology_'
'bigger_'
'biditsweng_'
'betelela_'
'beneficial_'
'benchmarking_'
'belongs_'
'belonging_'
'beileng_'
'begela_'
'began_'
'beautiful_'
'beat_'
'batlwang_'
'basading_'
'barutegi_'
'bareetsi_'
'baptismal_'
'bapisa_'
'balemi_'
'balelela_'
'balelapa_'
'bail_'
'bahumanegi_'
'bagakolodi_'
'bafaladi_'
'babueledi_'
'babalela_'
'authored_'
'attract_'
'attitude_'
'attendance_'
'attempted_'
'atlege_'
'atlegang_'
'assure_'
'assent_'
'asking_'
'asbestos_'
'arbitration_'
'aquaculture_'
'approving_'
'approves_'
'applicants_'
'apparatus_'
'anti_'
'announcement_'
'analysts_'
'amilweng_'
'amega_'
'although_'
'alou_'
'alcohol_'
'akhaotong_'
'akgolwa_'
'akgolela_'
'akanyetsa_'
'akangwa_'
'agent_'
'affirmation_'
'affecting_'
'affect_'
'advertisements_'
'addresses_'
'acknowledges_'
'acid_'
'aches_'
'accept_'
'absolute_'
'abovementioned_'
'Young_'
'York_'
'Xhosa_'
'Wright_'
'Witrand_'
'Willemse_'
'Will_'
'Wessels_'
'Wellington_'
'Weldon_'
'Welcome_'
'Wekšhopo_'
'Website_'
'War_'
'Walter_'
'WTO_'
'WA_'
'WAT_'
'Voor_'
'Victoria_'
'Verster_'
'Various_'
'Value_'
'Using_'
'Unusual_'
'Unless_'
'Universities_'
'Universe_'
'US_'
'USSA_'
'UP_'
'UARM_'
'Tumalano_'
'Tshwaragano_'
'Tshekedi_'
'Truter_'
'Translators_'
'TransTips_'
'Total_'
'Together_'
'Tlisa_'
'Tlhomamiso_'
'Tlholego_'
'Tlhokomela_'
'Tleleniki_'
'Tlelapa_'
'Tlaleletso_'
'Tirisodikgoka_'
'Tiragatso_'
'Tinie_'
'Tikwatikwe_'
'Tiegiso_'
'Those_'
'Then_'
'Thailand_'
'Tetla_'
'Testing_'
'Temokerasi_'
'Tekanyetsokabo_'
'TSE_'
'TB_'
'Symmetry_'
'Super_'
'Summit_'
'Strategies_'
'Statistical_'
'Station_'
'Square_'
'Space_'
'Software_'
'Sobukwe_'
'Slabbert_'
'Siphiwe_'
'Simon_'
'Shelter_'
'Share_'
'Sewlall_'
'Setshwantsho_'
'Sesole_'
'Seminar_'
'Sekeresete_'
'Sedika_'
'Sebopego_'
'SSCSA_'
'SJGD_'
'SETŠHABA_'
'SCTE_'
'SAQA_'
'SAPTU_'
'SABC_'
'Roy_'
'Rooyen_'
'Rome_'
'Rock_'
'Rina_'
'Rick_'
'Riaan_'
'Reserve_'
'Reporting_'
'Rejisetareng_'
'Recently_'
'Reactor_'
'Rasiti_'
'Ranola_'
'Rail_'
'RRO_'
'RECORDS_'
'R4_'
'R25_'
'R15_'
'R136_'
'R125_'
'Qualifications_'
'QS_'
'Pukki_'
'Puiso_'
'Publications_'
'Psychology_'
'Protector_'
'Produce_'
'Processing_'
'Procedure_'
'Prepare_'
'Pre_'
'Potch_'
'Postgraduate_'
'Poraemari_'
'Popontshwa_'
'Pooe_'
'Politics_'
'Poelothuto_'
'Plans_'
'Pi_'
'Physiology_'
'Pharmacy_'
'Persons_'
'Partners_'
'Participation_'
'Papatso_'
'Pandor_'
'Palama_'
'Pabalesego_'
'Overs_'
'Outcomes_'
'Organisations_'
'Operations_'
'Oom_'
'Onkgopotse_'
'Olivier_'
'Officers_'
'Nursing_'
'Ntwa_'
'Notary_'
'Northern_'
'Ngwanatsele_'
'Network_'
'Naledi_'
'Myrtle_'
'Myra_'
'Mpho_'
'Motšhanselara_'
'Motseleganyi_'
'Motsamaisi_'
'Motlatsamoporesitente_'
'Motlatsamokanseleri_'
'Motlanthe_'
'Mothapiwa_'
'Morutabana_'
'Morei_'
'Morasefe_'
'Morafe_'
'Moporofesara_'
'Month_'
'Molaotheong_'
'Molaetsa_'
'Mokwaledi_'
'Mogolo_'
'Mogala_'
'Mogakolodi_'
'Mofuta_'
'Modulasetilo_'
'Moduela_'
'Modimo_'
'Modiini_'
'Moatlhodi_'
'Mmapa_'
'Ministerial_'
'Millennium_'
'Middle_'
'Metswedithuso_'
'Metswedi_'
'Melawana_'
'Melaotlhomo_'
'Me_'
'Masepeini_'
'Martie_'
'Mark_'
'Margaret_'
'Marc_'
'Manual_'
'Manane_'
'Mama_'
'Malatsi_'
'Maiteko_'
'Maintenance_'
'Mail_'
'Maikemisetso_'
'Magiseterata_'
'Mafatshe_'
'Mafaratlhatlha_'
'Maduo_'
'Mabaka_'
'MaAforikaborwa_'
'MKK_'
'Luthuli_'
'Lucas_'
'Louise_'
'Lokaleng_'
'Lo_'
'Literature_'
'Lions_'
'Leloko_'
'Lecture_'
'Lebaka_'
'L_'
'LRA_'
'LLB_'
'LA_'
'Kwazulu_'
'Kwadisa_'
'Kotane_'
'Kopaneng_'
'Komiting_'
'Kock_'
'Knowledge_'
'Kitsiso_'
'Kilometre_'
'Khutlisa_'
'Khopi_'
'Kholetšheng_'
'Kharikhulamo_'
'Kgwedi_'
'Kgotlatshekelokgolo_'
'Kgoeletso_'
'Kgatelopele_'
'Kgaso_'
'Katlholo_'
'Katlego_'
'Kamego_'
'K11_'
'Judicial_'
'Juanita_'
'Jakes_'
'Jacques_'
'J2_'
'Itumeleng_'
'Italy_'
'Investment_'
'Innovative_'
'Infrastructure_'
'Indonesia_'
'IO_'
'IN_'
'IM_'
'ICT_'
'Housing_'
'Household_'
'Heritage_'
'Helen_'
'Heever_'
'Having_'
'HEQF_'
'Gérard_'
'Greyling_'
'Graphikos_'
'Graphic_'
'Graceland_'
'Gontse_'
'Gold_'
'Give_'
'George_'
'Geneva_'
'G16_'
'French_'
'Franci_'
'Forums_'
'Fortunately_'
'Foromo1_'
'Forestry_'
'Flip_'
'Fisheries_'
'Festival_'
'Federation_'
'Family_'
'Facilities_'
'FAMU_'
'F5_'
'Expanded_'
'Existing_'
'Exemption_'
'Exco_'
'Excise_'
'Excellency_'
'Excel_'
'Evelyn_'
'Estates_'
'Enterprises_'
'Enan_'
'Elzané_'
'Edwards_'
'Editor_'
'Ebenso_'
'ERM_'
'EAP_'
'Du_'
'Does_'
'DoE_'
'Ditšhabakopano_'
'Ditonakgolo_'
'Ditlhagiso_'
'Ditlhaeletsano_'
'District_'
'Discuss_'
'Directors_'
'Dipolotiki_'
'Dipoelothuto_'
'Diphemiti_'
'Dipeeletso_'
'Dipalopalo_'
'Dijalo_'
'Diini_'
'Dielo_'
'Didiriso_'
'Didirisiwa_'
'Diatshe_'
'Debbie_'
'David_'
'Daniël_'
'Danie_'
'Daan_'
'DWA_'
'DIRA_'
'DALRO_'
'D1_'
'Czech_'
'Cronje_'
'Councils_'
'Cornelia_'
'Congratulations_'
'Comprehensive_'
'Composition_'
'Commercial_'
'Coloured_'
'Cobus_'
'Clinic_'
'Cilliers_'
'Chris_'
'Check_'
'Charlize_'
'Certification_'
'Casual_'
'Carol_'
'Career_'
'CD_'
'CARST_'
'C6_'
'Bula_'
'Bukakaelo_'
'Budget_'
'Breaks_'
'Box_'
'Botšhotšhisi_'
'Boraro_'
'Bophuthatswana_'
'Bopaki_'
'Books_'
'Booki_'
'Bokana_'
'Boikwadiso_'
'Bogosi_'
'Boeteledipele_'
'Boditšhaba_'
'Bobalamatlotlo_'
'Best_'
'Besides_'
'Being_'
'Behavioural_'
'Before_'
'Beer_'
'Bay_'
'Batshabi_'
'Batsadi_'
'Batlhatlhobi_'
'Batla_'
'Barcelona_'
'Banna_'
'Banks_'
'Bangwe_'
'Bagatisi_'
'Baeng_'
'Badirammogo_'
'Bacher_'
'BA_'
'Australia_'
'Auditor_'
'Attie_'
'Astrovilla_'
'AsgiSA_'
'Array_'
'Approximately_'
'Anyone_'
'Anybody_'
'Antwerpen_'
'Annual_'
'Ann_'
'Anglo_'
'Amogela_'
'America_'
'Akanya_'
'Advisory_'
'Advise_'
'Access_'
'ARC_'
'AHI_'
'96_'
'89_'
'83_'
'8111_'
'76_'
'73_'
'71_'
'67_'
'61_'
'54_'
'529_'
'514_'
'46_'
'43_'
'419_'
'236_'
'1991_'
'1983_'
'1913_'
'182_'
'16h30_'
'167_'
'166_'
'132_'
'121_'
'08600_'
'. )_'
'% ) _'
' . , _'
' . " _'
' , . _'
' , , _'
' ) -_'
' '_'
'Łódź_'
'yunibesithi_'
'youngest_'
'yes_'
'worst_'
'worksheet_'
'wooden_'
'wisdom_'
'windows_'
'whereby_'
'whenever_'
'wheels_'
'whatever_'
'welding_'
'wekšhopo_'
'weekly_'
'websaeteng_'
'wear_'
'weapon_'
'warn_'
'wards_'
'ward_'
'wait_'
'volunteer_'
'voices_'
'visiting_'
'veterinarian_'
'venereal_'
'valued_'
'vaccination_'
'v_'
'utmost_'
'utility_'
'utilise_'
'utilisation_'
'utensils_'
'useless_'
'usage_'
'upper_'
'updated_'
'unveiled_'
'unrest_'
'unlimited_'
'unlawful_'
'universal_'
'ungwa_'
'unfair_'
'undoubtedly_'
'undertakings_'
'understands_'
'underpayment_'
'umakilwe_'
'tšheke_'
'twice_'
'turnaround_'
'tumelelano_'
'tuelongtlase_'
'tsweng_'
'tswelelapele_'
'tshwariwang_'
'tshwarelwang_'
'tshwarela_'
'tshwaragano_'
'tshwaraganeng_'
'tshwanetswe_'
'tshwailweng_'
'tshwaetsa_'
'tshotsweng_'
'tshotse_'
'tshotlako_'
'tshosobanyo_'
'tshololang_'
'tsholo_'
'tsholetso_'
'tshobokanyo_'
'tshitshinngwa_'
'tshisinyo_'
'tshipi_'
'tshenyegelo_'
'tshekatshekong_'
'tshegisang_'
'tshegediwang_'
'tshedimosetsano_'
'tshabileng_'
'tsetsepetseng_'
'tsepame_'
'tsenyeng_'
'tsenyeletswa_'
'tsenyeletse_'
'tsenye_'
'tsenwe_'
'tsenwang_'
'tsenwa_'
'tsentseng_'
'tsentse_'
'tsenelang_'
'tseiwa_'
'tseela_'
'tsamaisang_'
'tsamaisane_'
'tsamaelang_'
'tsalane_'
'tsalana_'
'trustees_'
'troubled_'
'troposphere_'
'tropical_'
'triplicate_'
'triple_'
'tribunal_'
'tribal_'
'trends_'
'treats_'
'transparent_'
'transparency_'
'transnational_'
'transforming_'
'tradition_'
'tournaments_'
'tourists_'
'touches_'
'totobatsa_'
'toropokgolo_'
'tops_'
'topotuelo_'
'tona_'
'tokologo_'
'tokafaditse_'
'togwa_'
'tlotlwe_'
'tlotlomatsa_'
'tlotlofoko_'
'tlolo_'
'tlogetswe_'
'tlhophileng_'
'tlhomolola_'
'tlhomelwa_'
'tlhomamisang_'
'tlhokwang_'
'tlhokomologo_'
'tlhokeng_'
'tlhokegeng_'
'tlhatloga_'
'tlhatlhamololwa_'
'tlhaolela_'
'tlhamilwe_'
'tlhame_'
'tlhaloseditse_'
'tlhalose_'
'tlhaloganyang_'
'tlhakoretharo_'
'tlhakanngwang_'
'tlhakanngwa_'
'tlhakanetsweng_'
'tlhagisitswe_'
'tlhagafalo_'
'tlhaeletsana_'
'tlhabololeng_'
'tleteng_'
'tlelereke_'
'tlametswe_'
'tlalelo_'
'tirisobotlhaswa_'
'tip_'
'tiori_'
'timetseng_'
'timber_'
'tilwe_'
'tiger_'
'tick_'
'thwalo_'
'thutopatlisiso_'
'thutokatiso_'
'thutiso_'
'thutego_'
'thulaganyetso_'
'thubegileng_'
'threatens_'
'threatening_'
'thousands_'
'thoromo_'
'thibelwa_'
'theromelao_'
'thermometer_'
'thepiso_'
'theko_'
'thekiso_'
'thefosanyo_'
'thatathata_'
'thapilwe_'
'thapang_'
'testimony_'
'territorial_'
'terata_'
'terasete_'
'tenure_'
'temoso_'
'tema_'
'tefo_'
'technician_'
'tebosešwa_'
'tea_'
'tasked_'
'taolwana_'
'taolelo_'
'tall_'
'tafoleng_'
'tables_'
'tabled_'
'symposium_'
'symmetry_'
'symbol_'
'sweet_'
'surrounding_'
'surely_'
'supporters_'
'supplies_'
'supetsa_'
'supervisor_'
'summon_'
'summer_'
'summary_'
'successes_'
'succeed_'
'substantially_'
'subsidy_'
'subjected_'
'subitem_'
'stumbling_'
'stuff_'
'studying_'
'structured_'
'structural_'
'street_'
'strain_'
'storms_'
'stones_'
'stimulating_'
'stimulate_'
'steam_'
'stars_'
'stands_'
'stabilising_'
'spreading_'
'spraying_'
'spray_'
'spot_'
'sportsmen_'
'sporting_'
'sponsorships_'
'spoke_'
'spinal_'
'specimen_'
'specialists_'
'specialist_'
'sovereignty_'
'sounds_'
'sotlhe_'
'somewhat_'
'somebody_'
'solofetsweng_'
'solofetsa_'
'solegela_'
'soda_'
'smoke_'
'smile_'
'slowly_'
'sireletsegang_'
'sirelediwa_'
'simulation_'
'simolotseng_'
'similarities_'
'silver_'
'silica_'
'sight_'
'siametse_'
'siamela_'
'showing_'
'shot_'
'shortage_'
'shelters_'
'sheep_'
'shedding_'
'shareholders_'
'shape_'
'sex_'
'sewing_'
'setsong_'
'setshodi_'
'setshaba_'
'setlha_'
'serweboleta_'
'serutweng_'
'serolwana_'
'seripa_'
'sephiring_'
'senyetsa_'
'senteramo_'
'senolwe_'
'senna_'
'sends_'
'senator_'
'senatla_'
'semesetara_'
'selula_'
'selekanyong_'
'seleele_'
'sekisiwa_'
'sekepe_'
'sekae_'
'seka_'
'sejana_'
'seize_'
'sefatlhego_'
'seeng_'
'seeks_'
'seeker_'
'seeing_'
'sea_'
'scrutinised_'
'scourge_'
'scientist_'
'scholarly_'
'scheduled_'
'scene_'
'scams_'
'scam_'
'saved_'
'sars_'
'santana_'
'sanitary_'
'sampling_'
'sample_'
'salt_'
'safer_'
'saenile_'
'saekholoji_'
'ruteng_'
'runoff_'
'rulaganyeng_'
'rulaganeng_'
'rre_'
'route_'
'rounding_'
'romelele_'
'rock_'
'robala_'
'roba_'
'rivers_'
'rise_'
'rialo_'
'rhino_'
'reye_'
'rewarded_'
'revolutionary_'
'reviewing_'
'revamp_'
'restructuring_'
'restore_'
'response_'
'respects_'
'resolves_'
'resiti_'
'reservist_'
'reserves_'
'reservation_'
'reproduce_'
'repoto_'
'repetitive_'
'renew_'
'renaissance_'
'remove_'
'remote_'
'remedy_'
'remarkable_'
'remaining_'
'rely_'
'relevance_'
'relatively_'
'rekwang_'
'rekisiwang_'
'rekang_'
'regulation_'
'regulating_'
'regardless_'
'refosana_'
'reflects_'
'referring_'
'referral_'
'referendum_'
'recycling_'
'rectors_'
'rectangular_'
'recreation_'
'recorder_'
'rebolwang_'
'reboletsweng_'
'reaction_'
'reaching_'
'rapport_'
'rapidly_'
'rapelela_'
'ranta_'
'ranotsweng_'
'rainfall_'
'quote_'
'quota_'
'questionnaires_'
'pursue_'
'purchase_'
'pump_'
'psychologists_'
'provident_'
'proved_'
'prove_'
'protest_'
'protecting_'
'prosperity_'
'prospect_'
'prosecution_'
'proposals_'
'proportional_'
'pronominal_'
'promptly_'
'promising_'
'prominent_'
'projected_'
'programming_'
'professionals_'
'proceeds_'
'proceed_'
'probably_'
'pro_'
'prioritised_'
'prioritise_'
'primitive_'
'pricing_'
'prevails_'
'prevailing_'
'prevail_'
'press_'
'presents_'
'presenters_'
'prescribes_'
'preschools_'
'prepares_'
'preferential_'
'preferences_'
'precious_'
'praise_'
'practicable_'
'powder_'
'possibility_'
'possessive_'
'positioned_'
'porokerameng_'
'porofešenale_'
'pop_'
'pool_'
'pompo_'
'politics_'
'politicians_'
'polelwana_'
'poem_'
'poelano_'
'plaque_'
'pilediwa_'
'piece_'
'pictures_'
'piano_'
'phutlhama_'
'phulo_'
'photos_'
'photograph_'
'phopholetso_'
'phiketa_'
'phetelela_'
'phepafatso_'
'phelang_'
'phela_'
'phatlhatiro_'
'phatlaletseng_'
'phatlalatseng_'
'phased_'
'pharologanyo_'
'peteroliamo_'
'petelelo_'
'patterns_'
'paterone_'
'pateletso_'
'pasture_'
'passionate_'
'paseporoto_'
'panele_'
'pampiritiro_'
'pampiring_'
'palotatelano_'
'palelwa_'
'palama_'
'pakiwa_'
'pakang_'
'painting_'
'pains_'
'packed_'
'pace_'
'pabalesegong_'
'p8_'
'outdoor_'
'otsela_'
'oriented_'
'orientations_'
'organic_'
'ores_'
'operative_'
'operates_'
'oketsang_'
'okeditsweng_'
'okameng_'
'oka_'
'oil_'
'offender_'
'observer_'
'nyetseng_'
'nyeletse_'
'nyatsa_'
'nyalanang_'
'nutrients_'
'nursery_'
'nurse_'
'ntweng_'
'ntshodikuno_'
'ntshediwa_'
'ntlong_'
'noxious_'
'noun_'
'nonyane_'
'nonotsha_'
'none_'
'nominations_'
'nnelete_'
'nko_'
'nke_'
'ninety_'
'ngwna_'
'ngwao_'
'ngokang_'
'ngk_'
'newsletter_'
'netefaditsweng_'
'netefaditse_'
'netball_'
'nepo_'
'nepagalo_'
'neileng_'
'negotiated_'
'neetseng_'
'neelaneng_'
'needy_'
'neck_'
'necessity_'
'necessarily_'
'nayo_'
'nations_'
'namana_'
'mutual_'
'multiple_'
'multimedia_'
'moving_'
'motto_'
'motsing_'
'motlhatlheledimogolo_'
'motlatsamokanseliri_'
'mothusi_'
'mothusa_'
'mothers_'
'mosetsana_'
'mosele_'
'morwalo_'
'morwa_'
'morutwana_'
'moruo_'
'moruni_'
'moroto_'
'morongwa_'
'morning_'
'moporof_'
'moporesitente_'
'mophatong_'
'monnye_'
'mongoose_'
'monetetshi_'
'momaganyo_'
'momagano_'
'molatofadiwa_'
'mokopatshireletso_'
'mokgethi_'
'mokete_'
'moja_'
'mogokaganyi_'
'mofero_'
'moeng_'
'modiredi_'
'modirammogo_'
'modiragatsi_'
'modified_'
'modelling_'
'mobiletswatshekong_'
'moatlhodi_'
'moakatemi_'
'mmusong_'
'mmopi_'
'mmegadikgang_'
'mmarakeng_'
'mmaagwe_'
'mins_'
'ministerial_'
'mindset_'
'milestone_'
'metswedithuso_'
'meters_'
'messages_'
'meraba_'
'mentsintsi_'
'mentorship_'
'memorantamo_'
'mellitus_'
'melaetsa_'
'mekgatlo_'
'mekamekana_'
'mefuteng_'
'medically_'
'medi_'
'meat_'
'meantime_'
'meals_'
'matlhakoreng_'
'matlafatso_'
'match_'
'massive_'
'masome_'
'masaledi_'
'marelize_'
'marekelo_'
'marataro_'
'maotwana_'
'maotong_'
'manuscripts_'
'manufactured_'
'manipulators_'
'malobeng_'
'malicious_'
'malapeng_'
'makoa_'
'makaleng_'
'maitshetlego_'
'maitseboeng_'
'maintaining_'
'mainstream_'
'mailto_'
'magiseterata_'
'magaeng_'
'mafelotiro_'
'mafatsheng_'
'maatlametlo_'
'ma_'
'lwalang_'
'lotsenong_'
'loruo_'
'lorole_'
'lookwane_'
'logo_'
'loga_'
'localisation_'
'lobelo_'
'lobakeng_'
'livestock_'
'literary_'
'listing_'
'liquid_'
'lines_'
'likes_'
'lifting_'
'lifelong_'
'licensed_'
'liberty_'
'liberation_'
'lešwa_'
'lewatleng_'
'levied_'
'letsholong_'
'letsapa_'
'letlotlo_'
'letlhomeso_'
'letlheng_'
'letlhakoreng_'
'letleletswe_'
'letle_'
'lesela_'
'lesedi_'
'lerole_'
'lereo_'
'lere_'
'leotwana_'
'leokwane_'
'lentswe_'
'lentle_'
'lenaneng_'
'lemogiwa_'
'lekolwa_'
'lekgeto_'
'lekanyediwa_'
'lekang_'
'lekalekaneng_'
'legorong_'
'legaufi_'
'legalisation_'
'lefiswa_'
'lefelotshireletso_'
'lefela_'
'leetong_'
'leele_'
'leeds_'
'lecturing_'
'lebotlolo_'
'leboko_'
'lebogile_'
'lebileng_'
'lebelong_'
'lebelelwang_'
'lebato_'
'learnerships_'
'launching_'
'laude_'
'latlhegileng_'
'latedisa_'
'larger_'
'largely_'
'lapses_'
'lapa_'
'landscaping_'
'landowner_'
'landmark_'
'landing_'
'kwalolola_'
'kwadiseditswe_'
'kopotuelo_'
'kopantsha_'
'kopanelo_'
'kopanela_'
'kopanang_'
'konoseditswe_'
'konopo_'
'kokoanngwa_'
'koko_'
'kofi_'
'koafatsa_'
'knowledgeable_'
'kitsisong_'
'kitlang_'
'khumo_'
'khemiso_'
'khemikhale_'
'khanselwa_'
'khampani_'
'khabone_'
'kgotsofetse_'
'kgotsofatsang_'
'kgotlhatshekelo_'
'kgotlatshekolong_'
'kgotla_'
'kgoreletso_'
'kgono_'
'kgomaretsa_'
'kgolamararo_'
'kgoeletso_'
'kgobokong_'
'kgobelelo_'
'kgeleloleswe_'
'kgatsha_'
'kgaratlhela_'
'kgapetsakgapetsa_'
'kganela_'
'kereiting_'
'kemokgatlhanong_'
'keen_'
'katisong_'
'karo_'
'karabo_'
'kapeso_'
'kamego_'
'kalo_'
'kakanyong_'
'kaetso_'
'kaeding_'
'kabinete_'
'kabelotiro_'
'joy_'
'journalism_'
'jetsweng_'
'jar_'
'itumedisa_'
'itstshetlego_'
'itsiweng_'
'itshetlega_'
'itshepa_'
'itlhophela_'
'itlhomela_'
'itlhaotse_'
'itlhagise_'
'ithutile_'
'ithutelang_'
'isiwang_'
'isang_'
'irrespective_'
'irregularities_'
'iron_'
'iperekang_'
'ipelela_'
'inšorense_'
'involving_'
'investigations_'
'investigating_'
'intricate_'
'intranet_'
'intergovernmental_'
'intent_'
'intensive_'
'intends_'
'integrity_'
'intasetering_'
'insurance_'
'instrumental_'
'instructions_'
'instruct_'
'instituted_'
'institute_'
'instances_'
'inspect_'
'initial_'
'infoleišene_'
'info_'
'inflation_'
'infectious_'
'ineetse_'
'industrialisation_'
'individually_'
'index_'
'incurred_'
'incomplete_'
'incomes_'
'inclusive_'
'incitement_'
'incidence_'
'inauguration_'
'improvements_'
'imprisonment_'
'imports_'
'importing_'
'implies_'
'implied_'
'implications_'
'impacts_'
'immunisation_'
'immigration_'
'illustrate_'
'illegal_'
'ill_'
'ikopanya_'
'ikemiseditseng_'
'ikarabela_'
'ikana_'
'ikaeletsweng_'
'ikaego_'
'idibala_'
'ideals_'
'iPad_'
'hunderd_'
'humanity_'
'humanegileng_'
'horse_'
'honed_'
'hometown_'
'hit_'
'historic_'
'hira_'
'himself_'
'hidden_'
'hema_'
'helping_'
'heliosefere_'
'heights_'
'height_'
'heating_'
'hear_'
'happening_'
'handles_'
'handled_'
'handicap_'
'ha_'
'gwetlha_'
'guests_'
'guards_'
'guarantees_'
'guarantee_'
'groundwater_'
'grievous_'
'grey_'
'grandparents_'
'gontsinyana_'
'gonnye_'
'gololosegileng_'
'golola_'
'golfing_'
'gole_'
'gokaganya_'
'gogela_'
'gogang_'
'goeleditsweng_'
'godingwana_'
'glossaries_'
'glory_'
'gerata_'
'geometry_'
'geometrical_'
'gear_'
'gatisitswe_'
'gatisitseng_'
'gatisitse_'
'gathered_'
'gatelelang_'
'gasagasang_'
'gasa_'
'gardening_'
'gapileng_'
'ganetsang_'
'gakgamatsang_'
'gaisitseng_'
'gagolo_'
'fusion_'
'fungus_'
'fraternity_'
'fraction_'
'founding_'
'forty_'
'forgery_'
'foreše_'
'forever_'
'foot_'
'folaga_'
'fokotsegile_'
'fokodiwa_'
'fofa_'
'fm_'
'fluid_'
'flows_'
'flower_'
'flash_'
'fiwe_'
'fitlhileng_'
'fitlhetse_'
'fitlhelelwe_'
'fisika_'
'firms_'
'firearm_'
'fingers_'
'finds_'
'finalists_'
'films_'
'figure_'
'fibre_'
'fewer_'
'fetsang_'
'fetotswe_'
'fetogeng_'
'fetisitsweng_'
'fetisitswe_'
'fetisetsa_'
'fertilizers_'
'felo_'
'feleletseng_'
'fele_'
'feeling_'
'feed_'
'federation_'
'fear_'
'farms_'
'faposa_'
'false_'
'faele_'
'facilitated_'
'extreme_'
'extract_'
'exporting_'
'exploitation_'
'expire_'
'experiments_'
'experiment_'
'expect_'
'executor_'
'execution_'
'evident_'
'etse_'
'ethnic_'
'eteletse_'
'estimation_'
'estimate_'
'eradicate_'
'equivalent_'
'epa_'
'entrusted_'
'entrepreneurship_'
'entrepreneurs_'
'enrollment_'
'enrolled_'
'enjoys_'
'enjoyable_'
'enjene_'
'enhancing_'
'enhances_'
'engwa_'
'engines_'
'engaged_'
'enforceable_'
'encourages_'
'emisa_'
'emergencies_'
'embasing_'
'emails_'
'elite_'
'eliminate_'
'elevator_'
'eletsege_'
'ele_'
'elaborate_'
'eighteen_'
'efficiently_'
'editors_'
'ebile_'
'eat_'
'east_'
'earning_'
'eFundi_'
'dumelane_'
'duedisediwa_'
'dual_'
'drink_'
'drawing_'
'double_'
'doors_'
'dolls_'
'dogs_'
'doesn_'
'diversion_'
'ditšheleteng_'
'ditšheke_'
'ditumelano_'
'ditulo_'
'ditswantle_'
'ditshweetso_'
'ditshego_'
'ditshedi_'
'ditsereganyo_'
'ditlhotlhwa_'
'ditlhotlhomiso_'
'ditlhopheng_'
'ditlamego_'
'ditlabakelo_'
'ditiriso_'
'ditirelong_'
'dithulaganyetso_'
'ditherasete_'
'dithebolelo_'
'diterekere_'
'ditemeteme_'
'diteišene_'
'districts_'
'distinction_'
'dishonesty_'
'disengagement_'
'discount_'
'disciplines_'
'disaga_'
'dirutweng_'
'diriwang_'
'dirisitswe_'
'dirisetswa_'
'diriseng_'
'dirisediwang_'
'dirisediwa_'
'direlwa_'
'dipuso_'
'dipula_'
'dipounama_'
'dipopo_'
'dipolotiking_'
'dipolelopalo_'
'dipolasetiki_'
'diphatlho_'
'diphatlha_'
'dipeeletso_'
'dipalopalo_'
'diokobatsi_'
'dinyaga_'
'dintshwa_'
'dintle_'
'dinoka_'
'dineo_'
'dinakong_'
'dimitara_'
'dimensional_'
'dimelametsing_'
'dimedi_'
'diligently_'
'dikopanong_'
'dikokoano_'
'dikoko_'
'dikoketso_'
'dikobo_'
'dikhuduego_'
'dikhoutu_'
'dikhemikale_'
'dikgwebong_'
'dikgotlhang_'
'dikgonagalo_'
'dikgolwane_'
'dikgabo_'
'dikatlenegiso_'
'dijenaleng_'
'digwele_'
'digits_'
'digital_'
'digestive_'
'dibebofatsi_'
'diatshe_'
'diagrammatic_'
'devoted_'
'devices_'
'deterioration_'
'destruction_'
'desire_'
'designs_'
'designer_'
'deserving_'
'describes_'
'deprived_'
'dependence_'
'departure_'
'density_'
'demonstration_'
'demographics_'
'delivering_'
'delegate_'
'dehydration_'
'definition_'
'deficit_'
'deferment_'
'defect_'
'defeating_'
'defeat_'
'deep_'
'deeds_'
'deduct_'
'decides_'
'deals_'
'damaged_'
'cubic_'
'crucial_'
'critically_'
'crimes_'
'cow_'
'coveted_'
'coverage_'
'courage_'
'counts_'
'cotton_'
'costing_'
'corresponding_'
'corn_'
'copper_'
'coordinating_'
'cooperatives_'
'converted_'
'contrast_'
'contractors_'
'continuity_'
'contents_'
'contacted_'
'consular_'
'constructing_'
'constantly_'
'constant_'
'consistently_'
'consistency_'
'consist_'
'considers_'
'conservation_'
'consequences_'
'consciousness_'
'connections_'
'conjunctivitis_'
'conjunction_'
'congress_'
'congratulations_'
'confirm_'
'concerts_'
'concerns_'
'compound_'
'complying_'
'compliment_'
'compensation_'
'comparable_'
'communications_'
'communicates_'
'committing_'
'commerce_'
'colonial_'
'colleges_'
'coaching_'
'clinics_'
'cleanliness_'
'chronological_'
'choirs_'
'cheques_'
'cheque_'
'chemicals_'
'checkbox_'
'chartered_'
'charity_'
'characteristic_'
'character_'
'chances_'
'chairs_'
'chairman_'
'certainty_'
'cent_'
'cellphone_'
'causes_'
'cater_'
'carefully_'
'careers_'
'canvass_'
'cane_'
'cancer_'
'cancelled_'
'cancellation_'
'campaigns_'
'calculations_'
'burden_'
'bukathutong_'
'builds_'
'bue_'
'brush_'
'broken_'
'broke_'
'brief_'
'breast_'
'boša_'
'boyone_'
'boutu_'
'botseno_'
'botsayakarolo_'
'botlhoki_'
'bothito_'
'bosi_'
'bosaense_'
'borutegi_'
'boripana_'
'boraše_'
'bopuontsi_'
'bopilweng_'
'bopile_'
'bopelonomi_'
'bopang_'
'bookelo_'
'bonweenwee_'
'bongola_'
'bonagala_'
'bolosika_'
'bolokwa_'
'bolokilweng_'
'bolemirui_'
'bolelelwa_'
'bokhutshwane_'
'bokhuduthamaga_'
'bokebekwa_'
'boitshegang_'
'boikueleo_'
'boikokobetso_'
'boikgantsho_'
'boikanyego_'
'bogosing_'
'bogosi_'
'bogautshwaneng_'
'bogale_'
'boeteledipeleng_'
'boetapele_'
'boemomg_'
'bodutu_'
'boditshabatshaba_'
'bobone_'
'bobalamatlotlo_'
'bladder_'
'bitswa_'
'biofuels_'
'bio_'
'binds_'
'bidio_'
'beloved_'
'belegweng_'
'belegwa_'
'belega_'
'belaelwang_'
'beili_'
'beile_'
'bege_'
'begang_'
'beforehand_'
'beelwa_'
'bebofatsa_'
'bayang_'
'battery_'
'batsayakarolong_'
'batsamaya_'
'batsamaisi_'
'batlhagisi_'
'batlega_'
'batlamedi_'
'basweu_'
'baseline_'
'barulaganyi_'
'barrier_'
'baromelantle_'
'bareki_'
'bapileng_'
'bantšhwa_'
'bantshadikuno_'
'banni_'
'banneng_'
'baneng_'
'bane_'
'balwetse_'
'ball_'
'balela_'
'bakwa_'
'bakopi_'
'baithuta_'
'baduelalekgetho_'
'badirimmogo_'
'badirakopo_'
'badiragatsi_'
'bad_'
'baby_'
'babopi_'
'babalesegile_'
'baagisani_'
'authors_'
'authentic_'
'auditors_'
'audience_'
'attorneys_'
'atswiwa_'
'atolosiwa_'
'atmospheric_'
'atlholwe_'
'atlholwa_'
'athikeleng_'
'astrophysics_'
'asthma_'
'assisted_'
'asses_'
'assembly_'
'aspiring_'
'aspect_'
'asks_'
'aside_'
'artistic_'
'artist_'
'aquatic_'
'approaches_'
'approached_'
'appointments_'
'appendix_'
'apparent_'
'apesa_'
'ape_'
'apareteiti_'
'answering_'
'anameng_'
'amp_'
'amogelwang_'
'amogelesegang_'
'amogelelang_'
'ameng_'
'ambassador_'
'alphabet_'
'alliance_'
'alleviation_'
'alleges_'
'align_'
'alafiwa_'
'akanye_'
'akantse_'
'ajenda_'
'agela_'
'agang_'
'affects_'
'advocate_'
'advises_'
'advisable_'
'advertised_'
'administering_'
'adjustments_'
'adherence_'
'adhered_'
'adds_'
'acts_'
'acquisition_'
'acquired_'
'acknowledged_'
'accurately_'
'accountant_'
'accordingly_'
'abusive_'
'abstract_'
'absolutely_'
'abortion_'
'abilweng_'
'Zurich_'
'Zone_'
'Zibi_'
'Zhang_'
'Zealand_'
'Z204_'
'Yuniting_'
'Yone_'
'Yolande_'
'Yet_'
'Writers_'
'Write_'
'Workplace_'
'Wood_'
'Wits_'
'Wilna_'
'Willie_'
'Williams_'
'Willem_'
'Wessie_'
'Wena_'
'Welfare_'
'Wednesday_'
'Websites_'
'Watt_'
'Wa_'
'Vrije_'
'Volkskool_'
'Vista_'
'Villiers_'
'Vermeulen_'
'Vereeniging_'
'Vacancies_'
'Up_'
'Until_'
'Unifix_'
'Undergraduate_'
'UODL_'
'UNCCD_'
'Types_'
'Turkey_'
'Tshobokanyo_'
'Tsepamo_'
'Tsenya_'
'Trustees_'
'Travel_'
'Transnet_'
'Translator_'
'Translate_'
'Top_'
'Tom_'
'Tlwaelo_'
'Tlhotlhomiso_'
'Tlhomelo_'
'Tlhoko_'
'Tlhaelo_'
'Tlaya_'
'Tikologong_'
'Through_'
'Three_'
'Thirty_'
'Therefore_'
'Thembisile_'
'Thebolo_'
'Thata_'
'Thank_'
'Test_'
'Tender_'
'Tekatekano_'
'Technikon_'
'Tebang_'
'Team_'
'Taxes_'
'Tanzania_'
'TOTAL_'
'TM1_'
'Suzan_'
'Susu_'
'Susana_'
'Supplemental_'
'Sun_'
'Sullivan_'
'Strauss_'
'Strategy_'
'Strategic_'
'Store_'
'Storage_'
'Stidworthy_'
'Stefan_'
'Stef_'
'Steenkamp_'
'Speech_'
'Spatial_'
'Soweto_'
'Solving_'
'Solomon_'
'Solar_'
'Sitlholola_'
'Show_'
'Several_'
'Setswaneng_'
'Setshaba_'
'Setlhoeng_'
'Series_'
'Serenaders_'
'Serbia_'
'Seo_'
'Sengwe_'
'Senete_'
'Senegal_'
'Selekano_'
'Sekgele_'
'Seesimaneng_'
'Seepe_'
'Sedibe_'
'Secretary_'
'Secondly_'
'Secondary_'
'Sebokeng_'
'Sebidi_'
'Seakatemi_'
'Seaferikanse_'
'Scientific_'
'Schultz_'
'Scholarship_'
'Schoeman_'
'Scheepers_'
'Schalk_'
'Save_'
'Sanlam_'
'San_'
'Samuel_'
'Sakai_'
'Saena_'
'SMME_'
'SGI_'
'SE_'
'SETA_'
'SC_'
'SAVC_'
'SASL_'
'SANTHF_'
'SABS_'
'SAALT_'
'S2A3_'
'Rutang_'
'Rustenburg_'
'Rural_'
'Rupert_'
'Ruling_'
'Rules_'
'Rulaganya_'
'Rrengaka_'
'Roxanne_'
'Rost_'
'Rossouw_'
'Room_'
'Roode_'
'Ronel_'
'Road_'
'Rikus_'
'Rika_'
'Ria_'
'Revised_'
'Retirement_'
'Researcher_'
'Representatives_'
'Religious_'
'Rehana_'
'Region_'
'Refugee_'
'Reform_'
'Reduce_'
'Reds_'
'Red_'
'Record_'
'Rebecca_'
'Rebaone_'
'Readers_'
'Reader_'
'Randse_'
'Rakobane_'
'RDP_'
'RAU_'
'R7_'
'R6_'
'R400_'
'R350_'
'R273_'
'R270_'
'R190_'
'R120_'
'R114_'
'R100_'
'Quest_'
'Pukkie_'
'Publishing_'
'Publication_'
'Pty_'
'Prosecutions_'
'Property_'
'Promotion_'
'Projects_'
'Programmes_'
'Professor_'
'Professions_'
'Production_'
'Producers_'
'Problem_'
'Probability_'
'Present_'
'Practices_'
'Powers_'
'Poverty_'
'Postal_'
'Portia_'
'Porofenseng_'
'Poraefete_'
'Polokesego_'
'Political_'
'Policies_'
'Plooy_'
'Place_'
'Pisani_'
'Philip_'
'Pharakano_'
'Petunia_'
'Peteroliamo_'
'Pertunia_'
'Perspective_'
'Permits_'
'Peet_'
'Peeletso_'
'Pebble_'
'Pearce_'
'Peace_'
'Pataganya_'
'Party_'
'Participate_'
'Part_'
'Parole_'
'Park_'
'Palogotlhe_'
'Paka_'
'Paarl_'
'Paakanyo_'
'PPS_'
'PATLISISO_'
'PANSALB_'
'PANDEMIC_'
'Owner_'
'Oversight_'
'Overall_'
'Outstanding_'
'Oscar_'
'Organised_'
'Optentia_'
'Oppikoppi_'
'Operation_'
'Older_'
'Oath_'
'Number_'
'Ntšhwafatso_'
'Ntetleng_'
'Now_'
'Northwest_'
'Noot_'
'Nnyaa_'
'Nigeria_'
'Niel_'
'Nicola_'
'Ngwanaatsele_'
'Nguni_'
'Ngogola_'
'News_'
'Neteweke_'
'Neela_'
'Nang_'
'Nadia_'
'NOT_'
'NFPD_'
'NCO_'
'Municipality_'
'Multi_'
'Muller_'
'Mss_'
'Moyaga_'
'Motlatsaporinsipala_'
'Motlatsamodulasetulo_'
'Mothobi_'
'Mothapi_'
'Mosimege_'
'Moruni_'
'Moporofesa_'
'Mooki_'
'Mooi_'
'Monnasetilo_'
'Moletlo_'
'Molaotlhabololo_'
'Mokoena_'
'Mokhomišinara_'
'Mokgothu_'
'Mokanseliri_'
'Moikanisi_'
'Moeng_'
'Modular_'
'Modirediloago_'
'Modiredi_'
'Modelling_'
'Moagi_'
'MoU_'
'Mittal_'
'Miss_'
'Minstrels_'
'Ministry_'
'Mine_'
'Metšhini_'
'Metsotso_'
'Metropolitan_'
'Mesola_'
'Memorantamo_'
'Memorandum_'
'Member_'
'Melemo_'
'Mekgele_'
'Mefuta_'
'Meetings_'
'Medupi_'
'McCann_'
'Mbenga_'
'Mbeki_'
'Mbatha_'
'Max_'
'Matlafatso_'
'Mathews_'
'Mass_'
'Masepala_'
'Marx_'
'MarkWrite_'
'Marina_'
'Marilyn_'
'Marietjie_'
'Marieta_'
'Mariba_'
'Manyalo_'
'Mametlelelong_'
'Makwalo_'
'Majesty_'
'Maitemogelo_'
'Maikutlo_'
'Maikatlapelo_'
'Mahlangu_'
'Maharaj_'
'Maggie_'
'Magareng_'
'Mafapha_'
'Madré_'
'Madoda_'
'Madelein_'
'Ma_'
'MSc_'
'MINTEK_'
'MINISTER_'
'MGB_'
'Lucia_'
'Lotto_'
'Loss_'
'Lombard_'
'Lodge_'
'Localisation_'
'Literary_'
'List_'
'Life_'
'Lephata_'
'Lenaneothuto_'
'Lebelela_'
'Leader_'
'Larney_'
'Laola_'
'Laeborari_'
'Labuschagne_'
'Laboraro_'
'Küng_'
'Kühne_'
'Kroonstad_'
'Krakow_'
'Kotze_'
'Kotlo_'
'Koraan_'
'Kopanetsweng_'
'Komišenara_'
'Koketso_'
'Know_'
'Knight_'
'Kitlano_'
'Khudutamaga_'
'Khoutu_'
'Khoso_'
'Khomišeneng_'
'Khemi_'
'Khalique_'
'Kgweranaditšhaba_'
'Kgotlatshekelong_'
'Kgopolo_'
'Kgonagalo_'
'Kgololosego_'
'Kgololesego_'
'Kgatiso_'
'Ketlaphela_'
'Kemisetso_'
'Kemedi_'
'Kekana_'
'Keating_'
'Karolwana_'
'Karin_'
'Karabo_'
'Kantorong_'
'Kalafi_'
'Kakanyo_'
'Kagong_'
'Kabogape_'
'K21_'
'Judiciary_'
'Judge_'
'Joshua_'
'Joon_'
'Jongh_'
'Johannes_'
'Johanna_'
'Jo_'
'Jenny_'
'Jansen_'
'Jane_'
'Jacky_'
'J_'
'JJ_'
'Ivan_'
'Inthanete_'
'Interpretation_'
'Intellectual_'
'Intaseteri_'
'Instruction_'
'Indicate_'
'Indaba_'
'Illustrate_'
'Ikateleng_'
'Ig_'
'ITC_'
'IT3_'
'ISBN_'
'IP_'
'INFLUENZA_'
'IISAMM_'
'IALB_'
'Huyser_'
'Hutchins_'
'Hungary_'
'Hugo_'
'Hotele_'
'Honours_'
'Holtzhausen_'
'Hisetori_'
'Heyns_'
'Henning_'
'Helpline_'
'Helgaard_'
'Hein_'
'Harmonists_'
'Harm_'
'Harasses_'
'Hanseo_'
'Hans_'
'Handwoordeboek_'
'Haidee_'
'H_'
'HLT_'
'HERS_'
'HEALTH_'
'HAT_'
'Géna_'
'Guest_'
'GroupWise_'
'Grosser_'
'Graduates_'
'Grabber_'
'Gotlhe_'
'Google_'
'Gongwe_'
'Golf_'
'Golden_'
'God_'
'Global_'
'Given_'
'Gericke_'
'Gazette_'
'GDP_'
'G3_'
'G20_'
'G15F_'
'Funding_'
'Fundi_'
'Full_'
'Front_'
'Freek_'
'Frank_'
'Frances_'
'Fouché_'
'Foord_'
'Florida_'
'Flag_'
'Firikgong_'
'Fick_'
'Fees_'
'Federated_'
'Fax_'
'Father_'
'Faith_'
'FPE_'
'FCCD_'
'FAST_'
'F9_'
'F4_'
'F21_'
'F12_'
'Eya_'
'Exposure_'
'Export_'
'Experience_'
'Evaluation_'
'Eugene_'
'Ethics_'
'Esté_'
'Establishing_'
'End_'
'Embassy_'
'Ema_'
'Electoral_'
'Elana_'
'Eighth_'
'Effects_'
'Ee_'
'Edward_'
'Economy_'
'Economics_'
'Early_'
'EU_'
'ETDP_'
'EDC_'
'E6_'
'Don_'
'Division_'
'Diversity_'
'Ditšhabatšhaba_'
'Ditshitshinyo_'
'Ditshenyegelo_'
'Ditshekatsheko_'
'Ditlhagiswa_'
'Ditlamo_'
'Ditirelong_'
'Dithoto_'
'Ditherisano_'
'Diteng_'
'Diseases_'
'Dirk_'
'Direko_'
'Direct_'
'Dipuisano_'
'Dipholo_'
'Diphatlhatiro_'
'Dipalophatlo_'
'Dingaka_'
'Dine_'
'Dimenerale_'
'Dikumo_'
'Dikgwetlho_'
'Dikgwebopotlana_'
'Dikereiti_'
'Dikarata_'
'Dikao_'
'Dikabelo_'
'Diintaseteri_'
'Die_'
'Didikerii_'
'Diawate_'
'Dhurup_'
'Dewald_'
'Developing_'
'Dependency_'
'Departments_'
'Demonstrate_'
'Delport_'
'Deliwe_'
'Dekker_'
'Degenaar_'
'Deferment_'
'Declaration_'
'Date_'
'Data_'
'DRC_'
'DME_'
'DJ_'
'DEA_'
'Custom_'
'Currently_'
'Cupido_'
'Cross_'
'Crime_'
'Cricket_'
'Counting_'
'Corné_'
'Cornia_'
'Corlea_'
'Copyright_'
'Coordinator_'
'Continuing_'
'Content_'
'Consular_'
'Compulsory_'
'Complaint_'
'Compile_'
'Commons_'
'Common_'
'Committees_'
'Collect_'
'Colleagues_'
'Coal_'
'Closing_'
'Client_'
'Citizen_'
'Ché_'
'Christopher_'
'Chinese_'
'Childhood_'
'Chan_'
'Challenges_'
'Cathy_'
'Category_'
'Carstens_'
'Carnival_'
'Caput_'
'Captain_'
'Campuses_'
'Campaign_'
'COST_'
'COLA_'
'CK7_'
'CID_'
'CHAPTER_'
'CAR_'
'C5A_'
'C1_'
'Buys_'
'Burgersdorp_'
'Burger_'
'Budapest_'
'Brussels_'
'Bring_'
'Brand_'
'Botsweretshi_'
'Botsalo_'
'Botong_'
'Bosusu_'
'Bosman_'
'Boruni_'
'Bornman_'
'Border_'
'Bonnye_'
'Bongwe_'
'Bongaka_'
'Bong_'
'Bonetetshi_'
'Bommasepala_'
'Bolemirui_'
'Boitshimololedi_'
'Boitapoloso_'
'Boikanyego_'
'Bogopane_'
'Bodiredipuso_'
'Bo_'
'Birth_'
'Biro_'
'Beukes_'
'Beneke_'
'Bellatrix_'
'Bekkersdal_'
'Beke_'
'Beibele_'
'Bed_'
'Bebofatsi_'
'Be_'
'Baša_'
'Batlhatlheledi_'
'Bathapi_'
'Barend_'
'Baporofešenale_'
'Banking_'
'Banka_'
'Bangkok_'
'Banetetshi_'
'Balemirui_'
'Bakopi_'
'Bakgat_'
'Bagakolodi_'
'Baeteledipele_'
'Baebele_'
'Badirimmogo_'
'Baalumni_'
'BANKSETA_'
'B3_'
'B1_'
'Awareness_'
'Auditing_'
'Audit_'
'Atshe_'
'Assignment_'
'Askew_'
'Argentina_'
'Arcelor_'
'Arab_'
'Applying_'
'Apple_'
'Anti_'
'Annexure_'
'Angola_'
'Andrew_'
'Andrea_'
'Andre_'
'Analysis_'
'Analyse_'
'Alvera_'
'Allow_'
'Aldine_'
'Aldeon_'
'Akaretsang_'
'Agreements_'
'Ageng_'
'Acknowledgement_'
'Achievement_'
'Academics_'
'Abuse_'
'Absa_'
'Aardt_'
'AU_'
'ASSA_'
'ANNEXURE_'
'AGM_'
'AGA_'
'AFCON_'
'= _'
'99_'
'98_'
'900_'
'87_'
'844_'
'7th_'
'72_'
'56_'
'55_'
'4th_'
'47_'
'45_'
'441_'
'399_'
'360_'
'248_'
'237_'
'21st_'
'216_'
'214_'
'20A_'
'2030_'
'1999_'
'1988_'
'1986_'
'1978_'
'1964_'
'193_'
'1919_'
'178_'
'174_'
'172_'
'170_'
'147_'
'143_'
'139_'
'133_'
'123_'
'106_'
'105_'
'09_'
'. ( _'
'. "_'
'- ( _'
'* _'
'' _'
' ]_'
' [ _'
' @_'
' ? _'
' . . . ._'
' . . . "_'
' . - _'
' . " - _'
' ) : " _'
' ) - _'
' ) , ( _'
' ) )_'
' " . )_'
'® ) _'
'zoologist_'
'zones_'
'zero_'
'zebra_'
'yunione_'
'yunibesithing_'
'yours_'
'x4105_'
'wyse_'
'wrong_'
'writers_'
'writer_'
'wound_'
'worthy_'
'worn_'
'worms_'
'worksite_'
'worksheets_'
'workbooks_'
'wording_'
'wool_'
'wonder_'
'wits_'
'witnesses_'
'wit_'
'wireless_'
'wing_'
'wills_'
'willingness_'
'wild_'
'whichever_'
'wherever_'
'wheel_'
'westerly_'
'welcoming_'
'welcomes_'
'welang_'
'weighs_'
'weekend_'
'wedlock_'
'weditsweng_'
'webong_'
'wears_'
'weaknesses_'
'watering_'
'watches_'
'wash_'
'warning_'
'wanting_'
'walls_'
'wages_'
'vomiting_'
'volunteers_'
'volleyball_'
'volley_'
'vitally_'
'virtual_'
'villages_'
'village_'
'viewpoints_'
'viewing_'
'viewed_'
'video_'
'victory_'
'victoria_'
'victimisation_'
'viability_'
'vervet_'
'vertical_'
'versions_'
'ver_'
'ventricle_'
'ventilation_'
've_'
'vary_'
'varieties_'
'varies_'
'vapour_'
'vacation_'
'uwc_'
'utswa_'
'utlwisa_'
'utlwile_'
'utlwanang_'
'utlwana_'
'utlwala_'
'usual_'
'useful_'
'urinary_'
'urgent_'
'uraemic_'
'ups_'
'upgrading_'
'upgrades_'
'upgraded_'
'upgrade_'
'unsuitable_'
'unstoppable_'
'unsafe_'
'unreasonably_'
'unreasonable_'
'unnecessary_'
'unlawfully_'
'unknown_'
'uniting_'
'uninterrupted_'
'unilat_'
'uniform_'
'undue_'
'undisputed_'
'undermine_'
'undergone_'
'unconscious_'
'uncertainties_'
'unanimously_'
'unacceptable_'
'tšhupu_'
'tšhate_'
'tšhata_'
'tyre_'
'twelve_'
'twee_'
'twatsi_'
'tutor_'
'turned_'
'turbine_'
'tura_'
'tunnel_'
'tuna_'
'tulong_'
'tuelong_'
'tuelelo_'
'tube_'
'tswere_'
'tsweletswa_'
'tsweletsong_'
'tsweletsang_'
'tsweleditsweng_'
'tsweleditse_'
'tsweledisa_'
'tswelapele_'
'tswakanyo_'
'tsosolosiwa_'
'tsosang_'
'tsoma_'
'tsibosa_'
'tsibogelo_'
'tshweu_'
'tshwenngwa_'
'tshwelela_'
'tshwareleleng_'
'tshwarelela_'
'tshwaregileng_'
'tshwaraganyo_'
'tshwaraganya_'
'tshwaraganelo_'
'tshwantshanyo_'
'tshwantsha_'
'tshwanetsweng_'
'tshwaneng_'
'tshwanelego_'
'tshwanelegela_'
'tshwanele_'
'tshwaetsang_'
'tshwaele_'
'tshutiso_'
'tshupatlotlo_'
'tshotlo_'
'tshotlhe_'
'tshosologo_'
'tshosetsang_'
'tshologang_'
'tsholetsang_'
'tsholang_'
'tshitshintsweng_'
'tshitshingwang_'
'tshitotharo_'
'tshingwaneng_'
'tshimololo_'
'tshimo_'
'tshilo_'
'tshika_'
'tshepegang_'
'tshenekegi_'
'tshelwang_'
'tshelela_'
'tshekeletsa_'
'tshegetseng_'
'tshegetsanang_'
'tshegediwa_'
'tshamekisa_'
'tshabafatso_'
'tsereng_'
'tsepamisa_'
'tsenyotirisong_'
'tsenyatirisong_'
'tsenelwa_'
'tselela_'
'tselathuto_'
'tsatsi_'
'tsamaisanang_'
'tsamaile_'
'tsadiso_'
'ts5_'
'trying_'
'trustee_'
'triumph_'
'triangular_'
'trend_'
'treaty_'
'treasurer_'
'treason_'
'transmit_'
'transmission_'
'translate_'
'transit_'
'transformed_'
'transform_'
'transfers_'
'trans_'
'tranfer_'
'trains_'
'trainers_'
'trainer_'
'trailing_'
'tragic_'
'tradulex_'
'traditions_'
'trading_'
'trademark_'
'tractors_'
'toxin_'
'toxic_'
'townships_'
'township_'
'towels_'
'tournament_'
'tourist_'
'tough_'
'touching_'
'touched_'
'totobalo_'
'totally_'
'totalling_'
'topo_'
'toothfish_'
'tonakgolo_'
'tolerant_'
'tokololong_'
'tokolo_'
'tokofaditsweng_'
'tokafetseng_'
'tokafetse_'
'tokafatseng_'
'tokafatse_'
'tokafatsang_'
'tokafalo_'
'tokafale_'
'tokafala_'
'tokafadiwa_'
'tokafaditsweng_'
'tm_'
'tlwaetsweng_'
'tlwaelegang_'
'tlwaelane_'
'tlwaela_'
'tlotlela_'
'tlotlegile_'
'tlotle_'
'tlosolosa_'
'tlole_'
'tlogetse_'
'tlogelela_'
'tlogele_'
'tlo_'
'tliseditse_'
'tlhwelo_'
'tlhwatlhwagodimo_'
'tlhotlhomisiwa_'
'tlhotlhiwa_'
'tlhotlheletsego_'
'tlhophololo_'
'tlhophetsweng_'
'tlhophang_'
'tlhomologile_'
'tlhomiwang_'
'tlhomeng_'
'tlhomamisega_'
'tlhokometseng_'
'tlhokileng_'
'tlhokagala_'
'tlhatswa_'
'tlhatsa_'
'tlhatloso_'
'tlhatlhelwa_'
'tlhatlhelo_'
'tlhaselwa_'
'tlhaolwa_'
'tlhaoloso_'
'tlhamiwang_'
'tlhamile_'
'tlhameng_'
'tlhamang_'
'tlhamaletse_'
'tlhalositse_'
'tlhaloganyesegeng_'
'tlhaloganyesegang_'
'tlhaloganyeng_'
'tlhaloganyegang_'
'tlhakatlhakano_'
'tlhakanelodithoto_'
'tlhaka_'
'tlhagisong_'
'tlhagafatso_'
'tlhagafatsang_'
'tlhafuno_'
'tlhadile_'
'tlhabololwe_'
'tleliniking_'
'tlelapa_'
'tlelaemeteng_'
'tlamelwa_'
'tlamelong_'
'tlameleng_'
'tlamegang_'
'tlama_'
'titles_'
'titled_'
'tisele_'
'tironyana_'
'tirisibotlhaswa_'
'tirisanong_'
'tiragatsong_'
'tiny_'
'tinara_'
'timetse_'
'tima_'
'tillage_'
'tilang_'
'tikatikwe_'
'tightly_'
'tidy_'
'thuta_'
'thusana_'
'thuntsha_'
'thuno_'
'thuma_'
'thulameng_'
'thulaganyomedi_'
'thuanyo_'
'thrown_'
'throat_'
'thread_'
'thoughts_'
'thorough_'
'thobo_'
'thirty_'
'thirteen_'
'thibelege_'
'thešiari_'
'therisanong_'
'theramelao_'
'themelontle_'
'theleso_'
'theatre_'
'thato_'
'thapile_'
'thanolong_'
'thanks_'
'thadiso_'
'thadisaditso_'
'texts_'
'textbooks_'
'tewa_'
'tetlo_'
'tetelo_'
'testimonial_'
'tessellations_'
'teropo_'
'termination_'
'terminate_'
'tenon_'
'tenders_'
'temporarily_'
'templates_'
'temothuong_'
'temosi_'
'temaneng_'
'tekslinguistiek_'
'tekong_'
'tekelelo_'
'tekatekanong_'
'tekanyetsomowa_'
'teenage_'
'technologically_'
'technique_'
'technicians_'
'tebogo_'
'tebego_'
'teatere_'
'teaches_'
'targeting_'
'targeted_'
'tape_'
'talents_'
'tackles_'
'tackle_'
'tacking_'
'taboge_'
'taboga_'
'systematic_'
'syringe_'
'syndicate_'
'symbols_'
'sweditse_'
'sutlhang_'
'sutiswa_'
'sutisiwa_'
'sutisa_'
'susumetsa_'
'suspected_'
'survive_'
'survival_'
'surprised_'
'surcharges_'
'supreme_'
'supervision_'
'supervised_'
'superannuate_'
'sunshine_'
'sunlight_'
'sums_'
'sulefura_'
'suited_'
'suitably_'
'suit_'
'suggested_'
'suffer_'
'subsistence_'
'subsidies_'
'subsequently_'
'subsections_'
'subpoena_'
'submanager_'
'studio_'
'striking_'
'strikes_'
'strictly_'
'strict_'
'stressing_'
'stressed_'
'streamlined_'
'straw_'
'straight_'
'stove_'
'stores_'
'stood_'
'stitches_'
'stitch_'
'stirring_'
'stipulated_'
'stimulation_'
'stigma_'
'stemming_'
'statue_'
'stairs_'
'staged_'
'squirrel_'
'sprinter_'
'spring_'
'sprains_'
'spouses_'
'spousal_'
'sportsman_'
'spontaneous_'
'spokesperson_'
'spoken_'
'spillages_'
'speeded_'
'specialises_'
'spark_'
'spacecraft_'
'soya_'
'sowing_'
'southern_'
'south_'
'soul_'
'song_'
'sometlhano_'
'somerobedi_'
'somenngwe_'
'somarela_'
'somamabedi_'
'solvent_'
'solofetse_'
'solofetsang_'
'solofelwang_'
'solofelang_'
'solegelwe_'
'solegelwa_'
'sola_'
'sokameng_'
'sobokanya_'
'sms_'
'smaller_'
'sleeve_'
'sleep_'
'skrywe_'
'skinned_'
'sketch_'
'sizes_'
'sized_'
'sixth_'
'sittings_'
'sit_'
'sireletsege_'
'sireleditswe_'
'singular_'
'silikha_'
'silicosis_'
'sikara_'
'significantly_'
'signature_'
'signal_'
'sideways_'
'sickness_'
'siamele_'
'shoulder_'
'shortness_'
'shores_'
'shore_'
'shoes_'
'shines_'
'shields_'
'shell_'
'sheetmetal_'
'shed_'
'shareholder_'
'shame_'
'seyalemowa_'
'sexist_'
'sewelo_'
'severely_'
'setu_'
'setsidifatsi_'
'setshwao_'
'setshedi_'
'setofo_'
'setlhophathutano_'
'setlhabi_'
'setimela_'
'sethunya_'
'setho_'
'sesupanako_'
'sesireletsa_'
'serviced_'
'server_'
'servant_'
'serokwa_'
'seriting_'
'seretlhaologi_'
'sequence_'
'seporo_'
'sepiniši_'
'sephara_'
'separated_'
'senyegelwa_'
'senye_'
'senteromo_'
'sentenced_'
'sentence_'
'senngwe_'
'senkgwe_'
'semisediko_'
'semen_'
'semelela_'
'seloago_'
'selfless_'
'selekane_'
'selefera_'
'selakanyo_'
'sekhemikale_'
'sekgoreletsi_'
'sekgele_'
'seketšhe_'
'sekamoriri_'
'seized_'
'seisamadi_'
'segosi_'
'segopateme_'
'segment_'
'sefofane_'
'sefatla_'
'sefala_'
'seems_'
'sedumedi_'
'sediri_'
'sediko_'
'sedikeng_'
'secretion_'
'secretariat_'
'secret_'
'seconded_'
'sebete_'
'sebakwa_'
'searching_'
'searched_'
'seamless_'
'seAforika_'
'screening_'
'scores_'
'score_'
'scholarships_'
'scaffolds_'
'scaffold_'
'saves_'
'satisfaction_'
'saps_'
'santseng_'
'santlhoko_'
'sales_'
'salate_'
'salang_'
'sake_'
'safeguard_'
'saeteng_'
'saete_'
'saenwa_'
'saennweng_'
'saenilweng_'
'saenang_'
'sacrifice_'
'sacks_'
'rutwa_'
'rutegileng_'
'runs_'
'runners_'
'ruler_'
'rulaganyetsang_'
'rulaganyegang_'
'ruary_'
'rua_'
'rremogolo_'
'rraagwe_'
'royalty_'
'royalties_'
'rounds_'
'rotloediwang_'
'rotation_'
'roof_'
'rometseng_'
'romelelwa_'
'romelang_'
'rolled_'
'rolela_'
'rolang_'
'rocks_'
'roboto_'
'roadworthy_'
'ritibetse_'
'risefe_'
'rinse_'
'rigorous_'
'rigid_'
'ridge_'
'ride_'
'rich_'
'reward_'
'revolt_'
'reviewer_'
'reverse_'
'revamped_'
'retribution_'
'retired_'
'retire_'
'reteletswe_'
'retain_'
'retailer_'
'resuscitation_'
'resumes_'
'rests_'
'restrictions_'
'restraints_'
'restoring_'
'restitution_'
'responses_'
'respondent_'
'respiratory_'
'respectful_'
'resonates_'
'resist_'
'resignation_'
'reserve_'
'requesting_'
'reputation_'
'repotong_'
'replies_'
'repayable_'
'repairing_'
'repair_'
'renowned_'
'renal_'
'remedies_'
'relocation_'
'religions_'
'reliance_'
'reliable_'
'relaxation_'
'rekiwa_'
'rekisetsa_'
'reke_'
'rejection_'
'reins_'
'regeneration_'
'regards_'
'refundable_'
'refrigerator_'
'reflection_'
'reflecting_'
'refined_'
'reetsang_'
'reef_'
'reeditswe_'
'redress_'
'redistribution_'
'redemption_'
'recruited_'
'recovery_'
'recordings_'
'recording_'
'recognized_'
'recognises_'
'recharging_'
'recess_'
'receptionist_'
'rebotse_'
'rearing_'
'realistic_'
'realises_'
'realisation_'
'reaches_'
'rays_'
'rayang_'
'rationalisation_'
'ratio_'
'ratileng_'
'ratepayer_'
'rarely_'
'rarabololwe_'
'rarabololang_'
'raraane_'
'ranging_'
'ranges_'
'ran_'
'ramolao_'
'ramatlotlo_'
'ramaanokago_'
'rakana_'
'rakabi_'
'radiong_'
'radioactive_'
'radical_'
'radiation_'
'races_'
'rabies_'
'r_'
'quotes_'
'quiz_'
'quicker_'
'queue_'
'quest_'
'queries_'
'quarterly_'
'qualities_'
'qualifying_'
'puzzle_'
'puts_'
'pusomorafe_'
'pusokarolo_'
'puppets_'
'pumpkin_'
'pulo_'
'puisokwalo_'
'puisanao_'
'pududu_'
'psychology_'
'psychological_'
'proves_'
'prospecting_'
'prosecute_'
'proprietor_'
'properties_'
'propagation_'
'pronounce_'
'promotions_'
'promoter_'
'promise_'
'progressive_'
'profits_'
'profiting_'
'problematic_'
'proactive_'
'privileges_'
'privilege_'
'prisoners_'
'prism_'
'printouts_'
'principals_'
'pride_'
'prey_'
'prevents_'
'prevalence_'
'presided_'
'preside_'
'preservation_'
'preschool_'
'preliminary_'
'pregnant_'
'preference_'
'preferably_'
'predominantly_'
'precautionary_'
'precaution_'
'preacher_'
'prayer_'
'praised_'
'practising_'
'practise_'
'practically_'
'ppm_'
'potsolotso_'
'posture_'
'postgraduates_'
'possess_'
'posa_'
'portable_'
'porofitente_'
'porofešene_'
'porofete_'
'porofaele_'
'poresidente_'
'populated_'
'popong_'
'pontshong_'
'pontsheng_'
'pompela_'
'polythene_'
'poloko_'
'polokelo_'
'politically_'
'poet_'
'plough_'
'pleasant_'
'player_'
'platforms_'
'plastics_'
'plastic_'
'plaited_'
'plain_'
'plagiarism_'
'pipeline_'
'pipe_'
'pinnacle_'
'pinagare_'
'pin_'
'pilara_'
'pikeriki_'
'pigeons_'
'phrase_'
'php_'
'phonology_'
'phones_'
'phitlho_'
'phimotswe_'
'phimola_'
'philo_'
'phepo_'
'phepafatsa_'
'phepafaditsweng_'
'phediso_'
'phatsimang_'
'phatsi_'
'phasaladiwa_'
'phasaladitswe_'
'pharologantsho_'
'phapafatso_'
'phapaano_'
'phala_'
'peterole_'
'perspectives_'
'personally_'
'persistent_'
'persistence_'
'persevere_'
'permanently_'
'performs_'
'performances_'
'peresente_'
'perceptions_'
'percent_'
'peomolaong_'
'pelwana_'
'pelenyana_'
'pelegi_'
'pegwa_'
'peacefully_'
'patriotism_'
'patiwa_'
'patient_'
'patience_'
'patent_'
'passage_'
'partly_'
'particles_'
'particle_'
'participant_'
'parliamentary_'
'parks_'
'parking_'
'parked_'
'parity_'
'parallel_'
'par_'
'papatsong_'
'panels_'
'paneleng_'
'pancake_'
'palogotlheng_'
'palogaregotlhe_'
'palatalisation_'
'palamenteng_'
'paketeng_'
'pakatsweledi_'
'pakatelele_'
'pakakhutshwane_'
'paedophile_'
'packaging_'
'packages_'
'oxygenated_'
'oxygen_'
'owing_'
'overwhelm_'
'oversight_'
'overseeing_'
'oversee_'
'overseas_'
'overnight_'
'overjoyed_'
'overcoming_'
'overarching_'
'oven_'
'otlhaya_'
'osullivan_'
'orphaned_'
'originated_'
'organized_'
'organization_'
'organiser_'
'ore_'
'ordinance_'
'optimalisation_'
'opt_'
'oppose_'
'operas_'
'op_'
'oomabedi_'
'ones_'
'onase_'
'omissions_'
'omileng_'
'olela_'
'ole_'
'oketsegang_'
'okeletswe_'
'okeditse_'
'okametseng_'
'oils_'
'occurrence_'
'obtains_'
'obstructions_'
'observed_'
'observations_'
'obamelwa_'
'obamela_'
'oba_'
'nyalane_'
'nyadiwa_'
'nurses_'
'numerical_'
'numeracy_'
'ntšhwafatse_'
'ntšhwafadiweng_'
'ntšhafatso_'
'ntshokuno_'
'ntshitswe_'
'ntlokokoano_'
'ntlhotlheletsa_'
'ntlhatharo_'
'nthuse_'
'nowang_'
'novel_'
'notetsa_'
'notation_'
'nose_'
'northern_'
'nopolwa_'
'nontsho_'
'nontsha_'
'nonprofit_'
'nonotsho_'
'nonofile_'
'nonofang_'
'nonofa_'
'nong_'
'noise_'
'noble_'
'nnipi_'
'nnag_'
'nl_'
'njeng_'
'ninth_'
'nieces_'
'ngwaoboswa_'
'ngwagasome_'
'ngwagakgolo_'
'newspapers_'
'neteweke_'
'netefaletso_'
'nephew_'
'neighbour_'
'neglect_'
'neeletsano_'
'neeletsana_'
'nearing_'
'natured_'
'naming_'
'namane_'
'naledi_'
'nala_'
'nae_'
'naby_'
'museums_'
'museum_'
'muscles_'
'multilateral_'
'mr_'
'mpopi_'
'mpa_'
'mouse_'
'mountain_'
'motshwariso_'
'motsereganyi_'
'motsamaisimmotlana_'
'motorsport_'
'motlhami_'
'motlhagisi_'
'motlhabo_'
'motlha_'
'motlatsamokhanseliri_'
'motlanyi_'
'motlae_'
'mothomolaong_'
'mothelesi_'
'mothapo_'
'mothalo_'
'motegeniki_'
'motantsho_'
'mosweu_'
'moswa_'
'mostly_'
'mosotli_'
'mosimane_'
'mosima_'
'mosese_'
'mosenatoro_'
'mosamo_'
'morutisi_'
'morulaganyi_'
'mortise_'
'mororo_'
'moretelelwa_'
'morekisi_'
'moreki_'
'moraga_'
'moraba_'
'moporofesara_'
'moporesidente_'
'mophato_'
'mooi_'
'monontsha_'
'monkeys_'
'monkey_'
'monitors_'
'monarchy_'
'monarch_'
'momentum_'
'molaodi_'
'mokwadisimogolo_'
'mokoma_'
'mokhuduthamaga_'
'mokgeleng_'
'mokgatlhong_'
'mokgabiso_'
'mokatisi_'
'mokapelo_'
'moitsegotlhe_'
'moitse_'
'mogwanto_'
'mogopolong_'
'mogogoro_'
'mogodi_'
'mogakolodimogolo_'
'mogaka_'
'mofofane_'
'moekonomi_'
'modumong_'
'moduelwalekgetho_'
'moditšhaba_'
'moditlhale_'
'modification_'
'modidi_'
'modes_'
'mode_'
'mobilise_'
'mobile_'
'moanelwa_'
'moambasadoro_'
'moalafi_'
'moakanyetso_'
'mmung_'
'mmotlana_'
'mmojuleng_'
'mminong_'
'mmileng_'
'mmila_'
'mmegolo_'
'mmatla_'
'mmarathone_'
'mmapa_'
'mmalatlotlo_'
'mmagiseterata_'
'mmaba_'
'mitigating_'
'misuse_'
'missed_'
'miss_'
'minority_'
'ministry_'
'mined_'
'mine_'
'millionaire_'
'miles_'
'mileone_'
'metsesetoropong_'
'metseselegaeng_'
'metsamao_'
'metros_'
'metlotlo_'
'methyl_'
'methodology_'
'methapo_'
'methalogolo_'
'methalethale_'
'meta_'
'merwalela_'
'merged_'
'merabeng_'
'meono_'
'mentoring_'
'menontsha_'
'meno_'
'mennye_'
'menagane_'
'memorised_'
'memorisation_'
'memories_'
'mekete_'
'megôlô_'
'megopolong_'
'mefero_'
'meetlo_'
'meento_'
'medicines_'
'mebileng_'
'mebeleng_'
'mebarakeng_'
'meant_'
'meagong_'
'maša_'
'mawatle_'
'matshwaoina_'
'matshediso_'
'matsetseleko_'
'matseno_'
'matlhakore_'
'matlapana_'
'maths_'
'mathe_'
'materiki_'
'materiale_'
'mateng_'
'matches_'
'matamo_'
'mastered_'
'massage_'
'masomematlhano_'
'masimologong_'
'masetlapelo_'
'masea_'
'marvellous_'
'marobalo_'
'marking_'
'markers_'
'marching_'
'march_'
'maphodisa_'
'maphelong_'
'maphatsi_'
'maokelo_'
'manuscript_'
'manufacture_'
'manuals_'
'mantšhwa_'
'manegilwe_'
'mananeng_'
'manages_'
'managements_'
'mamoratwa_'
'mamina_'
'malomo_'
'malolo_'
'malokong_'
'malls_'
'malebela_'
'makhubu_'
'makgotlatoropo_'
'makgotla_'
'makgong_'
'makers_'
'makenetetlhakopitse_'
'makeišeneng_'
'makatse_'
'maintains_'
'mains_'
'magolwane_'
'magnifying_'
'magnetic_'
'magistrates_'
'magetleng_'
'magazine_'
'magala_'
'mafelobekeng_'
'mafatlha_'
'mafaratlhatlheng_'
'maemogodimo_'
'maemelakepe_'
'maditsididi_'
'madiri_'
'mading_'
'mabotlolo_'
'mabotara_'
'mabonwa_'
'mabone_'
'mabokoso_'
'maboko_'
'mabenkeleng_'
'mabelo_'
'maAforika_'
'lymphatic_'
'lwelang_'
'lwela_'
'lump_'
'lucky_'
'lubrication_'
'loyal_'
'loving_'
'loved_'
'lots_'
'losi_'
'lorato_'
'lopiwang_'
'lope_'
'lopa_'
'lootwana_'
'loo_'
'longest_'
'lonaka_'
'loleme_'
'lolea_'
'lolame_'
'lolama_'
'lokologileng_'
'lokgabaganyo_'
'logang_'
'lodges_'
'locked_'
'lobota_'
'lobola_'
'loads_'
'litres_'
'literally_'
'literacies_'
'lip_'
'linking_'
'linguistics_'
'lingual_'
'linenroom_'
'lifestyle_'
'lies_'
'lie_'
'leša_'
'levy_'
'levies_'
'letswai_'
'letso_'
'letsirolo_'
'letsetsa_'
'letlwe_'
'lethaleitlho_'
'lethaitlho_'
'letha_'
'letetse_'
'letala_'
'lesser_'
'lesomenngwe_'
'lesole_'
'lesitlwane_'
'lesea_'
'lerui_'
'lerile_'
'lepe_'
'leoto_'
'leobo_'
'lentšhwa_'
'lentshwa_'
'lenanepotsong_'
'lenaanetatelano_'
'lemosa_'
'lemogileng_'
'lemoge_'
'leleme_'
'lekwa_'
'lekokong_'
'lekhubu_'
'lekeng_'
'lekanngwa_'
'lekalekantsha_'
'lekalekane_'
'lejwang_'
'legs_'
'legora_'
'legodimo_'
'legetla_'
'legends_'
'legare_'
'legalised_'
'leg_'
'lefetlho_'
'lefelopontsho_'
'lefaufaung_'
'lediri_'
'leboge_'
'lebisiwang_'
'lebisang_'
'lebisa_'
'lebesiwa_'
'lebenkeleng_'
'lebenkele_'
'lebeletseng_'
'lebana_'
'lebale_'
'lebagananeng_'
'leaves_'
'leasehold_'
'leap_'
'league_'
'layers_'
'lawyer_'
'latofatso_'
'latelela_'
'latelana_'
'lasts_'
'lap_'
'languageline_'
'lang_'
'landscape_'
'lamented_'
'lagging_'
'laetse_'
'laelang_'
'laboratoring_'
'l_'
'kwelotlase_'
'kwalwe_'
'kwalang_'
'kwadiwa_'
'kwadisang_'
'kutlwelobotlhoko_'
'kutlobotlhoko_'
'kutlo_'
'kurufolola_'
'kuranteng_'
'kuno_'
'kumako_'
'kubogelo_'
'kotama_'
'koporasi_'
'kopiwe_'
'kopiwang_'
'kopanwang_'
'konosediwa_'
'kommunico_'
'kokelong_'
'kobiwa_'
'kobileng_'
'kobamelo_'
'koafetse_'
'knitting_'
'knees_'
'klike_'
'kitsong_'
'kitlantsweng_'
'kitlano_'
'kirikete_'
'kiosk_'
'kingdom_'
'kilometara_'
'killed_'
'khwaere_'
'khutswane_'
'khutsana_'
'khutlopono_'
'khutlisa_'
'khunologo_'
'khomputareng_'
'khomputara_'
'khomphutara_'
'kholetšhe_'
'khempase_'
'khemikale_'
'kharikhulamong_'
'khanselang_'
'khamphani_'
'kgwebofatso_'
'kgotsofetseng_'
'kgotsofatso_'
'kgotlwanetlase_'
'kgotlhelo_'
'kgotlelego_'
'kgotlatheomelao_'
'kgosi_'
'kgorong_'
'kgoreletsa_'
'kgonwang_'
'kgontsa_'
'kgonagala_'
'kgomo_'
'kgolong_'
'kgolaganyo_'
'kgokgwanethibedi_'
'kgokaganyo_'
'kgokagano_'
'kgogo_'
'kgogelo_'
'kgobokanyo_'
'kgo_'
'kgetsing_'
'kgetsana_'
'kgetho_'
'kgethiwa_'
'kgetha_'
'kgeleswa_'
'kgatlhwa_'
'kgatlhilwe_'
'kgatlhegong_'
'kgatlhegelang_'
'kgatlhegela_'
'kgatisogape_'
'kgathalatsege_'
'kgathalasege_'
'kgaratlho_'
'kgapetsweng_'
'kgapetswe_'
'kgaotsotipa_'
'kgaolwa_'
'kgaola_'
'kgaogokelelo_'
'kgaogano_'
'kganetsano_'
'kganelwa_'
'kgala_'
'kgakologelo_'
'kgakolo_'
'kgafetsakgafetsa_'
'kgabisa_'
'kgabagare_'
'kgabagano_'
'keynote_'
'kettle_'
'ketleetsonyana_'
'ketekang_'
'keretiti_'
'keresemose_'
'kemong_'
'kemelo_'
'kelasiki_'
'kelapa_'
'katoloswa_'
'katologane_'
'katlatleloloago_'
'katlaatlelo_'
'katisetsopilediwa_'
'katisetso_'
'katisetsa_'
'katisediwa_'
'karolotlhopho_'
'kanamiso_'
'kalentara_'
'kala_'
'kaiwe_'
'kaelang_'
'kabong_'
'kabakanngwang_'
'justified_'
'justifiable_'
'judgement_'
'journalists_'
'joints_'
'jointly_'
'joining_'
'joiner_'
'jewe_'
'jewa_'
'jeseng_'
'jenale_'
'jelwe_'
'jele_'
'jela_'
'jalojalo_'
'itumelelang_'
'itumela_'
'itumedisiwa_'
'itsisitse_'
'itshwara_'
'itshokelwa_'
'itshireletsa_'
'itshimololelo_'
'itshidilo_'
'itshetlego_'
'itseweng_'
'itsenya_'
'itsane_'
'itlhophelwa_'
'itlhomileng_'
'itlhokomoloso_'
'itlhaolang_'
'itlhaola_'
'itlhagisa_'
'itlhaganedisitsweng_'
'itirele_'
'ithutiwang_'
'ithaopela_'
'itepatepanya_'
'itemogetsweng_'
'issuing_'
'isiwe_'
'isiZulu_'
'isiNdebele_'
'irritate_'
'irrigating_'
'irrelevant_'
'iponeng_'
'iponatsa_'
'iphedisa_'
'ipha_'
'ipelafatsa_'
'ipega_'
'ipeetseng_'
'ipciti2010_'
'invitation_'
'investors_'
'investigative_'
'invasion_'
'invaluable_'
'invaded_'
'intravenous_'
'intra_'
'intimidation_'
'intestine_'
'interval_'
'interpret_'
'interpersonal_'
'internationalisation_'
'internally_'
'intermediary_'
'intermediaries_'
'interference_'
'intention_'
'intensifying_'
'intellect_'
'instituting_'
'installation_'
'inspires_'
'inspiration_'
'inspections_'
'inspected_'
'insights_'
'inserted_'
'inputs_'
'innovations_'
'injustice_'
'initially_'
'inherent_'
'infringement_'
'informative_'
'inflammation_'
'ineetseng_'
'indirectly_'
'indication_'
'independently_'
'independence_'
'incorrectly_'
'incorporates_'
'incorporated_'
'inconsistent_'
'inception_'
'incentives_'
'inbreeding_'
'inaugurated_'
'inadequate_'
'inability_'
'inaakanya_'
'imprisoned_'
'imposes_'
'importers_'
'imperfection_'
'imelang_'
'image_'
'ilweng_'
'illustrator_'
'illustration_'
'illegally_'
'ikopantshe_'
'ikobeleng_'
'ikhutso_'
'ikhutsa_'
'ikgolaganyang_'
'ikgobokanyetsa_'
'ikgapetseng_'
'ikatlhola_'
'ikatisetsa_'
'ikatisa_'
'ikarabelela_'
'ikarabelang_'
'ikanetsweng_'
'ikakanyetsa_'
'ikaeletswe_'
'ikaegang_'
'ignore_'
'ie_'
'id_'
'ialic_'
'ialb_'
'iPhone_'
'hypnosis_'
'hydrogen_'
'hutse_'
'hurry_'
'hurdle_'
'humour_'
'humorous_'
'hudugisiwa_'
'htm_'
'hotel_'
'hosts_'
'hostile_'
'hostel_'
'hospitalise_'
'horses_'
'horizons_'
'hopes_'
'hoods_'
'honorary_'
'honesty_'
'honestly_'
'hone_'
'homosexual_'
'homeland_'
'hockey_'
'hl_'
'histori_'
'hired_'
'hire_'
'heroes_'
'hereditary_'
'hence_'
'hemelwang_'
'hectares_'
'hearts_'
'heartiest_'
'healthier_'
'healthcare_'
'headed_'
'hay_'
'hats_'
'harvesting_'
'harmful_'
'hardboard_'
'harassment_'
'harasses_'
'happens_'
'haphazard_'
'hang_'
'handle_'
'hail_'
'haeterojene_'
'haemolytic_'
'habit_'
'gweba_'
'guiding_'
'guides_'
'grouping_'
'grouped_'
'grounds_'
'grid_'
'gratitude_'
'graphs_'
'grapevine_'
'grandparent_'
'grandmother_'
'graduate_'
'graded_'
'gouta_'
'gotsa_'
'gotetsa_'
'gorogileng_'
'gorogang_'
'gopolang_'
'goletse_'
'golaganang_'
'golafetse_'
'gogiwe_'
'godisetsa_'
'godimodimo_'
'godile_'
'gobo_'
'gobala_'
'gmail_'
'glasses_'
'gland_'
'gladly_'
'gifts_'
'giant_'
'german_'
'genetically_'
'genealogical_'
'ge_'
'gatise_'
'gatherings_'
'gather_'
'gatelang_'
'gata_'
'gastroenteritis_'
'gap_'
'gannye_'
'ganne_'
'ganetsana_'
'gane_'
'gamma_'
'galaletsang_'
'galalelang_'
'gakololwa_'
'gaisanela_'
'gained_'
'gaetsho_'
'gaelegileng_'
'furthermore_'
'furnishing_'
'furnished_'
'fundraising_'
'fullest_'
'fuels_'
'fuelled_'
'fudusiwa_'
'fruition_'
'frost_'
'frequent_'
'frequency_'
'freezing_'
'freezer_'
'freely_'
'freedoms_'
'fraudsters_'
'founder_'
'fostering_'
'fosagetseng_'
'forwards_'
'forwarded_'
'forums_'
'fortunate_'
'formulate_'
'forensic_'
'forefront_'
'fopholediwa_'
'fopholeditsweng_'
'fokotseng_'
'fokodiwe_'
'fokoditswe_'
'focusing_'
'flying_'
'floss_'
'floating_'
'flavour_'
'flagship_'
'fits_'
'fitlhile_'
'fitlhetsweng_'
'fitlheletseng_'
'fitlheleleng_'
'fitlhegileng_'
'fitlhe_'
'fitlhang_'
'fisioloji_'
'fisang_'
'fisa_'
'firstly_'
'finishing_'
'finish_'
'finer_'
'financing_'
'finals_'
'finalising_'
'filwe_'
'filosofi_'
'filmed_'
'filiming_'
'filimetsweng_'
'filed_'
'fifteen_'
'fidelity_'
'fetse_'
'fetolela_'
'fetole_'
'fetlhwa_'
'fetilweng_'
'fetilwe_'
'fetelelang_'
'festivals_'
'fertilizer_'
'fertility_'
'fepa_'
'fenye_'
'felong_'
'fekse_'
'feitse_'
'feels_'
'feeding_'
'feditseng_'
'fedile_'
'featured_'
'fe_'
'faxed_'
'fatlhosang_'
'fathers_'
'fashioned_'
'fapoga_'
'fakese_'
'faithfulness_'
'faithful_'
'fairness_'
'failures_'
'facilitator_'
'facilitates_'
'extraparliamentary_'
'expressions_'
'explosion_'
'explanatory_'
'expires_'
'experiencing_'
'expensive_'
'expenditures_'
'expedite_'
'expectancy_'
'expansions_'
'existed_'
'exist_'
'exercising_'
'exemption_'
'excludes_'
'excel_'
'exceeding_'
'exceeded_'
'exams_'
'exam_'
'evolved_'
'evolution_'
'evenings_'
'europe_'
'etleetsa_'
'etleeditsweng_'
'etelwang_'
'eteletsweng_'
'etelelang_'
'etelang_'
'et_'
'estimations_'
'estates_'
'establishes_'
'errors_'
'error_'
'erosion_'
'equitably_'
'equatorial_'
'equable_'
'epoch_'
'epiwa_'
'epidemic_'
'environmentally_'
'entitles_'
'entitlement_'
'entirely_'
'enthusiasts_'
'entering_'
'enrolments_'
'enquiry_'
'enlistment_'
'enhanced_'
'engineers_'
'engineer_'
'enforced_'
'enemy_'
'endevour_'
'ended_'
'enabled_'
'empty_'
'empowering_'
'emphasises_'
'emphasise_'
'emiwa_'
'emisiwa_'
'emisediwe_'
'emisang_'
'emetsweng_'
'emerge_'
'emele_'
'emelang_'
'embrace_'
'embodied_'
'embed_'
'embarking_'
'embark_'
'elimination_'
'eletsegang_'
'eletsang_'
'efoga_'
'een_'
'ee_'
'educationist_'
'edu_'
'editing_'
'edit_'
'edges_'
'ecosystems_'
'economics_'
'economical_'
'ecology_'
'easier_'
'ear_'
'eA_'
'dynamics_'
'dweller_'
'dutilweng_'
'dumetsweng_'
'dumetse_'
'dumeletsweng_'
'dumelelang_'
'dumelaneng_'
'dull_'
'duelelweng_'
'duedisa_'
'dtil_'
'drill_'
'drie_'
'drew_'
'draws_'
'draught_'
'dramatic_'
'drainage_'
'drafting_'
'doubled_'
'dormant_'
'dominant_'
'domains_'
'dollars_'
'dokete_'
'doe_'
'documentary_'
'doctorate_'
'dišwa_'
'dišere_'
'diyunione_'
'diwebosaeteng_'
'ditšhabatšhabeng_'
'dituki_'
'ditsibogelo_'
'ditshwani_'
'ditshwanetse_'
'ditshwaetso_'
'ditshika_'
'ditshiamelong_'
'ditshenyo_'
'ditshelo_'
'ditshekatsheko_'
'ditshedinnye_'
'ditseleng_'
'ditsebeng_'
'ditsamaisong_'
'ditoropong_'
'ditoropokgolo_'
'ditoropo_'
'ditono_'
'ditone_'
'ditlhwatlhwa_'
'ditlhotlheletso_'
'ditlhokafalo_'
'ditlhangwa_'
'ditlhamane_'
'ditlhaloganyo_'
'ditlhakakgolo_'
'ditlhagelelo_'
'ditlhaelo_'
'ditlha_'
'dithusi_'
'dithunya_'
'dithonamenteng_'
'dithomeletso_'
'dithendara_'
'dithekenoloji_'
'dithekeniki_'
'dithaere_'
'ditesetamente_'
'ditekong_'
'ditekelelo_'
'ditefiso_'
'ditebogo_'
'ditaolo_'
'ditafoleng_'
'disuga_'
'distressed_'
'distract_'
'distinguish_'
'distinct_'
'dissolved_'
'dispossess_'
'dispense_'
'dismissals_'
'dismissal_'
'disk_'
'disete_'
'disenthara_'
'disenteramong_'
'diselula_'
'diselennere_'
'disegi_'
'discretion_'
'discovered_'
'discourse_'
'disclosure_'
'discharges_'
'disaenseng_'
'disadvantages_'
'diretswe_'
'diretseng_'
'direkotong_'
'direiti_'
'directory_'
'directions_'
'diraka_'
'diragatswang_'
'dipotlana_'
'diposo_'
'diporokerameng_'
'diporofešene_'
'dipopego_'
'diponelopele_'
'dipoifo_'
'dipodi_'
'diploma_'
'dipitso_'
'dipitse_'
'dipina_'
'dipholising_'
'dipholesi_'
'diphokoletsong_'
'diphilo_'
'dipharologantsho_'
'dipegelong_'
'dipaakanyo_'
'diofising_'
'dintšhwafatso_'
'dintsintsi_'
'dinotsididi_'
'dinotlolo_'
'dinku_'
'dinkgwe_'
'dingwao_'
'dinewa_'
'dinawa_'
'dinameng_'
'dimo_'
'dimmenejara_'
'diminish_'
'diminerale_'
'dimetara_'
'dimensions_'
'dimelione_'
'dimelijarata_'
'dimeleone_'
'diligence_'
'dilaboratoriamo_'
'dikungo_'
'dikoporasi_'
'dikomiting_'
'dikolobeng_'
'dikolobe_'
'dikitsisong_'
'dikitsiso_'
'dikhwaere_'
'dikhutlotharo_'
'dikhouno_'
'dikhosong_'
'dikhonteraka_'
'dikhonsarata_'
'dikhonferenseng_'
'dikhomphutara_'
'dikholetšhe_'
'dikhansele_'
'dikhamphani_'
'dikhampani_'
'dikgweng_'
'dikgotlang_'
'dikgethiso_'
'dikgatisong_'
'dikgakologo_'
'diketane_'
'dikemo_'
'dikema_'
'dikatso_'
'dikatse_'
'dikatoloso_'
'dikatlegong_'
'dikanelo_'
'dikamore_'
'dikaelong_'
'dikabo_'
'dijong_'
'dijini_'
'diitshimololelo_'
'diimeili_'
'diikonomi_'
'dihosetele_'
'diholo_'
'digela_'
'digalase_'
'diforomokopo_'
'difofane_'
'difficulties_'
'difane_'
'difakalthi_'
'dietsisi_'
'diedi_'
'didiseke_'
'didikirii_'
'didika_'
'dictionary_'
'diboloko_'
'dibolo_'
'dibankeng_'
'dibanka_'
'dibaeyofuele_'
'dibadi_'
'diatleng_'
'diapole_'
'diamond_'
'diameter_'
'dialogane_'
'dial_'
'diakhaefe_'
'diagram_'
'diNGO_'
'develops_'
'developers_'
'determining_'
'detectives_'
'detective_'
'despite_'
'desk_'
'desertification_'
'descent_'
'derived_'
'depended_'
'dependants_'
'dependant_'
'dependable_'
'departmental_'
'dental_'
'denote_'
'demonstrations_'
'demonstrating_'
'demographic_'
'demanding_'
'delighted_'
'delight_'
'deliberative_'
'delete_'
'delegated_'
'delay_'
'degradation_'
'defines_'
'defensive_'
'defend_'
'default_'
'deeply_'
'deed_'
'deduced_'
'decrease_'
'decomposition_'
'declares_'
'declare_'
'declaim_'
'decisively_'
'decisive_'
'decimals_'
'decentralisation_'
'decay_'
'decades_'
'debts_'
'debentures_'
'dealers_'
'deadline_'
'daughters_'
'dated_'
'dark_'
'dancing_'
'dance_'
'damp_'
'dad_'
'cyclist_'
'cyclicality_'
'customers_'
'customer_'
'custom_'
'cum_'
'culturally_'
'cultivation_'
'cubes_'
'crushed_'
'crossbend_'
'criticism_'
'creativity_'
'creates_'
'craiova_'
'corrosion_'
'corporations_'
'cornerstone_'
'corners_'
'corner_'
'cord_'
'coordinated_'
'coordinate_'
'convince_'
'conviction_'
'conveys_'
'conversation_'
'conventions_'
'convention_'
'convenient_'
'controls_'
'contributors_'
'contributor_'
'contrasting_'
'contractor_'
'continually_'
'contingent_'
'contention_'
'contending_'
'contemplated_'
'consultative_'
'constructively_'
'constitutionally_'
'constitutionality_'
'constituted_'
'constituent_'
'conspiracy_'
'consequently_'
'consequence_'
'conscious_'
'conscientiously_'
'confusion_'
'confused_'
'confronted_'
'confrontation_'
'conform_'
'confidently_'
'conducive_'
'condolences_'
'conditioning_'
'conclusion_'
'concessionary_'
'concert_'
'concentrates_'
'concentrate_'
'comrades_'
'components_'
'complement_'
'compilation_'
'compelled_'
'compel_'
'compass_'
'compare_'
'comparative_'
'communicating_'
'commitments_'
'commercialisation_'
'commended_'
'commend_'
'commemorate_'
'colocviu_'
'collectors_'
'collectively_'
'collected_'
'coins_'
'coincides_'
'cohesive_'
'cohabitation_'
'coach_'
'cloud_'
'closure_'
'closed_'
'climatic_'
'clicking_'
'clearer_'
'classify_'
'civilian_'
'civic_'
'circulated_'
'circular_'
'circles_'
'circle_'
'chronic_'
'choices_'
'childbirth_'
'chest_'
'cheerful_'
'checked_'
'chat_'
'charts_'
'chapters_'
'channel_'
'championships_'
'chambers_'
'chaired_'
'cerumious_'
'certify_'
'ceremonial_'
'cerebro_'
'centred_'
'centralisation_'
'ceases_'
'caustic_'
'catering_'
'cartilage_'
'carried_'
'carol_'
'careful_'
'cardiovascular_'
'cardboard_'
'captivity_'
'calm_'
'calculus_'
'cabinet_'
'buyer_'
'button_'
'butsweng_'
'busetswa_'
'busetse_'
'bureaucracy_'
'bureau_'
'bupi_'
'buletsweng_'
'bulegileng_'
'bulega_'
'buisega_'
'buisanwa_'
'buelela_'
'budgets_'
'browser_'
'bromide_'
'broad_'
'brilliant_'
'briefs_'
'breed_'
'breath_'
'breakthrough_'
'bread_'
'brands_'
'brains_'
'brain_'
'brachial_'
'boutelwa_'
'bought_'
'botsweretsi_'
'botswerere_'
'botsogo_'
'botso_'
'botshwantshi_'
'botshepegi_'
'botshabi_'
'botogare_'
'botlhatlheledi_'
'botlhapelo_'
'botlhami_'
'bothong_'
'bothitho_'
'bothakga_'
'botanic_'
'botala_'
'bosweu_'
'bosusu_'
'boss_'
'bosemorafe_'
'borwa_'
'borobedi_'
'borders_'
'boramolao_'
'borakgwebo_'
'borakanelo_'
'bophirima_'
'bophepa_'
'booki_'
'boo_'
'bonuses_'
'bontšhwa_'
'bontlhopheng_'
'bono_'
'bonngwe_'
'bongwana_'
'bond_'
'bomolao_'
'bomme_'
'bomasotharothataro_'
'bomasepala_'
'bomampodi_'
'bolokologi_'
'boloko_'
'bolokang_'
'boletsweng_'
'bolelwa_'
'boleletse_'
'bokwaledi_'
'bokgweetsi_'
'bokaelong_'
'bokaedi_'
'bojagisetso_'
'boitumediso_'
'boitshoko_'
'boitshimololedi_'
'boitshepo_'
'boitshediso_'
'boitsetsepelo_'
'boithaopi_'
'boitekanyetso_'
'boipuso_'
'boiphediso_'
'boipelo_'
'boikobo_'
'boife_'
'bogotlhe_'
'bogodu_'
'bogile_'
'bogela_'
'bofederale_'
'bofang_'
'boenjineri_'
'boenjenere_'
'boele_'
'boe_'
'bodiwa_'
'boditšhabatšhabeng_'
'boditshaba_'
'bodirelong_'
'bodiredipuso_'
'bodiragatsi_'
'bobona_'
'bobegadikgang_'
'boat_'
'boards_'
'boammaruri_'
'bneethling_'
'blanket_'
'bitsang_'
'births_'
'biotapoloso_'
'biennial_'
'bidding_'
'bid_'
'bicycles_'
'betla_'
'berekela_'
'beneficiaries_'
'bench_'
'belwa_'
'belonged_'
'beliefs_'
'belief_'
'belegwe_'
'belegetswe_'
'belegeng_'
'bekeng_'
'beiwe_'
'beibele_'
'begins_'
'begilweng_'
'beetswe_'
'beet_'
'beer_'
'beela_'
'beef_'
'bed_'
'bearers_'
'bearer_'
'beans_'
'bašweng_'
'batteries_'
'batswantle_'
'batshwarwa_'
'batseneledi_'
'batsei_'
'batlwa_'
'batlisisiwa_'
'batlisisang_'
'batlile_'
'batlhatlhobi_'
'batlhano_'
'batlhabolodi_'
'batleng_'
'batlana_'
'bathati_'
'bathaping_'
'bath_'
'baseball_'
'barutwa_'
'barbeque_'
'barati_'
'baporofesa_'
'bapatsa_'
'banks_'
'bandwidth_'
'band_'
'balelwang_'
'bakilweng_'
'baki_'
'bakgweetsi_'
'bakatisi_'
'baipei_'
'bagodi_'
'bagatisi_'
'baetletsi_'
'badirimmogong_'
'badiredipuso_'
'bacteriology_'
'backwards_'
'backlogs_'
'background_'
'babading_'
'baamogedi_'
'baambasatara_'
'baalogi_'
'awarding_'
'awaiting_'
'autumn_'
'autonomy_'
'authoritarian_'
'authorises_'
'authorise_'
'authorisation_'
'audiovisual_'
'attributes_'
'attractiveness_'
'attractive_'
'attracted_'
'attest_'
'attained_'
'attain_'
'atswelwa_'
'atologileng_'
'atlhotse_'
'atlanegisiwe_'
'atlanegisiwa_'
'atlanegisetswa_'
'athletic_'
'atemosefereng_'
'asterisk_'
'assured_'
'assuming_'
'assumes_'
'assume_'
'associations_'
'associated_'
'associate_'
'assign_'
'asset_'
'assessments_'
'assessing_'
'aspirations_'
'asiti_'
'asebesetose_'
'artists_'
'artisan_'
'artillery_'
'articular_'
'artery_'
'arriving_'
'arrived_'
'arrival_'
'arrears_'
'arrange_'
'arologanya_'
'army_'
'arm_'
'architecture_'
'arabiwang_'
'arabiwa_'
'aquifer_'
'appropriation_'
'appreciated_'
'appraised_'
'appointing_'
'apparently_'
'app_'
'apart_'
'anybody_'
'antiretroviral_'
'anticipation_'
'answered_'
'anonymously_'
'annualised_'
'announcements_'
'anegang_'
'anarchy_'
'analytic_'
'analysing_'
'analysed_'
'anaesthesia_'
'amphitheatre_'
'amogelesege_'
'amogeleng_'
'amogelele_'
'amoga_'
'amiwang_'
'amiwa_'
'amileng_'
'ambudsman_'
'amanngwa_'
'amane_'
'alumnus_'
'altogether_'
'alternate_'
'altered_'
'alter_'
'aloud_'
'almost_'
'allowance_'
'allergic_'
'alias_'
'algorithms_'
'algae_'
'alemanaka_'
'al_'
'akateming_'
'akaretse_'
'akarediwe_'
'akarediwang_'
'akareditswe_'
'akareditse_'
'akanyetse_'
'akantsweng_'
'akantswe_'
'airplane_'
'agronomic_'
'agro_'
'agilwe_'
'agileng_'
'agile_'
'agelela_'
'afidefiti_'
'afforestation_'
'afford_'
'affix_'
'affirming_'
'advisor_'
'advertising_'
'advertise_'
'adversity_'
'adverse_'
'advances_'
'adults_'
'adopting_'
'adopt_'
'administrations_'
'administers_'
'adequate_'
'addicted_'
'adaptations_'
'acute_'
'activism_'
'acted_'
'accused_'
'accumulated_'
'accrued_'
'accountancy_'
'accorded_'
'accord_'
'accomplishments_'
'accomplished_'
'accommodated_'
'accolades_'
'acclaimed_'
'accessibility_'
'acceptance_'
'accelerate_'
'abused_'
'abstracts_'
'abridged_'
'abilities_'
'abetse_'
'abelwe_'
'abelanwang_'
'abelanang_'
'abalone_'
'Zululand_'
'Zonia_'
'Zondo_'
'Zijl_'
'Zeerust_'
'Zandberg_'
'Zaaiman_'
'Yvette_'
'Y_'
'Xitsonga_'
'Xandri_'
'Wynand_'
'Worldgroup_'
'Workshops_'
'Word_'
'Witwatersrand_'
'Without_'
'Within_'
'Withdraw_'
'Wilge_'
'Wiehan_'
'Wicus_'
'WiFi_'
'Wholesale_'
'White_'
'Whatever_'
'Wet_'
'Wepe_'
'Wendy_'
'Wels_'
'Well_'
'Week_'
'Webosaeteng_'
'Wealth_'
'Watch_'
'Wat_'
'Warrant_'
'Wanda_'
'Walle_'
'Wales_'
'WIPO_'
'WHOLE_'
'WHICH_'
'Véronique_'
'Vries_'
'Voting_'
'Volume_'
'Visit_'
'Villa_'
'Vigil_'
'Vian_'
'Veterinarian_'
'Veruschka_'
'Vertical_'
'Verify_'
'Vergeer_'
'Venda_'
'Vehicle_'
'Variety_'
'Universitat_'
'Uniting_'
'Unfortunately_'
'Under_'
'Unal_'
'USSR_'
'UJ_'
'UCI_'
'Tübingen_'
'Tzu_'
'Tutu_'
'Tufvesson_'
'Tuesday_'
'Tuelelopele_'
'Tswanelo_'
'Tsotlhe_'
'Tshwetso_'
'Tshutiso_'
'Tshombe_'
'Tshivenda_'
'Tshenyo_'
'Tshenyego_'
'Tshegofatso_'
'Tshate_'
'Tsereganyo_'
'Tseosekao_'
'Tseno_'
'Tseleng_'
'Tsebe_'
'Truth_'
'Troutman_'
'Trek_'
'Treasury_'
'Transport_'
'Translating_'
'Transition_'
'Transfer_'
'Transdisciplinary_'
'Traffic_'
'Tonder_'
'Ton_'
'Togamaano_'
'Tlhotlheletso_'
'Tlhola_'
'Tlhokegang_'
'Tlhatlhoba_'
'Tlhaola_'
'Tlhaloganyo_'
'Tlhaga_'
'Tlhaboloso_'
'Tletseng_'
'Tlale_'
'Tla_'
'Titanic_'
'Tirelong_'
'Tikatikwe_'
'Tielman_'
'Thutong_'
'Thuthuzela_'
'Thutatshelo_'
'Thutafatshe_'
'Thusa_'
'Thus_'
'Thursday_'
'Thulaganyong_'
'Thomeletso_'
'Thinking_'
'Thapo_'
'Thapa_'
'Thanks_'
'Thabo_'
'Texas_'
'Tetlelelo_'
'Term_'
'TermWiki_'
'Terama_'
'Teng_'
'Tempelhoff_'
'Telkom_'
'Tel_'
'Tekolo_'
'Tekani_'
'Technologies_'
'Technologically_'
'Technicon_'
'Tebogo_'
'Taxpayers_'
'Taung_'
'Tau_'
'Tatlhegelo_'
'Task_'
'Tannah_'
'Take_'
'Tae_'
'Table_'
'Tabane_'
'TSP1_'
'TSOTLHE_'
'TO_'
'TM_'
'TLHATLHOBO_'
'TIRELO_'
'THUTO_'
'TENG_'
'TDNet_'
'Systems_'
'Syrian_'
'Sympathetic_'
'Suzman_'
'Sus_'
'Survey_'
'Supporting_'
'Supa_'
'Sunil_'
'Summary_'
'Subject_'
'Strydomhuis_'
'Stroebel_'
'Street_'
'Stoker_'
'Stereoscopic_'
'Step_'
'Steel_'
'Stay_'
'Stavast_'
'Sri_'
'Spray_'
'Species_'
'Specialised_'
'Sophia_'
'Sooliman_'
'Sontaga_'
'Sonette_'
'Sometimes_'
'Solly_'
'Smiley_'
'Skolie_'
'Skills_'
'Sithole_'
'Sisulu_'
'Sister_'
'Sireletsang_'
'Singh_'
'Simulation_'
'Silver_'
'Sidney_'
'Sias_'
'Siameng_'
'Shikha_'
'Shelley_'
'Sheets_'
'Shaka_'
'Sevens_'
'Sevenda_'
'Seven_'
'Settings_'
'Setlhopheng_'
'Setlapele_'
'Setlankana_'
'Setlalentoa_'
'Setho_'
'Seta_'
'Sere_'
'Sepotokisi_'
'Sepeini_'
'Sepedi_'
'Seoup_'
'Seoul_'
'Senthareng_'
'Senosi_'
'Sennheiser_'
'Senior_'
'Senata_'
'Selouna_'
'Selo_'
'Self_'
'Sele_'
'Sekolašipi_'
'Sejaneng_'
'Seisemane_'
'Seiphemelo_'
'Segerika_'
'Segatisa_'
'Sefikantswe_'
'Sefako_'
'Seemo_'
'Seed_'
'Sedirisiwa_'
'Sections_'
'Sebegoe_'
'Schyff_'
'Scam_'
'Sasolburg_'
'Sasha_'
'Santseng_'
'Sanet_'
'Samiti_'
'Sam_'
'Saldanha_'
'Salaries_'
'Sahara_'
'SUBTRACTION_'
'SUBJECT_'
'SUBJECTS_'
'STORYTELLING_'
'STC_'
'SN_'
'SIOPSA_'
'SEO_'
'SDL_'
'SAYNPS_'
'SAUSSC_'
'SASSU_'
'SASSETA_'
'SARIMA_'
'SANPAD_'
'SAMSA_'
'SAIOH_'
'SAGRA_'
'SAELA_'
'SACNASP_'
'SABPA_'
'Rélyne_'
'Ryke_'
'Ruzvidzo_'
'Ruth_'
'Russo_'
'Ruri_'
'Rudzani_'
'Ruda_'
'Rotlhe_'
'Rothmann_'
'Roscar_'
'Roberts_'
'Robberts_'
'Rhys_'
'Rhodes_'
'Rh_'
'Reyneke_'
'Retief_'
'Responsibilities_'
'Resolving_'
'Reservist_'
'Representative_'
'Repaboliki_'
'Rens_'
'Renaldo_'
'Religion_'
'Regulator_'
'Regulations_'
'Registering_'
'Regards_'
'Reetsa_'
'Recreation_'
'Records_'
'Reconciliation_'
'Recognition_'
'Reception_'
'Rebelo_'
'Real_'
'Raymond_'
'Ray_'
'Raubenheimer_'
'Ranta_'
'Rakhudu_'
'Rakabii_'
'Radio_'
'RSG_'
'RLV_'
'RE_'
'READING_'
'R83_'
'R75_'
'R70_'
'R54_'
'R53_'
'R250_'
'R225_'
'R12_'
'R129_'
'Quite_'
'Qualification_'
'Pusoselegae_'
'Puong_'
'Puisokwalo_'
'Puisano_'
'Psychosocial_'
'Psybergate_'
'Provident_'
'Provided_'
'Proteas_'
'Protea_'
'Prolific_'
'Program_'
'Profs_'
'Professionals_'
'Productive_'
'Pro_'
'Privilege_'
'Pricing_'
'Previous_'
'Prestigious_'
'Prestige_'
'Pressure_'
'Presley_'
'Presidents_'
'Presidency_'
'Premiers_'
'Prague_'
'Practitioners_'
'Practice_'
'Practical_'
'Potlana_'
'Postnet_'
'Possible_'
'Portuguese_'
'Portugal_'
'Porsche_'
'Porimia_'
'Polokwane_'
'Pollution_'
'Polity_'
'Polelo_'
'Point_'
'Poelano_'
'Player_'
'Play_'
'Platinum_'
'Placement_'
'Pityana_'
'Pittsburg_'
'Pierre_'
'Phyllis_'
'Phutso_'
'Phosolola_'
'Phokeng_'
'Philosophy_'
'Phd_'
'Phatlhatiro_'
'Phaseporoto_'
'Phaposing_'
'Phakisa_'
'Phaka_'
'Phagameng_'
'Peyper_'
'Petrus_'
'Petro_'
'Petra_'
'Peterson_'
'Personalise_'
'Permanent_'
'Perennial_'
'Pep_'
'Pennington_'
'Pelser_'
'Peer_'
'Payment_'
'Path_'
'Parts_'
'Paralympians_'
'Paragraph_'
'Papadias_'
'Pampiri_'
'Palogare_'
'Palestinian_'
'Palestine_'
'Palesetina_'
'Packaging_'
'PUBLIC_'
'PRMIA_'
'Oziniel_'
'Originally_'
'Organ_'
'Opposition_'
'OpenCMS_'
'Onase_'
'Oliver_'
'Okkie_'
'Ogilvie_'
'Often_'
'Oeloefsen_'
'Obtain_'
'Objects_'
'Obama_'
'OTC_'
'OPSC_'
'OBE_'
'Ntsha_'
'Ntle_'
'Nte_'
'Notify_'
'Notification_'
'Not_'
'Norme_'
'Nontobeko_'
'Nnete_'
'Ninth_'
'Nine_'
'Nienaber_'
'Nice_'
'Ngwenya_'
'Ngqura_'
'Newly_'
'Netshipale_'
'Netball_'
'Nepad_'
'Nelis_'
'Neethling_'
'Naya_'
'Nandi_'
'Nampak_'
'Names_'
'Naidoo_'
'NPPO_'
'NPO_'
'NOTES_'
'NLS_'
'NICOLA_'
'NGOs_'
'NFPF_'
'NEPAD_'
'NEHAWU_'
'NDP_'
'Muslims_'
'Musi_'
'Museum_'
'Murulana_'
'Munich_'
'Mumba_'
'Multiplication_'
'Mulaudzi_'
'Movement_'
'Mouton_'
'Motšhotšhisi_'
'Motshola_'
'Motshameko_'
'Motse_'
'Motlhami_'
'Motlhakanelwa_'
'Motlatsakhansele_'
'Mothale_'
'Moshedi_'
'Mosepele_'
'Moruo_'
'Moromelateng_'
'Morero_'
'Morektoro_'
'Mophatong_'
'Moono_'
'Moolman_'
'MooiVaal_'
'Montclair_'
'Monitor_'
'Mong_'
'Molema_'
'Mokoro_'
'Mokolo_'
'Mokgatlhong_'
'Mokatisi_'
'Mokansaliri_'
'Moitseanape_'
'Moithutatlhaloganyo_'
'Moira_'
'Mogoeng_'
'Mogare_'
'Moekonomi_'
'Modirelwa_'
'Modiko_'
'Model_'
'Mode_'
'Moamogedi_'
'Moaferika_'
'Mmidi_'
'Mmentlele_'
'Mmele_'
'Mmaraka_'
'Mmadisefe_'
'Mitton_'
'Mitchells_'
'Mission_'
'Mischke_'
'Minnet_'
'Minnesota_'
'Mineral_'
'Microsoft_'
'Micro_'
'Michael_'
'Mhlongo_'
'Mexico_'
'Metseselegae_'
'Metlotlo_'
'Metlele_'
'Metheo_'
'Merafe_'
'Memorial_'
'Membership_'
'Melanie_'
'Melaetsa_'
'Mekgatlo_'
'Meisi_'
'Megala_'
'Meeting_'
'Mediation_'
'Medi_'
'Medal_'
'Mechanisation_'
'Measuring_'
'Meal_'
'Mbuyu_'
'Mbulaheni_'
'Mbhele_'
'Mbete_'
'Mbao_'
'Maximum_'
'Mawatle_'
'Mavhuthu_'
'Mauritius_'
'Maud_'
'Matters_'
'Matshosetsi_'
'Matrix_'
'Matric_'
'Masters_'
'Masood_'
'Mashego_'
'Masetase_'
'Martso_'
'Martinus_'
'Martini_'
'Marthinus_'
'Markus_'
'Marks_'
'Marital_'
'Marijke_'
'Maribe_'
'Marianne_'
'Mariaan_'
'Marcus_'
'Marathon_'
'Maphakathi_'
'Manzo_'
'Mantsweng_'
'Mans_'
'Mankge_'
'Mangwe_'
'Mandlane_'
'Mandil_'
'Mandi_'
'Mandela27_'
'Managing_'
'Managements_'
'Manage_'
'Mampodi_'
'Mamabolo_'
'Malwetse_'
'Malie_'
'Mali_'
'Malan_'
'Malagasy_'
'Mala_'
'Makhubela_'
'Makgotla_'
'Makgatho_'
'Makauza_'
'Maize_'
'Maitlhomo_'
'Maitlamo_'
'Maina_'
'Main_'
'Maikarabelo_'
'Mahatma_'
'Magoro_'
'Magala_'
'Madam_'
'Machiel_'
'Mabala_'
'Maarten_'
'MS_'
'MRC_'
'MPR_'
'MO_'
'MOTLHATLHELEDI_'
'MEd_'
'MEC_'
'MD_'
'MALEBANA_'
'MAFISA_'
'MAEMO_'
'MADI_'
'Lynette_'
'Lydia_'
'Lusaka_'
'Luiperd_'
'Ludivine_'
'Lubile_'
'Lubbe_'
'Low_'
'Louisa_'
'Lottery_'
'Lottering_'
'Loagong_'
'Livingstone_'
'Lisbon_'
'Lirpa_'
'Liomee_'
'Lintvelt_'
'Linguistica_'
'Linguistic_'
'Line_'
'Lindeque_'
'Light_'
'Lifetime_'
'Liezel_'
'Liesel_'
'Lichtenberg_'
'Licensing_'
'Levi_'
'Letters_'
'Letter_'
'Letshwao_'
'Letseka_'
'Letlhogonolo_'
'Lesole_'
'Leslè_'
'Lerato_'
'Lenyalo_'
'Lenie_'
'Lengwe_'
'Lenaanethuto_'
'Lekwalopaka_'
'Lekgotlha_'
'Lekawana_'
'Leka_'
'Leinakgwebo_'
'Legislatures_'
'Lefoko_'
'Lefatsheng_'
'Lefapaha_'
'Lefa_'
'Leenta_'
'Leeds_'
'Lecturers_'
'Lebokoso_'
'Lebogang_'
'Leanne_'
'League_'
'Leading_'
'Laws_'
'Laurette_'
'Lauretta_'
'Laubscher_'
'Late_'
'Lanka_'
'Langmates_'
'Landman_'
'Lana_'
'Lamatlhatso_'
'Lakes_'
'Lacroix_'
'Laboratory_'
'Laboratories_'
'Laboratori_'
'LTM_'
'LRA7_'
'LPs_'
'LLD_'
'LLC_'
'LISA_'
'LETLHA_'
'LEKANYA_'
'LEGORO_'
'L1_'
'Kwena_'
'Kwalelano_'
'Kwadisitsweng_'
'Kwadilweng_'
'KwaDukuza_'
'Kutlwano_'
'Kusile_'
'Kopokgolo_'
'Kontinente_'
'Konofokeišene_'
'Kommuniko_'
'Kokomana_'
'Kokoanotheomolao_'
'Koegelenberg_'
'Kobie_'
'Klopper_'
'Kleynhans_'
'Kingsley_'
'Kingi_'
'Kinderverseboek_'
'Kilimanjaro_'
'Khumalo_'
'Khuchigokgolo_'
'Khonkerese_'
'Khomphiuta_'
'Khansaliri_'
'Kgwetlho_'
'Kgwebisano_'
'Kgonego_'
'Kgokaganyo_'
'Kgobokantsho_'
'Kgatlhanong_'
'Kgang_'
'Kgalema_'
'Kgakala_'
'Kgabaganyo_'
'Keriteria_'
'Kereiting_'
'Kenya_'
'Kegoikantse_'
'Karoo_'
'Karolothutong_'
'Karolong_'
'Karen_'
'Kafa_'
'KHOMIŠENE_'
'KGWEBISANO_'
'KAROLO_'
'KAKARETSO_'
'K3_'
'K2_'
'K1_'
'K19_'
'Jörgen_'
'Junk_'
'Juaan_'
'Joyce_'
'Journalists_'
'Journal_'
'Joseph_'
'Joining_'
'Jersey_'
'Jeremy_'
'Jeannine_'
'Jeanette_'
'Japane_'
'Jalelelo_'
'Jager_'
'JH_'
'JCPS_'
'J192_'
'J14_'
'Izak_'
'Itsise_'
'Its_'
'Israeli_'
'Isaac_'
'Ironman_'
'Iron_'
'Investments_'
'Introducing_'
'Intia_'
'Interpol_'
'Internationally_'
'Internationalisation_'
'Interface_'
'Interested_'
'Intercultural_'
'Intercampus_'
'Intelligence_'
'Inquiry_'
'Ingula_'
'Informatics_'
'InfoEd_'
'Increased_'
'Inc_'
'Ina_'
'InDesign_'
'Important_'
'Implementation_'
'Impact_'
'Immunisation_'
'Immediate_'
'Ikuele_'
'Ikopanye_'
'Ikanisiweng_'
'Idol_'
'Identify_'
'Ideally_'
'ISTD_'
'ISRC_'
'ISI_'
'IRMSA_'
'IRENSA_'
'INFORMATION_'
'IFP_'
'IEC_'
'IEASA_'
'ICNL_'
'IATIS_'
'Huyssteen_'
'Hunadi_'
'Huet_'
'Hub_'
'Hoërskool_'
'Households_'
'Hotline_'
'Hoste_'
'Hospital_'
'Horsley_'
'Hope_'
'Honesty_'
'Hon_'
'Holdings_'
'Hocking_'
'Hockey_'
'Hlungu_'
'Hindu_'
'Hiele_'
'Heyneke_'
'Herrie_'
'Hermann_'
'Herce_'
'Herald_'
'Henri_'
'Hennie_'
'Henk_'
'Hendri_'
'Hendra_'
'Hence_'
'Heleen_'
'Helberg_'
'Heinrich_'
'Heimat_'
'Heide_'
'Heart_'
'Havenga_'
'Haupt_'
'Hattingh_'
'Has_'
'Harvey_'
'Harrismith_'
'Harlequins_'
'Hanneli_'
'Handling_'
'Handboek_'
'Hand_'
'Hamelin_'
'HTTF_'
'HOLDS_'
'HEtransformation_'
'HELD_'
'Gymnasium_'
'Guillaume_'
'Guide_'
'Gugulethu_'
'Guardian_'
'Grid_'
'Greece_'
'Greater_'
'Graftech_'
'Gr_'
'Gorge_'
'Goreng_'
'Gone_'
'Goldfields_'
'Goals_'
'Goal_'
'Glyphosate_'
'Glossary_'
'Glenn_'
'Giyani_'
'Gimnasium_'
'Gilgun_'
'Ghana_'
'Get_'
'Geremane_'
'Gereformeerde_'
'Geraldine_'
'Geometric_'
'Gelant_'
'Gateway_'
'Gare_'
'Garden_'
'Gandhi_'
'Gaisa_'
'Gadinabokao_'
'GPS_'
'GA_'
'G5_'
'G15G_'
'G15E_'
'G14_'
'Fundraising_'
'Frouws_'
'Freda_'
'Fraud_'
'Francisco_'
'Four_'
'Fort_'
'Formule_'
'Formal_'
'Forest_'
'Fora_'
'Fisioloji_'
'Firearms_'
'Finland_'
'Find_'
'Fill_'
'Figure_'
'Fighting_'
'Fiennie_'
'Fetola_'
'Fetileng_'
'Feedback_'
'Feb_'
'Farrel_'
'Farmer_'
'Farm_'
'Falls_'
'Fakalthing_'
'Fair_'
'Facilitator_'
'FROM_'
'FOTO_'
'FOR_'
'FHSS_'
'F2_'
'F19_'
'F14_'
'F13_'
'F11_'
'Extraordinary_'
'Exceptional_'
'Except_'
'Excell_'
'Examples_'
'Examine_'
'Examination_'
'Events_'
'Ethno_'
'Esterhuizen_'
'Estate_'
'Esmarie_'
'Ernstzen_'
'Ernst_'
'Erica_'
'Equation_'
'Entrepreneurship_'
'Entity_'
'Engelane_'
'Encourage_'
'Enabling_'
'Employees_'
'Emile_'
'Elmien_'
'Ellis_'
'Electronic_'
'Elda_'
'Eikenhof_'
'Effective_'
'Effect_'
'Editors_'
'Editorial_'
'Eddie_'
'Eco_'
'Ebrahim_'
'EXCEL_'
'EST_'
'EPWP_'
'EPASA_'
'EMP101_'
'ECD_'
'EASA_'
'EACH_'
'Dyk_'
'Duo_'
'Duncan_'
'Duitser_'
'Due_'
'Driving_'
'Drivers_'
'Dries_'
'Drakensberg_'
'Dragons_'
'Draft_'
'Dome_'
'Doha_'
'Doctors_'
'Doctorate_'
'Doctor_'
'Diyunibesiti_'
'Ditumelo_'
'Ditumalano_'
'Ditswatemong_'
'Ditlhwatlhwa_'
'Ditlhare_'
'Ditlhangwa_'
'Ditlhagelo_'
'Ditlabelo_'
'Ditirisano_'
'Ditifikeiti_'
'Dithutego_'
'Dithata_'
'Ditaelo_'
'Distinguished_'
'Discrete_'
'Disata_'
'Dirori_'
'Direkoto_'
'Dipusoselegae_'
'Dipotso_'
'Diporokeramo_'
'Diponelopele_'
'Dipholisi_'
'Diphitlhelelo_'
'Diphesente_'
'Dipego_'
'Dipatlisisong_'
'Dipatente_'
'Dipalotharabololo_'
'Dipalanane_'
'Dipalamo_'
'Dipaki_'
'Dintsho_'
'Dinilesizwe_'
'Dingwe_'
'Dingwao_'
'Dinako_'
'Dinageng_'
'Dimensions_'
'Dilejiselatara_'
'Dikotsi_'
'Dikopano_'
'Dikhoso_'
'Dikhemikhale_'
'Dikhemikale_'
'Dikhansele_'
'Dikhamphase_'
'Dikhamphane_'
'Dikhalentara_'
'Dikgopolo_'
'Dikerii_'
'Dikatlholo_'
'Dikarolothuto_'
'Dikamore_'
'Dikakanyontšhwa_'
'Dikakanyo_'
'Dikai_'
'Dijana_'
'Difasilithi_'
'Dictionaries_'
'Dickson_'
'Dibanka_'
'Diatla_'
'Diathikele_'
'Diakhaonto_'
'Deventer_'
'Develop_'
'Despite_'
'Designers_'
'Describe_'
'Derivative_'
'Derek_'
'Denel_'
'Deloitte_'
'Delivery_'
'Delegates_'
'Degree_'
'Decision_'
'Decade_'
'Death_'
'Dear_'
'Dayton_'
'Days_'
'Davon_'
'Davies_'
'Davids_'
'Davel_'
'Database_'
'Damages_'
'Daelemans_'
'DVDs_'
'DVD_'
'DITIRELO_'
'DIPOLELO_'
'DESCRIPTION_'
'DA_'
'DATE_'
'DASHBOARD_'
'Cynthia_'
'Cycling_'
'Cutler_'
'Curriecup_'
'Cum_'
'Cuba_'
'CtexT_'
'Crop_'
'Crocodile_'
'Critical_'
'Crisis_'
'Courts_'
'Corporative_'
'Controlled_'
'Contributions_'
'Contravention_'
'Continuous_'
'Continued_'
'Consultation_'
'Consulate_'
'Constantinos_'
'Consortium_'
'Conservation_'
'Congo_'
'Conciliation_'
'Computing_'
'Compliance_'
'Complex_'
'Completes_'
'Compiled_'
'Communities_'
'Communicators_'
'Communicable_'
'Colloquium_'
'Codes_'
'Cluster_'
'Click_'
'Classic_'
'Clarise_'
'Clarice_'
'Claims_'
'Claassen_'
'Civil_'
'Citizenship_'
'Choose_'
'Choice_'
'Childrens_'
'Chikoti_'
'Chetty_'
'Chester_'
'Charter_'
'Champions_'
'Chairpersons_'
'Certify_'
'Certain_'
'Century_'
'Celeste_'
'Cattle_'
'Catherine_'
'Cat_'
'Canadia_'
'Can_'
'Camm_'
'Calls_'
'Calderbank_'
'Cachetpark_'
'CUT_'
'CSIC_'
'CSBL_'
'CSA_'
'CPA_'
'COSATU_'
'CNN_'
'CM46_'
'CL_'
'CK2_'
'CJ_'
'CA_'
'CATEGORIES_'
'C13_'
'Bütow_'
'Busetsa_'
'Burj_'
'Bukantswe_'
'Buisang_'
'Bruno_'
'Bronze_'
'Bronkie_'
'Bronkhorst_'
'Britain_'
'Brink_'
'Bridging_'
'Brian_'
'Breedt_'
'Braille_'
'Braai_'
'Boulevard_'
'Botsogo_'
'Botshelo_'
'Botlhoki_'
'Botlhami_'
'Botlhabatsatsi_'
'Botipe_'
'Botany_'
'Bosupi_'
'Borithane_'
'Boporesidente_'
'Bophelo_'
'Bopakakgwebo_'
'Bonn_'
'Boland_'
'Bokwaledi_'
'Bokao_'
'Bojalwa_'
'Boitseanape_'
'Boithuta_'
'Boineelo_'
'Boikarabelo_'
'Boers_'
'Body_'
'Bodiri_'
'Bodiredi_'
'Bobueledi_'
'Bobolokelong_'
'Bobo_'
'Bobegadikgang_'
'Boatlhodi_'
'Bloomberg_'
'Blood_'
'Bloemfontein_'
'Block_'
'Blikkieskosdag_'
'Blackberry_'
'Biswas_'
'Biosafety_'
'Biological_'
'Biokenetiki_'
'Bills_'
'Biggs_'
'Big_'
'Biblical_'
'Bezuidenhout_'
'Beyond_'
'Between_'
'Beth_'
'Bernice_'
'Berne_'
'Bernard_'
'Berlin_'
'Benefits_'
'Bellville_'
'Belgium_'
'Bela_'
'Bechuke_'
'Bechaz_'
'Batterbee_'
'Batswasetlhabelo_'
'Batshwarwa_'
'Bathapiwa_'
'Basson_'
'Barney_'
'Barley_'
'Barclays_'
'Baranodi_'
'Barack_'
'Baporof_'
'Banyana_'
'Bantu_'
'Bantshadikuno_'
'Bankatlhabololo_'
'Banaledikerii_'
'Balelapa_'
'Balekane_'
'Baleka_'
'Bakgweetsi_'
'Baitseanape_'
'Bailey_'
'Bahetane_'
'Bagwebi_'
'Bagolo_'
'Baduelalekgetho_'
'Bachelor_'
'Bach_'
'Babalamatlotlo_'
'Baatlhodi_'
'Baamogedi_'
'Baakanyetsa_'
'Baaging_'
'BPR_'
'BOIMA_'
'BEd_'
'BBA_'
'B4_'
'B11_'
'Azar_'
'Aviation_'
'Average_'
'Authorised_'
'Authorisation_'
'Austria_'
'Augmentation_'
'Audio_'
'Audacity_'
'Attended_'
'Atolositsweng_'
'Atisa_'
'Athikele_'
'Astro_'
'Assistant_'
'Assistance_'
'Assets_'
'Asma_'
'Asia_'
'Articles_'
'Article_'
'Areas_'
'Archival_'
'Applicants_'
'Apostille_'
'Apina_'
'Antverpiensia_'
'Antarctica_'
'Anneri_'
'Annelize_'
'Anne_'
'Annatjie_'
'Annamarie_'
'Anna_'
'Anjan_'
'Anita_'
'Andreas_'
'Andile_'
'Ananda_'
'Analytics_'
'Ampie_'
'Ambulatory_'
'Aliens_'
'Albertina_'
'Alabama_'
'Al_'
'Akinnusi_'
'Akhaonto_'
'Air_'
'Aileen_'
'Agaat_'
'Aga_'
'Africanisation_'
'Afitafiti_'
'Affidavit_'
'Aeronautics_'
'Advocate_'
'Advice_'
'Adri_'
'Adobe_'
'Admissions_'
'Adding_'
'Ada_'
'Activism_'
'Acrobat_'
'Achieving_'
'Achiever_'
'Accreditation_'
'Accountants_'
'Account_'
'Acceptance_'
'Abridged_'
'AUTHeR_'
'ATR_'
'AS_'
'ASSAF_'
'ARSAD_'
'APX_'
'APMS_'
'AMBA_'
'ADDITION_'
'ADC_'
'ABOUT_'
'ABET_'
'A5_'
'?_'
'97_'
'9789054876823_'
'95_'
'94_'
'910_'
'907_'
'855_'
'84_'
'841_'
'8292_'
'757_'
'732_'
'730_'
'70th_'
'707_'
'701_'
'69_'
'626_'
'5cm_'
'550_'
'5000_'
'49M_'
'4848_'
'478_'
'453_'
'450_'
'42_'
'35_'
'351_'
'350_'
'3463_'
'344_'
'337_'
'329_'
'311_'
'3000_'
'2nd_'
'246_'
'243_'
'242_'
'235_'
'227_'
'221_'
'220_'
'2190_'
'217_'
'211_'
'1990s_'
'1989_'
'1974_'
'1972_'
'1951_'
'1945_'
'1922_'
'180_'
'176_'
'168_'
'1636_'
'158_'
'157_'
'156_'
'148_'
'144_'
'126_'
'125cc_'
'125_'
'118_'
'111_'
'110_'
'108_'
'1057_'
'0861_'
'07_'
'03_'
'031_'
'02_'
'01_'
'016_'
'- " _'
', _'
'* ( _'
') _'
'' , _'
'$_'
' ±_'
' \u\u\u\u _'
' \u\u\u\u = \u\u\u\u_'
' ? ( ' _'
' ? "_'
' ? " _'
' ; ( _'
' ; " ; _'
' ... _'
' . . . . ._'
' . ' _'
' . " ; _'
' . " ._'
' - " _'
' , ±_'
' ) / _'
' ) . ( _'
' ( ( _'
' ' . "_'
' ' )_'
' " ) ._'
' ! ._'
' ! - _'
' ! !_'
'﻿ " _'
'™ ) , _'
'šedule_'
'à_'
'Ørsted_'
'¾_'
'½_'
'¼_'
'® ) ._'
'® ( _'
'¡_'
'zoos_'
'zoonoses_'
'zone_'
'zionist_'
'zest_'
'yunite_'
'youths_'
'youthful_'
'yielding_'
'yield_'
'yesteryear_'
'yekanyetso_'
'yeast_'
'yanakwana_'
'yabophelo_'
'yaa_'
'y_'
'xiii_'
'xenophobia_'
'xA0_'
'x99_'
'x994897_'
'x4915_'
'x3326_'
'www0_'
'wsenekal_'
'writes_'
'wreck_'
'wrapped_'
'wowed_'
'worthwhile_'
'worshipped_'
'worse_'
'worrying_'
'worry_'
'worm_'
'workplaces_'
'workings_'
'workgroups_'
'workforce_'
'workable_'
'woollen_'
'woodwork_'
'wood_'
'womensportswoman_'
'wives_'
'witnessed_'
'withstand_'
'withholds_'
'withheld_'
'withdrawal_'
'withdraw_'
'wished_'
'wise_'
'wisdoms_'
'wipes_'
'wins_'
'wings_'
'wine_'
'windmills_'
'willful_'
'wilfulness_'
'wikidioms_'
'widowse_'
'widower_'
'widow_'
'whirlwind_'
'whiplash_'
'whichmachine_'
'whereas_'
'wheezing_'
'wheelchair_'
'wheelbarrow_'
'wheat_'
'wetse_'
'wetsang_'
'western_'
'wepeng_'
'welawelang_'
'wekšhopong_'
'weighing_'
'weekends_'
'weeds_'
'wediwa_'
'weditswe_'
'websaete_'
'webosaeng_'
'weathering_'
'weathered_'
'weathercock_'
'wearing_'
'wearer_'
'weapons_'
'wean_'
'weaker_'
'weak_'
'waves_'
'wave_'
'watery_'
'waters_'
'waterproof_'
'wat_'
'wasn_'
'warships_'
'warriors_'
'warring_'
'warranty_'
'warrant_'
'warmest_'
'waltic_'
'walks_'
'walking_'
'wake_'
'waived_'
'wagon_'
'wa1998_'
'vulture_'
'vowel_'
'voter_'
'volatile_'
'voilin_'
'vocals_'
'vitality_'
'vitae_'
'visually_'
'visualise_'
'visitor_'
'visas_'
'viruses_'
'virtually_'
'violations_'
'violated_'
'vine_'
'vigorous_'
'vied_'
'vides_'
'victorious_'
'vicious_'
'vibrating_'
'vi_'
'veterans_'
'vested_'
'vesse_'
'vess_'
'vermicide_'
'veritable_'
'verifying_'
'verbalise_'
'verb_'
'venues_'
'venture_'
'ventilate_'
'venous_'
'vendetta_'
'velvet_'
'velocity_'
'vegetative_'
'varying_'
'variations_'
'variable_'
'vapours_'
'vanschaiknet_'
'vannie_'
'valve_'
'valuation_'
'valuables_'
'valley_'
'vagus_'
'vacuuma_'
'vacuum_'
'vaccines_'
'vacate_'
'vacant_'
'utlwisiwa_'
'utlwisisaneng_'
'utlwisisa_'
'utlwisang_'
'utlweng_'
'utlwela_'
'utlwatsang_'
'utlwanelwang_'
'utlwane_'
'utlwagalang_'
'utlwagala_'
'utilization_'
'utilises_'
'utilised_'
'utensil_'
'ushering_'
'urgently_'
'urgency_'
'urged_'
'urban_'
'ura_'
'upwards_'
'upulola_'
'uptake_'
'uproot_'
'uprising_'
'uprights_'
'uplifts_'
'upliftment_'
'uplift_'
'uphold_'
'upenn_'
'updates_'
'update_'
'unwellness_'
'unutilised_'
'unusual_'
'unsuspecting_'
'unsure_'
'unsteady_'
'unstance_'
'unserviceable_'
'unselfishness_'
'unscrupulous_'
'unresolved_'
'unreliable_'
'unregulated_'
'unprotected_'
'unpolluted_'
'unpaid_'
'unofficial_'
'unnoticed_'
'unmanned_'
'unlocked_'
'unlikely_'
'unite_'
'unisexual_'
'uniquely_'
'unincorporated_'
'unify_'
'uniformity_'
'ungwetse_'
'ungwelang_'
'unground_'
'unfounded_'
'unfortunately_'
'unfortunate_'
'unforeseen_'
'unforeseeable_'
'unfolding_'
'unfolded_'
'unfold_'
'unfavourable_'
'unfairly_'
'unexpected_'
'unequivocal_'
'unease_'
'undo_'
'undesirable_'
'underwent_'
'underutilisation_'
'undertook_'
'undertakes_'
'undertakers_'
'understandable_'
'undersea_'
'underpin_'
'underneaththem_'
'underneath_'
'underlating_'
'underground_'
'undergoing_'
'undercover_'
'uncultured_'
'uncooperative_'
'unconstitutional_'
'unconditional_'
'uncomplicated_'
'uncluttered_'
'unclaimed_'
'unchanged_'
'unchallengeable_'
'uncertainty_'
'unbridled_'
'unbelievably_'
'unauthorised_'
'unassisted_'
'unarmed_'
'unaccustomed_'
'unacceptably_'
'unabridged_'
'umakileng_'
'umakeng_'
'ultimately_'
'ultimate_'
'uit_'
'ugly_'
'ufs_'
'uages_'
'ua_'
'u\u\u\u\u\u\u_'
'u\u\u\u\u\u\u\u\u\u\u\u\u\u\u\u\u\u\u\u\u\u\u\u\u\u\u\u\u\u\u\u\u\u\u\u\u\u\u_'
'tšhupuphetiso_'
'tšhotšhisang_'
'tšhotlho_'
'tšhonololwe_'
'tšhemele_'
'tšhatšhe_'
'tšhateng_'
'tšhakgalo_'
'tšhagarana_'
'tšhaba_'
'tyranny_'
'typographic_'
'typist_'
'typing_'
'typhoid_'
'typesetter_'
'typeface_'
'typed_'
'twos_'
'twitter_'
'twisting_'
'tweng_'
'tweletsa_'
'twantsho_'
'tutors_'
'tutlomadi_'
'turnover_'
'turning_'
'turbulence_'
'turbo_'
'tuning_'
'tune_'
'tumelong_'
'tumelelanong_'
'tumelanong_'
'tumelanokganelo_'
'tumatlhaka_'
'tumanosi_'
'tumalelano_'
'tumagalapeng_'
'tulo_'
'tulips_'
'tukisiwang_'
'tukang_'
'tuition_'
'tug_'
'tuelotlase_'
'tuelokopo_'
'tuediso_'
'tuberculosis_'
'ttlhokegeng_'
'tswetsweng_'
'tswetse_'
'tswetsa_'
'tswelwa_'
'tsweletswe_'
'tsweletswang_'
'tsweletsopele_'
'tswelelwa_'
'tswelelelang_'
'tswelediwang_'
'tsweleditseng_'
'tsweledisetsa_'
'tswelediseng_'
'tswele_'
'tswelang_'
'tswee_'
'tswe_'
'tswanetse_'
'tswalela_'
'tswakaneng_'
'tsuntsunyetsa_'
'tsunami_'
'tsosolositseng_'
'tsosolositse_'
'tsosoloseng_'
'tsose_'
'tsoopedi_'
'tsongwa_'
'tsoge_'
'tsmaisong_'
'tsitsitseng_'
'tsileng_'
'tsietsang_'
'tsielegong_'
'tsiediwa_'
'tsieditse_'
'tsidifaditsweng_'
'tsibositse_'
'tsibogo_'
'tsibogileng_'
'tsibogelang_'
'tsiamo_'
'tshwenyegileng_'
'tshwenyegile_'
'tshwenyega_'
'tshwarokiletso_'
'tshwarisang_'
'tshwareng_'
'tshwarelo_'
'tshwareletseng_'
'tshwarane_'
'tshwarana_'
'tshwaraganyang_'
'tshwaragantsweng_'
'tshwaragantshitswe_'
'tshwaraganetswe_'
'tshwaraganetse_'
'tshwaraganela_'
'tshwantshothapamo_'
'tshwantshokgopolo_'
'tshwantsho_'
'tshwantshitseng_'
'tshwantshetso_'
'tshwantshetsa_'
'tshwantshanyegang_'
'tshwantshanya_'
'tshwantshanngwe_'
'tshwantshangwe_'
'tshwantshangwa_'
'tshwanologo_'
'tshwano_'
'tshwanngwa_'
'tshwangtshwang_'
'tshwanelong_'
'tshwanelegelang_'
'tshwanelegang_'
'tshwakgolo_'
'tshwaiwe_'
'tshwaiso_'
'tshwaetsanololo_'
'tshwaetsano_'
'tshwaelwa_'
'tshutluetso_'
'tshutluetsa_'
'tshusumetso_'
'tshusufalo_'
'tshupotshwano_'
'tshupiso_'
'tshupatuelo_'
'tshupapopego_'
'tshupapolokelo_'
'tshupane_'
'tshupamolatong_'
'tshupamolato_'
'tshupamatlha_'
'tshugommu_'
'tshouto_'
'tshoutiso_'
'tshotswe_'
'tshotseng_'
'tshotlakako_'
'tshosediwa_'
'tshoromokhibidu_'
'tshomololo_'
'tshololwa_'
'tsholetsegileng_'
'tshokoloto_'
'tshokameng_'
'tshoka_'
'tshitsinya_'
'tshitshinyang_'
'tshitshinya_'
'tshitshintswe_'
'tshisintsweng_'
'tshirego_'
'tshimolodiso_'
'tshikinyo_'
'tshikintswe_'
'tshikinngwa_'
'tshiamong_'
'tshiamiso_'
'tshiamisetso_'
'tshiamelotiriso_'
'tshhwarwa_'
'tsheto_'
'tshetlha_'
'tshesane_'
'tshepo_'
'tshepiwe_'
'tshepha_'
'tshepagale_'
'tshepagalang_'
'tshenyokgolo_'
'tshenyegong_'
'tshenolo_'
'tshenekegitshenyi_'
'tshelwa_'
'tshelong_'
'tshelo_'
'tshelelang_'
'tshelegetsweng_'
'tshekong_'
'tshekometsi_'
'tshekokatiso_'
'tshekogong_'
'tshekela_'
'tshekego_'
'tshekatshekopapatso_'
'tshegofatso_'
'tshegetswang_'
'tshegetswa_'
'tshegetsong_'
'tshegetse_'
'tshegeditseng_'
'tshege_'
'tshegatshegane_'
'tshedimoso_'
'tshedimosetsong_'
'tshedile_'
'tshamekileng_'
'tshamekile_'
'tshamekeng_'
'tshamekelwang_'
'tshamekelang_'
'tshameke_'
'tshalo_'
'tshalelomorago_'
'tshaenong_'
'tshaeno_'
'tshadi_'
'tshabeng_'
'tshabafadiwa_'
'tseyeng_'
'tseya_'
'tsetsepetse_'
'tsetsepelo_'
'tsereganya_'
'tsepiwa_'
'tsepamiwa_'
'tsepamisemaikutlo_'
'tsepametse_'
'tsepa_'
'tseotshwetso_'
'tseong_'
'tseokarolo_'
'tsenyoteng_'
'tsenyo_'
'tsenyetsa_'
'tsenwetsenwe_'
'tsentshitsweng_'
'tsentshang_'
'tsenngwatirisong_'
'tsengwe_'
'tsengwa_'
'tsenetswe_'
'tsenetse_'
'tseneletse_'
'tseneletsa_'
'tseneleseng_'
'tsenelelo_'
'tselegantsweng_'
'tseleganngwa_'
'tselatshimo_'
'tseewe_'
'tseetsweng_'
'tseanya_'
'tsamya_'
'tsamisiwang_'
'tsamayeng_'
'tsamatsamayang_'
'tsamao_'
'tsamaiswa_'
'tsamaisopuso_'
'tsamaisiwe_'
'tsamaisetsa_'
'tsamaiseng_'
'tsamaise_'
'tsamaisano_'
'tsamaisanngwa_'
'tsamaelwa_'
'tsamaelano_'
'tsamaelane_'
'tsalwe_'
'tsalwang_'
'tsalosešwa_'
'tsaletsweng_'
'tsalantsha_'
'tsalano_'
'tsaemaelana_'
'tsadisontle_'
'tsadisomae_'
'tsadikotla_'
'tsabakele_'
'tsaabo_'
'tsaThusong_'
'ts6_'
'ts17_'
'ts12_'
'ts10_'
'truthfully_'
'truth_'
'trunk_'
'trout_'
'trousers_'
'trouble_'
'trophies_'
'trivial_'
'triumphed_'
'triticale_'
'trips_'
'tries_'
'tricycle_'
'trick_'
'tricameral_'
'triangles_'
'trespass_'
'trenching_'
'tremendously_'
'treble_'
'tread_'
'tray_'
'travelling_'
'traveller_'
'trash_'
'transposition_'
'transposing_'
'transported_'
'transplantation_'
'transplant_'
'transmitting_'
'translator_'
'translations_'
'translationaward_'
'transfusion_'
'transformator_'
'transferring_'
'transdisciplinary_'
'transcendental_'
'tranquility_'
'tranquil_'
'tranflex_'
'trajectory_'
'traits_'
'traingle_'
'trails_'
'trail_'
'tragedy_'
'trademarks_'
'tract_'
'traced_'
'toxins_'
'tower_'
'toulo_'
'touchpoints_'
'totometsang_'
'totobatso_'
'totileng_'
'tortured_'
'torowa_'
'torotswana_'
'toropongkgolo_'
'toropokgolong_'
'toropokgaolo_'
'topping_'
'topology_'
'topological_'
'tooltip_'
'toolkit_'
'tonight_'
'tongues_'
'tonal_'
'ton_'
'tomaine_'
'tolokwang_'
'tolokiwang_'
'tolokelwa_'
'tolerate_'
'tolerable_'
'tolamiso_'
'tokololotheledi_'
'tokologanyo_'
'tokofatswe_'
'tokofatswa_'
'tokofatso_'
'tokelo_'
'tokafetsa_'
'tokafatswa_'
'tokafatsong_'
'tokafalang_'
'tokafaditswe_'
'toka_'
'toitshe_'
'toilets_'
'toilet_'
'togomelao_'
'togomaano_'
'togo_'
'togelamojeng_'
'togamaanotlhomong_'
'togamaanotlhomo_'
'togamaanong_'
'toed_'
'tobane_'
'toast_'
'toad_'
'tlwaelong_'
'tlwaediwa_'
'tlou_'
'tlotswe_'
'tlotlomatso_'
'tlotlomadiwa_'
'tlotliwang_'
'tlotlile_'
'tlotlego_'
'tlotlang_'
'tlosiwang_'
'tlontlolola_'
'tlolwang_'
'tlolwa_'
'tloliwa_'
'tlola_'
'tlohphiwa_'
'tlogetseng_'
'tlogelweng_'
'tlogelatiro_'
'tloele_'
'tlodisiwa_'
'tlodisa_'
'tlkokagala_'
'tlkhokego_'
'tliswang_'
'tlisitsweng_'
'tlisitswe_'
'tlisitseng_'
'tlisetsang_'
'tlise_'
'tlilwe_'
'tliliniki_'
'tlhwekiso_'
'tlhwekisiwang_'
'tlhotšhwa_'
'tlhotswe_'
'tlhotlhomisa_'
'tlhotlhololwe_'
'tlhotlho_'
'tlhotlheletswa_'
'tlhotlheletse_'
'tlhotlheletsano_'
'tlhose_'
'tlhorisa_'
'tlhophiwe_'
'tlhophiwang_'
'tlhopheng_'
'tlhophelwang_'
'tlhophelang_'
'tlhophe_'
'tlhongwe_'
'tlhomosemmuso_'
'tlhomomolaokgolo_'
'tlhomologa_'
'tlhomogelopelo_'
'tlhomogela_'
'tlhomiwe_'
'tlhomileng_'
'tlhomelwe_'
'tlhomelong_'
'tlhomara_'
'tlhomamiswa_'
'tlhomamisitswe_'
'tlhomamisitswang_'
'tlhomamisistsweng_'
'tlhomamisetse_'
'tlhomamisegweng_'
'tlhomamisege_'
'tlhomamise_'
'tlhomame_'
'tlhomaganya_'
'tlhomagantsweng_'
'tlhomagano_'
'tlholwang_'
'tlholwa_'
'tlholela_'
'tlholegileng_'
'tlholegang_'
'tlholega_'
'tlhokomologilwe_'
'tlhokometswe_'
'tlhokomelwang_'
'tlhokomelotota_'
'tlhokomeleng_'
'tlhokomelana_'
'tlhokomediso_'
'tlhokofalang_'
'tlhokalesego_'
'tlhokagaleng_'
'tlhokagale_'
'tlhokagalang_'
'tlhokafaletse_'
'tlhogong_'
'tlhogokwalo_'
'tlhoga_'
'tlhofofatseng_'
'tlhofofaletseng_'
'tlhodileng_'
'tlhodile_'
'tlhobolotse_'
'tlhobaetsa_'
'tlhobaelo_'
'tlhoaneng_'
'tlhelele_'
'tlhatlogo_'
'tlhatlogang_'
'tlhatlhoso_'
'tlhatlhogile_'
'tlhatlhobotlaleletso_'
'tlhatlhobile_'
'tlhatlhobe_'
'tlhatlhobang_'
'tlhatlhelwe_'
'tlhatlhelang_'
'tlhatlhela_'
'tlhatlhamololwang_'
'tlhatlhamololo_'
'tlhatlhamolola_'
'tlhatlhamanometlha_'
'tlhasetse_'
'tlhaselo_'
'tlhapologa_'
'tlhapholo_'
'tlhapela_'
'tlhaotsweng_'
'tlhaolwang_'
'tlhaolosetso_'
'tlhaolosa_'
'tlhaoleng_'
'tlhaolelwa_'
'tlhaolegela_'
'tlhaole_'
'tlhantlhelo_'
'tlhanolo_'
'tlhankelwa_'
'tlhangwa_'
'tlhanasela_'
'tlhamololo_'
'tlhamileng_'
'tlhamelwang_'
'tlhamelwa_'
'tlhamelo_'
'tlhamatsegang_'
'tlhamalatso_'
'tlhalthoba_'
'tlhalpganyo_'
'tlhalosopalo_'
'tlhalositseng_'
'tlhalosetse_'
'tlhaloseditsweng_'
'tlhaloganyommogo_'
'tlhaloganyesege_'
'tlhaloganyesega_'
'tlhaloganngwe_'
'tlhaloganngwa_'
'tlhalane_'
'tlhakwana_'
'tlhakoyapitse_'
'tlhakoreng_'
'tlhakolothoto_'
'tlhakatlhakanyo_'
'tlhakantshweng_'
'tlhakanetswe_'
'tlhakanetseng_'
'tlhakaneng_'
'tlhakanelwa_'
'tlhakanelo_'
'tlhakaneledithoto_'
'tlhakaina_'
'tlhagola_'
'tlhagiswa_'
'tlhagisomaikutlo_'
'tlhagisogape_'
'tlhagisodirašwa_'
'tlhagisodikuno_'
'tlhagisitseng_'
'tlhagile_'
'tlhageletse_'
'tlhagelelo_'
'tlhagang_'
'tlhagafala_'
'tlhaetsa_'
'tlhaeletsanwa_'
'tlhaeletsanoseileketeroniki_'
'tlhaeletsane_'
'tlhaelediwa_'
'tlhabolotswe_'
'tlhaboloso_'
'tlhabolosang_'
'tlhabololwang_'
'tlhabolole_'
'tlhabologileng_'
'tlhabano_'
'tlhabaganya_'
'tlelorofomo_'
'tleloraetekgotlho_'
'tleliniki_'
'tleleniki_'
'tleleimi_'
'tleleima_'
'tlelasiki_'
'tlelang_'
'tlela_'
'tlanyotetlo_'
'tlanya_'
'tlanngwang_'
'tlamo_'
'tlametsweng_'
'tlametseng_'
'tlametse_'
'tlamelwang_'
'tlaloganya_'
'tlalelwa_'
'tlaleletsi_'
'tladiwe_'
'tladitswe_'
'tlabeng_'
'titumalano_'
'titielo_'
'tissues_'
'tisong_'
'tirosong_'
'tirokgolong_'
'tiriswagape_'
'tiriswa_'
'tirisomakgwakgwa_'
'tirisokgopolo_'
'tirisogape_'
'tirelopuso_'
'tirelopateletso_'
'tirelongbosetšhaba_'
'tirelokgasokgwebo_'
'tirelokgasogae_'
'tirelokgaso_'
'tired_'
'tiragatsophetelela_'
'timotsweng_'
'timolang_'
'timiwang_'
'timing_'
'timetable_'
'timers_'
'timeously_'
'timely_'
'timela_'
'timeframe_'
'timatimetsa_'
'tilwa_'
'tilth_'
'till_'
'tileng_'
'tile_'
'tikololo_'
'tikologoloago_'
'tiisang_'
'tiileng_'
'tight_'
'ties_'
'tidimalo_'
'tickets_'
'ticket_'
'tibileng_'
'thwarting_'
'thutsana_'
'thutothulaganyothoto_'
'thutopuiso_'
'thutokgopololo_'
'thutokatisong_'
'thuthufatsa_'
'thuthafalo_'
'thutatikologo_'
'thutatekanyo_'
'thutapuo_'
'thutapalo_'
'thutalefatshe_'
'thutafatsang_'
'thuswa_'
'thusomorafe_'
'thusiwang_'
'thuong_'
'thunyo_'
'thunyang_'
'thundery_'
'thunderstorm_'
'thulo_'
'thulano_'
'thulana_'
'thulaganyothugo_'
'thulaganyotatelo_'
'thulaganyosebedi_'
'thulagano_'
'thukhutho_'
'thugo_'
'thubega_'
'thubakolosise_'
'thuba_'
'thuanyitlhaodi_'
'thuanyirui_'
'thuanyi_'
'thswaragano_'
'throwing_'
'throughput_'
'throne_'
'thrombosis_'
'thrive_'
'threes_'
'threefold_'
'threaten_'
'thoughtful_'
'thotong_'
'thoroughness_'
'thoroughly_'
'thoromong_'
'thonamenteng_'
'thon_'
'thomo_'
'thomeloteng_'
'thokaganyo_'
'thobong_'
'thitokgang_'
'thistle_'
'thirst_'
'thinker_'
'thimotso_'
'thickness_'
'thibolola_'
'thibetseng_'
'thibelwang_'
'thibelelwe_'
'thibelela_'
'thibelang_'
'thibelaketegelo_'
'thibana_'
'thiba_'
'thewashing_'
'thetelelobokgoni_'
'thetelelo_'
'theses_'
'thero_'
'thermostat_'
'thermal_'
'therina_'
'therapists_'
'theraoto_'
'theories_'
'theoretically_'
'theology_'
'theologist_'
'thenese_'
'thenecessary_'
'thendara_'
'thelen_'
'thelebišeneng_'
'theknoloji_'
'thekisontle_'
'thekethe_'
'thekenikoneng_'
'theilwe_'
'theileng_'
'thefollowing_'
'thefolelopele_'
'theetso_'
'thedimosi_'
'thebolelotuelo_'
'thebolelothekete_'
'thebolelotetla_'
'thatoro_'
'thatong_'
'thathamologetswe_'
'thathamologelo_'
'tharaano_'
'thapong_'
'thaphiwa_'
'thaphilweng_'
'thapelwe_'
'thape_'
'thapamo_'
'thanya_'
'thanololo_'
'thankgolola_'
'thanked_'
'thalo_'
'thalela_'
'thalamoweng_'
'thago_'
'thaetlele_'
'thaereng_'
'thadisa_'
'teye_'
'texture_'
'textile_'
'tetlokhopi_'
'tetlelo_'
'tetlelelosemmuso_'
'tetlanyo_'
'tetifikeiti_'
'tetanus_'
'teseteišhene_'
'tesekeng_'
'terrace_'
'terotswaneng_'
'teroposefere_'
'termwiki_'
'termism_'
'terminologies_'
'terminations_'
'terilione_'
'terena_'
'terama_'
'teraebeng_'
'tepatepanyo_'
'teosešwa_'
'teoring_'
'teokarolo_'
'tension_'
'tennyanateng_'
'tennis_'
'tenese_'
'tend_'
'tenang_'
'temptation_'
'tempoleiti_'
'tempo_'
'temperate_'
'temonosi_'
'temokerasing_'
'temokerafi_'
'temeko_'
'temakgang_'
'telling_'
'telkomsa_'
'telkom_'
'telephonically_'
'teleko_'
'telecommunication_'
'telebišeneng_'
'tel_'
'tekololo_'
'tekokitso_'
'teknoloji_'
'tekatekanyo_'
'tekanyetsotolamiso_'
'tekanyetsomatlotlo_'
'tekanyetsokabong_'
'tekanelotsamaiso_'
'tekanawatle_'
'tefosano_'
'teething_'
'teeth_'
'tee_'
'tech_'
'tebopele_'
'tebo_'
'tebisa_'
'tebelelo_'
'tear_'
'teamwork_'
'teachings_'
'te_'
'taylorii_'
'taxi_'
'taxation_'
'tavern_'
'tattoos_'
'tattlers_'
'tatlhegelotota_'
'tatelanong_'
'tastes_'
'taste_'
'tare_'
'taped_'
'tap_'
'taoloitirisi_'
'taolodisenying_'
'taolobolaodi_'
'tantabela_'
'tankeng_'
'tank_'
'tangled_'
'tangible_'
'tamusiwa_'
'tamong_'
'tame_'
'talking_'
'taletso_'
'tale_'
'takileng_'
'tagi_'
'tagged_'
'tafole_'
'tactics_'
'tactical_'
'tabling_'
'ta_'
'tIile_'
'systemin_'
'symmetric_'
'symbolises_'
'symbolic_'
'swordfish_'
'swoosh_'
'switching_'
'swisa_'
'swinging_'
'swing_'
'swine_'
'swimming_'
'swim_'
'swiftly_'
'swetswa_'
'sweetsang_'
'sweets_'
'sweeping_'
'swediwa_'
'sweating_'
'sweat_'
'swearing_'
'swear_'
'swam_'
'swallows_'
'swa_'
'sutisetsa_'
'suteletswa_'
'sustenance_'
'sustainably_'
'sustain_'
'suspect_'
'sushi_'
'susam_'
'survivors_'
'survivor_'
'surveys_'
'surveyor_'
'surveillance_'
'surroundings_'
'surprise_'
'surplus_'
'surnames_'
'surgery_'
'surgeon_'
'surfaces_'
'surf_'
'surety_'
'sureeveryone_'
'suptsweng_'
'supplier_'
'supplement_'
'suphamaketeng_'
'supetsang_'
'supervise_'
'superseding_'
'supernova_'
'supernatural_'
'superlative_'
'superior_'
'super_'
'sunscreen_'
'summoning_'
'summit_'
'summative_'
'sulphuric_'
'suleng_'
'sulcotrine_'
'suicide_'
'suggestion_'
'suggesting_'
'suggest_'
'suffrage_'
'suffocation_'
'sufficiently_'
'suffering_'
'suffered_'
'suddenly_'
'sudden_'
'successors_'
'successor_'
'successive_'
'succession_'
'succeeds_'
'succeeded_'
'suburbs_'
'subtract_'
'subtitling_'
'subsurface_'
'substructure_'
'substituting_'
'substituted_'
'substitute_'
'substantive_'
'substantiate_'
'subsidised_'
'subsidisation_'
'subscriptions_'
'subscription_'
'subscriber_'
'subordinate_'
'subdepartment_'
'stunts_'
'stuiwer_'
'stuffy_'
'stud_'
'stuck_'
'stubble_'
'struts_'
'strut_'
'struck_'
'strongly_'
'strive_'
'strip_'
'strides_'
'stricken_'
'stresses_'
'strengths_'
'strengthens_'
'streets_'
'stratum_'
'stratosphere_'
'stratis_'
'strata_'
'stranger_'
'strange_'
'stranded_'
'strains_'
'stoves_'
'stout_'
'storm_'
'storey_'
'stopping_'
'stitching_'
'stint_'
'stimulated_'
'stil_'
'stifled_'
'stewardship_'
'steward_'
'sterling_'
'sterilising_'
'sterilise_'
'stereotypes_'
'stems_'
'steering_'
'steered_'
'steamrolled_'
'steady_'
'stays_'
'statutes_'
'stationer_'
'static_'
'statehood_'
'starvation_'
'starkly_'
'stardom_'
'standardisation_'
'stalwart_'
'stalking_'
'stakes_'
'stagnation_'
'stadiums_'
'stadia_'
'stabilize_'
'stabilised_'
'stabilise_'
'squatter_'
'squash_'
'square_'
'squad_'
'spur_'
'springs_'
'spotted_'
'sportsmanship_'
'sportsfield_'
'sponsorship_'
'sponsors_'
'sponsoring_'
'spokespeople_'
'splitting_'
'split_'
'spite_'
'spirits_'
'spinoffs_'
'spinach_'
'spin_'
'spillage_'
'spherical_'
'spermatozoon_'
'spellcheckers_'
'spellchecker_'
'speculation_'
'speculate_'
'spectrum_'
'spectator_'
'specially_'
'specialisation_'
'spearhead_'
'spear_'
'speaks_'
'spatial_'
'sparsely_'
'sparrow_'
'sparked_'
'sparesely_'
'spared_'
'spanning_'
'spaces_'
'soybeans_'
'sow_'
'sovereign_'
'sourced_'
'sotlileng_'
'sotlakiwa_'
'sota_'
'sosi_'
'sosaeteng_'
'sorting_'
'sort_'
'sorrow_'
'sorely_'
'sore_'
'sopo_'
'sooner_'
'sons_'
'sonobolomo_'
'songs_'
'sometlhanong_'
'sometharo_'
'somerobonngwe_'
'somerobongwe_'
'somenne_'
'someamabedi_'
'somarobongwe_'
'somarelang_'
'somamatlhano_'
'somamaratarotlhano_'
'somamanetharo_'
'somamabeditlhano_'
'somamabediraro_'
'solute_'
'soloist_'
'sologelwe_'
'sologele_'
'sologelang_'
'solofetseng_'
'solofa_'
'solidarity_'
'solicit_'
'solegele_'
'solegelang_'
'soldering_'
'sokame_'
'softer_'
'softball_'
'soft_'
'sofotewere_'
'sofetewere_'
'soen_'
'soe_'
'sod_'
'socket_'
'societal_'
'socials_'
'socially_'
'socialising_'
'snowfall_'
'snow_'
'snooping_'
'sneezing_'
'snap_'
'smuggling_'
'smear_'
'smarter_'
'smallholders_'
'slum_'
'slow_'
'sloping_'
'slopes_'
'slogan_'
'sling_'
'slight_'
'slice_'
'slaves_'
'slaughterhouses_'
'slate_'
'slapping_'
'slant_'
'slanderers_'
'slake_'
'skylte_'
'skips_'
'skilling_'
'skilled_'
'sketches_'
'skeleton_'
'sixty_'
'sits_'
'sitlhomolotseng_'
'sitlholola_'
'sitisa_'
'sirilweng_'
'sireletseng_'
'sireletsegile_'
'sireletsang_'
'sireleditse_'
'sink_'
'singled_'
'singing_'
'singers_'
'sing_'
'sinensis_'
'sincerely_'
'sincere_'
'simulators_'
'simulating_'
'simulate_'
'simposiamo_'
'simolotswe_'
'simololwe_'
'simololwang_'
'simololola_'
'simologileng_'
'simologile_'
'simologang_'
'simologa_'
'similarity_'
'silwa_'
'silk_'
'silikhosise_'
'silently_'
'silent_'
'silence_'
'silage_'
'silabase_'
'sikarisitswe_'
'significance_'
'signatures_'
'signatory_'
'signage_'
'siditsweng_'
'sidila_'
'sides_'
'sicknesses_'
'siamisiwa_'
'siamisitswe_'
'siamisetswa_'
'siamisediwa_'
'siamisang_'
'siSwati_'
'shut_'
'shrink_'
'shrine_'
'shower_'
'showcases_'
'showcase_'
'shortsighted_'
'shortfall_'
'shorter_'
'shortened_'
'shortcomings_'
'shortcoming_'
'shortages_'
'shopstewards_'
'shops_'
'shooting_'
'shock_'
'shirt_'
'shipped_'
'shipment_'
'shiny_'
'shining_'
'shiga_'
'shielding_'
'sheriff_'
'sheltered_'
'shelf_'
'sheetmetalwork_'
'sheeting_'
'sham_'
'shaking_'
'shadow_'
'shack_'
'sešwaba_'
'seyo_'
'sewerage_'
'sewage_'
'severance_'
'severable_'
'setšhuu_'
'setšhabakgatlhanong_'
'setÅ_'
'setudio_'
'settling_'
'settled_'
'settle_'
'settings_'
'setswerere_'
'setswe_'
'setswalo_'
'setsosa_'
'setsomi_'
'setsibotlhase_'
'setshwari_'
'setshwareledi_'
'setshwai_'
'setsholetsi_'
'setsholabeterii_'
'setshetsana_'
'setsheng_'
'setshegetsamaotwana_'
'setshegetsa_'
'setshameki_'
'setshabeng_'
'setsereganyi_'
'setsamaisamotlakase_'
'setotwana_'
'setos_'
'setori_'
'setopo_'
'setlosa_'
'setlogolo_'
'setlisa_'
'setlhotswane_'
'setlhotshwana_'
'setlhotlhwa_'
'setlhophatekano_'
'setlhopapuo_'
'setlhopa_'
'setlhokopitse_'
'setlhobaetsi_'
'setlhatlhojwa_'
'setlhare_'
'setlhalosa_'
'setlhale_'
'setlhakgwelo_'
'setlhagisi_'
'setlhabelo_'
'setlhabelamagodu_'
'setlatsa_'
'setlapele_'
'setlanyetsagole_'
'setlamong_'
'setlamelong_'
'setlamelo_'
'setlama_'
'setilo_'
'setileng_'
'sethuthusi_'
'sethong_'
'sethobošeane_'
'sethoboloko_'
'sethibelapelegi_'
'sethibelalegadima_'
'sethetesekoupu_'
'setheosegolo_'
'sethalephopholetsa_'
'setering_'
'seteratosefere_'
'seteng_'
'setemothuo_'
'seteišenewekone_'
'setefikeiteng_'
'setatamenteng_'
'setala_'
'seswa_'
'sesupopate_'
'sessional_'
'sesolo_'
'sesitla_'
'sesireletsamatlho_'
'sesiraphefo_'
'sesefa_'
'sesaense_'
'serwebotlhole_'
'seromelwantle_'
'serodumo_'
'serobedi_'
'seriousness_'
'seraro_'
'seraleng_'
'serala_'
'sequenced_'
'seporofeshenale_'
'seporei_'
'sepodising_'
'sephuthelwana_'
'sephilo_'
'sephaphathi_'
'sepatšhe_'
'separation_'
'sepanyeletsi_'
'seola_'
'seokobatsi_'
'senyegileng_'
'senyega_'
'senyang_'
'sentshwa_'
'sentseng_'
'sentimentality_'
'senthareng_'
'senteramong_'
'sentara_'
'sensitized_'
'sensing_'
'sensible_'
'senseless_'
'sensed_'
'senotse_'
'senolwa_'
'senolang_'
'sennye_'
'senate_'
'semphete_'
'semotšhini_'
'semotšhine_'
'semotheo_'
'semmunso_'
'seminareng_'
'semesters_'
'semeleleng_'
'semelele_'
'semelafa_'
'seme_'
'selwantsha_'
'selulafounu_'
'selulafouno_'
'selong_'
'seloko_'
'seller_'
'selfishness_'
'selennere_'
'selemosi_'
'selemo_'
'selelo_'
'selekanyi_'
'selekanyetso_'
'selekanyakgagamalo_'
'selekanomotlakase_'
'selekaneng_'
'selective_'
'selaete_'
'sekwaše_'
'sekwatlathuntsha_'
'sekwalwa_'
'sekolotong_'
'sekolašipi_'
'sekokoni_'
'sekokobadi_'
'sekiwe_'
'sekhutlo_'
'sekhemisi_'
'sekhafole_'
'sekgeme_'
'sekgeleng_'
'sekgantshwane_'
'sekganelabokgola_'
'sekganedi_'
'sekgalasotlhe_'
'sekgalagare_'
'sekete_'
'sekerini_'
'sekeng_'
'sekeletsa_'
'sekegela_'
'sekega_'
'sekatlhake_'
'sekasesešwa_'
'sekasekwe_'
'sekasekwang_'
'sekasekilwe_'
'sekaseke_'
'sekara_'
'sekang_'
'sekametseng_'
'sekameng_'
'sekamakgaolakgannyeng_'
'sekaleng_'
'sekale_'
'sekalafi_'
'sekala_'
'sekakepelateng_'
'sekakarolwana_'
'sekaka_'
'sekaelotlanyi_'
'sekaelo_'
'sejaretsibotlhole_'
'sejanama_'
'sejabaneng_'
'seileketeroniki_'
'seikokotlelong_'
'sehuba_'
'sehisetori_'
'segregation_'
'segotlholo_'
'segoro_'
'segora_'
'segopolwa_'
'segopodiso_'
'segongwana_'
'segolwane_'
'segologolo_'
'segoke_'
'segogoropo_'
'segofetseng_'
'segofaditswe_'
'segobo_'
'segetsweng_'
'segatsetsi_'
'segatisi_'
'segatisatiriso_'
'segang_'
'segalo_'
'segagane_'
'segadikelo_'
'sefokotsamodumo_'
'sefofi_'
'sefofaneng_'
'sefikantswe_'
'sefareng_'
'seemong_'
'seem_'
'seela_'
'seedling_'
'seedi_'
'seebana_'
'seduti_'
'sedirisiweng_'
'sedirisiwatemong_'
'sedipolomate_'
'sedimosetsana_'
'sedimentation_'
'sediment_'
'sedifatsa_'
'sedifaditse_'
'sedibelo_'
'sedation_'
'secrets_'
'secretaria_'
'secondment_'
'secondly_'
'sebopegotshelo_'
'sebolayaditwatsi_'
'sebolai_'
'sebokotšhoni_'
'sebintšolo_'
'sebintsolo_'
'sebedi_'
'sebaledi_'
'sebako_'
'seating_'
'seater_'
'searolo_'
'searches_'
'seaparo_'
'seananyo_'
'seams_'
'sealed_'
'seakatemi_'
'seAfrikanse_'
'seAforikeng_'
'sculpture_'
'sculptor_'
'scrutinise_'
'script_'
'screened_'
'scratching_'
'scored_'
'scooped_'
'scientifically_'
'schoolwork_'
'schoolsPOTCHEFSTROOM_'
'scholars_'
'schedules_'
'schaeffner_'
'scenes_'
'scarlet_'
'scarlation_'
'scarcely_'
'scaly_'
'saxophone_'
'savings_'
'saturated_'
'satisfactorily_'
'sata_'
'sat_'
'sash_'
'sasepenšene_'
'sas_'
'sarajeva_'
'sanetasi_'
'sanctions_'
'sampole_'
'sampled_'
'samente_'
'samagang_'
'salvation_'
'salted_'
'salari_'
'sagayaditshipi_'
'safeguards_'
'saese_'
'saentshe_'
'saenthifiki_'
'saeniwa_'
'sacrifices_'
'sacred_'
'sabotage_'
'sabana_'
'rwesa_'
'rwele_'
'rwalwa_'
'rutwe_'
'rutiwe_'
'rutilwe_'
'rutile_'
'rush_'
'rupisa_'
'runya_'
'runwa_'
'runtseng_'
'rumours_'
'ruled_'
'rulaganyediwa_'
'rulaganyeditse_'
'rulaganyang_'
'rulagantshitsweng_'
'rulaganngwang_'
'rulagangwa_'
'rukhutlhang_'
'ruiwa_'
'ruffled_'
'rubbish_'
'ruang_'
'rrametlae_'
'royal_'
'routledgelinguistics_'
'routinely_'
'routine_'
'routes_'
'rought_'
'rotse_'
'rotloetsega_'
'rotloetse_'
'rotloeditse_'
'rorwa_'
'roromang_'
'ropeway_'
'rooting_'
'rooted_'
'rooster_'
'romilweng_'
'romelweng_'
'romelelwang_'
'romantic_'
'romances_'
'rolling_'
'roletsweng_'
'roka_'
'rogwa_'
'rod_'
'robs_'
'robots_'
'robonngwe_'
'robin_'
'robbed_'
'robalengkwa_'
'robaleng_'
'robale_'
'robalanang_'
'robalana_'
'robadiwang_'
'roaming_'
'roadworthiness_'
'roadman_'
'river_'
'rivalry_'
'ritibale_'
'rising_'
'riileng_'
'rigidly_'
'rigidity_'
'rightfully_'
'rightful_'
'rifi_'
'rife_'
'riding_'
'rider_'
'rid_'
'rickets_'
'ribolotswe_'
'ribolotseng_'
'ribolola_'
'ribola_'
'ribbon_'
'rhythm_'
'rewritten_'
'rewards_'
'rewarding_'
'revolving_'
'revolve_'
'revocation_'
'reviving_'
'revival_'
'revitalization_'
'revitalise_'
'revitalisation_'
'revision_'
'revise_'
'reviews_'
'reviewers_'
'reversible_'
'reveals_'
'revealing_'
'revealed_'
'reunion_'
'returning_'
'retrovirals_'
'retrospectively_'
'retrieval_'
'retologela_'
'retogela_'
'rethink_'
'reteletsweng_'
'reteletsa_'
'retail_'
'resumption_'
'resultant_'
'restrict_'
'restrain_'
'restored_'
'restoration_'
'restaurant_'
'responsiveness_'
'responsive_'
'responsibly_'
'responds_'
'responding_'
'respite_'
'respirators_'
'respiration_'
'resourcefulness_'
'resourceful_'
'resistor_'
'resigned_'
'residing_'
'residency_'
'resided_'
'resešene_'
'resettlement_'
'reservoirs_'
'resembles_'
'researchmodels2_'
'researching_'
'rerang_'
'requisitions_'
'requisites_'
'requisite_'
'requiem_'
'reputational_'
'repulsive_'
'repulsion_'
'republic_'
'reproductive_'
'repression_'
'repository_'
'reportable_'
'reply_'
'replenishment_'
'replaces_'
'replacement_'
'replaced_'
'repisetsa_'
'repetition_'
'repeating_'
'repeatability_'
'repayment_'
'repairs_'
'reorganised_'
'renunciation_'
'renovated_'
'renounce_'
'renegotiated_'
'rene_'
'rendition_'
'renders_'
'rendering_'
'renamed_'
'remunerated_'
'remotely_'
'remit_'
'reminding_'
'remind_'
'remembrance_'
'remembering_'
'remeletse_'
'remediale_'
'remarks_'
'remarkably_'
'relocate_'
'relied_'
'reliability_'
'relelang_'
'relela_'
'relaying_'
'relay_'
'relaxes_'
'relax_'
'relative_'
'relates_'
'relate_'
'rekwa_'
'rekotileng_'
'rekotile_'
'rekoteng_'
'rekota_'
'rekisiwe_'
'rekisitsweng_'
'rekisitswe_'
'rekileng_'
'rekile_'
'rekhoto_'
'rekhota_'
'reketleng_'
'rekelwang_'
'rekegelwe_'
'rekegang_'
'rejisetara_'
'rejecting_'
'rejected_'
'reject_'
'reitilweng_'
'reiterate_'
'reinforcement_'
'reinforce_'
'rein_'
'reile_'
'reigns_'
'rehabilitated_'
'regulates_'
'regulated_'
'regularlyfor_'
'regretted_'
'registry_'
'registrationof_'
'registrars_'
'regime_'
'regalia_'
'reg_'
'refusing_'
'refusal_'
'refurbished_'
'refunded_'
'refugees_'
'refreshments_'
'refreshing_'
'refreshed_'
'refresh_'
'refrain_'
'refosanang_'
'refosa_'
'reforms_'
'reformatory_'
'refocusing_'
'reflex_'
'reflectors_'
'reflector_'
'reflections_'
'refine_'
'referencing_'
'references_'
'reetswa_'
'reediwa_'
'redundant_'
'reduces_'
'redeveloped_'
'recuse_'
'recurring_'
'rectified_'
'recruits_'
'recruiting_'
'recruit_'
'recreate_'
'recovers_'
'recovered_'
'recover_'
'recoupments_'
'recordkeeping_'
'reconsiders_'
'reconsideration_'
'reconcile_'
'recognize_'
'recognising_'
'recognisable_'
'recited_'
'recipients_'
'recipes_'
'recharge_'
'reception_'
'receiver_'
'recapitalisation_'
'recalls_'
'recalled_'
'recall_'
'rebolelwang_'
'rebolelang_'
'rebolela_'
'rebolang_'
'rebellious_'
'rebel_'
'reassure_'
'realization_'
'realities_'
'reaffirm_'
'reads_'
'readings_'
'readily_'
'readership_'
'reactor_'
'rce_'
'ravel_'
'ratwang_'
'ratwa_'
'ratshekiso_'
'rationalise_'
'rational_'
'ratings_'
'ratification_'
'rathilwe_'
'rateng_'
'rataneng_'
'rare_'
'rarabolotswe_'
'rarabololwang_'
'rarabololeng_'
'rarabologelwa_'
'raraagana_'
'rapolotiki_'
'rapid_'
'raopa_'
'ranolwa_'
'ranolelwe_'
'ranolela_'
'ranking_'
'rank_'
'rangers_'
'ranged_'
'random_'
'ramošara_'
'ralatsa_'
'ralalang_'
'rakonteraka_'
'rakgwebokgolo_'
'rakgaolo_'
'rakagiso_'
'rakabii_'
'rains_'
'rainbow_'
'railways_'
'raided_'
'raft_'
'rafote_'
'radiological_'
'radar_'
'racks_'
'rack_'
'racing_'
'racially_'
'rabid_'
'quorum_'
'quizzes_'
'quiet_'
'quick_'
'quartet_'
'quarrel_'
'quarantine_'
'qualifty_'
'qualificative_'
'quadro_'
'quadriplegics_'
'quadrilift_'
'pyramids_'
'putting_'
'putsa_'
'pusotshwaraganelo_'
'pusontsi_'
'pusobosetšhaba_'
'pushing_'
'puseletsomadi_'
'puseletso_'
'pursued_'
'purports_'
'purity_'
'pure_'
'purchasing_'
'purchases_'
'purchaser_'
'puppet_'
'pupils_'
'puoBonnete_'
'punished_'
'punctuation_'
'punctual_'
'pulling_'
'pulley_'
[...]
