'<pad>_'
'<EOS>_'
'._'
' , _'
', _'
' ._'
'the_'
'?_'
''_'
'I_'
'to_'
'you_'
'là_'
'a_'
'- _'
'tôi_'
'có_'
'không_'
'of_'
's_'
';_'
'and_'
' &_'
'!_'
'that_'
'một_'
'của_'
'it_'
'apos_'
'và_'
'ta_'
'in_'
'is_'
'chúng_'
't_'
'đã_'
'đó_'
'những_'
'người_'
'Tôi_'
'we_'
'được_'
'sẽ_'
'thể_'
'này_'
'quot_'
'. _'
'anh_'
'cho_'
'làm_'
'-_'
'this_'
'trong_'
'gì_'
'You_'
'với_'
'And_'
'ở_'
'for_'
'đi_'
'ra_'
'bạn_'
'nó_'
'; _'
'me_'
'on_'
'phải_'
'have_'
'was_'
'nói_'
'mà_'
'các_'
'do_'
'để_'
'thế_'
'are_'
'như_'
'Và_'
'biết_'
'with_'
'đây_'
'về_'
'lại_'
're_'
'can_'
'sự_'
'..._'
'be_'
'rồi_'
'm_'
'not_'
'my_'
'It_'
'what_'
'đang_'
' . _'
'con_'
'khi_'
'nào_'
'Anh_'
'your_'
'đến_'
'know_'
' -- _'
'they_'
'điều_'
'cô_'
'cái_'
'sao_'
'... _'
'vào_'
'about_'
'muốn_'
'họ_'
'thấy_'
'all_'
' ?_'
'cả_'
'ông_'
'What_'
'We_'
'he_'
'at_'
'like_'
'Không_'
'ấy_'
'Chúng_'
'việc_'
'So_'
'just_'
'The_'
'there_'
'rất_'
'out_'
'chỉ_'
'nghĩ_'
'vậy_'
'don_'
'up_'
'1_'
'so_'
'one_'
'em_'
'here_'
'cũng_'
'vì_'
'từ_'
'get_'
'đầu_'
'an_'
'nhiều_'
'hơn_'
'as_'
'bị_'
'thì_'
'from_'
'll_'
'chuyện_'
'But_'
'rằng_'
'cách_'
'giờ_'
'go_'
'thứ_'
'right_'
'but_'
'Nhưng_'
'công_'
'mình_'
'trên_'
'khác_'
've_'
'đâu_'
'if_'
'think_'
'́_'
'còn_'
' : _'
'No_'
'cần_'
'going_'
'nhà_'
'Có_'
'cậu_'
'him_'
'no_'
'tới_'
'nhưng_'
'thực_'
'them_'
'học_'
'see_'
'That_'
'our_'
'people_'
'năm_'
'got_'
'nữa_'
'nhất_'
'nên_'
'He_'
' , &_'
'want_'
'thành_'
'will_'
'us_'
'This_'
'quan_'
'lên_'
'Oh_'
'who_'
'đấy_'
'or_'
'ai_'
'thật_'
'time_'
'hay_'
'her_'
'now_'
'nếu_'
'when_'
'very_'
'would_'
' . &_'
'mọi_'
'by_'
',_'
'Nó_'
'were_'
'had_'
'more_'
'thôi_'
'tin_'
'i_'
'̀_'
'sống_'
'chính_'
'Well_'
'cuộc_'
'They_'
'số_'
'tự_'
'ý_'
'theo_'
'động_'
'has_'
'really_'
'how_'
'back_'
'these_'
'been_'
'tìm_'
'Cô_'
'tốt_'
'some_'
'giới_'
'bắt_'
'qua_'
'his_'
'trước_'
'ơn_'
'way_'
'sau_'
'Đó_'
'ngày_'
'she_'
'cùng_'
'tất_'
'quá_'
'chưa_'
'could_'
'Đây_'
'Yeah_'
'nhìn_'
'Now_'
'cảm_'
'̣_'
'because_'
'mới_'
'good_'
'nhận_'
'did_'
'tại_'
'chứ_'
'say_'
'then_'
'#_'
'thích_'
'Em_'
'đề_'
'bằng_'
'Ông_'
'their_'
'tạo_'
'something_'
'need_'
'hình_'
'nghe_'
'bao_'
'trở_'
'down_'
'nhân_'
'định_'
'thời_'
'make_'
'lớn_'
'hiện_'
'Vậy_'
'take_'
'come_'
'xem_'
'which_'
'cơ_'
'nước_'
'into_'
'where_'
'chết_'
'nhau_'
'hỏi_'
'd_'
'Một_'
'toàn_'
'said_'
'câu_'
'Nếu_'
'two_'
'gia_'
'A_'
'bản_'
'hắn_'
'nơi_'
'gonna_'
'bởi_'
'If_'
'Hey_'
'yêu_'
'How_'
'ăn_'
'other_'
'lý_'
'mặt_'
'There_'
'vẫn_'
'nhiên_'
'little_'
'gọi_'
'đổi_'
'à_'
'n_'
'much_'
'sinh_'
'look_'
'kết_'
'hai_'
'thay_'
'bộ_'
'than_'
'world_'
'vị_'
'hiểu_'
'tưởng_'
'Okay_'
'vấn_'
'tế_'
'thing_'
'nay_'
'hàng_'
'phát_'
'only_'
'lần_'
'hết_'
'Họ_'
'years_'
'máy_'
'Cậu_'
'đúng_'
'things_'
'tay_'
'gian_'
'bất_'
'tâm_'
'năng_'
'? _'
'tell_'
'over_'
'man_'
'xe_'
'ng_'
'trường_'
'lấy_'
'tên_'
'lúc_'
'dụng_'
'life_'
'trọng_'
'ngay_'
'gặp_'
'Why_'
'tính_'
'thông_'
'mẹ_'
'hành_'
'first_'
'ảnh_'
'phần_'
'giống_'
'2_'
'She_'
'Được_'
'vài_'
'đưa_'
'Yes_'
'"_'
'mất_'
'didn_'
'too_'
'đồng_'
'off_'
'đều_'
'y_'
'tiếp_'
'cứ_'
'! _'
'Con_'
'từng_'
'those_'
'even_'
'sáng_'
'actually_'
'Come_'
'tiền_'
'bảo_'
'vật_'
'lời_'
'cầu_'
'bà_'
'hợp_'
'viên_'
'let_'
'̀ _'
'trình_'
'Let_'
'giúp_'
'đường_'
'giải_'
'tiên_'
'mày_'
'thường_'
'doing_'
'lỗi_'
'thức_'
'mean_'
'cứu_'
'Vì_'
'In_'
'Bạn_'
'thiết_'
'trẻ_'
'luôn_'
'work_'
'All_'
'kind_'
'sử_'
'xảy_'
'never_'
'lắm_'
'Do_'
'find_'
'any_'
'hội_'
'bỏ_'
'around_'
'chút_'
'Ta_'
'phòng_'
'kinh_'
'bệnh_'
'hệ_'
'bên_'
'should_'
'khỏi_'
'My_'
'bé_'
'love_'
'Hãy_'
'3_'
'chiếc_'
'vụ_'
'phụ_'
'đối_'
'loại_'
'Xin_'
'nghĩa_'
'la_'
'well_'
'xuống_'
'tình_'
'chắc_'
'chơi_'
'Don_'
'Các_'
'lot_'
'Đừng_'
'tuyệt_'
'Khi_'
'ngoài_'
'Sao_'
'chuyển_'
'tớ_'
'nữ_'
'dùng_'
'thống_'
'new_'
'c_'
'10_'
'why_'
':_'
' "_'
'nhỏ_'
'Thank_'
'cố_'
'day_'
'chiến_'
'Những_'
'Cái_'
'đại_'
'xin_'
'giết_'
'trả_'
'talk_'
'́ _'
'hoàn_'
'cao_'
'đồ_'
'điểm_'
'still_'
'hãy_'
'̉_'
'through_'
' ? _'
'lượng_'
'hoặc_'
'many_'
'cuối_'
'biệt_'
'kế_'
'bố_'
'also_'
'đánh_'
'thuật_'
'đáng_'
'liệu_'
'điện_'
'vô_'
'sát_'
'most_'
'lẽ_'
'give_'
'Vâng_'
'sĩ_'
'quyết_'
'bài_'
'gái_'
'great_'
'. - _'
'giá_'
'bình_'
'tranh_'
'độ_'
'nghệ_'
'God_'
'last_'
'trung_'
'quả_'
'liên_'
'help_'
'Where_'
'Thế_'
'tiếng_'
'put_'
'nhớ_'
'three_'
'nhé_'
'may_'
'đẹp_'
'use_'
'nghiệm_'
'lực_'
'Phải_'
'000_'
' ? &_'
'thân_'
'Làm_'
'tao_'
'made_'
'kia_'
'again_'
'quay_'
'year_'
'Điều_'
'before_'
'am_'
'same_'
'hoá_'
'better_'
'đất_'
'vừa_'
'away_'
'đời_'
'own_'
'bây_'
'trị_'
'mỗi_'
'every_'
'being_'
'tương_'
'big_'
'đơn_'
'bay_'
'Trong_'
'Just_'
'Đi_'
'tập_'
'long_'
'gần_'
'thought_'
'mang_'
'Chỉ_'
'báo_'
'Thật_'
'cháu_'
'chú_'
'biến_'
'after_'
'tử_'
'old_'
'cảnh_'
'call_'
'giữ_'
'diễn_'
'chỗ_'
' ; _'
'Đúng_'
'vui_'
'thêm_'
'course_'
'khó_'
'different_'
'Look_'
'trai_'
'Mr_'
'đặt_'
'ever_'
'dân_'
'Is_'
'tác_'
'tuổi_'
'thần_'
'thương_'
'home_'
'chủ_'
'chẳng_'
'Người_'
'Get_'
'today_'
'Tại_'
'̉ _'
'Để_'
'quyền_'
'anything_'
'đàn_'
'does_'
'Tớ_'
'vẻ_'
'kẻ_'
'lo_'
'ba_'
'đứa_'
'tượng_'
'mạnh_'
'kể_'
'thú_'
'problem_'
'okay_'
'kỳ_'
'hả_'
'chọn_'
'giáo_'
'hiệu_'
'20_'
'rõ_'
'cá_'
'always_'
'When_'
'Bây_'
' - _'
'sợ_'
'ơi_'
'told_'
'called_'
'Are_'
'đủ_'
'xác_'
'doesn_'
'chí_'
'place_'
'won_'
'u_'
'giữa_'
'dự_'
'chất_'
'believe_'
'Chúa_'
'vọng_'
'understand_'
'sức_'
'dưới_'
'Tất_'
'."_'
'tiến_'
'nhanh_'
'Who_'
'Hắn_'
'phép_'
'khoảng_'
'idea_'
'guy_'
'Chào_'
'done_'
'xuất_'
'must_'
'hướng_'
'ít_'
'khả_'
'trí_'
'tháng_'
'sách_'
'night_'
'ko_'
'cha_'
'viết_'
'não_'
'mô_'
'feel_'
'looking_'
'another_'
' !_'
'ngài_'
'mấy_'
'chứng_'
'next_'
'bọn_'
'xa_'
'wrong_'
'trò_'
'together_'
'show_'
'name_'
'mạng_'
'might_'
'lập_'
'Cảm_'
'tra_'
'sản_'
'phân_'
'nghiệp_'
'kiếm_'
'Not_'
'triển_'
'sir_'
'came_'
'thưa_'
'sure_'
'nothing_'
'tài_'
'money_'
'chạy_'
'change_'
'tối_'
'sorry_'
'cửa_'
'ask_'
'went_'
'lâu_'
'khí_'
'phá_'
'minh_'
'duy_'
'coming_'
'Mẹ_'
'Go_'
'hôm_'
'dù_'
'Này_'
'Mỹ_'
'âm_'
'enough_'
'5_'
'ngồi_'
'everything_'
'cổ_'
'wanted_'
'truyền_'
'guys_'
'cây_'
'Your_'
'Then_'
'Cho_'
'Ở_'
'phẩm_'
'mở_'
'hoạt_'
'cấp_'
'Good_'
'Còn_'
'Because_'
'vi_'
'tư_'
'nghiên_'
'khu_'
'bad_'
'" _'
'vời_'
'started_'
'phía_'
'found_'
'đừng_'
'trying_'
'thư_'
'thu_'
'suy_'
'pháp_'
'dễ_'
'dẫn_'
'bức_'
'Mày_'
'Here_'
'' _'
'try_'
'tiêu_'
'mắt_'
'kiểm_'
'each_'
'trông_'
'nhạc_'
'ago_'
'thúc_'
'ca_'
'best_'
'văn_'
'trời_'
'quốc_'
'bàn_'
'Can_'
'đôi_'
'phim_'
'part_'
'chị_'
'chắn_'
'talking_'
'giác_'
'getting_'
'dụ_'
'care_'
'trưởng_'
'phố_'
'giả_'
'Trung_'
'Giờ_'
'tinh_'
'nguyên_'
'khá_'
'else_'
'đạo_'
'its_'
'chia_'
'For_'
'đặc_'
'while_'
'vệ_'
'start_'
'phương_'
'chế_'
'đêm_'
'trái_'
'kill_'
'dịch_'
'lòng_'
'four_'
'đô_'
'đình_'
'percent_'
'live_'
'chức_'
'khoa_'
'di_'
'Ai_'
'ổn_'
'used_'
'cộng_'
'Tao_'
'Ý_'
'few_'
'end_'
'̃ _'
'thử_'
'thằng_'
'thuyết_'
'real_'
'please_'
'mua_'
'chịu_'
'Cám_'
'4_'
'đứng_'
'án_'
'trang_'
'sư_'
'remember_'
'phút_'
'left_'
'đội_'
'quý_'
'giản_'
'càng_'
' ..._'
'water_'
'tuần_'
'story_'
'room_'
'question_'
'phục_'
'men_'
'human_'
'vòng_'
'triệu_'
'tham_'
'stop_'
'important_'
'chân_'
'tục_'
'quanh_'
'ngươi_'
'girl_'
'thoại_'
'ngủ_'
'mind_'
'vũ_'
'thị_'
'thuốc_'
'saw_'
'kiến_'
'happened_'
'hand_'
'dài_'
'One_'
'leave_'
'lịch_'
'cụ_'
'between_'
'Right_'
'OK_'
'sai_'
'cực_'
'ứng_'
'xã_'
'thuộc_'
'keep_'
'giao_'
'car_'
'Nói_'
'tội_'
'mức_'
'căn_'
'bác_'
'buổi_'
'30_'
'đầy_'
'Ôi_'
'without_'
'màu_'
'hard_'
'dựng_'
'Mọi_'
'whole_'
'phạm_'
'nổi_'
'gây_'
'To_'
' #_'
'tích_'
'thanh_'
'sắp_'
'yourself_'
'woman_'
'fact_'
'bào_'
'already_'
'Uh_'
'Quốc_'
'Bởi_'
'&_'
'đa_'
'women_'
'quân_'
'pretty_'
'New_'
'tệ_'
'point_'
'means_'
'Please_'
'50_'
'đau_'
'second_'
'move_'
'hiểm_'
'dead_'
'Maybe_'
'working_'
'took_'
'such_'
'school_'
'hưởng_'
'hear_'
'children_'
'đọc_'
'đoán_'
'vực_'
'someone_'
'phản_'
'nền_'
'nguồn_'
'lợi_'
'job_'
'hell_'
'five_'
'dạng_'
'bit_'
'Hi_'
'uh_'
'maybe_'
'khiến_'
'gắng_'
'bán_'
'Chắc_'
'xây_'
'tăng_'
'son_'
'says_'
'nằm_'
'hơi_'
'able_'
'Rồi_'
'Cha_'
'Bố_'
': _'
'Ừ_'
'nhóm_'
'mục_'
'ma_'
'Là_'
'100_'
'system_'
'stuff_'
'head_'
'dạy_'
'chờ_'
'Như_'
' &#_'
'knew_'
'bước_'
'Did_'
'điên_'
'seen_'
'power_'
'kids_'
'die_'
'riêng_'
'person_'
'making_'
'khách_'
'dục_'
'brain_'
'Chuyện_'
' ... _'
'ty_'
'nh_'
'friend_'
'biểu_'
'yet_'
'wasn_'
'súng_'
'nhỉ_'
'nhiệm_'
'nhiêu_'
'Bà_'
'15_'
'thinking_'
'saying_'
'kì_'
'chi_'
'Thôi_'
'6_'
'12_'
'lạc_'
'both_'
'Of_'
'địa_'
'tổ_'
'sẵn_'
'suốt_'
'number_'
'luật_'
'lai_'
'isn_'
'hạn_'
'father_'
'country_'
'Tốt_'
'? - _'
'xấu_'
'thi_'
'play_'
'kiểu_'
'khủng_'
'dữ_'
'comes_'
'bóng_'
'baby_'
'Nghe_'
'♪ _'
'Ồ_'
'đấu_'
'ví_'
'tàu_'
'o_'
'moment_'
'lớp_'
'loài_'
'heard_'
'chàng_'
'vùng_'
'thậm_'
'probably_'
'nice_'
'lạ_'
'far_'
'family_'
'cánh_'
'business_'
'John_'
'Cháu_'
' : &_'
'true_'
'mơ_'
'high_'
'boy_'
'These_'
'ạ_'
'wouldn_'
'wife_'
'wait_'
'luận_'
'face_'
'days_'
'biển_'
'Sau_'
';#_'
'̣ _'
'young_'
'tồn_'
'sàng_'
'happen_'
'dành_'
'bắn_'
'Nhìn_'
'91_'
'-- _'
'yếu_'
'trải_'
'mặc_'
'kỹ_'
'fine_'
'Take_'
'As_'
'vợ_'
'tù_'
'once_'
'minutes_'
'million_'
'lệ_'
'bring_'
'93_'
'đợi_'
'thủ_'
'run_'
'light_'
'inside_'
'diện_'
'̃_'
'đoạn_'
'hôn_'
'fucking_'
'body_'
'until_'
'times_'
'thí_'
'reason_'
'hope_'
'having_'
'half_'
'co_'
'quên_'
'hours_'
'example_'
'chào_'
'băng_'
'asked_'
'đá_'
'À_'
'toán_'
'sâu_'
'phủ_'
'looks_'
'less_'
'kiện_'
'food_'
'chuẩn_'
'case_'
'across_'
'[_'
'xúc_'
'xong_'
'viện_'
'ràng_'
'myself_'
'mother_'
'hạnh_'
'giảm_'
'chống_'
'TED_'
'Rất_'
'ánh_'
'stay_'
'quite_'
'later_'
'cuốn_'
' ,_'
'độc_'
'uống_'
'using_'
'trăm_'
'sort_'
'hạ_'
'gone_'
'alone_'
'almost_'
'Wait_'
'Or_'
'Hello_'
'tim_'
'nạn_'
'mai_'
'kìa_'
'hề_'
'heart_'
'goes_'
'ghi_'
'answer_'
'áo_'
'yeah_'
'wants_'
'vượt_'
'turn_'
'thắng_'
'ready_'
'quen_'
'nguy_'
'matter_'
'lựa_'
'danh_'
'cười_'
'Cứ_'
'thiên_'
'ngữ_'
'mong_'
'hữu_'
'everyone_'
'yên_'
'small_'
'side_'
'quy_'
'nhập_'
'ngôi_'
'máu_'
'knows_'
'killed_'
'khăn_'
'information_'
'hồi_'
'house_'
'dấu_'
'chăm_'
'bánh_'
'xung_'
'under_'
'tức_'
'though_'
'nhảy_'
'mối_'
'haven_'
'gã_'
'Đại_'
'ích_'
'tiết_'
'makes_'
'lắng_'
'lost_'
'future_'
'friends_'
'exactly_'
'da_'
'Thanks_'
'Nên_'
'273_'
'p_'
'mừng_'
'lives_'
'learn_'
'kỷ_'
'kích_'
'hộ_'
'dây_'
'cung_'
'create_'
'Hay_'
'--_'
'môi_'
'huh_'
'eyes_'
'dollars_'
'chuyến_'
'set_'
'rối_'
'open_'
'mật_'
'khám_'
'everybody_'
'chung_'
'Bọn_'
'8_'
'xử_'
'thất_'
'since_'
'rộng_'
'phúc_'
'nối_'
'hands_'
'child_'
'become_'
'anyone_'
'See_'
'Ah_'
'.._'
'đảm_'
'tổng_'
'soon_'
'six_'
'hại_'
'hoạch_'
'happens_'
'cu_'
'40_'
'word_'
'thẳng_'
'technology_'
'sớm_'
'sẻ_'
'quái_'
'phí_'
'ngạc_'
'mẫu_'
'gotta_'
'già_'
'data_'
'control_'
'Sự_'
'S_'
'Have_'
'đem_'
'vận_'
'tạp_'
'morning_'
'line_'
'kéo_'
'kid_'
'hold_'
'game_'
'free_'
'cáo_'
'chó_'
'bại_'
'Jack_'
'trợ_'
'ngoại_'
'minute_'
'living_'
'Give_'
'7_'
', "_'
'xét_'
'top_'
'space_'
'shit_'
'meet_'
'lãnh_'
'hầu_'
'hoa_'
'coi_'
'chữ_'
'York_'
'(_'
'words_'
'tầm_'
'sắc_'
'close_'
'chương_'
'buồn_'
'against_'
'Thực_'
'Hai_'
'25_'
'ổng_'
'trụ_'
'ngăn_'
'món_'
'gửi_'
'giấy_'
'eat_'
'city_'
'book_'
'With_'
'Stop_'
'wanna_'
'thoát_'
'taking_'
'ngờ_'
'khắp_'
'dậy_'
'deal_'
'couple_'
'building_'
'Với_'
'On_'
'đạt_'
'đóng_'
'tấm_'
'nửa_'
'months_'
'ha_'
'fight_'
'cạnh_'
'brother_'
'beautiful_'
'His_'
'David_'
'trạng_'
'sở_'
'sóc_'
'single_'
'pha_'
'nỗi_'
'l_'
'hit_'
'happy_'
'giỏi_'
'dừng_'
'dung_'
'chụp_'
'chuyên_'
'Mình_'
'Gì_'
'đẩy_'
'đo_'
'áp_'
'war_'
'walk_'
'vẽ_'
'tấn_'
'sense_'
'na_'
'mãi_'
'music_'
'least_'
'khốn_'
'khắc_'
'hồ_'
'gets_'
'fuck_'
'dần_'
'death_'
'couldn_'
'Nhà_'
'B_'
'đột_'
'đê_'
'đám_'
'Đến_'
'Đã_'
'simple_'
'rời_'
'rest_'
'read_'
'mine_'
'kính_'
'fire_'
'bí_'
'ban_'
'Like_'
'Internet_'
'Chính_'
'đùa_'
'đông_'
'tonight_'
'nghi_'
'khoẻ_'
'gave_'
'experience_'
'dựa_'
'door_'
'Từ_'
'Phi_'
'C_'
' '_'
'đổ_'
'watch_'
'thái_'
'ngon_'
'mời_'
'lái_'
'ký_'
'khai_'
'energy_'
'cũ_'
'countries_'
'chữa_'
'chiều_'
'cells_'
'build_'
'Dr_'
'D_'
' % _'
'ước_'
'thận_'
'rượu_'
'piece_'
'ngôn_'
'lửa_'
'lưu_'
'hứng_'
'hút_'
'group_'
'cắt_'
'ain_'
'Sorry_'
'Nhanh_'
'Công_'
'đen_'
'xanh_'
'trách_'
'speak_'
'sleep_'
'save_'
'outside_'
'order_'
'nóng_'
'nhờ_'
'lầm_'
'interesting_'
'hát_'
'hy_'
'guess_'
'giây_'
'fun_'
'dối_'
'doanh_'
'ch_'
'Sẽ_'
'Chú_'
'trúc_'
'tiệt_'
'sex_'
'sang_'
'planet_'
'lí_'
'happening_'
'gi_'
'front_'
'easy_'
'cử_'
'age_'
']_'
'Vào_'
'Dad_'
'9_'
'200_'
'ư_'
'yes_'
'tắc_'
'thiện_'
'possible_'
'pay_'
'others_'
'mắc_'
'ideas_'
'cấu_'
'cải_'
'bi_'
'basically_'
'air_'
'afraid_'
'Ngươi_'
'American_'
'ô_'
'ways_'
'tờ_'
'tỉ_'
'trực_'
'sơ_'
'social_'
'quản_'
'niệm_'
'nhiệt_'
'ngu_'
'news_'
'needed_'
'hậu_'
'died_'
'cư_'
'completely_'
'cannot_'
'Tên_'
'Ngay_'
'Chị_'
' ♪_'
'đỏ_'
'worked_'
'truth_'
'somebody_'
'problems_'
'picture_'
'phi_'
'nhắc_'
'Tây_'
'Thứ_'
'Listen_'
'At_'
'; &_'
'tỷ_'
'tố_'
'thiếu_'
'science_'
'niềm_'
'nghiêm_'
'needs_'
'khiển_'
'hoà_'
'cầm_'
'cưới_'
'cám_'
'chance_'
'Will_'
'U_'
'Lúc_'
'ẩn_'
'đỡ_'
'worry_'
'ung_'
'trừ_'
'thank_'
'nổ_'
'ngựa_'
'late_'
'crazy_'
'chúa_'
'billion_'
'Tuyệt_'
'T_'
'Frank_'
'Earth_'
'đức_'
'đuổi_'
'Đưa_'
'thầy_'
'soát_'
'rô_'
'rather_'
'amp_'
'amazing_'
'Wow_'
'Two_'
'Tell_'
'Sir_'
'Hold_'
'11_'
'video_'
'trốn_'
'trust_'
'tiểu_'
'tiếc_'
'thịt_'
'phong_'
'nghỉ_'
'lệnh_'
'lạnh_'
'loạn_'
'hộp_'
'history_'
'gấp_'
'government_'
'dầu_'
'chim_'
'bữa_'
'along_'
'Ngài_'
'Châu_'
'224_'
'xếp_'
'wish_'
'waiting_'
'tận_'
'tôn_'
'trận_'
'tomorrow_'
'team_'
'sometimes_'
'robot_'
'process_'
'nội_'
'nuôi_'
'known_'
'full_'
'figure_'
'chồng_'
'bầu_'
'Ngày_'
'Hôm_'
'Hoa_'
'Dù_'
'Africa_'
'244_'
'works_'
'tồi_'
'tiện_'
'simply_'
'self_'
'research_'
'plan_'
'ngốc_'
'nguyện_'
'listen_'
'hurt_'
'form_'
'dõi_'
'chu_'
'born_'
'Về_'
'tầng_'
'tĩnh_'
'tái_'
'themselves_'
'telling_'
'stand_'
'sound_'
'shot_'
'questions_'
'places_'
'parents_'
'often_'
'mắn_'
'met_'
'kiếp_'
'khởi_'
'hẹn_'
'girls_'
'ghế_'
'either_'
'clear_'
'cancer_'
'behind_'
'Việc_'
'Trước_'
'Miss_'
'Ba_'
'An_'
'đói_'
'tá_'
'toà_'
'thập_'
'takes_'
'tai_'
'sửa_'
'sân_'
'spend_'
'rừng_'
'past_'
'nặng_'
'ngân_'
'mái_'
'lose_'
'hứa_'
'gắn_'
'dòng_'
'community_'
'brought_'
'ass_'
'Theo_'
'Joey_'
'Help_'
'đích_'
'vàng_'
'va_'
'trouble_'
'thơ_'
'taken_'
'share_'
'sent_'
'phẫu_'
'nhiễm_'
'hang_'
'given_'
'feet_'
'fast_'
'entire_'
'decided_'
'computer_'
'cause_'
'Which_'
'People_'
'"._'
'vết_'
'tốc_'
'turned_'
'special_'
'powerful_'
'phone_'
'ones_'
'nghề_'
'mê_'
'moving_'
'ly_'
'instead_'
'hấp_'
'ho_'
'health_'
'dad_'
'chuột_'
'check_'
'aren_'
'Lại_'
'ảo_'
'đảo_'
'within_'
'trại_'
'tried_'
'thưởng_'
'study_'
'state_'
'phức_'
'niên_'
'ngàn_'
'longer_'
'language_'
'gốc_'
'giấc_'
'cơn_'
'chạm_'
'chiếu_'
'bạo_'
'buy_'
'black_'
'Some_'
'00_'
'xu_'
'worth_'
'white_'
'whether_'
'week_'
'tô_'
'sếp_'
'society_'
'public_'
'playing_'
'miễn_'
'luyện_'
'looked_'
'linh_'
'level_'
'learned_'
'finally_'
'dàng_'
'drink_'
'company_'
'chậm_'
'Tom_'
'Thằng_'
'Our_'
'Excuse_'
'60_'
') _'
'Đức_'
'vai_'
'tổn_'
'tường_'
'town_'
'se_'
'nàng_'
'nhắn_'
'ngừng_'
'kĩ_'
'hài_'
'gun_'
'fly_'
'feeling_'
'dương_'
'du_'
'chừng_'
'chấp_'
'chảy_'
'Thưa_'
'Cũng_'
'18_'
'Ấn_'
'trùng_'
'stories_'
'send_'
'quang_'
'phù_'
'ngắn_'
'nghị_'
'miệng_'
'lành_'
'husband_'
'hospital_'
'giai_'
'difference_'
'chỉnh_'
'chặn_'
'bed_'
'Thì_'
'Nam_'
'HIV_'
'Even_'
' / _'
'thù_'
'thê_'
'supposed_'
'step_'
'safe_'
'rơi_'
'running_'
'quickly_'
'phóng_'
'paper_'
'nhóc_'
'ngươ_'
'nghèo_'
'nature_'
'mã_'
'lộ_'
'lao_'
'kịch_'
'hour_'
'hot_'
'funny_'
'difficult_'
'cân_'
'chả_'
'camera_'
'bò_'
'boys_'
'box_'
'anymore_'
'Ross_'
'O_'
'Nothing_'
'Michael_'
'Chưa_'
'Đứng_'
'Độ_'
'whatever_'
'thuyền_'
'thiệu_'
'sót_'
'stupid_'
'sister_'
'sa_'
'rút_'
'quyển_'
'pick_'
'personal_'
'perhaps_'
'núi_'
'nam_'
'mùa_'
'miss_'
'lũ_'
'lính_'
'hoảng_'
'hoàng_'
'ghét_'
'film_'
'field_'
'eye_'
'cỡ_'
'cut_'
'chiếm_'
'changed_'
'certain_'
'bốn_'
'buộc_'
'break_'
'area_'
'Mom_'
'Cả_'
'By_'
'; &#_'
'đập_'
'tránh_'
'trao_'
'thở_'
'thả_'
'thuận_'
'siêu_'
'shows_'
'quần_'
'phê_'
'nhật_'
'nhu_'
'môn_'
'land_'
'khối_'
'hạt_'
'hoạ_'
'gồm_'
'dog_'
'daughter_'
'cãi_'
'cà_'
'created_'
'animals_'
'Very_'
'United_'
'Mà_'
'India_'
'Chết_'
'After_'
'?"_'
'ơ_'
'đằng_'
'đạn_'
'đèn_'
'write_'
'v_'
'tụi_'
'truy_'
'thăm_'
'phận_'
'ourselves_'
'mạch_'
'lưới_'
'lá_'
'image_'
'hỏng_'
'hi_'
'ground_'
'fear_'
'dance_'
'cận_'
'cướp_'
'bày_'
'binh_'
'bang_'
'art_'
'X_'
'Those_'
'TV_'
'Chẳng_'
'Chúc_'
'Captain_'
'14_'
' ! _'
'đỉnh_'
'xuyên_'
'vĩ_'
'virus_'
'túi_'
'tín_'
'tiệc_'
'săn_'
'seem_'
'ngược_'
'month_'
'model_'
'middle_'
'message_'
'key_'
'itself_'
'hey_'
'giving_'
'cập_'
'built_'
'blood_'
'asking_'
'] _'
'Would_'
'Nào_'
'Man_'
'Lần_'
'Hoặc_'
'Her_'
'George_'
'E_'
'Chờ_'
'; ._'
'80_'
')_'
'! - _'
'điệp_'
'Đồ_'
'Đầu_'
'wonderful_'
'voice_'
'tả_'
'trắng_'
'thải_'
'thách_'
'tha_'
'sạch_'
'seeing_'
'red_'
'pull_'
'phiền_'
'party_'
'mom_'
'lừa_'
'lẫn_'
'liệt_'
'lady_'
'imagine_'
'hẳn_'
'hảo_'
'hate_'
'global_'
'dám_'
'culture_'
'bận_'
'based_'
'anybody_'
'alive_'
'ahead_'
'act_'
'States_'
'Sam_'
'Pháp_'
'Mỗi_'
'Mấy_'
'Harry_'
'Dừng_'
'Does_'
'Bác_'
'70_'
'vững_'
'universe_'
'turns_'
'seven_'
'secret_'
'rắc_'
'pain_'
'mau_'
'married_'
'lối_'
'lĩnh_'
'họp_'
'hóa_'
'huỷ_'
'góc_'
'dream_'
'cẩn_'
'cool_'
'chóng_'
'century_'
'bet_'
'became_'
'Put_'
'Kỳ_'
'House_'
'Great_'
'Google_'
'Every_'
'Coi_'
'China_'
'Be_'
'...._'
' $_'
'tộc_'
'thụ_'
'thấp_'
'thảo_'
'thâ_'
'sổ_'
'sóng_'
'sick_'
'shall_'
'present_'
'oil_'
'nông_'
'lễ_'
'lương_'
'kỉ_'
'kêu_'
'kinds_'
'khoan_'
'hào_'
'huge_'
'growth_'
'giận_'
'drive_'
'dinner_'
'clean_'
'chứa_'
'Xem_'
'Tạm_'
'Sure_'
'Mm_'
'Me_'
'London_'
'Joe_'
'Cổ_'
'Bắt_'
'"?_'
'ấn_'
'đoàn_'
'Đợi_'
'trộm_'
'thừa_'
'third_'
'starting_'
'sitting_'
'police_'
'nắm_'
'ném_'
'mi_'
'meant_'
'learning_'
'lan_'
'khóc_'
'explain_'
'eight_'
'during_'
'design_'
'cold_'
'chặt_'
'châu_'
'cell_'
'Whoa_'
'Trên_'
'Really_'
'Paris_'
'Năm_'
'Mark_'
'First_'
'Everything_'
'Bộ_'
'432_'
'# _'
'đào_'
'wrote_'
'worse_'
'weren_'
'vỏ_'
'tóc_'
'type_'
'tuyến_'
'touch_'
'realized_'
'realize_'
'project_'
'office_'
'normal_'
'mềm_'
'mẽ_'
'low_'
'leaving_'
'khuôn_'
'giường_'
'forget_'
'environment_'
'disease_'
'bè_'
'Trái_'
'Nga_'
'May_'
'Huh_'
'Câu_'
'Could_'
'Charlie_'
'Bắc_'
'Bill_'
'Ben_'
'Afghanistan_'
'300_'
'13_'
'...?_'
' ! &_'
'ống_'
'wall_'
'vua_'
'view_'
'species_'
'sit_'
'seems_'
'quảng_'
'poor_'
'peace_'
'mảnh_'
'mùi_'
'màn_'
'movie_'
'missing_'
'khóa_'
'gió_'
'fall_'
'early_'
'doctor_'
'access_'
'Tối_'
'Peter_'
'Monica_'
'Ma_'
'La_'
'Bỏ_'
'Bình_'
'250_'
'0_'
'đựng_'
'đón_'
'yours_'
'weeks_'
'vỡ_'
'tắt_'
'tải_'
'thờ_'
'teach_'
'table_'
'sweet_'
'spent_'
'somewhere_'
'smart_'
'sign_'
'sea_'
'relationship_'
'perfect_'
'lặng_'
'lão_'
'law_'
'large_'
'kiss_'
'khái_'
'interested_'
'hư_'
'hãi_'
'himself_'
'giơ_'
'foot_'
'cities_'
'chối_'
'chấm_'
'bơi_'
'boss_'
'Um_'
'Trời_'
'Mexico_'
'Jim_'
'Hmm_'
'Ha_'
'Got_'
'Cảnh_'
'Cách_'
'Ổng_'
'đáp_'
'điệu_'
'wonder_'
'vân_'
'vâ_'
'viễn_'
'tí_'
'tàn_'
'tròn_'
'terms_'
'sounds_'
'song_'
'short_'
'shoot_'
'risk_'
'miếng_'
'material_'
'map_'
'lead_'
'kém_'
'khoản_'
'hồn_'
'hùng_'
'giọng_'
'dark_'
'cục_'
'cản_'
'bitch_'
'attack_'
'animal_'
'Ví_'
'Thấy_'
'Lord_'
'K_'
'James_'
'Hồi_'
'Hiện_'
'English_'
'Damn_'
'; , _'
'đương_'
'đươ_'
'đăng_'
'đua_'
'Đông_'
'vốn_'
'upon_'
'tán_'
'thousand_'
'thang_'
'thai_'
'systems_'
'sun_'
'situation_'
'showed_'
'radio_'
'phổ_'
'per_'
'mistake_'
'lặp_'
'loved_'
'felt_'
'dặm_'
'de_'
'chép_'
'choice_'
'bề_'
'Stay_'
'Ra_'
'N_'
'Jesus_'
'Chandler_'
'500_'
'Âu_'
'xinh_'
'trễ_'
'ti_'
'thuê_'
'terrible_'
'tells_'
'talked_'
'straight_'
'stopped_'
'shouldn_'
'serious_'
'promise_'
'program_'
'ngành_'
'mét_'
'magic_'
'làng_'
'lucky_'
'khẩu_'
'khoá_'
'hổ_'
'grow_'
'expect_'
'everywhere_'
'deep_'
'căng_'
'coffee_'
'bom_'
'biên_'
'average_'
'World_'
'South_'
'Rachel_'
'Ok_'
'Nhiều_'
'Mike_'
'M_'
'Keep_'
'East_'
'Big_'
'America_'
'16_'
'web_'
'tỉnh_'
'tắm_'
'tóm_'
'sánh_'
'strong_'
'source_'
'ship_'
'seconds_'
'răng_'
'natural_'
'miles_'
'medical_'
'lỗ_'
'lie_'
'khiếp_'
'huy_'
'green_'
'giàu_'
'gentlemen_'
'further_'
'faster_'
'dị_'
'diệt_'
'cost_'
'bụng_'
'bạc_'
'beginning_'
'basic_'
'Vấn_'
'Red_'
'Paul_'
'Nobody_'
'Move_'
'Dan_'
'Cuộc_'
'Chinese_'
'Bất_'
'90_'
'17_'
'/_'
'đòi_'
'đài_'
'xâm_'
'window_'
'vinh_'
'tốn_'
'tách_'
'trì_'
'train_'
'thánh_'
'sông_'
'surface_'
'size_'
'several_'
'rác_'
'rate_'
'phán_'
'patient_'
'network_'
'mũi_'
'machine_'
'lắp_'
'lots_'
'knowledge_'
'khán_'
'kho_'
'individual_'
'im_'
'hủy_'
'follow_'
'e_'
'designed_'
'dear_'
'damn_'
'cưng_'
'câ_'
'common_'
'climate_'
'chủng_'
'chìa_'
'chán_'
'charge_'
'changing_'
'center_'
'blue_'
'ball_'
'absolutely_'
'White_'
'Watch_'
'Thiên_'
'Richard_'
'Quay_'
'Never_'
'L_'
'Khoan_'
'H_'
'Charles_'
'24_'
'243_'
'ủng_'
'đâ_'
'Ê_'
'xoay_'
'win_'
'wedding_'
'tòa_'
'tung_'
'trống_'
'trần_'
'thề_'
'thousands_'
'test_'
'ten_'
'sạn_'
'schools_'
'rich_'
'phỏng_'
'physical_'
'page_'
'oh_'
'nè_'
'non_'
'nhẫn_'
'nhầm_'
'ngọn_'
'ngại_'
'military_'
'lộn_'
'local_'
'lived_'
'li_'
'killing_'
'khỏe_'
'khô_'
'involved_'
'hair_'
'economic_'
'dying_'
'cờ_'
'companies_'
'class_'
'cháy_'
'bảng_'
'bus_'
'available_'
'ah_'
'Tự_'
'Tìm_'
'Tuy_'
'Quá_'
'More_'
'Liệu_'
'Leave_'
'Hình_'
'Hy_'
'Fuck_'
'From_'
'Cứu_'
'Cuối_'
'Canada_'
'. -_'
'ấm_'
'đậu_'
'Đang_'
'óc_'
'ám_'
'trồng_'
'totally_'
'tools_'
'sáu_'
'shut_'
'ring_'
'quán_'
'nợ_'
'near_'
'mưa_'
'lưng_'
'lãng_'
'list_'
'led_'
'hầm_'
'hương_'
'gương_'
'growing_'
'general_'
'dường_'
'dính_'
'developed_'
'cấy_'
'cover_'
'certainly_'
'caught_'
'bottom_'
'anyway_'
'amount_'
'Whatever_'
'Tới_'
'Tình_'
'Something_'
'Nè_'
'Muốn_'
'Mrs_'
'Make_'
'Ko_'
'Everybody_'
'DNA_'
'Claire_'
'Call_'
'Bảo_'
'21_'
'́._'
'xương_'
'writing_'
'watching_'
'village_'
'um_'
'tảng_'
'thợ_'
'thảm_'
'thanks_'
'teachers_'
'students_'
'structure_'
'skin_'
'seat_'
'scale_'
'rock_'
'press_'
'political_'
'particular_'
'ngã_'
'nghìn_'
'names_'
'mạo_'
'modern_'
'meaning_'
'lồ_'
'lược_'
'kê_'
'khổng_'
'ice_'
'hundred_'
'hotel_'
'happiness_'
'gà_'
'giám_'
'feels_'
'especially_'
'eating_'
'dưỡng_'
'discovered_'
'contact_'
'calling_'
'bigger_'
'attention_'
'action_'
'Welcome_'
'Was_'
'Vẫn_'
'Trông_'
'Tránh_'
'Tiếp_'
'Tiếng_'
'Thậm_'
'Thái_'
'Three_'
'Shit_'
'Rõ_'
'Máy_'
'King_'
'Cơ_'
'AIDS_'
'7871_'
'19_'
'đắt_'
'đeo_'
'waste_'
'túc_'
'tàng_'
'trứng_'
'trấn_'
'training_'
'tiêm_'
'taught_'
'successful_'
'round_'
'revolution_'
'return_'
'phấn_'
'obviously_'
'moved_'
'luck_'
'kim_'
'khứ_'
'khổ_'
'interest_'
'humans_'
'hole_'
'góp_'
'gift_'
'finished_'
'cứng_'
'bền_'
'bông_'
'biê_'
'behavior_'
'anywhere_'
'Today_'
'Tin_'
'Sometimes_'
'Say_'
'San_'
'Only_'
'Nice_'
'Hiểu_'
'Giáo_'
'Facebook_'
'Dĩ_'
'Của_'
'Chris_'
'Actually_'
'400_'
'đống_'
'đẳng_'
'đe_'
'úy_'
'walking_'
'trích_'
'till_'
'thỏa_'
'thua_'
'thoải_'
'tan_'
'sốt_'
'stage_'
'similar_'
'scientists_'
'result_'
'resources_'
'ran_'
'race_'
'push_'
'private_'
'prison_'
'plant_'
'phiếu_'
'phiên_'
'partner_'
'ong_'
'older_'
'numbers_'
'named_'
'móc_'
'members_'
'materials_'
'market_'
'major_'
'lô_'
'loạt_'
'legs_'
'khuẩn_'
'issue_'
'images_'
'glad_'
'gen_'
'focus_'
'famous_'
'fair_'
'developing_'
'decision_'
'dangerous_'
'consider_'
'che_'
'changes_'
'cars_'
'bật_'
'board_'
'West_'
'R_'
'Perhaps_'
'North_'
'Mặc_'
'Jane_'
'Hoàng_'
'Father_'
'Emily_'
'Bằng_'
'Bản_'
'Bên_'
'Alex_'
'; -- _'
'.. _'
'đốt_'
'Đôi_'
'ác_'
'xưa_'
'wind_'
'tree_'
'travel_'
'tired_'
'thùng_'
'thuần_'
'throw_'
'theory_'
'street_'
'store_'
'stick_'
'star_'
'quà_'
'positive_'
'pictures_'
'phối_'
'phó_'
'pass_'
'nấu_'
'nát_'
'none_'
'nobody_'
'mệt_'
'media_'
'master_'
'lặn_'
'kept_'
'huyết_'
'hundreds_'
'healthy_'
'ghép_'
'forward_'
'fish_'
'evening_'
'education_'
'drugs_'
'device_'
'cặp_'
'computers_'
'complex_'
'clothes_'
'chúc_'
'challenge_'
'bridge_'
'beyond_'
'began_'
'areas_'
'allow_'
'above_'
'ability_'
'Y_'
'Vài_'
'Since_'
'Shut_'
'Nhật_'
'Matt_'
'Liên_'
'Iraq_'
'Iran_'
'Fine_'
'Danny_'
'Bye_'
'7843_'
'28_'
'. "_'
'đốc_'
'đếm_'
'đam_'
'â_'
'value_'
'tỏ_'
'tạm_'
'tuyết_'
'trữ_'
'thinks_'
'sỹ_'
'survive_'
'stuck_'
'sell_'
'security_'
'rules_'
'ride_'
'reality_'
'quỷ_'
'quiet_'
'protect_'
'picked_'
'path_'
'ngang_'
'mông_'
'meeting_'
'measure_'
'math_'
'lục_'
'lâ_'
'lying_'
'liền_'
'lab_'
'indeed_'
'hải_'
'groups_'
'grew_'
'forever_'
'fat_'
'economy_'
'diệu_'
'continue_'
'broke_'
'books_'
'blog_'
'beat_'
'Tiến_'
'Thời_'
'Thần_'
'Sit_'
'Qua_'
'Phần_'
'Nha_'
'Mặt_'
'Mary_'
'Instead_'
'Ban_'
'Adam_'
'đâm_'
'điển_'
'Đáng_'
'ép_'
'wake_'
'vơ_'
'vong_'
'unless_'
'understanding_'
'tràn_'
'thác_'
'standing_'
'spread_'
'sold_'
'shoes_'
'search_'
'saved_'
'road_'
'rid_'
'report_'
'quick_'
'post_'
'position_'
'plane_'
'particularly_'
'online_'
'notice_'
'ninh_'
'nine_'
'memory_'
'manh_'
'lơ_'
'lower_'
'likely_'
'kidding_'
'including_'
'hỗ_'
'hiệp_'
'heavy_'
'handle_'
'gợi_'
'floor_'
'fell_'
'familiar_'
'extremely_'
'double_'
'dollar_'
'decide_'
'date_'
'conversation_'
'clock_'
'chìm_'
'chuyê_'
'card_'
'bờ_'
'bối_'
'béo_'
'bottle_'
'Wikipedia_'
'Try_'
'Tony_'
'Time_'
'Think_'
'Steve_'
'St_'
'Rome_'
'Nathan_'
'Most_'
'Middle_'
'Lincoln_'
'However_'
'Giữ_'
'Giống_'
'Everyone_'
'Derek_'
'Daniel_'
'Bob_'
'Biết_'
'Another_'
')}_'
' $ _'
'xứng_'
'wearing_'
'vú_'
'tây_'
'trôi_'
'trào_'
'tri_'
'treat_'
'track_'
'thẩm_'
'target_'
'sữa_'
'suddenly_'
'success_'
'strange_'
'speaking_'
'sorts_'
'slow_'
'service_'
'seriously_'
'sake_'
'rồ_'
'rào_'
'putting_'
'points_'
'phổi_'
'nô_'
'nhấn_'
'mại_'
'mạc_'
'mù_'
'muộn_'
'mouth_'
'match_'
'letters_'
'innovation_'
'impossible_'
'hò_'
'hà_'
'horse_'
'holding_'
'hiếm_'
'higher_'
'hasn_'
'giấu_'
'gives_'
'giam_'
'forgot_'
'force_'
'excited_'
'except_'
'dọn_'
'digital_'
'collect_'
'choose_'
'catch_'
'career_'
'broken_'
'begin_'
'add_'
'Washington_'
'Tommy_'
'Smith_'
'Phụ_'
'Once_'
'Long_'
'Isn_'
'Hầu_'
'Giải_'
'Chu_'
'California_'
'Anything_'
'7845_'
'... - _'
'ưu_'
'địch_'
'Đội_'
'Đồng_'
'Đâu_'
'yesterday_'
'weight_'
'vâng_'
'uses_'
'tặng_'
'tật_'
'trưng_'
'trúng_'
'truyện_'
'tiny_'
'thô_'
'surgery_'
'support_'
'su_'
'stars_'
'solve_'
'scared_'
'quỹ_'
'quê_'
'protein_'
'pleasure_'
'period_'
'parts_'
'paid_'
'opposite_'
'opportunity_'
'nâng_'
'nhựa_'
'nhẹ_'
'nha_'
'ngoan_'
'mộ_'
'mạn_'
'mò_'
'mây_'
'mission_'
'missed_'
'millions_'
'kẹt_'
'kí_'
'knowing_'
'kháng_'
'hô_'
'hoại_'
'honor_'
'hiển_'
'games_'
'fool_'
'fighting_'
'extra_'
'evil_'
'etc_'
'ended_'
'effect_'
'earth_'
'dọa_'
'doctors_'
'direction_'
'crisis_'
'creating_'
'count_'
'complete_'
'chớ_'
'carry_'
'careful_'
'bội_'
'bảy_'
'busy_'
'breath_'
'blind_'
'beauty_'
'arm_'
'Times_'
'Sư_'
'Someone_'
'Robert_'
'P_'
'Over_'
'Nơi_'
'Nhân_'
'Last_'
'Jake_'
'Israel_'
'Gia_'
'French_'
'Europe_'
'Day_'
'Cẩn_'
'Am_'
'75_'
'22_'
'150_'
'- "_'
'% _'
'ức_'
'Ổn_'
'Ả_'
'xảo_'
'worried_'
'weird_'
'weapons_'
'walked_'
'vé_'
'vision_'
'táo_'
'tu_'
'trăng_'
'trees_'
'th_'
'term_'
'suppose_'
'subject_'
'strength_'
'spot_'
'somehow_'
'solar_'
'smoke_'
'sleeping_'
'shame_'
'sad_'
'rẻ_'
'robots_'
'recognize_'
'recently_'
'rain_'
'population_'
'plastic_'
'plants_'
'onto_'
'offer_'
'nhằm_'
'ngục_'
'mệnh_'
'miền_'
'lt_'
'losing_'
'lock_'
'liều_'
'liked_'
'leo_'
'kín_'
'kiên_'
'jobs_'
'issues_'
'industry_'
'immediately_'
'hè_'
'huống_'
'huynh_'
'honey_'
'hoang_'
'gói_'
'greatest_'
'grab_'
'gold_'
'giảng_'
'flight_'
'fault_'
'falling_'
'experiment_'
'evidence_'
'earlier_'
'dày_'
'driving_'
'cấm_'
'côn_'
'crime_'
'cop_'
'connected_'
'closer_'
'chuỗi_'
'bả_'
'birthday_'
'becoming_'
'bar_'
'bank_'
'appreciate_'
'among_'
'Want_'
'University_'
'Tổng_'
'Too_'
'Thông_'
'Thuyền_'
'Should_'
'Remember_'
'President_'
'Phoebe_'
'Open_'
'Mother_'
'Maria_'
'Lấy_'
'Lên_'
'Little_'
'Johnny_'
'Hơn_'
'City_'
'Chạy_'
'CO2_'
'Bao_'
'Any_'
'." _'
'đớn_'
'á_'
'written_'
'wear_'
'visual_'
'vaccine_'
'tuyên_'
'trộn_'
'trạm_'
'trưa_'
'trip_'
'toilet_'
'tiê_'
'tia_'
'thủy_'
'thăng_'
'thoảng_'
'thoả_'
'teacher_'
'sụp_'
'sợi_'
'sàn_'
'stress_'
'steps_'
'sky_'
'shown_'
'series_'
'scientific_'
'rửa_'
'rule_'
'river_'
'respect_'
'record_'
'raise_'
'quality_'
'provide_'
'prove_'
'nỗ_'
'nút_'
'note_'
'nho_'
'ngẫu_'
'ngưỡng_'
'ngũ_'
'national_'
'mờ_'
'mến_'
'muô_'
'lôi_'
'likes_'
'lights_'
'levels_'
'lang_'
'khỉ_'
'khấu_'
'khích_'
'jump_'
'journey_'
'incredibly_'
'hước_'
'hiến_'
'highly_'
'highest_'
'helping_'
'helped_'
'gối_'
'giãn_'
'generation_'
'gas_'
'finish_'
'favorite_'
'favor_'
'excuse_'
'escape_'
'dĩ_'
'draw_'
'develop_'
'decisions_'
'dao_'
'cú_'
'cát_'
'current_'
'content_'
'conditions_'
'chăng_'
'character_'
'chair_'
'cases_'
'bãi_'
'buildings_'
'bringing_'
'blow_'
'below_'
'battle_'
'allowed_'
'agree_'
'accident_'
'William_'
'Tổ_'
'Trả_'
'Thả_'
'Thomas_'
'Số_'
'Phil_'
'Mau_'
'Los_'
'Ladies_'
'Kill_'
'Kevin_'
'Hoàn_'
'Gần_'
'Four_'
'Einstein_'
'Cố_'
'Cần_'
'Colonel_'
'Chủ_'
'Back_'
'Amy_'
'Al_'
'About_'
'23_'
'̀._'
'đồn_'
'Đủ_'
'Đối_'
'zero_'
'yo_'
'wine_'
'wild_'
'whoa_'
'victims_'
'useful_'
'tough_'
'thổi_'
'teaching_'
'sword_'
'swim_'
'suất_'
'surprise_'
'speed_'
'soul_'
'solution_'
'slowly_'
'slide_'
'skills_'
'saving_'
'rồng_'
'regret_'
'reading_'
'proud_'
'production_'
'pressure_'
'practice_'
'potential_'
'pieces_'
'piano_'
'phạt_'
'pattern_'
'passed_'
'ok_'
'ocean_'
'mực_'
'mỏ_'
'moon_'
'massive_'
'mad_'
'lunch_'
'literally_'
'listening_'
'letter_'
'lesson_'
'leaders_'
'kịp_'
'khùng_'
'khoảnh_'
'jail_'
'hồng_'
'hòa_'
'hurry_'
'hmm_'
'hiếp_'
'gánh_'
'gián_'
'giày_'
'forms_'
'forces_'
'following_'
'final_'
'female_'
'exciting_'
'eventually_'
'event_'
'enemy_'
'empty_'
'dở_'
'dreams_'
'doubt_'
'democracy_'
'deliver_'
'decade_'
'cống_'
'cường_'
'conflict_'
'condition_'
'code_'
'citizens_'
'camp_'
'bếp_'
'bẩn_'
'bought_'
'bomb_'
'biện_'
'birth_'
'bird_'
'believed_'
'babies_'
'audience_'
'asleep_'
'arms_'
'approach_'
'apologize_'
'address_'
'Western_'
'War_'
'Tiểu_'
'Thành_'
'Sẵn_'
'Six_'
'Nhớ_'
'Next_'
'Mĩ_'
'Looks_'
'Kể_'
'Kinh_'
'Kim_'
'Hả_'
'Hàng_'
'Howard_'
'Gọi_'
'General_'
'G_'
'Each_'
'Cyrus_'
'Christmas_'
'Chicago_'
'Cameron_'
'Bức_'
'Bắn_'
'Bring_'
'Before_'
'Arthur_'
'Angeles_'
': "_'
'99_'
'27_'
'01_'
'♪_'
'Ờ_'
'̀?_'
'đụng_'
'đĩa_'
'Đường_'
'Điện_'
'Ô_'
'Á_'
'whose_'
'welcome_'
'website_'
'visit_'
'versus_'
'urban_'
'truly_'
'treo_'
'treatment_'
'traditional_'
'towards_'
'thiệt_'
'summer_'
'steal_'
'sector_'
'ridiculous_'
'results_'
'responsibility_'
'purpose_'
'progress_'
'produce_'
'patients_'
'orders_'
'nốt_'
'nose_'
'nhuận_'
'ngực_'
'nghiện_'
'neither_'
'mập_'
'lâm_'
'lát_'
'lawyer_'
'kiê_'
'keeps_'
'invite_'
'incredible_'
'hối_'
'hung_'
'humanity_'
'gọn_'
'gác_'
'grown_'
'glass_'
'freedom_'
'folks_'
'figured_'
'emotional_'
'eh_'
'dứt_'
'dry_'
'drug_'
'cột_'
'cổng_'
'costs_'
'concept_'
'complicated_'
'college_'
'chở_'
'choices_'
'central_'
'capacity_'
'cam_'
'calls_'
'bắc_'
'brothers_'
'biology_'
'base_'
'aware_'
'ancient_'
'advantage_'
'actual_'
'acting_'
'Vương_'
'V_'
'Up_'
'Ted_'
'THE_'
'Sinh_'
'Quan_'
'Ngồi_'
'Nghĩa_'
'Mama_'
'Kết_'
'Jones_'
'Im_'
'II_'
'Hurry_'
'Harvard_'
'Five_'
'Eddie_'
'Christ_'
'Báo_'
'Again_'
'7873_'
'236_'
'2008_'
''?_'
'ổ_'
'điê_'
'Đất_'
'Đánh_'
'ôm_'
'worst_'
'willing_'
'vải_'
'vườn_'
'viê_'
'usually_'
'tướng_'
'twice_'
'trượt_'
'trà_'
'triết_'
'trade_'
'thấu_'
'thượng_'
'tháo_'
'thao_'
'technologies_'
'talks_'
'sứ_'
'super_'
'strategy_'
'split_'
'speech_'
'south_'
'sing_'
'sight_'
'sending_'
'screen_'
'scene_'
'rủi_'
'ro_'
'reach_'
'price_'
'popular_'
'politics_'
'plans_'
'pin_'
'phái_'
'perspective_'
'pants_'
'ngập_'
'networks_'
'nearly_'
'mồi_'
'mũ_'
'moves_'
'moral_'
'minds_'
'mental_'
'matters_'
'marry_'
'marriage_'
'managed_'
'main_'
'lỏng_'
'lẻ_'
'lăn_'
'lùng_'
'lùi_'
'lines_'
'ladies_'
'kẹo_'
'khuyên_'
'keeping_'
'judge_'
'joy_'
'joke_'
'internet_'
'improve_'
'impact_'
'identity_'
'hỏa_'
'huấn_'
'hide_'
'hero_'
'heat_'
'heading_'
'greater_'
'gotten_'
'ghê_'
'genetic_'
'gay_'
'ga_'
'fuckin_'
'forgive_'
'followed_'
'fix_'
'extraordinary_'
'effort_'
'dàn_'
'dogs_'
'dirty_'
'devil_'
'desk_'
'department_'
'degrees_'
'cỏ_'
'cắp_'
'cưỡng_'
'correct_'
'cops_'
'color_'
'closed_'
'chư_'
'carbon_'
'calm_'
'brings_'
'boyfriend_'
'bodies_'
'boat_'
'bo_'
'beings_'
'becomes_'
'army_'
'architecture_'
'apartment_'
'allows_'
'afford_'
'Young_'
'Yo_'
'Vui_'
'Tụi_'
'Tomorrow_'
'Thử_'
'Thánh_'
'Their_'
'Thay_'
'Texas_'
'Spanish_'
'Simon_'
'School_'
'Roger_'
'Ray_'
'Quân_'
'Queen_'
'Professor_'
'Prince_'
'Police_'
'Pakistan_'
'Out_'
'Mở_'
'Mời_'
'Miller_'
'Lạy_'
'Love_'
'Jimmy_'
'Jesse_'
'Honey_'
'Holy_'
'GPS_'
'Foreman_'
'Find_'
'FBI_'
'El_'
'Dude_'
'Dave_'
'Cùng_'
'Chà_'
'Chiếc_'
'Bị_'
'Boy_'
'Black_'
'Amanda_'
'; #_'
'45_'
'..."_'
'," _'
' — _'
' ;_'
'ả_'
'Ảnh_'
'đẻ_'
'đắn_'
'đuôi_'
'{\\_'
'ya_'
'xạ_'
'walls_'
'vê_'
'vuông_'
'vast_'
'tò_'
'tê_'
'trial_'
'traffic_'
'thẻ_'
'thám_'
'struggle_'
'starts_'
'spoke_'
'shift_'
'seemed_'
'sat_'
'san_'
'relax_'
'reasons_'
'rat_'
'random_'
'raised_'
'r_'
'played_'
'phu_'
'photo_'
'ph_'
'painting_'
'organizations_'
'officer_'
'ngầm_'
'ngón_'
'mồm_'
'mèo_'
'mãn_'
'models_'
'mentioned_'
'mate_'
'mass_'
'majority_'
'location_'
'lay_'
'king_'
'khát_'
'join_'
'investment_'
'interview_'
'income_'
'hỗn_'
'hòn_'
'hungry_'
'hoping_'
'gỗ_'
'god_'
'gan_'
'fresh_'
'fixed_'
'expensive_'
'exchange_'
'enjoy_'
'engineering_'
'email_'
'electricity_'
'dạo_'
'dược_'
'directly_'
'dinh_'
'definition_'
'cỗ_'
'cuộn_'
'currently_'
'cross_'
'communities_'
'chọc_'
'chẩn_'
'chăn_'
'causes_'
'bạch_'
'buôn_'
'bother_'
'bag_'
'bacteria_'
'angry_'
'accept_'
'Still_'
'Show_'
'Shall_'
'Sarah_'
'Nữ_'
'Nước_'
'None_'
'Nigeria_'
'Max_'
'Master_'
'Martin_'
'Lời_'
'Lão_'
'Luật_'
'Lan_'
'Kẻ_'
'Khỉ_'
'Khoảng_'
'J_'
'Hết_'
'Hàn_'
'GDP_'
'Eric_'
'Dương_'
'Cut_'
'Check_'
'Chase_'
'Anyway_'
'Andy_'
'7875_'
'7853_'
'35_'
'225_'
' .._'
' -- -- _'
'̀, _'
'đế_'
'đạp_'
'đư_'
'đáy_'
'đà_'
'đc_'
'Đặc_'
'Đơn_'
'Đô_'
'}_'
'younger_'
'values_'
'unfortunately_'
'understood_'
'ugly_'
'tụ_'
'tị_'
'tuân_'
'trầm_'
'tissue_'
'thỉnh_'
'thuỷ_'
'thiểu_'
'temperature_'
'television_'
'teeth_'
'tape_'
'tail_'
'sô_'
'suicide_'
'spending_'
'spaces_'
'soldiers_'
'software_'
'societies_'
'snow_'
'site_'
'signs_'
'shopping_'
'shape_'
'route_'
'roll_'
'response_'
'range_'
'quét_'
'quote_'
'puts_'
'pure_'
'pretend_'
'pregnant_'
'paying_'
'park_'
'papers_'
'painful_'
'ought_'
'nảy_'
'nuclear_'
'nhạy_'
'nhũng_'
'nhi_'
'ngọt_'
'nga_'
'nervous_'
'neighborhood_'
'mươi_'
'mát_'
'movement_'
'mountain_'
'metal_'
'male_'
'lỡ_'
'lưỡi_'
'lông_'
'lovely_'
'locked_'
'liquid_'
'legal_'
'leg_'
'laugh_'
'laptop_'
'khảo_'
'khung_'
'kem_'
'hãng_'
'hoạn_'
'holes_'
'held_'
'heads_'
'hall_'
'hadn_'
'guard_'
'grand_'
'goal_'
'giành_'
'ghé_'
'function_'
'flying_'
'fit_'
'finding_'
'feelings_'
'feed_'
'emotion_'
'election_'
'effects_'
'ear_'
'dũng_'
'dâm_'
'distance_'
'development_'
'details_'
'despite_'
'desire_'
'designer_'
'dare_'
'dancing_'
'cốc_'
'credit_'
'creative_'
'crap_'
'court_'
'corner_'
'core_'
'copy_'
'comfortable_'
'colors_'
'church_'
'challenges_'
'caused_'
'cards_'
'canh_'
'bồ_'
'bẫy_'
'bô_'
'bó_'
'bunch_'
'bright_'
'biggest_'
'battery_'
'b_'
'answers_'
'afternoon_'
'[ _'
'YOU_'
'Vợ_'
'Va_'
'Tội_'
'Twitter_'
'Tay_'
'Sun_'
'Street_'
'Shh_'
'Run_'
'Quả_'
'Quý_'
'Quên_'
'Phòng_'
'Pete_'
'Nina_'
'Nguyên_'
'Ngoài_'
'Na_'
'Mục_'
'Moses_'
'Mmm_'
'Matthew_'
'Life_'
'Lewis_'
'Koran_'
'Kiểm_'
'Hải_'
'Happy_'
'Giết_'
'Giúp_'
'England_'
'Doctor_'
'Doc_'
'Dean_'
'Congratulations_'
'Carl_'
'Ca_'
'British_'
'Bond_'
'Biến_'
'Aye_'
'Arab_'
'Anna_'
'? !_'
'460_'
'26_'
'234_'
'226_'
'2000_'
'", _'
' -_'
' -- &_'
'đu_'
'Đêm_'
'Ăn_'
'ái_'
'Ít_'
'xích_'
'xài_'
'xi_'
'wealth_'
'vở_'
'vương_'
'violent_'
'useless_'
'unknown_'
'unique_'
'tủ_'
'tởm_'
'tống_'
'tước_'
'tám_'
'tuệ_'
'turning_'
'trắc_'
'truck_'
'trick_'
'treated_'
'toả_'
'tone_'
'thọ_'
'thước_'
'thơm_'
'thoughts_'
'tend_'
'taste_'
'sôi_'
'swear_'
'sustainable_'
'suffering_'
'studies_'
'spirit_'
'specific_'
'solutions_'
'silly_'
'shaped_'
'rescue_'
'remarkable_'
'religion_'
'release_'
'region_'
'recent_'
'received_'
'ranh_'
'product_'
'poverty_'
'pounds_'
'possibly_'
'pop_'
'policy_'
'plenty_'
'players_'
'photograph_'
'paint_'
'owe_'
'otherwise_'
'objects_'
'nướng_'
'nơ_'
'nón_'
'nhát_'
'ngoái_'
'necessary_'
'mưu_'
'mostly_'
'mail_'
'lọc_'
'lui_'
'loves_'
'laws_'
'larger_'
'kèm_'
'killer_'
'khúc_'
'khía_'
'keys_'
'idiot_'
'họa_'
'hạng_'
'honest_'
'hiền_'
'hiding_'
'h_'
'gỡ_'
'gởi_'
'gấu_'
'grandmother_'
'giant_'
'fully_'
'fourth_'
'focused_'
'fired_'
'fellow_'
'fantastic_'
'families_'
'failure_'
'faces_'
'essentially_'
'environmental_'
'entirely_'
'ends_'
'effective_'
'dò_'
'dáng_'
'due_'
'diseases_'
'detail_'
'degree_'
'darling_'
'cốt_'
'cutting_'
'cute_'
'cry_'
'competition_'
'chấn_'
'chă_'
'châm_'
'chày_'
'capable_'
'bộc_'
'bổ_'
'bể_'
'bóp_'
'bão_'
'bá_'
'bye_'
'breast_'
'birds_'
'belongs_'
'bees_'
'bear_'
'artist_'
'arrived_'
'agent_'
'admit_'
'according_'
'Xong_'
'Web_'
'Vi_'
'Tim_'
'Thầy_'
'Thuỵ_'
'Sơ_'
'Sáng_'
'Susan_'
'Stand_'
'Somebody_'
'Same_'
'Ryan_'
'Park_'
'Nick_'
'NASA_'
'Mười_'
'Mô_'
'Morgan_'
'Mommy_'
'MIT_'
'Loại_'
'Lee_'
'Hong_'
'Hollywood_'
'Hiệp_'
'Hell_'
'Giáng_'
'Forget_'
'Florida_'
'Didn_'
'Daddy_'
'Co_'
'Chân_'
'Calm_'
'Bóng_'
'Billy_'
'Bang_'
'Asia_'
'Americans_'
'Ahh_'
'? -_'
'95_'
'84_'
'7841_'
'600_'
'., _'
', '_'
''._'
'!"_'
'ưa_'
'Ước_'
'đồi_'
'winter_'
'weekend_'
'vầy_'
'vả_'
'vạch_'
'võ_'
'vang_'
'tịch_'
'tùy_'
'tâ_'
'typical_'
'types_'
'tuyển_'
'tumor_'
'trươ_'
'trú_'
'trá_'
'tremendous_'
'trained_'
'tradition_'
'tr_'
'total_'
'tiệm_'
'tiềm_'
'thói_'
'tháp_'
'throughout_'
'thiệp_'
'survival_'
'supply_'
'sugar_'
'stone_'
'status_'
'staff_'
'spoken_'
'soft_'
'singing_'
'silence_'
'sexual_'
'selling_'
'scientist_'
'sand_'
'rưỡi_'
'rung_'
'roughly_'
'rise_'
'restaurant_'
'responsible_'
'resource_'
'regular_'
'rau_'
'radical_'
'punch_'
'projects_'
'powers_'
'possibility_'
'physics_'
'phun_'
'pho_'
'perfectly_'
'painted_'
'object_'
'nắng_'
'nư_'
'nuts_'
'notion_'
'normally_'
'nhặt_'
'nhạt_'
'ngớ_'
'ngẩn_'
'ngư_'
'nguyền_'
'negative_'
'mồ_'
'mỏng_'
'mẩu_'
'mượn_'
'mì_'
'mothers_'
'medicine_'
'meat_'
'lợn_'
'lột_'
'lãm_'
'làn_'
'link_'
'lift_'
'lifetime_'
'leading_'
'khớp_'
'khiêu_'
'kh_'
'justice_'
'interests_'
'insane_'
'hở_'
'hằng_'
'hôi_'
'hurts_'
'homes_'
'hearing_'
'ham_'
'guns_'
'goddamn_'
'giặt_'
'giật_'
'garden_'
'flat_'
'financial_'
'fashion_'
'facing_'
'exact_'
'evolved_'
'entered_'
'engine_'
'dọc_'
'dán_'
'drunk_'
'driver_'
'drinking_'
'dress_'
'doin_'
'deserve_'
'decades_'
'cụt_'
'cởi_'
'cối_'
'cạn_'
'cultural_'
'creature_'
'connection_'
'connect_'
'cong_'
'conference_'
'coast_'
'chôn_'
'chín_'
'chê_'
'cave_'
'causing_'
'cash_'
'bụi_'
'bỏng_'
'bắp_'
'bậc_'
'báu_'
'buying_'
'button_'
'burning_'
'buddy_'
'breathing_'
'bong_'
'block_'
'belief_'
'balance_'
'arrest_'
'appropriate_'
'appears_'
'appear_'
'airplane_'
'achieve_'
'account_'
'Yet_'
'Wilson_'
'While_'
'Walt_'
'Vị_'
'Vô_'
'Unless_'
'Tyler_'
'Trở_'
'Trẻ_'
'Trường_'
'Thư_'
'Stone_'
'Rập_'
'Rio_'
'Probably_'
'Pretty_'
'Ow_'
'Ooh_'
'Old_'
'Nhất_'
'National_'
'Lẽ_'
'Khá_'
'Indian_'
'Hội_'
'Học_'
'Guys_'
'Guy_'
'Goodbye_'
'Germany_'
'Francisco_'
'Dân_'
'Da_'
'Chuẩn_'
'Christian_'
'Chiến_'
'Chi_'
'Brown_'
'Brian_'
'Both_'
'Besides_'
'Bank_'
'Avatar_'
'Alright_'
'Agent_'
'Aah_'
'29_'
'2007_'
'- - _'
'$_'
' (_'
'ốm_'
'ốc_'
'đố_'
'đít_'
'đáo_'
'Đứa_'
'Đấy_'
'Đư_'
'Đo_'
'Đau_'
'Đa_'
' ?_'
'yourselves_'
'xóa_'
'workers_'
'wise_'
'waves_'
'watched_'
'wash_'
'warm_'
'vứt_'
'vớ_'
'vẩn_'
'ván_'
'vách_'
'voi_'
'viêm_'
'violence_'
'various_'
'van_'
'valuable_'
'tầu_'
'tím_'
'tunnel_'
'trèo_'
'tro_'
'tricks_'
'tour_'
'toa_'
'thổ_'
'thèm_'
'therefore_'
'text_'
'tea_'
'sáo_'
'studying_'
'stands_'
'smells_'
'smell_'
'slept_'
'sides_'
'showing_'
'shirt_'
'secure_'
'râu_'
'roof_'
'rights_'
'relationships_'
'quyến_'
'quit_'
'queen_'
'property_'
'promised_'
'products_'
'president_'
'presence_'
'planning_'
'phe_'
'pack_'
'organization_'
'ordinary_'
'nọ_'
'nản_'
'nê_'
'nãy_'
'noticed_'
'north_'
'nhắm_'
'nhã_'
'nhâ_'
'ngắm_'
'newspaper_'
'mỹ_'
'mộng_'
'mâ_'
'màng_'
'murder_'
'motherfucker_'
'mirror_'
'method_'
'mention_'
'lượt_'
'lõi_'
'liver_'
'khẩn_'
'khoái_'
'kha_'
'island_'
'intelligence_'
'inspired_'
'injury_'
'individuals_'
'hít_'
'hoả_'
'however_'
'horses_'
'herself_'
'heo_'
'gă_'
'glasses_'
'giọt_'
'girlfriend_'
'generations_'
'galaxy_'
'forth_'
'flowers_'
'finds_'
'file_'
'explains_'
'examples_'
'equipment_'
'engaged_'
'emissions_'
'edge_'
'east_'
'easier_'
'dịp_'
'dư_'
'dâu_'
'dropped_'
'doạ_'
'describe_'
'cương_'
'câm_'
'curious_'
'critical_'
'criminal_'
'creates_'
'covered_'
'corruption_'
'consumption_'
'concerned_'
'communicate_'
'committed_'
'cloud_'
'click_'
'clearly_'
'chốt_'
'chay_'
'chai_'
'cameras_'
'bột_'
'bút_'
'bê_'
'buýt_'
'burn_'
'bullshit_'
'bike_'
'bia_'
'bastard_'
'artists_'
'argument_'
'alright_'
'Xuống_'
'Xe_'
'Walter_'
'Uống_'
'Uncle_'
'Tư_'
'Toàn_'
'Thượng_'
'Thêm_'
'Sếp_'
'Sắp_'
'Sáu_'
'Scott_'
'Scofield_'
'Relax_'
'Rach_'
'Potter_'
'Obviously_'
'Nope_'
'Ngân_'
'Neil_'
'Ms_'
'Many_'
'Manhattan_'
'Lạp_'
'Lý_'
'Li_'
'Katie_'
'Julia_'
'Joseph_'
'Island_'
'Imagine_'
'Henry_'
'Gulf_'
'Giỏi_'
'Giai_'
'F_'
'Di_'
'Cuba_'
'Chơi_'
'Cause_'
'Brad_'
'Ask_'
'Andrew_'
'Also_'
'Alice_'
'7907_'
'7901_'
'7889_'
'272_'
'2003_'
'1990_'
'&#_'
' ]_'
' ; &_'
' ... ... _'
' --_'
'ừ_'
'̉._'
'đệ_'
'đậy_'
'đạc_'
'âu_'
'ân_'
'yellow_'
'xăng_'
'xóm_'
'worldwide_'
'wheel_'
'weapon_'
'waited_'
'vờ_'
'vội_'
'vất_'
'vươn_'
'vĩnh_'
'victim_'
'version_'
'upstairs_'
'upset_'
'tơ_'
'transfer_'
'tip_'
'tight_'
'thắt_'
'thính_'
'threw_'
'theater_'
'taxi_'
'sốc_'
'sắt_'
'sưu_'
'súc_'
'sói_'
'sub_'
'style_'
'studio_'
'stops_'
'stayed_'
'stations_'
'states_'
'standard_'
'square_'
'solved_'
'silent_'
'signal_'
'ships_'
'shell_'
'sharing_'
'sexy_'
'services_'
'sentence_'
'screaming_'
'scan_'
'sandwich_'
'safety_'
'rắn_'
'rạp_'
'rũ_'
'râ_'
'ráp_'
'ron_'
'require_'
'religious_'
'records_'
'quí_'
'programs_'
'principles_'
'pray_'
'placed_'
'phú_'
'passion_'
'pair_'
'oxygen_'
'opened_'
'obvious_'
'nụ_'
'nở_'
'nấm_'
'nạ_'
'notes_'
'nhục_'
'nhịp_'
'nhí_'
'necessarily_'
'nation_'
'mỡ_'
'mỏi_'
'mọc_'
'mouse_'
'molecule_'
'milk_'
'mess_'
'marketing_'
'magazine_'
'machines_'
'lờ_'
'lạm_'
'loving_'
'limited_'
'leads_'
'leadership_'
'lau_'
'latest_'
'largest_'
'lake_'
'kệ_'
'kiệm_'
'khôn_'
'increasing_'
'hẹp_'
'hét_'
'hàm_'
'huyền_'
'hidden_'
'gãy_'
'gt_'
'grid_'
'genius_'
'furniture_'
'forest_'
'flash_'
'fill_'
'farm_'
'fake_'
'facts_'
'factor_'
'explore_'
'exploration_'
'explanation_'
'expected_'
'ex_'
'encourage_'
'emotions_'
'emergency_'
'eggs_'
'ears_'
'dãy_'
'duty_'
'drove_'
'drop_'
'drawing_'
'director_'
'destroyed_'
'define_'
'cậy_'
'cóc_'
'cuồng_'
'crowd_'
'controlled_'
'consequences_'
'consciousness_'
'compare_'
'commercial_'
'colleagues_'
'clever_'
'chằm_'
'chemical_'
'chasing_'
'bỗng_'
'bồi_'
'bốc_'
'bọ_'
'bến_'
'bă_'
'butt_'
'bucks_'
'brilliant_'
'breathe_'
'breaking_'
'brains_'
'border_'
'boom_'
'bones_'
'blocks_'
'beer_'
'autism_'
'assume_'
'apart_'
'airport_'
'affect_'
'advice_'
'added_'
'activity_'
'activities_'
'Wall_'
'Vừa_'
'Vụ_'
'Vua_'
'Victoria_'
'Ugh_'
'Thiếu_'
'Thanh_'
'Terry_'
'Ten_'
'Such_'
'Son_'
'Sean_'
'Sahara_'
'Robin_'
'Other_'
'Oregon_'
'Oliver_'
'Nằm_'
'Nhảy_'
'Lũ_'
'Luôn_'
'Louis_'
'Know_'
'Jason_'
'Japanese_'
'Hẹn_'
'Hoả_'
'Hit_'
'High_'
'Hans_'
'Gã_'
'Giọng_'
'Giá_'
'German_'
'Gary_'
'Elizabeth_'
'Ed_'
'Donna_'
'Doesn_'
'Detroit_'
'Cộng_'
'Câ_'
'Chả_'
'Charlotte_'
'Cao_'
'Caesar_'
'Buổi_'
'Boston_'
'Baby_'
'Art_'
'Anyone_'
'Anybody_'
'Amazon_'
'Almost_'
'Aang_'
'800_'
'7891_'
'33_'
'32_'
' . , _'
' % ._'
'ồn_'
'́?_'
'đỗ_'
'đàng_'
'đàm_'
'đoạt_'
'đai_'
'Đảng_'
'Điển_'
'xứ_'
'xăm_'
'xíu_'
'xách_'
'xuân_'
'xoá_'
'wisdom_'
'wins_'
'vỗ_'
'vòi_'
'vây_'
'unsub_'
'unit_'
'ultimately_'
'tẩy_'
'túy_'
'tuy_'
'tribes_'
'tracking_'
'tool_'
'thịnh_'
'thép_'
'tang_'
'talent_'
'sweetie_'
'sum_'
'strike_'
'streets_'
'stood_'
'stock_'
'sticks_'
'staying_'
'station_'
'smile_'
'smaller_'
'sisters_'
'significant_'
'signed_'
'shoulder_'
'shots_'
'shop_'
'shooting_'
'shared_'
'settle_'
'setting_'
'serve_'
'separate_'
'searching_'
'sample_'
'rỉ_'
'rập_'
'rét_'
'rách_'
'riding_'
'review_'
'returned_'
'reports_'
'religions_'
'relate_'
'reduce_'
'react_'
'rational_'
'profound_'
'procedure_'
'prince_'
'previous_'
'prepared_'
'precisely_'
'polio_'
'poison_'
'poetry_'
'player_'
'pizza_'
'personally_'
'patent_'
'original_'
'organisms_'
'opportunities_'
'opening_'
'offered_'
'nộp_'
'nếp_'
'nét_'
'nâu_'
'nowhere_'
'noise_'
'nhủ_'
'nhở_'
'nhốt_'
'nhảm_'
'ngưng_'
'ngơi_'
'ngô_'
'nets_'
'neighbors_'
'naturally_'
'má_'
'muscle_'
'murderer_'
'mountains_'
'motor_'
'morality_'
'monster_'
'mo_'
'mile_'
'memories_'
'mathematical_'
'marathon_'
'manage_'
'lắc_'
'lường_'
'lă_'
'lu_'
'lonely_'
'logic_'
'leaves_'
'kiêu_'
'kick_'
'khẳng_'
'khơi_'
'khôi_'
'khen_'
'khe_'
'invisible_'
'invest_'
'invention_'
'invented_'
'introduce_'
'international_'
'interact_'
'instance_'
'inspiration_'
'inner_'
'infected_'
'increase_'
'inch_'
'imagery_'
'hận_'
'hă_'
'hèn_'
'hospitals_'
'horrible_'
'hire_'
'height_'
'handsome_'
'gậy_'
'gũi_'
'gõ_'
'goin_'
'giỡn_'
'genome_'
'garage_'
'gain_'
'g_'
'fusion_'
'fucked_'
'friendship_'
'freak_'
'foreign_'
'forced_'
'flow_'
'fan_'
'falls_'
'faith_'
'fail_'
'experiments_'
'experiences_'
'exist_'
'evolution_'
'events_'
'entry_'
'enormous_'
'engage_'
'employees_'
'electric_'
'elderly_'
'economists_'
'dùm_'
'dê_'
'dã_'
'dude_'
'drawn_'
'disaster_'
'dies_'
'dense_'
'delicious_'
'deeply_'
'dating_'
'danger_'
'daily_'
'daddy_'
'cừu_'
'cắm_'
'cúi_'
'cài_'
'creatures_'
'cook_'
'compared_'
'communication_'
'chuông_'
'chosen_'
'chiê_'
'chip_'
'celebrate_'
'capital_'
'cafe_'
'bực_'
'bự_'
'bám_'
'buried_'
'breakfast_'
'bow_'
'benefit_'
'behalf_'
'beg_'
'beach_'
'balls_'
'awesome_'
'author_'
'attached_'
'atmosphere_'
'ate_'
'asks_'
'arts_'
'anger_'
'accepted_'
'`_'
'Watson_'
'WAS_'
'Viện_'
'Unfortunately_'
'Tâm_'
'Turn_'
'Trừ_'
'Trắng_'
'Thâ_'
'Tha_'
'Talk_'
'Sĩ_'
'Sylar_'
'State_'
'Sara_'
'Santa_'
'Samuel_'
'Rằng_'
'Rwanda_'
'Roman_'
'Rick_'
'Prentiss_'
'Percy_'
'Oz_'
'Oxford_'
'Obama_'
'Nê_'
'Nàng_'
'Nghệ_'
'Monday_'
'Michelle_'
'Marty_'
'Luke_'
'Lisa_'
'Linda_'
'Kéo_'
'Kong_'
'Khó_'
'Khu_'
'Kelly_'
'Jill_'
'Jerry_'
'IT_'
'Hồng_'
'Hệ_'
'Has_'
'Harold_'
'Hank_'
'Grant_'
'Garcia_'
'Eva_'
'Enough_'
'Edward_'
'Dự_'
'Dễ_'
'Dạ_'
'Dường_'
'Detective_'
'Cầu_'
'Cây_'
'Câm_'
'Clear_'
'Chỗ_'
'Center_'
'Carter_'
'CIA_'
'Bệnh_'
'Bước_'
'Burrows_'
'Buddy_'
'Brazil_'
'Benjamin_'
'Aw_'
'Annie_'
'Abraham_'
'ADN_'
';._'
'; . _'
'7915_'
'41_'
'31_'
'20th_'
'2011_'
'2009_'
'2006_'
'%._'
' – _'
'Ơ_'
'độn_'
'đần_'
'đấm_'
'đéo_'
'đuối_'
'Đặt_'
'Đám_'
'Điểm_'
'yards_'
'xưởng_'
'xôi_'
'wondering_'
'wondered_'
'wives_'
'whistle_'
'vịt_'
'vẹn_'
'vạn_'
'vote_'
'universal_'
'uncle_'
'tươi_'
'tông_'
'tân_'
'trơ_'
'trân_'
'tráng_'
'tries_'
'trash_'
'tide_'
'thỏ_'
'thắc_'
'thạch_'
'thuẫn_'
'testing_'
'temporary_'
'tap_'
'sừng_'
'sưởi_'
'suspect_'
'surprising_'
'surprised_'
'surely_'
'suit_'
'sudden_'
'suck_'
'studied_'
'student_'
'structures_'
'stolen_'
'stole_'
'stem_'
'steel_'
'sons_'
'soldier_'
'smiling_'
'sheep_'
'severe_'
'sees_'
'screw_'
'scratch_'
'scary_'
'samples_'
'rộn_'
'rẽ_'
'rèn_'
'runs_'
'rocket_'
'represent_'
'replace_'
'remove_'
'remind_'
'receive_'
'raw_'
'rapidly_'
'quãng_'
'pulling_'
'pulled_'
'protecting_'
'proof_'
'profit_'
'profile_'
'practical_'
'pound_'
'pockets_'
'plus_'
'pleased_'
'platform_'
'plate_'
'pity_'
'pitch_'
'philosophy_'
'personality_'
'performance_'
'pen_'
'passionate_'
'parent_'
'ours_'
'operating_'
'odds_'
'objective_'
'nồng_'
'nêu_'
'noon_'
'nhấc_'
'nhãn_'
'nhá_'
'nhàng_'
'ngoa_'
'naked_'
'mụ_'
'mă_'
'muội_'
'mood_'
'moments_'
'molecules_'
'miêu_'
'member_'
'measuring_'
'meal_'
'lật_'
'lạy_'
'lũng_'
'lây_'
'lánh_'
'luỹ_'
'loss_'
'loose_'
'lips_'
'lighting_'
'lies_'
'letting_'
'leader_'
'launch_'
'laughing_'
'lack_'
'labor_'
'kỵ_'
'kênh_'
'knock_'
'knife_'
'kiệt_'
'ki_'
'khống_'
'khuyết_'
'khoác_'
'khao_'
'jazz_'
'invited_'
'introduced_'
'interface_'
'institutions_'
'insight_'
'input_'
'innocent_'
'injured_'
'influence_'
'immune_'
'iPhone_'
'hố_'
'hưu_'
'hông_'
'hãnh_'
'hái_'
'holds_'
'hm_'
'hitting_'
'helps_'
'headed_'
'happier_'
'hanging_'
'gớm_'
'guilty_'
'grandfather_'
'gods_'
'giang_'
'ghen_'
'genes_'
'fuel_'
'firing_'
'feedback_'
'failed_'
'factory_'
'explained_'
'existence_'
'essential_'
'errors_'
'equivalent_'
'equally_'
'enter_'
'elements_'
'electron_'
'economies_'
'dỗ_'
'dịu_'
'dẻo_'
'dẹp_'
'dập_'
'downstairs_'
'doors_'
'document_'
'divide_'
'direct_'
'diet_'
'destroy_'
'described_'
'depression_'
'definitely_'
'defense_'
'dealing_'
'damage_'
'cự_'
'củi_'
'cắn_'
'cất_'
'cơm_'
'crying_'
'creativity_'
'crash_'
'contribute_'
'context_'
'constantly_'
'constant_'
'confused_'
'conclusion_'
'compassion_'
'comfort_'
'coat_'
'climb_'
'civil_'
'chục_'
'chợt_'
'chổ_'
'chước_'
'chém_'
'chua_'
'chose_'
'cheating_'
'chaos_'
'cents_'
'cat_'
'campaign_'
'bẩm_'
'boring_'
'bone_'
'bond_'
'bite_'
'biological_'
'billions_'
'bee_'
'bedroom_'
'band_'
'background_'
'awful_'
'aside_'
'arrested_'
'apply_'
'appeared_'
'anti_'
'ambulance_'
'algorithms_'
'alcohol_'
'agreed_'
'Yêu_'
'Without_'
'Whoo_'
'Vật_'
'Use_'
'Tập_'
'Tô_'
'Tính_'
'Tonight_'
'Tinh_'
'Thursday_'
'THAT_'
'Sparrow_'
'Sounds_'
'Sheriff_'
'Seven_'
'Second_'
'Ron_'
'Reid_'
'Q_'
'Perfect_'
'Peace_'
'Nobel_'
'Nhóm_'
'Mã_'
'Moscow_'
'Moore_'
'Montana_'
'Mister_'
'Manny_'
'MRI_'
'Lùi_'
'Lâu_'
'Lydia_'
'Lieutenant_'
'Lawrence_'
'Latin_'
'Kính_'
'Ken_'
'July_'
'Johnson_'
'Jerusalem_'
'Jackson_'
'Italy_'
'Hạ_'
'Hơi_'
'Hà_'
'Hunt_'
'Honestly_'
'Hill_'
'Hall_'
'Gặp_'
'Green_'
'Gotta_'
'Finally_'
'Except_'
'Ever_'
'Emma_'
'Easy_'
'Dưới_'
'Douglas_'
'Doug_'
'Cực_'
'Cửa_'
'Cập_'
'County_'
'Congress_'
'Congo_'
'Chó_'
'Chief_'
'Central_'
'Carrie_'
'Cambridge_'
'Cairo_'
'Bốn_'
'Bánh_'
'Bush_'
'Brother_'
'Bobby_'
'Beth_'
'Best_'
'Believe_'
'Beautiful_'
'Army_'
'Aren_'
'Anne_'
'Alzheimer_'
'Alexander_'
'African_'
'Absolutely_'
'? ._'
'911_'
'7899_'
'7855_'
'38_'
'2005_'
'1960_'
'//_'
'.... _'
'.'_'
'. , _'
'. (_'
'- [_'
'* _'
'"..._'
'♫ _'
'Ừm_'
'ủy_'
'ủi_'
'ờ_'
'̣._'
'ướt_'
'đới_'
'đậm_'
'đầm_'
'đè_'
'đãi_'
'đoan_'
'điền_'
'Đỏ_'
'Đẹp_'
'Đương_'
'êm_'
'Ánh_'
'wounded_'
'worlds_'
'wing_'
'windows_'
'wide_'
'whom_'
'wet_'
'wars_'
'vắc_'
'vulnerable_'
'visible_'
'vacation_'
'ultimate_'
'tựa_'
'tát_'
'trục_'
'trật_'
'trương_'
'triều_'
'trigger_'
'trap_'
'transportation_'
'transplant_'
'toy_'
'toward_'
'topic_'
'tie_'
'tickets_'
'thối_'
'thuế_'
'thiếp_'
'thiêng_'
'thin_'
'thick_'
'therapy_'
'theme_'
'tax_'
'task_'
'tam_'
'tale_'
'sắm_'
'sập_'
'sơn_'
'sét_'
'swimming_'
'survivors_'
'surveillance_'
'sung_'
'subjects_'
'stronger_'
'stream_'
'stopping_'
'speaker_'
'someday_'
'slightly_'
'skull_'
'shine_'
'sheet_'
'shares_'
'seek_'
'rủa_'
'rỗi_'
'rush_'
'ruined_'
'rope_'
'root_'
'romantic_'
'role_'
'rising_'
'reward_'
'retreat_'
'required_'
'removed_'
'relatively_'
'related_'
'reflect_'
'reaction_'
'reaching_'
'quỵ_'
'quậy_'
'quát_'
'qui_'
'quad_'
'published_'
'protection_'
'protected_'
'proper_'
'productive_'
'processes_'
'prisoner_'
'pot_'
'poet_'
'pocket_'
'planets_'
'phô_'
'phím_'
'phiêu_'
'panic_'
'outcome_'
'organ_'
'ordered_'
'opinion_'
'operation_'
'official_'
'officers_'
'obsessed_'
'nurses_'
'novel_'
'nhị_'
'nhét_'
'nhiếp_'
'ngửi_'
'ngọc_'
'ngạo_'
'nghịch_'
'nghiền_'
'net_'
'mười_'
'móng_'
'mâu_'
'mystery_'
'muối_'
'muôn_'
'murdered_'
'motivation_'
'mobile_'
'miserable_'
'micro_'
'martial_'
'lều_'
'lận_'
'lấp_'
'luồng_'
'lung_'
'loaded_'
'limits_'
'library_'
'laser_'
'landscape_'
'kẹp_'
'kung_'
'knees_'
'km_'
'kingdom_'
'khoang_'
'jumped_'
'invitation_'
'innovative_'
'infrastructure_'
'infection_'
'inequality_'
'increased_'
'include_'
'importance_'
'imagination_'
'illegal_'
'identify_'
'hân_'
'hydrogen_'
'hunt_'
'humor_'
'hoài_'
'heroes_'
'hated_'
'hat_'
'harm_'
'hardly_'
'handed_'
'hamburger_'
'guide_'
'gray_'
'gram_'
'goodbye_'
'golf_'
'glory_'
'gentleman_'
'generous_'
'gene_'
'gap_'
'funded_'
'fundamental_'
'fu_'
'frogs_'
'frame_'
'flame_'
'fishing_'
'finger_'
'fields_'
'fed_'
'fathers_'
'fate_'
'facial_'
'exposed_'
'experienced_'
'exercise_'
'ensure_'
'engineers_'
'efficient_'
'effectively_'
'dắt_'
'dải_'
'dâng_'
'dump_'
'driven_'
'drinks_'
'drill_'
'dramatic_'
'divided_'
'dive_'
'display_'
'discovery_'
'dick_'
'devices_'
'designing_'
'demon_'
'deaths_'
'cụm_'
'cược_'
'crew_'
'cooking_'
'contract_'
'continuing_'
'construction_'
'connections_'
'command_'
'comic_'
'com_'
'colony_'
'coal_'
'club_'
'clouds_'
'closet_'
'closely_'
'client_'
'classroom_'
'classic_'
'chóc_'
'choàng_'
'chemistry_'
'cheated_'
'cheap_'
'chances_'
'carrying_'
'cake_'
'cai_'
'bới_'
'bơm_'
'bù_'
'bã_'
'buồng_'
'buông_'
'businesses_'
'bull_'
'budget_'
'blame_'
'blah_'
'bills_'
'behaviors_'
'behavioral_'
'begins_'
'beast_'
'batteries_'
'bathroom_'
'basement_'
'bars_'
'barely_'
'bags_'
'backwards_'
'attempt_'
'atoms_'
'ashamed_'
'approaching_'
'al_'
'agency_'
'actor_'
'actions_'
'Yên_'
'Yves_'
'Yu_'
'Yep_'
'Walker_'
'Walk_'
'Viên_'
'Virginia_'
'Vegas_'
'Valley_'
'Từng_'
'Tầm_'
'Tưởng_'
'Tương_'
'Tracy_'
'Tiền_'
'Thức_'
'Thổ_'
'Thị_'
'Thẩm_'
'Thê_'
'Thuốc_'
'Thiết_'
'Taylor_'
'TEDTalks_'
'Steven_'
'Start_'
'Spock_'
'Speak_'
'Spartacus_'
'Sophie_'
'Seriously_'
'Sergeant_'
'Seems_'
'Seattle_'
'Saturday_'
'Saint_'
'SMS_'
'Russia_'
'Rose_'
'Ready_'
'RG_'
'Quần_'
'Quảng_'
'Quickly_'
'Qaeda_'
'Pull_'
'Project_'
'Prize_'
'Pinkman_'
'Phương_'
'Phía_'
'Phong_'
'Parker_'
'OF_'
'Night_'
'Nicholas_'
'Nhĩ_'
'Ngôi_'
'Micky_'
'Mickey_'
'Mi_'
'Mars_'
'Larry_'
'Langley_'
'LAUGHING_'
'Kế_'
'Kid_'
'Khốn_'
'Khoa_'
'Khiến_'
'Kenya_'
'Keith_'
'Kate_'
'Julie_'
'Josh_'
'Jenny_'
'Jeff_'
'Japan_'
'Jacob_'
'Inspector_'
'Hướng_'
'Hành_'
'Hunter_'
'Holiness_'
'Ho_'
'Hiro_'
'Highness_'
'Hermione_'
'Hal_'
'Had_'
'Gửi_'
'Guess_'
'Gore_'
'Giả_'
'Girl_'
'Frodo_'
'Friday_'
'Franklin_'
'Fox_'
'Fort_'
'February_'
'Exactly_'
'Evan_'
'European_'
'Ethan_'
'Dì_'
'Dutch_'
'Down_'
'Debbie_'
'Dear_'
'De_'
'Darcy_'
'Cút_'
'Cuddy_'
'Cooper_'
'Cool_'
'Connor_'
'Colorado_'
'Colombia_'
'Cola_'
'Coke_'
'Code_'
'Coast_'
'Chuyê_'
'Chaney_'
'Ch_'
'Bài_'
'Bruce_'
'Blue_'
'Between_'
'Better_'
'Being_'
'Bay_'
'Baxter_'
'BOTH_'
'Australia_'
'Ashley_'
'Apple_'
'Angela_'
'Alvin_'
'Alpha_'
'Ali_'
'Aaron_'
'7913_'
'7847_'
'672_'
'64_'
'55_'
'417_'
'3cHFF1000_'
'3D_'
'227_'
'21st_'
'2030_'
'2010_'
'. ..._'
'- ..._'
', ... _'
'*_'
'Ư_'
'đực_'
'đính_'
'Đọc_'
'Định_'
'Địa_'
'Đươ_'
'Điên_'
'zone_'
'xổ_'
'xả_'
'xí_'
'wooden_'
'wishes_'
'whiskey_'
'whenever_'
'wealthy_'
'weak_'
'walks_'
'victory_'
'vessel_'
'vehicle_'
'vay_'
'university_'
'units_'
'tặc_'
'tần_'
'tuý_'
'tune_'
'trói_'
'treasure_'
'traveled_'
'transmit_'
'tragic_'
'torture_'
'topics_'
'tooth_'
'tiễn_'
'thung_'
'threat_'
'thoái_'
'thou_'
'tear_'
'sướng_'
'symptoms_'
'symptom_'
'switch_'
'suýt_'
'surrounded_'
'suggest_'
'sufficient_'
'stranger_'
'storm_'
'stairs_'
'spring_'
'spreading_'
'spots_'
'spell_'
'specifically_'
'speakers_'
'sources_'
'sooner_'
'silver_'
'silicon_'
'signature_'
'shy_'
'shake_'
'sets_'
'serving_'
'served_'
'sergeant_'
'secrets_'
'season_'
'scare_'
'satisfaction_'
'salad_'
'sacrifice_'
'rễ_'
'rảnh_'
'ru_'
'reverse_'
'retirement_'
'researchers_'
'repeat_'
'reminds_'
'remembered_'
'remains_'
'relevant_'
'released_'
'relatives_'
'relations_'
'recording_'
'recorded_'
'rare_'
'quẩn_'
'quấn_'
'quăng_'
'quyên_'
'quarter_'
'pushed_'
'prototype_'
'proteins_'
'professor_'
'professionals_'
'professional_'
'produced_'
'prisoners_'
'principle_'
'princess_'
'preserve_'
'presented_'
'precious_'
'poster_'
'posted_'
'plain_'
'pig_'
'pie_'
'phốt_'
'phì_'
'physicist_'
'photos_'
'photography_'
'phenomenon_'
'perform_'
'peaceful_'
'patch_'
'partners_'
'particles_'
'participants_'
'pal_'
'pages_'
'oyster_'
'overall_'
'outcomes_'
'organic_'
'operations_'
'odd_'
'nộ_'
'nôn_'
'náo_'
'nor_'
'nonsense_'
'nhạo_'
'nhường_'
'nhơ_'
'nhì_'
'ngắt_'
'mổ_'
'mãnh_'
'mysterious_'
'multi_'
'methods_'
'meters_'
'messages_'
'medium_'
'matrix_'
'markets_'
'mark_'
'management_'
'malaria_'
'magnetic_'
'lầu_'
'lướt_'
'lê_'
'lén_'
'láo_'
'loa_'
'lit_'
'license_'
'lets_'
'lawyers_'
'laughed_'
'languages_'
'kiêng_'
'kitchen_'
'kills_'
'khéo_'
'khâu_'
'khuyến_'
'khuynh_'
'khiếm_'
'jumping_'
'joined_'
'intimacy_'
'insects_'
'ignore_'
'hê_'
'hâm_'
'hoãn_'
'houses_'
'host_'
'hits_'
'hip_'
'helpful_'
'hello_'
'heaven_'
'hearts_'
'heal_'
'hardest_'
'gập_'
'grateful_'
'grandma_'
'grade_'
'globe_'
'giê_'
'gieo_'
'gather_'
'fundraising_'
'fruit_'
'frequency_'
'frankly_'
'fought_'
'former_'
'formed_'
'forests_'
'football_'
'flower_'
'float_'
'fingers_'
'films_'
'files_'
'fewer_'
'facility_'
'faced_'
'extreme_'
'extension_'
'express_'
'explaining_'
'expert_'
'expectations_'
'exists_'
'existing_'
'excellent_'
'established_'
'essence_'
'escaped_'
'equal_'
'environments_'
'engines_'
'enemies_'
'embarrassing_'
'elevator_'
'economist_'
'eaten_'
'earthquake_'
'dốc_'
'drum_'
'dozen_'
'distribution_'
'discipline_'
'dirt_'
'dimensions_'
'differently_'
'determined_'
'detailed_'
'destiny_'
'description_'
'depth_'
'defeat_'
'deaf_'
'cứt_'
'củ_'
'cẩu_'
'cảng_'
'cáp_'
'cuô_'
'curiosity_'
'cua_'
'criminals_'
'crimes_'
'cream_'
'cow_'
'cousin_'
'counting_'
'cooling_'
'conventional_'
'continued_'
'considered_'
'conflicts_'
'confirmed_'
'concrete_'
'compound_'
'complexity_'
'colonies_'
'cognitive_'
'closing_'
'cleared_'
'classes_'
'claim_'
'chợ_'
'chướng_'
'chói_'
'chocolate_'
'cheese_'
'celebration_'
'cast_'
'carefully_'
'capture_'
'candidate_'
'cage_'
'bớt_'
'bồn_'
'bệ_'
'bẻ_'
'bấm_'
'bạt_'
'bóc_'
'bách_'
'bullet_'
'brown_'
'boxes_'
'borrow_'
'borders_'
'boots_'
'blowing_'
'blanket_'
'bits_'
'benefits_'
'beneath_'
'believes_'
'behave_'
'awake_'
'authority_'
'attacks_'
'assistant_'
'assignment_'
'asshole_'
'armed_'
'argue_'
'application_'
'antibiotics_'
'announced_'
'angle_'
'allowing_'
'agriculture_'
'aging_'
'advise_'
'adults_'
'adult_'
'adapt_'
'acts_'
'achieved_'
'accurate_'
'abandoned_'
'Were_'
'Water_'
'W_'
'Văn_'
'Voice_'
'Victor_'
'Tử_'
'Twenty_'
'Tuần_'
'Tokyo_'
'Thống_'
'Thường_'
'Thú_'
'Tháng_'
'Thám_'
'Súng_'
'Sue_'
'Stifler_'
'Stark_'
'Star_'
'Stanford_'
'Stan_'
'Snow_'
'Skyler_'
'Siêu_'
'Sing_'
'Silence_'
'Sharon_'
'Senator_'
'Scotty_'
'Save_'
'Saudi_'
'SW_'
'Rượu_'
'Russian_'
'Room_'
'Rock_'
'Robot_'
'River_'
'Reese_'
'Raymond_'
'Randy_'
'Prime_'
'Portland_'
'Pole_'
'Pittsburgh_'
'Phu_'
'Phoenix_'
'Philip_'
'Parkman_'
'Otherwise_'
'ON_'
'Nỗi_'
'Number_'
'Noah_'
'Nhờ_'
'Ngủ_'
'Ngoại_'
'Nelson_'
'Mật_'
'Mùa_'
'Molly_'
'Miễn_'
'Mitchell_'
'Minh_'
'Micah_'
'Mexican_'
'Marie_'
'Mang_'
'Mai_'
'Maggie_'
'MONICA_'
'MAN_'
'Lạ_'
'Lucy_'
'Lucky_'
'Lock_'
'Live_'
'Linh_'
'Leonardo_'
'Kích_'
'Kirk_'
'Karl_'
'Journal_'
'Jordan_'
'Jon_'
'Jo_'
'Jessica_'
'Jean_'
'Jay_'
'Italian_'
'Islands_'
'Islamic_'
'Iranian_'
'Institute_'
'IN_'
'Hỏi_'
'Huynh_'
'Helen_'
'Heidi_'
'Heh_'
'Hang_'
'Han_'
'Greg_'
'Greek_'
'Grace_'
'Gordon_'
'Gonna_'
'Giơ_'
'Giao_'
'Fucking_'
'Follow_'
'Fire_'
'Excellent_'
'Eventually_'
'Either_'
'Dùng_'
'Drop_'
'Drive_'
'Deep_'
'DVD_'
'Cầm_'
'Cười_'
'Cánh_'
'Couldn_'
'Coming_'
'Cole_'
'Coca_'
'Clay_'
'Chồng_'
'Chuck_'
'Children_'
'Chan_'
'Casey_'
'Carol_'
'Careful_'
'Bồ_'
'Bệ_'
'Bảy_'
'Bán_'
'Brooklyn_'
'Boyka_'
'Berlin_'
'Berkeley_'
'Bennet_'
'Bella_'
'Becky_'
'Barney_'
'BJ_'
'August_'
'Archer_'
'Apparently_'
'Allison_'
'Against_'
'Afghan_'
'Act_'
'ALL_'
'7869_'
'65_'
'43_'
'259_'
'2004_'
'19th_'
'1980_'
'140_'
'120_'
' ] _'
'— _'
'Ối_'
'ếch_'
'đứt_'
'đợt_'
'đền_'
'đẽ_'
'đắng_'
'đảng_'
'đòn_'
'điếm_'
'điêu_'
'Đế_'
'Đằng_'
'Đê_'
'Đàn_'
'Đu_'
'Đem_'
'ôtô_'
'àh_'
'xông_'
'xì_'
'xà_'
'wow_'
'worries_'
'woke_'
'wipe_'
'winning_'
'winner_'
'wings_'
'whore_'
'whoever_'
'west_'
'weather_'
'wave_'
'wasting_'
'warrior_'
'warrant_'
'warning_'
'wallet_'
'vụn_'
'vịnh_'
'vét_'
'vãi_'
'vu_'
'von_'
'vo_'
'vitamin_'
'viruses_'
'vehicles_'
'vegetables_'
'variety_'
'uốn_'
'usual_'
'users_'
'user_'
'unusual_'
'uniform_'
'underwater_'
'underground_'
'unbelievable_'
'ubiquitous_'
'tạng_'
'tạ_'
'tý_'
'té_'
'typing_'
'trừu_'
'trọn_'
'trêu_'
'trucks_'
'troops_'
'tribe_'
'trend_'
'translate_'
'trains_'
'trail_'
'toys_'
'touched_'
'thỉu_'
'thẳm_'
'thấm_'
'thă_'
'thâm_'
'thus_'
'thrown_'
'throat_'
'thiêu_'
'tests_'
'tested_'
'terrorist_'
'tennis_'
'technological_'
'technique_'
'technical_'
'tattoo_'
'tall_'
'súp_'
'symbol_'
'switching_'
'sweetheart_'
'suspended_'
'surgeon_'
'supplies_'
'superior_'
'suggests_'
'suffer_'
'sucking_'
'succeed_'
'stunning_'
'strings_'
'stink_'
'statistics_'
'staring_'
'stable_'
'southern_'
'sounded_'
'sometime_'
'snake_'
'smoking_'
'skill_'
'shower_'
'shocked_'
'sheriff_'
'sharp_'
'senior_'
'seeking_'
'section_'
'savings_'
'salary_'
'rể_'
'rò_'
'ruột_'
'rubbish_'
'routine_'
'rooms_'
'romance_'
'rifle_'
'ria_'
'remote_'
'regard_'
'referring_'
'reference_'
'recover_'
'recipe_'
'reached_'
'rays_'
'ray_'
'rarely_'
'rapid_'
'quầy_'
'pump_'
'psychological_'
'promises_'
'profits_'
'privacy_'
'primarily_'
'presents_'
'prefer_'
'precise_'
'pre_'
'powered_'
'port_'
'porn_'
'pill_'
'phơi_'
'pháo_'
'phrase_'
'photographer_'
'phosphorus_'
'phones_'
'phase_'
'pet_'
'permanent_'
'performing_'
'performed_'
'passes_'
'passenger_'
'parenting_'
'pardon_'
'paradox_'
'palace_'
'paintings_'
'owns_'
'owner_'
'organs_'
'orchestra_'
'orbit_'
'option_'
'operate_'
'opera_'
'opens_'
'openness_'
'offices_'
'offering_'
'occurred_'
'obey_'
'nứt_'
'nóc_'
'nén_'
'nonprofit_'
'nights_'
'nightmare_'
'nhọc_'
'nhánh_'
'nhiễu_'
'nhiê_'
'nham_'
'ngào_'
'nghiêng_'
'neural_'
'neck_'
'narrow_'
'naive_'
'múa_'
'mustn_'
'monkey_'
'mixed_'
'mister_'
'midnight_'
'metaphor_'
'mere_'
'mechanism_'
'marshal_'
'manager_'
'magical_'
'lọ_'
'lệch_'
'lẩn_'
'lùn_'
'lò_'
'lungs_'
'lover_'
'loud_'
'logo_'
'literacy_'
'len_'
'leaf_'
'lam_'
'kề_'
'kẽ_'
'kidney_'
'khốc_'
'khói_'
'khuất_'
'khoe_'
'khiêm_'
'k_'
'junk_'
'juice_'
'jet_'
'jealous_'
'jacket_'
'invested_'
'internal_'
'institution_'
'insist_'
'industrial_'
'independent_'
'improving_'
'improvement_'
'impressive_'
'imperative_'
'immediate_'
'imaging_'
'imagined_'
'illness_'
'họng_'
'huýt_'
'hop_'
'hook_'
'holiday_'
'hiê_'
'heating_'
'headquarters_'
'hacker_'
'gạt_'
'guests_'
'guards_'
'granted_'
'grandparents_'
'goods_'
'goodness_'
'goat_'
'globalization_'
'giâ_'
'giáng_'
'giu_'
'ghost_'
'generated_'
'gate_'
'gai_'
'funeral_'
'fortune_'
'fold_'
'flu_'
'flies_'
'fits_'
'firm_'
'filthy_'
'figuring_'
'fifty_'
'fellas_'
'fastest_'
'farmers_'
'fans_'
'false_'
'fabric_'
'extract_'
'expression_'
'experts_'
'expecting_'
'exit_'
'error_'
'engineer_'
'engagement_'
'ending_'
'emerging_'
'emergence_'
'embarrassed_'
'economics_'
'easily_'
'dời_'
'dì_'
'dumb_'
'drops_'
'drone_'
'dozens_'
'distant_'
'disorder_'
'discussion_'
'discussed_'
'discuss_'
'discover_'
'disappeared_'
'disappear_'
'dinosaurs_'
'dig_'
'differences_'
'devoted_'
'destruction_'
'desperate_'
'desert_'
'depends_'
'deny_'
'density_'
'democratic_'
'daughters_'
'dai_'
'còi_'
'cò_'
'crossing_'
'crossed_'
'creation_'
'covering_'
'courage_'
'corn_'
'container_'
'consumer_'
'confidence_'
'confession_'
'concern_'
'concentrate_'
'commitment_'
'comment_'
'commander_'
'collapse_'
'coach_'
'clue_'
'closest_'
'clients_'
'circle_'
'cigarettes_'
'chẽ_'
'chui_'
'chiêu_'
'childhood_'
'chess_'
'checks_'
'checking_'
'checked_'
'characteristics_'
'channel_'
'cay_'
'captured_'
'captain_'
'candy_'
'bọt_'
'bầy_'
'bơ_'
'búa_'
'bùng_'
'bìa_'
'bâ_'
'báng_'
'buồm_'
'burst_'
'bulb_'
'bubble_'
'briefly_'
'breasts_'
'breaks_'
'bowl_'
'bothered_'
'bloody_'
'biếm_'
'beloved_'
'belong_'
'beliefs_'
'beef_'
'beard_'
'bath_'
'banh_'
'balloon_'
'badly_'
'axis_'
'awkward_'
'aunt_'
'attractive_'
'assure_'
'associated_'
'assemble_'
'assault_'
'aspect_'
'arriving_'
'arrive_'
'appointment_'
'anxiety_'
'animation_'
'aid_'
'agreement_'
'agents_'
'affected_'
'affair_'
'advanced_'
'acid_'
'Youtube_'
'YouTube_'
'Yorker_'
'Wyatt_'
'Work_'
'Women_'
'Willie_'
'Whose_'
'Warren_'
'Wanna_'
'Vịnh_'
'Veronica_'
'Van_'
'Val_'
'Union_'
'USD_'
'Tạo_'
'Tướng_'
'Tác_'
'Tào_'
'Turkey_'
'Truyền_'
'Troy_'
'Toà_'
'Top_'
'Titanic_'
'Thủ_'
'Thơ_'
'Thu_'
'Through_'
'Third_'
'Theodore_'
'Tasmanian_'
'Tango_'
'Taliban_'
'Sức_'
'Sợ_'
'Sở_'
'Sống_'
'Swiss_'
'Sweden_'
'Suy_'
'Sunday_'
'Stage_'
'Special_'
'Speaking_'
'Soviet_'
'Slim_'
'Sky_'
'Shanghai_'
'Shakespeare_'
'Seth_'
'Service_'
'September_'
'Saul_'
'Saharan_'
'Rule_'
'Royal_'
'Ricky_'
'Revolution_'
'Rebecca_'
'Ranger_'
'Quyền_'
'Quy_'
'Quiet_'
'Quick_'
'Play_'
'Pierre_'
'Phật_'
'Phản_'
'Philippe_'
'Philadelphia_'
'Papa_'
'Palestine_'
'November_'
'Nonsense_'
'Nhắm_'
'Nhóc_'
'Nghĩ_'
'Nghiên_'
'Ned_'
'Nature_'
'Nat_'
'Mụ_'
'Mất_'
'Món_'
'Must_'
'Muslims_'
'Muslim_'
'Museum_'
'Mozart_'
'Monsieur_'
'Monroe_'
'Monkey_'
'Mong_'
'Miguel_'
'Merry_'
'Marion_'
'Margaret_'
'Marcus_'
'Mandela_'
'Making_'
'Majesty_'
'Madeleine_'
'Lựa_'
'Lễ_'
'Lính_'
'Lâm_'
'Lyle_'
'Lui_'
'Liberty_'
'Lego_'
'Left_'
'Lebanon_'
'Lady_'
'Khán_'
'June_'
'Jules_'
'Joshua_'
'Jonas_'
'Joel_'
'Jin_'
'Jews_'
'Jefferson_'
'Jamie_'
'Islam_'
'Iris_'
'International_'
'Indians_'
'Iceland_'
'Ice_'
'Ian_'
'Hỏa_'
'Hậu_'
'Hôn_'
'Hòa_'
'Hung_'
'Hoá_'
'Hm_'
'Hitler_'
'Hercules_'
'HE_'
'Greenland_'
'Grandma_'
'Grab_'
'Global_'
'Georgia_'
'France_'
'Face_'
'Evil_'
'Enjoy_'
'Ellen_'
'Egypt_'
'Eastern_'
'Dom_'
'Division_'
'Dick_'
'Death_'
'Dale_'
'Cục_'
'Căn_'
'Cát_'
'Country_'
'Corps_'
'Copenhagen_'
'Company_'
'Collins_'
'Cindy_'
'Chương_'
'Chìa_'
'Church_'
'Charley_'
'Certainly_'
'Castle_'
'Case_'
'CHUCKLES_'
'CEO_'
'Bí_'
'Buồn_'
'Bridge_'
'Boys_'
'Boss_'
'Bosnia_'
'Bo_'
'Betty_'
'Bell_'
'Been_'
'Atlanta_'
'Arizona_'
'Arabic_'
'Anthony_'
'Anderson_'
'Amen_'
'Alfred_'
'Alaska_'
'Abe_'
'AND_'
'; ?_'
'92_'
'88_'
'83_'
'7911_'
'7885_'
'7879_'
'700_'
'48_'
'404_'
'39_'
'2001_'
'180_'
', ..._'
' .. _'
' )_'
'ấu_'
'́, _'
'́!_'
'đắp_'
'đắc_'
'đươc_'
'đũa_'
'đôla_'
'đun_'
'đinh_'
'đan_'
'Đỡ_'
'Đầy_'
'Đóng_'
'Đoán_'
'ăng_'
'ôi_'
'Úc_'
'Âm_'
'¡_'
'yểm_'
'xịt_'
'xỉ_'
'xít_'
'xé_'
'xáo_'
'xám_'
'xá_'
'xuẩn_'
'xoa_'
'wound_'
'wood_'
'wired_'
'wire_'
'whereas_'
'whales_'
'washing_'
'warriors_'
'wanting_'
'waking_'
'vọt_'
'vặt_'
'vần_'
'vãn_'
'vác_'
'votes_'
'volunteers_'
'vodka_'
'visually_'
'virtual_'
'videos_'
'vest_'
'verbal_'
'uy_'
'urgent_'
'upside_'
'ups_'
'uncertainty_'
'unable_'
'tạc_'
'tùng_'
'tôm_'
'tuỳ_'
'trừng_'
'trỏ_'
'trơn_'
'trùm_'
'trán_'
'trinh_'
'trials_'
'trends_'
'treating_'
'transport_'
'transition_'
'trace_'
'toxins_'
'tower_'
'tournament_'
'toss_'
'torch_'
'tongue_'
'tomato_'
'toe_'
'tivi_'
'ticking_'
'thừng_'
'thốt_'
'thắp_'
'thầm_'
'thươ_'
'thôn_'
'throwing_'
'thinkin_'
'tension_'
'tens_'
'techniques_'
'tears_'
'teams_'
'teaches_'
'tanks_'
'sửng_'
'sờ_'
'să_'
'sùng_'
'survived_'
'surfaces_'
'suggestions_'
'suggestion_'
'subtle_'
'stuffed_'
'stroke_'
'strip_'
'string_'
'strangers_'
'stereo_'
'stealing_'
'stare_'
'standards_'
'spiritual_'
'spelled_'
'spectrum_'
'spare_'
'soup_'
'sophisticated_'
'solving_'
'solid_'
'soil_'
'smooth_'
'slowing_'
'slip_'
'skilled_'
'sixth_'
'situations_'
'sites_'
'sink_'
'simplest_'
'signals_'
'shove_'
'shock_'
'shipping_'
'shells_'
'shapes_'
'shadow_'
'setup_'
'session_'
'sentences_'
'sensors_'
'sensitive_'
'selection_'
'seats_'
'sealed_'
'scores_'
'scanning_'
'satellite_'
'salt_'
'sale_'
'safer_'
'rạch_'
'rãi_'
'rã_'
'rural_'
'rounds_'
'rode_'
'rocks_'
'revenge_'
'reveal_'
'rests_'
'respond_'
'resistance_'
'researcher_'
'requires_'
'representation_'
'reporter_'
'replicate_'
'repair_'
'reo_'
'reliable_'
'relative_'
'regrets_'
'regime_'
'reduction_'
'rates_'
'randomly_'
'raising_'
'raining_'
'radiation_'
'quặc_'
'pushing_'
'pursue_'
'punish_'
'providing_'
'proven_'
'prostate_'
'profession_'
'processing_'
'prints_'
'prime_'
'pride_'
'predict_'
'prayers_'
'positions_'
'poorest_'
'pollution_'
'pollen_'
'politicians_'
'poem_'
'pilot_'
'pills_'
'picking_'
'phồng_'
'phẳng_'
'phàn_'
'photographs_'
'phiến_'
'phanh_'
'pest_'
'penis_'
'peer_'
'pathetic_'
'passage_'
'parties_'
'paperwork_'
'package_'
'pace_'
'oxy_'
'overwhelmed_'
'outta_'
'output_'
'ooo_'
'ooh_'
'occupy_'
'nếm_'
'nín_'
'nã_'
'nàn_'
'nurse_'
'nu_'
'nowadays_'
'nonviolent_'
'nicely_'
'nhức_'
'nhúc_'
'nháy_'
'nhuộm_'
'ngợi_'
'ngầu_'
'ngần_'
'nghẽn_'
'nghiệt_'
'neuron_'
'nerve_'
'nano_'
'mỉa_'
'mầu_'
'mòn_'
'mép_'
'mài_'
'mustache_'
'museums_'
'museum_'
'multiple_'
'movies_'
'movements_'
'mortality_'
'monitor_'
'mix_'
'mistakes_'
'missiles_'
'minister_'
'metals_'
'merely_'
'mercy_'
'mechanisms_'
'mechanics_'
'mature_'
'marks_'
'manufacturing_'
'manual_'
'manner_'
'mankind_'
'mall_'
'mainly_'
'lửng_'
'lồng_'
'lố_'
'lúa_'
'lót_'
'léo_'
'lord_'
'logical_'
'locations_'
'liêng_'
'lions_'
'lied_'
'liar_'
'legendary_'
'legend_'
'laundry_'
'launched_'
'laughs_'
'lately_'
'lasted_'
'largely_'
'lands_'
'laid_'
'lad_'
'kèn_'
'kicked_'
'khờ_'
'khoăn_'
'khiếu_'
'khiết_'
'khan_'
'keyboard_'
'jungle_'
'judgment_'
'joking_'
'jihad_'
'islands_'
'involve_'
'intuition_'
'intervene_'
'intense_'
'intend_'
'insurance_'
'instrument_'
'instantly_'
'initiative_'
'informed_'
'inform_'
'influenced_'
'independence_'
'inches_'
'importantly_'
'ill_'
'ideal_'
'hổng_'
'hươu_'
'hăng_'
'hut_'
'hunting_'
'hunger_'
'hormone_'
'hopes_'
'hon_'
'hiếu_'
'historical_'
'hired_'
'hallway_'
'habits_'
'gục_'
'gầm_'
'găng_'
'gunshot_'
'guidance_'
'guest_'
'graph_'
'giáp_'
'gesture_'
'gathering_'
'gathered_'
'garbage_'
'gang_'
'galaxies_'
'frozen_'
'frog_'
'friendly_'
'foundation_'
'formula_'
'formal_'
'forgotten_'
'follows_'
'flesh_'
'filled_'
'fiction_'
'fellows_'
'fashioned_'
'fancy_'
'fairly_'
'failing_'
'fabulous_'
'extended_'
'expressions_'
'explosion_'
'exploring_'
'executed_'
'exam_'
'evolutionary_'
'estimates_'
'estate_'
'epidemic_'
'eo_'
'envy_'
'en_'
'empire_'
'emerge_'
'elite_'
'elephant_'
'element_'
'elders_'
'egg_'
'efficiency_'
'educated_'
'ease_'
'dồn_'
'dại_'
'dưa_'
'dơ_'
'dust_'
'drew_'
'draft_'
'downtown_'
'download_'
'divorced_'
'diver_'
'distinct_'
'dishes_'
'dish_'
'dimensional_'
'dictionary_'
'diagnosis_'
'depressed_'
'depending_'
'depend_'
'denial_'
'demonstrated_'
'delivered_'
'delighted_'
'deeper_'
'dedicated_'
'deck_'
'darkness_'
'củng_'
'cỡi_'
'cọc_'
'cạo_'
'căm_'
'cylinder_'
'customer_'
'crucial_'
'crashed_'
'county_'
'counts_'
'counselor_'
'cortisol_'
'corridor_'
'convinced_'
'convince_'
'controversial_'
'controls_'
'contributed_'
'continent_'
'contains_'
'confronted_'
'condoms_'
'conclude_'
'concerns_'
'compute_'
'completed_'
'commit_'
'comments_'
'combine_'
'combat_'
'collective_'
'collection_'
'collected_'
'coincidence_'
'cock_'
'clues_'
'civilization_'
'citizen_'
'circuit_'
'cigarette_'
'chớp_'
'chải_'
'chén_'
'chuồng_'
'chuyền_'
'chief_'
'chicken_'
'chat_'
'charts_'
'chart_'
'characters_'
'champagne_'
'challenging_'
'chain_'
'castle_'
'cartoon_'
'caring_'
'cares_'
'capita_'
'cap_'
'candle_'
'cab_'
'bọc_'
'bịch_'
'bẩy_'
'bầm_'
'bấy_'
'bướm_'
'bưu_'
'băn_'
'bôi_'
'bón_'
'bì_'
'bênh_'
'bén_'
'bury_'
'burned_'
'bump_'
'bugs_'
'broadcast_'
'brave_'
'brand_'
'bound_'
'bon_'
'blend_'
'bitter_'
'besides_'
'beside_'
'belonged_'
'believing_'
'begun_'
'beats_'
'beating_'
'beaten_'
'bears_'
'battles_'
'basketball_'
'baseball_'
'banjo_'
'awfully_'
'avoid_'
'automatic_'
'attracted_'
'attract_'
'attitude_'
'astronomy_'
'astonishing_'
'associate_'
'arguing_'
'applied_'
'applications_'
'apples_'
'apple_'
'annual_'
'analysis_'
'amounts_'
'amongst_'
'although_'
'alternative_'
'album_'
'aircraft_'
'aim_'
'ages_'
'active_'
'achievement_'
'aboard_'
'abalone_'
'Zoe_'
'Zealand_'
'Z_'
'Yale_'
'Xô_'
'Xét_'
'Xác_'
'Xanh_'
'Wouldn_'
'Woody_'
'Wonderful_'
'Won_'
'Wolfram_'
'Whether_'
'Way_'
'Vũ_'
'Vòng_'
'Viking_'
'Vic_'
'Uy_'
'Usually_'
'Until_'
'Uhm_'
'US_'
'USA_'
'Tạ_'
'Tòa_'
'Tài_'
'Tuyết_'
'Trận_'
'Trying_'
'Trust_'
'Travis_'
'Todd_'
'Thỏa_'
'Thỉnh_'
'Thích_'
'Thanksgiving_'
'Teszler_'
'Tesla_'
'Technology_'
'THERE_'
'Sơn_'
'Sweet_'
'Stirling_'
'Step_'
'Stanley_'
'Spring_'
'Sophia_'
'Sokka_'
'Social_'
'Sleep_'
'Singapore_'
'Sierra_'
'Side_'
'Shin_'
'Security_'
'Sebastian_'
'SOPA_'
'SIGHS_'
'Rốt_'
'Rút_'
'Roy_'
'Rosling_'
'Ronald_'
'Research_'
'Reed_'
'Read_'
'Raven_'
'Ran_'
'Quỹ_'
'Quite_'
'Quinn_'
'Quentin_'
'Princeton_'
'Princess_'
'Post_'
'Pop_'
'Poor_'
'Poland_'
'Plato_'
'Place_'
'Phục_'
'Pat_'
'Pass_'
'Pants_'
'PIPA_'
'Omar_'
'Ocean_'
'Nữa_'
'Não_'
'Nurse_'
'Norway_'
'Nine_'
'Nicole_'
'Nhạc_'
'Ngựa_'
'Nguồn_'
'Nghỉ_'
'Nghi_'
'Newton_'
'News_'
'Neither_'
'Naples_'
'Nancy_'
'Mừng_'
'Mộc_'
'Mễ_'
'Mùi_'
'Môn_'
'Muhammad_'
'Movember_'
'Mountain_'
'Morning_'
'Mohinder_'
'Missouri_'
'Miranda_'
'Mink_'
'Minister_'
'Mine_'
'Mind_'
'Miami_'
'Merlin_'
'Megan_'
'Marshall_'
'Mario_'
'Mall_'
'Malcolm_'
'Makes_'
'Major_'
'Madam_'
'Mac_'
'Lịch_'
'Lòng_'
'Ly_'
'Luther_'
'Luis_'
'Loài_'
'Looking_'
'Liberia_'
'Lenny_'
'Le_'
'Laura_'
'Las_'
'Kông_'
'Kids_'
'Kia_'
'Khối_'
'Khả_'
'Kho_'
'Kh_'
'Judy_'
'Ji_'
'Jacques_'
'Jackie_'
'JR_'
'Imperial_'
'IBM_'
'Hứa_'
'Hợp_'
'Hổ_'
'Human_'
'Holly_'
'Herbie_'
'Hector_'
'Health_'
'Head_'
'Having_'
'Harvey_'
'Harmon_'
'Hannah_'
'Half_'
'Gà_'
'Gun_'
'Grey_'
'Governor_'
'Gould_'
'Goliath_'
'Goddamn_'
'Giấy_'
'Giám_'
'Gideon_'
'Getting_'
'Germans_'
'Gentlemen_'
'Geller_'
'Gandhi_'
'Fred_'
'Frankie_'
'Francis_'
'Found_'
'Forgive_'
'Flynn_'
'Finish_'
'Finch_'
'Fight_'
'Fibonacci_'
'Fat_'
'Fang_'
'Falls_'
'Eve_'
'Enterprise_'
'Emil_'
'Elias_'
'Eat_'
'Dựng_'
'Dịch_'
'Dexter_'
'Dead_'
'Data_'
'Darwin_'
'DJ_'
'DEA_'
'Cụ_'
'Cá_'
'Commander_'
'Close_'
'Clinton_'
'Chọn_'
'Chậm_'
'Chất_'
'Chuyển_'
'Christine_'
'Channel_'
'Change_'
'Chambers_'
'Chad_'
'Cathy_'
'Catherine_'
'Cat_'
'Carson_'
'Caroline_'
'Canadian_'
'CAD_'
'Bữa_'
'Bảng_'
'Bả_'
'Bám_'
'Buzz_'
'Burton_'
'Bonnie_'
'Binh_'
'Beach_'
'Bauer_'
'Bailey_'
'Babylon_'
'BE_'
'Aurora_'
'Arabs_'
'April_'
'Apache_'
'Antarctica_'
'Angie_'
'Andrea_'
'Alan_'
'Ain_'
'Age_'
'AK_'
';?_'
'; - _'
'96_'
'7897_'
'750_'
'72_'
'5000_'
'47_'
'46_'
'42_'
'36_'
'20s_'
'2015_'
'1970s_'
'130_'
'125_'
'101_'
'1000_'
'. &_'
'. #_'
'--?_'
',..._'
')._'
' :_'
' .... _'
' ... &_'
' . &#_'
'—_'
'– _'
'ồ_'
'ẩm_'
'Ẩn_'
'̉?_'
'̀... _'
'đệm_'
'đắm_'
'đả_'
'đúc_'
'đùi_'
'đãng_'
'Đời_'
'Động_'
'Đều_'
'Đề_'
'Đậu_'
'Đùa_'
'Đào_'
'ào_'
'Ä_'
'Áo_'
'°_'
'youngest_'
'yogurt_'
'ye_'
'yard_'
'xộn_'
'xỉn_'
'xuôi_'
'xoắn_'
'xiếc_'
'xiên_'
'writer_'
'wrist_'
'wrap_'
'wounds_'
'worrying_'
'worker_'
'wizard_'
'wildly_'
'widely_'
'western_'
'washed_'
'warming_'
'wandering_'
'wagon_'
'vẫy_'
'vùi_'
'vuốt_'
'volunteer_'
'volume_'
'viếng_'
'visiting_'
'visited_'
'virtually_'
'violation_'
'viewer_'
'vicious_'
'vice_'
'vault_'
'unlikely_'
'universes_'
'unhappy_'
'underwear_'
'underlying_'
'uncover_'
'un_'
'tứ_'
'tụt_'
'tỉa_'
'tẻ_'
'tưới_'
'tăm_'
'túm_'
'tè_'
'tào_'
'twisted_'
'tuỷ_'
'tumors_'
'tua_'
'trụi_'
'trusting_'
'trusted_'
'tray_'
'trapped_'
'transferring_'
'trait_'
'tragedy_'
'tracks_'
'torn_'
'tons_'
'tips_'
'tied_'
'thẹn_'
'thét_'
'thrive_'
'thoáng_'
'thong_'
'thirsty_'
'thirds_'
'thief_'
'terribly_'
'temperatures_'
'temper_'
'tearing_'
'taxes_'
'tattoos_'
'tasted_'
'targets_'
'tables_'
'sọ_'
'sê_'
'swing_'
'suối_'
'sustained_'
'sushi_'
'survey_'
'surprisingly_'
'sunlight_'
'suggesting_'
'suffered_'
'successfully_'
'strive_'
'strategies_'
'storage_'
'stones_'
'stimulate_'
'stigma_'
'steering_'
'statue_'
'static_'
'statement_'
'stamp_'
'squirrel_'
'sports_'
'spin_'
'spike_'
'spectacular_'
'speaks_'
'soạn_'
'smarter_'
'slums_'
'slides_'
'slavery_'
'slaughtered_'
'skip_'
'sins_'
'shoulders_'
'shocking_'
'shelf_'
'sheets_'
'shalt_'
'shaking_'
'sexuality_'
'settling_'
'settled_'
'servant_'
'separated_'
'selfish_'
'seeds_'
'seed_'
'searches_'
'screwed_'
'scream_'
'schizophrenia_'
'sauce_'
'sanity_'
'sales_'
'sacrificed_'
'rực_'
'ră_'
'rên_'
'rupees_'
'ruin_'
'royal_'
'row_'
'rough_'
'rotten_'
'rose_'
'rolling_'
'risky_'
'risking_'
'rice_'
'reveals_'
'reunion_'
'retire_'
'restore_'
'resting_'
'restaurants_'
'responsibilities_'
'request_'
'representing_'
'rented_'
'reminded_'
'remain_'
'rely_'
'releases_'
'relaxed_'
'relation_'
'refuse_'
'reflection_'
'refer_'
'recognized_'
'recognition_'
'rebuild_'
'realistic_'
'rash_'
'ranch_'
'rage_'
'radius_'
'racing_'
'quỳ_'
'quạ_'
'què_'
'quyê_'
'quicker_'
'qualified_'
'puzzle_'
'pussy_'
'purposes_'
'purchase_'
'punk_'
'punishment_'
'pulse_'
'puberty_'
'psychologists_'
'psychologist_'
'provided_'
'protects_'
'protective_'
'prosthetic_'
'proposed_'
'properly_'
'promotion_'
'promising_'
'productivity_'
'proceed_'
'pro_'
'privileged_'
'priority_'
'prior_'
'primitive_'
'primate_'
'previously_'
'prevent_'
'pressed_'
'praying_'
'praise_'
'portrait_'
'poker_'
'playwright_'
'plays_'
'plastics_'
'planes_'
'piss_'
'pink_'
'pigs_'
'picks_'
'phế_'
'phôi_'
'personalized_'
'permission_'
'percentage_'
'peak_'
'pause_'
'patterns_'
'patents_'
'passport_'
'passengers_'
'participate_'
'parks_'
'parking_'
'parachute_'
'pad_'
'oxytocin_'
'ownership_'
'owned_'
'origins_'
'orange_'
'operator_'
'operates_'
'onstage_'
'oldest_'
'offers_'
'occasion_'
'nề_'
'nến_'
'nắp_'
'nấc_'
'nạt_'
'nương_'
'nươ_'
'né_'
'náu_'
'nuốt_'
'numb_'
'northern_'
'nom_'
'nhộn_'
'nhược_'
'nhích_'
'nháp_'
'ngừa_'
'ngủi_'
'ngời_'
'ngẫm_'
'ngây_'
'ngai_'
'nest_'
'narrative_'
'nai_'
'mọt_'
'mị_'
'muỗi_'
'musicians_'
'murders_'
'mum_'
'monsters_'
'monkeys_'
'miên_'
'misery_'
'minus_'
'minor_'
'millimeter_'
'mid_'
'microphone_'
'metan_'
'meetings_'
'medication_'
'medal_'
'mechanical_'
'measured_'
'meals_'
'marrow_'
'marker_'
'march_'
'mapping_'
'males_'
'makers_'
'magazines_'
'madness_'
'lộng_'
'lọt_'
'lẽo_'
'lậu_'
'lẫy_'
'lượn_'
'lưỡng_'
'lân_'
'luân_'
'luyến_'
'lottery_'
'loses_'
'located_'
'lobby_'
'liễu_'
'literature_'
'listened_'
'lion_'
'limit_'
'limbs_'
'limb_'
'lightning_'
'liberty_'
'leather_'
'latter_'
'landed_'
'kép_'
'knocked_'
'knights_'
'knight_'
'knee_'
'kilos_'
'kilometers_'
'khỏa_'
'khă_'
'khuya_'
'khoát_'
'khoai_'
'keen_'
'ke_'
'junior_'
'journal_'
'jokes_'
'jerk_'
'jellyfish_'
'jaw_'
'jar_'
'jam_'
'items_'
'isolated_'
'iron_'
'investigate_'
'introduction_'
'intervention_'
'interrogation_'
'interference_'
'interactive_'
'interactions_'
'interaction_'
'intellectual_'
'integrated_'
'instructions_'
'instant_'
'inspiring_'
'injuries_'
'increases_'
'impressed_'
'implications_'
'impacts_'
'illusion_'
'ignoring_'
'identified_'
'iPad_'
'hệt_'
'hẻo_'
'hạm_'
'hạch_'
'hơ_'
'hóc_'
'hâ_'
'há_'
'hàu_'
'hàn_'
'hyper_'
'husbands_'
'hoành_'
'housing_'
'household_'
'hotter_'
'horn_'
'horizon_'
'hopefully_'
'hooked_'
'holy_'
'historic_'
'heroic_'
'helicopter_'
'heavens_'
'healthcare_'
'healing_'
'happily_'
'hao_'
'handy_'
'halfway_'
'hackers_'
'hack_'
'habitat_'
'habit_'
'gạch_'
'gôn_'
'gìn_'
'guessing_'
'grows_'
'grounds_'
'greenhouse_'
'gravity_'
'grams_'
'grain_'
'golden_'
'giở_'
'giùm_'
'gently_'
'gentle_'
'genetics_'
'generate_'
'gases_'
'fundamentally_'
'functions_'
'fuels_'
'frontier_'
'fright_'
'freely_'
'fraction_'
'forehead_'
'footage_'
'fooling_'
'folded_'
'fog_'
'flowing_'
'floating_'
'flights_'
'flag_'
'fires_'
'filling_'
'figures_'
'fiery_'
'fever_'
'fetus_'
'fetch_'
'feeds_'
'feast_'
'fatty_'
'farmer_'
'factories_'
'expose_'
'experiencing_'
'expedition_'
'existed_'
'exception_'
'everyday_'
'eradicate_'
'era_'
'equity_'
'encyclopedia_'
'encounter_'
'empathy_'
'embrace_'
'electrical_'
'elected_'
'ego_'
'efforts_'
'edges_'
'earrings_'
'earn_'
'dặn_'
'dẳng_'
'dạ_'
'dynamic_'
'duyệt_'
'dumped_'
'dug_'
'dropping_'
'drivers_'
'dressed_'
'dreaming_'
'drawings_'
'dots_'
'dot_'
'doorstep_'
'dont_'
'donor_'
'dominated_'
'doll_'
'diều_'
'divorce_'
'divine_'
'diversity_'
'disturbing_'
'distributed_'
'disappointed_'
'disabled_'
'dinosaur_'
'digging_'
'diamond_'
'dial_'
'devastated_'
'determine_'
'detector_'
'detective_'
'detect_'
'despair_'
'deserves_'
'deserved_'
'dependent_'
'demand_'
'delivery_'
'deliberate_'
'defined_'
'decrease_'
'declare_'
'daytime_'
'damaged_'
'cựu_'
'cọ_'
'că_'
'cúp_'
'cúm_'
'cúc_'
'côi_'
'còng_'
'cycle_'
'customers_'
'curriculum_'
'cure_'
'cup_'
'cunt_'
'crystal_'
'crowded_'
'crow_'
'crank_'
'crack_'
'covers_'
'coverage_'
'cortex_'
'corrupt_'
'corresponds_'
'cord_'
'coral_'
'copper_'
'cookies_'
'convicted_'
'controlling_'
'contrast_'
'contained_'
'conservative_'
'conservation_'
'confident_'
'concepts_'
'computing_'
'comparing_'
'communications_'
'comin_'
'colleague_'
'coke_'
'coin_'
'coded_'
'cocktail_'
'clinical_'
'cleaning_'
'claws_'
'claims_'
'circumstances_'
'chệch_'
'chíp_'
'chì_'
'chà_'
'chuộc_'
'chuối_'
'chronic_'
'choáng_'
'chk_'
'chiên_'
'chemicals_'
'cheerleader_'
'cheaper_'
'charges_'
'charged_'
'chanh_'
'champion_'
'chairs_'
'centuries_'
'celebrity_'
'cavalry_'
'cattle_'
'cartoons_'
'carried_'
'cared_'
'campus_'
'bế_'
'buô_'
'busted_'
'bush_'
'bullets_'
'bu_'
'broad_'
'breeding_'
'boxing_'
'bounce_'
'bold_'
'blocking_'
'blessed_'
'bleeding_'
'blast_'
'blank_'
'blaming_'
'blade_'
'bitches_'
'biologists_'
'bin_'
'bent_'
'bending_'
'bell_'
'basis_'
'bands_'
'bald_'
'badge_'
'bacterium_'
'avatar_'
'autonomy_'
'automatically_'
'attacking_'
'attacked_'
'assured_'
'assistance_'
'assist_'
'asset_'
'artificial_'
'article_'
'armor_'
'arena_'
'architectural_'
'architect_'
'appreciated_'
'applause_'
'apparently_'
'app_'
'ants_'
'antibody_'
'antibodies_'
'answered_'
'ang_'
'analyzed_'
'analyze_'
'ambassador_'
'aluminum_'
'alike_'
'alarm_'
'agenda_'
'advance_'
'addressing_'
'addition_'
'adapted_'
'accessible_'
'abuse_'
'abstract_'
'absorb_'
'absence_'
'abortion_'
'] [_'
'Year_'
'YR_'
'Xuân_'
'Xa_'
'Wright_'
'Worth_'
'Woman_'
'Winter_'
'Wilkes_'
'Wild_'
'Wickham_'
'Whereas_'
'Wendy_'
'Weiffenbach_'
'Wayne_'
'Wally_'
'Wallace_'
'WHAT_'
'Vết_'
'Võ_'
'Vâ_'
'Vàng_'
'Voldemort_'
'Viết_'
'Vincent_'
'Vietnam_'
'Vice_'
'Valentine_'
'Us_'
'Unlike_'
'Understand_'
'Uganda_'
'UP_'
'Tề_'
'Tắt_'
'Tùy_'
'Tóm_'
'Tóc_'
'Tí_'
'Tâ_'
'Tám_'
'Turns_'
'Tuco_'
'Trăng_'
'Trò_'
'Truth_'
'True_'
'Tribbiani_'
'Tree_'
'Together_'
'Toby_'
'Tiêu_'
'Titan_'
'Tie_'
'Thủy_'
'Thở_'
'Thất_'
'Thương_'
'Thân_'
'Thought_'
'Though_'
'Thompson_'
'Thirty_'
'Th_'
'Test_'
'Tess_'
'Teri_'
'Teddy_'
'Teacher_'
'Teach_'
'Tarahumara_'
'Tanya_'
'Tai_'
'TB_'
'Sử_'
'Syria_'
'Susie_'
'Suresh_'
'Super_'
'Sugar_'
'Suddenly_'
'Strange_'
'Stephen_'
'Stalin_'
'Splashy_'
'Spencer_'
'Southern_'
'Sound_'
'Soon_'
'Somehow_'
'Solomon_'
'Society_'
'Slowly_'
'Sister_'
'Shot_'
'Shoot_'
'Sex_'
'Serious_'
'Senior_'
'Send_'
'Self_'
'Sea_'
'Scylla_'
'Sally_'
'SINGING_'
'Rufus_'
'Rosen_'
'Rosalie_'
'Romo_'
'Romeo_'
'Roll_'
'Rob_'
'Rex_'
'Real_'
'Ralph_'
'RACHEL_'
'Quận_'
'Quyết_'
'Quit_'
'Qi_'
'Qatar_'
'Promise_'
'Prison_'
'Prepare_'
'Portman_'
'Plus_'
'Phù_'
'Phóng_'
'Phân_'
'Phát_'
'Philly_'
'Pheebs_'
'Penelope_'
'Peck_'
'Patrick_'
'Part_'
'Pam_'
'Palmer_'
'Pablo_'
'Pa_'
'Oscar_'
'Order_'
'Ong_'
'Olympic_'
'Oklahoma_'
'Ohio_'
'Ohh_'
'Oakland_'
'OUT_'
'OECD_'
'Nội_'
'Nền_'
'Norman_'
'Nolan_'
'Noel_'
'Nicky_'
'Nhẹ_'
'Nh_'
'Ngôn_'
'Nguy_'
'Nevada_'
'Nations_'
'NSA_'
'Mới_'
'Màn_'
'Murray_'
'Much_'
'Mua_'
'Mu_'
'Mount_'
'Moose_'
'Moon_'
'Money_'
'Mona_'
'Modern_'
'Mo_'
'Milo_'
'Men_'
'McClane_'
'Maya_'
'Mason_'
'March_'
'Maine_'
'Madame_'
'MW_'
'Lực_'
'Lối_'
'Lê_'
'Lucas_'
'Lt_'
'Lower_'
'Lou_'
'Lost_'
'Lo_'
'Lizzy_'
'Linus_'
'Link_'
'Lindsey_'
'Lina_'
'Leslie_'
'Leo_'
'Len_'
'Lang_'
'LED_'
'LA_'
'Kẹo_'
'Kêu_'
'Kyoto_'
'Kramer_'
'Kiểu_'
'Kiếm_'
'Kiribati_'
'Kingdom_'
'Ki_'
'Khỏe_'
'Khóa_'
'Khách_'
'Kenny_'
'Katara_'
'Karo_'
'Karen_'
'Kansas_'
'Kane_'
'Justin_'
'Judge_'
'Jonny_'
'Joan_'
'Jersey_'
'Jeopardy_'
'Jennifer_'
'Jeffrey_'
'Jared_'
'January_'
'Janice_'
'JJ_'
'JH_'
'Istanbul_'
'Israelis_'
'Isaac_'
'Iron_'
'Ireland_'
'Indy_'
'Indonesia_'
'Indeed_'
'IV_'
'ID_'
'Hồ_'
'Hẳn_'
'Hạm_'
'Hua_'
'Hu_'
'Houston_'
'Hotch_'
'Hopkins_'
'Hope_'
'Hogwarts_'
'Hiệu_'
'Hiya_'
'Henri_'
'Hawaii_'
'Harrison_'
'Hard_'
'Hansen_'
'Hands_'
'Hampshire_'
'Hale_'
'Haiti_'
'Hail_'
'Gwen_'
'Group_'
'Grayson_'
'Graham_'
'Golden_'
'Gold_'
'Giữa_'
'Ghana_'
'Gates_'
'Gate_'
'Game_'
'Free_'
'Frances_'
'Fraga_'
'Fourth_'
'Ford_'
'Force_'
'Flint_'
'Flight_'
'Fellow_'
'Far_'
'Eye_'
'Exxon_'
'Everest_'
'Europa_'
'Essex_'
'Especially_'
'Erin_'
'Emperor_'
'Elliott_'
'Elliot_'
'Ellie_'
'Eight_'
'Dậy_'
'Dẫn_'
'Dây_'
'Dàn_'
'During_'
'Duke_'
'Du_'
'Drink_'
'Doing_'
'Disney_'
'Diego_'
'Diane_'
'Diana_'
'Department_'
'Definitely_'
'Dee_'
'Deal_'
'Dane_'
'Dana_'
'Cướp_'
'Cưng_'
'Cư_'
'Cơn_'
'Càng_'
'Cuốn_'
'Cruchot_'
'Cross_'
'Crixus_'
'Crazy_'
'Crassus_'
'Council_'
'Cora_'
'Committee_'
'Columbia_'
'Club_'
'Clark_'
'Chấp_'
'Chàng_'
'Chen_'
'Catholic_'
'Carolina_'
'Carlos_'
'Cardinal_'
'Camera_'
'CNN_'
'CHANDLER_'
'CAPTCHA_'
'Bạch_'
'Băng_'
'Buddha_'
'Bryan_'
'Bruno_'
'Brothers_'
'Bronx_'
'Brendan_'
'Bravo_'
'Brand_'
'Bible_'
'Bellick_'
'Beau_'
'Bear_'
'Bart_'
'Barcelona_'
'Barack_'
'Bangalore_'
'Azerbaijan_'
'Austin_'
'Attention_'
'Asian_'
'Arts_'
'Arkansas_'
'Argh_'
'Arabia_'
'Ambassador_'
'Always_'
'Although_'
'Already_'
'Along_'
'Albert_'
'Agnes_'
'Adams_'
'Achilles_'
'Abu_'
'AO_'
'?" _'
'; , &_'
'900_'
'87_'
'85_'
'7909_'
'7903_'
'62_'
'56_'
'4th_'
'450_'
'44_'
'37_'
'297_'
'237_'
'2002_'
'1992_'
'1985_'
'1969_'
'1965_'
'1900_'
'160_'
'04_'
'..., _'
'... .. _'
'.!_'
'. ♪_'
'- # _'
', - _'
'', _'
'! ._'
' ; / _'
' -**_'
' *_'
'♪ ♪_'
'–_'
'Ứng_'
'ớt_'
'ấp_'
'Ảo_'
'̀!_'
'ương_'
'Ơn_'
'đục_'
'đạm_'
'đĩ_'
'đái_'
'đoa_'
'điềm_'
'điếu_'
'Đấu_'
'Đạo_'
'Đôn_'
'Đâ_'
'Đá_'
'Đài_'
'Đuổi_'
'Đoạn_'
'Điệp_'
'Đeo_'
'Đen_'
'Đan_'
'Đ_'
'Ăng_'
'út_'
'ôn_'
'Ái_'
'¿_'
'§ _'
' !_'
'_'
'~ _'
'yelling_'
'yell_'
'yacht_'
'xốp_'
'xế_'
'xắn_'
'xưng_'
'xơ_'
'xô_'
'xót_'
'xuô_'
'xui_'
'xen_'
'writings_'
'wowee_'
'worthy_'
'worthwhile_'
'wolves_'
'witness_'
'witch_'
'wishing_'
'wished_'
'wires_'
'wireless_'
'wiped_'
'winds_'
'whistles_'
'whispers_'
'whipped_'
'wherever_'
'whatsoever_'
'welfare_'
'weighs_'
'wearable_'
'wax_'
'watts_'
'waters_'
'wasted_'
'warned_'
'vỉa_'
'vượng_'
'vòm_'
'vít_'
'vã_'
'váy_'
'váng_'
'voting_'
'voters_'
'voluntary_'
'volcano_'
'voices_'
'vocabulary_'
'viền_'
'visitor_'
'visions_'
'virgin_'
'victimology_'
'vampire_'
'vacuum_'
'vaccines_'
'upward_'
'unprecedented_'
'unlike_'
'universities_'
'unity_'
'united_'
'unfair_'
'unexpected_'
'understands_'
'underneath_'
'underestimate_'
'unclear_'
'umbrella_'
'ultraviolet_'
'ultrasound_'
'tụng_'
'tẹo_'
'tẩu_'
'tươ_'
'twelve_'
'tuỵ_'
'tuột_'
'tuế_'
'tuyê_'
'turbines_'
'tunnels_'
'tummy_'
'tui_'
'tube_'
'tub_'
'tsunami_'
'trọ_'
'trệ_'
'trượng_'
'trút_'
'trunk_'
'troll_'
'treason_'
'traveling_'
'traumatic_'
'trauma_'
'transparency_'
'transformed_'
'transform_'
'trajectory_'
'traditions_'
'toạ_'
'toái_'
'toxin_'
'tours_'
'title_'
'tissues_'
'thủng_'
'thylacine_'
'thun_'
'thumb_'
'thrust_'
'throne_'
'thirty_'
'thinkers_'
'thieves_'
'theories_'
'theoretical_'
'textbooks_'
'testosterone_'
'testify_'
'terrorists_'
'territory_'
'terrifying_'
'terrific_'
'terrain_'
'teo_'
'tendency_'
'tendencies_'
'temptation_'
'temple_'
'telescopes_'
'telephone_'
'teenage_'
'tech_'
'talkin_'
'tag_'
'tactics_'
'taboos_'
'sục_'
'sỏi_'
'sỉ_'
'sẹo_'
'sẫm_'
'sảnh_'
'sương_'
'sưng_'
'sút_'
'sòng_'
'sáp_'
'sám_'
'sành_'
'symbols_'
'sweat_'
'swallowed_'
'sustainability_'
'surroundings_'
'surrounding_'
'surrender_'
'supposedly_'
'supported_'
'sunshine_'
'suited_'
'suitcase_'
'sucks_'
'sucker_'
'subway_'
'submarine_'
'struggling_'
'struck_'
'storytelling_'
'sting_'
'stiff_'
'sticking_'
'stepping_'
'stepped_'
'steady_'
'stays_'
'stability_'
'squeeze_'
'squared_'
'spoil_'
'spite_'
'spirits_'
'spinning_'
'spine_'
'spinal_'
'spill_'
'spikes_'
'spaghetti_'
'songs_'
'somewhat_'
'somethin_'
'solo_'
'societal_'
'soccer_'
'soap_'
'soa_'
'snack_'
'smelling_'
'smartphone_'
'slum_'
'slowed_'
'slope_'
'slipped_'
'slap_'
'siết_'
'sized_'
'sits_'
'singer_'
'simpler_'
'sickness_'
'si_'
'shovel_'
'shout_'
'shotgun_'
'shortly_'
'shortage_'
'shiny_'
'shields_'
'shepherd_'
'shave_'
'shark_'
'shareholders_'
'sh_'
'servants_'
'seok_'
'sensation_'
'selective_'
'select_'
'seeker_'
'sec_'
'seasons_'
'seal_'
'sculpture_'
'screwing_'
'score_'
'schoolteacher_'
'schedule_'
'scenes_'
'scarf_'
'scarce_'
'satisfy_'
'samurai_'
'rợ_'
'rỡ_'
'rớt_'
'rỗng_'
'rổ_'
'rốt_'
'rệt_'
'rẩy_'
'rưởi_'
'rước_'
'rơm_'
'rãnh_'
'ráng_'
'rán_'
'rumor_'
'ruins_'
'rude_'
'rub_'
'rong_'
'roi_'
'rocking_'
'rockets_'
'robust_'
'robotic_'
'robes_'
'robbing_'
'roads_'
'rivals_'
'risks_'
'rig_'
'rides_'
'ri_'
'rewarded_'
'returns_'
'retired_'
'retarded_'
'resistant_'
'resist_'
'resilience_'
'residents_'
'reset_'
'representative_'
'reject_'
'regularly_'
'refused_'
'refugees_'
'refugee_'
'reform_'
'reflected_'
'refers_'
'redefine_'
'recovered_'
'recall_'
'rebel_'
'reassure_'
'rear_'
'realm_'
'reactions_'
'rats_'
'ratio_'
'raped_'
'rape_'
'rap_'
'rao_'
'randomness_'
'radically_'
'radar_'
'quận_'
'quấy_'
'quèn_'
'quo_'
'quietly_'
'quest_'
'que_'
'quantum_'
'pyramids_'
'pursuing_'
'puppy_'
'psychopath_'
'psycho_'
'proves_'
'proposition_'
'propose_'
'proposal_'
'properties_'
'programming_'
'programmers_'
'profitable_'
'producing_'
'produces_'
'probable_'
'probability_'
'privilege_'
'priorities_'
'printing_'
'printer_'
'print_'
'primary_'
'priest_'
'prices_'
'prevalent_'
'pretending_'
'presentation_'
'prescription_'
'prepare_'
'preparation_'
'pregnancy_'
'preferred_'
'practicing_'
'powerless_'
'powder_'
'pour_'
'potentially_'
'postcards_'
'politely_'
'policeman_'
'poles_'
'pole_'
'poisoning_'
'poisoned_'
'pointing_'
'plug_'
'plot_'
'pleasant_'
'planned_'
'pissed_'
'pile_'
'pigeon_'
'phụng_'
'phỉ_'
'phác_'
'physician_'
'physically_'
'photographed_'
'philosopher_'
'phao_'
'phang_'
'personalization_'
'permit_'
'periodic_'
'perimeter_'
'peril_'
'perceive_'
'penny_'
'penetrate_'
'pee_'
'peanuts_'
'pays_'
'payroll_'
'paste_'
'passing_'
'partnership_'
'participated_'
'paralyzed_'
'paralysis_'
'parallel_'
'paradigm_'
'panel_'
'pancreas_'
'pan_'
'pairs_'
'packaging_'
'owes_'
'overcome_'
'oven_'
'outfit_'
'originally_'
'origami_'
'organism_'
'orchestras_'
'options_'
'optimize_'
'optical_'
'opponent_'
'ongoing_'
'olds_'
'ofthe_'
'offspring_'
'officials_'
'occupied_'
'observed_'
'observation_'
'oak_'
'nực_'
'nới_'
'nể_'
'nấng_'
'nít_'
'nursery_'
'notch_'
'norm_'
'node_'
'noble_'
'nitơ_'
'nhổ_'
'nhồi_'
'nhẽ_'
'nhậu_'
'nhượng_'
'nhúng_'
'nhôm_'
'nhàn_'
'nhai_'
'ngụy_'
'ngả_'
'ngơ_'
'ngó_'
'nguội_'
'ngoạn_'
'nghênh_'
'ngh_'
'neuroscience_'
'neurons_'
'nerves_'
'nephew_'
'neo_'
'neighbor_'
'negotiate_'
'needle_'
'necklace_'
'nearest_'
'nasty_'
'nap_'
'nail_'
'mợ_'
'mớ_'
'mốc_'
'mẻ_'
'mầm_'
'mảng_'
'mư_'
'môt_'
'méo_'
'mutual_'
'mutation_'
'mui_'
'mr_'
'morgan_'
'moonlight_'
'monk_'
'modifying_'
'mode_'
'mock_'
'mobility_'
'misunderstanding_'
'missile_'
'misdirection_'
'miracles_'
'miracle_'
'mining_'
'minimize_'
'minimal_'
'mimic_'
'mill_'
'mighty_'
'messing_'
'messenger_'
'menu_'
'mega_'
'meditation_'
'meadow_'
'mathematics_'
'masters_'
'masses_'
'marrying_'
'marked_'
'maps_'
'manners_'
'manipulation_'
'manipulate_'
'mammography_'
'mammogram_'
'mama_'
'malfunctioning_'
'maintain_'
'mainstream_'
'maiden_'
'magnesium_'
'mafia_'
'lề_'
'lẹ_'
'lầy_'
'lảng_'
'lăng_'
'lăm_'
'láng_'
'lách_'
'luâ_'
'lousy_'
'loop_'
'log_'
'lockdown_'
'loanh_'
'load_'
'liê_'
'lists_'
'listed_'
'limitations_'
'lifted_'
'lifestyle_'
'lick_'
'liberals_'
'leverage_'
'lessons_'
'length_'
'lecture_'
'learns_'
'le_'
'lays_'
'layer_'
'lap_'
'label_'
'ky_'
'kissed_'
'kings_'
'kindness_'
'kinda_'
'killers_'
'kidnapped_'
'khuếch_'
'khuấy_'
'khong_'
'khoanh_'
'khiên_'
'khinh_'
'karate_'
'jury_'
'judges_'
'joint_'
'janitors_'
'item_'
'irrelevant_'
'involves_'
'investing_'
'inventor_'
'invent_'
'introduces_'
'intrinsically_'
'interviews_'
'interrupt_'
'interacting_'
'intensity_'
'intact_'
'insulted_'
'insult_'
'insulin_'
'instruments_'
'inspire_'
'innovations_'
'ingredients_'
'ingredient_'
'ingenuity_'
'indoors_'
'indicating_'
'indicated_'
'impulse_'
'impression_'
'impose_'
'impaired_'
'immortal_'
'immature_'
'ignorance_'
'idiots_'
'identical_'
'hốt_'
'húc_'
'hù_'
'hé_'
'hãm_'
'hydro_'
'huỳnh_'
'hunch_'
'hottest_'
'hostile_'
'horror_'
'hopeless_'
'hoo_'
'honored_'
'honesty_'
'homework_'
'hoi_'
'hockey_'
'hoan_'
'hive_'
'historically_'
'hill_'
'hides_'
'herd_'
'helium_'
'heights_'
'headlines_'
'haunted_'
'hats_'
'hatred_'
'harness_'
'hardware_'
'handled_'
'hallucinations_'
'halls_'
'hail_'
'gặt_'
'gật_'
'gươm_'
'găm_'
'gào_'
'gài_'
'guts_'
'gut_'
'gum_'
'guilt_'
'guessed_'
'grip_'
'grind_'
'grass_'
'grandchildren_'
'graduation_'
'gradually_'
'grabbed_'
'governor_'
'governments_'
'govern_'
'gorilla_'
'gorgeous_'
'gom_'
'goals_'
'glue_'
'gloves_'
'globally_'
'globalized_'
'glamorous_'
'giòn_'
'gifts_'
'ghim_'
'genuine_'
'generally_'
'gender_'
'gel_'
'gear_'
'gardens_'
'gal_'
'fuzzy_'
'funds_'
'fucker_'
'frustrated_'
'friction_'
'freeze_'
'freaking_'
'francs_'
'framework_'
'fragile_'
'founded_'
'fossil_'
'fortunate_'
'forgetting_'
'foremost_'
'forcing_'
'forbidden_'
'foods_'
'folding_'
'flows_'
'flooding_'
'flock_'
'fleet_'
'fled_'
'flavored_'
'finest_'
'fighter_'
'fiber_'
'festival_'
'fence_'
'fellowship_'
'fella_'
'fees_'
'feeding_'
'federal_'
'feature_'
'fears_'
'favors_'
'fascinating_'
'fantasy_'
'faking_'
'faint_'
'factors_'
'facilities_'
'f_'
'eyed_'
'extinction_'
'external_'
'extend_'
'exponentially_'
'explosive_'
'expectancy_'
'expansion_'
'expanding_'
'exotic_'
'excuses_'
'excitement_'
'examination_'
'eureka_'
'ethics_'
'essay_'
'equipped_'
'envision_'
'entrepreneurial_'
'entrance_'
'entertainment_'
'enjoying_'
'endless_'
'endangered_'
'encouraging_'
'encountered_'
'enables_'
'employed_'
'elsewhere_'
'elegance_'
'electrons_'
'electronics_'
'electrodes_'
'elections_'
'elaborate_'
'educational_'
'eastern_'
'earned_'
'eagle_'
'dỡ_'
'dội_'
'duration_'
'drowning_'
'drives_'
'drilling_'
'dramatically_'
'dragons_'
'dragging_'
'dragged_'
'drag_'
'dough_'
'dose_'
'doom_'
'domain_'
'diễu_'
'dizzy_'
'division_'
'diving_'
'disturbed_'
'distribute_'
'disorders_'
'disgusting_'
'discussions_'
'disappointment_'
'directions_'
'dignity_'
'diabetes_'
'devils_'
'devastating_'
'detected_'
'destined_'
'dessert_'
'desires_'
'deployed_'
'dentures_'
'demonstration_'
'demonstrate_'
'delight_'
'delicate_'
'del_'
'deficits_'
'defending_'
'deceased_'
'debt_'
'dealt_'
'daylight_'
'dash_'
'dang_'
'dancer_'
'damned_'
'cừ_'
'cớm_'
'cội_'
'cộ_'
'cằn_'
'cươ_'
'cưa_'
'cúng_'
'cào_'
'cynical_'
'cursed_'
'curse_'
'currency_'
'cups_'
'cultures_'
'cube_'
'crush_'
'cruise_'
'crown_'
'creepy_'
'crackers_'
'coward_'
'cousins_'
'courageous_'
'counter_'
'council_'
'couch_'
'cotton_'
'cosmos_'
'cos_'
'corpse_'
'corporations_'
'corporation_'
'corporal_'
'copyright_'
'cope_'
'coordination_'
'cooperation_'
'cooperate_'
'conversations_'
'contrary_'
'continuity_'
'contain_'
'consumed_'
'consulting_'
'console_'
'conservatives_'
'conscience_'
'connecting_'
'congratulate_'
'confusing_'
'confront_'
'confirm_'
'confess_'
'concert_'
'concentration_'
'computational_'
'component_'
'compliments_'
'compelling_'
'combined_'
'combination_'
'column_'
'colored_'
'collaboration_'
'collaborate_'
'coins_'
'cockpit_'
'coastal_'
'clubs_'
'clip_'
'climbing_'
'cliff_'
'clay_'
'clapping_'
'claiming_'
'claimed_'
'civilized_'
'civilians_'
'circulation_'
'circular_'
'circuits_'
'chốn_'
'chốc_'
'chạp_'
'chơ_'
'chùm_'
'chích_'
'chênh_'
'chuồn_'
'choir_'
'chips_'
'chinh_'
'chin_'
'chicks_'
'chef_'
'cheat_'
'charming_'
'charity_'
'charging_'
'challenged_'
'ceremony_'
'cent_'
'cello_'
'ceiling_'
'cats_'
'catching_'
'catches_'
'casualties_'
'carrot_'
'carries_'
'caps_'
'capitalism_'
'capabilities_'
'cancel_'
'calcium_'
'cakes_'
'cacbon_'
'cable_'
'cabin_'
'cH00FFFF_'
'bửa_'
'bổng_'
'bậy_'
'bảnh_'
'bư_'
'bú_'
'bói_'
'bát_'
'bành_'
'bypass_'
'buys_'
'buttons_'
'bust_'
'businessman_'
'burnt_'
'burden_'
'bulbs_'
'bud_'
'buck_'
'bubbles_'
'brutal_'
'brush_'
'bro_'
'bridges_'
'bride_'
'bribe_'
'brands_'
'branded_'
'branch_'
'brakes_'
'bout_'
'boundaries_'
'bottles_'
'borrowed_'
'bore_'
'boost_'
'bombs_'
'bombing_'
'boats_'
'blurred_'
'bluff_'
'blown_'
'blonde_'
'blogs_'
'bless_'
'bizarre_'
'bio_'
'binary_'
'bill_'
'bikes_'
'benign_'
'belly_'
'beggar_'
'beetles_'
'beep_'
'beautifully_'
'beam_'
'battlefield_'
'bastards_'
'basket_'
'bases_'
'barking_'
'bark_'
'bare_'
'bam_'
'balanced_'
'axít_'
'axes_'
'ax_'
'awe_'
'awareness_'
'automobile_'
'authorities_'
'augmented_'
'audition_'
'attorney_'
'attend_'
'attempting_'
'astronomers_'
'assumptions_'
'assumption_'
'associates_'
'assholes_'
'artistic_'
'arrow_'
'array_'
'armies_'
'archive_'
'approved_'
'appetite_'
'appearance_'
'appeal_'
'apology_'
'apartments_'
'ant_'
'anonymous_'
'announcement_'
'angel_'
'ambitious_'
'altogether_'
'altitude_'
'alien_'
'aisle_'
'agricultural_'
'agrees_'
'agony_'
'agencies_'
'afterwards_'
'affects_'
'advertising_'
'adventures_'
'adoption_'
'adopt_'
'admitting_'
'addiction_'
'acoustic_'
'acknowledge_'
'achievements_'
'accidentally_'
'acceptable_'
'academic_'
'absolute_'
'\u_'
'Zero_'
'Zedd_'
'Zach_'
'Yun_'
'Yours_'
'Yorke_'
'Yoo_'
'Yi_'
'Yesterday_'
'Yemen_'
'Yang_'
'Yahoo_'
'Xây_'
'Xuất_'
'Wu_'
'Worse_'
'Woo_'
'Within_'
'Wing_'
'Willy_'
'Williams_'
'Wesley_'
'Warden_'
'Ward_'
'WK_'
'WITH_'
'WHO_'
'WE_'
'Vẽ_'
'Vulnerability_'
'Vulcan_'
'Việt_'
'Venus_'
'Venice_'
'Vatican_'
'Vai_'
'Uther_'
'Under_'
'USB_'
'UCLA_'
'Tức_'
'Tồn_'
'Tệ_'
'Tận_'
'Tàu_'
'Tàng_'
'Type_'
'Turin_'
'Tulu_'
'Trạm_'
'Trại_'
'Trưởng_'
'Trí_'
'Triều_'
'Tranh_'
'Tra_'
'Town_'
'Tower_'
'Tohno_'
'Tiệc_'
'Tiê_'
'Timmy_'
'Thảm_'
'Thí_'
'Tháp_'
'Tháo_'
'Thác_'
'Thuyết_'
'Throw_'
'Thoải_'
'Thom_'
'Thinking_'
'Things_'
'Theresa_'
'Them_'
'Than_'
'Tham_'
'Tennessee_'
'Tehran_'
'Tanzania_'
'Taiwan_'
'Tahiti_'
'TO_'
'TEDGlobal_'
'Sữa_'
'Sông_'
'Symphony_'
'Sylvia_'
'Switzerland_'
'Switch_'
'Sweetie_'
'Swedish_'
'Suốt_'
'Sunni_'
'Sung_'
'Sudan_'
'Sub_'
'Studio_'
'Stockholm_'
'Stewart_'
'Stella_'
'Stefan_'
'Steady_'
'Stacey_'
'Square_'
'Squad_'
'Sputnik_'
'Spain_'
'Space_'
'Soo_'
'Song_'
'Somewhere_'
'Soft_'
'Smiley_'
'Smart_'
'Small_'
'Slick_'
'Siberia_'
'Shouldn_'
'Shirley_'
'Shi_'
'Sherman_'
'Sherlock_'
'Shen_'
'Shane_'
'Shadow_'
'Several_'
'Set_'
'Secretary_'
'Secret_'
'Secondly_'
'Search_'
'Se_'
'Scotland_'
'Schindler_'
'Sarang_'
'Santiago_'
'Samantha_'
'Sai_'
'Sadly_'
'Saavik_'
'Rô_'
'Russell_'
'Rugal_'
'Rossi_'
'Rosie_'
'Roosevelt_'
'Ronnie_'
'Roland_'
'Rodney_'
'Robbie_'
'Ring_'
'Rinaldi_'
'Reza_'
'Reliant_'
'Reagan_'
'Range_'
'Rama_'
'Ram_'
'Radio_'
'Quán_'
'Prospera_'
'Powell_'
'Pope_'
'Poncelet_'
'Point_'
'Planet_'
'Pick_'
'Phiên_'
'Phim_'
'Phillips_'
'Pha_'
'Peru_'
'Pearl_'
'Peaches_'
'Pauling_'
'Paula_'
'Parliament_'
'Parents_'
'Pardon_'
'Paravicini_'
'Paradise_'
'Palestinian_'
'Pacific_'
'PM_'
'Owen_'
'Oops_'
'Online_'
'Officer_'
'Office_'
'Off_'
'October_'
'OVER_'
'Nửa_'
'Nối_'
'Nắm_'
'Nô_'
'Northern_'
'Nor_'
'Niên_'
'Nino_'
'Nikki_'
'Nigerian_'
'Nhỏ_'
'Nhẫn_'
'Nhiệm_'
'Nhi_'
'Ngừng_'
'Ngưng_'
'Ngã_'
'Ngành_'
'Ngon_'
'Ngoan_'
'Newman_'
'Netherlands_'
'Need_'
'Neanderthals_'
'Nazis_'
'Nazareth_'
'Nanopatch_'
'Naked_'
'Nak_'
'NIH_'
'Mức_'
'Mạnh_'
'Mạch_'
'Mãi_'
'Màu_'
'Music_'
'Murder_'
'Mum_'
'Mulligan_'
'Mulder_'
'Morton_'
'Moron_'
'Mitch_'
'Mistress_'
'Mississippi_'
'Milly_'
'Michigan_'
'Meg_'
'Meanwhile_'
'McChrystal_'
'Maverick_'
'Mattie_'
'Matter_'
'Maryland_'
'Marx_'
'Martha_'
'Marine_'
'Marco_'
'Marcel_'
'Main_'
'Mafia_'
'Mae_'
'Made_'
'Mad_'
'MT_'
'MR_'
'MM_'
'ME_'
'Lửa_'
'Lớp_'
'Lương_'
'Lãnh_'
'Lynch_'
'Luân_'
'Lu_'
'Lotus_'
'Lorraine_'
'Lorenzo_'
'Lola_'
'Lois_'
'Liz_'
'List_'
'Lise_'
'Lionel_'
'Line_'
'Lily_'
'Lilly_'
'Light_'
'Licklider_'
'Liar_'
'Lesters_'
'Lesterland_'
'Less_'
'Leon_'
'Laurie_'
'Laurel_'
'Lance_'
'Laden_'
'Kỹ_'
'Kì_'
'Kuwait_'
'Kit_'
'Kibera_'
'Kerry_'
'Kasparov_'
'Karmapa_'
'Kaplan_'
'Justice_'
'Julio_'
'Judith_'
'Juan_'
'Josefa_'
'Jorge_'
'Johns_'
'Jeez_'
'Jang_'
'Jamaica_'
'JC_'
'Isabelle_'
'Irving_'
'Iowa_'
'Into_'
'Interestingly_'
'Instagram_'
'Image_'
'Illinois_'
'Il_'
'IQ_'
'Hát_'
'Huấn_'
'Hoạt_'
'Hotel_'
'Hotchner_'
'Horse_'
'Home_'
'Holt_'
'Hindu_'
'Him_'
'Hillary_'
'Hicks_'
'Heroes_'
'Hebrew_'
'Heather_'
'Heathcliff_'
'Harriet_'
'Hand_'
'Hancock_'
'Halloween_'
'HERE_'
'Góc_'
'Gunther_'
'Guard_'
'Gru_'
'Grandpa_'
'Grand_'
'Goodnight_'
'Gone_'
'Goldstein_'
'Goldman_'
'Going_'
'Glass_'
'Gladwell_'
'Giảm_'
'Gió_'
'Given_'
'Giulia_'
'Giacometti_'
'Ghi_'
'Gen_'
'Gee_'
'Galapagos_'
'Fulbright_'
'Fuhrer_'
'Freeze_'
'Freeman_'
'Frederick_'
'Foundation_'
'Foster_'
'Forward_'
'Fortunately_'
'Fletcher_'
'Fischer_'
'Fiona_'
'Financial_'
'Fear_'
'Fall_'
'FOR_'
'Ew_'
'Euro_'
'Er_'
'Empire_'
'Emerson_'
'Elvis_'
'Elena_'
'Elder_'
'Egyptian_'
'Edgar_'
'Economist_'
'Economic_'
'EKG_'
'Dựa_'
'Dầu_'
'Dòng_'
'Dunson_'
'Dumbledore_'
'Dragon_'
'Double_'
'Dory_'
'Donkey_'
'Dong_'
'Doha_'
'Dog_'
'Diễn_'
'Director_'
'Dill_'
'Dig_'
'Development_'
'Design_'
'Desert_'
'Derartu_'
'Dennis_'
'Democratic_'
'December_'
'Days_'
'Davis_'
'Dallas_'
'DIYbio_'
'DENNIS_'
'Cựu_'
'Căng_'
'Cú_'
'Cristina_'
'Craig_'
'Cover_'
'Coulson_'
'Cornelius_'
'Copy_'
'Consider_'
'Conrad_'
'College_'
'Colin_'
'Cobb_'
'Climate_'
'Clearly_'
'Clayton_'
'Clarke_'
'Clare_'
'Chữ_'
'Chừng_'
'Chụp_'
'Chă_'
'Chín_'
'Churchill_'
'Chung_'
'Chun_'
'Christopher_'
'Chloe_'
'Chile_'
'Cheryl_'
'Chaz_'
'Charming_'
'Chang_'
'Cera_'
'Celine_'
'Carnegie_'
'Cargill_'
'Cam_'
'CT_'
'CTX_'
'CTU_'
'CRYING_'
'Bầu_'
'Bô_'
'Bá_'
'Bàn_'
'Buy_'
'Burn_'
'Bullshit_'
'Buffalo_'
'Buenos_'
'Bu_'
'Brutus_'
'Brussels_'
'Brooks_'
'Britain_'
'Brent_'
'Break_'
'Boulder_'
'Born_'
'Boom_'
'Boog_'
'Bono_'
'Bolton_'
'Blade_'
'Biển_'
'Bishop_'
'Bia_'
'Bet_'
'Bennett_'
'Belle_'
'Beckett_'
'Batman_'
'Bastard_'
'Base_'
'Barry_'
'Baron_'
'Barnes_'
'Banks_'
'Bahamas_'
'Bad_'
'Austen_'
'Aunt_'
'Audrey_'
'Atlantic_'
'Asshole_'
'Arctic_'
'Apollo_'
'Antony_'
'Answer_'
'Ann_'
'Andre_'
'Alps_'
'Allan_'
'Alejandro_'
'Alberto_'
'Aicha_'
'Ahem_'
'Adrian_'
'Actor_'
'According_'
'Accenture_'
'Abby_'
'AR_'
'AII_'
'AG_'
'? ! _'
'80s_'
'7919_'
'7883_'
'7865_'
'63_'
'58_'
'54_'
'53_'
'30th_'
'3000_'
'242_'
'2014_'
'1999_'
'1998_'
'1996_'
'1980s_'
'1971_'
'1970_'
'1950_'
'1930s_'
'170_'
'15th_'
'09_'
'03_'
'02_'
'007_'
'..." _'
'... .._'
'... ... _'
'. [_'
'-** _'
'- [ _'
'- (_'
',"_'
'$ _'
'"... _'
'!" _'
' ♫_'
' ♪ ♪ _'
' ─ _'
' , ._'
' , &#_'
'ớn_'
'Ống_'
'ỏi_'
'ị_'
'ầm_'
'̃, _'
'́ ?_'
'ưng_'
'đỗi_'
'đốn_'
'đệt_'
'đểu_'
'đếch_'
'đặn_'
'đẫm_'
'đơ_'
'đò_'
'điếc_'
'Đột_'
'Đếm_'
'Đấng_'
'Đảo_'
'Đảm_'
'Đón_'
'Đè_'
'úp_'
'ê_'
'áy_'
'át_'
'Úi_'
'Émilien_'
'Ám_'
'Ác_'
'¶ _'
'_'
'zoom_'
'zones_'
'zombies_'
'yummy_'
'youth_'
'yield_'
'xở_'
'xỏ_'
'xẻo_'
'xẻng_'
'xẩy_'
'xía_'
'xâu_'
'xâ_'
'xay_'
'writes_'
'worship_'
'worn_'
'workplaces_'
'woods_'
'woo_'
'withstand_'
'willingness_'
'wildlife_'
'wig_'
'widow_'
'wider_'
'whores_'
'whistling_'
'whisper_'
'whip_'
'wheels_'
'weigh_'
'weed_'
'websites_'
'waving_'
'waterproof_'
'warn_'
'warheads_'
'warehouse_'
'warden_'
'w_'
'vụt_'
'vớt_'
'vắng_'
'vảng_'
'vướng_'
'văng_'
'vàn_'
'vulnerability_'
'vowed_'
'void_'
'viêc_'
'vital_'
'visceral_'
'virút_'
'virtue_'
'violin_'
'villains_'
'villain_'
'villagers_'
'via_'
'veteran_'
'vertical_'
'verge_'
'verb_'
'venues_'
'venom_'
'vengeance_'
'ven_'
'velvet_'
'veins_'
'variation_'
'vanished_'
'valve_'
'vain_'
'vague_'
'vagina_'
'uyên_'
'utter_'
'unstable_'
'unprotected_'
'unpredictable_'
'union_'
'unimaginable_'
'unfinished_'
'unequal_'
'unemployed_'
'underway_'
'unconsciously_'
'unconscious_'
'unbelievably_'
'unarmed_'
'tỵ_'
'tựu_'
'tụy_'
'tột_'
'tể_'
'tằm_'
'tản_'
'túng_'
'tú_'
'tít_'
'tà_'
'tyranny_'
'typically_'
'twisting_'
'twins_'
'twenty_'
'turkey_'
'trớ_'
'trội_'
'trỗi_'
'trôn_'
'trìu_'
'trâ_'
'troubled_'
'triệt_'
'triễn_'
'tritium_'
'tripped_'
'trillion_'
'tricked_'
'treadmill_'
'transplants_'
'transparent_'
'transmission_'
'translator_'
'translating_'
'transistors_'
'transistor_'
'transformative_'
'trance_'
'traits_'
'trading_'
'tracked_'
'traces_'
'towns_'
'toughest_'
'touches_'
'torturing_'
'tortured_'
'tolerance_'
'token_'
'toi_'
'toes_'
'tits_'
'titles_'
'titled_'
'tires_'
'tipped_'
'timing_'
'timeline_'
'tighter_'
'tiger_'
'ties_'
'tier_'
'ticket_'
'thọc_'
'thắn_'
'thúi_'
'thòi_'
'thò_'
'thím_'
'thình_'
'thât_'
'thuỳ_'
'thuy_'
'thunder_'
'thug_'
'threshold_'
'threats_'
'threatening_'
'threatened_'
'threaten_'
'thread_'
'thoroughly_'
'thoi_'
'thoa_'
'thiê_'
'thirst_'
'thinker_'
'therapist_'
'therapies_'
'theatrical_'
'thanking_'
'texting_'
'terrorism_'
'terror_'
'terrified_'
'tent_'
'tends_'
'tender_'
'telephones_'
'teenagers_'
'teenager_'
'teen_'
'technically_'
'teapot_'
'te_'
'tastes_'
'taped_'
'tank_'
'talented_'
'tablet_'
'sủa_'
'sởi_'
'sấm_'
'sò_'
'séc_'
'syndrome_'
'symbiosis_'
'swore_'
'swords_'
'sweetness_'
'sweaty_'
'swap_'
'suspicious_'
'suspicion_'
'survivor_'
'surviving_'
'surveys_'
'surgical_'
'suppressing_'
'supporting_'
'supermarket_'
'sunk_'
'sulfur_'
'suggested_'
'suburbia_'
'substantial_'
'submitted_'
'stunned_'
'stud_'
'strongly_'
'stresses_'
'stressed_'
'strengths_'
'strawberry_'
'stratosphere_'
'straps_'
'strain_'
'storms_'
'storing_'
'stomach_'
'stocks_'
'stitches_'
'stitch_'
'stirring_'
'stinks_'
'stimulation_'
'stigmatizing_'
'steroid_'
'stereotypes_'
'steer_'
'steam_'
'stats_'
'stance_'
'stall_'
'stake_'
'stack_'
'squad_'
'spying_'
'sprouts_'
'spreads_'
'spray_'
'sport_'
'spontaneously_'
'spontaneous_'
'spit_'
'spider_'
'spends_'
'spells_'
'specialize_'
'specialist_'
'span_'
'spacecraft_'
'sounding_'
'souls_'
'someplace_'
'soluble_'
'sole_'
'soi_'
'snobbery_'
'snap_'
'snakes_'
'smash_'
'smartest_'
'slogan_'
'slipping_'
'sling_'
'slight_'
'slave_'
'slab_'
'skyscraper_'
'skirts_'
'skirt_'
'sketch_'
'sinking_'
'simultaneously_'
'simplicity_'
'similarities_'
'silos_'
'silk_'
'significantly_'
'sidekick_'
'shrine_'
'shouting_'
'shortcut_'
'shoots_'
'shoo_'
'shirts_'
'shining_'
'shifts_'
'shifted_'
'shield_'
'shh_'
'shed_'
'sharks_'
'shallow_'
'sewed_'
'seventh_'
'serves_'
'serotonin_'
'serenity_'
'separately_'
'sentenced_'
'sensory_'
'sensor_'
'sensitivity_'
'senses_'
'sends_'
'senator_'
'sen_'
'semi_'
'selves_'
'sells_'
'secretly_'
'sculptures_'
'scroll_'
'sciences_'
'scholarship_'
'scholar_'
'schizophrenic_'
'scheme_'
'scent_'
'scenario_'
'scares_'
'scar_'
'saviour_'
'satisfied_'
'satellites_'
'sanitation_'
'sanitary_'
'sandwiches_'
'sands_'
'sails_'
'sail_'
'safely_'
'sadness_'
'sacred_'
'rữa_'
'rụng_'
'rọi_'
'rặng_'
'rậm_'
'rầy_'
'rải_'
'rương_'
'rùa_'
'rìa_'
'rê_'
'runnin_'
'rum_'
'rubber_'
'rotates_'
'rot_'
'roots_'
'roommates_'
'rookie_'
'roofs_'
'rolls_'
'roles_'
'robotics_'
'robbed_'
'rob_'
'ritual_'
'riot_'
'rightly_'
'rigged_'
'rider_'
'rhythms_'
'rhythm_'
'rewards_'
'revenue_'
'revealed_'
'retail_'
'restored_'
'residential_'
'resemble_'
'researching_'
'requested_'
'reputation_'
'represented_'
'reporting_'
'reporters_'
'reported_'
'replaced_'
'repeating_'
'rental_'
'remotely_'
'reminding_'
'remembers_'
'remained_'
'releasing_'
'reinforcements_'
'rehearsal_'
'rehab_'
'regional_'
'regiment_'
'regenerate_'
'regain_'
'refreshing_'
'reef_'
'reduced_'
'recycling_'
'recycled_'
'reconstruct_'
'recommend_'
'recognizes_'
'receptors_'
'reception_'
'receiving_'
'reasoning_'
'reasonable_'
'realise_'
'readers_'
'reaches_'
'rang_'
'raft_'
'radiate_'
'races_'
'qúi_'
'quẹo_'
'quẳng_'
'quyệt_'
'questioning_'
'queens_'
'quartile_'
'quantities_'
'puzzles_'
'pursuit_'
'puppies_'
'puppet_'
'pupils_'
'punished_'
'punched_'
'psychology_'
'psychiatrist_'
'psychiatric_'
'proxy_'
'provoke_'
'provinces_'
'proved_'
'proton_'
'prosperity_'
'propellant_'
'promoted_'
'projection_'
'progressively_'
'progeria_'
'profoundly_'
'profiling_'
'problematic_'
'probe_'
'prize_'
'privileges_'
'prisons_'
'prioritize_'
'printed_'
'priests_'
'prey_'
'prevention_'
'prevented_'
'pretzels_'
'pressing_'
'preservation_'
'preparing_'
'prehistoric_'
'prediction_'
'predicted_'
'predators_'
'prayer_'
'prayed_'
'practically_'
'pouch_'
'potent_'
'potatoes_'
'possum_'
'possession_'
'possessed_'
'portraits_'
'portion_'
'porous_'
'pops_'
'popped_'
'poop_'
'pool_'
'pompous_'
'polish_'
'policies_'
'polar_'
'poisonous_'
'pneumonia_'
'plywood_'
'plutocracy_'
'plotted_'
'platforms_'
'plates_'
'plasma_'
'plague_'
'placement_'
'pit_'
'pistol_'
'pirates_'
'pilots_'
'pillars_'
'piled_'
'pies_'
'pianist_'
'phết_'
'phật_'
'phăng_'
'phích_'
'phào_'
'physiology_'
'physiological_'
'physicists_'
'phung_'
'phiện_'
'philosophical_'
'philosophers_'
'philanthropy_'
'phenomena_'
'phen_'
'phases_'
'pharaoh_'
'pests_'
'pessimistic_'
'persuade_'
'personnel_'
'persistent_'
'periods_'
'perception_'
'pepperoni_'
'pension_'
'payload_'
'paycheck_'
'pavilion_'
'patience_'
'pat_'
'partly_'
'parody_'
'paranoid_'
'parade_'
'papa_'
'panels_'
'pancakes_'
'palm_'
'pale_'
'pajamas_'
'painter_'
'painkillers_'
'packing_'
'oxen_'
'overseas_'
'outrage_'
'orientation_'
'organized_'
'org_'
'optimism_'
'opposed_'
'op_'
'offensive_'
'offended_'
'occur_'
'occupations_'
'occasions_'
'obsolete_'
'obsession_'
'obsessing_'
'obesity_'
'oanh_'
'nỉ_'
'nấp_'
'nạp_'
'nại_'
'năn_'
'nă_'
'núp_'
'nòng_'
'náy_'
'nutrition_'
'nut_'
'nurture_'
'numerous_'
'nuke_'
'nudges_'
'nua_'
'noxious_'
'notwithstanding_'
'noted_'
'notebook_'
'nonviolence_'
'nonverbals_'
'nodes_'
'nitric_'
'nigger_'
'nickname_'
'ni_'
'nhử_'
'nhỡ_'
'nhộng_'
'nhối_'
'nhọn_'
'nhịn_'
'nhện_'
'nhún_'
'nhung_'
'nhe_'
'ngửa_'
'ngừơi_'
'ngừ_'
'ngụ_'
'ngợm_'
'ngột_'
'ngộ_'
'ngỗng_'
'ngặt_'
'ngất_'
'ngước_'
'ngòi_'
'ngoặt_'
'ngo_'
'nghê_'
'neutralize_'
'neutral_'
'neuroscientist_'
'networking_'
'networked_'
'nerdy_'
'nectar_'
'nearby_'
'nauseous_'
'narratives_'
'napkin_'
'nan_'
'nails_'
'mỳ_'
'mịn_'
'mỉm_'
'mẹo_'
'mấu_'
'mảy_'
'mạ_'
'mĩ_'
'mánh_'
'mác_'
'mythology_'
'myth_'
'mutiny_'
'mute_'
'musician_'
'musical_'
'mushroom_'
'muscles_'
'mundane_'
'multiverse_'
'multiply_'
'multinational_'
'mu_'
'mourning_'
'mount_'
'motorcycle_'
'motivate_'
'motion_'
'morgue_'
'monks_'
'monitoring_'
'monastery_'
'momentum_'
'momentous_'
'mold_'
'moisture_'
'moi_'
'modules_'
'mm_'
'miệt_'
'miện_'
'mirrors_'
'minority_'
'minimum_'
'mini_'
'mines_'
'mimics_'
'milo_'
'milligrams_'
'mike_'
'microwave_'
'microscope_'
'microchip_'
'mice_'
'mexico_'
'metric_'
'metres_'
'methodology_'
'meter_'
'merging_'
'merge_'
'mentor_'
'mentally_'
'memo_'
'meltdown_'
'megawatts_'
'meets_'
'medieval_'
'medications_'
'medic_'
'med_'
'measures_'
'measurements_'
'mayor_'
'mathematician_'
'mates_'
'matches_'
'martini_'
'marketers_'
'marine_'
'managers_'
'magnitude_'
'madam_'
'lẻn_'
'lả_'
'lạng_'
'lượm_'
'lười_'
'lúng_'
'lòi_'
'lình_'
'lìn_'
'lì_'
'lét_'
'lãi_'
'luỵ_'
'luxury_'
'lure_'
'loé_'
'loyalty_'
'losses_'
'losers_'
'lookin_'
'longest_'
'loneliness_'
'lon_'
'locomotion_'
'localized_'
'loan_'
'liếm_'
'liêu_'
'liu_'
'listing_'
'listens_'
'listener_'
'lipstick_'
'linear_'
'limbic_'
'liking_'
'lightweight_'
'lighten_'
'lifting_'
'lf_'
'leopard_'
'lent_'
'lens_'
'lend_'
'lego_'
'legit_'
'learnt_'
'lean_'
'leaked_'
'league_'
'lanh_'
'landscapes_'
'landing_'
'lamp_'
'lakes_'
'lair_'
'lag_'
'lads_'
'lace_'
'labs_'
'laboratory_'
'kền_'
'kìm_'
'két_'
'kèo_'
'knives_'
'kiều_'
'kiềm_'
'kiếng_'
'kiêm_'
'kites_'
'kisses_'
'kindly_'
'kin_'
'kilograms_'
'kilogram_'
'khử_'
'khư_'
'khăm_'
'khép_'
'khoáng_'
'khiê_'
'kg_'
'kHông_'
'junkies_'
'junkie_'
'ju_'
'journalists_'
'jiffy_'
'jewels_'
'ja_'
'j_'
'itchy_'
'isotopes_'
'irrational_'
'ion_'
'involving_'
'involvement_'
'investments_'
'investigation_'
'invaded_'
'intrigued_'
'intractable_'
'intimidated_'
'intimate_'
'interventions_'
'interrupted_'
'interpreter_'
'interpret_'
'interior_'
'interfere_'
'intercept_'
'intentional_'
'intent_'
'intensive_'
'intelligent_'
'integration_'
'integrate_'
'insulation_'
'institute_'
'instincts_'
'instinct_'
'installations_'
'installation_'
'instability_'
'insights_'
'innate_'
'inmates_'
'initiated_'
'initially_'
'initial_'
'inherent_'
'ingenious_'
'inflate_'
'infections_'
'inevitably_'
'individually_'
'indirect_'
'indicate_'
'incumbent_'
'includes_'
'incident_'
'incentives_'
'inappropriate_'
'impatient_'
'imaginary_'
'illustrates_'
'illumination_'
'ignorant_'
'identities_'
'identification_'
'ideals_'
'iceberg_'
'hử_'
'hợm_'
'hỡi_'
'hớt_'
'hốc_'
'hẳng_'
'hói_'
'háo_'
'hán_'
'hygiene_'
'hurting_'
'humiliation_'
'humanitarian_'
'hu_'
'hotels_'
'hostages_'
'hormones_'
'hoped_'
'hood_'
'homicide_'
'hometown_'
'homage_'
'holder_'
'hiên_'
'historian_'
'hills_'
'highlight_'
'hierarchy_'
'hid_'
'hers_'
'heroin_'
'heritage_'
'herbal_'
'hep_'
'heightened_'
'heh_'
'hawk_'
'hates_'
'hassle_'
'harvesting_'
'harder_'
'hardened_'
'harbor_'
'happiest_'
'hanged_'
'handwriting_'
'handshake_'
'hacking_'
'hacked_'
'habitats_'
'gợn_'
'gỉ_'
'gạo_'
'gô_'
'góa_'
'gãi_'
'gâ_'
'gán_'
'guarantee_'
'guar_'
'gu_'
'gross_'
'groom_'
'grinding_'
'grief_'
'grey_'
'grave_'
'graphs_'
'graphics_'
'grant_'
'grammar_'
'grades_'
'governors_'
'governance_'
'gossip_'
'glowing_'
'glow_'
'glove_'
'glimpse_'
'giục_'
'giời_'
'giỏ_'
'giếng_'
'giầy_'
'giàn_'
'gin_'
'gien_'
'ghosts_'
'gettin_'
'gerontology_'
'geographical_'
'geo_'
'genomes_'
'genocide_'
'geneticist_'
'genetically_'
'geez_'
'gecko_'
'gallon_'
'gaining_'
'fuss_'
'fury_'
'fur_'
'fundraiser_'
'funding_'
'fund_'
'functional_'
'fruits_'
'frighten_'
'fries_'
'frickin_'
'freed_'
'freaks_'
'freaked_'
'foyer_'
'fours_'
'founder_'
'foundations_'
'foster_'
'forty_'
'fortunately_'
'fort_'
'forming_'
'format_'
'fork_'
'foreplay_'
'foreigner_'
'foraging_'
'footsteps_'
'footprint_'
'foolish_'
'fooled_'
'font_'
'folk_'
'focusing_'
'foam_'
'fluids_'
'floods_'
'flew_'
'flattered_'
'flashing_'
'flank_'
'fixing_'
'fischeri_'
'firmly_'
'firemen_'
'finishing_'
'findings_'
'filed_'
'fights_'
'fighters_'
'fifth_'
'fifteen_'
'fierce_'
'fiend_'
'fi_'
'features_'
'feathers_'
'favour_'
'fatal_'
'fascinated_'
'farming_'
'fantasies_'
'famously_'
'fallen_'
'faithful_'
'fairy_'
'fails_'
'faculty_'
'fa_'
'eyebrows_'
'eyeball_'
'extremist_'
'extinct_'
'extent_'
'explored_'
'exploit_'
'explicit_'
'expertise_'
'experimentation_'
'expense_'
'expands_'
'expanded_'
'exile_'
'exhilarating_'
'exhibition_'
'exhibit_'
'exhausted_'
'exercises_'
'execution_'
'exceptional_'
'exceeds_'
'exams_'
'examined_'
'exaggerated_'
'evenings_'
'evacuate_'
'eternity_'
'estimated_'
'estimate_'
'establish_'
'essentials_'
'erotic_'
'erased_'
'er_'
'equals_'
'enzim_'
'entrepreneur_'
'entities_'
'enthusiasm_'
'entertain_'
'enlisted_'
'enlist_'
'enjoyment_'
'energetic_'
'endure_'
'encounters_'
'emptiness_'
'employment_'
'employee_'
'emperor_'
'emerges_'
'emerged_'
'embarrassment_'
'embarrass_'
'eliminating_'
'eliminate_'
'eleventh_'
'eleven_'
'elevated_'
'elephants_'
'elementary_'
'electronic_'
'eldest_'
'elder_'
'educate_'
'edition_'
'edit_'
'ed_'
'ecosystems_'
'eats_'
'earliest_'
'eagles_'
'eager_'
'dột_'
'dằn_'
'dẫu_'
'dưng_'
'dĩa_'
'dô_'
'dó_'
'díu_'
'dè_'
'duyên_'
'duplicate_'
'duck_'
'drown_'
'drought_'
'dressing_'
'dresses_'
'draws_'
'drain_'
'dos_'
'donors_'
'donated_'
'dominant_'
'dome_'
'dolphins_'
'dolphin_'
'documents_'
'documenting_'
'dock_'
'diêm_'
'diverse_'
'disturb_'
'distraction_'
'distinguishes_'
'disruptive_'
'disputes_'
'dispute_'
'disposable_'
'displayed_'
'displaced_'
'disobey_'
'dismissed_'
'dismiss_'
'disk_'
'discoveries_'
'disconnected_'
'disciples_'
'disasters_'
'disappoint_'
'dioxide_'
'dine_'
'difficulty_'
'dictionaries_'
'diary_'
'diamonds_'
'dialogue_'
'diagram_'
'diagnosed_'
'devotion_'
'developmental_'
'detection_'
'destructive_'
'destination_'
'desperation_'
'designs_'
'deputy_'
'deputies_'
'depressing_'
'dependence_'
'dentist_'
'dementia_'
'demands_'
'demanding_'
'delivering_'
'delightful_'
'delete_'
'delay_'
'degenerate_'
'defend_'
'deed_'
'decoration_'
'decompiculture_'
'decides_'
'deceptive_'
'deals_'
'deadly_'
'darkest_'
'dan_'
'dam_'
'cửu_'
'cớ_'
'cồn_'
'cặn_'
'cưỡi_'
'cún_'
'cóng_'
'cáu_'
'cày_'
'cành_'
'cuts_'
'cuss_'
'curve_'
'crops_'
'crop_'
'criticism_'
'crises_'
'cries_'
'cried_'
'cricket_'
'creek_'
'creators_'
'creations_'
'crawling_'
'crashing_'
'craft_'
'cracked_'
'crab_'
'cows_'
'courses_'
'countless_'
'counsel_'
'cough_'
'corners_'
'cords_'
'corals_'
'copies_'
'cookie_'
'convict_'
'convenient_'
'contributions_'
'continents_'
'containers_'
'consultant_'
'consult_'
'constructed_'
'constraints_'
'constipated_'
'conspiracy_'
'considering_'
'consensus_'
'conscious_'
'confrontation_'
'confirms_'
'confirmation_'
'confined_'
'conductor_'
'conducted_'
'condom_'
'condolences_'
'concluded_'
'conceive_'
'compromised_'
'composer_'
'components_'
'compliment_'
'compiled_'
'competitions_'
'compete_'
'compass_'
'comparison_'
'commute_'
'commonly_'
'comedy_'
'colonel_'
'collectively_'
'collecting_'
'collaborator_'
'coffin_'
'codes_'
'coconut_'
'clyde_'
'clusters_'
'clinically_'
'clinic_'
'clicks_'
'cleansing_'
'cleaned_'
'classmates_'
'classification_'
'classical_'
'claire_'
'civilizations_'
'chửi_'
'chổi_'
'chọi_'
'chậu_'
'chận_'
'chảo_'
'chĩa_'
'chùn_'
'chôm_'
'chô_'
'chét_'
'chéo_'
'châ_'
'chuộng_'
'chuy_'
'chunks_'
'chunk_'
'chopped_'
'cholesterol_'
'chill_'
'childish_'
'chick_'
'cheque_'
'cheering_'
'cheer_'
'chased_'
'charm_'
'charcoal_'
'characteristic_'
'channels_'
'chang_'
'chan_'
'chamber_'
'certainty_'
'centers_'
'centered_'
'cement_'
'cellular_'
'celebrating_'
'celebrated_'
'categories_'
'catastrophic_'
'casings_'
'cart_'
'carriers_'
'carnivorous_'
'cargo_'
'cardiac_'
'cardboard_'
'cannon_'
'candidates_'
'cams_'
'camps_'
'cameraman_'
'camels_'
'calf_'
'calculation_'
'calculated_'
'calculate_'
'cH00C1E5EC_'
'bở_'
'bời_'
'bốt_'
'bịa_'
'bần_'
'bướu_'
'búp_'
'bái_'
'butterflies_'
'businessmen_'
'bushes_'
'burgers_'
'burger_'
'bureaucratic_'
'bum_'
'bully_'
'bug_'
'bubbling_'
'brute_'
'browser_'
'brotherhood_'
'broadly_'
'brink_'
'brighter_'
'breeze_'
'breed_'
'breaker_'
'bread_'
'boxer_'
'booth_'
'bombed_'
'boiled_'
'bodied_'
'boards_'
'boarding_'
'blurry_'
'bluegrass_'
'blows_'
'blogging_'
'blogger_'
'blocked_'
'blizzard_'
'blinded_'
'blessing_'
'bitty_'
'biting_'
'bishop_'
'biotech_'
'biopsy_'
'biophony_'
'bingo_'
'bidder_'
'bicycle_'
'biases_'
'beverage_'
'betrayed_'
'betray_'
'beneficial_'
'bend_'
'bench_'
'bells_'
'bein_'
'behaves_'
'begged_'
'beekeepers_'
'bedrooms_'
'bean_'
'beams_'
'beaches_'
'bazơ_'
'battalion_'
'batiatus_'
'banned_'
'banks_'
'bandstand_'
'balancing_'
'baked_'
'bait_'
'bacon_'
'backup_'
'backpack_'
'babe_'
'aye_'
'axe_'
'awakened_'
'aviation_'
'audio_'
'attraction_'
'attending_'
'attended_'
'attempted_'
'attach_'
'atomic_'
'atom_'
'athletic_'
'atheist_'
'asylum_'
'asthma_'
'assurance_'
'assumed_'
'assets_'
'assembly_'
'assassination_'
'artifacts_'
'arsenal_'
'arse_'
'arrows_'
'arrangement_'
'arguments_'
'arenas_'
'architects_'
'approval_'
'apprentice_'
'apparent_'
'apologies_'
'anytime_'
'anxious_'
'anus_'
'antique_'
'anticipation_'
'anthropologists_'
'anthropologist_'
'antenna_'
'answering_'
'anomaly_'
'annoying_'
'anniversary_'
'annihilated_'
'angels_'
'anecdotes_'
'anchor_'
'anatomy_'
'amusing_'
'amazed_'
'alter_'
'alphabet_'
'aloud_'
'alongside_'
'allies_'
'alley_'
'aliens_'
'alibi_'
'algae_'
'airports_'
'aggressive_'
'aged_'
'affection_'
'advocating_'
'advancing_'
'adolescent_'
'admire_'
'addresses_'
'addicted_'
'adaptive_'
'adaptation_'
'adage_'
'ad_'
'actress_'
'actors_'
'activate_'
'acids_'
'accomplished_'
'accompany_'
'accidental_'
'accepting_'
'accent_'
'acceleration_'
'accelerating_'
'abused_'
'abundance_'
'absurd_'
'absorbed_'
'absent_'
'abroad_'
'abnormal_'
'abilities_'
'abandon_'
'] - _'
'Zuko_'
'Zhao_'
'Zeus_'
'Zeb_'
'Ze_'
'Yểm_'
'Yếu_'
'Yuri_'
'Yong_'
'Yankees_'
'Yank_'
'Xi_'
'XX_'
'Wrong_'
'Word_'
'Wood_'
'Wong_'
'Wolf_'
'Wofford_'
'Witness_'
'Wind_'
'Winchester_'
'Willis_'
'Wiener_'
'Whistler_'
'Whiskey_'
'Wherever_'
'Wells_'
'Wasn_'
'Wan_'
'Walmart_'
'Waldo_'
'Wake_'
'Waiting_'
'Wade_'
'WOMAN_'
'WELL_'
'Vớ_'
'Vệ_'
'Vận_'
'Vùng_'
'Vorenus_'
'Viễn_'
'Visual_'
'Virgil_'
'Violet_'
'Vinci_'
'Villa_'
'Viagra_'
'Vetvix_'
'Verna_'
'Vera_'
'Ventura_'
'Venezuela_'
'Vargas_'
'Vardhaan_'
'Vancouver_'
'Valdez_'
'Vaako_'
'Uỷ_'
'Ung_'
'Una_'
'Umbrella_'
'UE_'
'Tờ_'
'Tỉ_'
'Tặc_'
'Tượng_'
'Tán_'
'TÔi_'
'Typically_'
'Ty_'
'Twice_'
'Tuổi_'
'Tuân_'
'Tuyên_'
'Turner_'
'Turkish_'
'Turbulenþe_'
'Turbo_'
'Tumor_'
'Tuesday_'
'Trịnh_'
'Trị_'
'Trần_'
'Trương_'
'Trích_'
'Trách_'
'Truman_'
'Trojan_'
'Tristan_'
'Trinity_'
'Triceratops_'
'Treo_'
'Treating_'
'Treadstone_'
'Trang_'
'Traffic_'
'Trade_'
'Tou_'
'Totally_'
'Torvalds_'
'Toronto_'
'Toorop_'
'Took_'
'Tonya_'
'Tiên_'
'Tinto_'
'Tiffany_'
'Ti_'
'TiVo_'
'Thụy_'
'Thịt_'
'Thẳng_'
'Thập_'
'Thưởng_'
'Thính_'
'Thà_'
'Thou_'
'Thorazine_'
'Thiến_'
'Thi_'
'Thea_'
'Terrill_'
'Terrence_'
'Terence_'
'Tenoch_'
'Temple_'
'Tech_'
'Taxi_'
'Taub_'
'Tate_'
'Target_'
'Tara_'
'Tancredi_'
'Tallis_'
'Taking_'
'TS_'
'TNS_'
'TNCs_'
'THROAT_'
'THIS_'
'THINK_'
'THEY_'
'TEDx_'
'TEDTalk_'
'Sỹ_'
'Sóng_'
'Sách_'
'Syracuse_'
'Sydney_'
'Sword_'
'Surprise_'
'Superman_'
'Stygimoloch_'
'Stumpy_'
'Stuff_'
'Studs_'
'Students_'
'Strunk_'
'Stern_'
'Statue_'
'Station_'
'Starting_'
'Starling_'
'Starfleet_'
'Starck_'
'Starbucks_'
'Standard_'
'Staff_'
'Stacy_'
'Spider_'
'Spend_'
'Speed_'
'Spartan_'
'Southampton_'
'Snape_'
'SmartBird_'
'Slytherin_'
'Skype_'
'Similar_'
'Silicon_'
'Siemens_'
'Sid_'
'Shepard_'
'Shengnan_'
'Sheldon_'
'Shanti_'
'Shame_'
'Shaggy_'
'Shady_'
'Settle_'
'Seoul_'
'Sending_'
'Senate_'
'Sen_'
'Seligman_'
'Scully_'
'Scotch_'
'Schwartz_'
'Scarlett_'
'Sauron_'
'Sandy_'
'Sammy_'
'Salisbury_'
'Sal_'
'Sachs_'
'Sabia_'
'SS_'
'Rời_'
'Rồng_'
'Rắc_'
'Russians_'
'Rover_'
'Round_'
'Romans_'
'Rochester_'
'Robinson_'
'Road_'
'Ritalin_'
'Rita_'
'Riders_'
'Ride_'
'Riddick_'
'Rico_'
'Richmond_'
'Richards_'
'Rhode_'
'Rezero_'
'Reynolds_'
'Reverend_'
'Return_'
'Rest_'
'Reports_'
'Repeat_'
'Renny_'
'Remove_'
'Recently_'
'Rather_'
'Rambo_'
'Raise_'
'Ragnar_'
'Rae_'
'ROSS_'
'Quỷ_'
'Quản_'
'Quái_'
'Quyển_'
'Qui_'
'Question_'
'QKK_'
'Putting_'
'Psst_'
'Problem_'
'Private_'
'Prew_'
'Prescott_'
'Power_'
'PostSecret_'
'Possibly_'
'Portugal_'
'Port_'
'Pompidou_'
'Pollock_'
'Politics_'
'Pip_'
'Pink_'
'Ping_'
'Pigs_'
'Piece_'
'Picasso_'
'Phố_'
'Phượng_'
'Photoshop_'
'Pho_'
'Phiền_'
'Phiến_'
'Pharaoh_'
'Petra_'
'Petersburg_'
'Pet_'
'Persians_'
'Permission_'
'Perasa_'
'Pepsi_'
'Pentagon_'
'Pavel_'
'Paulo_'
'Patty_'
'Patricia_'
'Paso_'
'Pascal_'
'Parkinson_'
'Pamela_'
'Palextin_'
'Palestinians_'
'Pai_'
'Page_'
'PR_'
'PHOEBE_'
'PC_'
'Otto_'
'Orleans_'
'Orlando_'
'Optimus_'
'Olympus_'
'Olympics_'
'Oleg_'
'Older_'
'Oldenburg_'
'Okinawa_'
'Oil_'
'Oi_'
'Octavian_'
'Nạp_'
'Núi_'
'Ném_'
'Nâng_'
'Nuala_'
'Novocure_'
'Norm_'
'Non_'
'Nokia_'
'Nixon_'
'Nikola_'
'Nic_'
'Niagara_'
'Nhường_'
'Ngữ_'
'Ngược_'
'Ngăn_'
'Ngón_'
'Nghiêm_'
'Net_'
'Nelly_'
'Negative_'
'Near_'
'Navy_'
'Natural_'
'Nathaniel_'
'Nassau_'
'Nash_'
'Napster_'
'Nah_'
'NYPD_'
'NATO_'
'Mực_'
'Mắt_'
'Mẫu_'
'Mạng_'
'Mên_'
'Máu_'
'Myhrvold_'
'Myers_'
'Murdoch_'
'Mummy_'
'Mumbai_'
'Mon_'
'Model_'
'Mission_'
'Missed_'
'Mises_'
'Miriam_'
'Mira_'
'Military_'
'Mildred_'
'Milan_'
'Mikael_'
'Might_'
'Mia_'
'Meyer_'
'Metz_'
'Mesopotamia_'
'Mercury_'
'Mendez_'
'Mel_'
'Meet_'
'Medicine_'
'Mecklen_'
'Means_'
'Maz_'
'Mayor_'
'Mayo_'
'Maximus_'
'Maurice_'
'Matty_'
'Matthieu_'
'Mathilda_'
'Mathematica_'
'Martini_'
'Marston_'
'Markus_'
'Marines_'
'Marilyn_'
'Marianne_'
'Marduk_'
'Male_'
'Magna_'
'Magic_'
'Madonna_'
'Mack_'
'MBI_'
'Lợi_'
'Lớn_'
'Lẹ_'
'Lặn_'
'Lạnh_'
'Lượng_'
'Lí_'
'Lá_'
'Lynn_'
'Lyn_'
'Luận_'
'Luli_'
'Lucia_'
'Luca_'
'Luc_'
'Loving_'
'Lothar_'
'Logan_'
'Load_'
'Lives_'
'Linux_'
'Linderman_'
'Likewise_'
'Lex_'
'Lena_'
'Leigh_'
'Legacy_'
'Leader_'
'Lawyer_'
'Law_'
'Lara_'
'Lannister_'
'Land_'
'Lai_'
'Laboratory_'
'LJ_'
'LEDs_'
'LAUGH_'
'Kệ_'
'Ký_'
'Kyle_'
'Kubelik_'
'Kuala_'
'Kosovo_'
'Korean_'
'Kofi_'
'Knock_'
'Klingon_'
'Kiến_'
'Kitchner_'
'Kira_'
'Kind_'
'Killing_'
'Khởi_'
'Khớp_'
'Khỏi_'
'Khẩu_'
'Khẩn_'
'Khăn_'
'Khí_'
'Khác_'
'Khoảnh_'
'Khao_'
'Khaleesi_'
'Kev_'
'Kermit_'
'Kentucky_'
'Kennedy_'
'Katrina_'
'Katniss_'
'Kathy_'
'Katherine_'
'Kai_'
'Kabul_'
'Ka_'
'KITTY_'
'KGB_'
'KATIE_'
'Jung_'
'Juliet_'
'Juanderson_'
'Jr_'
'Josey_'
'Jose_'
'Johnston_'
'Johnnie_'
'Joffrey_'
'Job_'
'Joachim_'
'Jigsaw_'
'Jewish_'
'Jess_'
'Jenkins_'
'Jeep_'
'Jed_'
'Jeanne_'
'Je_'
'Jano_'
'Janine_'
'Jamil_'
'Jae_'
'Jacky_'
'JOEY_'
'JK_'
'JE_'
'Its_'
'Israeli_'
'Ishaan_'
'Ironic_'
'Intelligence_'
'Inside_'
'Indiana_'
'Inconvenient_'
'Impossible_'
'Illegal_'
'Ikea_'
'Idol_'
'Iceman_'
'ISAF_'
'IMF_'
'Hạnh_'
'Hóa_'
'Hèn_'
'Hyung_'
'Huyết_'
'Huy_'
'Hut_'
'Huntington_'
'Hungary_'
'Hundreds_'
'Humanity_'
'Hughes_'
'Huck_'
'Hubble_'
'Hoạ_'
'Hoà_'
'Hot_'
'Horton_'
'Hop_'
'Hood_'
'Holmes_'
'Holland_'
'Hobbs_'
'History_'
'Hilary_'
'Highway_'
'Henderson_'
'Hence_'
'Hee_'
'Heat_'
'Heart_'
'Heard_'
'Hear_'
'Hazleton_'
'Hawking_'
'Haven_'
'Havard_'
'Harris_'
'Harley_'
'Harlem_'
'Hardy_'
'Hannibal_'
'Hana_'
'Hamilton_'
'Hallie_'
'Hagrid_'
'Gấp_'
'Gómez_'
'Gus_'
'Gunnar_'
'Guier_'
'Guantanamo_'
'Grimes_'
'Griffith_'
'Granny_'
'Government_'
'Gotcha_'
'Gosh_'
'Goose_'
'Gondor_'
'Goldberg_'
'Goemon_'
'Gobbler_'
'Glen_'
'Glad_'
'Giới_'
'Giấc_'
'Giê_'
'Giác_'
'Git_'
'Girls_'
'Gilbert_'
'Giang_'
'Ghê_'
'Ghen_'
'Georgetown_'
'Gene_'
'Geary_'
'Gaul_'
'Garzooka_'
'Garner_'
'Gang_'
'Gando_'
'Gallery_'
'Galileo_'
'Gail_'
'Gabriel_'
'GASPS_'
'Fun_'
'Freddy_'
'François_'
'Forty_'
'Forest_'
'Fogg_'
'Flying_'
'Fly_'
'Florence_'
'Fleury_'
'Fleet_'
'Fisher_'
'Fish_'
'Finland_'
'Fill_'
'Feng_'
'Felix_'
'Felicity_'
'Feeling_'
'Feel_'
'FedEx_'
'Fast_'
'Farmer_'
'Family_'
'FDA_'
'Eyes_'
'Evolution_'
'Evelyn_'
'Eugene_'
'Escort_'
'Ershon_'
'Errol_'
'Ernesto_'
'End_'
'Ellis_'
'Elk_'
'Eleven_'
'Elektra_'
'Effectively_'
'Edith_'
'Edinburgh_'
'Eddy_'
'Earl_'
'Eagle_'
'Dụng_'
'Dị_'
'Dần_'
'Dấu_'
'Dạo_'
'Dơi_'
'Dâ_'
'Dám_'
'Dài_'
'Dylan_'
'Dunbar_'
'Doyle_'
'Downey_'
'Donovan_'
'Donald_'
'Dominus_'
'Domino_'
'Dominic_'
'Dolores_'
'Doctors_'
'Disorder_'
'Disneyland_'
'Dirty_'
'Diggory_'
'Dicky_'
'Diamond_'
'Dent_'
'Denny_'
'Deb_'
'Dawson_'
'Davidson_'
'Daryl_'
'Dark_'
'Daphne_'
'Dance_'
'Damien_'
'Damascus_'
'Dakota_'
'Dai_'
'DP_'
'DC_'
'Cởi_'
'Cắt_'
'Cạn_'
'Cưa_'
'Cà_'
'Cutter_'
'Curiosity_'
'Crystal_'
'Crimes_'
'Crescent_'
'Creasy_'
'Crawford_'
'Crash_'
'Crandall_'
'Court_'
'Costello_'
'Costa_'
'Cos_'
'Cooking_'
'Control_'
'Continues_'
'Continue_'
'Consuela_'
'Connecticut_'
'Conference_'
'Completely_'
'Companies_'
'Commentator_'
'Command_'
'Cogburn_'
'Cochise_'
'Coach_'
'Cliff_'
'Clem_'
'Claude_'
'Clarice_'
'Claes_'
'Civil_'
'Ciao_'
'Chức_'
'Chứ_'
'Chế_'
'Chùa_'
'Chán_'
'Chuỗi_'
'Chuyến_'
'Chiều_'
'Chip_'
'Ching_'
'Child_'
'Chihiro_'
'Chia_'
'Chernobyl_'
'Champagne_'
'Celia_'
'Cedric_'
'Cecilia_'
'Caucasus_'
'Catch_'
'Castor_'
'Carver_'
'Cartagena_'
'Carolyn_'
'Carly_'
'Carbon_'
'Cara_'
'Car_'
'Cap_'
'Candy_'
'Campbell_'
'Camp_'
'Camilla_'
'Camelot_'
'Calvin_'
'CSI_'
'CP_'
'CLEARS_'
'CD_'
'Bồi_'
'Bọ_'
'Bơ_'
'Bông_'
'Bò_'
'Bàng_'
'Butch_'
'Business_'
'Burns_'
'Burma_'
'Burke_'
'Bullets_'
'Bull_'
'Building_'
'Budrus_'
'Buddhist_'
'Budapest_'
'Bud_'
'Browne_'
'Brought_'
'Brody_'
'Briggs_'
'Brien_'
'Braxin_'
'Brandon_'
'Brain_'
'Box_'
'Bow_'
'Botswana_'
'Boone_'
'Books_'
'Book_'
'Bonnet_'
'Bonjour_'
'Bong_'
'Bones_'
'Bonaparte_'
'Blu_'
'Bless_'
'Blaze_'
'Blake_'
'Blair_'
'Bitch_'
'Bionicle_'
'Billie_'
'Beware_'
'Beverly_'
'Beta_'
'Beowulf_'
'Benson_'
'Benny_'
'Benji_'
'Benjamín_'
'Beneath_'
'Belgium_'
'Behar_'
'Bee_'
'Beaumont_'
'Basically_'
'Barbara_'
'Banjo_'
'Bai_'
'Baggins_'
'Bacon_'
'Baba_'
'BRD4_'
'BP_'
'Aziz_'
'Away_'
'Avenue_'
'Autodesk_'
'Audience_'
'Aubrey_'
'Athens_'
'Astro_'
'Astrid_'
'Association_'
'Asperger_'
'Ashton_'
'Around_'
'Aristotle_'
'Aquila_'
'Apaches_'
'Anywhere_'
'Anya_'
'Antonio_'
'Angry_'
'Andie_'
'Amsterdam_'
'Alô_'
'Alvarez_'
'Alone_'
'Aloha_'
'Alo_'
'AlloSphere_'
'Allie_'
'Allah_'
'Alexis_'
'Alexandria_'
'Albuquerque_'
'Albania_'
'Akkadian_'
'Airstream_'
'Airport_'
'Aires_'
'Air_'
'Aim_'
'Ahhh_'
'Adriatic_'
'Admiral_'
'Action_'
'Ace_'
'Academy_'
'AV_'
'ATM_'
'ATF_'
'AS_'
'AM_'
'ABC_'
'?" "_'
'; ... _'
'98_'
'97_'
'94_'
'7th_'
'79_'
'7917_'
'7893_'
'7890_'
'7887_'
'7881_'
'77_'
'73_'
'70s_'
'7000_'
'6th_'
'59_'
'544_'
'51_'
'50s_'
'40s_'
'3rd_'
'360_'
'350_'
'34_'
'270_'
'24h_'
'230_'
'212_'
'2050_'
'2020_'
'1994_'
'1993_'
'1990s_'
'1983_'
'1981_'
'1978_'
'1975_'
'1967_'
'1966_'
'1957_'
'1955_'
'1949_'
'1945_'
'1944_'
'1940_'
'192_'
'1928_'
'1918_'
'1910_'
'154_'
'13th_'
'110_'
'0h_'
'05_'
'.?_'
'...? _'
'....._'
'...!_'
'... - ... _'
'... '_'
'... "_'
'.. .._'
'.*_'
'. - [_'
'. " _'
'- ... _'
',//_'
',._'
',... _'
'," "_'
'):_'
'"? _'
'"!_'
' ́_'
' ¶_'
' : &#_'
' ..?_'
' ...._'
' . ?_'
' . ._'
' --- _'
' * _'
' %_'
' % , _'
' # # _'
'， _'
'好_'
'ỹ_'
'ừm_'
'Ừa_'
'ủ_'
'Ủy_'
'Ủng_'
'Ốc_'
'ọt_'
'ỉa_'
'ẻo_'
'ẹc_'
'ẵm_'
'ắp_'
'ắng_'
'ắc_'
'ẩu_'
'ảm_'
'Ηe_'
'̉? _'
'̉..._'
'̉. _'
'̉, _'
'́..._'
'̀..._'
'̀ ?_'
'ươm_'
'ươ_'
'ưm_'
'Ưu_'
'đốm_'
'đỏi_'
'đọng_'
'đệch_'
'đễnh_'
'đễ_'
'đẽo_'
'đă_'
'đút_'
'đóa_'
'đày_'
'đuợc_'
'đuốc_'
'điểu_'
'đao_'
'Độc_'
'Đổi_'
'Đống_'
'Đệch_'
'Đền_'
'Đắt_'
'Đẩy_'
'Đạt_'
'Đă_'
'Đói_'
'Đình_'
'Đéo_'
'Đà_'
'Điệu_'
'Đe_'
'Đc_'
'Đao_'
'ĐM_'
'ói_'
'én_'
'ém_'
'ây_'
'Ó_'
'Ã_'
'Án_'
'­_'
'¥_'
'£_'
'¢_'
'_'
'~_'
'zới_'
'zap_'
'yous_'
'york_'
'yoga_'
'yep_'
'yearning_'
'yahoo_'
'yada_'
'xồm_'
'xỉu_'
'xắc_'
'xấp_'
'xướng_'
'xù_'
'xó_'
'xê_'
'xén_'
'xxx_'
'xuồng_'
'xua_'
'xoáy_'
'xoang_'
'xo_'
'xentimet_'
'xao_'
'x_'
'writers_'
'wring_'
'wretched_'
'wrestling_'
'wrestle_'
'wrecks_'
'worthless_'
'worms_'
'worm_'
'workplace_'
'workin_'
'workforce_'
'wore_'
'wonders_'
'wit_'
'wiser_'
'wirelessly_'
'wingsuit_'
'wield_'
'wi_'
'whoop_'
'wholly_'
'wholesale_'
'whiteboards_'
'whirl_'
'whimsical_'
'whilst_'
'whichever_'
'whereabouts_'
'wheeled_'
'wheelchair_'
'whale_'
'whacked_'
'whack_'
'wetlands_'
'wells_'
'weighing_'
'weems_'
'weekly_'
'weeds_'
'wed_'
'webcam_'
'weave_'
'wears_'
'weaponry_'
'weaknesses_'
'weakness_'
'waterslide_'
'waterskier_'
'waterfall_'
'watches_'
'wasteful_'
'washington_'
'warp_'
'warmth_'
'warmer_'
'wandered_'
'walker_'
'wakes_'
'waitress_'
'wain_'
'wagons_'
'wages_'
'vừng_'
'vụng_'
'vệt_'
'vế_'
'vằn_'
'vắt_'
'vẩy_'
'vấp_'
'vảy_'
'vượn_'
'vư_'
'vũng_'
'võng_'
'vôi_'
'vênh_'
'vát_'
'vá_'
'vung_'
'voyeurism_'
'vows_'
'voted_'
'volunteered_'
'vocal_'
'việt_'
'vivid_'
'vitro_'
'visualization_'
'virtuous_'
'virginity_'
'viral_'
'violins_'
'villages_'
'viewing_'
'victories_'
'vibrant_'
'viable_'
'veterans_'
'vessels_'
'vertigo_'
'versions_'
'versa_'
'verified_'
'verifiable_'
'verbs_'
'venture_'
'ventricle_'
'vegetation_'
'vectors_'
'vaulter_'
'varied_'
'variant_'
'variability_'
'vanishing_'
'vanilla_'
'vani_'
'vampires_'
'valves_'
'valuing_'
'validate_'
'valid_'
'vali_'
'vacant_'
'uỷ_'
'usher_'
'uselessness_'
'urine_'
'urgency_'
'urge_'
'urbanization_'
'uranium_'
'upwards_'
'uptight_'
'upper_'
'uploaded_'
'upgrade_'
'updating_'
'unwanted_'
'untouchable_'
'unto_'
'unstoppable_'
'unrequited_'
'unreasonable_'
'unpopular_'
'unpleasant_'
'unlocked_'
'unlock_'
'universality_'
'uniting_'
'uninterrupted_'
'uniformed_'
'unification_'
'unicorn_'
'unfolding_'
'unfold_'
'unfiltered_'
'uneven_'
'undiagnosed_'
'undertaking_'
'underpants_'
'undermining_'
'underdog_'
'underdeveloped_'
'undercover_'
'uncontrolled_'
'uncomfortable_'
'unbroken_'
'unaccounted_'
'ultra_'
'ulcer_'
'ud_'
'tợn_'
'tở_'
'tỏa_'
'tọng_'
'tọa_'
'tịt_'
'tấc_'
'tảo_'
'tạt_'
'tĩu_'
'túp_'
'tìn_'
'tã_'
'tâu_'
'tyrant_'
'typeface_'
'typed_'
'tying_'
'twin_'
'tweet_'
'tuộc_'
'tuốt_'
'tuô_'
'turnover_'
'turmoil_'
'turbine_'
'tuned_'
'tundra_'
'tuna_'
'tubing_'
'tuberculosis_'
'trợn_'
'trờ_'
'trớn_'
'trọc_'
'trặc_'
'trẫm_'
'trướng_'
'trư_'
'trũng_'
'trùn_'
'trù_'
'tróc_'
'tràng_'
'truỵ_'
'truths_'
'truce_'
'tru_'
'troubling_'
'troublemaker_'
'trophy_'
'troop_'
'trips_'
'trio_'
'tribute_'
'tribal_'
'triangles_'
'triangle_'
'tremor_'
'treaty_'
'tre_'
'travels_'
'traps_'
'transporter_'
'transported_'
'transmitting_'
'transmitted_'
'transmits_'
'translation_'
'translated_'
'transit_'
'transformation_'
'transfers_'
'transferred_'
'transactions_'
'traitor_'
'trailers_'
'trafficking_'
'traffickers_'
'traditionally_'
'tractor_'
'traction_'
'tracing_'
'toét_'
'toxic_'
'townspeople_'
'towel_'
'tourists_'
'tourist_'
'touchy_'
'touching_'
'tossed_'
'torpedo_'
'tore_'
'topos_'
'tong_'
'ton_'
'tomb_'
'tolerate_'
'tobacco_'
'toaster_'
'toast_'
'ting_'
'timescale_'
'timer_'
'tiles_'
'tights_'
'tightrope_'
'tiger1962_'
'tickle_'
'tick_'
'thệ_'
'thặng_'
'thắm_'
'thầu_'
'thảy_'
'thản_'
'thạc_'
'thĂ_'
'thùy_'
'thùa_'
'thòng_'
'thêu_'
'thèn_'
'thây_'
'thâu_'
'thà_'
'thy_'
'thuyên_'
'thriving_'
'thrives_'
'thrilling_'
'thrash_'
'thoughtful_'
'thorough_'
'tho_'
'thiền_'
'thingy_'
'thickness_'
'thermal_'
'thereby_'
'therapists_'
'theokoles_'
'thankful_'
'texts_'
'textile_'
'texted_'
'textbook_'
'terminal_'
'tents_'
'tenths_'
'tenth_'
'tended_'
'temporal_'
'tempo_'
'tem_'
'teeny_'
'teens_'
'teeniest_'
'techno_'
'teasing_'
'tasty_'
'tasks_'
'tarp_'
'targeted_'
'tapes_'
'tananger_'
'talents_'
'takeoff_'
'tails_'
'tailed_'
'tactical_'
'taboo_'
'tabloids_'
'tHế_'
'sủng_'
'sụn_'
'sộ_'
'sỏ_'
'sọt_'
'sẳn_'
'sầu_'
'sấy_'
'sấu_'
'sảo_'
'sảng_'
'sườn_'
'sên_'
'sán_'
'sài_'
'systemic_'
'systematic_'
'synthetic_'
'synthesizing_'
'symphony_'
'symphonies_'
'sympathy_'
'sworn_'
'swordsman_'
'swoop_'
'switches_'
'switched_'
'swirling_'
'swine_'
'swimmer_'
'swept_'
'swells_'
'swell_'
'sweetest_'
'sweater_'
'swam_'
'swallow_'
'suông_'
'suôn_'
'suyễn_'
'sustains_'
'sustaining_'
'sustain_'
'suspension_'
'suspected_'
'survives_'
'surplus_'
'surgeons_'
'surge_'
'surfing_'
'supreme_'
'supports_'
'suppliers_'
'supple_'
'superstar_'
'supermassive_'
'superiority_'
'supercomputer_'
'sunphua_'
'sunglasses_'
'sums_'
'summons_'
'summit_'
'summertime_'
'summary_'
'sulfide_'
'sulfate_'
'suite_'
'suitable_'
'suffers_'
'suey_'
'successes_'
'succeeding_'
'succeeded_'
'suburb_'
'substances_'
'substance_'
'subsidies_'
'subset_'
'submit_'
'submissive_'
'submarines_'
'subconscious_'
'subcategories_'
'sturdy_'
'stupidity_'
'stupidest_'
'stunts_'
'stubborn_'
'structural_'
'strongest_'
'stroll_'
'strokes_'
'stripping_'
'stripped_'
'striped_'
'striking_'
'strife_'
'strict_'
'stretch_'
'streams_'
'streaming_'
'streak_'
'stray_'
'strategic_'
'strapped_'
'strangle_'
'straightened_'
'stove_'
'stores_'
'stored_'
'stool_'
'stockade_'
'stimulating_'
'stillbirths_'
'stifle_'
'stern_'
'steak_'
'statues_'
'statistic_'
'stately_'
'stashed_'
'starving_'
'starved_'
'starve_'
'starship_'
'starlight_'
'starlet_'
'stark_'
'standpoint_'
'stamps_'
'staggering_'
'stages_'
'stadium_'
'stabilize_'
'stab_'
'squid_'
'squeezing_'
'squatting_'
'springs_'
'spreadsheets_'
'spouting_'
'spouse_'
'spotted_'
'spores_'
'spoon_'
'spooky_'
'sponge_'
'spoiled_'
'splitting_'
'splendid_'
'spleen_'
'splashy_'
'splashing_'
'splash_'
'spilled_'
'spiky_'
'spicy_'
'spheres_'
'sphere_'
'spew_'
'speeds_'
'specialty_'
'spartacus_'
'sparks_'
'spark_'
'spank_'
'soái_'
'souvenirs_'
'sourcing_'
'soundscapes_'
'soundscape_'
'sought_'
'sorted_'
'sophomore_'
'sophistication_'
'soot_'
'sonicate_'
'softball_'
'sofa_'
'soda_'
'socks_'
'sock_'
'sociable_'
'sober_'
'soar_'
'snug_'
'snuck_'
'sneak_'
'snatch_'
'snaps_'
'snapping_'
'smuggling_'
'smug_'
'smothered_'
'smoother_'
'smoked_'
'smashed_'
'smallpox_'
'slugs_'
'sludge_'
'slows_'
'slower_'
'slightest_'
'sliding_'
'slice_'
'sleeve_'
'sled_'
'slaying_'
'slaves_'
'slaughter_'
'slate_'
'skydiving_'
'skins_'
'skinny_'
'skies_'
'skid_'
'sketches_'
'skeptics_'
'sixteen_'
'sitos_'
'sitcoms_'
'sis_'
'siren_'
'sinister_'
'singin_'
'singers_'
'sincerity_'
'sin_'
'simulation_'
'similarity_'
'sik_'
'significance_'
'signatures_'
'sights_'
'sighted_'
'sideways_'
'sidewalk_'
'sidetracked_'
'siblings_'
'shuttle_'
'shutter_'
'shrimps_'
'showers_'
'shorts_'
'shorthand_'
'shorter_'
'shore_'
'shops_'
'shootings_'
'shooters_'
'shooter_'
'shook_'
'shoe_'
'shocker_'
'shitting_'
'shimmy_'
'shifting_'
'shelters_'
'shellfish_'
'shekel_'
'shareable_'
'shaping_'
'shameful_'
'shaky_'
'shadows_'
'sexually_'
'sewing_'
'sewers_'
'sewage_'
'sew_'
'severely_'
'settlers_'
'settlement_'
'server_'
'serum_'
'sermon_'
'serial_'
'sequenced_'
'sequence_'
'separation_'
'separating_'
'sensed_'
'selected_'
'seize_'
'seemingly_'
'seeks_'
'seduce_'
'sedative_'
'secular_'
'secretary_'
'secondly_'
'seaweed_'
'seawater_'
'searched_'
'seamlessly_'
'seamless_'
'seafood_'
'seaboard_'
'scurry_'
'scum_'
'sculpting_'
'scrutiny_'
'scrub_'
'scripture_'
'script_'
'screenshot_'
'screening_'
'scratches_'
'scrambled_'
'scenic_'
'scattered_'
'scars_'
'scaring_'
'scarecrow_'
'scans_'
'scanners_'
'scanned_'
'scaffolding_'
'sayin_'
'savvy_'
'savior_'
'saves_'
'savanna_'
'saunter_'
'saturation_'
'satisfying_'
'satisfactory_'
'sandra_'
'sandalwood_'
'saloon_'
'saliva_'
'saintly_'
'sailed_'
'safest_'
'sadly_'
'saddle_'
'sacked_'
'sack_'
'rủ_'
'rụi_'
'rệp_'
'rắm_'
'rẫy_'
'rầu_'
'rạng_'
'rạc_'
'ròng_'
'rít_'
'rích_'
'rình_'
'rêu_'
'rèm_'
'rât_'
'râm_'
'rành_'
'rà_'
'ruồi_'
'rust_'
'rushed_'
'rulers_'
'ruler_'
'ruled_'
'routines_'
'routes_'
'rotating_'
'rotate_'
'roses_'
'rosa_'
'ropes_'
'rooted_'
'roommate_'
'robbery_'
'rivers_'
'rivalries_'
'rituals_'
'risked_'
'rips_'
'ripping_'
'ripped_'
'riots_'
'ringing_'
'rik_'
'righty_'
'righteous_'
'rifles_'
'riders_'
'revolving_'
'revolutions_'
'revolutionary_'
'revolted_'
'reviews_'
'reviewed_'
'reversing_'
'reversible_'
'revelation_'
'reuse_'
'returning_'
'retinas_'
'retina_'
'rethink_'
'retention_'
'retaining_'
'restrictions_'
'restricted_'
'responsive_'
'responded_'
'respects_'
'respectful_'
'respected_'
'resonance_'
'resolution_'
'resisting_'
'resilient_'
'resignation_'
'resident_'
'reserves_'
'reserve_'
'reservations_'
'reservation_'
'rescuing_'
'rescued_'
'requests_'
'requesting_'
'republic_'
'reproduce_'
'repression_'
'representatives_'
'replacing_'
'repertory_'
'repeatedly_'
'repeated_'
'repay_'
'repaired_'
'rent_'
'renewable_'
'rendered_'
'remnants_'
'reminder_'
'remembrance_'
'remembering_'
'remedy_'
'remediation_'
'relying_'
'reluctant_'
'relocated_'
'relieved_'
'relies_'
'relief_'
'relay_'
'relates_'
'reinvented_'
'reinvent_'
'reinforcement_'
'reindeer_'
'rehabilitation_'
'registry_'
'registration_'
'register_'
'regions_'
'regeneration_'
'regenerating_'
'reforms_'
'reformation_'
'reflects_'
'refill_'
'reefs_'
'reducing_'
'reduces_'
'redhead_'
'redevelopment_'
'redesigning_'
'recurring_'
'recruited_'
'recovery_'
'recorder_'
'reconciliation_'
'reconcile_'
'recommended_'
'recognise_'
'recluse_'
'reckon_'
'recite_'
'receptor_'
'receiver_'
'receipt_'
'recalled_'
'realizing_'
'realities_'
'realignment_'
'readings_'
'readily_'
'reader_'
'reactor_'
'reacted_'
'razor_'
'ravaged_'
'ratios_'
'rationally_'
'rated_'
'ransom_'
'ranked_'
'rank_'
'rampant_'
'raises_'
'rained_'
'railways_'
'rail_'
'raid_'
'rai_'
'rahl_'
'radiologist_'
'radioactive_'
'quỉ_'
'quạt_'
'quì_'
'quây_'
'quâ_'
'quáng_'
'quàng_'
'quyện_'
'quoted_'
'quiz_'
'quitting_'
'quarters_'
'quarrel_'
'quantity_'
'qualifies_'
'quads_'
'qu_'
'pyramid_'
'puzzling_'
'purity_'
'purges_'
'purely_'
'purchases_'
'purchased_'
'puppeteer_'
'punctured_'
'puncture_'
'punching_'
'pumps_'
'pumping_'
'pumped_'
'pum_'
'pulses_'
'pulsed_'
'pulls_'
'puke_'
'puddle_'
'pudding_'
'publishers_'
'publisher_'
'publish_'
'pterodactyl_'
'psychic_'
'pshoo_'
'prôtêin_'
'prôtein_'
'provocative_'
'proving_'
'protest_'
'prosperous_'
'proportionate_'
'promoting_'
'prominent_'
'projections_'
'projectile_'
'projected_'
'prohibitive_'
'programmed_'
'programme_'
'profiles_'
'producers_'
'procedures_'
'pristine_'
'principal_'
'princes_'
'pricks_'
'prick_'
'preventing_'
'prettiest_'
'pretended_'
'presume_'
'prestigious_'
'presses_'
'presidents_'
'presidential_'
'presidency_'
'preserved_'
'presenting_'
'preposterous_'
'prenatal_'
'premise_'
'prematurely_'
'preference_'
'predicts_'
'predictive_'
'predictable_'
'predecessor_'
'predator_'
'preacher_'
'preach_'
'practices_'
'practiced_'
'poured_'
'pounding_'
'potions_'
'potato_'
'potassium_'
'posture_'
'posters_'
'postcard_'
'postage_'
'possibilities_'
'possess_'
'posse_'
'posed_'
'pose_'
'pornography_'
'porch_'
'populations_'
'popping_'
'popcorn_'
'poorly_'
'pools_'
'pond_'
'polymers_'
'polymer_'
'polycarbonate_'
'pollute_'
'politician_'
'politically_'
'polite_'
'policing_'
'policewoman_'
'poke_'
'pointed_'
'poetic_'
'pod_'
'pluralistic_'
'plunges_'
'plumes_'
'plume_'
'plumber_'
'plugging_'
'plentiful_'
'pledge_'
'pleasurable_'
'pleading_'
'plaza_'
'playtime_'
'playful_'
'playbook_'
'plausible_'
'plaques_'
'plaque_'
'planners_'
'plankton_'
'planetary_'
'pivotal_'
'pitched_'
'pirate_'
'pints_'
'pinpoint_'
'ping_'
'pine_'
'pinched_'
'pillow_'
'pigeons_'
'phớt_'
'phỉnh_'
'phệ_'
'phả_'
'phường_'
'phước_'
'phông_'
'phâ_'
'physicians_'
'photosynthesis_'
'photojournalist_'
'photographic_'
'photogenic_'
'phonemes_'
'phiếm_'
'pheromones_'
'pharmacy_'
'pharmaceuticals_'
'pharmaceutical_'
'phai_'
'petty_'
'pets_'
'petals_'
'pesticides_'
'perverted_'
'persuading_'
'persisted_'
'perseverance_'
'permitted_'
'permafrost_'
'perfume_'
'perfection_'
'pepper_'
'pep_'
'peoples_'
'pentagon_'
'penetration_'
'penalty_'
'peeling_'
'peek_'
'pediatrician_'
'peddler_'
'peas_'
'peacock_'
'peaches_'
'peacefully_'
'payments_'
'payment_'
'paws_'
'patron_'
'patriotism_'
'patriot_'
'pathways_'
'pathology_'
'pathogenic_'
'pasted_'
'passive_'
'particle_'
'participating_'
'partial_'
'parrot_'
'parole_'
'parish_'
'paraphrase_'
'paralyze_'
'paragraph_'
'paradise_'
'parades_'
'parable_'
'par_'
'pamphlets_'
'paints_'
'pager_'
'pagan_'
'pads_'
'paddle_'
'packets_'
'packed_'
'pH_'
'oắt_'
'oát_'
'oxit_'
'owls_'
'owl_'
'owed_'
'overwhelming_'
'overweight_'
'overstatement_'
'overlook_'
'overeating_'
'overboard_'
'overarching_'
'outweighs_'
'outward_'
'outstanding_'
'outset_'
'outrun_'
'outliers_'
'outlets_'
'outfits_'
'outer_'
'ounces_'
'orphaned_'
'organize_'
'organizational_'
'ordinarily_'
'orderly_'
'orbits_'
'oratory_'
'optimistic_'
'optics_'
'optic_'
'opposition_'
'opponents_'
'opium_'
'operated_'
'openly_'
'oops_'
'oncologist_'
'om_'
'ol_'
'ogre_'
'offs_'
'offenses_'
'offense_'
'offending_'
'oceans_'
'occurring_'
'occupation_'
'occupants_'
'occasionally_'
'occasional_'
'obtained_'
'obstruction_'
'obstacles_'
'observe_'
'observations_'
'obliged_'
'obligation_'
'obese_'
'oath_'
'oan_'
'nớt_'
'nọc_'
'nịt_'
'nịnh_'
'nện_'
'nặc_'
'nĩa_'
'níu_'
'nuối_'
'nutshell_'
'nutritional_'
'nursemaid_'
'nudists_'
'nuances_'
'novelty_'
'noticing_'
'nothin_'
'notation_'
'noses_'
'northwest_'
'norms_'
'noodles_'
'noodle_'
'noninvasively_'
'noninvasive_'
'nomination_'
'nominate_'
'noises_'
'niêm_'
'nitrogen_'
'nipples_'
'ninth_'
'ninja_'
'nightmares_'
'nieces_'
'niece_'
'nick_'
'nicer_'
'nhứng_'
'nhờn_'
'nhớt_'
'nhớp_'
'nhọ_'
'nhẽo_'
'nhẵn_'
'nhằn_'
'nhậm_'
'nhấm_'
'nhải_'
'nhả_'
'nhạnh_'
'nhĩ_'
'nhăn_'
'nhím_'
'nhè_'
'nhám_'
'nhàu_'
'nhào_'
'nhoi_'
'nhead_'
'nhang_'
'ngứa_'
'ngượng_'
'ngõ_'
'ngâm_'
'ngán_'
'ngà_'
'nguời_'
'nghệt_'
'nghành_'
'newspapers_'
'nevertheless_'
'nerd_'
'neighbouring_'
'neighborhoods_'
'negotiating_'
'negotiated_'
'needles_'
'naughty_'
'natives_'
'native_'
'nations_'
'nathan_'
'narrower_'
'narrowed_'
'narcotics_'
'narcissistic_'
'nang_'
'nada_'
'mửa_'
'mứt_'
'mớm_'
'mộc_'
'mỉ_'
'mền_'
'mắng_'
'mậu_'
'mẫn_'
'mầy_'
'mạp_'
'mướn_'
'mút_'
'múc_'
'mùn_'
'mó_'
'mênh_'
'mè_'
'mào_'
'mystical_'
'mysteries_'
'muỗng_'
'mutually_'
'mutations_'
'mutates_'
'mustard_'
'muscular_'
'murderous_'
'murderers_'
'mule_'
'muffled_'
'mouths_'
'mourn_'
'mounted_'
'mouflon_'
'motto_'
'motives_'
'motive_'
'motivating_'
'motivates_'
'mothers2mothers_'
'motherly_'
'motherfucking_'
'mosques_'
'mosque_'
'mosaic_'
'mortgage_'
'morals_'
'moons_'
'monthly_'
'monsieur_'
'monocultures_'
'monitors_'
'moms_'
'momma_'
'molto_'
'molded_'
'module_'
'modeling_'
'miê_'
'mitts_'
'mitochondrial_'
'mite_'
'mit_'
'mistress_'
'mistaken_'
'missionary_'
'misses_'
'misfortune_'
'miraculously_'
'ministry_'
'minerals_'
'mindless_'
'minded_'
'mimicked_'
'millionaire_'
'millennium_'
'millennia_'
'mild_'
'migration_'
'migrated_'
'migrate_'
'microseconds_'
'microscopes_'
'microbial_'
'microbes_'
'michael_'
'metro_'
'methane_'
'methadone_'
'meth_'
'metaphors_'
'metabolism_'
'meta_'
'messy_'
'messed_'
'meself_'
'mercury_'
'memorize_'
'memorial_'
'memes_'
'melting_'
'melt_'
'melody_'
'meds_'
'medicines_'
'medicinal_'
'mediate_'
'medallion_'
'measurable_'
'meanings_'
'meaningful_'
'maze_'
'max_'
'mattered_'
'mating_'
'maths_'
'mastery_'
'massively_'
'masseuse_'
'massage_'
'masquerading_'
'masons_'
'mashed_'
'marvel_'
'marines_'
'margins_'
'margin_'
'marbles_'
'marble_'
'maratông_'
'marathons_'
'mapped_'
'mao_'
'manuscripts_'
'manuscript_'
'manufacture_'
'manifestation_'
'manhood_'
'maneuver_'
'managing_'
'manages_'
'malls_'
'malfunction_'
'maker_'
'maintenance_'
'magnetically_'
'magnet_'
'magistrate_'
'magician_'
'macro_'
'lự_'
'lữ_'
'lứa_'
'lởm_'
'lội_'
'lộc_'
'lồn_'
'lồi_'
'lốp_'
'lốc_'
'lỏi_'
'lọng_'
'lọi_'
'lẳng_'
'lẫm_'
'lẩm_'
'lấn_'
'lấm_'
'lảo_'
'lư_'
'lút_'
'lõa_'
'lênh_'
'lèo_'
'lumber_'
'lumbar_'
'luggage_'
'luckily_'
'luckiest_'
'loẹt_'
'loyal_'
'lowly_'
'lowest_'
'lovers_'
'loser_'
'lorek_'
'lore_'
'loops_'
'lookout_'
'longtime_'
'longing_'
'logistics_'
'loft_'
'lockup_'
'locks_'
'locker_'
'locate_'
'lobster_'
'lobe_'
'lm_'
'liếc_'
'liêm_'
'lizard_'
'lithium_'
'lire_'
'lip_'
'links_'
'linked_'
'lingering_'
'linger_'
'limp_'
'limiting_'
'limitation_'
'lifelong_'
'lifeless_'
'lid_'
'licence_'
'libraries_'
'liberate_'
'liars_'
'lettuce_'
'lethal_'
'lemonade_'
'leisure_'
'legitimate_'
'legatus_'
'legally_'
'legacy_'
'lectures_'
'leash_'
'lease_'
'leap_'
'leaking_'
'leak_'
'lazy_'
'layman_'
'layers_'
'lax_'
'lawsuit_'
'lawns_'
'lawful_'
'launching_'
'latitude_'
'lateral_'
'lapse_'
'lanes_'
'lance_'
'lame_'
'lager_'
'ladder_'
'laboratories_'
'laboeuf_'
'labels_'
'labeled_'
'kệch_'
'kẽm_'
'kưng_'
'kô_'
'kén_'
'kyu_'
'kun_'
'krill_'
'knuckleheads_'
'knots_'
'knockout_'
'kneel_'
'kitty_'
'kitchens_'
'kissing_'
'kingsbury_'
'kingdoms_'
'kilômét_'
'kidneys_'
'kidnap_'
'kicks_'
'khố_'
'khải_'
'khăng_'
'khâm_'
'khuây_'
'khua_'
'khoán_'
'khiêng_'
'khaki_'
'keystroke_'
'kerosene_'
'keo_'
'keepers_'
'keeper_'
'karma_'
'justify_'
'jumper_'
'juicy_'
'juggling_'
'judgments_'
'joyful_'
'journalist_'
'joints_'
'joining_'
'jim_'
'jewelry_'
'jewel_'
'jeopardize_'
'jelly_'
'jeez_'
'jeep_'
'jargon_'
'jammed_'
'jacked_'
'iu_'
'ist_'
'issued_'
'isolate_'
'irrespective_'
'ironic_'
'inward_'
'inviting_'
'invitations_'
'investors_'
'investigators_'
'investigating_'
'inversion_'
'invasive_'
'invade_'
'intuitively_'
'intuitive_'
'introducing_'
'intricate_'
'intoxicated_'
'intolerance_'
'intestines_'
'intestine_'
'interviewed_'
'intertwined_'
'interruptions_'
'interpretation_'
'interferes_'
'interconnected_'
'intentions_'
'intention_'
'instructors_'
'instructor_'
'instinctively_'
'instill_'
'installing_'
'inspirational_'
'insisted_'
'insides_'
'insemination_'
'insecure_'
'insect_'
'inscribed_'
'inputs_'
'innovate_'
'innocence_'
'inn_'
'ink_'
'injustices_'
'injection_'
'injecting_'
'injected_'
'inject_'
'initiate_'
'inherited_'
'inhabitants_'
'ingen_'
'infrared_'
'info_'
'influences_'
'infinity_'
'infinitely_'
'infinite_'
'infiltrated_'
'infiltrate_'
'infested_'
'infantry_'
'infamous_'
'inexplicable_'
'inevitable_'
'inertia_'
'industrialized_'
'induced_'
'indoor_'
'indications_'
'indication_'
'indicates_'
'index_'
'incubator_'
'incremental_'
'increasingly_'
'inconvenience_'
'incomplete_'
'inclusion_'
'incidentally_'
'incense_'
'incapable_'
'improvisation_'
'improves_'
'improved_'
'impress_'
'imply_'
'implicitly_'
'implant_'
'imperfect_'
'impacted_'
'immunized_'
'immunization_'
'immortality_'
'immersive_'
'imagines_'
'imaginable_'
'illuminated_'
'illogical_'
'illiterate_'
'il_'
'idle_'
'ideology_'
'iPods_'
'hức_'
'hụt_'
'hờn_'
'hời_'
'hột_'
'hỉ_'
'hẻm_'
'hằn_'
'hắt_'
'hấn_'
'hươ_'
'hơp_'
'hăm_'
'hú_'
'hùm_'
'hót_'
'hòm_'
'hên_'
'héo_'
'hâu_'
'hysterical_'
'hypoxic_'
'hypothesis_'
'hypotheses_'
'hyena_'
'huệ_'
'huých_'
'huân_'
'huyên_'
'hurricane_'
'huntin_'
'hunter_'
'hunk_'
'hunchback_'
'humpback_'
'humour_'
'humbly_'
'humankind_'
'humanities_'
'humanists_'
'hulk_'
'hugging_'
'hugely_'
'hug_'
'hub_'
'ht_'
'hoán_'
'hover_'
'households_'
'hotdog_'
'hosting_'
'hostage_'
'hose_'
'horrific_'
'horns_'
'horizontal_'
'hops_'
'hooc_'
'honour_'
'homicidal_'
'homeless_'
'homegrown_'
'holster_'
'holiest_'
'hoedown_'
'hobbyists_'
'hobby_'
'hives_'
'histories_'
'hips_'
'hippie_'
'hike_'
'highway_'
'hierarchical_'
'hiatus_'
'heterosexuals_'
'hereby_'
'hence_'
'hen_'
'helpin_'
'helpfully_'
'heli_'
'hee_'
'hectares_'
'heavenly_'
'hearth_'
'heartbeat_'
'healed_'
'headway_'
'headset_'
'headline_'
'headache_'
'hazard_'
'haywire_'
'haul_'
'hating_'
'haters_'
'hatch_'
'hasty_'
'haste_'
'harvest_'
'harmless_'
'hardcore_'
'hanger_'
'handling_'
'handkerchief_'
'handgun_'
'handbags_'
'hamburgers_'
'hallways_'
'hairy_'
'haired_'
'hah_'
'gừ_'
'gốm_'
'gặm_'
'gắp_'
'gầy_'
'gả_'
'gư_'
'gút_'
'gù_'
'gót_'
'gân_'
'gáy_'
'gàng_'
'gypsum_'
'gymnasium_'
'gym_'
'guồng_'
'gutter_'
'guru_'
'guides_'
'guerrilla_'
'guardian_'
'guacamole_'
'grunts_'
'grudge_'
'grub_'
'grovel_'
'groundskeeper_'
'groceries_'
'grids_'
'greet_'
'greenest_'
'greatness_'
'grease_'
'grazed_'
'grassroots_'
'grasp_'
'grapes_'
'grandson_'
'grandpa_'
'grandmothers_'
'granddaughter_'
'grammatically_'
'graduated_'
'grading_'
'graders_'
'gracefully_'
'graceful_'
'grace_'
'gown_'
'gosh_'
'godless_'
'gloriously_'
'glorious_'
'globulin_'
'globalizers_'
'gliders_'
'glide_'
'glial_'
'gland_'
'gladiator_'
'glaciers_'
'giềng_'
'giẻ_'
'giằng_'
'giạy_'
'giư_'
'giũ_'
'giô_'
'giãi_'
'givin_'
'girly_'
'gio_'
'giggling_'
'gifted_'
'gic_'
'ghềnh_'
'ghém_'
'ghiếc_'
'ggggg_'
'gestures_'
'geologists_'
'geography_'
'geographically_'
'geoengineering_'
'gents_'
'generic_'
'generator_'
'gendarme_'
'geisha_'
'geeky_'
'geek_'
'gathers_'
'gatherer_'
'gassing_'
'garlic_'
'gara_'
'gaps_'
'gambling_'
'gamblers_'
'gamble_'
'gals_'
'galley_'
'galleries_'
'gadget_'
'futile_'
'fused_'
'funnel_'
'funky_'
'fungus_'
'funders_'
'fundamentalists_'
'ft_'
'frustrating_'
'frontal_'
'frivolous_'
'frisk_'
'fringe_'
'frightening_'
'fried_'
'fridge_'
'freshman_'
'frequently_'
'frequent_'
'frenzy_'
'freezing_'
'freckles_'
'freaky_'
'fraud_'
'fraternity_'
'frank_'
'fractal_'
'foxes_'
'fox_'
'fountain_'
'fossils_'
'fortress_'
'formulate_'
'formation_'
'forgiveness_'
'foreigners_'
'forbid_'
'foragers_'
'footing_'
'fond_'
'followers_'
'foil_'
'foggy_'
'focuses_'
'focal_'
'flush_'
'fluke_'
'fluid_'
'fluent_'
'flourishing_'
'flourish_'
'flour_'
'floors_'
'floe_'
'flirting_'
'flipped_'
'flip_'
'fling_'
'flick_'
'flexible_'
'flexibility_'
'flawed_'
'flashlight_'
'flares_'
'flare_'
'flammable_'
'flames_'
'fives_'
'fittest_'
'fisherman_'
'fisheries_'
'firsthand_'
'fir_'
'finite_'
'finishes_'
'fingertips_'
'fingernails_'
'financing_'
'finances_'
'filters_'
'filming_'
'fills_'
'fiddle_'
'fiancée_'
'fetal_'
'fertilizers_'
'feminist_'
'feminism_'
'feminine_'
'females_'
'feelin_'
'feeble_'
'federally_'
'featuring_'
'feat_'
'fearsome_'
'fbi_'
'faulty_'
'faults_'
'fats_'
'faro_'
'farms_'
'farewell_'
'fanatical_'
'fanatic_'
'failures_'
'facets_'
'fabricating_'
'fable_'
'eyelashes_'
'eyeballs_'
'extroverts_'
'extraordinarily_'
'extraction_'
'extracting_'
'exterior_'
'extending_'
'exquisite_'
'expressed_'
'exposé_'
'exposure_'
'exposing_'
'export_'
'exponential_'
'explosions_'
'explores_'
'explorers_'
'explorations_'
'explode_'
'explicitly_'
'experimental_'
'expenses_'
'expectation_'
'expand_'
'exits_'
'execute_'
'exclusively_'
'exclude_'
'excitedly_'
'exchanging_'
'examining_'
'exaggerating_'
'exaggerate_'
'evolving_'
'evolve_'
'evocative_'
'evaporates_'
'evaluation_'
'evaluate_'
'evade_'
'evacuated_'
'euros_'
'euro_'
'ethnic_'
'ethical_'
'eternal_'
'estrogen_'
'estimating_'
'esh_'
'escort_'
'es_'
'erase_'
'equator_'
'equations_'
'equation_'
'equality_'
'episode_'
'epiphany_'
'epinephrine_'
'epic_'
'enzyme_'
'environmentally_'
'envelopes_'
'envelope_'
'entropy_'
'entrepreneurship_'
'entranced_'
'entertaining_'
'entertained_'
'entering_'
'enormously_'
'enlightened_'
'enjoyed_'
'enjoyable_'
'engaging_'
'enforcing_'
'eneb_'
'enduring_'
'endured_'
'endurance_'
'endeavors_'
'endeavor_'
'encourages_'
'encode_'
'enabling_'
'enabled_'
'emptied_'
'empowering_'
'empowered_'
'employers_'
'employ_'
'emphasize_'
'emotionally_'
'emitted_'
'emergent_'
'embryos_'
'embracing_'
'embraced_'
'embodies_'
'embedded_'
'emails_'
'elves_'
'elongate_'
'eliminated_'
'elevators_'
'elevate_'
'elegant_'
'elective_'
'elbow_'
'el_'
'effortlessly_'
'editorial_'
'editor_'
'ecosystem_'
'ecological_'
'echo_'
'eaters_'
'eared_'
'eagerly_'
'dỗi_'
'dốt_'
'dẹt_'
'dầy_'
'dấy_'
'dí_'
'dép_'
'dãi_'
'duỗi_'
'dunk_'
'dumps_'
'drywall_'
'drugstore_'
'drudgery_'
'dropout_'
'drones_'
'driveway_'
'drip_'
'drifted_'
'drift_'
'dresser_'
'dreamt_'
'dreamed_'
'dreadful_'
'drama_'
'dragon_'
'drafted_'
'dr_'
'downs_'
'doughnut_'
'doubled_'
'dope_'
'doomed_'
'doobi_'
'donation_'
'donate_'
'dominance_'
'domestic_'
'dodo_'
'documentary_'
'divisions_'
'diverge_'
'district_'
'distracts_'
'distracted_'
'distract_'
'dissonance_'
'dissect_'
'disposed_'
'displays_'
'displacement_'
'disparity_'
'dishonest_'
'discrimination_'
'discovering_'
'discouraging_'
'disconnect_'
'disciplinary_'
'discharged_'
'disc_'
'disbelief_'
'disappointments_'
'disappointing_'
'disappears_'
'dirtiest_'
'directors_'
'directed_'
'dire_'
'dipped_'
'diner_'
'dinars_'
'dimming_'
'dim_'
'dilemmas_'
'dilemma_'
'digitally_'
'diffusion_'
'differential_'
'didactic_'
'dictatorship_'
'dictators_'
'dictator_'
'dicks_'
'diapers_'
'dialysis_'
'diagnose_'
'devising_'
'develops_'
'developer_'
'determination_'
'detectors_'
'detectives_'
'detained_'
'destroying_'
'desktop_'
'desirable_'
'designers_'
'deserted_'
'describing_'
'describes_'
'descent_'
'derived_'
'der_'
'depths_'
'deposit_'
'deploy_'
'depletion_'
'depended_'
'demonstrating_'
'demolition_'
'democratized_'
'demo_'
'demise_'
'delusional_'
'delicacy_'
'deliberations_'
'delayed_'
'degradation_'
'defy_'
'deflate_'
'defining_'
'defines_'
'defender_'
'defence_'
'defeated_'
'deepest_'
'dedication_'
'decreasing_'
'decompose_'
'declining_'
'declared_'
'deciding_'
'deceived_'
'deceive_'
'decaf_'
'debilitating_'
'debated_'
'debate_'
'dealer_'
'dc_'
'dawn_'
'davis_'
'dated_'
'databases_'
'database_'
'darker_'
'daring_'
'dances_'
'dammed_'
'dame_'
'daggers_'
'cợt_'
'cỗi_'
'cỏi_'
'cẳng_'
'cẩm_'
'cước_'
'cút_'
'cùn_'
'cù_'
'cán_'
'cácbon_'
'càu_'
'càn_'
'cycles_'
'cyber_'
'cuống_'
'cuốc_'
'cuả_'
'cutie_'
'cutest_'
'customized_'
'custody_'
'cussing_'
'curved_'
'curveball_'
'cuneiform_'
'cumulative_'
'cue_'
'cub_'
'cuatro_'
'crust_'
'crushed_'
'cruel_'
'crows_'
'crossword_'
'crosses_'
'crony_'
'critique_'
'critics_'
'criticized_'
'criticize_'
'cripple_'
'crews_'
'creeps_'
'creep_'
'creator_'
'creaks_'
'craziest_'
'crawl_'
'crater_'
'crafted_'
'cracks_'
'cracking_'
'cozy_'
'coyote_'
'cowboys_'
'courtroom_'
'couples_'
'counted_'
'countdown_'
'counseling_'
'couches_'
'costume_'
'costing_'
'cosmic_'
'corrupted_'
'corridors_'
'correlation_'
'correlated_'
'correctness_'
'correction_'
'corpses_'
'corporate_'
'copying_'
'coordinated_'
'cooperative_'
'cooperating_'
'coolest_'
'cooled_'
'cooked_'
'convincing_'
'convert_'
'conversion_'
'convenience_'
'controversy_'
'controller_'
'contracts_'
'continuously_'
'continues_'
'continually_'
'contingent_'
'contest_'
'contentious_'
'contemplating_'
'containing_'
'consume_'
'consultants_'
'constructions_'
'construct_'
'conspiring_'
'conspirators_'
'consolation_'
'consistently_'
'consistent_'
'consistency_'
'consequently_'
'consequence_'
'connective_'
'congestion_'
'confiscating_'
'confiscated_'
'confessed_'
'condos_'
'condo_'
'conditioning_'
'concussion_'
'conclusions_'
'concise_'
'concerts_'
'conceptually_'
'concentrated_'
'conceived_'
'comrade_'
'compromises_'
'comprising_'
'comprised_'
'comprehensive_'
'composites_'
'composite_'
'composed_'
'complaints_'
'complaint_'
'complaining_'
'complained_'
'complain_'
'compilations_'
'competitors_'
'competence_'
'compensation_'
'comparisons_'
'compares_'
'companions_'
'companion_'
'communicating_'
'committees_'
'commissioner_'
'commence_'
'comet_'
'combinations_'
'coma_'
'colorful_'
'colliding_'
'collided_'
'collector_'
'collared_'
'collar_'
'collapsing_'
'collapses_'
'collaborators_'
'collaborative_'
'collaborating_'
'collaborated_'
'coined_'
'coil_'
'cohorts_'
'cognitively_'
'cogito_'
'coding_'
'cocoon_'
'cocky_'
'cocktails_'
'cockroaches_'
'cocaine_'
'coating_'
'clutches_'
'cluster_'
'clowns_'
'clowning_'
'clots_'
'cloth_'
'clot_'
'closes_'
'closeness_'
'clocks_'
'clobbered_'
'clinics_'
'climates_'
'cliffs_'
'clicker_'
'cleveland_'
'clears_'
'clearance_'
'classrooms_'
'classified_'
'clarity_'
'clamor_'
'civilisation_'
'civilian_'
'civic_'
'circus_'
'circles_'
'cipher_'
'chửng_'
'chồn_'
'chẵng_'
'chằng_'
'chật_'
'chầm_'
'chùa_'
'chóp_'
'chèo_'
'chè_'
'chuốt_'
'chuô_'
'churn_'
'chunky_'
'chromosomes_'
'chrissake_'
'chop_'
'choosing_'
'choking_'
'chocolates_'
'chitchat_'
'chipmunks_'
'chilling_'
'chili_'
'chewed_'
'chest_'
'cherry_'
'chen_'
'chemotherapy_'
'chemists_'
'cheesesteak_'
'chauffeur_'
'chatter_'
'chase_'
'charter_'
'charlie_'
'chariot_'
'characterized_'
'chapter_'
'chao_'
'chancellor_'
'champions_'
'chairman_'
'celebrations_'
'cease_'
'caves_'
'caution_'
'cau_'
'cathedrals_'
'cathedral_'
'category_'
'catalogue_'
'castles_'
'cascades_'
'carved_'
'carve_'
'cartoonists_'
'carrots_'
'caregivers_'
'cardholder_'
'carbs_'
'carbonate_'
'capturing_'
'canyon_'
'canvas_'
'cans_'
'canopy_'
'canned_'
'cane_'
'candles_'
'canceled_'
'camel_'
'calories_'
'caliber_'
'calculator_'
'calculations_'
'calculating_'
'caffeine_'
'cabinet_'
'cHúng_'
'bợm_'
'bớ_'
'bổn_'
'bịt_'
'bẹp_'
'bạ_'
'bướng_'
'bùn_'
'bùm_'
'bíp_'
'bét_'
'bàng_'
'bÃ_'
'byte_'
'buốt_'
'buzzing_'
'buyer_'
'butter_'
'businesspeople_'
'buses_'
'bursts_'
'burner_'
'bunkhouse_'
'bunk_'
'bundle_'
'bumped_'
'bulls_'
'bullied_'
'bulk_'
'builds_'
'buggy_'
'bucket_'
'bucardo_'
'brutally_'
'brutality_'
'brushes_'
'bruises_'
'brothels_'
'brothel_'
'broccoli_'
'broader_'
'brightness_'
'brigade_'
'briefcase_'
'brief_'
'bricks_'
'brian_'
'bred_'
'breaths_'
'breakthrough_'
'breached_'
'brat_'
'brassiere_'
'brake_'
'brainwaves_'
'bragging_'
'bra_'
'bows_'
'bowling_'
'bosom_'
'borrowing_'
'boredom_'
'bored_'
'bordering_'
'booze_'
'boong_'
'boogie_'
'booby_'
'bonus_'
'bombshell_'
'bombings_'
'bombers_'
'boiling_'
'bodyguards_'
'boa_'
'blur_'
'blunter_'
'blunt_'
'blues_'
'bloop_'
'blockbuster_'
'blockage_'
'blob_'
'bliss_'
'blink_'
'blinds_'
'blew_'
'bleeds_'
'bleeder_'
'bleed_'
'bleach_'
'blanks_'
'blackmailing_'
'bitterness_'
'bisexual_'
'birthplace_'
'biotechnology_'
'biologist_'
'biodiversity_'
'binoculars_'
'billionaire_'
'biker_'
'bid_'
'bias_'
'bets_'
'berries_'
'bennet_'
'beng_'
'belt_'
'belonging_'
'believer_'
'behold_'
'behaving_'
'behaved_'
'begging_'
'beetle_'
'beers_'
'beehive_'
'beds_'
'bedding_'
'beavers_'
'bearing_'
'beards_'
'beans_'
'beaner_'
'beacon_'
'battling_'
'batting_'
'bats_'
'bathrooms_'
'bat_'
'bass_'
'basin_'
'basics_'
'baseline_'
'bartender_'
'barrow_'
'barrier_'
'barrels_'
'barrel_'
'barracks_'
'barn_'
'barge_'
'bargain_'
'barber_'
'bankrupt_'
'banking_'
'banker_'
'banish_'
'bandwidth_'
'bandits_'
'bandages_'
'banana_'
'balloons_'
'ballistics_'
'ballet_'
'balcony_'
'bake_'
'bail_'
'baggage_'
'backyard_'
'backstage_'
'backs_'
'backed_'
'baboon_'
'axit_'
'awkwardness_'
'awhile_'
'awaken_'
'awaits_'
'avoided_'
'avenging_'
'availability_'
'autumn_'
'autopilot_'
'automotive_'
'autistic_'
'authors_'
'authorization_'
'authoritarian_'
'authenticity_'
'aura_'
'aunts_'
'audiences_'
'attributable_'
'attracts_'
'attractions_'
'attorneys_'
'attitudes_'
'attenuate_'
'attendance_'
'attempts_'
'attacker_'
'attachments_'
'atrocities_'
'athleticism_'
'astronomical_'
'astronauts_'
'astounding_'
'astonishingly_'
'assumes_'
'associations_'
'assembled_'
'assaulting_'
'assaulted_'
'aspects_'
'ascension_'
'ascend_'
'arrays_'
'arrangements_'
'arrange_'
'aroused_'
'arithmetic_'
'argues_'
'areaarea_'
'archer_'
'archeologist_'
'apron_'
'approve_'
'approaches_'
'approached_'
'appreciation_'
'applying_'
'applies_'
'appeals_'
'appalled_'
'apocalypse_'
'apiece_'
'aphids_'
'apes_'
'ape_'
'aortic_'
'anyplace_'
'antivirus_'
'antidote_'
'anticipated_'
'anticipate_'
'anthrax_'
'anonymity_'
'annualized_'
'annoy_'
'annihilation_'
'annex_'
'anise_'
'ancestors_'
'analyzing_'
'analyses_'
'analogy_'
'analogous_'
'analogies_'
'amplifying_'
'amplify_'
'ammonia_'
'amino_'
'ambulances_'
'ambition_'
'amateur_'
'alternatives_'
'alternately_'
'altered_'
'alpha_'
'almonds_'
'alligators_'
'allergic_'
'allegedly_'
'alert_'
'ak_'
'airplanes_'
'airline_'
'aims_'
'aimless_'
'aiming_'
'ahh_'
'aggression_'
'agendas_'
'afterward_'
'afternoons_'
'aft_'
'affordability_'
'aerodynamics_'
'advertise_'
'adventure_'
'advantages_'
'adulthood_'
'ads_'
'adrenalin_'
'adorable_'
'admitted_'
'admirer_'
'admired_'
'administration_'
'addressed_'
'additional_'
'addict_'
'actuators_'
'activists_'
'activated_'
'acrylic_'
'acromegaly_'
'acre_'
'acquired_'
'acquire_'
'acoustical_'
'acorn_'
'aching_'
'ace_'
'accurately_'
'accumulated_'
'accounts_'
'accounting_'
'accountable_'
'accountability_'
'accomplish_'
'accomplice_'
'accommodations_'
'accommodation_'
'accidents_'
'accepts_'
'accelerometer_'
'accelerate_'
'abuses_'
'abundant_'
'abs_'
'abc_'
']: _'
'\u _'
'Zurich_'
'Zulu_'
'Zuba_'
'Zohan_'
'Zixia_'
'Zira_'
'Zhang_'
'Zed_'
'ZK_'
'Yvaine_'
'Yusuf_'
'Yup_'
'Yubaba_'
'Yoon_'
'Yoko_'
'Ying_'
'Yeon_'
'Yemeni_'
'Yellowstone_'
'Yellow_'
'Yee_'
'Years_'
'Yea_'
'Ye_'
'Yay_'
'Yatsko_'
'Yasheng_'
'Yard_'
'Yak_'
'Xử_'
'Xếp_'
'Xấu_'
'Xưởng_'
'Xưa_'
'Xăng_'
'Xúc_'
'Xì_'
'Xã_'
'Xà_'
'Xuy_'
'Xung_'
'Xoắn_'
'Xiao_'
'Xiang_'
'Xian_'
'Xerox_'
'XY_'
'Wyoming_'
'Write_'
'Worldchanging_'
'Working_'
'Woa_'
'Witwicky_'
'Withdraw_'
'Wisconsin_'
'Wired_'
'Winehouse_'
'Windows_'
'Wilkins_'
'Wilder_'
'Wiedersehen_'
'Wieck_'
'Whooly_'
'Whoever_'
'Whitacre_'
'Whenever_'
'Weyland_'
'Wet_'
'Werner_'
'Weren_'
'Went_'
'Wembley_'
'Weinberg_'
'Wegener_'
'Weep_'
'Wednesday_'
'Weasley_'
'Wave_'
'Waterloo_'
'Watching_'
'Wash_'
'Warsaw_'
'Warm_'
'Wardo_'
'Wanted_'
'Wang_'
'Wales_'
'Waco_'
'WILL_'
'Vứt_'
'Vỗ_'
'Vẻ_'
'Vẫy_'
'Vạn_'
'Vườn_'
'Vư_'
'Vĩ_'
'Vãi_'
'Vân_'
'Vác_'
'Vành_'
'Voyager_'
'Von_'
'Vogel_'
'Vodka_'
'Vivaldi_'
'Vishna_'
'Virtual_'
'Violence_'
'Viola_'
'Vinh_'
'Viktor_'
'Vietnamese_'
'Vienna_'
'Vicodin_'
'Vicky_'
'Vibrio_'
'Vianne_'
'Verne_'
'Verdi_'
'Venetian_'
'Vassili_'
'Vanessa_'
'Vader_'
'Vaclav_'
'VI_'
'Uây_'
'Utah_'
'Uruguay_'
'Urp_'
'Urkel_'
'Uri_'
'Uranus_'
'Upper_'
'Unit_'
'Unh_'
'Unferth_'
'Unbreakable_'
'Unbelievable_'
'Un_'
'Umm_'
'Umberto_'
'Umar_'
'Ulrich_'
'Ui_'
'Uhh_'
'Ubuntu_'
'USDA_'
'UMBC_'
'UH_'
'Tộc_'
'Tổn_'
'Tốc_'
'Tỉnh_'
'Tế_'
'Tầng_'
'Tần_'
'Tảng_'
'Tạp_'
'Tạng_'
'Tường_'
'Tước_'
'Tơ_'
'Tĩnh_'
'Tăng_'
'Tò_'
'Tái_'
'Tyson_'
'Typography_'
'Tutu_'
'Turnbull_'
'Turkle_'
'Tunisia_'
'Tucker_'
'Tuck_'
'Tu_'
'Ts_'
'Trực_'
'Trứng_'
'Trục_'
'Trợ_'
'Trộm_'
'Trọng_'
'Trễ_'
'Trật_'
'Trầm_'
'Trư_'
'Trơ_'
'Truy_'
'Trum_'
'Truck_'
'Tronchetti_'
'Trick_'
'Travers_'
'Transporter_'
'Transparency_'
'Transformers_'
'Trai_'
'Trading_'
'Tracked_'
'Tr_'
'Towards_'
'Tough_'
'Touch_'
'Total_'
'Torrance_'
'Torosaurus_'
'Toretto_'
'Topper_'
'Toph_'
'Tooms_'
'Tong_'
'Tombi_'
'Tolstoy_'
'Toilet_'
'Tobias_'
'Toad_'
'Tiện_'
'Tito_'
'Tis_'
'Tired_'
'Tirana_'
'Tiny_'
'Ting_'
'Tina_'
'Tilson_'
'Tilly_'
'Till_'
'Tigers_'
'Tien_'
'Tick_'
'Tibor_'
'Tibbits_'
'Tianqing_'
'Tia_'
'Thừa_'
'Thợ_'
'Thận_'
'Thạc_'
'Thuộc_'
'Thuế_'
'Thuy_'
'Thung_'
'Thunder_'
'Thum_'
'Throughout_'
'Thorwald_'
'Thiệt_'
'Thiền_'
'Thiếp_'
'Thirteen_'
'Theseus_'
'Thermal_'
'Theoden_'
'Thawne_'
'Thatcher_'
'Thang_'
'Thalaron_'
'Thai_'
'Texting_'
'Terrorism_'
'Terrafugia_'
'Terkel_'
'Teng_'
'Tempest_'
'Tel_'
'Tekken_'
'Tehachapi_'
'Team_'
'Teabing_'
'Tatiana_'
'Tasty_'
'Tarja_'
'Tantrum_'
'Tania_'
'Tangles_'
'Tali_'
'Talent_'
'Tahltan_'
'Taggart_'
'Tae_'
'Table_'
'TVs_'
'TINA_'
'THẤY_'
'TEDsters_'
'TEDMED_'
'TA_'
'Sớm_'
'Sắt_'
'Sương_'
'Să_'
'Sô_'
'São_'
'Sâu_'
'Sân_'
'Swear_'
'Swaptree_'
'Swagger_'
'Suỵt_'
'Suzanne_'
'Suu_'
'Sussman_'
'Suspect_'
'Survival_'
'Surprised_'
'Surace_'
'Supreme_'
'Suppose_'
'Sunitha_'
'Summer_'
'Suit_'
'Suellen_'
'Stupid_'
'Stuart_'
'Stu_'
'Stretch_'
'Strength_'
'Streets_'
'Straight_'
'Strabo_'
'Story_'
'Stories_'
'Stones_'
'Sting_'
'Stevie_'
'Stephanie_'
'Steinberg_'
'Starzl_'
'Started_'
'Stars_'
'Stanton_'
'Standing_'
'Springs_'
'Spread_'
'Spooner_'
'Spiro_'
'Spin_'
'Spence_'
'Speech_'
'Spearman_'
'Sparta_'
'Spare_'
'Spam_'
'Spade_'
'Southeast_'
'Sorrow_'
'Soren_'
'Sooner_'
'Sony_'
'Sonny_'
'Someplace_'
'Somali_'
'Solzhenitsyn_'
'Solonius_'
'Solid_'
'Soldier_'
'Sofia_'
'Socrates_'
'Snowden_'
'Smitty_'
'Smile_'
'Smil_'
'Slugline_'
'Slow_'
'Sleepy_'
'Slater_'
'Skeeter_'
'Sixteen_'
'Sivers_'
'Sitting_'
'Sirius_'
'Sire_'
'Single_'
'Sinbad_'
'Simple_'
'Simmons_'
'Similarly_'
'Simba_'
'Silvia_'
'Silver_'
'Silent_'
'Sicora_'
'Sick_'
'Si_'
'Shrek_'
'Shorty_'
'Short_'
'Shocking_'
'Shiv_'
'Shire_'
'Shik_'
'Sheridan_'
'Shepherd_'
'Shelleen_'
'Shelf_'
'Sheldrake_'
'Sheila_'
'Shea_'
'Shawn_'
'Shaun_'
'Shaughnessy_'
'Sharper_'
'Sharmeen_'
'Sharing_'
'Shapshak_'
'Shapiro_'
'Shangri_'
'Shalom_'
'Shack_'
'Sforza_'
'Seymour_'
'Setsuko_'
'Server_'
'Sergio_'
'Sergei_'
'Separate_'
'Sentinel_'
'Sensei_'
'Senor_'
'Selena_'
'Selanikio_'
'Seki_'
'Seen_'
'Seeker_'
'Seeing_'
'Sears_'
'Seaman_'
'Seal_'
'Scottish_'
'Scottie_'
'Scooby_'
'Scientists_'
'Schwarzschild_'
'Schuiten_'
'Schrader_'
'Scar_'
'Scalia_'
'Sayid_'
'Saw_'
'Savrinn_'
'Saunders_'
'Saturn_'
'Satan_'
'Sartre_'
'Sarge_'
'Sarajevo_'
'Sankofa_'
'Sandra_'
'Sandor_'
'Sanders_'
'Samurai_'
'Samaritan_'
'Salluste_'
'Saladin_'
'Saks_'
'Saki_'
'Said_'
'Safety_'
'Safe_'
'Sadusky_'
'Saddam_'
'Sad_'
'Sacrifice_'
'Sabra_'
'Saatchi_'
'SUV_'
'STOP_'
'SOMEONE_'
'SHOULD_'
'SHE_'
'SAY_'
'SAT_'
'SAME_'
'Rừng_'
'Rẽ_'
'Rặn_'
'Răng_'
'Rùa_'
'Rót_'
'Râu_'
'Râ_'
'Rác_'
'Rydell_'
'Rwandan_'
'Ruth_'
'Rushing_'
'Rush_'
'Runway_'
'Running_'
'Rumour_'
'Rufeng_'
'Rue_'
'Rudi_'
'Ruby_'
'Roxy_'
'Rovere_'
'Rourke_'
'Rough_'
'Rothschild_'
'Roses_'
'Rory_'
'Roque_'
'Roper_'
'Rooster_'
'Rooney_'
'Ronny_'
'Ronal_'
'Rolling_'
'Roderick_'
'Rocket_'
'Rocha_'
'Robertson_'
'Roberto_'
'Roald_'
'Riyadh_'
'Rives_'
'Ritz_'
'Rip_'
'Rigg_'
'Rift_'
'Ridley_'
'Rider_'
'Richter_'
'Rhodes_'
'Rhett_'
'Reyer_'
'Reveal_'
'Reunion_'
'Respect_'
'Republican_'
'Republic_'
'Report_'
'René_'
'Renzo_'
'Renquist_'
'Rene_'
'Ren_'
'Reminds_'
'Relationship_'
'Regret_'
'Reggie_'
'Reg_'
'Reform_'
'Recluse_'
'Reaper_'
'Reader_'
'Reach_'
'Razors_'
'Raul_'
'Rasul_'
'Rashomon_'
'Rapunzel_'
'Rape_'
'Rangers_'
'Randyll_'
'Random_'
'Randi_'
'Randall_'
'Rance_'
'Ramsey_'
'Ramon_'
'Ramo_'
'Raleigh_'
'Rainbow_'
'Rahm_'
'Rahl_'
'Ragu_'
'Rafer_'
'Radcliffe_'
'RV_'
'RNA_'
'RING_'
'RE_'
'REESE_'
'Quỳ_'
'Quét_'
'Quào_'
'Quyn_'
'Quidditch_'
'Queens_'
'Que_'
'Quang_'
'Qin_'
'Qalandar_'
'Pérignon_'
'Push_'
'Pure_'
'Punxsutawney_'
'Pullo_'
'Puerto_'
'Psyche_'
'Prozac_'
'Provera_'
'Prosecutor_'
'Principal_'
'Primo_'
'Primatech_'
'Primary_'
'Price_'
'Prewitt_'
'Previously_'
'Presumably_'
'Prego_'
'Predator_'
'Precisely_'
'Pratham_'
'Pranav_'
'Pran_'
'Pradesh_'
'Powers_'
'Powerful_'
'PowerPoint_'
'Pow_'
'Pot_'
'Posada_'
'Portuguese_'
'Portkey_'
'Porter_'
'Porco_'
'Poppy_'
'Pool_'
'Pooch_'
'Pollo_'
'Pollack_'
'Polio_'
'Pogue_'
'Plexiglas_'
'Plenty_'
'Plaza_'
'Playing_'
'Player_'
'Playboy_'
'Plan_'
'Pizza_'
'Pita_'
'Pisani_'
'Pippin_'
'Pinocchio_'
'Pilar_'
'Piff_'
'Pierce_'
'Picture_'
'Picton_'
'Picking_'
'Piano_'
'Phức_'
'Phủ_'
'Phẫu_'
'Phạm_'
'Phí_'
'Phép_'
'Pháo_'
'Phá_'
'Photostat_'
'Phone_'
'Philippines_'
'Philharmonic_'
'Phileas_'
'Phantom_'
'Phanish_'
'Phanh_'
'Ph_'
'Petri_'
'Personally_'
'Persistence_'
'Persia_'
'Persepolis_'
'Perry_'
'Percent_'
'Penny_'
'Pennsylvania_'
'Pena_'
'Pen_'
'Pee_'
'Pear_'
'Peach_'
'Pazu_'
'Payne_'
'Pay_'
'Paulson_'
'Patton_'
'Patch_'
'Past_'
'Password_'
'Passing_'
'Pashtun_'
'Party_'
'Partners_'
'Parting_'
'Particularly_'
'Parks_'
'Paper_'
'Paolo_'
'Pantoufle_'
'Pandora_'
'Pan_'
'Palm_'
'Palin_'
'Palace_'
'Pakistani_'
'Paid_'
'Paganini_'
'Pac_'
'PH_'
'PHONE_'
'PGA_'
'PET_'
'PD_'
'PDAs_'
'PARK_'
'Oái_'
'Oxytocin_'
'Oxygen_'
'Ox_'
'Ovidius_'
'Outside_'
'Ours_'
'Oui_'
'Ouch_'
'Ostia_'
'Oslo_'
'Oskar_'
'Osborne_'
'Osborn_'
'Orval_'
'Ortega_'
'Orly_'
'Organization_'
'Oprah_'
'Operation_'
'Operating_'
'Oozaru_'
'Ooaa_'
'Omenetto_'
'Ollie_'
'Olivia_'
'Olive_'
'Olduvai_'
'Odysseus_'
'Odie_'
'Ockelford_'
'Obi_'
'Obaid_'
'OS_'
'OHH_'
'O2_'
'Nổi_'
'Nốt_'
'Nều_'
'Nạn_'
'Nương_'
'Nươ_'
'Năng_'
'Núp_'
'Nông_'
'Nóng_'
'Nuts_'
'Num_'
'Nova_'
'Noujaim_'
'Notorious_'
'Notice_'
'Nothin_'
'Noses_'
'Northwestern_'
'Northwest_'
'Northmoor_'
'Norma_'
'Norden_'
'Noor_'
'Nool_'
'Niềm_'
'Nita_'
'Nirvana_'
'Nintendo_'
'Ninh_'
'Nikolai_'
'Niki_'
'Nike_'
'Nightingale_'
'Nigger_'
'Niger_'
'Nielsen_'
'Nicolelis_'
'Nicolas_'
'Nico_'
'Nhện_'
'Nhặt_'
'Nhắn_'
'Nhắc_'
'Nhầm_'
'Nhấn_'
'Nhược_'
'Nhiếp_'
'Nhiên_'
'Nhiê_'
'Ngốc_'
'Ngọn_'
'Ngọc_'
'Ngạc_'
'Ngươ_'
'Nguyệt_'
'Nghị_'
'Nghiền_'
'Ng_'
'Newtonian_'
'Newark_'
'Nepal_'
'Neo_'
'Nellie_'
'Neighbors_'
'Nedry_'
'Nebraska_'
'Ndebele_'
'Nazir_'
'Naturally_'
'Nation_'
'Natasha_'
'Natalya_'
'Nascimento_'
'Nao_'
'Nant_'
'Nano_'
'Nanny_'
'Namely_'
'Name_'
'Nalini_'
'Naiyeer_'
'Nairobi_'
'Nagasaki_'
'Naci_'
'Nachtwey_'
'Nabokov_'
'NS_'
'NM_'
'NGOs_'
'NGHE_'
'NEVER_'
'NDD_'
'Mối_'
'Mảnh_'
'Mượn_'
'Môi_'
'Móc_'
'Mê_'
'Mèo_'
'Mysore_'
'Myer_'
'Muội_'
'Muỗi_'
'Muô_'
'Mushroom_'
'Musallam_'
'Muruganantham_'
'Muntze_'
'Mumble_'
'Mulgarath_'
'Muddy_'
'Mubarak_'
'Mt_'
'Movement_'
'Mouthe_'
'Motorola_'
'Motherfucker_'
'Motel_'
'Mostly_'
'Mossad_'
'Morris_'
'Morpheus_'
'Morocco_'
'Mormont_'
'Moria_'
'Morgana_'
'Moreover_'
'Moreau_'
'Mordor_'
'Morally_'
'Monty_'
'Montreal_'
'Month_'
'Monterey_'
'Montenegro_'
'Monster_'
'Mons_'
'Monopoly_'
'Mongolia_'
'Mominqimiao_'
'Mohamed_'
'Miếng_'
'Mistry_'
'Missmahl_'
'Miraz_'
'Minny_'
'Minnesota_'
'Ministry_'
'Milton_'
'Milos_'
'Milk_'
'Miliband_'
'Mili_'
'Mikhail_'
'Mikey_'
'Midwest_'
'Mido_'
'Midnight_'
'Mid_'
'Michelin_'
'Meyerowitz_'
'Mexicans_'
'Metropolitan_'
'Metaphor_'
'Metal_'
'Mermaid_'
'Merle_'
'Merkert_'
'Mercy_'
'Mercedes_'
'Meng_'
'Melvin_'
'Melman_'
'Melly_'
'Mei_'
'Meggendorfer_'
'Meera_'
'Mediterranean_'
'Medical_'
'Mecca_'
'Meacham_'
'McWhorter_'
'McRae_'
'McKinsey_'
'McKee_'
'McKay_'
'McGonagall_'
'McFly_'
'McDonald_'
'McCoy_'
'McCain_'
'McAfee_'
'Maxwell_'
'Maudie_'
'Matias_'
'Materials_'
'Massachusetts_'
'Masazuka_'
'María_'
'Maryann_'
'Marvin_'
'Martyn_'
'Marta_'
'Mart_'
'Marshal_'
'Marsh_'
'Marriage_'
'Maroon_'
'Markham_'
'Marek_'
'Marathon_'
'Maps_'
'MapQuest_'
'Mao_'
'Mantle_'
'Manson_'
'Manolo_'
'Mandy_'
'Mandelbrot_'
'Mandarin_'
'Manche_'
'Management_'
'Malik_'
'Malfoy_'
'Males_'
'Malcom_'
'Malaysia_'
'Malaria_'
'Malaleuca_'
'Mal_'
'Majorek_'
'Mahé_'
'Mahone_'
'Mahmoud_'
'Mahatma_'
'Mahalakshmi_'
'Magnum_'
'Mafundikwa_'
'Madero_'
'Madagascar_'
'Macy_'
'Macs_'
'Macro_'
'Mackenzie_'
'Machine_'
'Mace_'
'MTT_'
'MP3_'
'MORE_'
'MMM_'
'MILF_'
'MI6_'
'MBA_'
'MANIACALLY_'
'MAHA_'
'Lừa_'
'Lục_'
'Lỡ_'
'Lỗ_'
'Lọc_'
'Lẳng_'
'Lật_'
'Lạt_'
'Lạc_'
'LẠI_'
'Lưu_'
'Lưng_'
'Lôi_'
'Lã_'
'Lát_'
'Lái_'
'Lying_'
'Lupus_'
'Lupu_'
'Lunch_'
'Lumpur_'
'Lumiere_'
'Lulubelle_'
'Lulu_'
'Lula_'
'Ludwig_'
'Lucrezia_'
'Lucretia_'
'Luck_'
'Lucille_'
'Lucian_'
'Lowe_'
'Lovegrove_'
'Louvre_'
'Louise_'
'Louie_'
'Lotso_'
'Lots_'
'Looked_'
'Longinus_'
'Log_'
'Lobo_'
'Lloyd_'
'Liều_'
'Lizzie_'
'Livingston_'
'Liu_'
'Littlefoot_'
'Lithuania_'
'Lindy_'
'Lin_'
'Limburger_'
'Lila_'
'Lights_'
'Lies_'
'Lie_'
'Liddy_'
'Libya_'
'Liberal_'
'Lian_'
'Lexus430_'
'Levin_'
'Level_'
'Leukemia_'
'Lets_'
'Lestrade_'
'Lesotho_'
'Leone_'
'Leonard_'
'Lennie_'
'Lemonade_'
'Lei_'
'Legion_'
'Leeds_'
'Lear_'
'League_'
'Lazy_'
'Lawson_'
'Laurent_'
'Lauren_'
'Lau_'
'Latinh_'
'Latif_'
'Lately_'
'Late_'
'Larsson_'
'Larson_'
'Larsen_'
'Large_'
'Laptop_'
'Lanie_'
'Language_'
'Lancelot_'
'Lamia_'
'Lake_'
'Laila_'
'Labs_'
'Laboratories_'
'Lab_'
'LaRue_'
'LOL_'
'LINCOLN_'
'LEGO_'
'LEE_'
'LDL_'
'LAW_'
'LAUGHS_'
'Kỷ_'
'Kịch_'
'Kí_'
'Kê_'
'Kèm_'
'Kyung_'
'Kyi_'
'Kurds_'
'Kui_'
'Kruse_'
'Krueger_'
'Kremlin_'
'Krazy_'
'Kovu_'
'Kouros_'
'Korea_'
'Konichiwa_'
'Kohn_'
'Kohler_'
'Kobe_'
'Koba_'
'Known_'
'Knopf_'
'Knights_'
'Kneel_'
'Kiên_'
'Kiê_'
'Kitty_'
'Kiss_'
'Kirby_'
'Kinsey_'
'Kingdoms_'
'Kindly_'
'Kimberly_'
'Kiki_'
'Khủng_'
'Khôi_'
'Khám_'
'Khái_'
'Khoai_'
'Khan_'
'Khalil_'
'Khaled_'
'Kevlar_'
'Kern_'
'Kent_'
'Kenobi_'
'Kendrick_'
'Kenai_'
'Keener_'
'Keaton_'
'Kazakhstan_'
'Kay_'
'Kawasaki_'
'Kathleen_'
'Kassim_'
'Karenina_'
'Kaori_'
'Kantmiss_'
'Kang_'
'Kalam_'
'Kal_'
'Kahlan_'
'Kacee_'
'Kaaba_'
'KNOCKING_'
'KIPP_'
'KILLER_'
'KHông_'
'KFC_'
'KDK_'
'KANG_'
'Jørgen_'
'Jurassic_'
'Jupiter_'
'Junius_'
'Junior_'
'Juney_'
'Jump_'
'Julian_'
'Juicy_'
'Judging_'
'Juanita_'
'Jordana_'
'Jonson_'
'Jonathan_'
'Jolly_'
'Join_'
'Joerg_'
'Jody_'
'Jobrani_'
'Joanna_'
'Jind_'
'Jester_'
'Jericho_'
'Jeremy_'
'Jep_'
'Jennings_'
'Jen_'
'Jehovah_'
'Jehane_'
'Jedi_'
'Jebb_'
'Jeb_'
'Jeanny_'
'Jazz_'
'Jaw_'
'Javert_'
'Jasmine_'
'Jarrett_'
'Jansen_'
'Janna_'
'Jankis_'
'Janie_'
'Janeiro_'
'Jammy_'
'Jain_'
'Jaime_'
'Jaguar_'
'Ja_'
'JT_'
'JPL_'
'JB_'
'J2_'
'Ixaren_'
'Ives_'
'Ivan_'
'Islamist_'
'Isengard_'
'Isabel_'
'Irắc_'
'Irish_'
'Irag_'
'Ira_'
'Ip_'
'Iong_'
'Invisible_'
'Inuit_'
'Interpol_'
'Interesting_'
'Inspiron_'
'Innocent_'
'Inform_'
'Infinity_'
'Ines_'
'Industrial_'
'Indalecio_'
'Incredible_'
'Inca_'
'Ike_'
'Idiots_'
'Idiot_'
'ISR_'
'IP_'
'IPCC_'
'INCA_'
'Hỡi_'
'Hộ_'
'Hằng_'
'Hắc_'
'Hầm_'
'Hảo_'
'Hạt_'
'Hít_'
'Hây_'
'Hài_'
'Hymie_'
'Hyderabad_'
'Hwi_'
'Huân_'
'Huron_'
'Hurley_'
'Hungry_'
'Hundred_'
'Humans_'
'Huffington_'
'Hudson_'
'Huang_'
'Hoyt_'
'Hour_'
'Hotmail_'
'Hospital_'
'Hoping_'
'Hopefully_'
'Hooray_'
'Honour_'
'Honolulu_'
'Honest_'
'Honda_'
'Hon_'
'Homicide_'
'Homer_'
'Homeland_'
'Holocaust_'
'Hollow_'
'Holbrooke_'
'Hoen_'
'Hodor_'
'Hockenberry_'
'Hobbes_'
'Hoan_'
'Hiển_'
'Hiến_'
'Hiếm_'
'Hitchcock_'
'Hirshhorn_'
'Hiroshi_'
'Himmler_'
'Himalayas_'
'Hills_'
'Hillel_'
'Hijri_'
'Highest_'
'Higher_'
'Higgins_'
'Hiccup_'
'Hershel_'
'Hero_'
'Herman_'
'Hendricks_'
'Heir_'
'Heights_'
'Heesoo_'
'Hedges_'
'Hec_'
'Heatherwick_'
'Hearing_'
'Heads_'
'Hayley_'
'Hayden_'
'Hawks_'
'Hawk_'
'Havana_'
'Hauffe_'
'Hassayampa_'
'Hassan_'
'Harvie_'
'Harvest_'
'Hartman_'
'Harken_'
'Hare_'
'Hardly_'
'Harding_'
'Hara_'
'Hanoi_'
'Hanks_'
'Handspring_'
'Hampton_'
'Hamas_'
'Halonen_'
'Halleluja_'
'Haku_'
'Hadn_'
'Hadley_'
'Hades_'
'Haas_'
'HQ_'
'HLV_'
'HER_'
'HBO_'
'HAL_'
'Gỗ_'
'Gấu_'
'Găng_'
'Gô_'
'Gói_'
'Gây_'
'Gánh_'
'Gái_'
'Gypsy_'
'Gyeon_'
'Gupta_'
'Guns_'
'Gulch_'
'Guards_'
'Guaracy_'
'Guan_'
'Gs_'
'Grégoire_'
'Grunts_'
'Ground_'
'Gretchen_'
'Greta_'
'Grenouille_'
'Gregory_'
'Greenwich_'
'Greenville_'
'Greene_'
'Greely_'
'Gray_'
'Gravity_'
'Grandfather_'
'Grail_'
'Grady_'
'Grade_'
'Gracchus_'
'Gowanus_'
'Gourley_'
'Gotham_'
'Goody_'
'Goodman_'
'Gong_'
'Gomie_'
'Goldilocks_'
'Goehring_'
'Goebel_'
'Goebbels_'
'Godzilla_'
'Gods_'
'Godiva_'
'Godfrey_'
'Gobblers_'
'Gobber_'
'Goal_'
'Goa_'
'Gnaeus_'
'Gleeson_'
'Glee_'
'Gladstone_'
'Giỡn_'
'Giận_'
'Giáp_'
'Già_'
'Giovanni_'
'Gina_'
'Gill_'
'Gilda_'
'Gil_'
'Gian_'
'Gi_'
'Ghét_'
'Gettysburg_'
'Geta_'
'Gershwin_'
'Gerry_'
'Germaine_'
'Gerlach_'
'Gerald_'
'Geographic_'
'Genspace_'
'Genome_'
'Geneva_'
'Genesis_'
'Gemma_'
'Geert_'
'Gaza_'
'Gavin_'
'Garten_'
'Garrison_'
'Garone_'
'Gardner_'
'Garden_'
'Garbo_'
'Gapminder_'
'Ganđi_'
'Gandhian_'
'Gambrelli_'
'Gaius_'
'Gabe_'
'GW_'
'GASPING_'
'Fusco_'
'Furius_'
'Funny_'
'Fung_'
'Full_'
'Fry_'
'Frost_'
'Friendster_'
'Friends_'
'Friedrich_'
'Friedman_'
'Freud_'
'Freeland_'
'Frankly_'
'Frankenstein_'
'Francoise_'
'Francois_'
'Francine_'
'Francesca_'
'Frabjous_'
'Fourier_'
'Fosse_'
'Foss_'
'Forum_'
'Fortunato_'
'Forgot_'
'Forensics_'
'Foote_'
'Foo_'
'Fong_'
'Folks_'
'Foley_'
'Focus_'
'Floyd_'
'Floor_'
'Flo_'
'Flip_'
'Flat_'
'Flash_'
'Flame_'
'Fitzherbert_'
'Fitzgerald_'
'Fitz_'
'Fist_'
'Fireflies_'
'Fiorenzo_'
'Finn_'
'Finished_'
'Fighting_'
'Fifty_'
'Fifth_'
'Fifteen_'
'Fields_'
'Fi_'
'Fetch_'
'Festo_'
'Ferrari_'
'Fenway_'
'Felton_'
'Feki_'
'Feels_'
'Federation_'
'Fearless_'
'Fasto_'
'Faster_'
'Fascinating_'
'Farmville_'
'Fargo_'
'Fantastic_'
'Faiza_'
'Fairbanks_'
'Fair_'
'FRIEND_'
'FOUND_'
'FIND_'
'FEMA_'
'FBl_'
'FATHER_'
'FARC_'
'Ezylryb_'
'Extremely_'
'Explorer_'
'Explain_'
'Evidence_'
'Evening_'
'Evacuate_'
'Europeans_'
'Eureka_'
'Ethiopian_'
'Etete_'
'Estonia_'
'Esther_'
'Ervin_'
'Ernst_'
'Ernie_'
'Erik_'
'Erez_'
'Enter_'
'Engage_'
'Energy_'
'Encyclopedia_'
'Enceladus_'
'Emmett_'
'Emmanuelle_'
'Emmanuel_'
'Emilio_'
'Emilia_'
'Emanuel_'
'Elysian_'
'Elyn_'
'Elsa_'
'Elphias_'
'Elle_'
'Elisa_'
'Eliot_'
'Elijah_'
'Electrolux_'
'Elastic_'
'Elaine_'
'Eighty_'
'Eiffel_'
'Ego_'
'Eglantyne_'
'Egan_'
'Edwards_'
'Edmund_'
'Edi_'
'Edge_'
'Ecuador_'
'EcoRock_'
'Eating_'
'Earp_'
'Early_'
'Ear_'
'ER_'
'ENOUGH_'
'EMP_'
'EMMA_'
'ED_'
'Dọn_'
'Dược_'
'Dũng_'
'Dyson_'
'Dwight_'
'Duyên_'
'Dust_'
'Durga_'
'Durban_'
'Duran_'
'Duolingo_'
'Dunk_'
'Dump_'
'Duflo_'
'DryBath_'
'Driving_'
'Dream_'
'Drazen_'
'Drake_'
'Dracula_'
'Dracorex_'
'Douchebag_'
'Doswell_'
'Dorothy_'
'Doris_'
'Dorado_'
'Doole_'
'Done_'
'Domina_'
'Dodge_'
'Dodd_'
'Doanh_'
'Django_'
'Diệp_'
'Dixon_'
'Dixie_'
'Divine_'
'Dita_'
'District_'
'Discovery_'
'Dis_'
'Dirt_'
'Dione_'
'Dinoco_'
'Dima_'
'Digest_'
'Diffee_'
'Dickie_'
'DiCaprio_'
'Dez_'
'Devil_'
'Desmond_'
'Designing_'
'Der_'
'Depp_'
'Depends_'
'Denver_'
'Denmark_'
'Denis_'
'Democrat_'
'Demeo_'
'Della_'
'Delighted_'
'Delhi_'
'Delcavoli_'
'Del_'
'Dega_'
'Defense_'
'Deer_'
'Decker_'
'Deck_'
'Debora_'
'Dearest_'
'Deanne_'
'Deakins_'
'Deacon_'
'Dax_'
'Daughter_'
'Dastan_'
'Dartmouth_'
'Darth_'
'Darling_'
'Dario_'
'Dao_'
'Dante_'
'Danh_'
'Danger_'
'Dammit_'
'Daisy_'
'Daae_'
'DVDs_'
'DRC_'
'DEPTHX_'
'DA_'
'Cử_'
'CỬA_'
'Cứt_'
'Cống_'
'Cốc_'
'Cấu_'
'Cạo_'
'Cường_'
'Còng_'
'Cynthia_'
'Cyclops_'
'Cyber_'
'Cutkosky_'
'Customers_'
'Cusimano_'
'Curtis_'
'Currently_'
'Curious_'
'Cup_'
'Cung_'
'Cummings_'
'Culture_'
'Cultural_'
'Cu_'
'Cruise_'
'Crouch_'
'Crossing_'
'Critic_'
'Crime_'
'Crewe_'
'Crenshaw_'
'Creek_'
'Creative_'
'Crap_'
'Cranbrook_'
'Cowboy_'
'Covering_'
'Cousin_'
'Courtney_'
'Courtine_'
'Courtesy_'
'Course_'
'Count_'
'Counselor_'
'Cougs_'
'Cossinius_'
'Cosmo_'
'Cosette_'
'Corporal_'
'Corp_'
'Cornell_'
'Coral_'
'Cops_'
'Copper_'
'Cooperman_'
'Conventional_'
'Connie_'
'Conners_'
'Conlon_'
'Comrade_'
'Computers_'
'Computer_'
'Comply_'
'Commons_'
'Commissioner_'
'Commission_'
'Commissar_'
'Commandments_'
'Comanche_'
'Colombian_'
'Collingwood_'
'Collider_'
'Coin_'
'Coimbatore_'
'Cohen_'
'Coffee_'
'Clyde_'
'Clough_'
'Cloud_'
'Closed_'
'Clooney_'
'Clinic_'
'Cleveland_'
'Cleary_'
'Clean_'
'Claus_'
'Claudius_'
'Clarence_'
'Clair_'
'Citizens_'
'Circus_'
'Cinderella_'
'Cinco_'
'Cincinnati_'
'Cibola_'
'Chứng_'
'Chớ_'
'Chịu_'
'Chặn_'
'Chấn_'
'Chảy_'
'Chơ_'
'Chăm_'
'Chí_'
'Chén_'
'Chèo_'
'Chuột_'
'Chuông_'
'Chul_'
'Christo_'
'Christina_'
'Christie_'
'Christians_'
'Christianity_'
'Christchurch_'
'Christakis_'
'Chow_'
'Chop_'
'Chon_'
'Choir_'
'Choi_'
'Chipmunks_'
'Chinoy_'
'Chim_'
'Chill_'
'Chicken_'
'Chev_'
'Chester_'
'Cherie_'
'Chemicals_'
'Cheers_'
'Cheering_'
'Chatrou_'
'Character_'
'Chapter_'
'Chappelle_'
'Chaplin_'
'Chapel_'
'Chanlder_'
'Chance_'
'Champs_'
'Championship_'
'Challenge_'
'Chair_'
'Cenci_'
'Celebrate_'
'Cazaterras_'
'Cavanaugh_'
'Caucasian_'
'Cassius_'
'Caspar_'
'Cas_'
'Cartaya_'
'Carta_'
'Carry_'
'Carpy_'
'Carmen_'
'Carlyle_'
'Carlotta_'
'Caribbean_'
'Caps_'
'Capetown_'
'Cape_'
'Canyons_'
'Canyon_'
'Cantonese_'
'Cancer_'
'Campuchia_'
'Campaign_'
'Cambodia_'
'Calthrop_'
'Caltech_'
'Calne_'
'Callie_'
'Called_'
'Cali_'
'Caledonian_'
'Cal_'
'Caju_'
'Caitlin_'
'Cage_'
'Cacao_'
'CPU_'
'COULD_'
'CORTLAND_'
'CLANK_'
'CHUCKLE_'
'CHOOSE_'
'CHAT_'
'CH4_'
'CAO_'
'C4_'
'Bự_'
'Bột_'
'Bội_'
'Bọc_'
'Bỉ_'
'Bầy_'
'Bấy_'
'Bạc_'
'Bơi_'
'Bă_'
'Bôi_'
'Bóp_'
'Bé_'
'Báu_'
'Buông_'
'Button_'
'Butt_'
'Butler_'
'Burundi_'
'Burt_'
'Burkina_'
'Bureau_'
'Bundi_'
'Bums_'
'Bumblebee_'
'Buildings_'
'Builders_'
'Buford_'
'Buffy_'
'Buffett_'
'Buckbeak_'
'Bubbling_'
'Brucie_'
'Broom_'
'Brockman_'
'Broadway_'
'Broadsword_'
'Britannica_'
'Brit_'
'Brilliant_'
'Brighton_'
'Bridger_'
'Bride_'
'Brick_'
'Brewer_'
'Brethren_'
'Brené_'
'Brenda_'
'Brave_'
'Brando_'
'Brake_'
'Bragg_'
'Bradley_'
'Bradford_'
'Boyeur_'
'Bowl_'
'Bourne_'
'Bouba_'
'Bottles_'
'Bosnian_'
'Borrowers_'
'Borges_'
'Borane_'
'Bora_'
'Boot_'
'Bongo_'
'Bolte_'
'Bolt_'
'Bolivia_'
'Boeuf_'
'Boeing_'
'Bobo_'
'Boat_'
'Board_'
'Bluetooth_'
'Blow_'
'Blood_'
'Blondin_'
'Blond_'
'Bliss_'
'Blind_'
'Blazers_'
'Blank_'
'Blanche_'
'Blah_'
'Blackwood_'
'Blackwolf_'
'Biểu_'
'Biên_'
'Bitu_'
'Bite_'
'Bisbee_'
'Birds_'
'Birch_'
'Bingley_'
'Bing_'
'Bin_'
'Bills_'
'Bighorn_'
'Bigger_'
'Biblical_'
'Bhutto_'
'Bhabha_'
'Bettie_'
'Betsy_'
'Bertioga_'
'Bertie_'
'Bernoulli_'
'Bernini_'
'Bernie_'
'Bernardo_'
'Bernard_'
'Berlicot_'
'Berkley_'
'Benoit_'
'Beneke_'
'Benazir_'
'Bellagio_'
'Behold_'
'Behind_'
'Beginning_'
'Beethoven_'
'Beck_'
'Becca_'
'Beauty_'
'Beauregard_'
'Beatdown_'
'Beat_'
'Bavaria_'
'Batiatus_'
'Bathroom_'
'Bastards_'
'Basque_'
'Basit_'
'Basil_'
'Bash_'
'Based_'
'Barón_'
'Bartlett_'
'Barrier_'
'Barr_'
'Barclays_'
'Barbossa_'
'Barbados_'
'Bar_'
'Baltimore_'
'Balo_'
'Ballou_'
'Ballbot_'
'Ball_'
'Baker_'
'Bahubali_'
'Bagwell_'
'Bag_'
'Bacteria_'
'Bacha_'
'Bach_'
'Babi_'
'Babble_'
'Babbitt_'
'Babbage_'
'BOPE_'
'BOB_'
'BM_'
'BB_'
'BASE_'
'Aviv_'
'Avelile_'
'Autonomy_'
'Autobots_'
'Auto_'
'Auschwitz_'
'Auntie_'
'Aung_'
'Auf_'
'Atticus_'
'Attack_'
'Atom_'
'Atkins_'
'Athos_'
'Ashitaka_'
'Asher_'
'Ashanti_'
'Arya_'
'Arvind_'
'Arunachalam_'
'Artificial_'
'Arryn_'
'Arrest_'
'Arnold_'
'Armstrong_'
'Armando_'
'Arkin_'
'Aristotelian_'
'Aringarosa_'
'Ariely_'
'Ariel_'
'Arguing_'
'Archipelago_'
'Arby_'
'Apollonia_'
'Anytime_'
'Anti_'
'Annan_'
'Ankertill_'
'Anja_'
'Animal_'
'Ani_'
'Angel_'
'André_'
'Android_'
'Andrews_'
'Andrei_'
'Andes_'
'Anatotitan_'
'Anas_'
'Anarchy_'
'Amore_'
'Amor_'
'Among_'
'Americas_'
'Amelia_'
'Ambrose_'
'Amber_'
'Amadeo_'
'Allied_'
'Alley_'
'Allen_'
'Alisa_'
'Alfredo_'
'Alessi_'
'Alessandro_'
'Alert_'
'Aldous_'
'Aldo_'
'Albus_'
'Album_'
'Alberta_'
'Alain_'
'Aladeen_'
'Alabama_'
'Aimee_'
'Aid_'
'Ahn_'
'Ahmed_'
'Aha_'
'Agency_'
'Afrikaans_'
'Africans_'
'Afganistan_'
'Admit_'
'Acquisti_'
'Abigail_'
'Abdul_'
'ARN_'
'AN_'
'ALS_'
'? (_'
'? "_'
';, _'
'; — _'
'; @ _'
'; ? _'
'; ? &_'
'90s_'
'876_'
'86_'
'864_'
'84k_'
'82_'
'81_'
'7929_'
'78_'
'7863_'
'7851_'
'76_'
'747_'
'737_'
'71_'
'68_'
'680_'
'67_'
'66_'
'6000_'
'5th_'
'5s_'
'5h_'
'57_'
'555_'
'52_'
'4Shbab_'
'464_'
'439_'
'411_'
'410_'
'4000_'
'3G_'
'2nd_'
'299_'
'27th_'
'257_'
'233_'
'206_'
'2012_'
'1st_'
'1h_'
'199_'
'1997_'
'1995_'
'1991_'
'1988_'
'1984_'
'1982_'
'1976_'
'1968_'
'1963_'
'1960s_'
'1958_'
'1956_'
'1947_'
'1939_'
'1929_'
'1926_'
'1903_'
'1901_'
'1882_'
'1859_'
'1800s_'
'17th_'
'175_'
'172_'
'1600s_'
'1600_'
'128_'
'118_'
'107_'
'104_'
'10000_'
'06_'
'0600_'
'.:_'
'.: _'
'./_'
'.........._'
'..... _'
'... ♪_'
'... ..._'
'... -_'
'... - ..._'
'... (_'
'... #_'
'.. ... _'
'.. . _'
'." - _'
'. [ _'
'. -- _'
'. - - _'
'. ( _'
'. # _'
'-... _'
'-- &_'
'-"_'
'- '_'
',.._'
',... .. _'
', ♪ ♪ _'
', , _'
', $_'
', #_'
', " _'
') (_'
'( _'
'", "_'
'""_'
'""?_'
'! ?_'
'! ..._'
'! -_'
'! - [_'
'! - (_'
'! (_'
' ♪ _'
' ─_'
' … _'
' — — _'
' ] - _'
' = _'
' . ... _'
' . "_'
' ---_'
' , ... _'
' , , _'
' ( _'
' ' _'
' # _'
' # - # _'
' " _'
' ! - _'
' ! ! !_'
'ﬂoor_'
'重情義啊_'
'謝謝你_'
'落花配對配夕陽_'
'漂亮_'
'最可怕的敵人終於出現_'
'方世傑灌籃_'
'我就知道_'
'不要理我啦_'
'♫♫ _'
'♫_'
'♪ ♪ _'
'♪ "_'
'⁈_'
'ỳ_'
'ự_'
'ừmmm_'
'ụ_'
'ợt_'
'ợ_'
'ỡ_'
'ởi_'
'ới_'
'Ớt_'
'ỚN_'
'ộc_'
'Ồi_'
'ốt_'
'ốp_'
'ối_'
'ố_'
'ốOop_'
'Ốm_'
'Ố_'
'ọi_'
'ịch_'
'ến_'
'ẻm_'
'Ẻo_'
'ẳm_'
'ắt_'
'ập_'
'Ầ_'
'Ấm_'
'Ạnh_'
'τhat_'
'Υou_'
'Τreacherous_'
'Τhis_'
'Τell_'
'Τae_'
'Μy_'
'Μidnight_'
'Ηow_'
'Ηey_'
'Βеn_'
'Βut_'
'Αrrietty_'
'Αre_'
'Αndreuccio_'
'Αll_'
'̀_'
'̣?_'
'̣? _'
'̣...._'
'̣ "_'
'̉!_'
'̉ ?_'
'̃._'
'́: "_'
'́... _'
'́,_'
'̀? - _'
'̀...._'
'̀-_'
'̀ , _'
'̀ !_'
'ưự_'
'ướp_'
'ươi_'
'Ương_'
'Ưngnh_'
'Ưinàycçatôi_'
'Ơi_'
'ĩ_'
'đựơc_'
'đủi_'
'đụn_'
'đụ_'
'đởn_'
'đớ_'
'đọa_'
'đị_'
'đểcứurỗimột_'
'đẫn_'
'đẫ_'
'đấng_'
'đượng_'
'đượcđiều_'
'đười_'
'đưới_'
'đước_'
'đưng_'
'đăc_'
'đúp_'
'đú_'
'đóđến_'
'đóm_'
'đíp_'
'đìa_'
'đênh_'
'đãu_'
'đáu_'
'đát_'
'đánhngấtxỉu_'
'đác_'
'đuô_'
'đung_'
'đtdd_'
'đt_'
'đso_'
'đoạ_'
'đom_'
'đoang_'
'điếng_'
'điôxít_'
'đay_'
'đag_'
'Đửa_'
'Đứt_'
'Đổ_'
'Đốn_'
'Đốc_'
'Địch_'
'Đệt_'
'ĐỆT_'
'Đẳng_'
'Đập_'
'Đấm_'
'ĐẤU_'
'Đượcrồi_'
'Đươc_'
'ĐƯợc_'
'ĐƯỜNG_'
'Đơi_'
'Đù_'
'Đôỉ_'
'Đòn_'
'Đòan_'
'Đích_'
'Đêch_'
'Đèn_'
'Đâm_'
'Đành_'
'Đuợc_'
'Đuô_'
'Đoàn_'
'Đm_'
'Điền_'
'Điềm_'
'Điêu_'
'Đay_'
'Đam_'
'Đai_'
'ĐTDĐ_'
'ĐOÁN_'
'ĐH_'
'ĐCM_'
'ùa_'
'ôxi_'
'ôliu_'
'ôc_'
'ðôìt_'
'ðôìi_'
'í_'
'âylà_'
'áº_'
'ách_'
'àoo_'
'Úy_'
'× _'
'Ôtô_'
'Ônglà_'
'Ôliu_'
'Ôh_'
'ÔI_'
'Óngtínhluy_'
'Ðừng_'
'Ðồ_'
'Ðược_'
'Ðưa_'
'Ðóng_'
'Ðó_'
'Ðài_'
'Études_'
'Élysées_'
'È_'
'Æ_'
'Ây_'
'Áp_'
'Àh_'
'¿ _'
'½_'
'·_'
'´_'
'±_'
'¯_'
'¬_'
'© _'
'£ _'
'¢._'
' : _'
'}♪_'
'}._'
'{\\*_'
'{\\* _'
'zậy_'
'zurich_'
'zooplankton_'
'zoobi_'
'zoo_'
'zombie_'
'zodiac_'
'zits_'
'zitis_'
'ziti_'
'zinc_'
'zigzag_'
'zich_'
'zeros_'
'zeroes_'
'zend_'
'zealotry_'
'zeal_'
'zai_'
'z_'
'yểu_'
'yến_'
'yêm_'
'yule_'
'yuck_'
'ythôi_'
'yout_'
'yourworld_'
'yoursehf_'
'yoursef_'
'yourjob_'
'youngsters_'
'yields_'
'yi_'
'yen_'
'yellowfin_'
'yelled_'
'yearnings_'
'yearn_'
'yearly_'
'yawning_'
'yawn_'
'yaw_'
'yas_'
'yarvaxea_'
'yarmulke_'
'yardarms_'
'yaps_'
'yaourt_'
'yanked_'
'yank_'
'yammering_'
'yamagato_'
'yall_'
'yaks_'
'xữ_'
'xửa_'
'xụp_'
'xới_'
'xớ_'
'xổng_'
'xốt_'
'xịn_'
'xị_'
'xỉa_'
'xề_'
'xết_'
'xẻ_'
'xắp_'
'xấc_'
'xản_'
'xạo_'
'xạc_'
'xược_'
'xư_'
'xúm_'
'xúi_'
'xôn_'
'xôm_'
'xóng_'
'xóc_'
'xép_'
'xéo_'
'xém_'
'xèo_'
'xãy_'
'xào_'
'xy_'
'xuỵt_'
'xuể_'
'xuýt_'
'xuâ_'
'xuyến_'
'xtrôm_'
'xtrom_'
'xoè_'
'xoát_'
'xoài_'
'xoi_'
'xoe_'
'xiềng_'
'xiết_'
'xiêm_'
'xing_'
'xettec_'
'xenophobic_'
'xemới_'
'xelô_'
'x5_'
'wả_'
'wé_'
'www_'
'wushu_'
'wuhahaha_'
'wrongs_'
'wrongly_'
'wrongheaded_'
'wrists_'
'wreck_'
'wrath_'
'wrapped_'
'wove_'
'wouldst_'
'woulda_'
'worships_'
'worshippers_'
'worryingly_'
'worrisome_'
'wormhole_'
'worldview_'
'worldnow_'
'worldly_'
'workup_'
'workshops_'
'workshop_'
'workouts_'
'workload_'
'workbench_'
'workable_'
'woosel_'
'woodpecker_'
'woodland_'
'woodblock_'
'wondrous_'
'wonderfully_'
'womb_'
'womanhood_'
'wolf_'
'wok_'
'woefully_'
'woah_'
'wizards_'
'witty_'
'wittle_'
'wits_'
'witnessing_'
'witnesses_'
'witnessed_'
'withstands_'
'withnocoat_'
'withheld_'
'withhair_'
'withered_'
'withdrew_'
'withdraws_'
'withdrawing_'
'witha_'
'wision_'
'wiring_'
'wireframe_'
'wiping_'
'wipers_'
'wintering_'
'winners_'
'winks_'
'wingspan_'
'windshield_'
'windmills_'
'windmill_'
'winding_'
'winded_'
'winch_'
'wimpy_'
'wily_'
'willy_'
'willingly_'
'wildlings_'
'wildling_'
'wifi_'
'wiener_'
'widows_'
'widmore_'
'widespread_'
'wicks_'
'wickedness_'
'wicked_'
'wick_'
'whoosh_'
'whoosah_'
'whooping_'
'wholeness_'
'whodoesn_'
'whizz_'
'whites_'
'whitened_'
'whitaker_'
'whistled_'
'whisperers_'
'whisky_'
'whirlpool_'
'whirled_'
'whiplash_'
'whine_'
'whereon_'
'wherein_'
'whereby_'
'whats_'
'whatchamacallit_'
'whassup_'
'wha_'
'wetsuit_'
'wept_'
'welts_'
'welshing_'
'welder_'
'welcomed_'
'weirdest_'
'weights_'
'weighted_'
'weesong_'
'weepy_'
'weeping_'
'weep_'
'weekends_'
'weekday_'
'wedded_'
'webs_'
'webbing_'
'weaves_'
'weatherman_'
'wearisome_'
'wean_'
'weaklings_'
'weaker_'
'weakened_'
'wayward_'
'waylaid_'
'waxy_'
'waxed_'
'wavelengths_'
'waved_'
'watt_'
'watermark_'
'waterlogged_'
'waterbending_'
'waterbender_'
'watchtower_'
'wast_'
'washroom_'
'washboard_'
'warts_'
'wartime_'
'warranty_'
'warped_'
'warns_'
'warmed_'
'warhead_'
'warfare_'
'wards_'
'wardrobe_'
'ward_'
'wantd_'
'wanderer_'
'wander_'
'wamt_'
'waltz_'
'walled_'
'wallboard_'
'walkshed_'
'walkie_'
'walkers_'
'walkability_'
'waived_'
'waits_'
'waiter_'
'wailing_'
'wah_'
'waging_'
'wage_'
'waffle_'
'waddle_'
'vựng_'
'vửa_'
'vứa_'
'vụi_'
'vợt_'
'vởn_'
'vớianhchànggiao_'
'vồng_'
'vồ_'
'vọg_'
'vọc_'
'vỉ_'
'vệtôikhỏichúGeoffrey_'
'vể_'
'vềmộtcuộcphỏngvấndotôi_'
'vặn_'
'vẵn_'
'vằm_'
'vắn_'
'vậythôi_'
'vấy_'
'vảo_'
'vạt_'
'vạm_'
'vưởng_'
'vường_'
'vơi_'
'vút_'
'vói_'
'vò_'
'vên_'
'vãnh_'
'váo_'
'vái_'
'vày_'
'vành_'
'vàmộtsố_'
'vàl_'
'vÃ_'
'vv_'
'vulnerabilities_'
'vs_'
'voyages_'
'voyage_'
'vowels_'
'vow_'
'vouch_'
'vorth_'
'volley_'
'volition_'
'volatile_'
'voicemail_'
'vocalizing_'
'vocalizations_'
'viêt_'
'vivre_'
'vivo_'
'vividly_'
'vivacity_'
'vitamins_'
'vitality_'
'visualized_'
'vista_'
'visits_'
'visitors_'
'visionary_'
'visibility_'
'virut_'
'virility_'
'vip_'
'violon_'
'violinist_'
'violet_'
'violations_'
'violated_'
'vinyl_'
'vindictive_'
'vinci_'
'villainous_'
'vile_'
'vikes_'
'vigilantes_'
'vigilante_'
'views_'
'viewed_'
'vienen_'
'vielen_'
'videotaped_'
'victor_'
'victimless_'
'victimizing_'
'vicissitudes_'
'viceroy_'
'vicariously_'
'vibrations_'
'vibration_'
'vibrating_'
'vibrate_'
'vibius_'
'vibe_'
'vials_'
'vexing_'
'vexed_'
'veterinarian_'
'vet_'
'vests_'
'vested_'
'vertically_'
'vertebrates_'
'vertebrae_'
'verse_'
'vermouth_'
'veriry_'
'verify_'
'verification_'
'verges_'
'verdict_'
'verde_'
'verbatim_'
'verbalization_'
'ver_'
'venue_'
'vents_'
'ventral_'
'ventilator_'
'ventilated_'
'vented_'
'venison_'
'veneer_'
'venal_'
'velocity_'
'vein_'
'veiled_'
'vegetarians_'
'vegetarian_'
'vegetable_'
'vegas_'
'veg_'
'vector_'
'vawo_'
'vato_'
'vase_'
'vasculitis_'
'vary_'
'varieties_'
'variable_'
'vapor_'
'vanity_'
'vanishes_'
'vanessa_'
'vancomycin_'
'vanEngelsdorp_'
'valueless_'
'valor_'
'valleys_'
'valley_'
'vale_'
'vaginas_'
'vacxin_'
'vaccinators_'
'vaccinator_'
'vaccinations_'
'vaccination_'
'vaccinated_'
'vaccinate_'
'vacations_'
'vacationing_'
'vacated_'
'vacancy_'
'vV_'
'uổng_'
'uýt_'
'uý_'
'uô_'
'uyển_'
'uttermost_'
'utterly_'
'utterances_'
'utterance_'
'utilizing_'
'utilized_'
'utilize_'
'utility_'
'uterus_'
'utero_'
'utensils_'
'usurping_'
'usefullness_'
'usedto_'
'usd_'
'usage_'
'usable_'
'urologist_'
'urinary_'
'uric_'
'urges_'
'urgently_'
'urged_'
'urchin_'
'urbanism_'
'uptake_'
'upstream_'
'upstage_'
'uprising_'
'upright_'
'upload_'
'upland_'
'upiniquins_'
'upinambá_'
'upgrades_'
'update_'
'upcycled_'
'upcountry_'
'unyielding_'
'unwittingly_'
'unwise_'
'unwinds_'
'unwind_'
'unwilling_'
'unwelcome_'
'unveiling_'
'unveil_'
'unusually_'
'untrustworthy_'
'untie_'
'untapped_'
'untangle_'
'unsustainable_'
'unsurprisingly_'
'unsubs_'
'unstuck_'
'unsolved_'
'unsettling_'
'unseen_'
'unsealed_'
'unscrupulous_'
'unsatisfying_'
'unsafe_'
'uns_'
'unruly_'
'unromantic_'
'unresolved_'
'unremarkable_'
'unrelated_'
'unravels_'
'unquiet_'
'unprofessional_'
'unproductive_'
'unprocessed_'
'unpretentious_'
'unprepared_'
'unplugged_'
'unpacks_'
'unpacked_'
'unorthodox_'
'uno_'
'unnavigable_'
'unnatural_'
'unnamed_'
'unmet_'
'unmemorable_'
'unmarried_'
'unlucky_'
'unloading_'
'unloaded_'
'unload_'
'unleash_'
'unknowingly_'
'unjust_'
'universals_'
'universally_'
'unites_'
'uniquely_'
'uninvited_'
'unintended_'
'unintelligably_'
'uninspiring_'
'uninhabited_'
'unimpeachable_'
'unimpaired_'
'unify_'
'uniforms_'
'unified_'
'unhorse_'
'unheated_'
'unheard_'
'ungulate_'
'ungrateful_'
'ungodly_'
'ungainly_'
'unfurling_'
'unfriendly_'
'unfortunate_'
'unforgettable_'
'unfixable_'
'unfeasibly_'
'unfavorable_'
'unfaithfulness_'
'unethical_'
'unemotional_'
'unembarrassed_'
'uneducated_'
'uneasy_'
'unearth_'
'undoubtedly_'
'undo_'
'undifferentiated_'
'underwire_'
'underutilized_'
'undertook_'
'undertake_'
'understated_'
'understandable_'
'undernutrition_'
'undermined_'
'undermine_'
'underly_'
'underlings_'
'undergraduate_'
'underestimated_'
'underdogs_'
'underage_'
'undeniable_'
'undefeated_'
'uncovers_'
'uncovering_'
'uncorny_'
'uncopyable_'
'unconvinced_'
'uncompromising_'
'uncoated_'
'uncles_'
'uncivilised_'
'uncharacteristically_'
'uncertain_'
'uncanny_'
'uncannily_'
'unborn_'
'unblinking_'
'unbelievers_'
'unbearable_'
'unbandaged_'
'unbalanced_'
'unaware_'
'unavailable_'
'unauthorised_'
'unattended_'
'unassisted_'
'unagi_'
'unacceptable_'
'unabashed_'
'ultrasonic_'
'ulcerating_'
'ul_'
'uhul_'
'uhhh_'
'ugliest_'
'ugh_'
'uding_'
'ubuntu_'
'tỳ_'
'tực_'
'tổi_'
'tồng_'
'tốp_'
'tỏi_'
'tọi_'
'tịnh_'
'tịa_'
'tệp_'
'tễnh_'
'tề_'
'tết_'
'tếp_'
'tắp_'
'tấp_'
'tạnh_'
'tạch_'
'tươm_'
'tưng_'
'tơi_'
'tút_'
'tùm_'
'tôt_'
'tôiđãthôngqua_'
'tôiquáyếu_'
'tôilàm_'
'tót_'
'tòi_'
'tòan_'
'tìnH_'
'tèo_'
'tåiconkhông_'
'tâng_'
'táng_'
'tành_'
'tyrannical_'
'typography_'
'typographical_'
'typify_'
'typewriter_'
'twork_'
'twojust_'
'twitching_'
'twitch_'
'twists_'
'twigs_'
'twerp_'
'twenties_'
'tweeting_'
'tweeted_'
'tweedy_'
'tweaker_'
'tweak_'
'tuồi_'
'tuẫn_'
'tuơng_'
'tuông_'
'tuyểu_'
'tuyền_'
'tuxes_'
'tuxedo_'
'tux_'
'turquoise_'
'turntables_'
'turntable_'
'turnout_'
'turnoff_'
'turner_'
'turnaround_'
'turk_'
'turbulent_'
'tunneling_'
'tuning_'
'tuney_'
'tum_'
'tuition_'
'tugs_'
'tucked_'
'tubes_'
'tuabin_'
'ts_'
'trụy_'
'trổ_'
'trồi_'
'trọt_'
'trịnh_'
'trịa_'
'trẹo_'
'trằn_'
'trạnh_'
'trơi_'
'trũ_'
'trăn_'
'tră_'
'trô_'
'tròng_'
'trênbàn_'
'trê_'
'tréo_'
'trâu_'
'trâm_'
'tráo_'
'trành_'
'tryin_'
'truồng_'
'truyê_'
'trusty_'
'trusts_'
'trumps_'
'trumpet_'
'truckload_'
'truckers_'
'trucker_'
'trowel_'
'trout_'
'troupe_'
'troublingly_'
'troublesome_'
'troubleshooting_'
'troubles_'
'troublemakers_'
'trots_'
'tropics_'
'tropical_'
'trophies_'
'trophic_'
'trongvàigiờ_'
'trojan_'
'trois_'
'triền_'
'triê_'
'trivial_'
'trivia_'
'triumphant_'
'triumph_'
'triteness_'
'tripod_'
'triplicate_'
'triple_'
'trinket_'
'trimester_'
'trilobal_'
'triggers_'
'triggered_'
'trifling_'
'trifles_'
'tricky_'
'trickster_'
'trickle_'
'trickiness_'
'trichinosis_'
'trich_'
'tribunal_'
'triangulate_'
'triangular_'
'trespassing_'
'trespassers_'
'tres_'
'trendiest_'
'trench_'
'tremolux_'
'trembling_'
'treed_'
'treats_'
'treatments_'
'treaties_'
'tread_'
'trc_'
'traversing_'
'travelling_'
'travelers_'
'trau_'
'trapezium_'
'transporting_'
'transpo_'
'transplantation_'
'transparently_'
'transnational_'
'transmitters_'
'transmitter_'
'transmissions_'
'translators_'
'transgender_'
'transforms_'
'transformations_'
'transfix_'
'transducer_'
'transcripts_'
'transcribe_'
'transcendence_'
'transcended_'
'transcend_'
'transceivers_'
'trampled_'
'tramp_'
'trainload_'
'trainer_'
'trainees_'
'trainee_'
'trainable_'
'trails_'
'trailer_'
'traficking_'
'trafficked_'
'tradors_'
'trades_'
'trader_'
'trademark_'
'tract_'
'trackyourhappiness_'
'tracker_'
'trachoma_'
'tracer_'
'traced_'
'toẹt_'
'toạc_'
'toát_'
'toymaker_'
'toxify_'
'township_'
'towers_'
'tout_'
'touseforthe_'
'tourism_'
'tougher_'
'tou_'
'tother_'
'totalitarian_'
'totaling_'
'tossing_'
'tortures_'
'tort_'
'torque_'
'torpedoing_'
'torpedoes_'
'tornadoes_'
'tormented_'
'topsoil_'
'tops_'
'topography_'
'topd_'
'toots_'
'toothpaste_'
'toolbox_'
'tonnes_'
'tonnage_'
'tonkene_'
'tonic_'
'tongues_'
'tongued_'
'toner_'
'tommy_'
'tombs_'
'tomboyish_'
'tomatoes_'
'tolerated_'
'toilsome_'
'toilets_'
'toil_'
'togetherness_'
'toenail_'
'tobias_'
'toasting_'
'toang_'
'toan_'
'toad_'
'tknowaboutme_'
'tiệp_'
'tiều_'
'tiêng_'
'titties_'
'titillate_'
'titanium_'
'tisdale_'
'tireless_'
'tire_'
'tiptop_'
'tippy_'
'tins_'
'tinkers_'
'tinkering_'
'tinkerers_'
'tinker_'
'tiniest_'
'tina_'
'timid_'
'timetables_'
'timesaver_'
'timers_'
'timeo_'
'timely_'
'timed_'
'tilts_'
'tilting_'
'tidal_'
'ticks_'
'ticketd_'
'ticker_'
'tic_'
'thựchiện_'
'thừ_'
'thủa_'
'thụt_'
'thụp_'
'thớt_'
'thổng_'
'thốn_'
'thỏi_'
'thỉ_'
'thễ_'
'thềm_'
'thậtlà_'
'thẫm_'
'thẩn_'
'thầnh_'
'thảnh_'
'thạo_'
'thạm_'
'thưở_'
'thơi_'
'thăp_'
'thùm_'
'thóp_'
'thóc_'
'thóat_'
'thó_'
'thìa_'
'tháy_'
'thán_'
'thàng_'
'thàn_'
'thÁ_'
'thyself_'
'thymus_'
'thylacines_'
'thuộcnhà_'
'thuồng_'
'thuô_'
'thuâ_'
'thuÒ_'
'thuyển_'
'thuyến_'
'thursdays_'
'thunderstorms_'
'thundercunt_'
'thunderclap_'
'thumbtack_'
'thumbs_'
'thumbprint_'
'thucjw_'
'thru_'
'throws_'
'throwaways_'
'throught_'
'throughput_'
'throttle_'
'thrips_'
'thrice_'
'threefold_'
'threatens_'
'thrashing_'
'thracian_'
'thousandth_'
'thorny_'
'thorns_'
'thorn_'
'thoracic_'
'thon_'
'thiến_'
'thiếc_'
'thiêusốngcùng_'
'thither_'
'thistles_'
'thirdly_'
'thinner_'
'thinh_'
'thingd_'
'thine_'
'thighs_'
'thigh_'
'thich_'
'theta_'
'thesis_'
'thermostat_'
'thermometer_'
'thermodynamics_'
'thermite_'
'therapeutic_'
'theorize_'
'theorist_'
'theology_'
'theocratic_'
'themed_'
'theirs_'
'theft_'
'thee_'
'theatre_'
'theaters_'
'theMast3r_'
'thawing_'
'thaumaturgical_'
'thatwasn_'
'thankfully_'
'thanked_'
'thanggs_'
'thali_'
'textured_'
'texture_'
'textiles_'
'texas_'
'tetra_'
'testimony_'
'testifying_'
'testifies_'
'terrors_'
'territories_'
'terrifies_'
'terrestrial_'
'termites_'
'termite_'
'terminology_'
'terming_'
'terminator_'
'terminate_'
'termed_'
'terce_'
'terawatts_'
'terawatt_'
'tequila_'
'tenuous_'
'tentacular_'
'tentacley_'
'tentacles_'
'tensor_'
'tensions_'
'tenors_'
'tengo_'
'tenants_'
'tempted_'
'temples_'
'template_'
'tempers_'
'tempered_'
'temperament_'
'tempera_'
'tempe_'
'telomerase_'
'telly_'
'telltale_'
'telexed_'
'telethon_'
'telescope_'
'telephony_'
'telephoned_'
'telegraphic_'
'telegraph_'
'telegrams_'
'telegram_'
'telecommunications_'
'tedious_'
'teddy_'
'technologized_'
'technologists_'
'technologist_'
'technologically_'
'technicians_'
'teaspoons_'
'teased_'
'tease_'
'teas_'
'tearless_'
'teamed_'
'taxpayer_'
'taunting_'
'taugh_'
'tattletale_'
'tastiest_'
'tastic_'
'tasteful_'
'tased_'
'tartars_'
'tart_'
'tars_'
'tarmac_'
'targeting_'
'tardiness_'
'tar_'
'tappy_'
'tapping_'
'tapped_'
'tapestry_'
'tanto_'
'tantalum_'
'tanking_'
'tanked_'
'tango_'
'tangled_'
'tangle_'
'tangible_'
'tampons_'
'tampered_'
'tamoxifen_'
'tame_'
'tambourine_'
'taller_'
'talkies_'
'talkers_'
'takoyaki_'
'taker_'
'takeover_'
'tainted_'
'tailbone_'
'tadpole_'
'tactile_'
'tactic_'
'tacs_'
'tack_'
'tacitly_'
'tabs_'
'tabletops_'
'tablecloths_'
'tab_'
'tHấp_'
'tHương_'
'tHưa_'
'tHícH_'
'tHêp_'
'sựở_'
'sực_'
'sững_'
'sữahăngháiđó_'
'sữ_'
'sứa_'
'sủi_'
'sụng_'
'sỡ_'
'sởn_'
'sớ_'
'sột_'
'sồng_'
'sệt_'
'sến_'
'sẹ_'
'sẵng_'
'sẩy_'
'sẩn_'
'sẩm_'
'sần_'
'sầm_'
'sấp_'
'sảy_'
'sạc_'
'sưa_'
'sơi_'
'súa_'
'sùm_'
'sùi_'
'sôcôla_'
'sòm_'
'sèng_'
'sâm_'
'sác_'
'systemically_'
'syrup_'
'syringes_'
'syphilis_'
'synthesizers_'
'synecdochically_'
'sync_'
'synaptic_'
'synagogues_'
'synagogue_'
'symptomatic_'
'symmetry_'
'symbolism_'
'symbolically_'
'symbolic_'
'symbiotic_'
'symbiote_'
'syllabuses_'
'sylar_'
'swum_'
'swordsmen_'
'swoosh_'
'swoon_'
'swollen_'
'swole_'
'swizzle_'
'swishy_'
'swings_'
'swindler_'
'swimwear_'
'swimsuits_'
'swims_'
'swimmers_'
'swift_'
'swhatthis_'
'swelling_'
'sweeping_'
'sweep_'
'sweatshirt_'
'sweating_'
'sweatbox_'
'swears_'
'swarms_'
'swarming_'
'swarm_'
'swamps_'
'swamp_'
'swallows_'
'swallowing_'
'suýtnữabị_'
'suzanne_'
'suwrr_'
'sustainably_'
'suspense_'
'suspects_'
'surs_'
'surrounds_'
'surround_'
'surrendered_'
'surpass_'
'surging_'
'surf_'
'surest_'
'suppression_'
'suppress_'
'supposes_'
'supportive_'
'supporters_'
'supplier_'
'supplied_'
'supplements_'
'supplementary_'
'supplement_'
'supplanting_'
'supervising_'
'supervised_'
'supervise_'
'superstars_'
'supersonic_'
'superpowers_'
'superpower_'
'superorganism_'
'supernova_'
'supernormal_'
'supernatural_'
'superman_'
'superlab_'
'superhighway_'
'superheroes_'
'superhero_'
'superficiality_'
'supercharged_'
'superbug_'
'superb_'
'sunspots_'
'sunset_'
'sunscreen_'
'sunrise_'
'sunray_'
'sunfat_'
'sunburn_'
'sunblock_'
'sunbathing_'
'sunao_'
'summoned_'
'summed_'
'summarize_'
'summaries_'
'sulphur_'
'sulk_'
'sulfates_'
'suits_'
'suitcases_'
'suing_'
'suffused_'
'suerte_'
'sue_'
'suddently_'
'suctioning_'
'sucked_'
'succumbs_'
'succumbed_'
'succinctly_'
'successor_'
'succeeds_'
'subversive_'
'suburbs_'
'suburban_'
'subtraction_'
'subtracted_'
'subtly_'
'subtlety_'
'subtleties_'
'subtlest_'
'subtler_'
'subtitle_'
'substitute_'
'substantially_'
'subsistence_'
'subsidiary_'
'subsets_'
'subsequent_'
'subsections_'
'subsea_'
'subscription_'
'subscribe_'
'subs_'
'subprime_'
'subpoena_'
'submissions_'
'submersibles_'
'submersible_'
'submerged_'
'sublinear_'
'subletted_'
'subjecting_'
'subjected_'
'subduing_'
'subdivisions_'
'subculture_'
'subconsciously_'
'stylist_'
'styles_'
'stutter_'
'sturdier_'
'stupidly_'
'stung_'
'stump_'
'stuffy_'
'stuffing_'
'studios_'
'strutting_'
'strut_'
'struggles_'
'struggled_'
'structurally_'
'strongholds_'
'stronghold_'
'strips_'
'stripper_'
'stripes_'
'strikes_'
'strik_'
'strictly_'
'strictest_'
'stretchy_'
'stretches_'
'stressor_'
'stressful_'
'strengthening_'
'strengthen_'
'streetscapes_'
'streamed_'
'strays_'
'straw_'
'strategizing_'
'strategist_'
'strangled_'
'strangest_'
'stranded_'
'strand_'
'straits_'
'straitjacket_'
'strait_'
'strained_'
'straightforward_'
'straightening_'
'straighten_'
'straightaway_'
'straddled_'
'stow_'
'stout_'
'storyteller_'
'stopwatch_'
'stopwalking_'
'stoop_'
'stoning_'
'stoned_'
'stomachs_'
'stoked_'
'stoke_'
'stocked_'
'stirrups_'
'stirred_'
'stipulates_'
'stipend_'
'stinking_'
'stinging_'
'stimulus_'
'stimulated_'
'stiffed_'
'sticky_'
'stew_'
'steve_'
'sterling_'
'stereotyping_'
'stereotypical_'
'stereotyped_'
'stereos_'
'stepchild_'
'stench_'
'stellar_'
'steepness_'
'steeped_'
'steamed_'
'steamboat_'
'stealth_'
'stealer_'
'steadman_'
'statutes_'
'statisticians_'
'statistically_'
'stating_'
'statesmen_'
'statecraft_'
'starvation_'
'startups_'
'startling_'
'starters_'
'starry_'
'stared_'
'stardom_'
'starch_'
'staple_'
'stanley_'
'standup_'
'standstill_'
'standest_'
'standardize_'
'stamped_'
'stalkers_'
'stalk_'
'staking_'
'stakes_'
'stakeout_'
'stairwell_'
'staircase_'
'stains_'
'stained_'
'stain_'
[...]
