'<pad>_'
'<EOS>_'
'._'
'/_'
', _'
'-_'
'the_'
'_'
'of_'
'=_'
'and_'
'to_'
'on_'
':_'
'ja_'
'&_'
'in_'
'2016_'
'a_'
'org_'
'almohandes_'
'com_'
's_'
'?_'
'www_'
'php_'
'is_'
'site_'
'for_'
'ssd_'
'pkoehn_'
'mnt_'
'crawl_'
'et_'
'vb_'
'that_'
't_'
': _'
'logyourrun_'
'06_'
'net_'
'anime_'
'msoms_'
'e_'
'. _'
'd_'
'Euroopa_'
' (_'
'07_'
'be_'
'1_'
' - _'
'ðAwww_'
'I_'
'3_'
'as_'
'European_'
'showthread_'
'z_'
'ning_'
'GMT_'
'are_'
'index_'
'this_'
'\u_'
' #_'
'%_'
'with_'
'ei_'
'10_'
') _'
'by_'
'08_'
'2_'
'will_'
'EU_'
'28_'
'we_'
'have_'
'le_'
'not_'
'it_'
')_'
'delayedwww_'
'mis_'
'p_'
'st_'
'31_'
'PM_'
'ga_'
'OKtext_'
'(_'
'11_'
'ks_'
'htmlwindows_'
'i_'
'kui_'
'see_'
'Commission_'
'01_'
' ` _'
'The_'
'ÛX_'
'l_'
'which_'
'task_'
'option_'
'W_'
'te_'
''_'
'E_'
'ELi_'
'12_'
'ÿÿÿÿ_'
'do_'
'ka_'
'at_'
'ed_'
'46_'
'routes_'
'me_'
'ÇáÓÇÚÉ_'
'6_'
'ÇáÂä_'
'y_'
'õ_'
'5_'
'ãäÊÏì_'
'an_'
'4_'
'oma_'
'AM_'
'from_'
'id_'
'Itemid_'
'ló_'
'kókópló_'
'has_'
'also_'
'ÇáãåäÏÓ_'
'Member_'
'- _'
'Jul_'
'or_'
'7_'
'In_'
'all_'
'8_'
'ing_'
'It_'
'Wj¾_'
'b_'
'ma_'
'09_'
' ._'
'9_'
'code_'
'selle_'
'States_'
'their_'
'Z_'
'kohta_'
'Mr_'
'ÌãíÚ_'
'u_'
' +_'
'Council_'
'was_'
'1256gzip_'
'more_'
'aasta_'
'või_'
'% _'
'would_'
'ÈÊæÞíÊ_'
'ÇáÃæÞÇÊ_'
'can_'
'ne_'
'È_'
'seda_'
';_'
'20_'
'member_'
'its_'
'¹_'
'Î_'
'need_'
',_'
'you_'
'Europe_'
'Mängitud_'
'newreply_'
'÷_'
'es_'
'da_'
'n_'
'President_'
'should_'
'30_'
'our_'
'2011_'
'15_'
'search_'
'13_'
'Thu_'
'29_'
'Sep_'
'@'_'
'ÝX_'
'ÜX_'
'pÜX_'
'page_'
'lt_'
'vastu_'
'04_'
'new_'
'Union_'
'but_'
'05_'
'3ìû_'
'2010_'
'Jun_'
'A_'
'x_'
'02_'
'0_'
'pÌÀ_'
'2012_'
' ¿ ¿_'
'03_'
'ole_'
'14_'
'; _'
'nende_'
'de_'
'16_'
'ta_'
'See_'
'LogYourRun_'
'been_'
'us_'
'countries_'
'loadroute_'
'mida_'
'must_'
'order_'
'sort_'
'nud_'
'We_'
'2015_'
'WÿÿÿÿÿÿÿÿÿÿÿÿÿÿÿÿÿÿÿÿÈ_'
'17_'
' – _'
'meie_'
'kes_'
'2008_'
'2007_'
'18_'
'23_'
'they_'
'19_'
'se_'
'2009_'
'other_'
')._'
'2013_'
'these_'
'21_'
'Parliament_'
'ãÓÇÁð_'
'html_'
'komisjoni_'
'nõukogu_'
'one_'
'vad_'
'up_'
'mó_'
'2014_'
'oli_'
'ãä_'
'report_'
'Sun_'
'27_'
'support_'
'22_'
'komisjon_'
'there_'
'mille_'
'üle_'
'nii_'
'people_'
'väga_'
'25_'
'=-_'
'nagu_'
'f_'
'ÕÈÇÍÇð_'
'like_'
'such_'
'use_'
'listlocalroutes_'
'kuid_'
'about_'
'm_'
'so_'
'mó'
'This_'
'24_'
'time_'
'very_'
'r_'
'eest_'
'aastal_'
'who_'
'Liidu_'
'É_'
'work_'
'between_'
'policy_'
'national_'
'economic_'
'tuleb_'
'only_'
'Ma_'
'1256gzipZ3ìû_'
'memberlist_'
'ud_'
'26_'
'ng_'
'measures_'
'00_'
'out_'
'Åáì_'
'market_'
'jaoks_'
'40_'
'misc_'
'vaid_'
'than_'
'into_'
' !_'
'information_'
'important_'
'32_'
'' _'
'võib_'
'ega_'
'v_'
'siis_'
'rights_'
'nad_'
'ÈW_'
'well_'
'mine_'
'if_'
'ele_'
' "_'
'seotud_'
'juhataja_'
'index2_'
'!_'
'sest_'
'energy_'
' ¿ ¿ ¿_'
'On_'
'years_'
'des_'
'were_'
'now_'
'financial_'
'what_'
'ÇáãÔÇÑßÇÊ_'
'no_'
'. - (_'
'oleks_'
'veel_'
'Commissioner_'
'45_'
'välja_'
'liikmesriikide_'
'For_'
'F_'
'tud_'
'my_'
'year_'
'ly_'
'g_'
'kõik_'
'k_'
'citizens_'
'), _'
'take_'
'50_'
'mitte_'
'development_'
'State_'
'level_'
'na_'
'poolt_'
'Minister_'
'GMT'
'o_'
'make_'
'them_'
'kus_'
'c_'
'est_'
'peaks_'
'he_'
'some_'
'social_'
'korda_'
'any_'
'Kui_'
'when_'
'seoses_'
'33_'
'neid_'
'first_'
'http_'
'S_'
'suhtes_'
'am_'
'Me_'
'As_'
'mängitud_'
'kogu_'
'action_'
'public_'
'where_'
'38_'
' '_'
'peab_'
'ine_'
'el_'
'rules_'
'rohkem_'
'made_'
'his_'
'against_'
'2006_'
'title_'
'country_'
'37_'
'showpost_'
'juba_'
'puhul_'
'htmlgzip_'
'selles_'
'41_'
'those_'
'way_'
'oluline_'
'forumdisplay_'
'EL_'
'ÿÿÿÿWed_'
'39_'
'many_'
'36_'
'However_'
'C7_'
'52_'
'said_'
'teha_'
'because_'
'under_'
'two_'
'sid_'
'services_'
'://_'
'ensure_'
'cooperation_'
'volinik_'
'proposal_'
'may_'
'through_'
'kas_'
'just_'
'ajal_'
'42_'
'had_'
'future_'
'riikide_'
'olema_'
'er_'
'ÇáÈÍË_'
'whoposted_'
'sse_'
'olla_'
'=%_'
'peame_'
'51_'
'particular_'
'over_'
'same_'
'MSOMS_'
'43_'
'political_'
'including_'
'35_'
'ÜÇÊ_'
'international_'
'export_'
'Komisjon_'
'48_'
'takse_'
'44_'
'Ù_'
'DE_'
'34_'
'võtta_'
'ion_'
'pärast_'
'part_'
'most_'
'#_'
'system_'
'number_'
'end_'
'å_'
'ãäÊÏíÜÜ_'
'further_'
'ainult_'
'"_'
'samuti_'
'could_'
'G_'
'world_'
'crisis_'
'h_'
'55_'
'53_'
'al_'
'agreement_'
'ÈæÇÓØÉ_'
'therefore_'
'kõige_'
'tele_'
'aga_'
'Ø_'
'saab_'
'palju_'
'49_'
'your_'
'million_'
'eriti_'
'2020_'
'59_'
'riigi_'
'jooksul_'
'Sat_'
'law_'
'change_'
'ti_'
'line_'
'54_'
'protection_'
'how_'
'both_'
'ÇáãáÝ_'
'today_'
'possible_'
'ise_'
'right_'
'võimalik_'
'valdkonnas_'
'set_'
'liikmesriigid_'
'eelkõige_'
'being_'
'[ _'
'Brussels_'
'within_'
'sW_'
'meil_'
'í_'
'Ç_'
' ]_'
'ÇáÔÎÕí_'
'vaja_'
'Mängudemaa_'
'Härra_'
'products_'
'58_'
'näiteks_'
'iga_'
'eks_'
'56_'
'adopted_'
'able_'
'47_'
'ni_'
'common_'
'area_'
'areas_'
'Lisaks_'
'üks_'
'ÈWÿÿÿÿÿÿÿÿÿÿÿÿÿÿÿÿÿÿÿÿÈ_'
'tema_'
'tagada_'
'oleme_'
'eesmärk_'
'Not_'
'. - _'
'ÑÏ_'
'authorities_'
'still_'
'nimel_'
'’_'
'president_'
'kuidas_'
'ette_'
'Mon_'
'T_'
'D_'
'security_'
'osa_'
'good_'
'climate_'
'000_'
'ã_'
'ÇáäÊÇÆÌ_'
'ÇáÕÝÍÉ_'
'vahel_'
'sellest_'
'legal_'
'eurot_'
'amp_'
'C_'
'Ê_'
'töö_'
'millega_'
'If_'
'pp_'
'game_'
'before_'
'osas_'
'better_'
'Nõukogu_'
'Úä_'
'poliitika_'
'framework_'
' _'
'transport_'
'olnud_'
'kasutada_'
'help_'
'Q'
'ation_'
'Komisjoni_'
'ä_'
'Ñ_'
'growth_'
'ist_'
' [_'
'üles_'
'tuleks_'
'post_'
'case_'
'è_'
'thanks_'
'here_'
'euro_'
'K_'
'57_'
'ÇáÊÓÌíá_'
'data_'
'akse_'
'minu_'
'härra_'
'esitatud_'
'P_'
'place_'
'hea_'
'Z'
'Samuti_'
'sector_'
'mise_'
'J'
'" _'
'kaudu_'
'` _'
'Parlamendi_'
'saa_'
'asc_'
'already_'
'access_'
'based_'
'taken_'
'peavad_'
'long_'
'Euroopas_'
'ide_'
'L_'
'sellele_'
'human_'
'debate_'
'Täna_'
' , _'
'issue_'
'budget_'
'ad_'
'want_'
'situation_'
'ettepaneku_'
'think_'
'implementation_'
'basis_'
'tagasi_'
'provide_'
'needs_'
'last_'
'believe_'
'health_'
'current_'
'Y'
'O_'
'trade_'
'mõju_'
'legislation_'
'Õ_'
'without_'
'aid_'
'tcx_'
'programme_'
'2005_'
'ÊÇÑíÎ_'
'does_'
've_'
'tasandil_'
'say_'
'even_'
'N_'
'siin_'
'high_'
'direktiivi_'
'decision_'
'Committee_'
'tes_'
'nüüd_'
'issues_'
'enam_'
'clear_'
'arvesse_'
'Brüssel_'
'B_'
' „_'
'g'
'H'
'kse_'
'kokku_'
'P'
'redirector_'
'process_'
'own_'
'arutelu_'
'term_'
'kohaselt_'
'cannot_'
'Court_'
'6'
'tehtud_'
'research_'
'progress_'
'R_'
'safety_'
'much_'
'meetmeid_'
'example_'
'necessary_'
'mist_'
'milles_'
'meetmed_'
'ku_'
'Kokku_'
'test_'
'role_'
'available_'
'Y_'
'4'
'quality_'
'p'
'Ï_'
'username_'
'olen_'
'non_'
'know_'
'kaasa_'
'ge_'
'abi_'
'ãÔÇåÏÉ_'
'view_'
'used_'
'H_'
'1'
' > _'
'Ú_'
'Ö_'
'Çááå_'
'teie_'
'kuna_'
'á_'
'ÑÓÇáÉ_'
'võivad_'
'three_'
'then_'
'proposals_'
'means_'
'effective_'
'continue_'
'after_'
'V'
'Community_'
'Affairs_'
': "_'
'praegu_'
'kuni_'
'key_'
'found_'
'Secretary_'
'Group_'
'third_'
'raames_'
'kodanike_'
'increase_'
'different_'
'Ó_'
'ÇW_'
'education_'
'ELis_'
'” _'
'regulation_'
'miljonit_'
'finduser_'
'] _'
'Seetõttu_'
'states_'
'lepingu_'
'X'
'W'
'D'
'–_'
'ära_'
'since_'
'q'
'certain_'
'&&_'
'täna_'
'saada_'
'period_'
'7'
'1256gzipÊ_'
'z'
'proposed_'
'enne_'
'addition_'
'But_'
' }!_'
'state_'
'n'
'läbi_'
'koos_'
'inimeste_'
'given_'
'efforts_'
'R'
'ä'
'tähelepanu_'
'too_'
'projects_'
'gpx_'
'-, _'
'sellega_'
'private_'
'nt_'
'name_'
'meetmete_'
'making_'
'fact_'
'anda_'
'Found_'
'0'
' '
'ß_'
'tel_'
'rW_'
'companies_'
'billion_'
'Treaty_'
'8'
'1256gzipð_'
'Ü'
'rs_'
'global_'
'games_'
'süsteemi_'
'policies_'
'next_'
'did_'
'IP_'
'ì_'
'ÎÇÕÉ_'
'vote_'
'tööd_'
'put_'
'm'
'v'
'strateegia_'
'raporti_'
'management_'
'economy_'
'border_'
'G'
'w_'
'va_'
'uue_'
'ts_'
'regard_'
'improve_'
'conditions_'
'aastat_'
'T'
'M_'
'æ_'
'children_'
'ce_'
'E1_'
'sealhulgas_'
'koostöö_'
'food_'
'each_'
'arvates_'
'S'
'MEMO_'
'Lissaboni_'
' : _'
'ÿÿÿÿTue_'
'y'
'x'
'saavad_'
'ry_'
'full_'
'free_'
'F'
'At_'
' [ _'
' -_'
'together_'
'tags_'
'saavutada_'
'ke_'
'kaks_'
'course_'
'Selle_'
'2004_'
'resources_'
'minister_'
'eu_'
'eid_'
'Kuid_'
'June_'
'@_'
'.”_'
'ÅÑÓÇá_'
'tW_'
'siiski_'
'respect_'
'question_'
'pole_'
'point_'
'funding_'
'forward_'
'approach_'
' ¿ ¿ ¿'
'öelda_'
'consumers_'
'Madam_'
'Justice_'
'while_'
'sustainable_'
'strategy_'
'standards_'
'problem_'
'ltr_'
'koostööd_'
'during_'
'behalf_'
'alusel_'
'alates_'
'Liit_'
'Kas_'
'9'
'5'
'ßÇÝÉ_'
'ÇáãßÊæÈÉ_'
'another_'
'Directive_'
'ust_'
'meeting_'
'kaitse_'
'investment_'
'institutions_'
'give_'
'ers_'
'That_'
'M'
'E3_'
'December_'
'Ülemkogu_'
'jobs_'
'hope_'
'eelarve_'
'context_'
'aastaks_'
'3'
'."_'
' €_'
'„_'
'whether_'
're_'
'problems_'
'ment_'
'j'
'industry_'
'conclusions_'
'Presidency_'
'ED_'
'subject_'
'majanduskasvu_'
'kõiki_'
'environmental_'
'en_'
'N'
'Meie_'
'K'
'60_'
'towards_'
'kirjalikult_'
'gi_'
'field1_'
'f'
'L'
'404_'
'á'
'life_'
'less_'
'allow_'
'80_'
'tähtis_'
'sed_'
'regional_'
'I'
'EUR_'
' ¿ ¿ ¿ _'
'working_'
'systems_'
'suur_'
'specific_'
'United_'
' /_'
'Á_'
'writing_'
'võetud_'
'vate_'
'tahaksin_'
'go_'
'best_'
'Fansubs_'
'75_'
'.:: _'
' ::. > _'
'Ý_'
'searchid_'
'sWÿÿÿÿÿÿÿÿÿÿÿÿÿÿÿÿÿÿÿÿÈ_'
'resolution_'
'markets_'
'k'
'importance_'
'härrad_'
'funds_'
'environment_'
'account_'
'Development_'
'70_'
'Þ_'
'selleks_'
'reform_'
'production_'
'particularly_'
'X_'
'terms_'
'mul_'
'isegi_'
'htmlgzipÊE_'
'fraktsiooni_'
'young_'
'w'
'tähendab_'
'toetada_'
'result_'
'poole_'
'peaksid_'
'olid_'
'great_'
'gentlemen_'
'emissions_'
'directive_'
'b'
'antud_'
'Ýì_'
'why_'
'taking_'
'impact_'
'Ms_'
'May_'
'8859_'
'õigus_'
'teiste_'
'results_'
'kõigi_'
'ksid_'
'ions_'
'inimõiguste_'
'ilma_'
'htmliso_'
'general_'
'essential_'
'd'
'content_'
'come_'
'Wÿÿÿÿÿÿÿÿÿÿÿÿÿÿÿÿÿÿÿÿ_'
'October_'
'Foundtext_'
'thank_'
'small_'
'parandada_'
'majanduse_'
'maailma_'
'kord_'
'i'
'her_'
'following_'
'down_'
'costs_'
'around_'
'There_'
' :_'
'ühenduse_'
'Í_'
'mode_'
'lõpuks_'
'luua_'
'V_'
'Parlament_'
'Ýí_'
'major_'
'fully_'
'annab_'
'U'
'Route_'
'Lisbon_'
' % _'
'ÿÿÿÿÿÿÿÿÿÿÿÿÿÿÿÿÿÿÿÿÈ_'
'ütles_'
'é_'
'ÇáãæÖæÚ_'
'Ta_'
'ühise_'
'ç_'
'teenuste_'
'risk_'
'riigid_'
'present_'
'opinion_'
'o'
'nimetatud_'
'liikmesriikides_'
'l'
'find_'
'ec_'
'desc_'
'agreed_'
'across_'
'PL_'
'> _'
'üksnes_'
'täielikult_'
'related_'
'potential_'
'küsimus_'
'korral_'
'juhul_'
'however_'
'field5_'
'activities_'
'][_'
'J_'
'2'
'/ _'
'step_'
'j_'
'ity_'
'employment_'
'March_'
'He_'
'ð_'
'Êã_'
'ÇáãäÊÏì_'
'vt_'
'turu_'
'tax_'
's'
'muuta_'
'heaks_'
'control_'
'Your_'
'º_'
'women_'
'single_'
'requested_'
'r'
'every_'
'alla_'
'abil_'
'U_'
'E'
'61_'
'userid_'
'tion_'
'searchthreadid_'
'programmi_'
'programmes_'
'needed_'
'h'
'favour_'
'c'
'arengu_'
'B'
' ] _'
'à_'
'whole_'
'second_'
'saanud_'
'region_'
'objectives_'
'kiiresti_'
'internal_'
'far_'
'especially_'
'cases_'
'again_'
'Nagu_'
'u'
'teeb_'
't'
'package_'
'negotiations_'
'määruse_'
'ent_'
'`_'
'Q_'
'ÇáÊÞííã_'
'võttis_'
'vähendada_'
'teinud_'
'teavet_'
'neile_'
'large_'
'europa_'
'dele_'
'assistance_'
'ÇÊ_'
'°_'
'võimalusi_'
'uute_'
'tegevuskava_'
'raha_'
'kasu_'
'back_'
'EC_'
'vähem_'
'uus_'
'tegema_'
'start_'
'months_'
'least_'
'become_'
'air_'
'achieve_'
' ×_'
'ühe_'
'å'
'Ö'
'selge_'
'responsibility_'
'regions_'
'postcount_'
'parlamendi_'
'miles_'
'majandus_'
'ladies_'
'käsitleva_'
'jate_'
'form_'
'dialogue_'
'decisions_'
'US_'
'Proua_'
'Minu_'
'ühtse_'
'õiguse_'
'ÜRO_'
'workers_'
'tööhõive_'
'suurendada_'
'neil_'
'matter_'
'mail_'
'liidu_'
'aitab_'
'Republic_'
'FR_'
'72_'
' ::._'
' - .:: _'
'ó'
'welcome_'
'riigis_'
'requirements_'
'local_'
'laste_'
'jad_'
'developing_'
'cross_'
'concerned_'
'è'
'Ë_'
'text_'
'sama_'
'prices_'
'piirkonna_'
'inimesed_'
'hand_'
'close_'
'alati_'
'OKapplication_'
'O'
'Mileage_'
'Members_'
'æ'
'recent_'
'rapporteur_'
'paremini_'
'olemas_'
'interest_'
'going_'
'get_'
'embedroute_'
'daamid_'
'consumer_'
'appropriate_'
'aeg_'
'Osa_'
'And_'
'All_'
'töötajate_'
'teid_'
'responsible_'
'positive_'
'midagi_'
'list_'
'instruments_'
'business_'
'What_'
'Seega_'
'Mrs_'
': „_'
'ú_'
'ó_'
'Ä'
'võtma_'
'significant_'
'sel_'
'saaks_'
'rahvusvahelise_'
'kava_'
'innovation_'
'ies_'
'existing_'
'esitada_'
'distance_'
'ate_'
'application_'
'aega_'
'a'
'Ameerika_'
'71_'
'100_'
'ãÑÉ_'
'ÝÑíÞ_'
'vahendeid_'
'society_'
'reduce_'
'provided_'
'position_'
'plan_'
'kahe_'
'actions_'
'July_'
'õiguste_'
'î'
'Ð_'
'teatud_'
'mõned_'
'main_'
'democratic_'
'call_'
'EÜ_'
'C'
'A'
'98_'
'ãÔÇÑßÉ_'
'Õ'
'È'
'võimalus_'
'tänada_'
'seega_'
'project_'
'priority_'
'increasing_'
'hästi_'
'challenges_'
'Regulation_'
'Email_'
'CF_'
'! _'
'toetust_'
'strong_'
'server_'
'samas_'
'procedure_'
'principle_'
'miseks_'
'meile_'
'kõigile_'
'having_'
'greater_'
'apply_'
'aks_'
'aidata_'
'Vice_'
'International_'
'Government_'
'81_'
'ÿÿÿÿThu_'
'ß'
'ÕÝÍÉ_'
'Í'
'water_'
'võimaldab_'
'service_'
'seetõttu_'
'procedures_'
'otsuse_'
'few_'
'due_'
'benefit_'
'attention_'
'URL_'
'No_'
'é'
'ßæäÇä_'
'Ï'
'yet_'
'võrra_'
'various_'
'total_'
'serious_'
'pay_'
'ons_'
'neist_'
'include_'
'ees_'
'edasi_'
'cost_'
'concerning_'
'commitment_'
'September_'
'96_'
' . _'
'Ô_'
'Ô'
'Ò_'
'}_'
'veelgi_'
'tag_'
'regards_'
'real_'
'fight_'
'e'
'contribute_'
'= _'
'..._'
'ø'
'ë_'
'ÇWÿÿÿÿÿÿÿÿÿÿÿÿÿÿÿÿÿÿÿÿÈ_'
'Ã'
'toimunud_'
'rolli_'
'riigisekretär_'
'relations_'
'probleeme_'
'points_'
'open_'
'kooskõlas_'
'jätkuvalt_'
'held_'
'competition_'
'businesses_'
'62_'
'ÿ_'
'íÉ_'
'vastavalt_'
'tegelikult_'
'sendmessage_'
'sectors_'
'printthread_'
'opportunity_'
'miljardit_'
'group_'
'force_'
'ettepanek_'
'eri_'
'di_'
'create_'
'called_'
'arv_'
'Economic_'
'65_'
'Ì_'
'§_'
'voted_'
'tõttu_'
'times_'
'riikides_'
'riik_'
'per_'
'opportunities_'
'lihtsalt_'
'levels_'
'leida_'
'kuigi_'
'field_'
'ensuring_'
'done_'
'day_'
'act_'
'USA_'
'Time_'
'Siiski_'
'One_'
'IT_'
'CO2_'
'95_'
'64_'
'2000_'
'õ'
'í'
'uusi_'
'protsessi_'
'promote_'
'members_'
'initiative_'
'higher_'
'groups_'
'focus_'
'contribution_'
'among_'
'agricultural_'
'Venemaa_'
'E4_'
'DF_'
'73_'
' & _'
'õigusaktide_'
'ð'
'à'
'ÇáÃÚÖÇÁ_'
'vahendite_'
'ted_'
'play_'
'ors_'
'ns_'
'naiste_'
'kelle_'
'järeldused_'
'ia_'
'external_'
'bring_'
'ble_'
'agreements_'
'November_'
'Need_'
'Fund_'
'63_'
'Ü_'
'vähemalt_'
'training_'
'response_'
'principles_'
'price_'
'often_'
'maailmas_'
'land_'
'infrastructure_'
'gas_'
'difficult_'
'description_'
'dega_'
'currently_'
'arvan_'
'They_'
'January_'
'Environment_'
'D1_'
'ü_'
'ç'
'ãÌãæÚ_'
'Ò'
'ÇáÇæÓãÉ_'
'Â'
'teile_'
'teema_'
'shall_'
'selliste_'
'sektori_'
'review_'
'q_'
'projekti_'
'presented_'
'organisations_'
'money_'
'labour_'
'la_'
'ki_'
'government_'
'eeskirjade_'
'concerns_'
'agree_'
'77_'
' × _'
'Ñ'
'suunatud_'
'remain_'
'regarding_'
'move_'
'leping_'
'initiatives_'
'four_'
'elu_'
'always_'
'address_'
'Romania_'
'Ministers_'
'Europeans_'
'Aafrika_'
'120_'
'ãÓæãÓ_'
'° _'
'tegevuse_'
'technical_'
'suunas_'
'something_'
'näha_'
'fundamental_'
'encourage_'
'Seda_'
'Market_'
'How_'
'E5_'
'90_'
'þ_'
'â_'
'tega_'
'rather_'
'lik_'
'küsimuses_'
'Social_'
'Germany_'
'88_'
'83_'
'+ _'
'võtab_'
'type_'
'sin_'
'si_'
'several_'
'selgelt_'
'seal_'
'reason_'
'living_'
'kolm_'
'kindlaks_'
'included_'
'improving_'
'goto_'
'dest_'
'c7_'
'Ireland_'
'France_'
'Convention_'
'April_'
'78_'
'Þ'
'teise_'
'provisions_'
'parties_'
'paljud_'
'once_'
'integration_'
'htmlwww_'
'consider_'
'age_'
'adopt_'
'You_'
'Russia_'
'Policy_'
'Our_'
'More_'
'Italy_'
'House_'
'97_'
' ... _'
'ö'
'ñ_'
'Ã_'
'valdkondades_'
'using_'
'sotsiaalse_'
'side_'
'share_'
'power_'
'nojs_'
'miks_'
'liikmesriike_'
'legislative_'
'ikka_'
'freedom_'
'face_'
'exchange_'
'annual_'
']_'
'Estonia_'
'?&_'
'91_'
'%._'
'ò'
'Ø'
'Â_'
'valmis_'
'required_'
'relevant_'
'nr_'
'majority_'
'käsitleb_'
'justice_'
'itself_'
'goods_'
'financing_'
'efficiency_'
'eeskirjad_'
'direktiiv_'
'dialoogi_'
'develop_'
'capacity_'
'aastast_'
'Luxembourg_'
'Hiina_'
'Energy_'
'Barroso_'
'@ _'
'87_'
'2F'
'wish_'
'viia_'
'usun_'
'tohi_'
'th_'
'taas_'
'special_'
'questions_'
'peaksime_'
'partners_'
'network_'
'led_'
'kodanikele_'
'civil_'
'Portugal_'
'Liidus_'
'Kõik_'
'Hr_'
'ES_'
'2003_'
'ÿÿÿÿÿÿÿÿÿÿÿÿ_'
'ü'
'ô_'
'ì'
'varem_'
'sätestatud_'
'steps_'
'saame_'
'rakendamise_'
'provides_'
'proua_'
'millest_'
'meet_'
'maks_'
'keskkonna_'
'kaitsta_'
'ic_'
'head_'
'ettevõtete_'
'edendada_'
'amendments_'
'Tšehhi_'
'Sellega_'
'Seepärast_'
'Poland_'
'General_'
'DA_'
'Austria_'
'82_'
' / _'
' ( _'
'Ê'
'Æ_'
'viewfull_'
'values_'
'tulevikus_'
'toodete_'
'really_'
'overall_'
'noorte_'
'lead_'
'kodanikud_'
'job_'
'igal_'
'home_'
'deal_'
'avaliku_'
'alt_'
'aastatel_'
'[_'
'Nüüd_'
'Greece_'
''._'
' ~_'
'û_'
'ñ'
'ã'
'Úáì_'
'Ú'
'²_'
'viis_'
'umbes_'
'toimub_'
'route_'
'ous_'
'might_'
'look_'
'liige_'
'kriisi_'
'joint_'
'family_'
'esimene_'
'elt_'
'draft_'
'co_'
'ata_'
'asutuste_'
'assessment_'
'album_'
'aim_'
'Prantsusmaa_'
'Ministry_'
'Kuidas_'
'II_'
'Health_'
' ..._'
'ê_'
'äärmiselt_'
'ÔÇÑß_'
'täiesti_'
'tWÿÿÿÿÿÿÿÿÿÿÿÿÿÿÿÿÿÿÿÿÈ_'
'short_'
'population_'
'pop_'
'others_'
'meel_'
'liikmesriigi_'
'kõikide_'
'kunagi_'
'energia_'
'endiselt_'
'enda_'
'consultation_'
'calls_'
'borders_'
'benefits_'
'Selles_'
'Rights_'
'New_'
'Mis_'
'By_'
'Al'
'74_'
'500_'
'ãÏÑÓÉ_'
'Ù'
'Ç'
'¾_'
'µ_'
'url_'
'travel_'
'thus_'
'technologies_'
'strengthen_'
'ss_'
'silmas_'
'rural_'
'road_'
'raport_'
'pidada_'
'peaaegu_'
'online_'
'olukorra_'
'muret_'
'mobility_'
'location_'
'käigus_'
'interests_'
'increased_'
'ile_'
'governments_'
'experience_'
'eesistuja_'
'demokraatia_'
'date_'
'cultural_'
'andmete_'
'Finally_'
'China_'
'99_'
'ÿ'
'} _'
'ways_'
'up'
'tänu_'
'took_'
'supported_'
'stability_'
'soovin_'
'rule_'
'ri_'
'red_'
'priorities_'
'peale_'
'olukord_'
'liikmesriigis_'
'getall_'
'expected_'
'eesmärkide_'
'clearly_'
'ask_'
'achieved_'
'Tahaksin_'
'Poola_'
'Iirimaa_'
'Gÿÿÿÿ_'
'Education_'
'89_'
'84_'
'79_'
' ?_'
'ý_'
'ø_'
'ï'
'äÊÇÆÌ_'
'Ý'
'ÇáÝæÊæÔæÈ_'
'Å'
'võiks_'
'value_'
'tegemist_'
'teave_'
'sure_'
'sooviksin_'
'soon_'
'samal_'
'roll_'
'rate_'
'parem_'
'offer_'
'näitab_'
'ness_'
'ministers_'
'jääb_'
'il_'
'htmlgzipð_'
'discussion_'
'considered_'
'communication_'
'additional_'
'Saksamaa_'
'Olen_'
'GOKtext_'
'Deputy_'
'Czech_'
'93_'
'2001_'
'Û'
'ÌÇÑí_'
'¼_'
'ª_'
'solution_'
'solidarity_'
'reducing_'
'range_'
'prevent_'
'olukorda_'
'nature_'
'meid_'
'live_'
'involved_'
'individual_'
'hulgas_'
'ettepanekud_'
'established_'
'enter_'
'coordination_'
'competitiveness_'
'building_'
'ambitious_'
'ab_'
'Pärast_'
'76_'
'69_'
'ÿÿÿÿÿÿÿÿ_'
'üha_'
'ÇáÃæáì_'
'Á'
'waste_'
'võrreldes_'
'vahendid_'
'until_'
'understand_'
'um_'
'tu_'
'tarbijate_'
'süsteem_'
'suure_'
'sime_'
'send_'
'seks_'
'recommendations_'
'reach_'
'rakendada_'
'practice_'
'piisavalt_'
'past_'
'pakkuda_'
'liste_'
'liiga_'
'keep_'
'juurdepääsu_'
'hõlmab_'
'enforcement_'
'eeskirju_'
'edusamme_'
'care_'
'asepresident_'
'Let_'
'Kuigi_'
'Kosovo_'
'February_'
'Article_'
'85_'
'* _'
'ò_'
'î_'
'Û_'
'ÇáÊÍæíá_'
'Ä_'
'³_'
'vital_'
'töötada_'
'tulemusi_'
'suurem_'
'reduction_'
'monitoring_'
'lubatud_'
'knowledge_'
'kindlasti_'
'kavandatud_'
'järele_'
'esimese_'
'direct_'
'developed_'
'demand_'
'changes_'
'ade_'
'Spain_'
'Seoses_'
'Kuna_'
'Internet_'
'92_'
'67_'
'%) _'
'”._'
'õigust_'
'vaba_'
'töökohtade_'
'ting_'
'supply_'
'skills_'
'sellel_'
'puudutab_'
'parlament_'
'off_'
'nähtud_'
'mulle_'
'longer_'
'events_'
'efficient_'
'aware_'
'WÿÿÿÿÿÿÿÿÿÿÿÿÿÿÿÿÿÿÿÿÈ'
'UK_'
'These_'
'Programme_'
'Foreign_'
'An_'
', '
'ë'
'Ð'
'À_'
'võime_'
'toetuse_'
'toetab_'
'raportöör_'
'raportis_'
'never_'
'mind_'
'ite_'
'email_'
'democracy_'
'concern_'
'Office_'
'Message_'
'Le'
'Furthermore_'
'Eesti_'
'E6_'
'D3_'
'Action_'
'ù_'
'õigusi_'
'áÊÚáíã_'
'Çáã'
'wide_'
'võttes_'
'viimase_'
'valdkonna_'
'tugevdada_'
'themselves_'
'teabe_'
'tagama_'
'ste_'
'she_'
'selt_'
'received_'
'päeva_'
'pean_'
'payments_'
'määral_'
'mere_'
'kõnealuse_'
'julgeoleku_'
'him_'
'e3_'
'compromise_'
'coming_'
'agriculture_'
'addroute_'
'accession_'
'ability_'
'Schengen_'
'Otsi_'
'66_'
'2F_'
');_'
'õigused_'
'Ó'
'ÈÇá'
'ÇáÓÑíÚ_'
'ÇáÅäÊÞÇá_'
'vajadust_'
'ulatuses_'
'seen_'
'reports_'
'receive_'
'personal_'
'obligations_'
'millele_'
'miljoni_'
'lisaks_'
'küsimustes_'
'küsimuse_'
'kasutusele_'
'jõupingutusi_'
'jätkata_'
'järgmise_'
'implemented_'
'illegal_'
'fishing_'
'final_'
'elections_'
'effects_'
'decided_'
'concrete_'
'balance_'
'asjade_'
'as'
'applied_'
'aja_'
'administrative_'
'activity_'
'above_'
'Representative_'
'Meil_'
': '
'68_'
'ú'
'ÔßÑå_'
'²'
'võtnud_'
'võimalust_'
'vajalik_'
'traffic_'
'things_'
'teadusuuringute_'
'ses_'
'riiki_'
'rWÿÿÿÿÿÿÿÿÿÿÿÿÿÿÿÿÿÿÿÿÈ_'
'providing_'
'pakub_'
'objective_'
'mitmeid_'
'man_'
'maaelu_'
'low_'
'lise_'
'kasutatakse_'
'juuni_'
'iseks_'
'governance_'
'five_'
'farmers_'
'extremely_'
'eba'
'easy_'
'criteria_'
'carried_'
'bf47dd190483e28498b6d58621c83871_'
'asked_'
'anti_'
'ago_'
'agenda_'
'active_'
'To_'
'Sea_'
'Plan_'
'Location_'
'Liikmesriigid_'
'Hispaania_'
'High_'
'Africa_'
'86_'
'104_'
'%), _'
'ö_'
'ô'
'áÇ'
'ÞÇÆãÉ_'
'Î'
'ÇáÏÑÓ_'
'Å_'
'¿ _'
'viisil_'
'victims_'
'teemal_'
'tahes_'
'sageli_'
'saavutamiseks_'
'resolutsiooni_'
'oluliselt_'
'muud_'
'migration_'
'let_'
'käesoleva_'
'kuu_'
'ive_'
'implementing_'
'huvi_'
'htmlgzipàMF_'
'hr_'
'fair_'
'esse_'
'esindaja_'
'enough_'
'discussed_'
'decide_'
'cohesion_'
'actually_'
'abroad_'
'Näiteks_'
'LE'
'Austatud_'
'"._'
'”, _'
'áá'
'ÞæÉ_'
'ÜÜ'
'ÑÇ'
'ÇáÕæÑ_'
'ÇáÓáÇã_'
'ÇáÍáÞÉ_'
'ÇáÃÚáì_'
'ÇáÃÎíÑÉ_'
'ÃÎÑ_'
'~_'
'vaadata_'
'tõesti_'
'transparency_'
'throughout_'
'tegi_'
'technology_'
'solutions_'
'si'
'sa_'
'ro'
'recovery_'
'reached_'
'protect_'
'outside_'
'operators_'
'light_'
'haridus_'
'ground_'
'endale_'
'eesmärgid_'
'crime_'
'creating_'
'average_'
'aru_'
'amount_'
'SMEs_'
'SA'
'Kreeka_'
'G20_'
'Bo'
'After_'
'? _'
'200_'
' " _'
'’ _'
'ï_'
'Ì'
'ÇáãÚÑÝÉ_'
'Æ'
'views_'
'uued_'
'tools_'
'study_'
'space_'
'rõhutada_'
'quickly_'
'projektide_'
'poverty_'
'poliitilise_'
'peace_'
'natural_'
'mean_'
'limited_'
'liikmesriikidel_'
'liikmesriiki_'
'küsimusi_'
'käsitlevate_'
'kolme_'
'ja'
'inimesi_'
'effort_'
'effect_'
'developments_'
'asjaolu_'
'asemel_'
'Youth_'
'Strategy_'
'Single_'
'PT_'
'Lehekülg_'
'La'
'210_'
'+%_'
'¡ _'
'~ _'
'valitsuse_'
'uut_'
'uses_'
'true_'
'toob_'
'thing_'
'terrorism_'
'targets_'
'suurt_'
'suurema_'
'so'
'sisaldab_'
'simply_'
'päev_'
'promoting_'
'probleemi_'
'pro'
'press_'
'old_'
'muude_'
'mata_'
'kliimamuutuste_'
'keda_'
'guarantee_'
'fisheries_'
'everyone_'
'ee_'
'ds_'
'doing_'
'crucial_'
'criminal_'
'creation_'
'bodies_'
'asi_'
'adoption_'
'Rootsi_'
'Report_'
'Nii_'
'Mul_'
'Framework_'
'ãæÇÖíÚ_'
'Üks_'
'ÇáãÍÞÞ_'
'ÇáÍ'
'½_'
'µ'
'tri'
'tehnoloogia_'
'sources_'
'sellise_'
'return_'
'raske_'
'põllumajanduspoliitika_'
'persons_'
'paljude_'
'mobile_'
'mi_'
'lähenemisviisi_'
'läbirääkimiste_'
'ls_'
'ligikaudu_'
'lack_'
'käsitlevad_'
'kokkuleppele_'
'kehtestada_'
'includes_'
'ettepanekut_'
'ettepanekuid_'
'emailform_'
'edu_'
'daysprune_'
'challenge_'
'avad_'
'aruande_'
'antakse_'
'almost_'
'Teiseks_'
'Shinjitsu_'
'Rumeenia_'
'Out_'
'NL_'
'Lõuna_'
'Communication_'
'Bulgaria_'
'Alates_'
'Agriculture_'
'Agreement_'
'3A_'
'ühine_'
'ãÔÇÑßÇÊ_'
'words_'
'võimalikult_'
'transpordi_'
'teised_'
'talle_'
'strategic_'
'show_'
'remains_'
'raportööri_'
'probleem_'
'possibility_'
'passengers_'
'note_'
'minna_'
'menetluse_'
'language_'
'kutsub_'
'komisjonil_'
'kolmandate_'
'keskmise_'
'kasutamise_'
'immigration_'
'follow_'
'findthanks_'
'em_'
'ding_'
'digital_'
'cc_'
'carbon_'
'ations_'
'asutused_'
'aspects_'
'archive_'
'amendment_'
'UN_'
'Security_'
'Ra'
'Partnership_'
'Malta_'
'Li'
'C9_'
'Belgium_'
'20'
'ال'
'â'
'ÇáãæÇÖíÚ_'
'valitsus_'
'tuua_'
'teel_'
'success_'
'sektoris_'
'regulatory_'
'reasons_'
'raamistiku_'
'põhjal_'
'published_'
'plans_'
'piirkonnas_'
'partner_'
'os_'
'operation_'
'olulised_'
'nõuab_'
'nce_'
'mõista_'
'muu_'
'movement_'
'minimum_'
'mil_'
'ments_'
'medium_'
'maritime_'
'lahendada_'
'küsimuste_'
'innovatsiooni_'
'hindamise_'
'half_'
'ever_'
'erinevate_'
'eesmärgiks_'
'cy_'
'confidence_'
'competitive_'
'ck'
'capital_'
'ca_'
'ast_'
'approved_'
'andmed_'
'aimed_'
'Türgi_'
'So_'
'Samas_'
'Research_'
'Moreover_'
'Ja_'
'Itaalia_'
'Euro_'
'2002_'
'1Z3ìû_'
'0f_'
'+_'
'! (_'
' :: _'
'û'
'íä_'
'åÐå_'
'tegevus_'
'sõna_'
'stage_'
'selline_'
'relation_'
'quite_'
'pärit_'
'previous_'
'pea_'
'partnership_'
'over'
'otsus_'
'operational_'
'oma'
'ohtu_'
'matters_'
'mandate_'
'lo'
'lines_'
'left_'
'konkurentsivõime_'
'kehtestatud_'
'hoida_'
'hiljem_'
'functioning_'
'event_'
'erinevad_'
'enable_'
'discrimination_'
'details_'
'company_'
'ar'
'Serbia_'
'Erasmus_'
'ER'
'Decision_'
'DE'
'Croatia_'
' >_'
' + _'
'ý'
'ê'
'Ë'
'À'
'võetakse_'
'visa_'
'uuesti_'
'user_'
'tõepoolest_'
'tohiks_'
'teadus_'
'target_'
'tagamiseks_'
'suuda_'
'stocks_'
'shows_'
'sh_'
'seas_'
'rääkida_'
'riiklike_'
'rakendamist_'
'product_'
'poliitikat_'
'peamiselt_'
'oleksid_'
'mere'
'men_'
'media_'
'mad_'
'loodan_'
'lly_'
'lives_'
'liikmesriikidele_'
'küsimust_'
'kvaliteedi_'
'ki'
'juurdepääs_'
'juurde_'
'immediate_'
'hariduse_'
'ful_'
'ehk_'
'eesmärgi_'
'e4_'
'comprehensive_'
'compliance_'
'car_'
'artikli_'
'alustada_'
'aluseks_'
'although_'
'accordance_'
'accept_'
'With_'
'Volinik_'
'Samal_'
'Safety_'
'Russian_'
'Praegu_'
'PA'
'Nende_'
'Hungary_'
'HA'
'Agenda_'
' ('
'þ'
'Úãá_'
'¿_'
'¿ - _'
'ª'
'vajame_'
'toiduainete_'
'teine_'
'tegevust_'
'teada_'
'tal_'
'scientific_'
'risks_'
'riikidega_'
'renewable_'
'regulations_'
'refer_'
'reading_'
'performance_'
'olukorras_'
'notice_'
'mentioned_'
'meelde_'
'maa_'
'läbirääkimisi_'
'loomulikult_'
'lisada_'
'liku_'
'käsitlev_'
'käsitletakse_'
'kultuuri_'
'kontrolli_'
'kindel_'
'iste_'
'investeeringute_'
'inimestele_'
'indeed_'
'implement_'
'excellent_'
'either_'
'eesmärke_'
'death_'
'consequences_'
'conference_'
'comply_'
'commitments_'
'certainly_'
'banks_'
'asylum_'
'ally_'
'according_'
'WTO_'
'Ta'
'Sellest_'
'Se'
'RE'
'Prime_'
'PPE_'
'Now_'
'National_'
'Ka_'
'First_'
'Employment_'
'CA_'
'Bank_'
'Absent_'
'3d_'
'185425_'
'011867_'
' }_'
'Ýí'
'ÇáÚÇã_'
'ÇáÊ'
'uste_'
'upon_'
'try_'
'tehakse_'
'tahame_'
'suhete_'
'structural_'
'seisukohast_'
'school_'
'riiklikud_'
'request_'
'rahvusvaheliste_'
'proceedings_'
'pool_'
'piirkondade_'
'origin_'
'olulise_'
'nuclear_'
'mu_'
'mo'
'mechanisms_'
'kuuluvad_'
'kiire_'
'järelevalve_'
'juhtimise_'
'ility_'
'htm_'
'highly_'
'gave_'
'fraktsioon_'
'foreign_'
'finance_'
'establishment_'
'esitas_'
'eesmärgiga_'
'directly_'
'del_'
'choice_'
'ch_'
'avatud_'
'arvu_'
'arvestades_'
'analysis_'
'aims_'
'added_'
'Rural_'
'Roma_'
'Lo'
'Investment_'
'Gi'
'French_'
'Esiteks_'
'CE'
'7f_'
'.–_'
'%)._'
'", _'
'ÿÿÿÿMon_'
'æä_'
'ÞÇ'
'É'
'ÇáÚÖæ_'
'võitluse_'
'vo'
'täita_'
'tähtsust_'
'threaded_'
'teda_'
'tcx'
'suurusega_'
'strengthening_'
'sta'
'release_'
'provision_'
'probleemide_'
'pressure_'
'practical_'
'otsuste_'
'oil_'
'mini_'
'med_'
'maintain_'
'lot_'
'ling_'
'kohustusi_'
'kohaldatakse_'
'kahju_'
'integrated_'
'gu'
'facing_'
'euro'
'ellu_'
'early_'
'deliver_'
'delegations_'
'de'
'days_'
'colleagues_'
'child_'
'bu'
'avoid_'
'ary_'
'ar_'
'ae'
'WÿÿÿÿÿÿÿÿÿÿÿÿÿÿÿÿÿÿÿÿÈp'
'Wed_'
'Vi'
'VAT_'
'Ungari_'
'Sweden_'
'South_'
'Selleks_'
'RO_'
'Nad_'
'Mo'
'Mediterranean_'
'Information_'
'Financial_'
'94_'
'2d_'
'293'
'198'
'194'
'177'
'*_'
' ) _'
'ÚÇ'
'Çä_'
'¼'
'°'
'võimaluse_'
'vähendamise_'
'usi_'
'treatment_'
'toetus_'
'tingimused_'
'teil_'
'takes_'
'tahan_'
'successful_'
'students_'
'sing_'
'setting_'
'sai_'
'saaksid_'
'require_'
'reforms_'
'rakendamine_'
'rahastamise_'
'põllumajanduse_'
'pidades_'
'panuse_'
'osaleda_'
'organised_'
'operations_'
'nextoldest_'
'märkis_'
'millel_'
'military_'
'meetings_'
'mechanism_'
'leave_'
'launched_'
'konkurentsi_'
'kasutamist_'
'ik_'
'idea_'
'hiljuti_'
'heaolu_'
'expenditure_'
'enterprises_'
'easier_'
'discussions_'
'created_'
'converse_'
'controls_'
'combat_'
'cf_'
'build_'
'beginning_'
'aitavad_'
'addressed_'
'Turkey_'
'Transport_'
'Therefore_'
'TO'
'TA'
'Public_'
'Protection_'
'MCT_'
'EU'
'Ba'
'Agency_'
'ALDE_'
'.'
'ة_'
'üldiselt_'
'ühiskonna_'
'ying_'
'works_'
'välja'
'vastase_'
'vahend_'
'un'
'tööstuse_'
'turul_'
'trust_'
'ter_'
'teksti_'
'teenuseid_'
'suuremat_'
'sufficient_'
'serve_'
'scope_'
'saavutatud_'
'relating_'
'recognition_'
'practices_'
'poliitilist_'
'nõus_'
'networks_'
'milk_'
'miljardi_'
'looking_'
'little_'
'leading_'
'kõrge_'
'kulude_'
'komitee_'
'internet_'
'instance_'
'huvides_'
'humanitarian_'
'fellow_'
'expect_'
'effectiveness_'
'e6_'
'e1_'
'difficulties_'
'committed_'
'ck_'
'che'
'basic_'
'arvatud_'
'aja'
'Reding_'
'Peame_'
'Mõned_'
'My_'
'German_'
'Following_'
'Eelkõige_'
'East_'
'Cooperation_'
'üsna_'
'ÇáÊÕãíã_'
'¢ _'
'waters_'
'vältida_'
'vähe_'
'veendunud_'
'vastutav_'
'vajalikud_'
'ue'
'turule_'
'teame_'
'tab_'
'supporting_'
'stakeholders_'
'sports_'
'siooni_'
'self_'
'samm_'
'saadud_'
'run_'
'ready_'
'rates_'
'puudub_'
'prepared_'
'pleased_'
'paid_'
'outcome_'
'olulist_'
'nothing_'
'notably_'
'model_'
'makes_'
'lower_'
'linear_'
'liikmesriik_'
'kontekstis_'
'komisjonile_'
'kokkuleppe_'
'kasvu_'
'kaitset_'
'isikute_'
'ised_'
'inim'
'fondi_'
'fi'
'euroala_'
'ete_'
'electricity_'
'eesistujariik_'
'eel'
'edaspidi_'
'economies_'
'e5_'
'discuss_'
'cut_'
'contract_'
'compared_'
'circumstances_'
'budgetary_'
'ban_'
'arvamuse_'
'ance_'
'When_'
'Tema_'
'Te_'
'Sa'
'Po'
'OF_'
'Mar'
'Many_'
'Lisateave_'
'Euro'
'De'
'Click_'
'C8_'
'Bi'
'150_'
' `_'
' = _'
'æÇ'
'Èí'
'ÇáÝ'
'ÇáÜÊÜÜÞÜíÜíÜã_'
'ÇáÈ'
'¡_'
'võimalused_'
'tus_'
'turu'
'tra'
'teises_'
'staff_'
'soovime_'
'sense_'
'saamiseks_'
'riikidele_'
'reality_'
'rapid_'
'rahva_'
'päeval_'
'proposes_'
'probleemid_'
'peamine_'
'organisatsioonide_'
'ohutuse_'
'office_'
'ministrid_'
'mina_'
'met_'
'mas_'
'luuakse_'
'lahendus_'
'kuud_'
'ko'
'ke'
'jõuda_'
'je'
'instrument_'
'identify_'
'gpx'
'fish_'
'expressed_'
'evaluation_'
'esitab_'
'electronic_'
'eh'
'eelnõu_'
'draw_'
'away_'
'ava_'
'along_'
'alase_'
'affected_'
'WÿÿÿÿÿÿÿÿÿÿÿÿÿÿÿÿÿÿÿÿÈÐ_'
'Viviane_'
'VI'
'Schengeni_'
'Ro'
'Pro'
'GDP_'
'ES'
'Central_'
'Although_'
'352'
'167'
'121_'
'', _'
' ¡ _'
' ~ _'
' .. _'
'و'
'ülesanne_'
'íÇ'
'ÂÎÑ_'
'³'
'whose_'
'welcomes_'
'week_'
'vr'
'vale_'
'vaheline_'
'tõhus_'
'tulemusena_'
'tulemused_'
'transparent_'
'süsteemide_'
'säilitada_'
'sitting_'
'signed_'
'sele_'
'schools_'
'scheme_'
'representatives_'
'reduced_'
'promotion_'
'programmide_'
'programm_'
'payment_'
'nendega_'
'misega_'
'man'
'li_'
'lennu'
'languages_'
'kinni_'
'keskkonna'
'kaubanduse_'
'jäänud_'
'juhtudel_'
'item_'
'institutsioonide_'
'ime_'
'ideas_'
'fuel_'
'former_'
'forces_'
'ff_'
'facilitate_'
'establish_'
'equipment_'
'edendamine_'
'd3_'
'contact_'
'congratulate_'
'committee_'
'co'
'board_'
'awareness_'
'avaldus_'
'aruanne_'
'animals_'
'amending_'
'al'
'ahead_'
'ah'
'ada_'
'WÿÿÿÿÿÿÿÿÿÿÿÿÿÿÿÿÿÿÿÿþÿÿÿConnect_'
'Ukraine_'
'Tänan_'
'Tra'
'To'
'TE'
'Ri'
'Paljud_'
'Netherlands_'
'NI'
'MA'
'Ko'
'KO'
'IN'
'Hi'
'Gaza_'
'Ga'
'Fa'
'EC'
'Digital_'
'DA'
'Conference_'
'According_'
': [ _'
'726'
'306'
'112_'
' ; _'
'üsteemi_'
'ù'
'õige_'
'äri'
'ãÍãÏ_'
'ÑÉ_'
'ÇÓã_'
'ze'
'website_'
'väljaspool_'
'ult_'
'trading_'
'though_'
'teist_'
'teevad_'
'summit_'
'spordi'
'speed_'
'speak_'
'se'
'rest_'
'requires_'
'recently_'
'raamistik_'
'põhiõiguste_'
'põhi'
'piirkondades_'
'pa'
'mõne_'
'moment_'
'mitu_'
'loomade_'
'liikmed_'
'later_'
'kulud_'
'kolleegid_'
'kohtumisel_'
'kogu'
'kind_'
'keegi_'
'kaupade_'
'integreeritud_'
'independent_'
'hääletasin_'
'establishing_'
'esitama_'
'esile_'
'era'
'enamik_'
'elements_'
'el'
'conflict_'
'closed_'
'ce'
'beyond_'
'barriers_'
'au'
'arengut_'
'andmeid_'
'alal_'
'aastas_'
'Vabariik_'
'US'
'Thank_'
'TI'
'Summit_'
'Su'
'Slovenia_'
'PI'
'Of_'
'Ni'
'Nations_'
'NE'
'Minutes_'
'Ministrid_'
'MO'
'Ki'
'Ja'
'India_'
'Finland_'
'Declaration_'
'CS_'
'Bosnia_'
'Aga_'
'400_'
'197'
'.._'
'%-_'
' “_'
'ا'
'üldise_'
'õigusaktid_'
'ßæÏ_'
'ÓÇ'
'ÊÇ'
'ÈÇ'
'ºOKtext_'
'¹'
'väike_'
'ver_'
'users_'
'töökohti_'
'turn_'
'top_'
'toimus_'
'teks_'
'teate_'
'teatavate_'
'table_'
'sent_'
'scale_'
'rise_'
'regime_'
'reformi_'
'ra_'
'propose_'
'producers_'
'post'
'party_'
'offers_'
'nõuetele_'
'nõuda_'
'neli_'
'mõeldud_'
'muutunud_'
'mitte'
'misel_'
'läbi'
'loomise_'
'li'
'kohustus_'
'kellel_'
'kasutavad_'
'kasutamine_'
'juuli_'
'ities_'
'inter'
'htmlgzipÐ_'
'fa'
'ettevõtted_'
'eraldi_'
'endast_'
'elu'
'effectively_'
'eesmärgil_'
'ead'
'du'
'credit_'
'closely_'
'cities_'
'bilateral_'
'bi'
'ba_'
'areng_'
'aa_'
'`'
'\\ _'
'WÿÿÿÿÿÿÿÿÿÿÿÿÿÿÿÿÿÿÿÿÈà'
'WÿÿÿÿÿÿÿÿÿÿÿÿÿÿÿÿÿÿÿÿÈÐ'
'Sloveenia_'
'PSE_'
'Ma'
'José_'
'Ida_'
'Hu'
'HU_'
'Food_'
'En'
'Ei'
'EL'
'During_'
'CAP_'
'BOKtext_'
'African_'
'AS'
'@'
'- (_'
'$_'
' ¯_'
'ümber_'
'ãÑßÒ_'
'Üllatus_'
'ÜVJP_'
'ÑÝÚ_'
'ÏÇ'
'Çä'
'ÅÚáÇäÇÊ_'
'±_'
'zi'
'võimaluste_'
'võidelda_'
'violence_'
'vehicles_'
'vee_'
'valitud_'
'vajab_'
'vaatamata_'
'ule_'
'tõsta_'
'tuleviku_'
'toimimise_'
'territory_'
'tasandi_'
'spending_'
'sioon_'
'secure_'
'riski'
'riikliku_'
'pre'
'poliitika'
'piiri'
'piiratud_'
'pi'
'parandamiseks_'
'opening_'
'no'
'nimelt_'
'mõju'
'määrus_'
'mutual_'
'mission_'
'mi'
'measure_'
'linked_'
'les_'
'latest_'
'konventsiooni_'
'kontrolli'
'kohe_'
'known_'
'kavas_'
'juunis_'
'juhtida_'
'join_'
'investments_'
'innovative_'
'ings_'
'infrastruktuuri_'
'inclusion_'
'improvement_'
'hinnata_'
'guidelines_'
'growing_'
'gives_'
'experts_'
'ettevõtjate_'
'ettevõtjad_'
'ettepanekute_'
'eli'
'do'
'diversity_'
'df_'
'covered_'
'court_'
'commercial_'
'cars_'
'bb_'
'b8_'
'ati'
'ale_'
'advantage_'
'adi'
'achieving_'
'aad'
'a3_'
'Si'
'Lõpetuseks_'
'LA'
'Kingdom_'
'Joint_'
'Irish_'
'From_'
'FI'
'Enne_'
'EN'
'Denmark_'
'Da'
'Culture_'
'Consumer_'
'Common_'
'CE_'
'Bÿÿÿÿ_'
'AR'
'229_'
'192'
'100'
'( _'
'& _'
'%, _'
' &_'
'æÇá'
'×_'
'Çã'
'worked_'
'weeks_'
'väljendada_'
'via_'
'vat_'
'vahe'
'tulemuste_'
'to'
'tions_'
'tide_'
'tervise_'
'ten_'
'tee_'
'tackle_'
't17'
'süsinikdioksiidi_'
'statement_'
'ss'
'six_'
'saying_'
'sanctions_'
'safe_'
'ring_'
'raised_'
'põhimõtet_'
'puzzle_'
'property_'
'professional_'
'printer_'
'prevention_'
'praeguse_'
'police_'
'pe_'
'participate_'
'parandamine_'
'näitavad_'
'näidanud_'
'naised_'
'märkimisväärselt_'
'methods_'
'malt_'
'loomine_'
'lahendusi_'
'käsitleda_'
'koostöös_'
'kohalike_'
'kavatseb_'
'kasutama_'
'järgmisel_'
'juures_'
'ju_'
'jaid_'
'involving_'
'institutional_'
'inimest_'
'informed_'
'ical_'
'hulka_'
'hukka_'
'heard_'
'ght_'
'fund_'
'friendly_'
'fiscal_'
'figures_'
'fall_'
'f5_'
'esindajad_'
'enti'
'ed'
'documents_'
'd9_'
'd5_'
'cron_'
'community_'
'ci'
'cha'
'ch'
'central_'
'burden_'
'applications_'
'annavad_'
'algatuse_'
'ala_'
'adequate_'
'acts_'
'accidents_'
'^ _'
'World_'
'Today_'
'Tel_'
'THE_'
'Slovakkia_'
'SO'
'SI'
'SE'
'RA'
'ON_'
'Lääne_'
'Lithuania_'
'LI'
'Just_'
'Jean_'
'Innovation_'
'Go'
'Ent_'
'Ei_'
'Day_'
'CC_'
'Belgia_'
'6c_'
'4e_'
'292'
' *_'
' (+_'
'õigusakti_'
'ãæÖæÚ_'
'áÇ_'
'ßã_'
'ßÇ'
'Úáíßã_'
'ÚÑÖ_'
'Ïæ'
'Êæ'
'ÊÑ'
'ÇáåäÏÓÉ_'
'ÇáÚ'
'ÇÓ'
'ÅíÌÇÏ_'
'»_'
'¬_'
'war_'
'tõsiselt_'
'tingitud_'
'ties_'
'teistes_'
'tasuta_'
'submitted_'
'sti_'
'sti'
'stabiilsuse_'
'soovi_'
'sisse_'
'sisse'
'similar_'
'seis'
'ru'
'respond_'
'represents_'
're'
'rd_'
'põhjusel_'
'parliamentary_'
'out'
'osa'
'on'
'month_'
'mingit_'
'lu'
'liikumise_'
'leaders_'
'laws_'
'küsimusele_'
'kuulub_'
'kur'
'kultuuri'
'konkreetseid_'
'kindlalt_'
'kal'
'järelevalve'
'judicial_'
'invited_'
'ing'
'infringement_'
'increasingly_'
'ina_'
'improved_'
'ial_'
'hard_'
'friend_'
'forms_'
'flash_'
'fc_'
'everything_'
'et'
'esineb_'
'esimest_'
'e2_'
'direction_'
'customs_'
'culture_'
'coordinated_'
'continued_'
'ces_'
'cal_'
'bri'
'boost_'
'ber'
'arendada_'
'ant_'
'answer_'
'alguses_'
'addresses_'
'WÿÿÿÿÿÿÿÿÿÿÿÿÿÿÿÿÿÿÿÿÈ0'
'Vassiliou_'
'Vabariigi_'
'Trade_'
'Over_'
'Oleme_'
'Lu'
'Kolm_'
'Internal_'
'Georgia_'
'Eastern_'
'Bar'
'942'
'7a_'
'467'
'327'
'300_'
'195'
'124_'
'. '
'# _'
' )_'
'Š'
'üldse_'
'ühtne_'
'ühtekuuluvuspoliitika_'
'áã'
'áÜ_'
'Ühenduse_'
'ÚÉ_'
'ÇáãÔÇÑßÉ_'
'¾'
'¤_'
'youth_'
'ye'
'xi'
'võeti_'
'vee'
'van'
'vajaduse_'
'vahelise_'
'ut_'
'usa'
'us'
'ure_'
'tööle_'
'täpselt_'
'tust_'
'turgude_'
'tsiviil'
'tool_'
'tis'
'tegutseda_'
'teadus'
'suuri_'
'strategies_'
'spent_'
'sized_'
'significantly_'
'ships_'
'shared_'
'sets_'
'sellist_'
'reporting_'
'ren'
'protokoll_'
'projekt_'
'pollution_'
'ping_'
'paketi_'
'ou'
'otsustas_'
'ory_'
'ng'
'muidugi_'
'mitmekesisuse_'
'materials_'
'material_'
'majanduslikku_'
'mainly_'
'link_'
'lennundus'
'küsimused_'
'korralda'
'koostöö'
'kokkulepe_'
'järgmised_'
'jo'
'ji'
'issued_'
'ir'
'hõlmavad_'
'html0c'
'hindade_'
'heitkoguste_'
'he'
'ha'
'giving_'
'fun_'
'feel_'
'f4_'
'esitanud_'
'erinevaid_'
'eri'
'energia'
'eda'
'ea'
'detsembris_'
'db_'
'conclusion_'
'collecting_'
'caused_'
'behind_'
'becoming_'
'bad_'
'b6_'
'alternative_'
'allowing_'
'allowed_'
'accounts_'
'aal'
'Un'
'SIS_'
'Pi'
'People_'
'Ne'
'Name_'
'Latvia_'
'JA'
'Iran_'
'Iga_'
'Human_'
'Home_'
'Galileo_'
'EM'
'Code_'
'Baltic_'
'764'
'746'
'5e_'
'341'
'339'
'326'
'191'
'138'
'124'
' ±_'
'ي'
'üle'
'üld'
'ühis'
'æÈ'
'åí'
'ãí'
'ãÚØáÉ_'
'ãÇ'
'ßÊÈÊ_'
'Ôí'
'ÈæÇÈÉ_'
'ÇáÏæÑ_'
'½'
'© _'
'£ _'
'worldwide_'
'voting_'
'vaesuse_'
'urgent_'
'tõhusalt_'
'täiskogu_'
'täiendavaid_'
'tähtsusega_'
'trying_'
'transposition_'
'tooteid_'
'toime_'
'toetama_'
'tobacco_'
'ter'
'suse_'
'stronger_'
'sport_'
'spirit_'
'soil_'
'sobiva'
'siseturu_'
'session_'
'series_'
'seisukoht_'
'sea_'
'responsibilities_'
'remember_'
'reformi'
'raha'
'põllumajandus_'
'punkti_'
'ps_'
'produce_'
'person_'
'pensioni'
'pat'
'passenger_'
'parlamendis_'
'paper_'
'palun_'
'os'
'olulisi_'
'olete_'
'nta'
'ngu'
'nendest_'
'lus_'
'loss_'
'loodud_'
'learning_'
'largest_'
'käi'
'kulusid_'
'kulu'
'ku'
'korraldada_'
'järgmist_'
'juhid_'
'ip'
'inimese_'
'ine'
'industrial_'
'her'
'green_'
'generation_'
'en'
'element_'
'der_'
'den_'
'defence_'
'dd_'
'ction_'
'consumption_'
'completely_'
'comes_'
'charge_'
'cd_'
'cation_'
'cab'
'binding_'
'avaldada_'
'arengu'
'alus_'
'alles_'
'agencies_'
'accepted_'
'^_'
'WÿÿÿÿÿÿÿÿÿÿÿÿÿÿÿÿÿÿÿÿÈÀ_'
'WÿÿÿÿÿÿÿÿÿÿÿÿÿÿÿÿÿÿÿÿÈP'
'WÿÿÿÿÿÿÿÿÿÿÿÿÿÿÿÿÿÿÿÿÈ0_'
'Usun_'
'UN'
'SP'
'RI'
'PO'
'Only_'
'NA'
'Moldova_'
'Manuel_'
'Läti_'
'Liitu_'
'Komitee_'
'Kohtu_'
'IR'
'Hÿÿÿÿ_'
'Horvaatia_'
'HTML_'
'HOKtext_'
'Funds_'
'Fe'
'Euroopat_'
'ER_'
'Do'
'D2_'
'Charter_'
'963'
'865'
'3b_'
'348'
'347'
'346'
'345'
'252'
'2050_'
'1b_'
'184'
'181'
'171'
'0a_'
','
' ¡_'
' {_'
' \\ _'
' ? _'
' - '
'  _'
'ülemineku'
'ülejäänud_'
'õl'
'æí'
'ãä'
'ãÊ'
'Þã_'
'Ñí'
'Ïí'
'ÇáÃÕáíÉ_'
'´ _'
'word_'
'vast_'
'vaba'
'uga_'
'ty_'
'tunnista'
'trans'
'tomorrow_'
'toetavad_'
'toetan_'
'teisi_'
'taxation_'
'tav_'
'taseme_'
'tagab_'
'säästva_'
'substances_'
'stress_'
'ssi'
'silmitsi_'
'sharing_'
'saan_'
'saama_'
'riikidest_'
'rid_'
'represent_'
'raudtee'
'rail_'
'rahastamine_'
'protecting_'
'pigem_'
'pidevalt_'
'parim_'
'otsused_'
'osalevad_'
'omi'
'oht_'
'obligation_'
'nõukogule_'
'nts_'
'ns'
'nor_'
'nextnewest_'
'modern_'
'meeles_'
'me'
'maa'
'ma'
'lõppenud_'
'läbipaistvuse_'
'loomist_'
'll_'
'lisas_'
'liiklus'
'lased_'
'kust_'
'ksin_'
'itse'
'introduction_'
'info_'
'im_'
'huvitatud_'
'huge_'
'html24'
'hotel_'
'hold_'
'hetkel_'
'gs_'
'goals_'
'gap_'
'ga'
'fast_'
'esitatakse_'
'ep'
'enda'
'emergency_'
'ea_'
'dra'
'document_'
'dimension_'
'despite_'
'cover_'
'correct_'
'bo'
'bio'
'big_'
'bab'
'arutelusid_'
'artikkel_'
'arrangements_'
'andnud_'
'ainete_'
'WÿÿÿÿÿÿÿÿÿÿÿÿÿÿÿÿÿÿÿÿÈð_'
'WÿÿÿÿÿÿÿÿÿÿÿÿÿÿÿÿÿÿÿÿÈð'
'WÿÿÿÿÿÿÿÿÿÿÿÿÿÿÿÿÿÿÿÿÈÀ'
'WÿÿÿÿÿÿÿÿÿÿÿÿÿÿÿÿÿÿÿÿÈp_'
'University_'
'Tea'
'System_'
'Sport_'
'Solitaire_'
'Parlamendis_'
'PE'
'Other_'
'Mu_'
'Man'
'Italian_'
'In'
'IT'
'FOKtext_'
'Climate_'
'Chinese_'
'CA'
'Arvan_'
'Annex_'
'AT'
'AN'
'AL'
'9d_'
'9c_'
'800_'
'5d_'
'532'
'436'
'385'
'316'
'1a_'
'182'
'125'
'101'
') (_'
'"'
'!'
' ¿_'
' ©_'
' ,_'
'ülimalt_'
'üldsuse_'
'õigusakte_'
'æã'
'æÑÔÉ_'
'æÑÍãÉ_'
'äÇ'
'ÓÿÿÿÿMon_'
'ÓNot_'
'ÇáÝÑíÞ_'
'ÇáÔ'
'ÇáËÇäí_'
'ÇáÃ'
'Çß'
'® _'
'« _'
'wrong_'
'viisa'
'vi'
'vastu'
'vajavad_'
'uks_'
'täielik_'
'types_'
'tooted_'
'tolli'
'tegutse'
'tavad_'
't186'
'süsteemid_'
'sõnas_'
'suurte_'
'sto'
'statements_'
'standard_'
'spam_'
'soovivad_'
'siht'
'seepärast_'
'says_'
'requests_'
'raise_'
'ra'
'punkt_'
'protsess_'
'proper_'
'poliitilisi_'
'planning_'
'parts_'
'otsustada_'
'ota'
'organisation_'
'options_'
'ongoing_'
'om'
'nu'
'ni'
'ndus'
'nd_'
'määrusega_'
'määratud_'
'muudetakse_'
'ms'
'mp'
'mis'
'mehhanismi_'
'mar'
'maid_'
'lt'
'lised_'
'likud_'
'le'
'laste'
'kõikides_'
'kõigis_'
'kõigepealt_'
'kuus_'
'kuse_'
'kohtu'
'kliimamuutuse_'
'keskenduda_'
'kesk'
'kehtestatakse_'
'karistus'
'jõud_'
'istungil_'
'istung_'
'istu'
'isi_'
'introduced_'
'hu'
'htmlea'
'htmldd'
'htmlcd'
'html1b'
'html03'
'homme_'
'ho'
'happen_'
'gu_'
'greenhouse_'
'go'
'ft'
'formal_'
'extension_'
'exist_'
'erasektori_'
'equal_'
'entitled_'
'entire_'
'ely_'
'eeri'
'edendamiseks_'
'distribution_'
'disc'
'dis'
'considerable_'
'complete_'
'c3_'
'brought_'
'broadband_'
'be'
'ating_'
'ated_'
'andma_'
'an'
'ai'
'affairs_'
'ade'
'ac_'
'WÿÿÿÿÿÿÿÿÿÿÿÿÿÿÿÿÿÿÿÿÈà_'
'WordPress_'
'Vahemere_'
'Va'
'Ti'
'Teine_'
'So'
'Secondly_'
'Sal'
'Regional_'
'Pu'
'Pri'
'Permanent_'
'Paper_'
'PR'
'Norway_'
'Me'
'ME'
'Ktext_'
'Is'
'Iraani_'
'Inter'
'Ho'
'Har'
'HO'
'Fÿÿÿÿ_'
'Finance_'
'El'
'Di'
'Co'
'CI'
'Be'
'Balkani_'
'>_'
'9e_'
'674'
'669'
'5b_'
'588'
'384'
'351'
'307'
'030'
'008'
'... _'
'('
'''
' £ _'
'ع'
'ütlema_'
'äÔÇØ_'
'áæ'
'Õigus'
'ÍÇ'
'Èæ'
'ÇáãáÝÇÊ_'
'©_'
'¦_'
'{ _'
'welcomed_'
'võtavad_'
'vähendamiseks_'
'voluntary_'
'viie_'
'vi_'
'varjupaiga'
'vallas_'
'uuringu_'
'usu'
'unemployment_'
'une'
'una'
'tõenäoliselt_'
'täitmise_'
'tro'
'tootmise_'
'toidu'
'tell_'
'tada_'
'ta'
'suur'
'supervision_'
'stated_'
'started_'
'stand_'
'soovib_'
'sisalda'
'siooni'
'ship_'
'seni_'
'sendtofriend_'
'sellised_'
'seid_'
'seejärel_'
'sWÿÿÿÿÿÿÿÿÿÿÿÿÿÿÿÿÿÿÿÿÈ'
'running_'
'rt'
'rs'
'restrictions_'
'reisi'
'rahu_'
'protokolli_'
'proposing_'
'poor_'
'perhaps_'
'path_'
'participation_'
'otsusta'
'otsust_'
'ot'
'oskuste_'
'oni'
'ona'
'oktoobril_'
'noted_'
'nn_'
'nationals_'
'mõttes_'
'mõjutada_'
'määra_'
'ministrite_'
'menetlus_'
'men'
'meedia_'
'lõike_'
'läheb_'
'liit_'
'lahendamiseks_'
'kuhu_'
'kriisi'
'koo'
'konverentsi_'
'konkurentsivõimet_'
'kodanikke_'
'kinnitab_'
'ker'
'keeles_'
'kauplemise_'
'ju'
'ita'
'isikuandmete_'
'ise'
'is'
'instead_'
'hääletus_'
'html'
'han'
'guarantees_'
'goes_'
'gaasi'
'fraud_'
'evidence_'
'ev_'
'eu'
'eta'
'estimated_'
'esi'
'eni_'
'ek'
'differences_'
'detsembril_'
'den'
'delegatsioonid_'
'delayed'
'debt_'
'deb'
'dc_'
'da'
'd2_'
'critical_'
'connection_'
'communities_'
'c8_'
'c4_'
'below_'
'ba0'
'atud_'
'ata'
'asja_'
'animal_'
'andmise_'
'alone_'
'allows_'
'alg'
'airlines_'
'aastaga_'
'a7_'
'\u _'
'WÿÿÿÿÿÿÿÿÿÿÿÿÿÿÿÿÿÿÿÿÈP_'
'TU'
'Slovakia_'
'Sel_'
'RO'
'Privacy_'
'OT'
'Nor'
'Mida_'
'Martin_'
'Ke'
'Ka'
'Israel_'
'GH'
'FA'
'Despite_'
'DI'
'CO'
'CH'
'Bulgaaria_'
'Bu'
'Brüsselis_'
'Bri'
'Amendment_'
'Ab'
':'
'999'
'8e_'
'6e'
'6a_'
'593'
'510'
'489'
'44e'
'415'
'411'
'319'
'291'
'255'
'202'
'187'
'158'
'155'
'139'
'102'
'- '
' ´_'
' ¤_'
' .._'
'م'
'üksi_'
'ühel_'
'öö'
'õigusriigi_'
'æÊ'
'åÇ'
'ãæ'
'ãÚ'
'ãÇ_'
'ßí'
'ÝÇ'
'ÛíÑ_'
'ÌÏíÏ_'
'ÈÉ_'
'ÇáãÊ'
'Çáá'
'Çáß'
'ÇáÞ'
'ÇáÑ'
'ÇáÏáÇáíÉ_'
'ÇáÇ'
'ÃÓ'
'± _'
'¥_'
'ya'
'võrgu'
'võrdõiguslikkuse_'
'võiksid_'
'väärtuse'
'vuse_'
'vastavad_'
'uta'
'ur_'
'ul_'
'ua'
'tõsi_'
'ts'
'truly_'
'treaty_'
'ton_'
'tingimusi_'
'threat_'
'tervitab_'
'teeme_'
'taks_'
'tabled_'
'suurepärase_'
'sustainability_'
'survey_'
'summa_'
'suffering_'
'submit_'
'sub'
'sotsiaalne_'
'son_'
'sites_'
'selgitada_'
'sal'
'rühma_'
'rk'
'riigiabi_'
'rea'
'rapporteurs_'
'pöördu'
'põhimõtte_'
'pä'
'protected_'
'projekte_'
'presence_'
'prepare_'
'powers_'
'please_'
'paranda'
'para'
'panna_'
'ourselves_'
'oodata_'
'oli'
'ol'
'official_'
'offered_'
'nendes_'
'negotiating_'
'nda'
'määrust_'
'määra'
'määr_'
'musketäri_'
'message_'
'meeste_'
'maksu'
'majandusliku_'
'majandus'
'lõppu_'
'luba'
'loomiseks_'
'limit_'
'likely_'
'lau'
'laenu'
'korra_'
'kohal_'
'kasutades_'
'kalandus'
'kala'
'kahjuks_'
'kaalu'
'jälgida_'
'jne_'
'iva'
'innovatsiooni'
'ini'
'independence_'
'ina'
'ier_'
'identified_'
'idele_'
'hä'
'hulk_'
'html30'
'hoone'
'history_'
'guns_'
'genuine_'
'gender_'
'extent_'
'etc_'
'este'
'engage_'
'enese'
'employees_'
'eelarvest_'
'domestic_'
'direktiiviga_'
'design_'
'deficit_'
'declaration_'
'dd'
'convinced_'
'cd5'
'body_'
'bility_'
'balanced_'
'b2_'
'aviation_'
'auto'
'atakse_'
'aspect_'
'ased_'
'arenenud_'
'arcade_'
'annoyed_'
'andmine_'
'andis_'
'allocated_'
'algatusi_'
'a39'
'TEN_'
'Services_'
'SV_'
'ST'
'Ru'
'Per'
'Na'
'MEDIA_'
'Läänemere_'
'Loomulikult_'
'LO'
'Ju'
'IM'
'IA'
'God_'
'Further_'
'Fo'
'Fisheries_'
'Dear_'
'Afghanistan_'
'< _'
'939'
'753'
'741'
'695'
'656'
'602'
'519'
'517'
'438'
'423'
'343'
'273'
'260'
'257'
'243'
'169'
'109'
'104'
'.. _'
' @ _'
'öeldes_'
'õigus'
'æÑ'
'æÈÑßÇÊå_'
'Ühendkuningriigi_'
'ÏÑ'
'ÍÝÙ_'
'ÊÍ'
'ÇáãÔÇåÏÇÊ_'
'ÇáÃäãí_'
'ÃËíÑ_'
'º'
'¸ _'
'´_'
'¨_'
'¤ _'
'yt'
'võrgustiku_'
'vulnerable_'
'vs'
'ving_'
've'
'vali'
'understanding_'
'tööta'
'tähenda_'
'tuse_'
'turgu_'
'tur'
'tulevikku_'
'tse'
'tor'
'tippkohtumisel_'
'timed_'
'tea_'
'tasemel_'
'targeted_'
'tagasi'
'sätted_'
'supports_'
'summer_'
'strengthened_'
'starting_'
'st'
'sse'
'speaking_'
'source_'
'soolise_'
'ser'
'september_'
'sellepärast_'
'seisukoha_'
'sega_'
'sea'
'schemes_'
'sat'
'rõhutab_'
'ressursside_'
'represented_'
'reisijate_'
'reference_'
'ras_'
'rahva'
'rahul_'
'properly_'
'programmid_'
'presidency_'
'praegune_'
'poliitiline_'
'pla'
'passi'
'ot_'
'osaliselt_'
'organisatsioonid_'
'olevat_'
'odi'
'nõuded_'
'ner_'
'mõjutab_'
'ms_'
'motion_'
'moodustavad_'
'monitor_'
'ministeeriumi_'
'medical_'
'maailma'
'lubage_'
'limits_'
'küljest_'
'kõrvale_'
'kõnele'
'kutsutakse_'
'kutse'
'kuluta'
'ksime_'
'kirja_'
'kiiremini_'
'kasvu'
'kasv_'
'kasutus'
'ka'
'jääda_'
'jää'
'jätku'
'investeeringuid_'
'humanitaar'
'hours_'
'hal'
'grant_'
'gra'
'goal_'
'getting_'
'generally_'
'gem_'
'freight_'
'fee'
'f0_'
'extra_'
'express_'
'esiteks_'
'esita'
'esindajate_'
'esimesel_'
'equality_'
'entry_'
'ent'
'elected_'
'ele'
'ekt'
'eesistujariigi_'
'eed'
'ebaseadusliku_'
'e7a'
'diskrimineerimise_'
'dee'
'd1_'
'continues_'
'con'
'checks_'
'cause_'
'carry_'
'bla'
'bee'
'became_'
'back'
'b9_'
'b9'
'avaldab_'
'av_'
'aste_'
'ama_'
'aktiivselt_'
'affect_'
'add_'
'a8_'
'a2_'
'] '
'Western_'
'VE'
'Us'
'Uploaded_'
'Tänu_'
'Te'
'Sea'
'Pa'
'Out'
'North_'
'NO'
'Michel_'
'Mari'
'Lõpuks_'
'Kar'
'IC'
'Gro'
'Frontex_'
'Cyprus_'
'BE'
'9dd'
'940'
'79a'
'757'
'607'
'600_'
'582'
'578'
'4a_'
'3f_'
'3a'
'362'
'342'
'311'
'277'
'247'
'244'
'233'
'231'
'228'
'196'
'189'
'175'
'168'
'142_'
'140'
'13d'
'110'
'073'
'.)_'
'); _'
' ;_'
' -, _'
' )._'
' ! _'
'د'
'š'
'íæã_'
'æå'
'ãÚ_'
'ãÔÊÑß_'
'ãÉ_'
'ßáãÉ_'
'ßÊ'
'ÕNot_'
'ÌÏ'
'ÌÇ'
'ÇáÚÈÇÑÇÊ_'
'ÇáÑÌÇÁ_'
'ÃáÈæãÇÊ_'
'ze_'
'websites_'
'wanted_'
'wa'
'võimalda'
'väikeste_'
'video_'
'version_'
'veidi_'
'vastutuse_'
'valimiste_'
'valik_'
'usega_'
'ude_'
'ub_'
'ub'
'u12'
'töö'
'tähenda'
'tutvusta'
'turg_'
'tugevda'
'toodud_'
'tingimuste_'
'te'
'tava_'
'tatud_'
'tarbijad_'
'tarbija_'
'taha_'
'taastuvenergia_'
'sõidukite_'
'suurendamine_'
'studies_'
'stu'
'stop_'
'stock_'
'statistics_'
'speech_'
'sotsiaal'
'sign_'
'sha'
'seems_'
'ruumi_'
'riiklikke_'
'riike_'
'regularly_'
'rWÿÿÿÿÿÿÿÿÿÿÿÿÿÿÿÿÿÿÿÿÈ'
'põhjendatud_'
'putting_'
'post34'
'poliitiliste_'
'po'
'plenary_'
'piiri_'
'perspektiivis_'
'perspective_'
'paragraph_'
'otsi'
'or'
'oll'
'oktoober_'
'oc'
'nõukogus_'
'nähakse_'
'nti'
'namely_'
'mõtte'
'muutmise_'
'multi'
'mitmed_'
'metsa'
'meri'
'membership_'
'mal'
'majanduskasv_'
'majandusele_'
'mai_'
'lõpp'
'lõpetada_'
'lähenemisviis_'
'lost_'
'loans_'
'linna'
'lia'
'lepingute_'
'len'
'leidnud_'
'learn_'
'launch_'
'lapse'
'laeva'
'kõrvaldada_'
'kõne_'
'kõikidele_'
'käibemaksu'
'kuue_'
'kutsus_'
'konverentsil_'
'konkurentsi'
'kohalda'
'keele'
'kasulik_'
'jätta_'
'jätkusuutliku_'
'juunil_'
'julgeoleku'
'ism_'
'involvement_'
'investeerimis'
'intellectual_'
'iku_'
'ida_'
'hybrid_'
'htmlf6'
'htmlbe'
'html96'
'html2f'
'hinna_'
'healthcare_'
'finances_'
'feed_'
'fba'
'f7'
'f6_'
'es'
'ero'
'eo'
'enhanced_'
'energiatõhususe_'
'eesmärki_'
'ees'
'eelmisel_'
'ect'
'eaa'
'e0_'
'duty_'
'du_'
'detailed_'
'der'
'deli'
'd3d'
'construction_'
'combating_'
'chi'
'changing_'
'chance_'
'cc0'
'came_'
'bur'
'bea'
'bd_'
'bank_'
'b5_'
'b0_'
'avaldatud_'
'authority_'
'authorisation_'
'associated_'
'asjad_'
'asetäitja_'
'aset_'
'arvamust_'
'artiklis_'
'approval_'
'announced_'
'ameti'
'am'
'als_'
'aeg'
'abb'
'a9_'
'a0_'
'Wa'
'WI'
'Võttes_'
'Uus_'
'Ukraina_'
'Töö'
'Tue_'
'Taani_'
'Ste'
'Mystery_'
'Most_'
'Mobile_'
'Mi'
'Mc'
'Maritime_'
'Management_'
'Lubage_'
'Labour_'
'KI'
'Jo'
'Iraq_'
'Iisraeli_'
'Green_'
'Gra'
'Fi'
'Euroopale_'
'Et_'
'English_'
'EA'
'Daamid_'
'DO'
'Consumers_'
'Ch'
'Bra'
'Both_'
'Belarus_'
'Au'
'AhmedEldeep_'
'AS_'
': ~~~][_'
'954'
'953'
'948'
'945'
'91a'
'906'
'905'
'877'
'7b1'
'798'
'788'
'781'
'767'
'751'
'718'
'698'
'610'
'5a_'
'535'
'527'
'3a5'
'344'
'308'
'274'
'271'
'253'
'249'
'200'
'180'
'17f'
'173'
'150'
'149'
'122_'
'122'
'112'
'009'
'-'
',"_'
') '
' ¿ ¿ ¿ '
' « _'
' @_'
' < _'
' .:. _'
' (  _'
'ك'
'ف'
'č'
'ümber'
'üldist_'
'ühist_'
'öelnud_'
'õigusliku_'
'íå_'
'åäÜÜÇ_'
'áí'
'ááÇÔÊÑÇß_'
'ÕÇ'
'Êí'
'ÊÝíÏ_'
'ÈÑäÇãÌ_'
'ÈÃäß_'
'Çáä'
'ÇáÑÓÇáÉ_'
'ÇÖÛØ_'
'° '
'¯_'
'¬ _'
'¢_'
'võitlemiseks_'
'välis'
'viimastel_'
'vessels_'
'veebisait_'
'valiku'
'use'
'usaldusväärse'
'uri'
'under'
'ud'
'töötajaid_'
'tõhusa_'
'tõ'
'tus'
'turismi'
'tund'
'tulla_'
'tulemus_'
'transpordi'
'transfer_'
'tive_'
'tesse_'
'tervishoiu_'
'teo'
'tekita'
'tegelema_'
'tase_'
'taotluse_'
'tagamine_'
'taas'
'sõit'
'säilita'
'suurim_'
'suurenenud_'
'suured_'
'suggest_'
'status_'
'starteronly_'
'species_'
'sotsiaalset_'
'soovitusi_'
'side'
'selliseid_'
'sellesse_'
'sel'
'script_'
'sala'
'saat'
'rti'
'ret'
'reflect_'
'rapidly_'
'põhineb_'
'puutub_'
'purpose_'
'pu'
'protsessis_'
'processes_'
'posts_'
'ple'
'pidama_'
'peaminister_'
'parents_'
'parema_'
'pal'
'opposition_'
'oodete_'
'olemasolevate_'
'näib_'
'nädalal_'
'november_'
'nelja_'
'muudetud_'
'milline_'
'mention_'
'maximum_'
'managed_'
'lõpus_'
'lõ'
'lit'
'lehel_'
'late_'
'lastele_'
'küsimustele_'
'kõike_'
'kul'
'kt'
'komisjonis_'
'kokkuleppe'
'kodu'
'kaubandus_'
'kat'
'kallis_'
'jälgi'
'isel_'
'isa'
'investeeringud_'
'influence_'
'image_'
'ica'
'hy'
'humanitaarabi_'
'htmlgzipÀÑF_'
'htmla9'
'html59'
'html00'
'hoolimata_'
'hoo'
'hind_'
'hakkab_'
'funded_'
'for'
'flows_'
'f39'
'ettevõtetele_'
'ettepanekus_'
'ennast_'
'end'
'ena_'
'employers_'
'elavad_'
'eg'
'ef_'
'eelmise_'
'eb_'
'e9_'
'e7b'
'e7_'
'doubt_'
'don_'
'dia'
'des'
'consistent_'
'considering_'
'complex_'
'closer_'
'city_'
'chemicals_'
'c9_'
'c0_'
'broad_'
'biodiversity_'
'bas'
'ate'
'amise_'
'ala'
'ak'
'airports_'
'ae_'
'ad'
'actual_'
'aastate_'
'a1_'
'Year_'
'Wi'
'Ver'
'Under_'
'UR'
'Teie_'
'Sta'
'Since_'
'Riigi'
'Party_'
'Paris_'
'Para'
'Pal'
'Organisation_'
'Once_'
'OR'
'ON'
'Montenegro_'
'Loodan_'
'LU'
'KU'
'Jugoslaavia_'
'JU'
'Its_'
'Google_'
'GI'
'GARDENA_'
'Fundamental_'
'Fra'
'Federal_'
'Direct_'
'DG_'
'Cohesion_'
'CoR_'
'CK'
'CFSP_'
'Ar'
'America_'
'9f_'
'8c_'
'870'
'862'
'859'
'843'
'83a'
'82d'
'702'
'6f0'
'6e_'
'6d_'
'688'
'678'
'641'
'614'
'613'
'583'
'525'
'520'
'484'
'481'
'455'
'371'
'368'
'359'
'323'
'321'
'318'
'317'
'314'
'297'
'269'
'258'
'234'
'206'
'1e6'
'1999_'
'1990_'
'199'
'179'
'154'
'146'
'143'
'120'
'015'
' »_'
' ¸_'
' ¬_'
' «_'
' =_'
' -'
'ل'
'üü'
'üsimuste_'
'õpeta'
'õigusta'
'åÇ_'
'ßæ'
'ÜÜÜ'
'Ühendriikide_'
'ØÇ'
'× _'
'ÕÿÿÿÿMon_'
'ÓáÓáÉ_'
'Ñæ'
'ÈÑ'
'ÇáÝßÑ_'
'ÇÆ'
'ÅÕÏÇÑÇÊ_'
'{_'
'ym'
'whilst_'
'võimaldada_'
'visit_'
'veed_'
'vastata_'
'vara_'
'valitse'
'valida_'
'val'
'vabaduse_'
'vaatama_'
'uva'
'uurida_'
'usaldust_'
'urges_'
'urge_'
'urban_'
'union_'
'tänase'
'täitma_'
'täieliku_'
'tähtaja'
'tv'
'tungivalt_'
'transition_'
'tootjate_'
'told_'
'toimuva_'
'tin'
'tii'
'tic_'
'thinking_'
'thereby_'
'theme_'
'tervishoiu'
'terrorismi_'
'temporary_'
'tele'
'teema'
'teadlik_'
'tava'
'tasakaalu_'
'tarvis_'
'tar'
'tahab_'
'tagatud_'
't187'
'surma_'
'suhted_'
'strongly_'
'sobi'
'size_'
'situations_'
'sise'
'sion_'
'sin'
'simple_'
'sia'
'sh'
'seriously_'
'sektor_'
'rõhutas_'
'räägime_'
'roo'
'riiklikul_'
'raportit_'
'rakenda'
'rahvusvahelisel_'
'quotas_'
'procurement_'
'piirkonnad_'
'pidanud_'
'peetud_'
'par'
'palve'
'pakett_'
'osale'
'oo'
'olevate_'
'numbers_'
'nearly_'
'mõlema_'
'määrata_'
'märtsis_'
'misele_'
'minorities_'
'milliseid_'
'migrants_'
'merendus'
'matemaatika_'
'mark_'
'manner_'
'maksete_'
'maja'
'mainitud_'
'lõpule_'
'läbivaatamise_'
'läbirääkimistel_'
'ls'
'liikmesriikidega_'
'liikmeid_'
'lihtsustada_'
'lihtne_'
'lask'
'lahendused_'
'labelling_'
'küsi'
'käsitle'
'kujunda'
'koostatud_'
'kohtu_'
'kiire'
'kehtivad_'
'kehtib_'
'keeruline_'
'kapitali_'
'kalavarude_'
'jõudnud_'
'jäätmete_'
'jätkama_'
'järgi_'
'jal_'
'it'
'invest_'
'internetis_'
'insurance_'
'inform_'
'increases_'
'income_'
'imposed_'
'ima'
'ie'
'idu'
'ib'
'ian_'
'ia'
'htmle2'
'htmle1'
'htmlce'
'htmlc3'
'html9f'
'html5f'
'html02'
'harmonisation_'
'haldus'
'grounds_'
'granted_'
'gm'
'fuels_'
'fo'
'fire_'
'findings_'
'finants'
'fb0'
'facilitating_'
'exercise_'
'excessive_'
'exactly_'
'euros'
'ess_'
'enlargement_'
'enabling_'
'eeskirjadega_'
'e82'
'duties_'
'dumping_'
'discussing_'
'direktiivis_'
'definition_'
'def'
'damage_'
'd92'
'd84'
'cor'
'consideration_'
'competent_'
'committees_'
'comments_'
'collective_'
'claim_'
'c6_'
'c35'
'c1d'
'book_'
'bi_'
'begin_'
'bed'
'be9'
'bdb'
'bar'
'ba6'
'ava'
'author_'
'austa'
'atu'
'asse'
'asjaomase_'
'aruandes_'
'article_'
'art'
'arendamise_'
'approximately_'
'applies_'
'and'
'analüüsi'
'amended_'
'af'
'aeb'
'addressing_'
'ac'
'aat'
'aastani_'
'aastaid_'
'a81'
'\\_'
'Za'
'We'
'Van_'
'VA'
'Twitter_'
'Thursday_'
'Then_'
'Soome_'
'Science_'
'Sch'
'Praeguse'
'Port'
'Pe'
'Neelie_'
'NATO_'
'Mu'
'Mor'
'MEPs_'
'LIFE_'
'Kohus_'
'Juncker_'
'Interneti_'
'IS_'
'Gr'
'Even_'
'EN_'
'EFSI_'
'ED'
'Description_'
'Data_'
'Civil_'
'Bro'
'Bio'
'Balkans_'
'Asia_'
'Another_'
'9f'
'968'
'900'
'8c'
'830'
'812'
'810'
'7c_'
'790'
'777'
'74c'
'721'
'708'
'6a'
'689'
'687'
'684'
'683'
'67a'
'650'
'628'
'5ff'
'577'
'562'
'557'
'529'
'4e5'
'474'
'458'
'410'
'389'
'381'
'354'
'350'
'336'
'305'
'2b_'
'270'
'25c'
'219'
'188'
'162'
'133'
'126'
'108'
'101_'
'014'
') - _'
' ‘_'
' — _'
' ¶_'
' ¢_'
' :'
' %_'
' # _'
'  '
'ت'
'ütlesin_'
'ütleb_'
'õppe'
'õigusaktidega_'
'æÚáíßã_'
'äæÑ_'
'ãí_'
'ãÑ'
'ãÍ'
'áã_'
'ÚÖæ_'
'ÚÏ'
'Øæ'
'ÔÇ'
'ÐÇÊ_'
'Ìã'
'Êä'
'ÊÑÌãÉ_'
'Çæ'
'ÇáãÑæÑ_'
'ÇáÕ'
'ÇáÎ'
'ÇáÌ'
'worth_'
'wi'
'võitlus_'
'vil'
'vastuvõtmine_'
'vastutust_'
'varude_'
'valt_'
'valimis'
'vajadus_'
'uuringud_'
'usk'
'ures_'
'und'
'uk'
'tõeliselt_'
'tuuma'
'tulu_'
'tulenevalt_'
'tul'
'tuks_'
'toidu_'
'tervitan_'
'tervise'
'teistele_'
'tehnoloogia'
'teenused_'
'teeni'
'tee'
'team_'
'tasks_'
'tasakaalustatud_'
'sõltub_'
'sätteid_'
'suurendamiseks_'
'sur'
'super'
'strict_'
'ste'
'standardite_'
'specifically_'
'speaker_'
'sound_'
'sla'
'ski'
'sisu_'
'signal_'
'sete_'
'sektori'
'saate_'
'saata_'
'rõhutasid_'
'rände_'
'rising_'
'ril'
'riigi'
'revision_'
'restructuring_'
'researchers_'
'reply_'
'reisija'
'regular_'
'ratifitseeri'
'rak'
'rahasta'
'qualified_'
'põlvkonna_'
'põhjus_'
'purposes_'
'providers_'
'presidendi_'
'pp'
'potentsiaalse'
'positions_'
'pol'
'plaani'
'physical_'
'pea'
'part'
'parliaments_'
'oti'
'ost'
'oria'
'operating_'
'ons'
'of'
'obstacles_'
'oa'
'nõustun_'
'not'
'noortele_'
'noo'
'nne'
'nit'
'neis_'
'neighbouring_'
'ne'
'ndi'
'möödunud_'
'mõtle'
'mures_'
'mon'
'mod'
'mit'
'mine'
'miinimum'
'mid_'
'mer'
'meetmetest_'
'meat_'
'mate_'
'maksustamise_'
'maha_'
'läbivaatamine_'
'ly'
'lle'
'lity_'
'liikmete_'
'lapsi_'
'lapsed_'
'lane_'
'kättesaadavad_'
'kvoodi'
'kuriteo'
'kr'
'koolituse_'
'konverents_'
'kohustuse_'
'kohaliku_'
'kli'
'kinnitada_'
'king_'
'kiir'
'kaitse'
'kaasata_'
'järelevalvet_'
'juht'
'jaanuaril_'
'iv'
'iti'
'intervention_'
'ini_'
'inclusive_'
'improvements_'
'ill'
'il'
'idega_'
'huve_'
'htmld1'
'html8d'
'html82'
'html6c'
'html66'
'html63'
'html58'
'html27'
'hoolikalt_'
'hindamis'
'hindamine_'
'highlight_'
'highest_'
'heritage_'
'hear_'
'greatest_'
'grants_'
'gi'
'forced_'
'fond_'
'follows_'
'followed_'
'flexibility_'
'fighting_'
'fc7'
'faced_'
'f57'
'f15'
'expression_'
'explain_'
'exceptional_'
'ettevõtlus'
'ette'
'ethnic_'
'ere'
'enhance_'
'encouraging_'
'em'
'elda'
'efc'
'eerida_'
'edukas_'
'ebd'
'eb9'
'eab'
'desse_'
'delegation_'
'decisive_'
'dea'
'daily_'
'd51'
'd06'
'crimes_'
'contributions_'
'contains_'
'conclude_'
'competence_'
'communications_'
'cd4'
'calling_'
'c5_'
'c46'
'bfb'
'beneficiaries_'
'be6'
'base_'
'bac'
'b7f'
'b7_'
'astu'
'assets_'
'aspekte_'
'asjaomaste_'
'ase'
'arse'
'applicable_'
'ap'
'allocation_'
'alaste_'
'ainus_'
'ainu'
'af_'
'af6'
'abe'
'ab'
'['
'Vä'
'Vt_'
'Ur'
'UT'
'Tri'
'Tegelikult_'
'TH'
'Switzerland_'
'Structural_'
'Some_'
'Sho'
'Re'
'Põhja_'
'Pre'
'Pan'
'Or'
'NN'
'Middle_'
'MU'
'Korea_'
'Kallas_'
'Is_'
'Iceland_'
'IL'
'ICT_'
'Hungarian_'
'Hispaanias_'
'Hel'
'Greek_'
'Firstly_'
'Eurobarometer_'
'Economy_'
'EG'
'EE'
'Do_'
'Copenhagen_'
'Citizens_'
'Cap'
'CR'
'Arutelu_'
'Applause_'
'Aplaus_'
'Androulla_'
'Am'
'Ale'
'Ad'
'?'
'9c9'
'9a_'
'989'
'979'
'975'
'8ab'
'89d'
'889'
'875'
'857'
'856'
'809'
'7d_'
'7ac'
'717'
'716'
'711'
'701'
'696'
'654'
'647'
'646'
'605'
'59a'
'592'
'575'
'558'
'533'
'526'
'521'
'518'
'507'
'476'
'456'
'431'
'428'
'426'
'420'
'403'
'332'
'313'
'2f'
'2bd'
'2a_'
'2030_'
'1f'
'18f'
'185'
'172'
'152'
'151'
'148'
'147'
'132'
'115'
'0b_'
'020'
'01T04_'
'016'
'010'
'. "_'
'+'
'): _'
')'
' ¸ _'
' ^^_'
' @'
' . '
' *'
'‑_'
'ر'
'ب_'
'ب'
'ÿÿÿÿÿÿÿÿÿÿÿÿÿÿÿÿÿÿÿÿÈ'
'üli'
'ületa'
'ülem'
'ühinenud_'
'íã'
'äi'
'ãÞ'
'ãÌáÉ_'
'ÞÉ_'
'Óæ'
'ÇáÛ'
'ÇáÏæáÉ_'
'ÇáÎÇÕÉ_'
'ÇÑ_'
'· _'
'¶_'
'®_'
'wor'
'whom_'
'web_'
'võt'
'võimaldaks_'
'välismaal_'
'vähenenud_'
'vähenda'
'vis'
'viisi_'
'viidud_'
'viewpublicroutes_'
'veo'
'veebi'
'var'
'vai'
'vahelist_'
'uurimis'
'ute_'
'useful_'
'unud_'
'university_'
'unfortunately_'
'unable_'
'umine_'
'uma'
'u10'
'töötama_'
'tööjõu'
'tuntud_'
'tult_'
'tor_'
'toetatakse_'
'thought_'
'teabe'
'tcxÊE_'
'tavade_'
'tarbijatele_'
'tap'
'talking_'
'tagatakse_'
'tackling_'
'sõnum_'
'sõlmitud_'
'suurepärane_'
'suureneb_'
'survet_'
'surveillance_'
'substantial_'
'structure_'
'ster_'
'soovita'
'soo'
'sides_'
'shown_'
'sho'
'sellistes_'
'selgita'
'seisukohta_'
'seeläbi_'
'seek_'
'seatud_'
'sar'
'rän'
'rl'
'ria'
'ressursse_'
'remaining_'
'rel'
'regulated_'
'regulat'
'recognised_'
'recognise_'
'reaching_'
'rat'
'raske'
'rakendus'
'rakendamisel_'
'rahandus'
'proovi'
'programming_'
'pri'
'preparation_'
'pre_'
'poolse'
'poolda'
'pin'
'phone_'
'pha'
'per'
'penalty_'
'pe'
'pdf_'
'partnerlus_'
'palu'
'orm'
'ord'
'opinions_'
'olin_'
'oliitika_'
'ok'
'oe'
'obtain_'
'nõudeid_'
'notes_'
'noquote_'
'noored_'
'night_'
'negative_'
'negatiivse'
'ndi_'
'nar'
'nais'
'naabruspoliitika_'
'mõnes_'
'märkimisväärseid_'
'märgi'
'moodusta'
'method_'
'mat'
'massi'
'mass_'
'marketing_'
'läbirääkimised_'
'läbipaistvust_'
'lv_'
'loob_'
'loetelu_'
'liik'
'lihtsa'
'life'
'lepinguga_'
'lem'
'lek'
'leidis_'
'laiendada_'
'la'
'küll_'
'külasta'
'kõnealune_'
'kättesaadavaks_'
'kuulu'
'kuula'
'kuritegevuse_'
'kriteeriumid_'
'kriis_'
'koostada_'
'koolitus_'
'koolitus'
'kontrollida_'
'kolmanda_'
'kokkulepet_'
'kohustuste_'
'ko_'
'km_'
'kindlustus'
'kiitis_'
'kaua_'
'katse'
'kasvab_'
'kasuta'
'kaitstud_'
'jõustu'
'jäätme'
'järgmine_'
'järel_'
'jpg_'
'ivi'
'isiku_'
'interested_'
'intention_'
'integratsiooni'
'info'
'indicated_'
'inc'
'imports_'
'ila'
'ii'
'ides_'
'iPhone_'
'hääleta'
'häid_'
'htmlca'
'htmlbd'
'htmlb3'
'htmlaf'
'htmlab'
'htmlaa'
'html7e'
'html78'
'html6a'
'html65'
'html0f'
'html01'
'hl'
'hinnad_'
'hing_'
'heart_'
'hakatakse_'
'ge'
'fu'
'fruit_'
'fra'
'finally_'
'filter3_'
'ff1'
'fees_'
'fd1'
'fail_'
'factors_'
'fab'
'f9_'
'f8_'
'f7_'
'f02'
'eti'
'ert'
'erilist_'
'enhancing_'
'encouraged_'
'enamus_'
'emis'
'ege'
'ef5'
'eal'
'e9f'
'e25'
'e0'
'dle'
'discharge_'
'directives_'
'difference_'
'determination_'
'delivered_'
'defined_'
'deep_'
'dec'
'debates_'
'dairy_'
'd7_'
'd46'
'cu'
'cr'
'covering_'
'core_'
'cooperate_'
'conduct_'
'comp'
'colleague_'
'cla'
'charges_'
'cf9'
'centres_'
'ce9'
'cap'
'ca'
'c90'
'c2a'
'built_'
'bringing_'
'banking_'
'baa'
'ba5'
'b75'
'b4b'
'audit_'
'attacks_'
'assess_'
'asking_'
'asja'
'asepeaminister_'
'arutelus_'
'aruka'
'anything_'
'alusta'
'alt'
'aitaks_'
'ag'
'aff'
'adapt_'
'acquis_'
'ace'
'acb'
'abs'
'abi'
'aasta'
'aar'
'aa'
'a4e'
'a25'
']'
'Ve'
'Trans'
'Sp'
'Siin_'
'Selline_'
'Sellel_'
'Sam'
'SCH'
'Regioonide_'
'Rea'
'Rahvusvahelise_'
'Portuguese_'
'Pen'
'Oma_'
'NT'
'Mitme'
'Migration_'
'Mere'
'Makedoonia_'
'Lennu'
'Kohtu'
'Kat'
'Kahjuks_'
'JA_'
'Indeed_'
'Iirimaal_'
'IS'
'His_'
'Gu'
'FI_'
'FE'
'Eurobaromeetri_'
'Er'
'EI'
'Defence_'
'Cre'
'Centre_'
'Black_'
'Ben'
'Barrot_'
'BU'
'August_'
'At'
'As'
'And'
'Act_'
'Ac'
'AK'
'96c'
'957'
'952'
'915'
'913'
'8d9'
'899'
'879'
'853'
'850'
'848'
'841'
'815'
'811'
'7e8'
'79'
'771'
'744'
'738'
'6f_'
'6ed'
'69c'
'666'
'637'
'60f'
'5cf'
'573'
'569'
'54f'
'545'
'536'
'522'
'4f1'
'4d_'
'4b_'
'480'
'444'
'441'
'417'
'391'
'382'
'372'
'370'
'356'
'315'
'312'
'2b7'
'2a6'
'28e'
'288'
'285'
'266'
'262'
'1ed'
'1ab'
'183'
'178'
'176'
'170'
'166'
'163'
'14b'
'145'
'137'
'136_'
'129'
'107'
'106'
'0e7'
'0d6'
'087'
'085'
'060'
'049'
'037'
'013'
'000'
', "_'
' € _'
' ®_'
' £_'
' } _'
' ] - _'
' ] '
' \u_'
' ,'
'”_'
'ً_'
'üm'
'üheks_'
'ör'
'õpi'
'õime'
'õigesti_'
'ér'
'äæ'
'ááÊ'
'ßÊÇÈÉ_'
'Þáã_'
'Ýæ'
'ÎíÑÇ_'
'Êí_'
'ÇáÓ'
'ÇáÐåÇÈ_'
'ÇÑ'
'ÇÍ'
'zed_'
'za'
'võimu_'
'võime'
'võimaliku_'
'võimaldavad_'
'voliniku_'
'voice_'
'viibi'
'video'
'vastuvõt'
'vastase'
'valitsuste_'
'valitsused_'
'valimisi_'
'vajaduste_'
'vajadusi_'
'vaidluste_'
'ustus'
'usest_'
'usel_'
'uni'
'unemployed_'
'unde'
'unacceptable_'
'ug'
'tõhususe_'
'tõenda'
'tänan_'
'täna'
'täienda'
'tundub_'
'tulemusel_'
'tugine'
'tugevdamine_'
'tingimustes_'
'tihti_'
'ti'
'tervisele_'
'telekommunikatsiooni'
'tekkinud_'
'tekitab_'
'teiseks_'
'tehti_'
'teadmiseks_'
'teadlikkust_'
'taset_'
'tasakaal_'
'talk_'
'taga'
't14'
'suutnud_'
'suurendamise_'
'suurendab_'
'suure'
'sust_'
'sus_'
'supplies_'
'subsidiarity_'
'sts_'
'stri'
'statistika_'
'spectrum_'
'sotsiaalse'
'soodustada_'
'son'
'solid_'
'societies_'
'sn'
'sm_'
'siiani_'
'sexual_'
'seven_'
'septembril_'
'seo'
'seeri'
'see'
'sai'
'rünnaku'
'rände'
'rm'
'riskide_'
'ris'
'rin'
'rii'
'ria_'
'remind_'
'reliable_'
'regret_'
'recommendation_'
'rb'
'ran'
'rahvusvaheline_'
'põhja'
'põhinevad_'
'põ'
'puuduta'
'pursue_'
'prosperity_'
'projektid_'
'profits_'
'probleemiga_'
'positiivne_'
'plants_'
'piirkondliku_'
'piirkondlike_'
'piirata_'
'piiranguid_'
'pet'
'perioodi_'
'pere'
'pan'
'ones_'
'oluliseks_'
'ohvrite_'
'nõutakse_'
'näeme_'
'näe'
'nut'
'nte'
'nk'
'nduse_'
'nd'
'na'
'mõjutavad_'
'märtsil_'
'muudatused_'
'moving_'
'moel_'
'mingil_'
'mb'
'matu_'
'mathematics_'
'manage_'
'maksma_'
'makse_'
'mahu'
'läbipaistva'
'lubada_'
'lp'
'looma'
'loodus'
'lisa_'
'linna_'
'liikuvuse_'
'lepingut_'
'leiab_'
'ld'
'lastpost_'
'laid_'
'külalist_'
'kõikjal_'
'kvaliteeti_'
'kujutab_'
'kujuta'
'korras_'
'korda'
'konkreetsete_'
'kohaldamise_'
'kinnita'
'kh'
'keskkonnas'
'kell_'
'kehtesta'
'keeping_'
'kasvata'
'kasutajat_'
'kasutab_'
'kaitsmine_'
'kaasa'
'jätkuva'
'jätkab_'
'järgima_'
'järeldusi_'
'jälle_'
'jatele_'
'jaotus'
'ite'
'isk'
'introduce_'
'integratsiooni_'
'insufficient_'
'inimõigusi_'
'inimestel_'
'individuals_'
'impose_'
'idi'
'huvide_'
'htmlef'
'htmlec'
'htmld6'
'htmld2'
'html93'
'html6f'
'html33'
'html2b'
'html17'
'hor'
'hooldus'
'hoiata'
'heitkogustega_'
'healthy_'
'heakskiidu_'
'hea'
'happy_'
'happened_'
'hai'
'ha_'
'glad_'
'gene'
'function_'
'friends_'
'forthcoming_'
'fort'
'fer'
'farming_'
'failure_'
'fad'
'f7f'
'f3_'
'f00'
'exploitation_'
'existence_'
'eva'
'ettenähtud_'
'energeetika_'
'ence_'
'emission_'
'eme'
'else_'
'elektri'
'elab_'
'eira'
'ein'
'eight_'
'egi'
'eff'
'eelista'
'edukalt_'
'ede'
'edasta'
'earlier_'
'e02'
'e01'
'dro'
'dit'
'dik'
'designed_'
'depend_'
'demonstrate_'
'delay_'
'dealing_'
'd8_'
'd3b'
'd0d'
'continuing_'
'consultations_'
'conflicts_'
'concept_'
'coherent_'
'clean_'
'cfe'
'cfd'
'cd'
'categories_'
'cae'
'c99'
'c69'
'c3c'
'c37'
'c0f'
'bd8'
'bca'
'bbe'
'bad'
'b8e'
'b77'
'b1_'
'avate_'
'avaldas_'
'asu'
'asta'
'arutada_'
'arms_'
'ara'
'ane_'
'ametiasutused_'
'algatus_'
'alane_'
'aitama_'
'advertising_'
'absolutely_'
'a7'
'a6_'
'a5_'
'a3c'
'a0d'
'a04'
'WA'
'Tuleb_'
'Ts'
'Tai'
'Sellepärast_'
'Sar'
'Saksamaal_'
'SU'
'Rule_'
'Receive_'
'Ralli_'
'Peter_'
'PU'
'Oh'
'Not'
'No'
'Ning_'
'Nevertheless_'
'Mal'
'Majandus'
'MI'
'MB'
'Liiduga_'
'Kroes_'
'Iÿÿÿÿ_'
'IOKtext_'
'III_'
'Hea'
'HIV_'
'HE'
'Gruusia_'
'GMT2012_'
'GA_'
'Estonian_'
'Esimene_'
'Eriti_'
'Eesistuja_'
'EIT_'
'EF'
'Currently_'
'Claude_'
'Ci'
'Cha'
'CC'
'Business_'
'BI'
'An'
'Air_'
'Aasia_'
'AD'
'="_'
'9f0'
'9e'
'9b8'
'99999999_'
'992'
'916'
'8d3'
'8b7'
'8a4'
'89e'
'893'
'84a'
'847'
'834'
'825'
'813'
'7f7'
'7ed'
'7a2'
'799'
'787'
'786'
'76f'
'768'
'750'
'728'
'719'
'6ef'
'6de'
'6d'
'6c4'
'6bb'
'6b0'
'676'
'673'
'651'
'64e'
'622'
'617'
'612'
'58f'
'579'
'559'
'4f_'
'4e3'
'4c_'
'482'
'466'
'464'
'463'
'439'
'427'
'425'
'424'
'418'
'3f5'
'3c_'
'393'
'38f'
'36c'
'335'
'334'
'330'
'32b'
'320'
'2ee'
'2a7'
'298'
'286'
'284'
'268'
'261'
'250_'
'232'
'201'
'1d0'
'193'
'161'
'12d'
'123'
'113_'
'0e8'
'0dc'
'0c_'
'077'
'05e'
'024'
'/'
' ° _'
' ¥_'
' ¤ _'
' * _'
'ülevaate_'
'üht'
'ühiskonnas_'
'ühingu'
'ühest_'
'÷ _'
'õnnitleda_'
'ñò'
'íî'
'íí'
'íÞ'
'äÌã_'
'ära'
'ãã'
'ãÓ'
'ãÏ'
'Üle'
'Ühendkuningriik_'
'Úá'
'ØáÈ_'
'ØÑ'
'ÓÊ'
'ÓÈ'
'ÑÔÍ_'
'ÌÒÇß_'
'ÊæíÊÑ_'
'Çáíæã_'
'ÇáãÔßæÑÉ_'
'ÇáãÓÇÈÞÇÊ_'
'ÇáãÑ'
'ÇáÌæáÉ_'
'ÇáÅ'
'Çá_'
'ÇÁ_'
'¯ _'
'«_'
'zy'
'yl'
'xa'
'welfare_'
'weapons_'
'võlg'
'vähendamine_'
'ver'
'vea'
'vastutus_'
'valuable_'
'valu'
'valmista'
'vajalikke_'
'vaheliste_'
'vae'
'uutele_'
'uues_'
'ust'
'uri_'
'undertake_'
'umi_'
'umi'
'u11'
'tööstus'
'tõesta'
'tõeline_'
'täiendavad_'
'täielikku_'
'täidetud_'
'tule_'
'tuginedes_'
'tt'
'traditional_'
'tourism_'
'tory_'
'tootmis'
'toonud_'
'toodetud_'
'tonni_'
'toimu'
'toetus'
'tit'
'tippkohtumise_'
'ther_'
'theory_'
'tekst_'
'technological_'
'teatise_'
'teadmisi_'
'teachers_'
'talks_'
'tahavad_'
'tagamaks_'
'tWÿÿÿÿÿÿÿÿÿÿÿÿÿÿÿÿÿÿÿÿÈ'
'sõltumatu_'
'suutlikkuse_'
'suures_'
'suudame_'
'surma'
'storage_'
'stimulate_'
'stay_'
'ssa'
'sometimes_'
'ski_'
'ska'
'sit'
'sil'
'settlement_'
'selection_'
'seisukohal_'
'seadus'
'san'
'samme_'
'ring'
'rich_'
'respectively_'
'resolve_'
'res_'
'reported_'
'relva'
'referendum_'
'reb'
'react'
'rd'
'raw_'
'ratification_'
'raising_'
'rahaliste_'
'qui'
'quarter_'
'pöörduda_'
'põhimõtteliselt_'
'puuetega_'
'ps'
'proud_'
'projekti'
'produced_'
'prisoners_'
'preparing_'
'pra'
'post2'
'possibilities_'
'port_'
'poli'
'places_'
'piires_'
'piir'
'periods_'
'percentage_'
'pen'
'patients_'
'pass_'
'palju'
'overcome_'
'otsuseid_'
'otse_'
'osi'
'osana_'
'organisatsiooni_'
'optimis'
'olulisem_'
'oktoobris_'
'occasion_'
'nõuetekohaselt_'
'nõuete_'
'nõu'
'novembril_'
'nis_'
'neg'
'nci'
'müügi'
'mõningaid_'
'mõjuta'
'märts_'
'muudatusi_'
'muudatusettepaneku'
'muid_'
'mora'
'models_'
'minutes_'
'mikro'
'mes_'
'menetlus'
'mehhanism_'
'meetmetega_'
'marine_'
'maksude_'
'maksu_'
'magama_'
'lõuna'
'lugemisel_'
'lose_'
'looma_'
'log'
'lla'
'likke_'
'liikumis'
'liikumine_'
'lii'
'lihtsamaks_'
'lee'
'kütuse'
'kõne'
'kvalifikatsiooni'
'kuritegude_'
'kritiseeri'
'kriminaal'
'koosta'
'konflikti_'
'kompromissi_'
'komitee'
'koht_'
'kohalik'
'kodukorra_'
'keskendutakse_'
'keelatud_'
'kasvuhoonegaaside_'
'karmi'
'kar'
'kalanduspoliitika_'
'järk_'
'juurdepääsu'
'juhtimis'
'isikutele_'
'isiklikult_'
'isi'
'io'
'investors_'
'investeeringute'
'interpretation_'
'intended_'
'int'
'ingly_'
'industries_'
'ika'
'ik'
'ied_'
'id'
'ib_'
'hääletuse_'
'hv'
'huvi'
'htmlgzipUG_'
'htmlfd'
'htmle9'
'htmle8'
'htmle0'
'htmldb'
'htmlc0'
'htmlb2'
'htmlae'
'htmla1'
'html99'
'html7b'
'html73'
'html68'
'html43'
'html3f'
'html3b'
'html1f'
'html1d'
'html16'
'hoopis_'
'hindamise'
'hi'
'hetke'
'helping_'
'har'
'halda'
'hakkavad_'
'hakata_'
'gre'
'ger_'
'gel'
'gal'
'forget_'
'forest_'
'fore'
'fondide_'
'firstly_'
'fil'
'fe_'
'failed_'
'f3a'
'f13'
'exclusion_'
'examples_'
'examine_'
'eraldatud_'
'ens'
'elektri_'
'elanikkonna_'
'ek_'
'efe'
'eeritud_'
'ed3'
'e78'
'e31'
'e21'
'e1e'
'ds'
'driving_'
'diseases_'
'diplomatic_'
'defend_'
'ded_'
'deadline_'
'dd5'
'daa'
'd6b'
'd4c'
'ct_'
'corruption_'
'contrary_'
'constructive_'
'constitutional_'
'consensus_'
'concluded_'
'comment_'
'choose_'
'check_'
'cer'
'cat'
'c76'
'c6f'
'c25'
'c0'
'bioloogilise_'
'be4'
'bd7'
'bae'
'b5'
'b0f'
'az'
'autode_'
'austamine_'
'attack_'
'assist_'
'arvesta'
'arutelude_'
'appointed_'
'app'
'angu'
'amounts_'
'amine_'
'algatust_'
'aidanud_'
'administration_'
'adele_'
'accessible_'
'acceptable_'
'a67'
'a66'
'a62'
'a57'
'a27'
'a0e'
'ZE'
'Why_'
'West_'
'Valgevene_'
'VKEde_'
'TS'
'Sotsiaal'
'Soovin_'
'Service_'
'SK_'
'SKPst_'
'SC'
'Rules_'
'Regions_'
'RT'
'Prantsusmaal_'
'Portugali_'
'Pokemon_'
'Pla'
'Ph'
'Peale_'
'Mina_'
'Min'
'Miks_'
'Marie_'
'MAN'
'Lugupeetud_'
'Leedu_'
'LL'
'Ku'
'Kesk_'
'Kasutajaid_'
'Japan_'
'Industry_'
'IG'
'IE'
'Hol'
'Here_'
'HI'
'GA'
'Forum_'
'Every_'
'Eri'
'ET'
'EIB_'
'Cave_'
'Car'
'Bur'
'BO'
'Antonio_'
'Ant'
'Ai'
'Ah'
'AND_'
'AA'
': -[- _'
'9e2'
'998'
'984'
'956'
'934'
'927'
'926'
'90b'
'908'
'907'
'897'
'896'
'88c'
'883'
'868'
'866'
'836'
'835'
'818'
'817'
'814'
'802'
'7e7'
'7d9'
'7c8'
'795'
'794'
'779'
'743'
'732'
'715'
'6cc'
'686'
'670'
'636'
'630'
'618'
'616'
'5fe'
'5a1'
'590'
'56e'
'55c'
'556'
'515'
'512'
'503'
'4f8'
'4de'
'4d8'
'4d1'
'4a1'
'499'
'492'
'48a'
'485'
'47b'
'459'
'452'
'44a'
'407'
'402'
'3d9'
'3c7'
'3b1'
'3a9'
'38d'
'383'
'34c'
'325'
'2ef'
'2c2'
'2Fwww_'
'2A'
'296'
'290'
'265'
'264'
'263'
'239'
'235'
'21b'
'20a'
'1df'
'174'
'160'
'121'
'116'
'0fc'
'0d_'
'0cd'
'0c7'
'0c4'
'081'
'051'
'041'
'040'
'032'
'022'
'007'
'004'
'002'
'001'
'$ _'
' ¿ _'
' § _'
' ¦'
' ~~~][_'
' { _'
' ^'
' $ _'
'– _'
'َ_'
'ـ'
'ح'
'ülemäärase_'
'ülemaailmse_'
'ühtekuuluvus'
'ühes_'
'öö_'
'õigusraamistik'
'õiguslik_'
'ñ9ÿÿÿÿ_'
'ñ9OKtext_'
'íÑ_'
'æÞ'
'äæÚ_'
'äÊ'
'äÇ_'
'ãäÇÝÓÉ_'
'ãÔ'
'Þÿÿÿÿ_'
'Þí'
'ÞOKtext_'
'Ýá'
'ÔÑÍ_'
'ÒÉ_'
'Ñí_'
'ÍÑ'
'ÈÜ'
'ÈÚ'
'Çð_'
'ÇáÏ'
'ÇáË'
'ÇáÈæãÇÊ_'
'ÇáÅÚáÇäÇÊ_'
'ÇÝ'
'ÇÈ'
'ÅÌãÇáí_'
'ÃÈæ_'
'¶ _'
'§ _'
'we'
'võitlemise_'
'võitle'
'võit'
'võimalikuks_'
'väljakutse_'
'välisminister_'
'väheneb_'
'viimane_'
'vii'
'ves_'
'vastastikuse_'
'vasta_'
'varu'
'valdkonna'
'uti'
'unt'
'uniform_'
'uncertainty_'
'töötab_'
'tööhõive'
'tuli_'
'tule'
'trafficking_'
'tp'
'toimimist_'
'toimib_'
'toetamiseks_'
'til'
'th'
'territorial_'
'telefoni'
'tel'
'teiega_'
'tehtava'
'tegutsema_'
'tegeleda_'
'tegelda_'
'teemat_'
'teemade'
'teed_'
'teata'
'teaching_'
'tavaliselt_'
'tan_'
'taga_'
'sõ'
'suurendama_'
'suunata_'
'surve_'
'strateegiat_'
'sl'
'siinkohal_'
'selected_'
'seem_'
'seeks_'
'seada_'
'saa'
'rt_'
'rr'
'ron'
'roaming_'
'riski_'
'rikkumise_'
'riikidel_'
'riigist_'
'resulting_'
'respected_'
'resolutsioonis_'
'representative_'
'rek'
'reguleeri'
'registered_'
'reformide_'
'referred_'
'record_'
'receiving_'
'ravi'
'rakendatakse_'
'rakendama_'
'rahvusvahelist_'
'rahvusvahelised_'
'rahastamist_'
'rahastamis'
'rahastada_'
'rahalisi_'
'quota_'
'pööra'
'põhiseaduse_'
'puuduvad_'
'pul'
'propageeri'
'progressi'
'primary_'
'precisely_'
'postusername_'
'positiivse_'
'politsei'
'politics_'
'plu'
'playing_'
'placed_'
'pikk_'
'personali'
'permanent_'
'participating_'
'pane'
'palga'
'pakuvad_'
'pakti_'
'ote'
'oskusi_'
'osal'
'osaks_'
'original_'
'orientation_'
'organic_'
'olukorrast_'
'olles_'
'ola'
'ogu'
'nõustu'
'nõu_'
'näinud_'
'nädala'
'numerous_'
'nimeta'
'nimekirja_'
'nic'
'news_'
'nes_'
'nelja'
'nee'
'ned_'
'nat'
'nano'
'müü'
'mõnede_'
'mõista'
'märkuse'
'märkimisväärset_'
'mus'
'mure'
'morning_'
'mm_'
'mitme_'
'minority_'
'millised_'
'milleks_'
'mental_'
'mel'
'meede_'
'mas'
'manufacturers_'
'mandatory_'
'lähte'
'lli'
'liselt_'
'lisa'
'liikuvus_'
'levi'
'lepingule_'
'lda'
'lase'
'lahenduse_'
'lahendamise_'
'kõnealuste_'
'koordineeri'
'kooli'
'kontrollikoja_'
'konflikti'
'kohustuse'
'kohus_'
'kle'
'kil'
'kiida'
'keskkonnale_'
'kavanda'
'kasva'
'kasutatud_'
'kasutanud_'
'kasu'
'kannata'
'kaasatud_'
'järjest_'
'juulis_'
'jaga'
'iste'
'isation_'
'integrity_'
'import_'
'immediately_'
'iku'
'ige'
'idest_'
'idee_'
'ide'
'ida'
'htmlf5'
'htmla3'
'html75'
'html71'
'html1e'
'html12'
'ht'
'hinda'
'highlighted_'
'hel'
'heidet_'
'heameelt_'
'gro'
'ger'
'freedoms_'
'fields_'
'felt_'
'fd8'
'fd6'
'fc6'
'fc0'
'fb2'
'father_'
'fa9'
'f90'
'extend_'
'exports_'
'ettevõtteid_'
'ettevõtte_'
'ettevõtluse_'
'esma'
'esine'
'eru'
'errors_'
'error_'
'erit'
'erinev_'
'environmentally_'
'endine_'
'emi'
'emat'
'egi_'
'efd'
'eelarvet_'
'eelarves'
'edit'
'ecd'
'ecc'
'eb1'
'e91'
'e4f'
'e47'
'e3c'
'dus'
'dul'
'drawn_'
'dispute_'
'dignity_'
'digitaal'
'devices_'
'detsembri_'
'detsember_'
'det'
'demands_'
'ded'
'dda'
'dcb'
'dc2'
'dab'
'd86'
'd67'
'd5c'
'd5'
'd0_'
'civilian_'
'citizen_'
'cing_'
'cies_'
'char'
'cff'
'cce'
'causes_'
'can'
'cally_'
'ca4'
'c8e'
'c82'
'c67'
'c22'
'brings_'
'boo'
'biofuels_'
'bb1'
'bal'
'ba3'
'ba2'
'b90'
'b53'
'b13'
'b1'
'b08'
'ay'
'avalik_'
'ats'
'asutuse'
'asjakohased_'
'asi'
'arvamusi_'
'arvamus_'
'arutelud_'
'aruande'
'are'
'applying_'
'appear_'
'ants_'
'anti'
'andmist_'
'amist_'
'amet_'
'ame_'
'ambition_'
'algusest_'
'alast_'
'alade_'
'aka'
'aircraft_'
'aed'
'ae1'
'ades_'
'adaptation_'
'accounting_'
'aastane_'
'aab'
'a5e'
'a4_'
'^'
'While_'
'Val'
'Tur'
'Special_'
'Several_'
'Sei'
'Second_'
'Saksa_'
'Saa'
'Project_'
'Procedure_'
'Polish_'
'Pirates_'
'Parliamentary_'
'Pakistan_'
'Pact_'
'Overall_'
'NGL_'
'Monetary_'
'Mill'
'Mai'
'Lii'
'Käesoleva_'
'Kyoto_'
'Kolmandaks_'
'Kogu_'
'Keskkonna'
'Järgmine_'
'Julgeolekunõukogu_'
'It'
'Igal_'
'Her'
'He'
'Ha'
'HU'
'Growth_'
'Gal'
'GUE_'
'GE'
'Fu'
'Follow_'
'FOR'
'Ees'
'Dep'
'Democrats_'
'DR'
'Cursed_'
'Crusade_'
'Chairman_'
'Cas'
'Carribean_'
'CS'
'Better_'
'Bal'
'Awww_'
'Ala'
'<'
'9ad'
'990'
'987'
'977'
'967'
'962'
'961'
'949'
'946'
'922'
'909'
'8f_'
'8b8'
'8a_'
'86a'
'869'
'85f'
'842'
'839'
'824'
'81a'
'819'
'75f'
'734'
'733'
'729'
'71a'
'700_'
'68c'
'679'
'66f'
'640'
'638'
'629'
'619'
'611'
'606'
'5fd'
'5f6'
'5ed'
'5e1'
'596'
'589'
'585'
'571'
'563'
'561'
'550'
'53b'
'530'
'51c'
'504'
'4c7'
'498_'
'497'
'486'
'422'
'419'
'3fb'
'3bb'
'392'
'378'
'333'
'32c'
'304'
'2e0'
'2be'
'2a'
'29d'
'282'
'26c'
'259'
'256'
'254_'
'248'
'246'
'220_'
'21a'
'216'
'2017_'
'1b6'
'190'
'186'
'156'
'141'
'130'
'127'
'111'
'106_'
'0f8'
'0a6'
'090'
'082'
'07e'
'065'
'053'
'047'
'046'
'033'
'019'
'*'
' ؟_'
' ¦ _'
' ['
' $_'
' !'
'€ ؟ ؟_'
'’'
'گ_'
'م_'
'ülikooli_'
'ülesannete_'
'üldise'
'ühtse'
'üht_'
'ühiste_'
'ühinemise_'
'ñ9_'
'íæ'
'íÝ_'
'íÇ_'
'æÇáÕæÑ_'
'åæ'
'åÏ'
'äí_'
'ääre'
'ãá_'
'ãá'
'ááã'
'ßá_'
'ÞÕ'
'ÝÑ'
'ÝÊ'
'ÜÇ'
'Ühis'
'ÛÇ'
'ÚÈÑ_'
'ÓíÇÓÉ_'
'ÏÉ_'
'Ìæ'
'ÊÚ'
'Èíä_'
'Èæß_'
'Èá'
'ÈÏÚæÉ_'
'ÈWÿÿÿÿÿÿÿÿÿÿÿÿÿÿÿÿÿÿÿÿÈ'
'Çáæ'
'ÇáãÚÇÏáÇÊ_'
'ÇáãÌãæÚÇÊ_'
'ÇáãÌáÉ_'
'ÇáÝíÓ_'
'ÇáÝÖí_'
'ÇáÜÜ'
'ÇáÑíÇÖíÉ_'
'ÇáÎÕæÕíÉ_'
'ÇáËÇáË_'
'ÇáÊÞæíã_'
'ÇáÈíÇäÇÊ_'
'ÇÕÏÞÇÆß_'
'Ãß'
'ÃÓÚÇÑ_'
'£_'
'zz'
'ys_'
'written_'
'wo'
'wing_'
'wider_'
'wait_'
'võtme'
'võrd'
'väärtusi_'
'välju'
'välispiiri'
'väite'
'väikse'
'väikese'
'väidet'
'vähendab_'
'vu_'
'volitused_'
'vn'
'viima_'
'vid'
'vers'
'vere'
'vei'
'vastuvõtmist_'
'vastutab_'
'vastus_'
'vara'
'valmistu'
'valitsus'
'vale'
'vajaliku_'
'vajalike_'
'vajadustele_'
'vahetus'
'vabadus_'
'vaata'
'uv'
'uuri'
'uuenduslik'
'ut'
'uste'
'urgently_'
'ur'
'unp'
'underlined_'
'ummiku'
'ume'
'uju'
'udi'
'tööturul_'
'töötanud_'
'tööstus_'
'tõsine_'
'tõhusust_'
'tõhusad_'
'täitmiseks_'
'täie'
'tähtsama'
'tähtsad_'
'turismi_'
'tulevaste_'
'tulevad_'
'tuleta'
'tulemuseks_'
'tsiooni_'
'topic_'
'toote'
'toetused_'
'tle'
'tingimustel_'
'ther'
'the'
'teri'
'tegevusest_'
'tegele'
'teenuse_'
'teatavaid_'
'tean_'
'teadlaste_'
'tarbijakaitse'
'tarbija'
'tagajärjel_'
'tagajärgi_'
'sõnasta'
'sõlmi'
'suuruse_'
'surve'
'successfully_'
'succeed_'
'stik'
'statud_'
'statistical_'
'stati'
'star'
'stan_'
'spring_'
'spo'
'speakers_'
'sotsiaalpoliitika_'
'soovitab_'
'solidaarsust_'
'smart_'
'simplification_'
'siin'
'showing_'
'shadow_'
'separate_'
'sen'
'selgeks_'
'seaduse_'
'scrutiny_'
'science_'
'savings_'
'sammud_'
'sammu_'
'sales_'
'safeguard_'
'saavutanud_'
'saamise_'
'rus'
'rra'
'rolli'
'revised_'
'rest'
'resolved_'
'resolutsioon_'
'residence_'
'requirement_'
'religion_'
'relatively_'
'ree'
'reductions_'
'reasonable_'
'realise_'
'reageerida_'
'read_'
'railway_'
'rahvatervise_'
'raamistikku_'
'que_'
'pجہ_'
'põhimõte_'
'puudu'
'ption_'
'precise_'
'poole'
'politicians_'
'planet_'
'pikaajalise_'
'piirkonda_'
'pida'
'php'
'ph'
'peetakse_'
'pee'
'peamised_'
'peagi_'
'paying_'
'partnerships_'
'partnerluse_'
'parlamendi'
'pankade_'
'paljudes_'
'pain'
'ow'
'otsustanud_'
'osta_'
'organiseeritud_'
'ora'
'operate_'
'oos'
'oni_'
'ome'
'omava'
'oluliste_'
'oleva_'
'olemasolu_'
'ole'
'ohtlike_'
'occup'
'nõue_'
'näeb_'
'ny_'
'noorte'
'noor'
'nime_'
'nendele_'
'nen'
'nation_'
'nas_'
'mõne'
'märtsi_'
'märkimisväärne_'
'märkida_'
'my'
'muudatusettepaneku_'
'muuda'
'multipl'
'mobiilside'
'miss'
'mina'
'mile'
'matu'
'macroeconomic_'
'lähe'
'läbirääkimiste'
'loodusvarade_'
'lm'
'likult_'
'liikuda_'
'liberalisation_'
'lennujaamade_'
'leid'
'leian_'
'leaving_'
'laua'
'latter_'
'last'
'lapse_'
'langeta'
'lan'
'lahenda'
'kümne_'
'kõrval'
'kõrgharidus'
'kõrge'
'kõnealust_'
'kõik'
'kõigil_'
'kättesaadava'
'kättesaadav_'
'käimasoleva'
'kti'
'kos'
'konkreetsed_'
'kon'
'kokkulepitud_'
'kohustused_'
'kohustatud_'
'kohaldada_'
'koha'
'kodaniku'
'kirjelda'
'kindlustada_'
'kin'
'kide_'
'keskse'
'keskne_'
'keskmine_'
'keskkonda_'
'kehtivate_'
'kasvanud_'
'kas'
'kaotamise'
'kanda_'
'kaasatuse_'
'kaas'
'jäävad_'
'jääma_'
'jätkusuutliku'
'järgult_'
'juhtumite_'
'juhtiva'
'juhtimine_'
'jale_'
'jaanuar_'
'iss'
'ira'
'intend_'
'initial_'
'immigrants_'
'ilmselt_'
'if'
'ie_'
'idi_'
'ideed_'
'hõlmatud_'
'hädavajalik_'
'huvid_'
'htmlfb'
'htmlf2'
'htmlf0'
'htmle6'
'htmlb1'
'htmlb0'
'htmla6'
'htmla4'
'htmla2'
'html9a'
'html90'
'html7f'
'html7d'
'html76'
'html5e'
'html57'
'html4e'
'html47'
'html38'
'html37'
'html34'
'html31'
'html28'
'html23'
'html08'
'holding_'
'hoid'
'hinna'
'heli'
'heitkoguseid_'
'hakkama_'
'haiguste_'
'guide_'
'graph'
'globalisation_'
'gin'
'gg'
'gar'
'gan_'
'gaasi_'
'foot'
'foo'
'fine_'
'financed_'
'filmi'
'fift'
'fec'
'fe8'
'facilities_'
'fa6'
'f8f'
'f77'
'f66'
'f4e'
'f01'
'ewww_'
'evening_'
'ev'
'ett'
'esmatähtsa'
'esimees_'
'eralda'
'equally_'
'entities_'
'enne'
'energiat_'
'energias'
'emp'
'ement_'
'elus_'
'eet'
'eelarvek'
'ea3'
'e5f'
'e4d'
'e4a'
'e12'
'dynamic_'
'don'
'dist'
'disp'
'di'
'determine_'
'design'
'delivery_'
'dde'
'dangerous_'
'danger_'
'd89'
'd88'
'd82'
'd56'
'd42'
'd17'
'd04'
'counter_'
'corporate_'
'contributed_'
'continent_'
'contained_'
'cons'
'conducted_'
'compensation_'
'col'
'centre_'
'cda'
'cb_'
'causing_'
'candidate_'
'ca2'
'c86'
'c7d'
'c7b'
'c78'
'c62'
'c5b'
'c4c'
'c39'
'c2_'
'c07'
'ble'
'ben'
'becomes_'
'b94'
'b8c'
'b7d'
'b4_'
'b0a'
'aw'
'avamise'
'avalike_'
'attempt_'
'attached_'
'ates_'
'asutuse_'
'aste'
'asju_'
'asjakohane_'
'arvel'
'arutelu'
'aruta'
'ari'
'appeal_'
'app_'
'anud_'
'answers_'
'ami'
'ametlikult_'
'ametiasutuste_'
'ametia'
'ambitsioonika'
'aluse_'
'aladel_'
'ada'
'actively_'
'achievement_'
'accident_'
'absence_'
'ab6'
'aadressil_'
'aa5'
'a9c'
'a7c'
'a74'
'a59'
'a53'
'a2e'
'a17'
'a0c'
'\u'
'ZI'
'Xi'
'Wo'
'Välis'
'Vastavalt_'
'Vahe'
'Th'
'Technology_'
'Tarbija'
'Tajani_'
'Sy'
'Suure'
'Strasbourg_'
'Sooviksin_'
'Scoreboard_'
'Sarkozy_'
'Routes_'
'Recommendation_'
'RSS_'
'Progress_'
'Pea'
'Palestiina_'
'Os'
'Oo'
'OL'
'OECD_'
'Neil_'
'NS'
'NC'
'Mechanism_'
'Maa'
'Läh'
'László_'
'Lepingu'
'Ladies_'
'Kõige_'
'Kor'
'Kon'
'Kommentaarid_'
'Koh'
'Key_'
'Kesk'
'Kau'
'Kas'
'KA'
'Järgmise'
'Jan_'
'Island_'
'IV_'
'IP'
'ING_'
'IK'
'II'
'Hertsegoviina_'
'Head_'
'Hahn_'
'Guarantee_'
'Global_'
'FR'
'Euroopasse_'
'Esi'
'Era'
'Energia'
'Ed'
'EURO'
'EFSA_'
'Control_'
'Consequently_'
'Con'
'Commissioners_'
'Col'
'Change_'
'Chamber_'
'Catherine_'
'Can_'
'Briti_'
'Birma_'
'Before_'
'Because_'
'BR'
'Area_'
'Ainult_'
'Aafrikas_'
': “_'
'9fc'
'9d2'
'9c6'
'9a6'
'991'
'978'
'96b'
'941'
'938'
'931'
'924'
'920'
'904'
'8f5'
'8e1'
'8ba'
'8b_'
'892'
'891'
'876'
'867'
'864'
'855'
'854'
'852'
'829'
'816'
'807'
'7dc'
'7d6'
'7c'
'7b7'
'791'
'78a'
'769'
'74f'
'749'
'71b'
'705'
'6dd'
'6cf'
'6a9'
'69f'
'699'
'691'
'672'
'667'
'665'
'643'
'631'
'62e'
'608'
'603'
'5ec'
'5d9'
'5b5'
'5b2'
'5ab'
'5a7'
'595'
'58d'
'57f'
'560'
'546'
'537'
'528'
'511'
'508'
'4f5'
'4f3'
'4d0'
'4c2'
'4bc'
'4a3'
'47e'
'469'
'445'
'416'
'40e'
'406'
'3db'
'3d5'
'3b9'
'397'
'396'
'37a'
'374'
'373'
'366'
'364'
'360'
'357'
'349'
'2e8'
'2e3'
'2c1'
'2b2'
'2b'
'29f'
'299'
'287'
'26f'
'236'
'221'
'220'
'218'
'213'
'20f'
'1fd'
'1ea'
'1d4'
'1c8'
'175_'
'136'
'135'
'126_'
'11b'
'118'
'105'
'0cf'
'0c1'
'0b5'
'0ab'
'067'
'063'
'045'
'039'
'038'
'034'
'02e'
'023'
'01'
'..'
',”_'
'): "_'
'%'
' ÷_'
' ± _'
' ¬ _'
' ¦_'
' ^_'
' ]'
' <_'
' %-_'
'ن_'
'ütlen_'
'ürita'
'ülevaade_'
'üleujutus'
'üldine_'
'ükskõik_'
'ühiskond_'
'ühiseid_'
'ühised_'
'õu'
'õppi'
'õhus'
'íä'
'æá_'
'æÝ'
'æÏ_'
'æÇ_'
'åÐÇ_'
'äí'
'ãó'
'ãÌ'
'ãÈ'
'áå_'
'áÈ'
'Ühise_'
'Úí'
'ÚÈÏÇá'
'Öí'
'ÔÇÁ_'
'Óí'
'ÑÞ_'
'Ðÿÿÿÿ_'
'ÐOKtext_'
'ÍÏ'
'Ìí'
'ÇáäÓÎÉ_'
'Çáãá'
'ÇáãÊÍÑí_'
'ÇáÅä'
'ÇÞÊÈÇÓ_'
'ÇÑí'
'ÇÏ'
'ÃäÓ_'
'Ãä'
'¿'
'ºÿÿÿÿTue_'
'¨ _'
'zo'
'ys'
'yesterday_'
'yes_'
'whe'
'võrkude_'
'võrgu_'
'võrdsed_'
'võitluses_'
'võite_'
'võin_'
'võimeline_'
'võimaluse'
'võimalike_'
'väljendatud_'
'vus'
'vu'
'vision_'
'viib_'
'vastuvõetud_'
'vastust_'
'vastuse_'
'vastavusse_'
'vas_'
'vangi'
'valve'
'valmistab_'
'valguses_'
'vaidlus'
'vaheta'
'vaate'
'vaa'
'uuringute_'
'unity_'
'undertakings_'
'ultimately_'
'ula'
'ui'
'uh'
'u101'
'töötuse_'
'tööturule_'
'töötavad_'
'töötajatele_'
'tõhustada_'
'tõe'
'täit'
'turvalisuse_'
'tundu'
'tulnud_'
'tuleviku'
'tugevama'
'tugev_'
'tu'
'tte'
'trends_'
'travelling_'
'transactions_'
'torture_'
'top'
'tootja'
'toimuva'
'toetuse'
'ting'
'threats_'
'texts_'
'testing_'
'telli'
'tekitatud_'
'tehingu'
'tegutsevad_'
'tegemisel_'
'tegelevad_'
'teavitada_'
'teavita'
'teatava'
'teatanud_'
'teaduse_'
'teadlikud_'
'tcxð_'
'taxes_'
'tation_'
'tarbijakaitse_'
'taotle'
'tagajärjed_'
'taba'
't185'
'süüdista'
'sõnadega_'
'sääst'
'suunised_'
'supervisory_'
'sunni'
'suht'
'sugar_'
'substance_'
'subsidiaarsuse_'
'sub_'
'structures_'
'stressed_'
'strateegilise'
'stiku'
'stele_'
'soovitused_'
'soovituse_'
'soovite_'
'solidaarsus'
'smi'
'sisserändajate_'
'sisene'
'sisaldavad_'
'siduva'
'sellisel'
'selgub_'
'seisukohti_'
'seisneb_'
'sees_'
'seeking_'
'satisfied_'
'saavutamise_'
'sa'
'rääkides_'
'rum'
'ros'
'rongi'
'rohelise_'
'rite_'
'rit'
'riigip'
'ries_'
'rian_'
'returned_'
'reject_'
'registri'
'refugees_'
'rec'
'reaction_'
'ravimite_'
'ranging_'
'rangema'
'rakendamiseks_'
'rakendamisega_'
'rahulda'
'question'
'qualifications_'
'pöörata_'
'põhjustel_'
'põhjustab_'
'põhjust_'
'põhjuse'
'põhjalikult_'
'põhise'
'põhine'
'põhimõtteid_'
'põhimõtte'
'päritolu_'
'päevas'
'puts_'
'pti'
'protocol_'
'programmi'
'prognoosi'
'privacy_'
'prec'
'praegusel_'
'powerful_'
'populations_'
'pli'
'players_'
'phy'
'perform_'
'peoples_'
'peamiste_'
'passed_'
'parimate_'
'parima_'
'paremat_'
'parandamise_'
'panus_'
'pace_'
'overview_'
'otsuste'
'ots'
'ostu'
'osalema_'
'ore'
'oral_'
'op'
'omanda'
'oktoobri_'
'ohutus'
'ohustab_'
'oht'
'officials_'
'oda'
'nõuetekohase'
'näitaja_'
'näide_'
'nä'
'notified_'
'neighbours_'
'negotiation_'
'nde'
'nc'
'naisi_'
'nafta'
'mõtet_'
'mõistab_'
'mä'
'muudatusettepanekud_'
'music_'
'muse'
'mor'
'moodustab_'
'mitmes_'
'mehhanismid_'
'meele'
'mais_'
'mais'
'maintenance_'
'mad'
'lühidalt_'
'lü'
'lä'
'los'
'loomisel_'
'll'
'lise'
'lis_'
'ling'
'liit'
'les'
'ld_'
'laus'
'lam'
'laienda'
'lahku'
'lahk'
'laevade_'
'laa'
'küsimusega_'
'küsida_'
'küla'
'kutsun_'
'kse'
'korraldus'
'kooli_'
'kont'
'kompromissi'
'kohustust_'
'kohtumine_'
'kohtade_'
'kohapeal_'
'koha_'
'koguse'
'kogemuste_'
'kliimamuutus'
'kindlad_'
'ket'
'keskmes_'
'keskendu'
'keelte_'
'kavade_'
'kaugemale_'
'kaubandus'
'kapitali'
'kand'
'kalapüügi'
'kalanduse_'
'kahtlemata_'
'kahte_'
'jõu'
'juulil_'
'julgusta'
'juhtu'
'jagada_'
'iz'
'itud_'
'ir_'
'investeeri'
'introducing_'
'inter_'
'insu'
'institution_'
'innovatsioon_'
'inflation_'
'ind'
'impossible_'
'impacts_'
'ili'
'ike_'
'ih'
'ign'
'igaüks_'
'identification_'
'ics_'
'ici'
'ias'
'ial'
'hõlma'
'htu'
'htmlf7'
'htmld4'
'html94'
'html91'
'html8e'
'html85'
'html84'
'html81'
'html64'
'html0b'
'hr'
'housing_'
'hot'
'hommikul_'
'hn'
'hit_'
'hinnangu_'
'hinda_'
'haru'
'happens_'
'happening_'
'handling_'
'gy_'
'gust'
'gul'
'guidance_'
'grow_'
'governmental_'
'glo'
'gla'
'ging_'
'gie'
'geni'
'gain_'
'fre'
'forecast_'
'focusing_'
'flights_'
'flight_'
'flexible_'
'finantsraamistiku_'
'ffe'
'ff9'
'feb'
'fd7'
'fb9'
'fa_'
'f86'
'f83'
'f6d'
'f6a'
'f5f'
'f5e'
'f43'
'f1_'
'f19'
'expertise_'
'esitatava'
'esinda'
'ers'
'ered_'
'enjoy_'
'engagement_'
'employed_'
'embr'
'elust'
'eligible_'
'election_'
'eksporti'
'ef2'
'eesistumise_'
'eesistuja'
'eef'
'ee4'
'edu'
'edasi'
'ed1'
'ebb'
'easily_'
'e92'
'e8_'
'e76'
'e54'
'e4b'
'e03'
'dus_'
'dum'
'dokumendis_'
'dl'
'disasters_'
'devi'
'determined_'
'depart'
'demographic_'
'delegatsiooni_'
'degree_'
'dc9'
'dba'
'db6'
'das_'
'dam'
'dal'
'd8f'
'd7a'
'd4e'
'd4_'
'd24'
'd21'
'd0f'
'cs_'
'cri'
'counter'
'controlled_'
'consult'
'confi'
'competences_'
'compa'
'cli'
'clause_'
'chosen_'
'cho'
'chain_'
'cf6'
'century_'
'cel'
'cea'
'ccb'
'cca'
'carriers_'
'career_'
'card_'
'cac'
'c7c'
'c1a'
'c1_'
'c10'
'buy_'
'burdens_'
'bra'
'bit'
'bill'
'bfc'
'bf_'
'behaviour_'
'bde'
'bc6'
'bbc'
'ban'
'b89'
'b71'
'b61'
'b58'
'b40'
'b35'
'b22'
'b20'
'b10'
'awww_'
'awarded_'
'avas'
'aval'
'autumn_'
'ausa'
'attempts_'
'asjaomase'
'aside_'
'arvu'
'arutle'
'aruandlus'
'aprilli_'
'ang'
'ande'
'ances_'
'anc'
'ameti_'
'allkirjasta'
'alli'
'all'
'ali_'
'ali'
'algatuste_'
'alalise_'
'alaline_'
'ake'
'ajakohasta'
'agency_'
'af9'
'af7'
'ae2'
'advice_'
'ad0'
'accelerate_'
'aca'
'ac8'
'ac4'
'abd'
'a8d'
'a8c'
'a5f'
'a5d'
'a52'
'a38'
'a20'
'a03'
'Zo'
'Zimbabwe_'
'ZA'
'White_'
'Vo'
'Viimase_'
'UEN_'
'UD_'
'Tor'
'The'
'Teadus'
'Sudan_'
'Sudaani_'
'St'
'Society_'
'Sk'
'Siim_'
'Seal_'
'Schulz_'
'SS'
'Road_'
'Representatives_'
'Rai'
'Questions_'
'Protocol_'
'Please_'
'Piebalgs_'
'Pet'
'Open_'
'Ole'
'Ol'
'OP'
'Nõu'
'Norra_'
'Next_'
'ND'
'Musta_'
'Michael_'
'Map_'
'Macedonia_'
'Maailma_'
'MAR'
'Loo'
'Legal_'
'Ladina_'
'LE_'
'Kri'
'Kee'
'John_'
'Johannes_'
'Ji'
'Jan'
'Itaalias_'
'Interior_'
'Iiri_'
'ION_'
'ID'
'Horisont_'
'Hal'
'Given_'
'Fil'
'Europol_'
'Eesistujariigi_'
'Eel'
'Each_'
'ET_'
'EP'
'ELiga_'
'EK'
'Cy'
'Cor'
'Ca'
'British_'
'Brazil_'
'Bor'
'BG_'
'Ay'
'Apple_'
'App'
'Ak'
'AC'
'9c1'
'985'
'973'
'96f'
'925'
'903'
'8f'
'8dc'
'8db'
'8c3'
'8ae'
'885'
'882'
'881'
'872'
'861'
'858'
'849'
'833'
'82b'
'826'
'7fd'
'7f4'
'7d4'
'7c7'
'7b_'
'782'
'766'
'765'
'752'
'739'
'736'
'735'
'72c'
'727'
'714'
'712'
'70c'
'70b'
'706'
'6fe'
'6fc'
'6f8'
'6ce'
'6c3'
'6a7'
'68d'
'682'
'680'
'66d'
'66b'
'662'
'661'
'649'
'639'
'634'
'633'
'61d'
'5f_'
'5d5'
'598'
'581_'
'576'
'568'
'54e'
'53d'
'51f'
'501'
'4www_'
'4f2'
'4b8'
'4a8'
'496'
'472'
'462'
'460'
'448'
'437'
'3ff'
'3a2'
'39a'
'399'
'380'
'379'
'369'
'367'
'363'
'34d'
'329'
'328'
'324'
'2dd'
'283'
'275'
'272'
'267'
'240'
'230'
'23'
'224'
'222'
'215'
'1f4'
'1e8'
'1be'
'1b2'
'1ac'
'1a'
'15e'
'157'
'134'
'12a'
'110_'
'10b'
'103_'
'0fd'
'0f5'
'0d9'
'0d8'
'0bf'
'0a4'
'091'
'058'
'057'
'056'
'050'
'05'
'048'
'03e'
'02c'
'00d'
', '_'
'" -]-_'
' ·_'
' © _'
' §_'
' \\_'
' : '
' ' _'
'” (_'
'” '
'ن'
'ل_'
'ق'
'ــ'
'üs'
'ün'
'ülese'
'üksiku'
'ühtekuuluvuse_'
'ühiskonda_'
'ühe'
'õigustatud_'
'õigussüsteemi'
'õigusnormide_'
'õiglase'
'õige'
'õhu'
'õOKtext_'
'ðà'
'ïî'
'íá_'
'íÊ'
'æä'
'æÚ'
'är'
'äh'
'ãõ'
'áíÉ_'
'áì_'
'ßä'
'ÞÑ'
'Ýå'
'ÜPP_'
'ÚÈ'
'ÔÑ'
'ÏÑÓ_'
'ÎÇ'
'Êß'
'ÊÞ'
'Èã'
'ÈWÿÿÿÿÿÿÿÿÿÿÿÿÿÿÿÿÿÿÿÿÈÐ'
'ÇáåäÏÓíÉ_'
'ÇáãÝÖá_'
'ÇáÚÇ'
'ÇáÊÍãíá_'
'Çá'
'ÃäÇ_'
'zs'
'zone_'
'wr'
'woman_'
'wn_'
'wine_'
'win'
'wer'
'wealth_'
'warm'
'wants_'
'võõr'
'võtame_'
'väljenda'
'väljakutse'
'väiksem_'
'väikese_'
'vägivalla'
'vih'
'vest'
'vastuvõetamatu'
'vastutavad_'
'vastavus'
'vastab_'
'vana_'
'vahenditest_'
'vahenditega_'
'vahendi'
'uun'
'uto'
'usume_'
'usaldus'
'ure'
'unusta'
'united_'
'undertaken_'
'underlines_'
'uda_'
'u2_'
'tööturu_'
'tõus'
'tõelise_'
'täitmisel_'
'täitmine_'
'täiendava_'
'tähtsam_'
'tuse'
'tunnusta'
'tuli'
'tulemuslikkus'
'tugevdamiseks_'
'tter'
'tsu'
'treated_'
'tre'
'trac'
'tori'
'tood'
'toiduaine'
'toetas_'
'toeta'
'tlus'
'tingimus'
'tim'
'thousands_'
'teostada_'
'teosta'
'telecoms_'
'teistest_'
'tehnilise_'
'tegelemiseks_'
'teen'
'tead'
'teabevahetus'
'tea'
'tavate_'
'tati'
'tasu_'
'tari'
'tan'
'takistada_'
'tak'
'tagamisel_'
'tagades_'
'süsteemis_'
'südame'
'söö'
'sõjaväe'
'sõidu'
'sätestatakse_'
'sätesta'
'suurenda'
'suuremaid_'
'suu'
'suru'
'sunnitud_'
'suitable_'
'subscription_'
'struktuuri_'
'struktuuri'
'spoken_'
'sought_'
'sor'
'solidaarsuse_'
'siseturul_'
'sidus'
'shift_'
'sensitive_'
'seme'
'sema'
'seisukohalt_'
'seire_'
'save_'
'sation_'
'sadama'
'rõhuta'
'rse'
'rre'
'round_'
'room_'
'rja'
'riiklikku_'
'restore_'
'ressi'
'resource_'
'reme'
'released_'
'relationship_'
'reguleerivate_'
'reguleerimise_'
'reguleerimine_'
'regulators_'
'rde'
'ravimi'
'rank'
'raja'
'rais'
'rahvusvahelisi_'
'rahu'
'rahastamise'
'raamprogrammi_'
'que'
'püütakse_'
'püüd'
'põllumajandustootjatele_'
'põl'
'põhimõtete_'
'põhilis'
'puudus_'
'processing_'
'probleemidega_'
'probably_'
'prioriteetse'
'primarily_'
'praktika'
'praeguse'
'post351'
'positiivse'
'portal_'
'pointed_'
'plugin_'
'pinge'
'pil'
'pikema'
'piisav_'
'phenomenon_'
'pes'
'pension_'
'peegelda'
'peatu'
'peatada_'
'peamisi_'
'parem'
'papers_'
'pangandus'
'pan_'
'pakutud_'
'paindliku'
'ought_'
'otseselt_'
'ostöö_'
'osalenud_'
'osakaal_'
'ort'
'organisatsioonidele_'
'organi'
'opened_'
'olev_'
'olenemata_'
'oi'
'ohutu'
'oetus'
'obviously_'
'observe'
'ob'
'nõukoguga_'
'nõukogu'
'nst'
'nomi'
'nist'
'niku'
'niipea_'
'ngs_'
'newpm_'
'ndr'
'ncy_'
'nav'
'nations_'
'nal_'
'naas'
'mõist'
'mängi'
'muutub_'
'muudab_'
'muu'
'multi_'
'mul'
'mr'
'mou'
'mittet'
'minors_'
'mid'
'micro_'
'mg'
'merely_'
'meditsiini'
'mate'
'manufacturing_'
'makse'
'maksab_'
'majanduse'
'maintaining_'
'lõi'
'luse_'
'luba_'
'lu_'
'lse'
'loovad_'
'lootus'
'logical_'
'loa_'
'loa'
'lj'
'lis'
'liikme_'
'liigu'
'ligi_'
'lga'
'let'
'lessons_'
'leppisid_'
'lepit'
'legitimate_'
'lasta_'
'lai'
'laadi_'
'kümne'
'küber'
'kü'
'kõla'
'kõ'
'kvalifitseeritud_'
'kuse'
'kus'
'ktiiv'
'ks'
'kriisist_'
'kord'
'kor'
'koosneb_'
'koolide_'
'konkreetselt_'
'kompromiss_'
'kompromiss'
'kohustusliku'
'kohtumise_'
'kohandada_'
'kohale_'
'kogemusi_'
'kodus'
'kodanikuühiskonna_'
'kliimamuutustega_'
'kla'
'kirja'
'kevadel_'
'keskmiselt_'
'keskkonnasõbralik'
'keskkonnamõju_'
'kee'
'kavatse'
'kaug'
'katastroofi'
'kata'
'kasutaja'
'kao'
'kajasta'
'kahe'
'kab'
'jõua'
'jätkub_'
'järgneva'
'järgi'
'järelmeetme'
'juur'
'justiits_'
'julgeolek_'
'juhi'
'jt'
'jm'
'ition'
'items_'
'isikud_'
'isest_'
'ire'
'interneti'
'institutsioonid_'
'institutsiooni_'
'inspection_'
'inister_'
'ining_'
'infringements_'
'infrastruktuuri'
'in'
'impa'
'imis'
'ilmne'
'ilm'
'iks_'
'ika_'
'iir'
'ig'
'identity_'
'ians_'
'hunt'
'htmlff'
'htmlfc'
'htmlf9'
'htmld7'
'htmlcb'
'htmlc9'
'htmlc2'
'htmlbb'
'htmlb9'
'htmlb8'
'htmlb4'
'htmlad'
'htmlac'
'html95'
'html8c'
'html87'
'html86'
'html7a'
'html6e'
'html67'
'html61'
'html5b'
'html50'
'html4b'
'html46'
'html45'
'html3d'
'html32'
'html21'
'house_'
'honourable_'
'holiday_'
'hoidu'
'hk'
'head'
'haridus'
'haavatava'
'governing_'
'gical_'
'gee'
'gat'
'functions_'
'fulfil_'
'focused_'
'flu'
'fit'
'firms_'
'fin'
'figure_'
'ff5'
'fef'
'fe4'
'fe3'
'fc2'
'fbf'
'fb'
'faster_'
'f92'
'f8e'
'f85'
'f79'
'f6f'
'f5a'
'f4f'
'f47'
'f12'
'f0f'
'extended_'
'exists_'
'examined_'
'ettevõtjatel_'
'ettevõtja_'
'eta_'
'esitati_'
'esimesed_'
'esimehe'
'eritud_'
'erinevates_'
'ents_'
'entirely_'
'enter'
'energiaallika'
'ene'
'emo'
'emerging_'
'ell'
'eline_'
'elav'
'elanike_'
'elam'
'ehitus'
'ef3'
'eeskätt_'
'eelseisva'
'eelda'
'eelarvep'
'eelarve'
'ee7'
'edendamise_'
'ebf'
'ebaseaduslik_'
'eb8'
'eat_'
'e8d'
'e87'
'e85'
'e80'
'e73'
'e59'
'e5'
'e3a'
'e04'
'dud'
'disease_'
'disaster_'
'dis_'
'dim'
'dialoogi'
'dh'
'dge'
'df2'
'df'
'desire_'
'deployment_'
'delayed_'
'del'
'deklaratsiooni_'
'de3'
'dcf'
'dcd'
'dc1'
'd95'
'd7f'
'd6_'
'd5d'
'd40'
'd25'
'd1b'
'd19'
'd16'
'd14'
'd13'
'd03'
'creative_'
'count_'
'contributing_'
'contracts_'
'confirm_'
'component_'
'coa'
'clarify_'
'claims_'
'cfc'
'cf8'
'cc7'
'cc6'
'cb9'
'carefully_'
'cal'
'ca1'
'c96'
'c9'
'c7e'
'c77'
'c6'
'c5d'
'c48'
'bus'
'books_'
'blo'
'bli'
'bin'
'ber_'
'bear_'
'be1'
'be0'
'bc1'
'bb5'
'bb'
'bat'
'ball_'
'baf'
'ba'
'b99'
'b8b'
'b7b'
'b79'
'b4f'
'b41'
'b36'
'b2e'
'b21'
'b1a'
'b17'
'b14'
'b0d'
'b03'
'aut'
'attitude_'
'asuta'
'association_'
'assessed_'
'aspekti'
'aseriigisekretär_'
'arvuti'
'arutasid_'
'articles_'
'arene'
'ard_'
'aprillil_'
'ani'
'ana_'
'amongst_'
'amis'
'alternatiiv'
'allowances_'
'alist'
'alam'
'aki'
'ajaloo'
'af4'
'adus'
'adjustment_'
'ad1'
'achievements_'
'acf'
'abista'
'ab1'
'aani'
'aa7'
'a89'
'a85'
'a46'
'a45'
'a43'
'a3b'
'a34'
'a14'
'][~~~_'
'\u-\u_'
'Women_'
'Week_'
'Võib_'
'Viima'
'Var'
'Unfortunately_'
'Tõ'
'Toot'
'Tim'
'Tho'
'Ter'
'TV_'
'Süüria_'
'Sü'
'Sustainable_'
'Sur'
'Stu'
'Soo'
'Serbia'
'Rumeenias_'
'Ros'
'Reform_'
'Rap'
'Ran'
'RD_'
'Põhi'
'Presidents_'
'Pool'
'Pil'
'Parlamendiga_'
'Palestinian_'
'PRO'
'OU'
'Nimetatud_'
'Neid_'
'Natura_'
'NG_'
'Mõ'
'Muu_'
'Muidugi_'
'Mon'
'Mil'
'Maksu'
'Mac'
'Lin'
'Liechtenstein_'
'Law_'
'Kü'
'Kooskõlas_'
'KR'
'Juba_'
'JO'
'Ir'
'Integration_'
'Horizon_'
'HN'
'HER'
'Guinea_'
'Franc'
'Ex'
'Euroopal_'
'Eu'
'Ettevõt'
'Et'
'Emp'
'Eco'
'EPA'
'EEA_'
'Dir'
'DESC_'
'Cr'
'Christian_'
'Ce'
'Cat'
'Board_'
'Bel'
'BL'
'BA'
'Az'
'Arvestades_'
'Arengu'
'Anti_'
'Annual_'
'Andor_'
'American_'
'Air'
'ANI'
'AM'
'AG'
'@ '
'<_'
': +_'
': '_'
'9d0'
'9c7'
'9ac'
'9a9'
'99c'
'986'
'982'
'966'
'964'
'959'
'947'
'93f'
'935'
'91e'
'918'
'8f4'
'8ea'
'8d7'
'8c6'
'8b2'
'8b1'
'8a7'
'8a1'
'89a'
'894'
'88b'
'884'
'883_'
'837'
'823'
'820'
'80c'
'800'
'7c5'
'7b4'
'7a9'
'7a8'
'7a1'
'775'
'730'
'723'
'710'
'6f3'
'6d7'
'6c9'
'6c6'
'6be'
'6ba'
'6b_'
'69d'
'693'
'68b'
'68a'
'67f'
'66c'
'660'
'63a'
'615'
'60c'
'5ca'
'5af'
'5ae'
'58c'
'581'
'551'
'53c'
'4f7'
'4d6'
'4cd'
'4cc'
'4b4'
'4a6'
'4a2'
'4a0'
'490'
'46f'
'45a'
'454'
'447'
'43a'
'435'
'430'
'3df'
'3dc'
'3c2'
'3c0'
'3a1'
'3D_'
'398'
'395'
'388'
'386'
'37f'
'340'
'331'
'322'
'32'
'302'
'2e_'
'2df'
'2d6'
'2bb'
'2a2'
'295'
'294'
'289'
'280'
'278'
'26a'
'250'
'24e'
'245'
'23b'
'229'
'214'
'208'
'1e1'
'1d_'
'1d2'
'1c'
'1a1'
'1992_'
'18e'
'1861'
'16d'
'16b'
'160_'
'153'
'144'
'140_'
'130_'
'12f'
'123_'
'11e'
'119'
'118_'
'117_'
'103'
'0fe'
'0f6'
'0e1'
'0e'
'0da'
'0cb'
'0c0'
'089'
'086'
'074'
'064'
'06'
'05f'
'04c'
'036'
'02a'
'028'
'027'
'025'
'011'
'003'
'. +_'
'. (_'
')]'
'" °!✘_'
' » _'
' °_'
' ] [ _'
' \u _'
' \\'
' ::_'
' / '
' /'
' #'
' ! '
'ص'
'ج'
'الم'
'ülesandeks_'
'üleilm'
'üksmeel'
'ükski_'
'ühtset_'
'õt'
'õr'
'õpetaja'
'õnnetus'
'õigusaktides_'
'õigusakt_'
'õiglane_'
'íÝ'
'íÏ_'
'íÈ'
'äÕ'
'äÇÑæÊæ_'
'ät'
'äsja_'
'än'
'ãÜÜ'
'âà'
'àOKtext_'
'ßÿÿÿÿ_'
'ßá'
'ÙÇ'
'Õó'
'Õä'
'Óá'
'ÓÚ'
'ÒíÇÑÊåÇ_'
'Òí'
'ÒÇ'
'Ñæä'
'Ïá'
'ÎÈ'
'Íí'
'ÍÓ'
'ÌÇÓæÓ_'
'Êã'
'Çã_'
'ÇáØ'
'ÇáÒãä_'
'ÇáÎÇ'
'ÇÕ'
'ÇWÿÿÿÿÿÿÿÿÿÿÿÿÿÿÿÿÿÿÿÿÈ'
'ÃãÓ_'
'ÃÑ'
'¸_'
'·_'
'zero_'
'wrote_'
'worst_'
'wer_'
'went_'
'warning_'
'võtsid_'
'võtmist_'
'võtmise'
'võrdlus'
'võimalikke_'
'vääri'
'väljakutseid_'
'välise'
'vormis_'
'vormi'
'vool'
'vita'
'vik'
'viivitamata_'
'viita'
'vely_'
'veini'
'veet'
'veebruar_'
'vastutus'
'varusta'
'varia'
'vanuse'
'valmi'
'valija'
'valge'
'valdkonda_'
'vajalikku_'
'vajalik'
'vaatlus'
'uvad_'
'uuring_'
'ute'
'um'
'ult'
'ulatuslik'
'töötajad_'
'tööaja_'
'tõsist_'
'tänulik_'
'täis'
'täiendavat_'
'täiendavalt_'
'tähtsuse'
'tähtsaks_'
'tähele_'
'tuu'
'turusta'
'tunnet'
'tunne_'
'tunda_'
'tun'
'tulevase_'
'tulem'
'tta'
'trains_'
'track_'
'tootjatele_'
'toot'
'toimuvate_'
'toidua'
'toetuste_'
'toetamine_'
'toetame_'
'tihedat_'
'tervita'
'tervikuna_'
'terrorist_'
'territooriumil_'
'tek'
'teisel_'
'tehnoloogiate_'
'tehniliste_'
'tegevusele_'
'tegevusega_'
'teenustele_'
'teatises_'
'tch'
'tamise_'
'takista'
'taht'
'tagavad_'
'tagatis'
'tab'
'taastada_'
't1860'
't182'
't16'
'süü'
'süsteemi'
'süsi'
'sündi'
'sügisel_'
'sõnavabadus'
'sõja'
'sõiduki'
'sätete_'
'sz'
'sw'
'suuna'
'suudab_'
'sutus'
'summa'
'suffered_'
'su_'
'strateegilise_'
'strateegiline_'
'story_'
'stl'
'stabiilsus'
'sr'
'spend_'
'spe'
'spa'
'sovereignty_'
'sovereign_'
'sotsiaalsete_'
'soodusta'
'slow'
'slightly_'
'siseriikliku'
'silma'
'sii'
'sidusa'
'septembris_'
'senise'
'selged_'
'seitse_'
'seisund_'
'sega'
'sead'
'sc'
'sarnase'
'sama'
'sam'
'safer_'
'saavutamist_'
'saadik_'
'saadava'
'sWÿÿÿÿÿÿÿÿÿÿÿÿÿÿÿÿÿÿÿÿÈÀ'
'rühmade_'
'ry'
'rul'
'roc'
'ris_'
'rightly_'
'ri'
'restrictive_'
'respective_'
'residents_'
'religious_'
'reklaami'
'reinforce_'
'rein'
'reaalse'
'rassi'
'raportite_'
'rangelt_'
'ral'
'rahvaste_'
'rahul'
'rahastamiseks_'
'raamatupidamis'
'raam'
'püsiva'
'püsi'
'põllumajandust'
'põhiv'
'põhimõtted_'
'päris_'
'päevakorrapunkt_'
'publish'
'prohibit'
'pro_'
'prioriteetide_'
'prioriteete_'
'praegust_'
'potentsiaali_'
'posti'
'post352'
'pooled_'
'pon'
'pois'
'png_'
'plant_'
'planned_'
'piirkondi_'
'piiriüleste_'
'piiriülese_'
'piirangute'
'pideva'
'persist'
'parlamendile_'
'paremaid_'
'parallel_'
'paljusid_'
'pakkumise_'
'pakkuma_'
'ovi'
'ova'
'outstanding_'
'otsese'
'otse'
'osutu'
'osutada_'
'organisatsiooni'
'organisatsioon_'
'oot'
'oori'
'ood'
'one'
'onal_'
'omad'
'olukorraga_'
'olem'
'oin'
'ohu'
'obs'
'obliged_'
'nõudluse_'
'novembris_'
'norme_'
'ngi'
'neither_'
'neb_'
'near_'
'ndada_'
'nda_'
'nap'
'nal'
'naabrus'
'mööda_'
'mõõtme'
'mõte_'
'mõistma_'
'mõistlik_'
'märkimisväärse'
'myself_'
'muutuvad_'
'mudeli'
'mous'
'modernise'
'mme'
'misjoni_'
'minimaalse'
'mingi_'
'mille'
'mik'
'meres'
'merc'
'menetlused_'
'meh'
'meetme_'
'meelest_'
'meedia'
'med'
'mbi'
'mast_'
'majanduspoliitika_'
'majanduslik_'
'majanduskriisi_'
'maintained_'
'mai'
'läks_'
'lähenemisviisi'
'lähenemist_'
'lus'
'losses_'
'lor'
'loobu'
'loo'
'loe'
'lisat'
'likku_'
'liini'
'liikuma_'
'liiki_'
'leiavad_'
'lei'
'leh'
'legally_'
'leadership_'
'lahenduste_'
'lae'
'kõrgema'
'kõnes_'
'kõnealuses_'
'kõigest_'
'käsitlevaid_'
'kutsu'
'ksi'
'korralikult_'
'koorma'
'koordineeritud_'
'koonda'
'kontrollikoda_'
'konkreetse_'
'konkreetse'
'kom'
'kohtumise'
'koh'
'kodumaal_'
'klo'
'kliimamuutusega_'
'kirjutatud_'
'kirjuta'
'kindla'
'keskkond_'
'kel'
'kehti'
'keha'
'ked_'
'kaugel_'
'kaubanduse'
'kauba'
'kaotanud_'
'kant'
'kallal_'
'kahtlust'
'kahjulik'
'kaasneb_'
'kaardi'
'jõud'
'järgse'
'järgne'
'järgida_'
'järelduste'
'jäl'
'justified_'
'julge'
'juhitud_'
'jr'
'jointly_'
'joined_'
'jan'
'jah_'
'ista'
'iseäranis_'
'ipa'
'involve_'
'invites_'
'input_'
'innusta'
'init'
'inimõigused_'
'inimkaubanduse_'
'inf'
'indicators_'
'indi'
'imported_'
'imi'
'ime'
'ilmu'
'ile'
'ikult_'
'ikku_'
'ike'
'iid'
'ify_'
'identi'
'ice_'
'ic'
'hõ'
'humanity_'
'htmlfe'
'htmleb'
'htmlc1'
'htmla8'
'html88'
'html77'
'html69'
'html4d'
'html36'
'html2c'
'html22'
'html09'
'hte'
'hol'
'hin'
'himself_'
'hi_'
'helps_'
'heite'
'hazardous_'
'harta_'
'hari'
'haldamise_'
'guard'
'gr'
'gn'
'gh'
'gent'
'gener'
'gen_'
'ft_'
'front_'
'flow_'
'fle'
'fixed_'
'fires_'
'film_'
'fed'
'fear_'
'fe2'
'fe0'
'fd2'
'fails_'
'f9'
'f8d'
'f87'
'f81'
'f7b'
'f59'
'f54'
'f51'
'f4d'
'f44'
'f38'
'f2f'
'f1d'
'f1b'
'f1a'
'f03'
'extreme_'
'eurooplased_'
'etapis_'
'estimates_'
'esh'
'era_'
'er'
'epi'
'entered_'
'eni'
'endorse_'
'employ'
'emphasis_'
'ema'
'eluk'
'elada_'
'ehkki_'
'efb'
'eespool_'
'eesmärkidega_'
'eerimine_'
'een'
'eemal'
'ee5'
'ed0'
'ec5'
'ec4'
'ec1'
'ebaseaduslikult_'
'eb6'
'eb4'
'eb3'
'east_'
'earth_'
'e96'
'e93'
'e8e'
'e77'
'e67'
'e56'
'e48'
'e40'
'e33'
'e2e'
'e27'
'e24'
'e1b'
'dy_'
'dwww_'
'duse_'
'drivers_'
'down'
'dom'
'dokumentide_'
'dm'
'div'
'diss'
'disposal_'
'disability_'
'dfe'
'dfd'
'df8'
'detail_'
'dependence_'
'demo'
'delivering_'
'definitely_'
'dd8'
'dd0'
'dc7'
'dbe'
'db'
'd98'
'd97'
'd83'
'd7'
'd4d'
'd48'
'd45'
'd3a'
'd2d'
'd07'
'd01'
'cz'
'cycle_'
'cting_'
'cra'
'covers_'
'constitute_'
'constant_'
'const'
'consolidation_'
'consequence_'
'confirmed_'
'conf'
'condition_'
'condemn'
'compulsory_'
'coal_'
'clo'
'class'
'citizenship_'
'cia'
'ches_'
'certainty_'
'cd6'
'cc9'
'cb5'
'cash_'
'campaigns_'
'ca3'
'c94'
'c6a'
'c4f'
'c2b'
'c21'
'c19'
'c0c'
'buildings_'
'bor'
'boosting_'
'bol'
'blue'
'biggest_'
'bfa'
'bf4'
'bel'
'bd4'
'bd1'
'bc2'
'bba'
'bb9'
'bases_'
'b83'
'b76'
'b6f'
'b66'
'b62'
'b5c'
'b4e'
'b3a'
'b28'
'b09'
'b01'
'avat'
'avasta'
'avaldused_'
'availability_'
'av'
'audiovisual_'
'au_'
'attachment_'
'ator_'
'ative_'
'ath'
'asutustele_'
'asutuste'
'asutamislepingu_'
'astus'
'assi'
'assessments_'
'arise'
'arengute'
'approaches_'
'ann'
'andme'
'analüüsi_'
'analüüs_'
'analyse_'
'amo'
'ametnik'
'ametiaja_'
'alu'
'alis'
'alguse_'
'algatuse'
'algata'
'alan'
'aktiivse'
'ajavahemikul_'
'ajalugu_'
'ajaks_'
'aine'
'ageing_'
'affecting_'
'aero'
'adopting_'
'ad6'
'actors_'
'abit'
'abf'
'abc'
'ab9'
'ab4'
'aa6'
'aa0'
'a4c'
'a44'
'a3a'
'a13'
'a1'
'a0b'
'Yu'
'YE'
'Vol'
'Vaba'
'Ul'
'Treaties_'
'Tibet_'
'Teema_'
'TE_'
'Such_'
'Stability_'
'Slovenian_'
'Sise'
'Siinkohal_'
'See'
'Sant'
'STA'
'SM'
'SKP_'
'SE_'
'Roh'
'Relations_'
'REV_'
'Qua'
'Põllumajandus'
'Poolas_'
'Obama_'
'OV'
'OI'
'OD'
'Nat'
'Mur'
'Mobility_'
'Maria_'
'Mali_'
'MK'
'Luksemburg_'
'London_'
'Lisa'
'LT_'
'Kuu'
'Kontrollikoja_'
'Kohtusse_'
'Kl'
'Inim'
'India'
'Inc'
'Ig'
'IO'
'IF'
'IA_'
'Hääletasin_'
'GO'
'FT'
'Exp'
'Eurostat_'
'Europoli_'
'Erasmuse_'
'Enamik_'
'Eelarve'
'EX'
'EIP_'
'Dur'
'Du'
'Dimas_'
'Dec'
'Dan'
'DB_'
'Constitution_'
'Consider'
'Concerning_'
'CD'
'Bre'
'Brasiilia_'
'Bat'
'Based_'
'BER'
'Authority_'
'Asylum_'
'Arv'
'Are_'
'Any_'
'Andris_'
'Also_'
'Ali'
'AO'
'ALE_'
'AI'
'=&_'
';'
': ['
'9da'
'9d9'
'9d'
'9ce'
'9cc'
'9ab'
'996'
'981'
'976'
'972'
'95b'
'955'
'930'
'917'
'8fd'
'8f9'
'8ed'
'8e8'
'8da'
'8d_'
'8ca'
'8af'
'8aa'
'87b'
'871'
'860'
'851'
'822'
'805'
'801'
'7fc'
'7e1'
'7e0'
'7d2'
'7d1'
'7a6'
'7a0'
'78b'
'789'
'783_'
'776'
'763'
'747'
'737'
'703'
'700'
'6fd'
'6eb'
'6a5'
'685'
'67d'
'653'
'64d'
'645'
'62d'
'625'
'5ef'
'5e4'
'5c_'
'5b1'
'5ad'
'594'
'56c'
'564'
'55d'
'55b'
'539'
'531'
'513'
'4fa'
'4f4'
'4ee'
'4e8'
'4c1'
'4b3'
'4b0'
'49c'
'494'
'49'
'48f'
'48e'
'47a'
'475'
'46a'
'461'
'45f'
'457'
'450'
'40a'
'409'
'404'
'3ef'
'3e_'
'3e7'
'3e'
'3d3'
'3d1'
'3cb'
'3bc'
'3b2'
'3a_'
'3a4'
'387'
'37e'
'358'
'3503'
'33d'
'338'
'337'
'33'
'32f'
'2www_'
'2f7'
'2da'
'2cd'
'2c5'
'2ae'
'29c'
'27a'
'279'
'26e'
'227'
'223'
'217'
'211'
'210'
'20e'
'20b'
'203'
'1fc'
'1d9'
'1d6'
'1d5'
'1d3'
'1c_'
'1c1'
'1ae'
'1a4'
'1a0'
'19c'
'1995_'
'18c'
'1864'
'15a'
'14a'
'131_'
'125_'
'105_'
'1000_'
'0e_'
'0d5'
'0d4'
'0ca'
'0c'
'0bb'
'0b'
'0aa'
'09c'
'099'
'08c'
'07a'
'078'
'072'
'071'
'05d'
'04d'
'," _'
'&'
'! '
' °'
' ¡'
' .'
'€_'
'“_'
'خ'
'ütlesite_'
'ütle'
'üsteem_'
'ülest'
'üleminekut_'
'ühtlasi_'
'ühte_'
'ühiselt_'
'ühi'
'öös'
'öör'
'öko'
'õÿÿÿÿWed_'
'õppe_'
'õpetajate_'
'òè'
'íã_'
'íÓ'
'æá'
'æÓ'
'æÑ_'
'æÇáÊ'
'æÃ'
'åá_'
'ää'
'äri_'
'äl'
'ãÕ'
'áÝ'
'àÿÿÿÿ_'
'ßOKtext_'
'Þæ'
'ÝÉ_'
'Üí'
'Ühine'
'Øá'
'Õá_'
'ÕI'
'ÔßÑÊ_'
'ÓÑ'
'Ñß'
'ÑÝ'
'ÑÈ'
'Ïí_'
'ÏæÑí_'
'Îá'
'Íã'
'ÈÏ'
'ÈÊ'
'ÈWÿÿÿÿÿÿÿÿÿÿÿÿÿÿÿÿÿÿÿÿÈà'
'ÈWÿÿÿÿÿÿÿÿÿÿÿÿÿÿÿÿÿÿÿÿÈ0'
'Çáãæ'
'ÇáãÕÑí_'
'ÇáãÇ'
'ÇáÑÆíÓíÉ_'
'ÇáÐ'
'ÇáÊì_'
'ÇáÊÞ'
'ÇáÊÚÏíá_'
'ÇáÃÎíÑ_'
'ÇÇ'
'ÅÏÇÑíÉ_'
'Ãá'
'ÃÍ'
'¿ '
'¯'
'~'
'zones_'
'zB'
'yourself_'
'yan'
'xt'
'wishes_'
'wise_'
'willing_'
'widely_'
'võrdsete_'
'võrdse_'
'võrdse'
'võla'
'võitlust_'
'võitluse'
'võitlemisel_'
'võinud_'
'võimalikku_'
'võidakse_'
'või'
'väljendas_'
'väljas'
'väljakutsetega_'
'vähese_'
'vähendamist_'
'vähendades_'
'vilja'
'viise_'
'viidat'
'viiakse_'
'vatele_'
'vastuse'
'vastuolus_'
'vastava_'
'vastama_'
'vanemate_'
'valikut_'
'valdkondi_'
'valdkondade_'
'vaks_'
'vajalikuks_'
'vaja'
'vac'
'vabalt_'
'uudis'
'utus'
'usele_'
'urs'
'universal_'
'unf'
'una_'
'uki'
'ugu'
'ual_'
'u1'
'töös'
'töök'
'tööhõivet_'
'tõsiseid_'
'tõrjutuse_'
'tõhusat_'
'tõelis'
'tõde'
'täite'
'täis_'
'täide'
'tähenduses_'
'tutvuda_'
'turned_'
'ture_'
'tunnustamise_'
'tugeva_'
'tsiooni'
'tsi'
'tried_'
'translation_'
'train_'
'totally_'
'tootmist_'
'toimuvad_'
'tn'
'tly_'
'tlik_'
'tki_'
'titut'
'tipp'
'timely_'
'time'
'tiku'
'tiheda'
'thorough_'
'tha'
'tests_'
'tervitame_'
'terve_'
'terve'
'terrorismi'
'terrori'
'teravilja'
'telt_'
'teles'
'teiste'
'teisele_'
'tehtava_'
'tehtav_'
'tehnika_'
'tegemiseks_'
'tegeliku'
'tegeleb_'
'teet'
'teemasid_'
'teab_'
'taxpayers_'
'tasakaalusta'
'tarbe'
'tai'
'taha'
'tagasisaatmis'
'tagamise_'
'tOKtext_'
't11'
'sõnumi_'
'sõnade_'
'sõna'
'sõlmimiseks_'
'säilitamise'
'swi'
'suurepärase'
'sus'
'surface_'
'suhtlus'
'suhteliselt_'
'suhkru'
'suhetes_'
'suggests_'
'suffer_'
'student_'
'stimul'
'steel_'
'ssion_'
'ssion'
'spi'
'sou'
'sotsiaalseid_'
'soodsa'
'solve_'
'sobiv_'
'sli'
'sk_'
'sk'
'sj'
'sissetuleku'
'sisalduva'
'sis'
'siia_'
'short'
'shop_'
'seksuaalse_'
'seisva'
'secondary_'
'seadusandlik'
'sco'
'sca'
'saw_'
'saving_'
'satisfactory_'
'satellite_'
'saavutus'
'rühma'
'ruling_'
'roma'
'rol'
'rog'
'rn'
'rio'
'rh'
'resulted_'
'restricted_'
'rep'
'rent'
'remove_'
'reiterates_'
'reisid'
'rei'
'reguleerida_'
'registreeritud_'
'regimes_'
'reas'
'real'
'reageerimis'
'ration'
'raskusi_'
'rar_'
'rap'
'rahalist_'
'racing_'
'raamistikus_'
'raamatu_'
'qua'
'püügi'
'põllumajandustootja'
'põhjustada_'
'põhjuseks_'
'põhjalikku_'
'päritolu'
'päeva'
'puudega_'
'purely_'
'pur'
'punkti'
'punkte_'
'proven_'
'protsendi'
'profit_'
'processed_'
'prize_'
'prioriteediks_'
'prioriteedid_'
'presidendi'
'poorest_'
'poolel_'
'polnud_'
'poliitilised_'
'poliitikas'
'poe'
'plo'
'plane'
'placing_'
'piire_'
'piirangud_'
'piima_'
'piece_'
'pg'
'perioodil_'
'perekond'
'pending_'
'peate_'
'peak'
'patsientide_'
'pas'
'parlamendiliikmed_'
'pandud_'
'pais'
'otsustava'
'otsusega_'
'otherwise_'
'ost_'
'oska'
'osit'
'osalised_'
'oor'
'ongi_'
'omavahel_'
'omandi'
'omakorda_'
'ohutus_'
'oga'
'og'
'offering_'
'obvious_'
'obtained_'
'nõudlus_'
'nõrge'
'nähtus'
'nz'
'numbri'
'nt'
'novembri'
'normal_'
'noise_'
'nni'
'nimetatakse_'
'nimekirja'
'ndu'
'nder'
'nak'
'müügi_'
'mõttevahetus'
'mõnikord_'
'mõelda_'
'määras'
'märgitud_'
'mängu'
'muutu'
'muut'
'muus'
'muudatusettepanek_'
'mun'
'multilateral_'
'moni'
'modified_'
'modes_'
'mobiil'
'mitteametlik'
'mitmete_'
'mitmeaastase_'
'missing_'
'min'
'metsade_'
'meetodi'
'meaning_'
'matemaatik'
'maksusta'
'maksumus'
'maksta_'
'maksim'
'majanduslikult_'
'majanduses_'
'maini'
'main'
'madalama'
'maantee'
'maailm_'
'lõpetama_'
'lõikes_'
'lähenemis'
'lunch_'
'lum'
'lugupeetud_'
'lugemis'
'lugeda_'
'lootust_'
'loome'
'lists_'
'listed_'
'lisandu'
'linnas_'
'links_'
'liikumist_'
'liikmete'
'liigi'
'lihtsusta'
'lihtsam_'
'lide'
'letter_'
'lepingud_'
'lennuki'
'lennuettevõtja'
'lemmik_'
'leidma_'
'lay_'
'law'
'las'
'lar'
'laienemine_'
'küsimustega_'
'kümme_'
'käsitlevat_'
'käimas_'
'käe'
'kvootide_'
'kuu'
'kutsuda_'
'kut'
'kunsti'
'kujune'
'kujul_'
'kud_'
'kriteeriumi'
'konsulteeri'
'konkurents_'
'kolle'
'kohtus'
'kohase'
'kogemus_'
'kodanikel_'
'kivi'
'kinnitam'
'kindlusta'
'kid'
'kergem'
'keerulise'
'keelusta'
'kaubandust_'
'kau'
'kat_'
'kasutajate_'
'kasuks_'
'kanali'
'kan'
'kaitseks_'
'kaheksa_'
'kaheksa'
'kae'
'kade_'
'kaaluda_'
'jõ'
'jätkusuutlikkuse_'
'jätkusuutlikku_'
'jätka'
'järgmiste_'
'järel'
'journalists_'
'jatel_'
'jas_'
'jagatud_'
'jaga_'
'ively_'
'isse_'
'ising_'
'isik'
'ises_'
'isega_'
'iseeri'
'ire_'
'ional_'
'investigations_'
'investigation_'
'investeerimisp'
'internationally_'
'institutsioonide'
'institut'
'inn'
'inimene_'
'incentives_'
'imit'
'ily_'
'ils'
'ilmselgelt_'
'ilise'
'iigi'
'igus'
'iga'
'iel'
'hü'
'hääletust_'
'hääletasime_'
'huvitava'
'htmlf3'
'htmldf'
'htmlda'
'htmld9'
'htmld8'
'htmld3'
'htmlc7'
'htmlc5'
'htmlc4'
'htmlbc'
'htmlba'
'htmlb7'
'html9b'
'html98'
'html8f'
'html8b'
'html54'
'html52'
'html51'
'html4f'
'html49'
'html3c'
'html3a'
'html2d'
'html1a'
'html19'
'html06'
'home'
'historical_'
'hinnanguliselt_'
'hing'
'hid'
'heite_'
'heavy_'
'heart'
'heading_'
'hap'
'hall'
'haldusk'
'halb_'
'haigla'
'gues_'
'gs'
'gri'
'got_'
'gol'
'geno'
'generate_'
'gas'
'fÿÿÿÿ_'
'füüsilise'
'fur'
'funktsioon'
'fraktsioonide_'
'fr'
'foundations_'
'forests_'
'foods_'
'firmly_'
'firm_'
'finantsstabiilsus'
'fication_'
'ffi'
'fff'
'ffa'
'fea'
'fe6'
'fe'
'fd4'
'fbd'
'families_'
'fakt'
'faa'
'fOKtext_'
'f9c'
'f65'
'f5d'
'f58'
'f45'
'f3f'
'f2_'
'f28'
'f23'
'f11'
'exception_'
'exc'
'ex_'
'evi'
'eve'
'evad_'
'ettevõtjatele_'
'ettevõtjaid_'
'ettevalmistamise'
'ettepanekuga_'
'esti'
'esindajate'
'erl'
'ering_'
'erg'
'ensured_'
'ennetus'
'enn'
'energiat'
'endorsed_'
'endi_'
'ema_'
'ekspertide_'
'eksi'
'eisu'
'ei'
'eg_'
'ef8'
'eeskuju_'
'eelnevalt_'
'eelarvepuudujäägi_'
'ee8'
'educational_'
'edc'
'ec7'
'ebe'
'eb'
'eas'
'e9d'
'e79'
'e74'
'e2d'
'e2c'
'e1d'
'e0a'
'dy'
'dw'
'door_'
'dokumendid_'
'doc'
'dki_'
'disabled_'
'disa'
'directed_'
'died_'
'dg'
'df1'
'dependent_'
'dep'
'dent'
'demokraatliku_'
'demokraatlik_'
'delighted_'
'de9'
'dd3'
'dc6'
'dac'
'd9b'
'd90'
'd8d'
'd87'
'd7e'
'd7c'
'd76'
'd60'
'd5f'
'd43'
'd36'
'd34'
'd3'
'd29'
'd28'
'd27'
'd1'
'd09'
'd00'
'cutting_'
'currency_'
'cru'
'crises_'
'credit'
'courage_'
'couple'
'convergence_'
'convention'
'continu'
'contain_'
'considers_'
'conc'
'combination_'
'cle'
'class_'
'clarity_'
'choices_'
'changed_'
'cf0'
'cease'
'cd1'
'cc1'
'cc'
'cbe'
'cb7'
'cb3'
'capacities_'
'ca9'
'c9c'
'c89'
'c70'
'c6e'
'c6d'
'c2f'
'c2'
'c15'
'c05'
'c03'
'c01'
'büroo_'
'broader_'
'bro'
'bre'
'bou'
'biomass_'
'bfe'
'bf8'
'began_'
'beautiful_'
'bb8'
'bb2'
'background_'
'b91'
'b88'
'b7e'
'b70'
'b6d'
'b6c'
'b5e'
'b5b'
'b3'
'b24'
'b1e'
'b1c'
'b18'
'b11'
'b07'
'ax'
'award_'
'ave'
'avaliku'
'avalikku_'
'auhinna'
'august_'
'atus'
'attractive_'
'att'
'ator'
'ast'
'assum'
'aspektide_'
'aspekt_'
'aseta'
'ars'
'arengule_'
'arenguabi_'
'aprillis_'
'aprill_'
'appreciate_'
'ao'
'anyone_'
'ant'
'ans_'
'ano'
'anna_'
'ametliku_'
'ama'
'ale'
'alcohol_'
'alanda'
'ajast_'
'ajakirjanik'
'aita'
'air'
'ahe'
'agrees_'
'ages_'
'afe'
'afb'
'ae4'
'admi'
'acting_'
'acd'
'accountability_'
'ac2'
'ably_'
'aba'
'aastateks_'
'aaa'
'aa8'
'a9a'
'a95'
'a8e'
'a71'
'a6'
'a51'
'a40'
'a4'
'a3e'
'a33'
'a31'
'a22'
'a08'
'` '
'Ye'
'Written_'
'Well_'
'Wall'
'WS'
'Vil'
'Ves'
'Verts_'
'Venemaaga_'
'Van'
'Vai'
'UST'
'Training_'
'Top'
'Tar'
'TR'
'Sõ'
'Swedish_'
'Spe'
'Socialist_'
'Siis_'
'Sel'
'Sama_'
'STE'
'SL_'
'SH'
'Rev'
'Resolution_'
'Rat'
'Raportis_'
'Raport_'
'Rahvusvaheline_'
'RS_'
'RC'
'Press_'
'Pres'
'Pra'
'Portugalis_'
'Pol'
'Pii'
'Pean_'
'Parlamendile_'
'Pak'
'PNR_'
'PL'
'Oli'
'Oc'
'OKimage_'
'Nu'
'NG'
'Multi'
'Mitu_'
'Medi'
'McCreevy_'
'Malmström_'
'Mak'
'MF'
'Lähis_'
'Liikmesriikide_'
'Libya_'
'Len'
'Legend_'
'Lea'
'Latin_'
'Ky'
'Kreekas_'
'Kre'
'Kirjalikud_'
'Keskkond_'
'Kapplication_'
'KUTSUB_'
'KE'
'JavaScript_'
'Jacques_'
'Il'
'INT'
'IKT_'
'Hoolimata_'
'Gua'
'Goals_'
'Georgi'
'Ge'
'Gar'
'Games_'
'Game_'
'GU'
'GMO'
'Fs'
'Frodo_'
'Facebook_'
'Euroopast_'
'Ek'
'Egypt_'
'Edu'
'EV'
'ETS_'
'ELT_'
'EFTA_'
'Does_'
'Dis'
'Direktiivi_'
'Directorate_'
'Digitaal'
'Des'
'Demokraatide_'
'Del'
'DD'
'DC_'
'Curie_'
'Cur'
'Cu'
'Communications_'
'Clos'
'Carl'
'Card_'
'Canada_'
'CT'
'Burma_'
'Brüsseli_'
'Bol'
'Barnier_'
'Bali_'
'BS'
'B6_'
'Auditors_'
'Atlantic_'
'Andr'
'Among_'
'Albaania_'
'Adv'
'Aasta_'
'Aasta'
'ASC_'
'AN_'
'ANT'
'AL_'
'='
'9www_'
'9fa'
'9e8'
'9c4'
'9c3'
'9a8'
'971'
'969'
'94f'
'933'
'929'
'928'
'921'
'91f'
'919'
'8ff'
'8ee'
'8e'
'8d5'
'8b5'
'8ad'
'8a3'
'88d'
'87e'
'878'
'863'
'828'
'80f'
'804'
'7fb'
'7f6'
'7eb'
'7e6'
'7d8'
'7bf'
'7bd'
'7bb'
'7ba'
'7b5'
'785'
'783'
'761'
'75c'
'75b'
'759'
'755'
'74e'
'70d'
'709'
'707'
'6f7'
'6e6'
'6d6'
'6d3'
'6cd'
'6ca'
'6b7'
'6b3'
'6a2'
'69e'
'690'
'675'
'671'
'668'
'663'
'65f'
'659'
'658'
'657'
'64f'
'64b'
'62f'
'623'
'609'
'601'
'600'
'5d8'
'5c'
'5bd'
'58e'
'555_'
'554'
'54c'
'541'
'534'
'51e'
'51b'
'516'
'514'
'509'
'4e1'
'4da'
'4d'
'4ce'
'4ca'
'4c6'
'4b6'
'4b1'
'499_'
'491'
'47d'
'470'
'451'
'443'
'440_'
'432'
'42d'
'429'
'421'
'41f'
'41b'
'412'
'405'
'401'
'400'
'3f8'
'3f0'
'3e1'
'3d4'
'3be'
'3ae'
'3a7'
'3F'
'3D'
'377'
'3532'
'32a'
'300'
'2f9'
'2ec'
'2db'
'2c_'
'2c8'
'2ac'
'299_'
'26b'
'26'
'25'
'24f'
'23a'
'237'
'212'
'20d'
'209'
'20015'
'1f_'
'1eb'
'1e5'
'1d1'
'1cc'
'1cb'
'1c9'
'1bb'
'1b0'
'1998_'
'19'
'1875'
'1872'
'1823'
'165'
'164'
'15f'
'159_'
'159'
'147_'
'142'
'131'
'127_'
'11d'
'117'
'10c'
'0k'
'0fa'
'0f1'
'0ed'
'0c2'
'0b0'
'0af'
'09e'
'098'
'097'
'096'
'08e'
'08a'
'084'
'080'
'079'
'06d'
'043'
'029'
'01a'
'018'
'017'
'00a'
'.-_'
'):_'
'))'
'% '
'$'
'")'
' · _'
' ¨ _'
' ¥ _'
' ¢ _'
' = '
' ) '
' )'
' ".'
'● _'
'أ'
'ÿÿÿÿÿÿÿÿÿÿÿÿÿÿÿÿÿÿÿÿÈÐ'
'ÿÿÿÿÿÿÿÿÿÿÿÿ'
'ÿÿÿ_'
'üri'
'ülesande'
'ülemaailmne_'
'ül'
'üksikasjaliku'
'ühendused_'
'ühendus'
'ühenda'
'ühelt_'
'ühehäälselt_'
'öí'
'õppida_'
'õnnetuste_'
'õnnetuse'
'õnne'
'õna'
'õn'
'õju'
'õiguslikku_'
'õiguskaitse'
'õigusk'
'õhtu'
'íè'
'íÜÜ'
'íÚ'
'íÍ'
'æÑí'
'äå'
'ääs'
'äriühingu'
'ãå'
'ãÚÑÝíøÉ_'
'ãÕÑ_'
'áÓ'
'ßíÝíÉ_'
'ßÊÇÈ_'
'ÝÞ'
'Ûí'
'ÛÑ'
'Úã'
'ÚÔÑ_'
'Øí'
'Ø³'
'ÕæÑ_'
'ÑOKtext_'
'ÏæÑ'
'ÌÒ'
'ËÇ'
'ÊÕãíã_'
'ÊÊ'
'ÈÓ'
'Çí'
'Çáãä'
'ÇáãÕ'
'ÇáÚÇãÉ_'
'ÇáËÇáËÉ_'
'ÇáÇÓ'
'ÇÓÊ'
'ÇÈ_'
'Åá'
'Ãä_'
'» _'
'ºÿÿÿÿWed_'
'¬ '
'« '
'¥ _'
'¤'
'} '
'zk'
'yo'
'ww_'
'wp'
'wis'
'winners_'
'wines_'
'weight_'
'waiting_'
'võrdõiguslikkus'
'võrdne_'
'võitlema_'
'väärtuste_'
'välispoliitika_'
'väikeettevõt'
'vähemus'
'vägivalla_'
'vt'
'volume_'
'voliniku'
'volinikku_'
'vitus'
'viisid_'
'vent'
'vene'
'veebruaril_'
'veebilehe'
'vastuvõetamatu_'
'vastuta'
'vastaste_'
'vastas_'
'vastanu'
'vasta'
'vanemad_'
'valimised_'
'valgust'
'valdkonnad_'
'vajaduse'
'vahetuse'
'vabatahtliku_'
'vabad'
'uuringus'
'uuenda'
'uue'
'usually_'
'usse'
'usi'
'usaldusväärsuse_'
'usalduse_'
'usaldus_'
'urgency_'
'ura'
'upload'
'universities_'
'univers'
'unfair_'
'uma_'
'uimasti'
'ught'
'uct'
'uc'
'tühista'
'töötu'
'töörühma_'
'tööp'
'tööjõu_'
'tööandja'
'tõus_'
'tõst'
'tõsi'
'tõhustatud_'
'tõhusam_'
'tõenäosus'
'täiendavate_'
'täiel_'
'täida'
'tähista'
'tähendus'
'tuuri'
'tused_'
'turva'
'tunnustada_'
'tunnistama_'
'tulumaksu'
'tulevik_'
'tulemustele_'
'tugi'
'tugevat_'
'tugeva'
'tti'
'troops_'
'transitional_'
'toys_'
'tootmine_'
'toonita'
'tol'
'toimimise'
'toiduainete'
'toetamise_'
'tm'
'tliku_'
'tika'
'tic'
'tia'
'threshold_'
'thr'
'testi'
'tes'
'tervisek'
'tervis_'
'terviklik'
'terrorismivastase_'
'territoriaalse_'
'teos'
'ten'
'televisiooni_'
'television_'
'tekitavad_'
'tehtavate_'
'teenindus'
'teemadel_'
'teatise'
'teate'
'teatavad_'
'teadlas'
'tavasid_'
'tavapärase'
'tarneahela'
'tarne'
'tarbimise_'
'taolis'
'tant'
'taeva'
'sün'
'sõltumata_'
'suuremal'
'suuremad_'
'suspension_'
'suspended_'
'sun'
'suit'
'suhteid_'
'suff'
'sud'
'subsequently_'
'subsequent_'
'style_'
'stic'
'stest_'
'sten'
'sted_'
'standardid_'
'stamine_'
'stada_'
'stable_'
'spread_'
'spar'
'sotsiaalm'
'sorry_'
'soovi'
'soorita'
'solved_'
'sold_'
'sma'
'siseminister_'
'sisaldava'
'sioone_'
'simi'
'shortcomings_'
'shar'
'severe_'
'senti'
'sen_'
'selg'
'sektorite_'
'sektorite'
'sekkumis'
'seisukohtade'
'seadusandja'
'scheduled_'
'sch'
'sb'
'samasuguse'
'sada'
'saavutamisele_'
'saavutamine_'
'saatis_'
'saamist_'
'saaksime_'
'saaja'
'sWÿÿÿÿÿÿÿÿÿÿÿÿÿÿÿÿÿÿÿÿÈ0'
'rühmade'
'rühm_'
'rõõm_'
'rõhutatakse_'
'rõhutam'
'rõhu'
'runs_'
'rotsessi_'
'romide_'
'romade_'
'robust_'
'ritu'
'rise'
'rim'
'riku'
'rik'
'rid'
'reve'
'respects_'
'resolutsiooni'
'reso'
'renewed_'
'removed_'
'relie'
'reguleeriva'
'regulatiiv'
'register_'
'regardless_'
'reeglid_'
'redi'
'recruit'
'record'
'recommend_'
'rar'
'raportist_'
'ranniku'
'rand_'
'ram'
'ral_'
'rakendamis'
'rain'
'rahvusliku_'
'rahanduse_'
'püüab_'
'pühendumust_'
'põllumajandustootjate_'
'põhjaliku_'
'põhjalik_'
'päikese'
'päevakorras_'
'pädevuse_'
'puudutavad_'
'puudumise'
'puudulik'
'puudujääk'
'puu'
'publicly_'
'pt'
'prov'
'pros'
'programmis_'
'procedural_'
'probleemiks_'
'probleemi'
'prioriteet_'
'prior_'
'previously_'
'preventing_'
'presents_'
'presentation_'
'praeguses_'
'pr_'
'ppe'
'pot'
'positsiooni_'
'popular_'
'poolte'
'poliitilise'
'poliitikud_'
'poliitikas_'
'platform_'
'planeeri'
'plaani_'
'pilt'
'pilot_'
'pikaajaline_'
'pika'
'piirkond_'
'piiravad_'
'pidev_'
'picture_'
'pia'
'php9'
'phi'
'phase_'
'pettuse'
'pettu'
'personali_'
'peri'
'pensions_'
'peat'
'peamise_'
'partnerite_'
'parlamendiliikmete_'
'paremaks_'
'pare'
'parandus'
'panusta'
'pangad_'
'palus_'
'palub_'
'paljudel_'
'paik'
'paiga'
'paari_'
'paar_'
'outlook_'
'outlined_'
'otsustamis'
'otsingu'
'osutaja'
'osapoolte'
'osalemise'
'osalemine_'
'osalejate'
'osale_'
'ori'
'opposed_'
'ootus'
'ootavad_'
'ootam'
'ootab_'
'oota'
'onis'
'onid'
'ong'
'om_'
'olulisust_'
'olulis'
'olukordade'
'oliitika'
'olevad_'
'olemasolevaid_'
'oks'
'ohutu_'
'ohustatud_'
'ohus_'
'ohtude_'
'ode'
'nüüdseks_'
'nõukogul_'
'nõ'
'näitas_'
'näitama_'
'näitajad_'
'näidata_'
'näen_'
'nädalat_'
'nädal_'
'nsi'
'norma'
'noori_'
'nly_'
'nis'
'nine_'
'nik'
'niivõrd_'
'nia'
'new'
'neva'
'neighbourhood_'
'ndus_'
'ndid_'
'navigation_'
'nauti'
'nafta_'
'mõõt'
'mõnda_'
'mõistmise_'
'määratakse_'
'märgib_'
'muundatud_'
'muudes_'
'muudavad_'
'muudatusettepanekut_'
'muudatusettepanekuid_'
'murder'
'mujal_'
'mu'
'motor'
'moonuta'
'monetary_'
'modernisation_'
'mobiiltelefoni'
'mk'
'miste_'
'mistake_'
'misest_'
'mise'
'minu'
'mini'
'mingeid_'
'meta'
'mesi'
'menetluste_'
'mei'
'meetme'
'meeldiv_'
'meel'
'mber'
'matult_'
'mathematical_'
'mat_'
'master'
'makst'
'makers_'
'majandust_'
'majandust'
'majandusse'
'madala'
'maal_'
'lükata_'
'lõplik_'
'lõike'
'luse'
'lubatakse_'
'loodi_'
'loet'
'lo_'
'lled_'
'lk'
'lisi_'
'lisatud_'
'liquid'
'linnade_'
'linnad_'
'liikmesriigist_'
'liikluse_'
'lies_'
'lf'
'levita'
'ler'
'lennuliikluse_'
'lennujaama_'
'lecture'
'leads_'
'lb'
'lasi_'
'lase_'
'lap'
'languse'
'laiaulatusliku'
'lad'
'kõrvale'
'kõigist_'
'kvaliteet_'
'kvaliteedi'
'kuuluta'
'kuule'
'kuulda_'
'kurjategija'
'kulutuste_'
'ksu'
'krediit'
'korralduse_'
'korraldatud_'
'koor'
'koolitust_'
'konventsiooni'
'konstruktiivse'
'konna_'
'konkreetset_'
'kommunikatsiooni'
'kolmepoolse'
'kolmanda'
'kolleegi_'
'kolleege_'
'kohustustega_'
'kohtusse_'
'kohtumenetlus'
'kohtlemise_'
'kohalikke_'
'kohal'
'kogune'
'kogumise'
'knew_'
'kk'
'kinnitas_'
'kill'
'kiita_'
'kiirendada_'
'kiirema'
'keskus_'
'keskkonnakaitse_'
'keskendub_'
'keskel_'
'kes'
'kem_'
'keeruka'
'kavatsetakse_'
'kavad_'
'kauplemine_'
'kaudse'
'kaubandust'
'kaubanduss'
'kasvava'
'kast'
'karjääri_'
'kampaania_'
'kaitsja'
'kaitset'
'kaitsem'
'kaitseb_'
'kahju'
'kaa'
'jõuab_'
'jäta'
'järjepideva'
'jälgimis'
'juu'
'just'
'juhata'
'judgment_'
'joon'
'jae'
'ive'
'itus'
'its'
'itat'
'isv'
'isti'
'ision'
'involves_'
'inu'
'interneti_'
'interc'
'inten'
'insist_'
'ino'
'inland_'
'inimõiguste'
'infot'
'inflatsiooni'
'ines'
'incentive_'
'impe'
'imbalances_'
'ilmneb_'
'iik'
'igati_'
'igapäeva'
'identifying_'
'icia'
'ibi'
'hõlmama_'
'hääletada_'
'htmlcc'
'html83'
'html80'
'html74'
'html55'
'html3e'
'html20'
'html10'
'ht_'
'hospital'
'hii'
'highlights_'
'heal'
'harmful_'
'hard'
'hands_'
'halva'
'halduskoormust_'
'hakanud_'
'haa'
'gt'
'graphics_'
'goo'
'globaal'
'gil'
'gid_'
'geneetiliselt_'
'gather'
'garantii'
'gan'
'frameworks_'
'forum_'
'foorumi_'
'fitseeri'
'finding_'
'finantskriisi_'
'files_'
'ff3'
'ff0'
'female_'
'features_'
'fe7'
'fdb'
'fd0'
'fcd'
'fc5'
'fc4'
'fc3'
'fc1'
'fbc'
'fb_'
'failing_'
'fact'
'fa5'
'f9f'
'f96'
'f94'
'f93'
'f91'
'f8a'
'f84'
'f74'
'f53'
'f52'
'f49'
'f41'
'f3e'
'f36'
'f34'
'f2e'
'f17'
'f14'
'f0b'
'extensive_'
'experienced_'
'expectations_'
'except_'
'ex'
'ew'
'eur_'
'etri'
'ete'
'est'
'ess'
'eskkonna'
'esindus'
'ese_'
'ese'
'esa'
'eris'
'erio'
'erinevus'
'erin'
'erida_'
'erent'
'erakorralise_'
'equivalent_'
'envisaged_'
'ensures_'
'ennetava'
'energiatõhusus'
'energeetika'
'ene_'
'endise_'
'encourages_'
'emin'
'els'
'elli'
'elementide'
'elderly_'
'elanikkonna'
'ela'
'ef'
'eeti'
'eesistumis'
'eelse'
'eelis'
'eee'
'eec'
'eea'
'ee'
'edusammud_'
'edus'
'edendama_'
'edasist_'
'ected_'
'eca'
'ebasoodsa'
'ebaausa'
'earn'
'e7c'
'e70'
'e6e'
'e6a'
'e49'
'e43'
'e3b'
'e36'
'e29'
'e0f'
'e09'
'dust_'
'duse'
'dur'
'dt'
'driven_'
'dre'
'drama'
'download'
'double_'
'dollari'
'division_'
'disputes_'
'discover'
'difficulty_'
'deterioration_'
'destruction_'
'depth_'
'depending_'
'demonstrated_'
'demokraatiat_'
'delayedf'
'dedicated_'
'decline_'
'debated_'
'de6'
'dce'
'db4'
'database_'
'dar'
'dak'
'daf'
'da0'
'd9e'
'd9d'
'd7d'
'd6a'
'd69'
'd68'
'd6'
'd5e'
'd58'
'd54'
'd4a'
'd3f'
'd32'
'd12'
'd10'
'cur'
'cul'
'ct'
'credible_'
'creates_'
'courts_'
'coo'
'contractual_'
'contra'
'considerably_'
'conse'
'confirms_'
'computer_'
'completion_'
'complaints_'
'comparison_'
'comm'
'colo'
'collection_'
'coastal_'
'cm_'
'clarification_'
'cf5'
'ceb'
'ce7'
'cd2'
'cc2'
'cbf'
'cbc'
'cb2'
'cau'
'cate'
'carrying_'
'campaign_'
'cad'
'ca6'
'c9a'
'c85'
'c84'
'c7a'
'c4a'
'c3a'
'c36'
'c31'
'c3'
'c2e'
'c28'
'c16'
'c0d'
'bwww_'
'broadcast'
'briefly_'
'bird_'
'bfd'
'bf6'
'bet'
'bef'
'bearing_'
'be2'
'bdc'
'bd6'
'bd5'
'bd3'
'bd2'
'bd0'
'bcd'
'b8a'
'b78'
'b6b'
'b67'
'b60'
'b48'
'b4'
'b3b'
'b33'
'b1b'
'b0e'
'avatu'
'autori'
'autor_'
'atu_'
'ati_'
'asutust_'
'asutus_'
'assure_'
'asso'
'asa'
'arutelul_'
'aruteludes'
'armastus'
'ari_'
'arguments_'
'arenguriikide'
'arengup'
'arengumaade_'
'arenguid_'
'arendamiseks_'
'arendam'
'arenda'
'architecture_'
'approv'
'ape'
'ange'
'andmetel_'
'andmekaitse_'
'ana'
'amise'
'ambitsioonikas_'
'alus'
'allu'
'allika'
'algas_'
'alased_'
'alaealiste_'
'aktiivse_'
'akt'
'ajutiselt_'
'ajaloolis'
'ajakirjandus'
'ajakava_'
'ained_'
'ain_'
'ahend'
'age'
'af3'
'adb'
'activitystream_'
'act'
'acc'
'academic_'
'ab7'
'aalne_'
'aac'
'aa9'
'aa3'
'aa2'
'a94'
'a92'
'a88'
'a86'
'a7f'
'a72'
'a4d'
'a37'
'a12'
'a05'
'XV'
'WÿÿÿÿÿÿÿÿÿÿÿÿÿÿÿÿÿÿÿÿþÿÿÿReceive_'
'Work_'
'Without_'
'Võrd'
'Või'
'Venezuela'
'VI_'
'Uue_'
'Uu'
'UU'
'UK'
'Tööhõive_'
'Täna'
'Twitteris_'
'Tunn'
'Tulemus'
'Tuleks_'
'Tule'
'Transpordi'
'Tom'
'Toetan_'
'Thus_'
'Tam'
'Tahan_'
'TRA'
'TL'
'Stockholm_'
'Star'
'Space_'
'Southern_'
'Sotsiaaldemokraatide_'
'Solidarity_'
'Sol'
'Slovak_'
'Ser'
'Sellele_'
'Sellegipoolest_'
'ST_'
'SES_'
'SESAR_'
'Rou'
'Romanian_'
'Res'
'Reference_'
'RS'
'Plus_'
'Paul_'
'Pat'
'Partner'
'Part'
'Palun_'
'PC'
'OS_'
'OSCE_'
'OK'
'Nä'
'Nob'
'Nj'
'Nic'
'Mõne'
'Mänginud_'
'Mus'
'Mun'
'Mulle_'
'Mer'
'Men'
'Mb'
'May'
'Marc'
'Majandus_'
'MON'
'MM'
'Lõppude_'
'Liidul_'
'Lig'
'Lei'
'Lastly_'
'LIS'
'LG'
'LD'
'Küpros_'
'Kõnealuse_'
'Kõnealune_'
'Kul'
'Kom'
'Kliimamuutus'
'Kirj'
'Keskpanga_'
'Kenya_'
'Kal'
'KS'
'Jen'
'Jaa'
'Investi'
'Infrastructure_'
'Im'
'Iisrael_'
'IST'
'INVITES_'
'IH'
'IDE'
'Hä'
'Hy'
'Horvaatia'
'Han'
'HT'
'HEA'
'Ger'
'GMTR'
'Free_'
'For'
'Fis'
'Euros'
'Environmental_'
'Enam'
'Em'
'Eba'
'EUROP'
'ESM'
'EO'
'ENI'
'EJ'
'ECB_'
'Doha_'
'Disco_'
'Democratic_'
'De_'
'Dar'
'DG'
'Countries_'
'Count'
'Conclusions_'
'Christ'
'Chi'
'Chan'
'CZ'
'COM_'
'COMM'
'CL'
'CAR'
'Bowling_'
'Bl'
'Belgias_'
'Back'
'Aviation_'
'Ava'
'Auto'
'Ast'
'Association_'
'Assembly_'
'Ashton_'
'Around_'
'Ap'
'Ang'
'Aid_'
'Ag'
'Access_'
'AIDS_'
'? '
'9e5'
'9de'
'9d3'
'9be'
'9b2'
'9a7'
'995'
'994'
'98b'
'988'
'97f'
'96d'
'95c'
'94c'
'91'
'902'
'8www_'
'8fc'
'8f1'
'8f0'
'8e6'
'8d'
'8c1'
'8a6'
'8a0'
'898'
'890'
'88a'
'886'
'87a'
'86e'
'845'
'832'
'81f'
'81c'
'81b'
'80e'
'7www_'
'7f0'
'7f'
'7ea'
'7d'
'793'
'778'
'774'
'772'
'77'
'76d'
'762'
'75e'
'75d'
'748'
'6ff'
'6f6'
'6f2'
'6ee'
'6df'
'6c8'
'6c2'
'6b5'
'6af'
'6ad'
'6a8'
'69a'
'67e'
'65a'
'635'
'620'
'60b'
'5s'
'5f7'
'5e3'
'5cc'
'5c7'
'5c0'
'5bc'
'5b8'
'5b7'
'5ac'
'5aa'
'5a9'
'5a5'
'580_'
'57d'
'570'
'567'
'566'
'548'
'547'
'542_'
'540_'
'540'
'53e'
'539_'
'524'
'51a'
'50c'
'506'
'4f9'
'4eb'
'4bd'
'498'
'48b'
'488'
'487'
'473'
'45e'
'453'
'44d'
'446'
'442'
'433'
'414'
'408'
'3www_'
'3f1'
'3ed'
'3ea'
'3b6'
'3aa'
'3a6'
'38b'
'376'
'36f'
'36a'
'350_'
'33c'
'333_'
'31b'
'309'
'308_'
'301'
'2fa'
'2ea'
'2d7'
'2cf'
'2cb'
'2c3'
'2ab'
'28f'
'281'
'280_'
'276'
'25a'
'251'
'22d'
'21f'
'21e'
'21d'
'214_'
'2011'
'20014'
'1f9'
'1f6'
'1f3'
'1ba'
'1b5'
'1876'
'1863'
'15d'
'154_'
'14c'
'143_'
'13f'
'13a'
'128'
'11c'
'119_'
'114'
'10d'
'109_'
'107_'
'0f3'
'0f2'
'0ea'
'0db'
'0be'
'0b4'
'0a0'
'09d'
'092'
'083'
'08'
'076'
'04e'
'02b'
'01f'
'012'
'005'
'.. '
'., _'
'.'_'
'-- _'
'* } _'
'). _'
'' ` _'
'% (_'
'" (_'
'" '
' ●'
' ¯ _'
' ¯'
' ¨_'
' ='
' <'
' -[- _'
' , '
' %'
' " '
'…'
'نا'
'ش'
'س'
'Špidla_'
'Še'
'Č'
'ÿÿÿÿÿÿÿÿÿÿÿÿÿÿÿÿÿÿÿÿÈð'
'ülemaailmse'
'ülekan'
'üleilmse_'
'üksteise_'
'üksteise'
'üksikasjalikult_'
'ühiskonnale_'
'ühise'
'ühiku'
'ühendus_'
'ühendab_'
'õpilaste'
'õnnestunud_'
'õigusloome'
'õiguslikult_'
'õigusküsimuste_'
'õigusala'
'õiglase_'
'íà'
'ëè'
'ëà'
'äÇW'
'äeva'
'ãÔÑæÚ_'
'ãÌ_'
'ãÇá'
'âî'
'áßã_'
'áÉ_'
'ßÑ'
'Ühtlasi_'
'Ühendriikides_'
'Ühendriigid_'
'Ühendkuningriigis_'
'Ühendkuningrii'
'ÚÏÏ_'
'ØÈ'
'ØªØ_'
'Õí'
'Ó7_'
'Ñÿÿÿÿ_'
'ÑíÉ_'
'ÑÓ'
'ÑÍãÉ_'
'Ïã'
'ÏÑæÓ_'
'ËÑ_'
'Êó'
'Êå_'
'Êá'
'ÈäßåÉ_'
'ÈØ'
'ÈWÿÿÿÿÿÿÿÿÿÿÿÿÿÿÿÿÿÿÿÿÈð'
'ÇáäÇ'
'ÇáãäÊÏíÇÊ_'
'ÇáãÞ'
'ÇáãÍÇÏËÉ_'
'ÇáÚÙíã_'
'ÇáÚÑÈíÉ_'
'ÇáÃä'
'ÇáÃÕÏÞÇÁ_'
'ÇÊ'
'Ãí'
'ÃÎ'
'¿ .. _'
'« ` _'
'¦ _'
'}'
'{'
'zard'
'ysi'
'you'
'yon'
'xe'
'wy'
'worse_'
'withdraw'
'winter_'
'wind_'
'willingness_'
'whereby_'
'weaknesses_'
'warrant'
'ware'
'walk_'
'võtma'
'võta_'
'võrdselt_'
'võrdle'
'võitja'
'võimaluste'
'väärtusliku'
'väärse'
'vär'
'vältima'
'väljatöötamine_'
'välis_'
'vähenes_'
'vähenemine_'
'vähendama_'
'vähema'
'vuse'
'votes_'
'volituste_'
'viv'
'viimaste_'
'viimasel_'
'viiend'
'viable_'
'vert'
'ven_'
'ven'
'vel'
'veini_'
'veer'
'veendumust'
'vati'
'vastuseid_'
'vastand'
'vasak'
'varsti_'
'varas'
'van_'
'valmistatud_'
'valmidus'
'valitseb_'
'valiku_'
'valdkond_'
'vaik'
'vaidluse'
'vahendus'
'vahenditele_'
'vabadust_'
'vaatab_'
'va'
'uurit'
'uurimise_'
'uul'
'uuele_'
'utse'
'utmost_'
'ution'
'usta'
'uss'
'usaldusväärsus'
'usaldusväärne_'
'urg_'
'uns'
'unprecedented_'
'unnecessary_'
'unn'
'unless_'
'unl'
'unique_'
'unions_'
'une_'
'undergo'
'ulemus'
'ule'
'uid_'
'uhkus'
'ude'
'u126'
'tööstust'
'töökohta_'
'tööko'
'tööa'
'tõstata'
'tõlke_'
'tõhusamalt_'
'tõendi'
'tõelist_'
'täpsemalt_'
'täitnud_'
'täiskogul_'
'täies_'
'täiendada_'
'tähelepan'
'turvalisust_'
'turvalise'
'tursa'
'turning_'
'tunnistatakse_'
'tunnen_'
'tundi_'
'tulenevad_'
'tulene'
'tulemustabeli'
'tulemuse_'
'tugevdamise_'
'tugevalt_'
'ttevõt'
'tted_'
'tsiteeri'
'tsin'
'tsi_'
'tric'
'tribut'
'transport'
'transmission_'
'traders_'
'tr'
'tors_'
'tootmise'
'tootjad_'
'toote_'
'toodetele_'
'tonn'
'toitumis'
'toimuma_'
'toimik'
'toimi'
'tohutu_'
'tohutu'
'toetusi_'
'toetanud_'
'toetamist_'
'tiona'
'tile_'
'tiivse'
'tig'
'ticket'
'themes_'
'tervitada_'
'tervist_'
'tervishoid_'
'ters_'
'terr'
'teooria_'
'tenden'
'tena_'
'tekki'
'tekitada_'
'tegutsemis'
'tegu'
'tegi'
'tegevuses_'
'tegevuse'
'tegev'
'tegemise_'
'tegemine_'
'teenuste'
'teenuse'
'teemalis'
'teemad_'
'teavitamise'
'teatis_'
'teatavat_'
'teadmiste'
'teadlikkuse_'
'teadlased_'
'tavus'
'tavade'
'taustal_'
'tata'
'tasud'
'taseme'
'tarbijatel_'
'tarbijak'
'taotleda_'
'tank'
'tamine_'
'takistusi_'
'tain'
'tahk'
'tage'
'tagasil'
'taastuv'
'taastamine_'
't184'
'süsteemiga_'
'sümbol'
'sõnavõtu'
'sõlmimise_'
'sõlmimis'
'sõda_'
'säilitamise_'
'säilitamine_'
'säili'
'sÈW'
'synergies_'
'sy'
'sv'
'suverääns'
'suve'
'suut'
'suurendamist_'
'suuniseid_'
'suundumus'
'suundu'
'surnu'
'sum'
'suhet'
'su'
'struktuur'
'strateegia'
'stone_'
'stii'
'statistika'
'stands_'
'standardisation_'
'standardi'
'stance_'
'stal'
'spoke_'
'spetsiaalse'
'sotsiaalsel'
'sotsiaal_'
'soolist_'
'soodustava'
'someone_'
'solar_'
'sme'
'slow_'
'skeemi_'
'sisu'
'siseturg'
'sing'
'sihi'
'signa'
'shares_'
'settle'
'sentence'
'sellises'
'selling_'
'selges'
'selge'
'sektorites_'
'seisundi_'
'seisundi'
'seisu_'
'seejuures_'
'seab_'
'sara_'
'sammu'
'salar'
'saja'
'safe'
'saavutamisel_'
'saastekvoot'
'rut'
'rupt'
'ru_'
'rp'
'roheli'
'roh'
'roads_'
'rma'
'ringi_'
'rikka'
'riikide'
'režiimi'
'revisi'
'rete'
'restriction_'
'responses_'
'respondents_'
'resp'
'rescue_'
'repu'
'replycount_'
'replace_'
'repeat_'
'remarks_'
'remained_'
'relati'
'reid_'
'reformid_'
'referendumi'
'recession_'
'rch'
'rc'
'rati'
'raskustes'
'ras'
'ran_'
'ralis'
'rahvastiku'
'rahumeelse'
'rahuldava'
'rahastatava'
'rahandusminister_'
'rahandusk'
'rahalise_'
'radio_'
'rab'
'raamatu'
'raamat_'
'raa'
'qu'
'püüdnud_'
'püüame_'
'püsiv'
'põhjusta'
'põhjendus'
'päevakorra'
'puudused_'
'puudumine_'
'push_'
'punktis'
'pta'
'prospects_'
'promised_'
'program'
'profile_'
'professionals_'
'probleemidest_'
'prison_'
'priorit'
'prevent'
'pret'
'pressiteates_'
'preservation_'
'pres'
'preparatory_'
'por'
'pooli'
'poliitiliselt_'
'poliitilisele_'
'pl'
'pit'
'pingutusi_'
'pileti'
'pikaajalise'
'piisava'
'piirkondlikul_'
'piirkondlikud_'
'piirkondlikku_'
'piiride_'
'piiride'
'piirdu'
'piirami'
'piira'
'piimat'
'pig'
'pidid_'
'pidasid_'
'pidas_'
'photo'
'pesticides_'
'permit_'
'perioodi'
'perekonna'
'pere_'
'perce'
'peal'
'patent'
'partneritega_'
'partly_'
'participants_'
'parking_'
'panga'
'paljudele_'
'pakutava'
'pakutakse_'
'pakkuvate'
'pakkumise'
'pak'
'paindlikkuse_'
'paika_'
'paigalda'
'pagulas'
'ow_'
'osutami'
'oskus'
'osalemist_'
'osakaalu_'
'orti'
'ormi'
'organite'
'organise_'
'ore_'
'ordinary_'
'opi'
'opera'
'openness_'
'ootja'
'ooli'
'ool_'
'omm'
'olulisel_'
'old'
'ol_'
'ohv'
'ohu_'
'ohas'
'ogi'
'oge'
'offence_'
'occurred_'
'observation_'
'nõuetega_'
'nõude'
'nõud'
'näol_'
'nÈW'
'num'
'nl'
'nity_'
'nin'
'nik_'
'niis'
'ngute'
'ngu_'
'neto'
'nete'
'nes'
'nergia'
'necess'
'ndami'
'natuke_'
'nationali'
'nati'
'nast'
'nan'
'nai'
'müra_'
'mõttevahetuse_'
'mõrva'
'mõni_'
'mõjud'
'mõistliku'
'märkimisväärse_'
'märkim'
'märk_'
'märgistamise_'
'märgist'
'märg'
'mängida_'
'mus_'
'mulla'
'mt'
'moved_'
'mortal'
'moonutus'
'monopoli'
'mol'
'ml'
'mitmet'
'mitmekesisust_'
'mitmekesisus_'
'misv'
'mistõttu_'
'mista'
'misa'
'minuti'
'minim'
'minds'
'millions_'
'miljon'
'messages_'
'mer_'
'mend'
'memory_'
'meetri'
'meenutada_'
'meeldi'
'medi'
'materjali_'
'marked_'
'mani'
'maksustamis'
'maksejõuetus'
'makseid_'
'majandusp'
'majanduslikud_'
'majanduslike_'
'mainit'
'mainida_'
'lükka'
'lõpuni_'
'lääne'
'läbivaatamist_'
'läbivaatamis'
'läbirääkimis'
'läbipaistvus_'
'läbim'
'lugemise_'
'love_'
'loot'
'looked_'
'logo_'
'listened_'
'linnu'
'lin'
'limi'
'liikmetel'
'liikmesriikidest_'
'liigse'
'liigid_'
'liig'
'liidus_'
'liidu'
'lid_'
'lh'
'letters_'
'lepitus'
'lepinguid_'
'lepingu'
'lend_'
'lend'
'leiti_'
'leiame_'
'legitimacy_'
'legislat'
'legi_'
'lc'
'langeb_'
'lange'
'laiene'
'lahuta'
'lahendamist_'
'lahendami'
'lahe'
'lag'
'kütuste'
'kõrvaldat'
'kõnealused_'
'käsutuses_'
'käsitlemise'
'käita'
'kä'
'kvaliteetse'
'kute'
'kusjuures_'
'kursi'
'kuluka'
'kult_'
'kuju'
'kro'
'kriitilise'
'krii'
'kraa'
'korral'
'korr'
'koostamise'
'koostab_'
'koormuse'
'koordineerimise_'
'koordineerimis'
'koolita'
'kontrollisüsteemi'
'kons'
'konda'
'kond'
'kommunis'
'kommenteeri'
'kolmes'
'kolmandatest_'
'kolm'
'kollektiivse'
'kolleegide_'
'kol'
'kohtusüsteemi_'
'kohtades_'
'kohalikud_'
'kohaldamist_'
'kohaldamine_'
'kohad_'
'kogukonna_'
'koge'
'kodanikuühiskon'
'kodanike'
'km'
'kliima'
'klient'
'kliendi'
'klassi_'
'kits'
'kirjeldatud_'
'kindlaks'
'kestnud_'
'kest'
'keskuste_'
'keskkonnaalase'
'kept_'
'kellele_'
'kehv'
'keelu_'
'kaupa_'
'katt'
'kate'
'kasutatava'
'kasutamata_'
'kasumi'
'kap'
'kantsler_'
'kandid'
'kamis'
'kaldu'
'kajastu'
'kaitsmiseks_'
'kahtle'
'kahjustada_'
'kahjuliku'
'kahetsusväärne_'
'kadum'
'kaasl'
'kaasaegse'
'jõupingutuste_'
'jätkusuutlik_'
'järgmistel_'
'järgmisi_'
'järelduste_'
'jäi_'
'jumal'
'julgustada_'
'juhtude'
'juhtub_'
'juhtkon'
'juhtimisel_'
'juhtimise'
'jooks'
'jaks_'
'jah'
'jaanuaris_'
'ivse'
'ius'
'ita_'
'issuing_'
'isik_'
'iseloomu'
'ious_'
'investigat'
'investeerimise'
'investeerida_'
'intressi'
'interpret'
'interesting_'
'intell'
'integratsioon_'
'inspections_'
'ins_'
'ins'
'inna'
'ink'
'inh'
'ingi'
'informal_'
'iner'
'indlustus'
'imposing_'
'import'
'imporditud_'
'impordi_'
'impordi'
'imp'
'images_'
'ilt_'
'ij'
'ight_'
'igasuguse_'
'igas_'
'ien'
'idee'
'idami'
'ich'
'ically_'
'ian'
'hüvita'
'hõlmata_'
'hõlma_'
'hõlbustada_'
'hääle'
'hääl'
'häire'
'hädaolukor'
'hädaabi'
'huvitav_'
'https_'
'htmlf8'
'htmled'
'htmle5'
'htmlde'
'htmld5'
'htmlcf'
'htmlb6'
'htmla7'
'html89'
'html7c'
'html70'
'html6b'
'html53'
'html4c'
'html48'
'html2e'
'html2a'
'html29'
'html25'
'html1c'
'html18'
'html14'
'html11'
'html0e'
'html0d'
'html05'
'hs'
'households_'
'hors'
'hopefully_'
'hom'
'holders_'
'hoiatus'
'hma'
'hm'
'hit'
'his'
'hend'
'hed_'
'heaolu'
'harmonis'
'harm_'
'harju'
'harg'
'hand'
'ham_'
'ham'
'halvene'
'hallata_'
'gus_'
'gur'
'guaranteeing_'
'guaranteed_'
'grupi'
'granting_'
'gradually_'
'gone_'
'gni'
'globally_'
'git'
'gim'
'gets_'
'get'
'ges_'
'generations_'
'gad'
'fy'
'fs'
'fresh_'
'frequently_'
'free'
'fourth_'
'fou'
'form'
'foreseen_'
'foorumi'
'fm'
'flagship_'
'finantste'
'finantsraamistik'
'films_'
'field'
'ff2'
'fewer_'
'fe9'
'fe1'
'fd_'
'fd9'
'fd'
'fc8'
'fb6'
'fb1'
'falling_'
'f9b'
'f8c'
'f80'
'f6c'
'f42'
'f4'
'f33'
'f3'
'f29'
'f27'
'f25'
'f0d'
'f04'
'express'
'experiencing_'
'expe'
'exp'
'euroopali'
'euroalal_'
'ettevaatlik'
'etest_'
'etav'
'esta'
'eskus'
'esindatud_'
'esimese'
'esialgse'
'err'
'erista'
'erineva'
'erimis'
'erilise'
'erguta'
'erat'
'erapooletu'
'erandi'
'eraldatava'
'eraldamise'
'entrepreneurship_'
'enta'
'enormous_'
'enneta'
'enim_'
'energial'
'enamuse_'
'enamasti_'
'ena'
'emphasise_'
'emerge'
'elg'
'eld'
'elavate_'
'elanike'
'ektori_'
'eksisteeri'
'efficiently_'
'ef0'
'eesistujariigi'
'eerimise_'
'een_'
'eem'
'eelmise'
'eelduse'
'edb'
'edasiste'
'economically_'
'ecf'
'ebavõrdsuse_'
'eb2'
'ear'
'eaka'
'ea4'
'e95'
'e8b'
'e88'
'e75'
'e69'
'e68'
'e63'
'e60'
'e51'
'e50'
'e46'
'e22'
'e17'
'e11'
'e0e'
'dse'
'drought'
'drawing_'
'dokumentide'
'dokumendi'
'diskrimineerimine_'
'disabilities_'
'direktor_'
'dig'
'dfc'
'df7'
'det_'
'desp'
'designate'
'deployed_'
'depends_'
'denied_'
'demokraatliku'
'delt_'
'delayed9'
'decrease_'
'deaths_'
'dealt_'
'dd7'
'dd2'
'db0'
'dates_'
'data'
'da3'
'da1'
'd96'
'd85'
'd78'
'd73'
'd64'
'd5b'
'd3e'
'd22'
'd08'
'd02'
'customers_'
'custom'
'ctive'
'ctic'
'crop'
'criminals_'
'correction_'
'copyright_'
'cop'
'convers'
'conta'
'consi'
'connections_'
'connected_'
'congratulati'
'confident_'
'concentrated_'
'conce'
'completed_'
'commented_'
'coherence_'
'clearer_'
'cfb'
'cf4'
'certificate'
'cent_'
'ce1'
'cd7'
'ccc'
'cc8'
'cb0'
'careful_'
'car'
'capabilities_'
'camp'
'caf'
'ca8'
'ca5'
'c92'
'c8f'
'c88'
'c83'
'c7f'
'c6b'
'c68'
'c4b'
'c43'
'c41'
'c23'
'c12'
'buying_'
'bussi'
'burg_'
'bun'
'bul'
'brief_'
'break'
'brea'
'bran'
'bon'
'bn'
'blokeeri'
'bit_'
'birth_'
'be5'
'bdd'
'bd'
'bcb'
'bc_'
'bc5'
'bc0'
'bb3'
'baasi_'
'b9c'
'b8f'
'b6'
'b56'
'b3c'
'b34'
'b32'
'b2d'
'b2b'
'b15'
'b0c'
'b0b'
'b00'
'await'
'avoiding_'
'avaldust'
'avaldama_'
'autot'
'automatically_'
'automaatselt_'
'auto_'
'austama_'
'auhinna_'
'atsiooni_'
'ational_'
'atia'
'atel'
'at'
'asuvad_'
'asukoha_'
'asub_'
'assessing_'
'arvuka'
'arvamuste_'
'arvamuse'
'arvam'
'arva'
'arutame_'
'arr'
'armee'
'arm'
'aria'
'arengus_'
'arengumaades_'
'archi'
'aquaculture_'
'approve_'
'appears_'
'ani_'
'ane'
'andmetele_'
'andmebaasi'
'ametnike_'
'ametlik_'
'ametiasutuste'
'alustamise'
'alustama_'
'aluse'
'alne_'
'algus'
'algab_'
'alga'
'aldkon'
'alat'
'aktsepteeri'
'akti_'
'akti'
'aju'
'ajali'
'ajakohastatud_'
'ajad_'
'aim'
'agi_'
'agen'
'affi'
'af2'
'aef'
'ae0'
'advance_'
'adults_'
'add'
'accurate_'
'acce'
'abuse_'
'abinõu'
'ab2'
'aastase_'
'aastapäeva_'
'aadi'
'a93'
'a91'
'a8f'
'a8a'
'a84'
'a7d'
'a78'
'a70'
'a6f'
'a6a'
'a68'
'a64'
'a61'
'a54'
'a4b'
'a4a'
'a48'
'a41'
'a21'
'a0f'
'][~~~ '
'\u '
'Zi'
'Yes_'
'YI'
'XE'
'Works_'
'Water_'
'Wal'
'WE'
'Vis'
'Viimase'
'Veel_'
'Vastu'
'Vasta'
'Vaatamata_'
'VII'
'Uute_'
'Up'
'Ungaris_'
'Ukraina'
'UE'
'Türgi'
'Two_'
'Tugev'
'Thomas_'
'Thai'
'Tele'
'Teh'
'Tegemist_'
'Tab'
'TT'
'TER'
'Suur_'
'Suu'
'Support_'
'Sto'
'Spanish_'
'Sis'
'Sil'
'Shi'
'Seni'
'Semester_'
'Seejärel_'
'Sect'
'Scotland_'
'Sc'
'Sat'
'SQ'
'SKI'
'SIS'
'Rödl_'
'RÕHUTAB_'
'RsW'
'Rootsis_'
'Regarding_'
'Reg'
'Recalling_'
'Rahvusvahelise'
'RM'
'RL'
'RK'
'Quin'
'Puu'
'Prote'
'Projekti'
'Pr_'
'Political_'
'Plan'
'Pie'
'Philip'
'Peami'
'Parlamendil_'
'Parlamendi'
'Par'
'PA_'
'Ot'
'Ob'
'OM'
'OLAF_'
'OJ_'
'OE'
'Neighbourhood_'
'NU'
'NOT'
'NM'
'NAT'
'Määruse_'
'Määrus'
'Muude'
'Muu'
'Motor'
'Mongose_'
'Monday_'
'Mitmed_'
'Millennium_'
'Met'
'Meg'
'Marin'
'Mar_'
'Mahjong_'
'Mag'
'Mad'
'MP'
'MIS'
'Läbi'
'Lt'
'Like_'
'Lib'
'Last_'
'Language'
'Lam'
'LB'
'Küsi'
'Krist'
'Kontrollikoda_'
'Kontakt_'
'Komisjonil_'
'Kolmanda'
'Kokkulep'
'Ken'
'Kava'
'Kanada_'
'Jää'
'Jy'
'Jumal_'
'Je'
'Istung'
'Invest'
'Internet'
'Initiative_'
'Imp'
'IND_'
'ID_'
'Hiinas_'
'Herzegovina_'
'Hei'
'Hans_'
'Ham'
'Hai'
'Green'
'Gran'
'GR'
'GMTÝ'
'GMTÉ'
'GMTN'
'GI_'
'GAR'
'Fun'
'Fre'
'Frank'
'Fran'
'Forest'
'Fl'
'Finno_'
'Find_'
'Fi_'
'Far'
'Fac'
'Exper'
'Eurogroup_'
'Ettepaneku'
'Ettepanek_'
'Esimese_'
'Embed_'
'Ehkki_'
'Eg'
'Eestis_'
'Eesmärk_'
'EUROPEAN_'
'ELil_'
'EEC_'
'ECH'
'Dra'
'Don'
'Dom'
'Director_'
'Department_'
'DU'
'DP_'
'DEM_'
'Customs_'
'Cop'
'Cont'
'Conc'
'Competitiveness_'
'Comp'
'Comme'
'Com'
'Coa'
'Cl'
'City_'
'Children_'
'Charl'
'CO_'
'CF'
'CD_'
'C6_'
'Berl'
'Bea'
'Ban'
'BB'
'Av'
'Aug_'
'Atlandi_'
'Aru'
'Armastatud_'
'Ana'
'Alliance_'
'Alg'
'Ainu'
'Advisory_'
'AU'
'ALI'
'AE'
'ACP_'
'> <'
'</_'
': @_'
'9fd'
'9fb'
'9f6'
'9e1'
'9a1'
'998_'
'98d'
'97d'
'965'
'94e'
'94d'
'944'
'923'
'921_'
'912'
'90a'
'8fb'
'8f2'
'8e0'
'8d4'
'89b'
'899_'
'880'
'873'
'86d'
'85b'
'844'
'83e'
'83d'
'838'
'82f'
'81e'
'7th_'
'7e_'
'7e'
'7de'
'7cf'
'7cd'
'7c6'
'7c2'
'7bc'
'7a3'
'784_'
'77c'
'75a'
'756'
'754'
'74a'
'740'
'724'
'71f'
'71d'
'713'
'6e9'
'6e2'
'6c0'
'6ac'
'6aa'
'697'
'65d'
'65c'
'655'
'64c'
'644'
'642'
'63f'
'63c'
'62b'
'626'
'61f'
'61c'
'60a'
'604'
'60'
'5www_'
'5fb'
'5f5'
'5ee'
'5e5'
'5d7'
'5c9'
'5c6'
'5c1'
'5bb'
'5ba'
'5b3'
'5a2'
'591'
'587'
'586'
'56f'
'56b'
'55e'
'549'
'544'
'543'
'52e'
'52a'
'505'
'4fe'
'4f0'
'4ec'
'4e4'
'4c5'
'4b2'
'4af'
'4H'
'49f'
'49d'
'491_'
'48d'
'478'
'46c'
'46b'
'468'
'460_'
'46'
'449'
'440'
'43e'
'42e'
'421_'
'420_'
'42'
'41c'
'3f6'
'3f2'
'3ee'
'3e4'
'3e3'
'3d7'
'3c9'
'3c6'
'3b4'
'3ac'
'3O'
'37b'
'361'
'355'
'3531'
'353'
'34b'
'344_'
'33b'
'33a'
'31e'
'303'
'2fd'
'2d'
'2cc'
'2b6'
'2ad'
'2a3'
'2Fd'
'29e'
'26d'
'25D'
'24c'
'24a'
'242'
'22c'
'204'
'1www_'
'1f0'
'1ec'
'1e_'
'1e4'
'1e2'
'1db'
'1ce'
'1c2'
'1a3'
'1997_'
'1996_'
'1990'
'187613_'
'1858'
'17e'
'17a'
'16f'
'16a'
'157_'
'156_'
'1559_'
'14e'
'14d'
'149_'
'128_'
'1256gzip'
'113'
'11'
'108_'
'0ff'
'0f7'
'0f4'
'0ee'
'0e2'
'0de'
'0ce'
'0c3'
'0bc'
'0b9'
'0ad'
'0a7'
'0a'
'094'
'093'
'07b'
'075'
'070'
'068'
'062'
'03d'
'035'
'021'
'01e'
'01T00_'
'00c'
'00b'
'//'
'.“_'
'*, _'
'* ` _'
') – _'
'">'
'!-- _'
'!!'
' ¿ '
' ´ _'
' §'
' ¥+ _'
' ~'
' ;'
' -->'
' %._'
'€'
'• _'
'”'
'“ _'
'ےےےےےےےےےےےےےےےےےےےےب'
'ÿÿÿÿÿÿÿÿÿÿÿÿÿÿÿÿÿÿÿÿÈ0_'
'üsimused_'
'üsimus'
'ür'
'üllata'
'üliõpilas'
'üleskutse'
'üleminekuperiood'
'ülemaailmsel'
'ülejää'
'ülalp'
'üksikisiku'
'ühtegi_'
'ühist'
'ühinemise'
'ühine'
'ühes'
'ühenduste'
'ühendatud_'
'üheksa_'
'øÇ'
'÷ '
'öeldud_'
'õõnesta'
'õõ'
'õnnitlen_'
'õli'
'õigustest_'
'õigustega_'
'õiguslikud_'
'õiguses_'
'õigusega_'
'õiguse'
'õigusaktide'
'õiges_'
'õe'
'ðå'
'ð9ÿÿÿÿ_'
'ð9_'
'ð9OKtext_'
'íãí'
'íÇÊ_'
'ís'
'êà'
'æß'
'æÙ'
'æÇáÚÔÑæä_'
'æÇáÌÑÇÝíßÓ_'
'æÇÍÏÉ_'
'æÇÊ_'
'æs'
'åäÏÓ'
'åá'
'äíÉ_'
'äì_'
'äär'
'äriühingute_'
'äit'
'äev_'
'ãî_'
'ãåäÏÓ_'
'ãØáæÈ_'
'ãÓÇ'
'ãÇÊ_'
'ááÚ'
'áßá_'
'áß_'
'áÏ'
'ÝíÉ_'
'Üá'
'ÜÜÜÜÜÜ'
'Üldiselt_'
'Üksikasjalikum_'
'Úáí_'
'ØáÈÇÊ_'
'ÕæÊ_'
'Õã'
'ÕÑí'
'Õp'
'ÕH'
'Óí_'
'ÓÈÍÇä_'
'ÑæÇ'
'ÑÍ'
'ÏÚ'
'ÎíÑ'
'ÎÑ'
'ÍÞ'
'ÍÈ'
'Ìå'
'ÌÏíÏÉ_'
'ËíÑ_'
'ÊØ'
'ÊÕ'
'ÊÍãíá_'
'ÈÍ'
'ÈÇáã'
'ÈWÿÿÿÿÿÿÿÿÿÿÿÿÿÿÿÿÿÿÿÿÈp'
'Çáå'
'Çááíá'
'ÇáÝÊÇÉ_'
'ÇáÜ_'
'ÇáÒæÇÑ_'
'ÇáÏÚ'
'ÇáÎÇãÓ_'
'ÇáÍÇ'
'ÇáÇä'
'ÇáÅÔÑÇÝ_'
'ÇáÃÑ'
'ÇÚ'
'ÇØ'
'ÇÒ_'
'ÇÏ_'
'ÆÉ_'
'Ãã'
'ÃÚ'
'ÃÓØæÑÉ_'
'·'
'´'
'­_'
'©'
'¢ ` _'
'~ '
'zu'
'zi_'
'yp'
'yn'
'yed_'
'worth'
'won_'
'witness'
'win_'
'widespread_'
'whereas_'
'wee'
'weather_'
'watch_'
'wage_'
'võimet_'
'võimatu_'
'võimaldades_'
'väärtuste'
'väärtus_'
'väär'
'värv'
'vältimise'
'vältel_'
'väljendab_'
'väljakutsetele_'
'väliste'
'välista'
'välisasjade_'
'väit'
'vähendatud_'
'vähemuste_'
'väe'
'vust_'
'vus_'
'violations_'
'vine'
'vin'
'viite'
'viima'
'viies'
'viida'
'viid'
'vihm'
'viga_'
'vhe'
'vel_'
'vehicle_'
'vees'
'veenda_'
'veek'
'veebruaris_'
'vedu'
'vastuvõtu'
'vastutustundlik'
'vastutava'
'vastused_'
'vastuolu'
'vastastikust_'
'vastast_'
'varustus'
'varud_'
'varju'
'vanane'
'valmistada_'
'valmisoleku'
'valitsusjuhid_'
'valitsusele_'
'valimisp'
'valimise'
'valid_'
'valid'
'valda'
'val_'
'vaimse'
'vaim'
'vahetamis'
'vahendi_'
'vahelised_'
'vaesuse'
'vaeste'
'vabatahtlik'
'vaadelda_'
'vaadatakse_'
'uutes_'
'uure'
'uuest'
'uu'
'utami'
'usl'
'uska'
'uro'
'urged_'
'upp'
'upgrading_'
'updated_'
'unustada_'
'unre'
'unifi'
'uncon'
'unb'
'umise_'
'umb'
'umat'
'ulo'
'ulate'
'uka'
'uguse'
'udes_'
'udel'
'uan'
'uaal'
'tühi'
'tööturu'
'töötas_'
'tööstuspoliitika'
'tööstuse'
'töörühm_'
'tööprogrammi_'
'tööl'
'tööhõivep'
'töödeldud_'
'tõusu_'
'tõusu'
'tõuke'
'tõstmise'
'tõste'
'tõsiasja'
'tõhusamat'
'tõhusama'
'täpsusta'
'täida_'
'tähtsus_'
'täht'
'tähelda'
'twi'
'tvi'
'tuvasta'
'tuule'
'tut'
'tuseks_'
'turustamis'
'turgudel_'
'tunnustatud_'
'tunduva'
'tulevase'
'tuletada_'
'tuletab_'
'tulenevaid_'
'tulemuste'
'tugevdama_'
'tude'
'tubli'
'tsust'
'tree'
'treat'
'transpose_'
'transpordisektori'
'transpordis'
'transpordil'
'transfers_'
'transferr'
'traditsiooni'
'trade'
'tract'
'tos'
'toru'
'toovad_'
'too'
'tonnes_'
'tone_'
'toitu_'
'toit'
'toimin'
'toimida_'
'toi'
'toetuste'
'toetuseks_'
'toetasid_'
'toetamise'
'tmis'
'tl'
'tise'
'tip'
'tion'
'tilise'
'tilis'
'tik'
'tide'
'tically_'
'thre'
'thi'
'tervislik'
'tervishoius'
'teostata'
'teni'
'tempo'
'temaga_'
'teki'
'teisest_'
'tehnoloogial'
'tehn'
'tehes_'
'tegutsemist_'
'tegutsem'
'tegurid_'
'tegur_'
'tegevuste_'
'tegevuss'
'tegevusp'
'tegevus'
'tegemise'
'tegem'
'tegelik_'
'teenust_'
'teatas_'
'teadustöö'
'teaduslike'
'tavat'
'tasu'
'tast'
'tasemele_'
'tasakaalustamatus'
'tas'
'taristu_'
'tarbetu'
'taotlus'
'taotleja'
'tal'
'takistused_'
'takistam'
'taja'
'tahtnud_'
'tagajärgede'
'taastu'
'taask'
'taa'
'tW'
't4'
't167'
'süüdistus'
'sündmused_'
'sügavalt_'
'süda'
'sõprade'
'sõnumi'
'sõnad_'
'sõltuvus'
'sõltuvalt_'
'sõltumatus'
'sõbralik'
'säästlik'
'symbol'
'switch_'
'swiftly_'
'suv'
'suutlikkust_'
'suurima'
'suurendades_'
'suuremate'
'suuniste'
'suudavad_'
'surplus_'
'suremus'
'summary_'
'suk'
'sujuva'
'suits'
'sufficiently_'
'subs'
'struktuurifondide_'
'strictly_'
'stresses_'
'stor'
'stm'
'stem'
'stay'
'standing_'
'stam'
'spot_'
'spetsiifilis'
'sp'
'southern_'
'sotsiaalkaitse'
'soovis'
'sooviks'
'soovid'
'soov_'
'sood'
'somewhat_'
'sol'
'software_'
'soft_'
'sm'
'slik'
'sle'
'skilled_'
'ske'
'sisserändaja'
'sisevee'
'sisep'
'siseasjade_'
'sion'
'sinu'
'sinna_'
'simplified_'
'silma_'
'sihtotstarbelis'
'shortly_'
'septembri'
'separate'
'seminar'
'sem'
'sell_'
'selgitat'
'select'
'seisukohad_'
'seisab_'
'segment'
'seekers_'
'sectoral_'
'section_'
'sealse'
'seaduslik'
'scenario'
'sau'
'sand'
'samu_'
'samaväärse'
'samamoodi_'
'sagedus'
'sageda'
'safeguards_'
'saavutatakse_'
'saavuta'
'saagi'
'saadetud_'
'sWÿÿÿÿÿÿÿÿÿÿÿÿÿÿÿÿÿÿÿÿÈð_'
'sOKtext_'
'rühmi_'
'rääkis_'
'räägin_'
'rändlus'
'ruumi'
'rust'
'rot'
'rohke'
'roa'
'rite'
'risti'
'rist'
'rikkus'
'rikkumismenetlus'
'rikku'
'rikast'
'riiklik_'
'riigisisese'
'riigihanke'
'rie'
'rib'
'rg_'
'retain'
'resu'
'restrict'
'respond'
'respecting_'
'resolut'
'reserve'
'res'
'representation_'
'rene'
'religio'
'rele'
'reitingu'
'reisi_'
'reinforcing_'
'reinforced_'
'reguleeritud_'
'regret'
'registration_'
'regionaalpoliitika_'
'regionaal'
'refu'
'reflection_'
'reflected_'
'refers_'
'red'
'reconciliation_'
'recommend'
'reageerim'
'reaal'
'ravi_'
'raportööri'
'raportiga_'
'rai'
'rahvusvahelises_'
'rahvuslik'
'rahvusest_'
'rahvus'
'rahastu'
'rahastatud_'
'raamistiku'
'raamatukogu'
'raadi'
'rWÿÿÿÿÿÿÿÿÿÿÿÿÿÿÿÿÿÿÿÿÈà'
'quantitative_'
'quant'
'püügi_'
'pöörama_'
'põhit'
'põhimõtetega_'
'pääs'
'pädevusse_'
'pädevus_'
'pädevus'
'pädeva'
'puudust_'
'puudusi_'
'pursuing_'
'punktide_'
'punktid_'
'puhta'
'pte'
'provinc'
'provider_'
'proved_'
'prove_'
'protse'
'proportion_'
'proof_'
'projektidest_'
'projektidele_'
'projektide'
'prognoositav'
'prof'
'producing_'
'proceed_'
'probleemile_'
'probleemidele_'
'princ'
'preventive_'
'preserve_'
'present'
'praktilisi_'
'praktika_'
'post32'
'positiivseid_'
'ports_'
'port'
'pooldan_'
'poo'
'poliitikale_'
'played_'
'planeerimise_'
'planeerimis'
'pisut_'
'pinnase'
'pingutus'
'pikendada_'
'pikaajaliste_'
'piiriülest_'
'piiriüleseid_'
'pic'
'phpc'
'php4'
'photos_'
'phones_'
'petition'
'perspe'
'perfect_'
'penalties_'
'peetavate'
'ped_'
'ped'
'peasekretär_'
'peamis'
'peal_'
'peadirektoraadi_'
'partner'
'partially_'
'partei_'
'parlamentaarse_'
'parlamendil_'
'park'
'paremal'
'parane'
'parame'
'panust_'
'paneb_'
'pand'
'pakkuja'
'pakkudes_'
'paistab_'
'packages_'
'ositsiooni'
'osade_'
'orp'
'originat'
'orient'
'organise'
'organisatsioonidega_'
'ordinat'
'ord_'
'optimal_'
'opositsiooni_'
'operatsiooni_'
'oone'
'oodata'
'onw'
'ont'
'onna'
'ondi'
'ond_'
'omitee_'
'ometi_'
'olulisemaid_'
'olu'
'oloogia'
'olin'
'olii'
'olgu_'
'olemasolevat'
'oku'
'oj'
'ohvrite'
'ohutust_'
'odu'
'obi'
'nö'
'nõustus'
'nõustum'
'nõustuda_'
'nõudnud_'
'nõudmisi_'
'nõuande'
'nõuame_'
'nälja'
'näited_'
'näid'
'näi'
'nuse'
'ntr'
'nor'
'nominat'
'ning'
'nime'
'nim'
'nevertheless_'
'nema'
'nell'
'negotiated_'
'ndme'
'ndit'
'naturally_'
'nalis'
'naistel_'
'naiste'
'naabrite'
'müüja'
'möödu'
'mõõdet'
'mõõd'
'mõtlema_'
'mõlemad_'
'mõjutatud_'
'mõjude_'
'mõistet'
'mõiste'
'mõ'
'määruste_'
'määruses_'
'määratlus'
'määratlemise'
'määrab_'
'märgata'
'mälestus'
'muutusi_'
'muutuse'
'muutuma'
'muutmine_'
'muutma_'
'muutes_'
'muudet'
'muudatuse'
'multilingual'
'movements_'
'motivat'
'moti'
'mootor'
'mix_'
'mittes'
'mittediskrimineeri'
'mitmek'
'missions_'
'misk'
'minute_'
'ming'
'millist_'
'millise_'
'miljonil'
'mili'
'migrant_'
'metr'
'meti'
'merem'
'mente'
'menetlust_'
'memorandumi'
'mehhanismi'
'mehed_'
'mega'
'meetodite_'
'meetmetele_'
'meetmete'
'meeskonna'
'mees_'
'mediat'
'meant_'
'mea'
'mbu'
'mba'
'matel'
'margin_'
'mans_'
'mandri'
'managing_'
'maksus'
'maksup'
'maksimaalne_'
'makromajandus'
'majanduslikke_'
'majandamis'
'maad_'
'lünk'
'lükat'
'lühikese_'
'lühiajalis'
'lühi'
'löö'
'lõppk'
'lõpp_'
'lõpeta'
'lõp'
'lõig'
'lõhe_'
'lähtuvalt_'
'lähtudes_'
'lähi'
'lähet'
'lähenemise_'
'lähenda'
'läbiviimis'
'lva'
'luues_'
'luu'
'luk'
'lubat'
'lubamatu'
'lubaduse'
'losing_'
'loomisele_'
'loogi'
'looduska'
'loodame_'
'loc'
'lli_'
'ller'
'lle_'
'lived_'
'lition_'
'lip'
'lil'
'likuks_'
'liku'
'like'
'lik'
'liikuvus'
'liikmesriigile_'
'licence_'
'liability_'
'leviku_'
'leva'
'lepingus_'
'lennut'
'leni'
'leitud_'
'leidu'
'leidmise'
'leader_'
'lea'
'ldu'
'laying_'
'lava'
'lav'
'lause'
'lation_'
'lati'
'lastest_'
'largely_'
'langenud_'
'lairiba'
'laiem'
'lahendust_'
'lahenduse'
'lahendamisel'
'lahendamata_'
'laenude_'
'laadi'
'kõrgeima'
'kõrg'
'kõneleja_'
'kõnede_'
'käsitlevas_'
'kärp'
'käivitam'
'käitumise'
'käitum'
'käesolevas_'
'kvartali'
'kutsume_'
'kursus'
'kuritegevus'
'kuriteg'
'kuritarvita'
'kunst'
'kulge'
'ktori'
'kriminaalk'
'kriitikat_'
'korruptsiooni'
'korralik'
'korraldamise_'
'korra'
'koostamisel_'
'koosolek_'
'kooskõl'
'koolides_'
'kontrollita'
'kontrollimis'
'kontrollime'
'kontakt'
'konsultatsioonid'
'konsultatsioon'
'kommentaari'
'komisjonilt_'
'kolmele_'
'kokkuvõtte'
'kokkuhoi'
'kohustu'
'kohusta'
'kohtute'
'kohtunik'
'kohtumis'
'kohtuasja'
'kohelda'
'kohas_'
'kohandamis'
'kohalikul_'
'kohaldatavat'
'kohaldatava'
'kohaldamisala_'
'kogutud_'
'kodanikega_'
'kodanik_'
'kodakondsus'
'kn'
'klus'
'kliimap'
'kliimamuutused_'
'klassi'
'kki'
'kirjeldatakse_'
'kirjas_'
'kinnitavad_'
'kinnitatud_'
'kindlustus_'
'kindlustatus'
'kindluse'
'killed_'
'kiiruse'
'kiidetud_'
'kii'
'keste'
'kehtivat'
'kehtestati_'
'kehtestanud_'
'kehtestamist_'
'kavandamise'
'kauplemis'
'kaupleja'
'kaugele_'
'kasutuselevõtmise'
'kasutatavate_'
'kasuliku'
'kart'
'karistam'
'karda'
'kanna'
'kaitsmise_'
'kaitsmis'
'kaitsepoliitika_'
'kait'
'kahjusta'
'kahele_'
'kahek'
'kaebuse_'
'kaasotsustamismenetlus'
'kaasnevad_'
'kaasneva'
'kaasamine_'
'kaasam'
'kaaluma_'
'jõut'
'jõustumise'
'jõudude_'
'jõudu_'
'järgu'
'järgmise'
'järgimi'
'järeldus'
'jäi'
'jun'
'juhtumite'
'juhti'
'juhita'
'judge_'
'jud'
'jon'
'jasta'
'jaotuse'
'jam'
'jagu_'
'jagamis'
'jaam'
'itt'
'ites'
'itele_'
'isu'
'istus'
'istungi_'
'iso'
'ism'
'irregularities_'
'irregular_'
'irja'
'iri'
'investeering'
'investeerimisk'
'interventions_'
'intensive_'
'intensif'
'intends_'
'intelligentse'
'intelligent_'
'integrate_'
'integr'
'insta'
'innovaatilis'
'inl'
'injur'
'inistri'
'inhabitants_'
'ingut'
'infrastruktuur_'
'infoühiskonna_'
'indications_'
'incom'
'imise'
'imine_'
'imate'
'iline_'
'ikud_'
'iiri'
'igak'
'ification_'
'idel_'
'ideede_'
'idea'
'ible_'
'iat'
'iaa'
'hüv'
'hõlmavat'
'häälteenamusega_'
'häälteenamus'
'hääletusel_'
'hääletus'
'hävi'
'hull'
'hulgast_'
'htmlc8'
'htmla5'
'html97'
'html44'
'html4'
'html0a'
'hly_'
'hio'
'hinnan'
'hiljutise'
'hiljuti'
'hiline'
'hes_'
'hendite_'
'hen'
'hem'
'helped_'
'heit'
'heav'
'hat'
'harmon'
'hariduss'
'hanke'
'halduse_'
'haldus_'
'hakkame_'
'hak'
'habit'
'haara'
'guid'
'grati'
'grateful_'
'gram'
'gradual_'
'gp'
'govern'
'gos'
'globaalse_'
'gle'
'gia'
'ght'
'ghe'
'geographical_'
'generate'
'gema'
'gaps_'
'gained_'
'fulfilment_'
'frequent_'
'fraktsioonis'
'fragment'
'foto'
'formaa'
'fondi'
'floor_'
'floods_'
'flo'
'fla'
'fishermen_'
'finantsturgude_'
'finantst'
'finantss'
'finantsk'
'finantsasutus'
'file_'
'ffd'
'ff8'
'fen'
'fce'
'fatal'
'fat'
'farms_'
'farmer_'
'fan_'
'fair'
'facts_'
'face'
'f82'
'f7c'
'f72'
'f64'
'f55'
'f3c'
'f20'
'f1f'
'f10'
'f0e'
'extraordinary_'
'extending_'
'exposure_'
'explore_'
'expensive_'
'exi'
'executive_'
'excluded_'
'exchanges_'
'exa'
'evõ'
'euros_'
'eurooplastest_'
'eurooplas'
'etus'
'etu'
'ettevõtja'
'ettepanekutega_'
'ettenä'
'etl'
'etapi'
'esmas'
'esitle'
'esitasid_'
'esinevad_'
'esindavad_'
'esialgse_'
'esca'
'erinevused_'
'erimine_'
'erime'
'erb'
'erakorralis'
'enuste_'
'enterprise_'
'eng_'
'energiak'
'endus'
'enc'
'emphasis'
'emaks_'
'elupai'
'elule_'
'elling_'
'elatus'
'ektoris_'
'ektor_'
'eile_'
'ef9'
'eerimis'
'eeldatava'
'edusammude_'
'edendamisel'
'edendades_'
'edenda'
'edastada_'
'edasine_'
'ed9'
'ed8'
'ed6'
'ecosystem'
'ece'
'ebc'
'ebaõnnestu'
'ebat'
'ebainimlik'
'eae'
'ea7'
'ea5'
'ea2'
'e9a'
'e97'
'e8a'
'e89'
'e86'
'e71'
'e61'
'e5e'
'e55'
'e53'
'e4c'
'e45'
'e44'
'e3e'
'e35'
'e32'
'e23'
'e16'
'e15'
'e0b'
'dünaamilis'
'duration_'
'dun'
'dub_'
'drive_'
'drafted_'
'dokumente_'
'dokument_'
'doktor'
'dn'
'divers'
'distort'
'diskrimineerimise'
'direktori'
'din'
'dif'
'die'
'df4'
'determin'
'destroyed_'
'destination_'
'described_'
'describ'
'deposit'
'demokraatlike_'
'demokraati'
'demand'
'delegatsioon_'
'delayed4'
'degr'
'definitive_'
'deeply_'
'declare_'
'declarations_'
'decid'
'de4'
'de2'
'ddd'
'dbc'
'db2'
'date'
'das'
'dan'
'dal_'
'dae'
'da9'
'd99'
'd9'
'd8b'
'd81'
'd80'
'd6e'
'd62'
'd4b'
'd47'
'd2f'
'd11'
'cycl'
'cy'
'cuts_'
'cure_'
'ctioning_'
'cross'
'credibility_'
'corresponding_'
'correct'
'coordinat'
'contributes_'
'consult_'
'congestion_'
'confronted_'
'complying_'
'complicated_'
'comple'
'compete_'
'comparable_'
'combin'
'collected_'
'colla'
'clear'
'clean'
'classifi'
'cke'
'circle'
'chemical_'
'charged_'
'character_'
'cf3'
'ce6'
'cdf'
'cdb'
'carr'
'calculat'
'caa'
'c98'
'c97'
'c93'
'c87'
'c72'
'c71'
'c59'
'c57'
'c53'
'c47'
'c45'
'c38'
'c2d'
'c2c'
'c1f'
'c1c'
'c18'
'c06'
'c04'
'bürokraatia_'
'by'
'bs'
'break_'
'bold_'
'boat_'
'block'
'blish'
'biolo'
'bioga'
'bili'
'bf7'
'bema'
'bec'
'be8'
'bc3'
'bc'
'bbd'
'bb6'
'batt'
'bak'
'ba1'
'b9d'
'b87'
'b82'
'b74'
'b63'
'b59'
'b4c'
'b4a'
'b42'
'b39'
'b2f'
'b2a'
'b1d'
'b06'
'b04'
'avus'
'avaldavad_'
'avaldanud_'
'avaldam'
'avalda'
'automatic_'
'authorised_'
'aus'
'attended_'
'atsiooni'
'atilis'
'astuma_'
'asjaoma'
'asjaolule_'
'asjakohast_'
'asjakohaseid_'
'asjakohase_'
'ash_'
'aset'
'aseminister_'
'arvul'
'arvamuste'
'arvamusel_'
'arvamused_'
'aruannet_'
'army_'
'armed_'
'arising_'
'arin'
'argu'
'arendustegevus'
'arendamine_'
'appear'
'api'
'anticipate'
'annet'
'analüüsida_'
'amp'
'ammu'
'ambi'
'alustam'
'aluspõhimõt'
'alternatives_'
'alternatiivse'
'alter'
'allikatest_'
'allapoole_'
'alla'
'alkoholi_'
'algus_'
'algatuste'
'alda'
'alaseid_'
'alas'
'aku'
'ajavahemikuks_'
'ajandus'
'ago'
'aging_'
'agi'
'afi'
'afc'
'aeglase'
'advantages_'
'adest_'
'adds'
'addi'
'adc'
'ad9'
'ad7'
'ad5'
'ad3'
'ac9'
'abstain'
'abiva'
'abikaasa'
'aastase'
'aars'
'aa1'
'a9b'
'a83'
'a80'
'a76'
'a3d'
'a2b'
'a2a'
'a15'
'a0a'
'a06'
'a02'
'a00'
'] : _'
'\u\u'
'Yet_'
'Ya'
'XI'
'Wor'
'Win'
'Whe'
'Wh'
'Wat'
'War'
'Vb'
'Vald'
'UNI'
'UC'
'Tõhus'
'Tä'
'Tu'
'Tru'
'Tribunal_'
'Towering_'
'Tourism_'
'Ton'
'Toesta_'
'Tn'
'Teise_'
'Teg'
'Teat'
'TV'
'TP_'
'TFEU_'
'Syria_'
'Swiss_'
'Sw'
'Sul'
'Stud'
'Strasbourgi'
'Str'
'Statisti'
'Sri_'
'Spring_'
'Small_'
'Sm'
'Sky_'
'Sit'
'Sin'
'Sim'
'Sha'
'Sec'
'Samamoodi_'
'SA_'
'Rü'
'Riik'
'Review_'
'Rein'
'Ref'
'Red'
'Raudtee'
'Ras'
'Rail_'
'Rahvapartei_'
'Rah'
'Rad'
'Raam'
'RU'
'ROM'
'RES'
'Quality_'
'Provi'
'Pr'
'Potočnik_'
'Piiri'
'Perhaps_'
'Partner_'
'Pariisi_'
'Pari'
'Pakistani_'
'PS'
'PP'
'PH'
'Otherwise_'
'Organi'
'Or_'
'OS'
'Nov'
'Northern_'
'Neve'
'Network_'
'Nende'
'Nan'
'NI_'
'NGOs_'
'Mä'
'Morocco_'
'Monitoring_'
'Mitte_'
'Mit'
'Mis'
'Ministerial_'
'Mik'
'Merc'
'Meed'
'Making_'
'Main_'
'Madalmaad_'
'MIT'
'MAT'
'Lühi'
'Luc'
'Lisateavet_'
'Liidule_'
'Liberties_'
'Lebanon_'
'Lai'
'La_'
'LT'
'LS'
'LM'
'Kõrge_'
'Kä'
'Kv'
'Kur'
'Kr'
'Koostöö'
'Kokkuvõtteks_'
'Kn'
'Kinnituspilt_'
'Kh'
'Kan'
'Jul'
'Juhataja_'
'Jou'
'Jose'
'Jordan_'
'Joa'
'Jee'
'Janez_'
'JH'
'Isegi_'
'Iraqi'
'Iraagi_'
'Internetis_'
'Intell'
'Ing'
'Info'
'Improving_'
'Hübner_'
'Hos'
'Hon'
'Hil'
'Higher_'
'Has'
'Haridus'
'Hamas_'
'Hab'
'Gui'
'Gruusia'
'GS'
'GMTâ'
'GMTP'
'GMTO'
'GMTM'
'GMTC'
'GMTA'
'GMT9'
'GMT2'
'Future_'
'Friday_'
'Fri'
'Freedom_'
'Frattini_'
'Force'
'Fondi_'
'Flo'
'Fischer_'
'Fight'
'External_'
'Error_'
'End'
'Ele'
'EUS'
'EURES_'
'EH'
'ECO'
'Dri'
'Dr'
'Dialogue_'
'Det'
'Demo'
'DS'
'DK'
'DIN'
'Cÿÿÿÿ_'
'Cro'
'Creati'
'Constitutional_'
'Cons'
'Compl'
'Clearly_'
'Citizenship_'
'Cel'
'Cast'
'Cana'
'Cal'
'COKtext_'
'CIA'
'CFP_'
'Building_'
'Borg_'
'Bir'
'Bes'
'Belgian_'
'Barcelona_'
'Bara'
'BOR'
'Authori'
'Austr'
'Audiovisua'
'Audi'
'Ass'
'Arm'
'Ari'
'Albert'
'Afganistani_'
'Addi'
'Actions_'
'Abi'
'AT_'
'AP'
'AKV_'
'AH'
'AF'
'ADD_'
'AB'
'>'
'9cf'
'9cb'
'9c2'
'9c0'
'9c'
'9bd'
'9bc'
'9b5'
'9a5'
'99a'
'983'
'97c'
'970'
'950'
'95'
'94b'
'93b'
'936'
'92f'
'92d'
'92b'
'92a'
'910'
'90f'
'90d'
'90c'
'8e9'
'8e5'
'8de'
'8dd'
'8d8'
'8d1'
'8cc'
'8c7'
'8b9'
'8b3'
'8a5'
'89f'
'895'
'888'
'85a'
'84e'
'84c'
'84b'
'846'
'83f'
'82a'
'821'
'80d'
'7ff'
'7f3'
'7f2'
'7f1'
'7d5'
'7c4'
'7c0'
'7b9'
'79d'
'78e'
'77f'
'758'
'745'
'742'
'72e'
'725'
'722'
'71e'
'6h'
'6fa'
'6f4'
'6f1'
'6da'
'6c'
'6bc'
'6b6'
'69b'
'67c'
'672_'
'652'
'63e'
'612_'
'5fa'
'5f9'
'5f8'
'5f0'
'5e8'
'5da'
'5d4'
'5b6'
'5b0'
'5a3'
'5a0'
'5Z'
'59f'
'59c'
'58a'
'571_'
'569_'
'553'
'549_'
'548_'
'542'
'53a'
'535_'
'52c'
'50f'
'50b'
'502_'
'500'
'4ff'
'4fb'
'4e2'
'4d2'
'4cb'
'4c3'
'4b7'
'4ae'
'4G'
'4E'
'493'
'483'
'479'
'473_'
'461_'
'45d'
'43b'
'419_'
'417_'
'413_'
'408_'
'3f9'
'3dd'
'3c5'
'3c4'
'3bd'
'3b3'
'39d'
'39c'
'390'
'37d'
'3507'
'31d'
'31c'
'31a'
'30d'
'2f_'
'2f4'
'2ed'
'2e7'
'2e1'
'2d3'
'2d1'
'2c4'
'2bf'
'2965'
'28c'
'27e'
'27'
'25f'
'25d'
'241'
'23d'
'23c'
'238'
'232_'
'22f'
'228_'
'225'
'222_'
'21st_'
'205'
'1e3'
'1da'
'1b7'
'1b'
'1a2'
'199_'
'1960'
'193_'
'190_'
'1860'
'18'
'17c'
'164_'
'15b'
'155_'
'12'
'116_'
'114_'
'111_'
'0www_'
'0e6'
'0d2'
'0b7'
'0ae'
'0ac'
'0a1'
'06f'
'06c'
'05a'
'059_'
'059'
'055'
'044'
'01c'
'01T23_'
'00e'
'006'
'00'
'/ '
'. .'
'-]'
',\u_'
'),_'
'", "_'
'") _'
'" ` _'
' ×'
' £+ _'
' `'
' ^ _'
' >'
' .... '
' - (_'
' ()'
' ( '
'”,'
'ےےےےTue_'
'ية_'
'ت_'
'الأ'
'ž'
'ši'
'še'
'Šotimaa'
'ş'
'Č_'
'ÿÇW'
'üt'
'üpris_'
'ümberkorraldamis'
'üllatus'
'ülioluline_'
'ülikoolide_'
'ülevõtmise'
'ülev'
'ülemko'
'ülek'
'üksuste_'
'üksteist_'
'üksikute_'
'üksikasjalik'
'üksikasj'
'üksik'
'ühtlustamise'
'ühm'
'ühisraha'
'ühiskonna'
'ühiskondliku'
'ühisa'
'ühinemis'
'ühineda_'
'ûÇW'
'öötaja'
'ööd_'
'õppimise'
'õppetun'
'õigusloome_'
'õigusko'
'õig'
'õiduki'
'õi'
'õhu_'
'õhk'
'óÜ'
'óÇW'
'òå'
'ñî'
'îð'
'íß_'
'íß'
'íÞÏã_'
'íÏ'
'ëÇW'
'èÿ'
'æÔ'
'æÌ'
'æÇáã'
'æÅ'
'åñê'
'åã_'
'äärtust'
'äÞÇ'
'äÌ'
'äÊÏì_'
'äÉ_'
'äÇÕ'
'ärgi'
'ärge'
'ärata'
'ähvardus'
'äht'
'äe'
'ãæÞ'
'ãæÇ'
'ããí'
'ãß'
'ãÇÑ'
'ão_'
'âå'
'âÇW'
'áãÔÑÝß_'
'áÞ'
'áÊ'
'ßæÑ'
'ÞÊ'
'Ýß'
'ÜöÑ'
'ÜÜÜÜ'
'ÜÇW'
'Üld'
'Ühtekuuluvus'
'Ühendus'
'Ühendriikidega_'
'ÚÒ'
'ÚÂá'
'ØÇÑ_'
'ÖÇÁ_'
'Õá'
'ÕÜ'
'ÕÏ'
'ÔÇÑ'
'Ô7_'
'Òæ'
'Ñæ_'
'Ñå_'
'Ñä'
'ÑÓÇÆá_'
'ÑÏ'
'ÑÇÆÚ'
'ÐÇ_'
'Îí'
'ÍáÞÉ_'
'ÍÉ_'
'Ìá_'
'ÊÚÑ'
'ÊÍÏí'
'ÊÈ'
'ÈÇÑ'
'ÈÅ'
'ÈWÿÿÿÿÿÿÿÿÿÿÿÿÿÿÿÿÿÿÿÿÈp_'
'ÈWÿÿÿÿÿÿÿÿÿÿÿÿÿÿÿÿÿÿÿÿÈ0_'
'ÇäÊ'
'Çáì_'
'ÇáãíßÇäíßíÉ_'
'ÇáãÓÊ'
'ÇáãÍã'
'ÇáßÑíã_'
'ÇáÞÑÂä_'
'ÇáÛÇÈÑÉ_'
'ÇáÔÑ'
'ÇáÓí'
'ÇáÓá'
'ÇáÑÇ'
'ÇáÍáÞÇÊ_'
'ÇáËÇäíÉ_'
'ÇÚáÇä'
'ÇÚ_'
'ÇÉ_'
'ÇÈæ'
'Åä_'
'Åä'
'Ãæ'
'ÃäËì_'
'ÃÏ'
'Âá'
'ÂÊ_'
'ÂÇW'
'¾ÇW'
'¸'
'®'
'¡'
'zes_'
'zation_'
'zan'
'yÈW'
'yu'
'yst'
'yle_'
'yer_'
'yan_'
'xim'
'wt'
'write_'
'write'
'worthy_'
'wood_'
'wl'
'wit'
'wh'
'wear'
'waste'
'warn'
'warming_'
'war'
'wan_'
'wan'
'wa_'
'võtmise_'
'võtmine_'
'võrrelda_'
'võla_'
'võimud_'
'võimaliku'
'võim'
'võid'
'võetava'
'võeta_'
'võ'
'väärtust'
'väärtpaberi'
'väärik'
'välti'
'väljendasid_'
'väljatöötamisel_'
'väljatöötamise_'
'väljatöötamise'
'väljakujun'
'välisministeeriumi_'
'väl'
'vägivald_'
'vood'
'von_'
'vm'
'vl'
'vit'
'visibility_'
'visi'
'vim'
'viivitamatult_'
'viitas'
'viisade_'
'viimast_'
'viimases'
'viimased_'
'viimaks_'
'vigu_'
'vigilan'
'view'
'vict'
'viability_'
'vett_'
'vete'
'vet'
'vesiviljelus'
'verd'
'veeta'
'vastuvõetav_'
'vastuseisu_'
'vary_'
'varjupaigataotlejate_'
'variraportöör'
'vam'
'valitsustevahelis'
'valitsust_'
'valitseva'
'valitsemissektori_'
'valitsemis'
'valimiste'
'vaimu'
'vahendaja'
'vaeva'
'vaese'
'vabatahtliku'
'vabatahtlik_'
'vabastamise'
'vaatle'
'vaade'
'uus'
'uuringuid_'
'uurimus'
'uurimine_'
'uuendustegevus'
'uuendus'
'utt'
'utat'
'usub_'
'ury_'
'uru'
'urt'
'unlock'
'unequ'
'unders'
'underline_'
'unce'
'umm'
'ulu'
'ulen'
'ulatuse'
'ulatus'
'ulatu'
'ular_'
'ujund'
'uhti'
'u105'
'tÿÿÿÿWed_'
'töötavate_'
'töötaja_'
'tööstuses_'
'töörühma'
'tööe'
'tö'
'tõsisem'
'tõsise_'
'tõlgenda'
'tõlg'
'tõhustamise'
'tõhusama_'
'tõhusa'
'täpse'
'täp'
'tänase_'
'täitmisele_'
'täiskogus_'
'tähtsa'
'tähtaeg'
'tä'
'typical'
'tuv'
'tute'
'turvalisusel'
'turvalisus_'
'turult_'
'turn'
'ture'
'tunnustust_'
'tunnustam'
'tunni'
'tunnevad_'
'tunnel_'
'tungi'
'tulevas'
'tulenevate_'
'tulemust'
'tulemuse'
'tubakas'
'ttu'
'tte_'
'tsioon_'
'tses'
'truth_'
'tru'
'transpos'
'transported_'
'transformation_'
'traditsiooniliste'
'tourist'
'totalita'
'topics_'
'tootmisv'
'tootmisel'
'toomise'
'toit_'
'toetat'
'tliku'
'tlike_'
'tlan'
'tko'
'tingimusel_'
'tight'
'tifi'
'tid_'
'tical_'
'threaten'
'theore'
'tevõt'
'terviku_'
'tervi'
'telecommunications_'
'tekib_'
'teis'
'tehnoloogiat_'
'tehnilisi_'
'tehnilised_'
'tehnilise'
'tehas'
'tegutsemise_'
'tegutseb_'
'tegude'
'tegevuskava'
'tegevused_'
'tegelikkuses_'
'tegelikkuse'
'teg'
'teenistuse_'
'teenistus'
'teede_'
'teavitami'
'teatavates'
'teadusuuringute'
'teadustegevus'
'teadm'
'teacher_'
'teabevahetuse_'
'tb'
'tavali'
'tausta'
'tasus'
'tasku'
'tasanditel_'
'tariff_'
'tarbijat'
'taotlem'
'tangible_'
'tand'
'tali'
'taime'
'tagasis'
'tagasihoidlik'
'tac'
'tabeli'
'taastamis'
't15'
'süüdi'
'süva'
'süsteemile_'
'sünni'
'sündmuste_'
'sõnul_'
'sõnavõtja'
'sõltumatuse_'
'säästvat'
'sätete'
'systematic'
'swe'
'suutma'
'suutlikkus'
'suurimat'
'suurenemise'
'suurene'
'suurendavad_'
'suurendamise'
'suurel_'
'suund'
'susta'
'survival_'
'surf'
'suppliers_'
'sulle_'
'sulge'
'suitsetamis'
'suicide_'
'suhtum'
'sugugi_'
'substantia'
'subsidies_'
'subsi'
'stud'
'struktuurifondid'
'struggle_'
'stru'
'stro'
'stricter_'
'stream_'
'strateegiad_'
'strat'
'stra'
'stopped_'
'stipendium'
'stic_'
'ster'
'stel'
'steeri'
'stee'
'statistilis'
'stations_'
'standardeid_'
'stages_'
'stabiliseerimis_'
'stabilise_'
'stabiilse'
'staatuse_'
'spite_'
'spektri'
'specialis'
'spec'
'sort'
'soovituse'
'soovitatakse_'
'smu'
'smaller_'
'skan'
'sisul'
'sisseränne_'
'sip'
'simplify_'
'sik'
'sidumi'
'sideme'
'shipping_'
'shee'
'shape_'
'shame'
'sev'
'serve'
'septembri_'
'seost'
'senior_'
'seni'
'sellistele_'
'sell'
'selgitus'
'selgema'
'seksuaal'
'sekretariaa'
'sekkumise'
'seitsme_'
'seisvate'
'sein'
'segadus'
'seg'
'securi'
'sections_'
'second'
'season'
'sealt_'
'seal'
'seaduslikult_'
'seaduslikku'
'seade'
'script'
'scarc'
'sattunud_'
'satisfaction_'
'sas'
'sarnast'
'sanktsioone_'
'samas'
'sale_'
'sake_'
'sak'
'sail'
'safeguarding_'
'sadu_'
'sab'
'saavutuse'
'saavutat'
'saavutam'
'saade'
'saadaval_'
'saada'
'saabuva'
'ründa'
'rü'
'rõhutan'
'rääkimist'
'räägivad_'
'räägit'
'ränne_'
'rändlusteenus'
'rändevoo'
'rä'
'ruk'
'rts'
'row_'
'rou'
'ror'
'rogrammi'
'roadmap_'
'ro_'
'river_'
'rium_'
'riske_'
'rikkumiste_'
'rikkumise'
'riiklikel'
'riigiminister_'
'rica'
'rga'
'režiimi_'
'reward'
'revi'
'revenue_'
'retire'
'retail_'
'resolutions_'
'reservi'
'reserv'
'rese'
'requiring_'
'replaced_'
'reo'
'rent_'
'render'
'remuneration_'
'rely_'
'relvastatud_'
'relvade_'
'rejected_'
'reimbursement_'
'rehabilitat'
'regulatiivse'
'registri_'
'registreerimise'
'registreerida_'
'registreer'
'regarded_'
'refus'
'refund'
'reformide'
'reflects_'
'referring_'
'reeri'
'reegl'
'reed'
'recycling_'
'recy'
'rect'
'recognises_'
'recalls_'
'recall_'
'realistic_'
'realis'
'reageeri'
'reaffirm'
'readi'
'rdi_'
'rdi'
'ray_'
'raudtee_'
'rau'
'ratifitseerimis'
'ratified_'
'raportöörile_'
'raportööre_'
'raportile_'
'rangemad_'
'ranged_'
'range'
'rakendusa'
'rakendatud_'
'rakendamisest_'
'rajada_'
'rahvusvaheliste'
'rahvatervis'
'rahupr'
'rahastatakse_'
'rahas'
'rahaliidu_'
'rag'
'raf'
'rada'
'race_'
'raamotsus'
'rWÿÿÿÿÿÿÿÿÿÿÿÿÿÿÿÿÿÿÿÿÈÀ'
'rW'
'quick_'
'quantities_'
'püüdlem'
'püüda_'
'püü'
'pühendatud_'
'pööratakse_'
'pööram'
'põllume'
'põllumajanduspoliitika'
'põllumajanduslik'
'põllumajandusk'
'põllumajandus'
'põhjuste'
'põhjustanud_'
'põhja_'
'põhiseaduse'
'põhis'
'põhineva'
'põhinev_'
'põhimõtete'
'pärandi_'
'pära'
'päevak'
'päevade'
'pädevuse'
'pädevad_'
'puudus'
'pursued_'
'pursu'
'purchasing_'
'punish'
'pui'
'puhke'
'puh'
'publication_'
'pse'
'prügi'
'pru'
'protokolli'
'proto'
'prosecut'
'promoted_'
'promise_'
'progressive'
'prognoosid'
'professor_'
'profess'
'produc'
'proc'
'prioriteetide'
'prim'
'pressi'
'press'
'preserv'
'prefer_'
'prants'
'praktilise'
'potentsiaal'
'posti_'
'portaali'
'poolse_'
'poolest_'
'poolaasta_'
'politsei_'
'poliitilises_'
'poliitikate_'
'point'
'plus_'
'plan'
'piracy_'
'pilgu'
'pike'
'pikaajalist_'
'piisavat'
'pidi_'
'pidamiste'
'php0'
'pest'
'pert'
'personally_'
'permanently_'
'perekonna_'
'percent_'
'pensionide_'
'pehme'
'peatam'
'peamist_'
'pead_'
'peaceful_'
'patient_'
'patendik'
'passports_'
'partnerluslepingu'
'partic'
'partial_'
'parlamenti_'
'parlamendis'
'parlamendiliikmeid_'
'parimad_'
'paremad_'
'paranduse'
'parandama_'
'parandab_'
'pankade'
'pakkus'
'paketti_'
'paindlikkust_'
'paindlik'
'pages_'
'paberi'
'pI'
'ownership_'
'owners_'
'own'
'ously_'
'otsustavad_'
'otsest_'
'otses'
'oskuste'
'oskused_'
'osalejad_'
'osaleb_'
'osad_'
'organising_'
'orga'
'orbi'
'opt_'
'oppose_'
'opp'
'opo'
'operator_'
'oote'
'oonid'
'oom'
'ool'
'oog'
'onto'
'omisjoni'
'omavalitsuste_'
'omavalitsus'
'omavaheli'
'omaniku'
'oman'
'omaduste'
'omadus'
'olukorrale_'
'oliitikat_'
'olid'
'olevaid_'
'ois'
'ohvri'
'ohutuse'
'ohustus'
'ohusta'
'offs'
'ody_'
'odo'
'odavama'
'od'
'ocat'
'nõustamis'
'nõusoleku'
'nõudmi'
'nõudma_'
'nõrkus'
'näitam'
'näht'
'nägema'
'näg'
'nädala_'
'nv'
'nutrition_'
'nuk'
'ntion'
'ntin'
'nsW'
'notifications_'
'normide'
'nip'
'niisuguse'
'niinimetatud_'
'nide_'
'nh'
'nge'
'newly_'
'neur'
'net'
'ners_'
'neri'
'nende'
'neljanda'
'negatiivne_'
'ned'
'necessity_'
'nduse'
'ndo'
'ndatud_'
'ndamise_'
'nationality_'
'nas'
'nam'
'mõn'
'mõjusus'
'mõjust_'
'mõjusa'
'mó¼'
'móe'
'määruse'
'määratletud_'
'määratle'
'märkusi_'
'märka'
'mäleta'
'muutus'
'muutmiseks_'
'muusika_'
'muude'
'muste_'
'mure_'
'murd'
'multiannual_'
'muid'
'mpt'
'motor_'
'mostly_'
'morato'
'mootori'
'moodustas'
'mon_'
'mobilised_'
'mo_'
'mne'
'mn'
'mme_'
'mli'
'mittek'
'mitme'
'mistakes_'
'mist'
'missugu'
'missiooni_'
'missiooni'
'ministri_'
'ministr'
'ministeerium_'
'miljardi'
'miku'
'meretranspordi'
'menetlusi_'
'menetluses_'
'meetodeid_'
'meeri'
'meenuta'
'meelse'
'medicine_'
'mediation_'
'media'
'meantime_'
'mble'
'may'
'matud_'
'matern'
'mass'
'marks_'
'margins_'
'manu'
'manager'
'mam'
'male_'
'mal_'
'maksa'
'maks'
'majutus'
'majanduslikus'
'mahajä'
'magn'
'maapiirkondades_'
'maapiirkondade_'
'maal'
'lühikese'
'lühike'
'lõppt'
'lõpliku'
'lõige_'
'lähim'
'lähenemine_'
'lähed'
'läbilaskevõime'
'lul'
'luge'
'lug'
'lubas'
'lou'
'loov'
'loomi'
'loodusvara'
'lood'
'loobuda_'
'logistic'
'load'
'lki'
'liste'
'lisav'
'lisand'
'linnali'
'linnades_'
'likvi'
'liitunud_'
'liiti'
'liikmesriigiti_'
'liikmena_'
'ligi'
'lig'
'lifting_'
'liberalis'
'lib'
'lia_'
'levitamis'
'levinu'
'ler_'
'leppi'
'lennu_'
'leiate_'
'leht_'
'lega'
'lds_'
'lays_'
'launches_'
'lat'
'lastel_'
'lasta'
'larger_'
'landscape_'
'landi'
'land'
'laienemis'
'lahingu'
'lahendatud_'
'lace'
'küt'
'küsimuse'
'kümnest_'
'kümnend'
'külge_'
'külg'
'kõrgetasemelise_'
'kõnelus'
'kõikidest_'
'kõikidel_'
'kõigi'
'kõige'
'käsitlevates'
'käsit'
'käs'
'kärb'
'käivitada_'
'käivit'
'käitl'
'käesoleval_'
'käesolev'
'ky_'
'kvoot'
'kuup'
'kuuluvate_'
'kuulutad'
'kuulu_'
'kuuenda'
'kustuta'
'kuritegusid_'
'kulude'
'kultuurilise_'
'kultuuridevahelise_'
'kukku'
'kuivõrd_'
'kski'
'ksa'
'krediidi'
'korp'
'koostamise_'
'koostaja_'
'koosseisu'
'koosoleku'
'koosne'
'kooskõlastatud_'
'kooskõlastamis'
'kooskõlasta'
'konventsiooniga_'
'kontroll_'
'konsulteerimist_'
'konna'
'konkursi_'
'konkurentsivõimelise'
'konkurentsivõimel'
'konk'
'komponen'
'kommunikatsioonitehnoloogia_'
'komme'
'komisjoniga_'
'kombe'
'kolmek'
'kolmandat'
'koli'
'kokkulepete_'
'kokku'
'kohustuslik'
'kohtumist_'
'kohtlemis'
'kohandatud_'
'kohaldata'
'kogus_'
'kogumis'
'kogukondade_'
'kodumaa'
'kodanikukaitse_'
'kodaniku_'
'kodanikest_'
'knows_'
'kliimat'
'kkus'
'kiusa'
'kiriku'
'kiri_'
'kinds_'
'kiiret_'
'kide'
'kestus'
'keskused_'
'keskuse'
'keskp'
'keskkonnakaitse'
'kerki'
'kehtivus'
'kehtestamise_'
'kehtestam'
'keeldu'
'kavatsuse'
'kaugel'
'kaubandusp'
'kato'
'kate_'
'katal'
'kasvatamise'
'kasutuselevõtu_'
'kasutuselevõtmi'
'kasutatavad_'
'kasutamiseks_'
'karista'
'kaotam'
'kaota'
'kannatus'
'kannatada_'
'kampaaniat'
'kala_'
'kahepoolseid_'
'kaebus'
'kaasne'
'kaasamise_'
'jõustamis'
'jõusta'
'jõupingutustele_'
'jõulise'
'jätkusuutlikkus'
'järjekor'
'järgivad_'
'järgimise'
'järelevalves'
'järele'
'jälgimise_'
'jäetud_'
'jut'
'justiitsministeeriumi_'
'jump'
'julgeolekupoliitika_'
'juhu'
'juhtumeid_'
'juhtuda_'
'juhtide_'
'juht_'
'juhise'
'juhib_'
'juhendi'
'judge'
'journey_'
'joindate_'
'jekt'
'jd'
'jaot'
'jandus'
'jana_'
'jalg'
'iver'
'ium'
'itu'
'ison_'
'island'
'isla'
'ish_'
'isev'
'iseseisva'
'iseen'
'irju'
'io_'
'investeerimisfondide'
'investeerimine_'
'invasi'
'inv'
'intro'
'interoperability_'
'interg'
'intercultural_'
'interacti'
'intentions_'
'intensiivse'
'intellektuaalomandi_'
'integreerimise'
'instituut'
'institutsioonidel'
'institutsioon'
'install'
'insist'
'innovatsioonil'
'inimese'
'ingu_'
'infosisu_'
'infl'
'inete'
'inen'
'indlus'
'indirect'
'indicati'
'indicates_'
'inde'
'ims'
'impu'
'immigratsiooni'
'imm'
'imes'
'imag'
'ilmse'
'ilit'
'ikus'
'iko'
'ikkagi_'
'iki'
'iini_'
'iin_'
'iili'
'idet'
'ideolo'
'identiteedi_'
'ideid_'
'ication_'
'iation_'
'hääletuse'
'hääletami'
'hääl_'
'hävita'
'hus'
'hung'
'humanitaarabi'
'hulgal_'
'htmlfa'
'htmlf1'
'htmle7'
'htmle3'
'htmldelayedwww_'
'htmlbf'
'html9d'
'html8a'
'html62'
'html5d'
'html4a'
'html39'
'html26'
'html15'
'html13'
'html09a'
'html07'
'html04'
'hope'
'hooli'
'hoolekande'
'hoole'
'honest_'
'homo'
'hoiuste_'
'hist'
'hinnangul_'
'hindamist_'
'hindab_'
'hiljutise_'
'het'
'heitega_'
'heide_'
'hei'
'hee'
'heade_'
'harta'
'harmonised_'
'harm'
'hare'
'hanki'
'haldamis'
'hakkas'
'haiguse'
'haavatavate'
'gus'
'gue_'
'grew_'
'gress'
'grave_'
'gl'
'gif_'
'gest'
'geomeetria_'
'geo'
'generati'
'ged_'
'gain'
'fwww_'
'fraktsioon'
'foundation_'
'foorum_'
'fondid_'
'fon_'
'focuses_'
'flood'
'flag'
'firmade'
'fines_'
'finantssektori_'
'finantskriisi'
'finantsko'
'finantse'
'fin_'
'ffs_'
'ff6'
'ff4'
'fes'
'federal'
'fd5'
'fcc'
'fc9'
'fbe'
'fb3'
'fas'
'fami'
'false_'
'fakti_'
'faith_'
'fail'
'factor_'
'fa8'
'fa3'
'f97'
'f88'
'f7a'
'f78'
'f69'
'f5c'
'f56'
'f4c'
'f48'
'f3d'
'f3b'
'f2c'
'f24'
'f1c'
'f17b'
'f09'
'f05'
'ez'
'ey'
'exposed_'
'explanation'
'expir'
'exe'
'exchang'
'excess'
'exceeded_'
'evaluate_'
'europ'
'euroni_'
'ettevalmistami'
'ettepaneku'
'etnilis'
'eti_'
'eter'
'etapi_'
'eskirjad'
'esitavad_'
'esitamist_'
'esitami'
'esindaja'
'esindab_'
'esimeses'
'erni'
'erinevusi_'
'erinevalt_'
'erik'
'erial'
'eria'
'ergi'
'erasektoris'
'eraelu_'
'equit'
'equi'
'enu'
'entra'
'ennetada_'
'enjoy'
'enist'
'ening_'
'engine'
'eng'
'enforce_'
'energiava'
'enemi'
'ened_'
'endorse'
'endeavour'
'endaga_'
'ency_'
'enamik'
'emse'
'emphasises_'
'emotsio'
'elukoha'
'elektroonilise_'
'elektril'
'electric_'
'elanikud_'
'elamis'
'ela_'
'ekspordi'
'ekspert'
'eksperdi'
'eksp'
'eks'
'eke'
'eit'
'ehitada_'
'ego'
'egia'
'ef7'
'eetme'
'eeskirjades_'
'eeru'
'eelne_'
'eeldatavasti_'
'ee2'
'edendamis'
'edendab_'
'ede_'
'edasise'
'edasiminek_'
'ec3'
'ebavõrdsus_'
'ebam'
'ebakindla'
'ea8'
'e98'
'e94'
'e7e'
'e6d'
'e58'
'e57'
'e52'
'e4e'
'e41'
'e3f'
'e37'
'e2a'
'e26'
'e1f'
'e1c'
'e1a'
'e19'
'e14'
'e07'
'dust'
'drop_'
'dramatic_'
'dossier'
'doonor'
'doo'
'domain_'
'dokumenti_'
'dokumendi_'
'doct'
'distant'
'discriminatory_'
'discou'
'disappear'
'dili'
'dil'
'digitaalse_'
'did'
'dic'
'devote_'
'devahelis'
'deva'
'detention_'
'dete'
'demonstrat'
'delayedd'
'delayed3'
'delayed2'
'deklaratsiooni'
'defining_'
'deficiencies_'
'defe'
'deepen'
'decrease'
'decade_'
'de8'
'dd1'
'dc8'
'dc3'
'dc0'
'dbf'
'davad_'
'dade_'
'da2'
'd91'
'd8a'
'd7b'
'd72'
'd55'
'd50'
'd49'
'd3c'
'd39'
'd26'
'd1e'
'd1c'
'd1a'
'd15'
'd05'
'cultivation_'
'cted_'
'cs'
'crossings_'
'correctly_'
'cope_'
'cooperati'
'conven'
'contributor'
'contacts_'
'consolidated_'
'conservation_'
'cond'
'concludes_'
'complement_'
'complain'
'compet'
'communicate'
'commerce_'
'commend'
'comfortabl'
'collect_'
'coin'
'codecision_'
'civilians_'
'cht_'
'cher'
'checked_'
'characteristics_'
'chan'
'chair_'
'cfa'
'cent'
'cb8'
'cati'
'category_'
'care'
'c80'
'c79'
'c66'
'c60'
'c5c'
'c52'
'c44'
'c40'
'c32'
'c29'
'c14'
'c0b'
'c00'
'bürokraatiat_'
'bt'
'bse'
'bs_'
'brother'
'broke'
'breach_'
'boy'
'borrow'
'born_'
'bo_'
'black_'
'bki_'
'bk'
'biome'
'biokütuse'
'bilansi'
'bigger_'
'bid_'
'bid'
'bia_'
'bia'
'bf1'
'bf'
'bes'
'beings_'
'bdf'
'bd9'
'bc4'
'bb4'
'bai'
'ba9'
'b9e'
'b93'
'b72'
'b68'
'b50'
'b47'
'b43'
'b3_'
'awards_'
'avalikult_'
'avalikkuse_'
'avalikkus'
'avalduse_'
'avaldati_'
'avaldamis'
'avade_'
'aus_'
'aur'
'aul'
'auhind_'
'auditi'
'attracti'
'attach'
'atis'
'astme_'
'assurance_'
'assume_'
'associations_'
'assist'
'assigneeringute'
'asks_'
'asjaolus'
'asjakohaste_'
'asjakohaselt_'
'asid_'
'asepresidendi_'
'arvestada_'
'arve_'
'arutami'
'aruannete'
'artiklite'
'arti'
'arrive'
'arriv'
'arrest_'
'arma'
'aret'
'arengum'
'arenguko'
'arengueesmär'
'arendamist_'
'arendamisel'
'arbitra'
'arbi'
'aprilli'
'appro'
'appre'
'applicants_'
'antava_'
'annually_'
'announce'
'anniversary_'
'annex'
'andmekaitse'
'andes_'
'ami_'
'ametlikku_'
'ametivõimude'
'ametite_'
'ametisse_'
'ametis_'
'ametikohal'
'ame'
'aluste_'
'aluste'
'alse'
'alo'
'allikat'
'alit'
'alised_'
'align'
'algatatud_'
'ald'
'alb'
'alanud_'
'alalis'
'aktsepteerim'
'aktiv'
'aksi'
'akk'
'akadeemilise'
'ajutise_'
'ajastu'
'ajanduse'
'ajaloo_'
'aitse_'
'aitas_'
'aist'
'airport_'
'ain'
'agentuuri_'
'agents_'
'affects_'
'ae9'
'adverse_'
'adv'
'adjust'
'adf'
'actor'
'aco'
'acknowledge_'
'acceptance_'
'accelerated_'
'ac7'
'ac6'
'ac0'
'absolute_'
'abolition_'
'abistamise'
'abel_'
'ab3'
'aastatuhande_'
'aastaste'
'aalia'
'aailm'
'a97'
'a87'
'a7a'
'a75'
'a6d'
'a60'
'a55'
'a50'
'a42'
'a36'
'a32'
'a2c'
'a11'
'a09'
'a07'
'` ` _'
'][ _'
'\\ '
'ZÈW'
'Ys'
'Yh'
'YF'
'YA'
'XT'
'WooCommerce_'
'Wednesday_'
'Washington_'
'Waldner'
'WP'
'Välja'
'Vähem'
'Vii'
'Vene_'
'Vars'
'Varjupaiga'
'Vali'
'Vaja_'
'VO'
'VKEd_'
'VK'
'Uni'
'Under'
'Ug'
'USE'
'UP'
'UM'
'UI'
'Tööta'
'Tänase'
'Täiendav_'
'Turu'
'Tul'
'Tugi'
'Tuesday_'
'Tub'
'Transparency_'
'Too'
'Tol'
'Toetus'
'Tih'
'Tibetan'
'Thirdly_'
'Thi'
'Their_'
'Terrorism'
'Teisest_'
'Tehn'
'Tallinn_'
'Tah'
'TM'
'TIM'
'TC'
'TAC_'
'TAB_'
'Suurem_'
'Suurbritannia_'
'Suur'
'Suda'
'Stre'
'Strategic_'
'Strateegia'
'Stavros_'
'Stan'
'Srebrenica_'
'Sotsiaalfondi_'
'Somet'
'Somalia_'
'Som'
'Sig'
'Siberi'
'Sest_'
'Selliste_'
'Sellise_'
'Seiklus_'
'Sche'
'San_'
'SV'
'STI'
'SD'
'SAN'
'RÈW'
'Robert_'
'Riiklik'
'Rep'
'Rel'
'Rei'
'Refugee'
'Reduc'
'Reco'
'Recent'
'Radi'
'RN'
'RE_'
'Qui'
'Qu'
'Qb'
'QUE'
'Põllumajanduse_'
'Py'
'Promot'
'Programmes_'
'Prod'
'Probleem'
'Prin'
'Prevention_'
'Pressi'
'Power_'
'Power'
'Poliitili'
'Poirot_'
'Person'
'Passenger'
'Part_'
'Parlamenti_'
'Pariisis_'
'Package_'
'POL'
'OÈW'
'Osa'
'Organisatsiooni_'
'Oma'
'Olympic_'
'Obviously_'
'OV_'
'OVI'
'ORG'
'OC'
'OB'
'Nõukogu'
'Nuclear_'
'Nice_'
'New'
'Nei'
'Negotiations_'
'Nabucco_'
'NOS'
'NE_'
'NER_'
'Märk'
'Mär'
'Mundus_'
'Mov'
'Mou'
'Moni'
'Mobil'
'Mission_'
'Mind'
'Milline_'
'Mig'
'Mich'
'Mah'
'Maailma'
'Maaelu_'
'MJ'
'MEELDE_'
'MAA'
'M3'
'Ly'
'Louis_'
'Link_'
'Lie'
'Level_'
'Late'
'Lamb'
'LV'
'LLE'
'Küprose_'
'Kõnealus'
'Kõigi'
'Kõ'
'Kutsu'
'Kuni_'
'Kosov'
'Kopenhaageni_'
'Koos'
'Konverentsi'
'Kont'
'Kons'
'Komisjoni'
'Kod'
'Know'
'Kii'
'Keskus'
'Kell'
'Kariibi_'
'Kam'
'Kahe'
'Kaa'
'KS_'
'KIN'
'KA_'
'Järg'
'Jumala_'
'Juht'
'Jobs_'
'Jac'
'Jaapani'
'Ivoire_'
'Israeli_'
'Islam'
'Iraa'
'Io'
'Investeerimis'
'Institutions_'
'Institute_'
'Ins'
'Inf'
'Indonesia_'
'Implementation_'
'Immigration_'
'IX'
'ITA'
'IN_'
'IIa_'
'IC_'
'IAS'
'Humanita'
'Hom'
'Hinda'
'Hill'
'Hercule_'
'Henn'
'Heads_'
'Haa'
'HM'
'HK'
'Great'
'Gh'
'Get'
'Gen'
'GS_'
'GMTû'
'GMTt'
'GMTs'
'GMTW'
'GMTV'
'GMTS'
'GMTH'
'GMTG'
'GMTE'
'GL'
'FÈW'
'Full_'
'Fr'
'Finants'
'Ferrero_'
'Ferr'
'FT_'
'FA_'
'Ev'
'Esma'
'Ensuring_'
'Earl'
'EUROOPA_'
'EUFOR_'
'ERI'
'ENISA_'
'EMÜ_'
'EMU_'
'EE_'
'EA_'
'Dublin_'
'Disc'
'Dialo'
'Dea'
'Db'
'Davi'
'Danish_'
'Dam'
'Dalli_'
'DIS'
'DH'
'Côte_'
'Cut'
'Cost'
'Congo_'
'Company_'
'Communist_'
'College_'
'Cod'
'Co_'
'Chad_'
'Certain'
'COUNCIL_'
'COR'
'CM'
'Budgets_'
'Budgetary_'
'Bud'
'Border_'
'Bon'
'Bill'
'Belg'
'Bas'
'B6'
'Austrian_'
'Asso'
'Arutelu'
'Arktika'
'Antud_'
'Anime_'
'Andme'
'Ame'
'Alba'
'Ajavahemiku'
'Age'
'Afghan_'
'Activ'
'Aa'
'AVA'
'AND'
'AB_'
'AA_'
'?"_'
'=/_'
':: _'
'9ff'
'9f2'
'9ef'
'9eb'
'9e9'
'9d7'
'9d1'
'9b4'
'9b3'
'99d'
'99b'
'997'
'993'
'98a'
'980'
'97b'
'974'
'960'
'95e'
'943'
'93d'
'932'
'914'
'8fe'
'8ec'
'8d47'
'8c5'
'8c4'
'8bd'
'8b0'
'8ac'
'8C'
'887'
'87f'
'86f'
'84d'
'831'
'808'
'7fa'
'7f5'
'7db'
'7da'
'7cc'
'7c3'
'7b2'
'7ab'
'7a4'
'792_'
'78d'
'784'
'780'
'77a'
'773'
'770'
'76a'
'73c'
'731'
'72b'
'717_'
'70a'
'704'
'6www_'
'6e3'
'6e0'
'6d0'
'6b8'
'6b4'
'6b2'
'6b'
'6a6'
'6a4'
'6H'
'68e'
'677'
'664'
'663_'
'661_'
'648'
'632'
'626_'
'621_'
'621'
'620_'
'615_'
'60e'
'5l'
'5f3'
'5f1'
'5eb'
'5ea'
'5e9'
'5de'
'5dd'
'5d'
'5be'
'59b'
'580'
'572'
'565_'
'55f'
'552'
'54d'
'544_'
'543_'
'538_'
'538'
'531_'
'52d'
'5159'
'50a'
'4fd'
'4fc'
'4f6'
'4ef'
'4ea'
'4e9'
'4e7'
'4e6'
'4dd'
'4dc'
'4d9'
'4cf'
'4c8'
'4c4'
'4c0'
'4be'
'4bb'
'4ba'
'4b9'
'4ab'
'4A'
'49b'
'487_'
'465_'
'465'
'450_'
'43d'
'41e'
'41a'
'414_'
'40d'
'409_'
'406_'
'3fd'
'3fa'
'3f7'
'3f4'
'3f'
'3e8'
'3e6'
'3d6'
'3ce9'
'3cc'
'399_'
'394'
'38a'
'376_'
'365'
'35d'
'35b'
'35a'
'3530'
'3519'
'3514'
'34f'
'347_'
'315_'
'310_'
'310'
'30b'
'30a'
'2fe'
'2fc'
'2f5'
'2e6'
'2de'
'2d5'
'2ca'
'2c7'
'2ba'
'2b5'
'2b4'
'2a9'
'2a4'
'2Ffiles_'
'29b'
'29a'
'296_'
'281_'
'27c'
'27b'
'25e'
'251_'
'24b'
'24'
'237_'
'22a'
'226_'
'226'
'225_'
'207'
'2018_'
'2009'
'2006'
'1f8'
'1e7'
'1e'
'1cf'
'1c7'
'1bf'
'1af'
'1a9'
'1N'
'19f'
'19d'
'19b'
'1980_'
'1975'
'1962'
'1840'
'180_'
'174_'
'170_'
'17'
'165_'
'14f'
'148_'
'141_'
'13c'
'138_'
'137_'
'132_'
'115_'
'10e'
'10a'
'0s'
'0f9'
'0f0'
'0ec'
'0e5'
'0e3'
'0c8'
'0ba'
'0b8'
'0a9'
'0a3'
'09f'
'04f'
'04b'
'042'
'03c'
'031'
'011_'
'006_'
'.: +_'
'.........'
'...'
'..! _'
'.)'
', ` _'
'* '
'& ` _'
'" -'
' ✘!° _'
' ● '
' ؟ ؟'
' ÷ _'
' ¿¿'
' ´'
' ®'
' £'
' ~ '
' ][ _'
' ]:'
' ?'
' ),'
' ("_'
' $'
'ط'
'ري'
'رو'
'ث'
'ات_'
'ا_'
'ئ'
'ˆ_'
'žürii'
'Ž'
'ČI'
'þÿÿÿ'
'ýò'
'ütlevad_'
'ütlesi'
'üsteemi'
'ümberpaigutami'
'ülikooli'
'ülevaa'
'ületamis'
'ületada_'
'ülemineku_'
'üleminek_'
'üleilmsel'
'üleeuroopalist'
'üldsusele_'
'üldk'
'üldjuhul_'
'üla'
'üksus'
'üks'
'ühtsel_'
'ühtlustatud_'
'ühiskondade'
'ühises'
'ühinemiseks_'
'ühinemine_'
'ühesk'
'ühendust_'
'ühendamise_'
'ühen'
'ør'
'ööstuse'
'ööd'
'õude'
'õtt'
'õrg'
'õpingu'
'õnnestu'
'õit'
'õigustele_'
'õigust'
'õigusri'
'õigusliku'
'õiguskaitse_'
'õigeaegse'
'õhusaaste'
'õhuruumi_'
'õhuruum'
'õhku_'
'òü_'
'ðî'
'îí'
'íó'
'íá'
'íà_'
'íÞ_'
'íÜ'
'íÑ'
'ìå'
'ét'
'ææ'
'æÏÉ_'
'æÏ'
'æÍ'
'æÇáÅ'
'æÇáÃ'
'åÑ_'
'åÈ'
'åÇÊ_'
'äärmuslik'
'äärmusl'
'äärm'
'äÚ_'
'äÈ'
'äsW'
'äriv'
'ärim'
'ärg'
'äre'
'ärahoidmise'
'ãíÇ'
'ãáÊÞì_'
'ãÚÑÖ'
'ãÓÇÈÞÉ_'
'ãÎ'
'ãÍã'
'ãÇäÌÇ_'
'áÚ'
'áÏ_'
'án_'
'àë'
'Þá'
'ÞÓã_'
'ÝÖ'
'ÝÓ'
'Üã'
'ÜÜÜÜÜÜÜ'
'ÜÂ'
'Ülemkogul_'
'Ülem'
'Ühine_'
'Ühe'
'ÜS'
'ÜL'
'ÛÈ'
'ÚãÑ'
'ÚÑ'
'ÚÇáã_'
'ØÿÿÿÿMon_'
'Ø²'
'ØNot_'
'× '
'ÖÇ'
'Õæ'
'ÕÑ'
'Ôä'
'ÔßÑ'
'Óíä'
'Óã'
'ÓÉ_'
'ÓÇä'
'Òÿÿÿÿ_'
'ÒOKtext_'
'ÑÇÊ_'
'ÑÇÆ'
'ÐÇ'
'Ïã_'
'ÏÇÑÉ_'
'ÎÕ'
'ÎÊ'
'Íæ'
'ÍáÞ'
'ÍÕÑíÇ'
'ÊäÈíåå_'
'ÊÚáíã_'
'ÊÚá'
'ÊÔíÒæßæ_'
'ÊÔ'
'ÊÑÇ'
'ÊÌ'
'ÈÞ'
'ÈÚÏ'
'ÈÌ'
'ÇáíÇÈÇäíÉ_'
'Çáí'
'ÇáãóÓõæãõÓíÉ_'
'ÇáãÞÇáÇÊ_'
'ÇáãÝíÏ'
'ÇáãÚ'
'ÇáãÔÇÛÈÉ_'
'ÇáãÔ'
'ÇáãÏ'
'ÇáãÍ'
'ÇáãÌ'
'ÇááÛÉ_'
'ÇáÞÑÇ'
'ÇáÝí'
'ÇáÜÜÜÜÜÜÏæáÜÜÜÜÜÜÜÜÜÜÉ_'
'ÇáÚÑÈ'
'ÇáÖ'
'ÇáÓÇÈ'
'ÇáÑÇÈÚ_'
'ÇáÐßíÉ_'
'ÇáÏÑ'
'ÇáÍáÞÊÇä_'
'ÇáÊóÍóÏöíÇÊ_'
'ÇáÊÕ'
'ÇáÊÍ'
'ÇáÈØÇ'
'ÇÍãÏ_'
'ÇË'
'ÇWÿÿÿÿÿÿÿÿÿÿÿÿÿÿÿÿÿÿÿÿÈp'
'ÇWÿÿÿÿÿÿÿÿÿÿÿÿÿÿÿÿÿÿÿÿÈ0'
'ÅÚáÇäíÉ_'
'ÅÐ'
'ÄR'
'ÃÕ'
'ÃÈæÇÈå'
'ÁN'
'» ` _'
'¶'
'´ '
'¯ ` _'
'¨ ` _'
'¦ ` _'
'¤ ` _'
'£'
'¡ ` _'
'~~~'
'zon'
'zen'
'zC'
'ya_'
'yN'
'ws_'
'workplace'
'wn'
'wk'
'winning_'
'window_'
'wild_'
'whol'
'white_'
'wherever_'
'west'
'wel'
'wed'
'weak_'
'weak'
'wea'
'wave'
'wat'
'warnings_'
'ward_'
'wand'
'walk'
'võtate_'
'võrgustik_'
'võltsitud_'
'võitlemi'
'võimalikud_'
'võimaldami'
'võiksime_'
'võetavate_'
'võetaks_'
'väärk'
'värske'
'väljumis'
'väljendus'
'väljendu'
'väljaõppe'
'väljavaate'
'väljasta'
'väljapa'
'välispiiride_'
'välisministri'
'välismaal'
'välism'
'välisa'
'väli'
'väiksemate_'
'väiksemat'
'väiksema_'
'väikeste'
'väike'
'väidetava'
'vähk'
'vähest'
'vähenemise_'
'vähendatakse_'
'vägivalda_'
'vz'
'vor'
'volu'
'voli'
'voi'
'visitor'
'visiooni_'
'visioon'
'visible_'
'virtu'
'vilj'
'viiside'
'viimase'
'viibiva'
'vigastus'
'vigade_'
'versioon_'
'veni'
'vend'
'veendumus'
'veen'
'veebisaidil_'
'veebisai'
'veebileht_'
'veebilehel_'
'vedude_'
'vat'
'vastuvõtmisel_'
'vastuvõtmiseks_'
'vastuvõetava'
'vastuväi'
'vastutusel'
'vastupidi_'
'vastupidi'
'vastuoluli'
'vastavust_'
'vastavuse'
'vastastikuse'
'vastastikku_'
'vastas'
'vastane_'
'vastamise'
'vast'
'vas'
'varjupaigataotlus'
'variety_'
'varasemate'
'vanu'
'vanema'
'vanad'
'valva'
'valla'
'valitsusväliste_'
'valitsust'
'valitsuse'
'valitsemistava'
'valesti_'
'valdkond'
'vahetus_'
'vahet_'
'vahelisel'
'vahelise'
'vabastam'
'vabaduste'
'vaatlusmissioon'
'vaadat'
'vB'
'uurimist_'
'uurimist'
'uuri_'
'uum'
'uuendust'
'utilis'
'usuvad_'
'usual_'
'ustel'
'usp'
'usaldusväärset_'
'usalda'
'uru_'
'uring_'
'urgude'
'urgi'
'ups_'
'unresolved_'
'unkti'
'unit'
'ungar'
'unexp'
'undu'
'undoubtedly_'
'undan'
'unanimously_'
'unanim'
'ums_'
'umist_'
'ument'
'ulud_'
'ull'
'uli'
'ulat'
'uis'
'uhete'
'ugh_'
'uf'
'uba'
'u117'
'u110'
'tük'
'tüdruku'
'tü'
'tööv'
'töötlemise'
'töötlemi'
'töötatakse_'
'töötamist_'
'töötajat_'
'tööstuslik'
'tööprogrammi'
'tööo'
'tööandjate'
'tõstmine_'
'tõsise'
'tõmba'
'tõkke'
'tõkete_'
'tõkestamise_'
'tõi_'
'tõhustamine_'
'tõhustam'
'täpsustada_'
'tänapäeval_'
'täiust'
'täitmist_'
'täitm'
'täisk'
'tähtsate'
'tähtaega_'
'tähelepaneku'
'täh'
'tz'
'tw'
'tuumarelva'
'tuumae'
'tutvustada_'
'tuttav'
'tusi_'
'turvaline_'
'turust'
'turule'
'turud_'
'tunnustamist_'
'tunnust'
'tunnistust_'
'tunnistus'
'tunnistami'
'tunnistada_'
'tunnistab_'
'tunde'
'tuna_'
'tulemusliku'
'tuhanded_'
'tugevdatakse_'
'tugevdamisel'
'tugevam_'
'tude_'
'tto'
'ttevõtte'
'truck'
'trial'
'treaties_'
'trateegia_'
'transpordisektoris_'
'transmi'
'tragöödia'
'town_'
'tooks'
'toodet_'
'toodangu_'
'tollimaks'
'toleran'
'toimuvat_'
'toimuval_'
'toimivad_'
'toimiva'
'toimimis'
'toimim'
'toimet'
'toiduk'
'tohutul'
'toetusmeetme'
'toetamisel_'
'toetaks'
'tli'
'tja'
'tiv'
'tisf'
'tippt'
'tippkohtumi'
'tingimustele_'
'tingimustega_'
'tihenda'
'threatening_'
'tho'
'tf'
'text'
'terrorists_'
'territories_'
'terrible_'
'terminat'
'teostatava'
'tent'
'tend'
'temperatu'
'tema'
'tem'
'tekstid'
'tekkimis'
'tekkida_'
'teistel_'
'teiselt_'
'tehnoloogilise'
'tehniline_'
'tehingute_'
'tegutsevate_'
'tegevusva'
'tegevusa'
'teenusepakkuja'
'teenivad_'
'teenistuste'
'teenistuse'
'teeninda'
'teemaks_'
'teeksi'
'teek'
'ted'
'techn'
'teavitama_'
'teatava_'
'teatam'
'teatada_'
'teams_'
'teadusuuringu'
'teadustöö_'
'teadusliku'
'teadl'
'teade'
'teach'
'teabele_'
'teabek'
'tau'
'tasemega_'
'tasandi'
'tarnija'
'tarni'
'tarbijaid_'
'tapp'
'tape_'
'taotlusel_'
'taotluse'
'tame_'
'talv'
'talud'
'tall'
'talent'
'tahe_'
'tagas'
'taganud_'
'tagajärje'
'taastumis'
'taastamise_'
'taastamise'
'tWÿÿÿÿÿÿÿÿÿÿÿÿÿÿÿÿÿÿÿÿÈð'
't6'
't5'
't2'
't1852'
't18'
't13'
't12'
't1'
'sÿÿÿÿWed_'
'süsiniku'
'sündmusi'
'sündmus'
'süm'
'sügava'
'sõnu_'
'sõltumatu'
'sõlmida_'
'säästva'
'sääste'
'säilitama_'
'suurima_'
'suuresti_'
'suurepärast'
'suureneva'
'suurenem'
'suurel'
'sustained_'
'sustain'
'surmanuhtluse_'
'surely_'
'suppo'
'sup'
'sundida_'
'sundi'
'summas'
'sul'
'suhe_'
'success'
'substantive_'
'submission_'
'stust'
'stuse_'
'stus_'
'struktuurireform'
'struktuur_'
'struktureeri'
'striv'
'strength_'
'streamlin'
'strateegilis'
'strateegias_'
'strateegiaga_'
'strand'
'stliku'
'stin'
'stiimuli'
'stiimuleid_'
'stide'
'stes_'
'stereot'
'stepping_'
'stava'
'stat'
'standard'
'stamise_'
'stabilise'
'stabiilsus_'
'stabi'
'sq'
'spordi_'
'spl'
'spetsialist'
'speed'
'specifie'
'sotsiaalküsimuste_'
'sotsiaalkindlustus'
'soovituste_'
'soovitust_'
'soovitus'
'soovitud_'
'soovisi'
'soon'
'sooja'
'soodustab_'
'solidaarsuse'
'solidaarsus_'
'solely_'
'socialist'
'slo'
'sku'
'skill_'
'sive_'
'sisulise'
'sisserände'
'sisese'
'siseriiklike_'
'siseriiklik'
'sincerely_'
'simul'
'siira'
'signature_'
'sign'
'sidusrühmade'
'sidu'
'sident'
'showca'
'shortages_'
'shops_'
'shock'
'ship'
'she'
'sever'
'sett'
'sete'
'seose'
'sens'
'selle'
'selguse'
'selget_'
'sekundi'
'seitsmes'
'seitsmenda_'
'seisavad_'
'seeru'
'sedas'
'seda'
'sec'
'seaduste_'
'seadusliku'
'seadusandlus'
'seadnud_'
'seadmise'
'sd'
'screen'
'scr'
'scientist'
'scene'
'sanktsioonide'
'saks'
'sajandil_'
'sajandi_'
'sain_'
'sadamate'
'sad_'
'sad'
'saavutata'
'saavutamis'
'saaste'
'saamine_'
'saama'
'saalis_'
'saadab_'
'sWÿÿÿÿÿÿÿÿÿÿÿÿÿÿÿÿÿÿÿÿÈà_'
'rünna'
'rühmituste_'
'rõõmus_'
'rääkisi'
'rvi'
'rva'
'ruct'
'rtiona'
'rous'
'rogrammi_'
'rni'
'rna'
'rm_'
'rki'
'rj'
'riskijuhtimis'
'rip'
'rior'
'ringlussevõt'
'riiklikest_'
'riiklik'
'riigit'
'riigipeade'
'riigipead_'
'riigiabi'
'rific'
'rida_'
'ric'
'rgu'
'rgi'
'revolution'
'reviews_'
'reviewed_'
'returning_'
'ressursi'
'ress_'
'resident'
'resi'
'reproduc'
'repressi'
'repli'
'repa'
'renti'
'renewables_'
'remov'
'rem'
'relvajõud'
'rejecti'
'rehensi'
'reguleerita'
'reguleerimise'
'regula'
'registreerit'
'registreerimi'
'regionaalarengu'
'refuse_'
'refusal_'
'reformip'
'reforme_'
'reeglite'
'rede'
'recommended_'
'recogni'
'reco'
'reception_'
'receives_'
'reaffirms_'
'readmission_'
'reaalsus_'
'raskem_'
'rasedus'
'ranspordi'
'rakendamisele_'
'rakendab_'
'rajamise'
'rahvusvahelistes_'
'rahvusvahelisel'
'rahvast_'
'rahulol'
'rahastamisvahendi_'
'rahastamisvahendi'
'radi'
'rad_'
'racism_'
'raci'
'raamprogramm'
'rWÿÿÿÿÿÿÿÿÿÿÿÿÿÿÿÿÿÿÿÿÈp'
'quo'
'püügivõim'
'püügipiirkonna_'
'püüdluste'
'püüdes_'
'püstita'
'pühendunud_'
'pühendumuse'
'pühendumis'
'pühendu'
'pöördumi'
'põllumajanduss'
'põllumajandusettevõt'
'põllumajanduse'
'põhjuste_'
'põhjustatud_'
'põhjusi_'
'põhjendamatu'
'põhivabaduste_'
'põhineva_'
'põhiküsimus'
'päritoluriiki'
'päri'
'pärase'
'py'
'puuvilla'
'puutu'
'puuduste'
'puuduse_'
'puudujäägi_'
'puu_'
'purchase_'
'punishment_'
'pum'
'pull'
'publications_'
'publi'
'protsesside'
'protektsionis'
'protectionism_'
'prosper'
'propaga'
'promote'
'promi'
'proliferation_'
'project'
'programmiga_'
'proce'
'problematic_'
'proble'
'privile'
'prioriteet'
'prio'
'print_'
'pricing_'
'pressiteade_'
'president'
'presenting_'
'prescri'
'preferences_'
'preferen'
'predictab'
'pragma'
'praeguste_'
'pped_'
'post350'
'post31'
'positiivset_'
'pose'
'populat'
'poolt'
'pools'
'poliitikak'
'pm'
'pluralism'
'plat'
'plaanid'
'pist'
'pipeline_'
'pinguta'
'pinda'
'pikka_'
'pikemas_'
'pik'
'piisava_'
'piisa_'
'piirkonna'
'piirkondades'
'piirkondadel'
'piiriülene_'
'piinamis'
'piimatoot'
'pidi'
'pide'
'pict'
'pick'
'phrase'
'phpf'
'php8'
'pettus'
'petitsiooni'
'permitted_'
'permits_'
'pereliikme'
'pera'
'pensionile_'
'pel'
'pek'
'peitu'
'peeti_'
'peatamise'
'peata'
'peamiseks_'
'pealt'
'peaksite_'
'pave'
'pati'
'partnerlust'
'partnerid_'
'partneri'
'participated_'
'parteid'
'parlamentide'
'parlamentaar'
'parlamendiliikme'
'parimat_'
'parad'
'pannud_'
'pani'
'panganduss'
'panga_'
'palusid_'
'palunud_'
'palgad_'
'pakutavate_'
'paku'
'pakt_'
'pakkumis'
'pakkumine_'
'paigutat'
'pack_'
'paber'
'paa'
'ox'
'ower'
'overc'
'ove'
'ov_'
'ov'
'outr'
'outermost_'
'ousness_'
'ounc'
'otsusekindl'
'otstarbel'
'otstarbeka'
'otsimi'
'otsid'
'otsene_'
'osuta'
'ostetud_'
'oste'
'osta'
'ose_'
'ose'
'osaluse'
'osaliste'
'osaleva'
'osales_'
'osalemiseks_'
'osakon'
'osaistungjär'
'orr'
'oro'
'origina'
'organisatsioonidel_'
'organ_'
'orat'
'opt'
'operatsioon'
'operaatori'
'ope'
'ooni'
'oon'
'ookeani_'
'ood_'
'ones'
'omalt_'
'olulisemad_'
'olulisema'
'olud'
'ols'
'olo'
'oliitikas'
'olen'
'olemuse'
'olemis'
'olemasolevad_'
'olemasolev'
'oleku'
'oleksi'
'oled_'
'oka'
'oid'
'ohvriks_'
'ohutusn'
'ohtlik'
'offences_'
'occur_'
'occasions_'
'obse'
'objektiivse'
'nüüd'
'nõutud_'
'nõudest_'
'näitasid_'
'nädalate'
'ny'
'nw'
'numbrit_'
'numbrid_'
'nu_'
'ntu'
'ntsi'
'notify_'
'normide_'
'noorsoo'
'noore'
'nonetheless_'
'non'
'nof'
'nite'
'nimi_'
'nimetada_'
'nimekiri_'
'nili'
'nikk'
'nih'
'ner'
'nenud_'
'nendel_'
'neljas_'
'neighbour'
'neglect'
'nds_'
'nding_'
'ndate'
'ndam'
'ndade'
'nb'
'nau'
'nate'
'names_'
'naistele_'
'naaber'
'möö'
'mõõduka'
'mõtlemis'
'mõninga'
'mõnele_'
'mõnel_'
'mõlemal'
'mõlema'
'mõjusid_'
'mõistetav'
'mõistame_'
'mõeld'
'móú'
'märku'
'märgistuse'
'märgise_'
'märgatavalt_'
'mängivad_'
'muutuste'
'muutuks_'
'muusika'
'muul_'
'muudatuste_'
'muudatuste'
'mut'
'mulje_'
'mugava'
'mse'
'mountain'
'moodu'
'mood'
'mont'
'monitored_'
'moderate_'
'mobiliseeri'
'mitmesugus'
'mitmel'
'mitmekord'
'miste'
'mism'
'misl'
'misjon'
'misi_'
'mir'
'ministri'
'ministerial_'
'minimis'
'mines_'
'minema_'
'millises_'
'miljard'
'migra'
'mie'
'mide_'
'metsandus'
'mete'
'metall'
'metal'
'merel_'
'menta'
'meni'
'menetluse'
'memor'
'meetodid_'
'mees'
'meelel'
'materjalide_'
'matemaatilis'
'marking_'
'mari'
'map_'
'map'
'manufacture'
'manipulat'
'maksuko'
'maksimaalselt_'
'makset'
'maksed_'
'makromajandusliku'
'mak'
'majanduste_'
'majandusr'
'majandusko'
'majandusk'
'mainisi'
'mainin'
'maine_'
'maht_'
'mah'
'magnet'
'macro_'
'machine'
'maat'
'lülita'
'lühiajalise'
'lõpu_'
'lõppe'
'lõpetat'
'läinud_'
'lähtuva'
'lähene'
'läbivaa'
'läbipaistvus'
'lvi'
'luste_'
'luste'
'lust_'
'lust'
'lugu_'
'lugem'
'lud'
'lubadus'
'lubade_'
'lsus'
'lse_'
'lowest_'
'lower'
'loop'
'loomu'
'looks_'
'looja'
'loodusliku'
'logistika'
'located_'
'lobi'
'lne_'
'ln'
'lmis'
'lk_'
'liu'
'literacy_'
'litera'
'listen_'
'lising_'
'lisatakse_'
'lisami'
'lisam'
'linnap'
'limitations_'
'liked_'
'liitud'
'liikuvust_'
'liikuva'
'liikumisv'
'liikmesriigil_'
'liikmes'
'liikluse'
'lihtsustatud_'
'lihtsustamise_'
'lihtsustamise'
'lift_'
'licences_'
'lic'
'liberaal'
'lev'
'lest'
'leppis_'
'lepingulis'
'lennul'
'lennujaamade'
'lennujaama'
'lennuettevõtjad_'
'length_'
'lendu'
'lending_'
'lemise'
'leja'
'leevendamiseks_'
'lateral'
'lasting_'
'las_'
'lal'
'lak'
'laiendamise'
'laiemal'
'laiema_'
'laial'
'lahutamatu_'
'lahu'
'lahti_'
'lahti'
'lahkumi'
'lack'
'laast'
'laadimis'
'kütuse_'
'kütus'
'küsis_'
'küps'
'külg_'
'kõrvaldam'
'kõrgkooli'
'kõnealusele_'
'kõnealuseid_'
'kõnealuse'
'kõndi'
'kõikehõlmava'
'kättesaadavuse'
'käsu'
'käivitamise'
'käivitab_'
'käitu'
'käiku'
'kv'
'kuuluvat'
'kuulnud_'
'kuue'
'kutseõppe'
'kutseala'
'kuritarvitamise_'
'kuritarvitamis'
'kun'
'kulutuste'
'kulukohustus'
'kultuuriminist'
'kult'
'kujundada_'
'kuiv'
'kude'
'ktsioon'
'ktor_'
'kte'
'ksitlev'
'kristlik'
'kriminaalmenetlus'
'kriisile_'
'kosmoses'
'korrigeeri'
'korrat'
'korrast'
'korduva'
'koostööp'
'koostööleping'
'koostas'
'kooskõlastatu'
'koordineerimist_'
'koondu'
'koolitami'
'konverentsi'
'konventsioon_'
'konto_'
'konsultatsiooni_'
'konsulaar'
'konstruktiivse_'
'konservatiivid'
'konkurentsiee'
'konkurentide'
'konkureeri'
'konkreetsetel'
'konfliktide_'
'kond_'
'komi'
'kolmas_'
'kollektiiv'
'kolleegi'
'kolleeg_'
'kokkuv'
'kokkup'
'kohustuste'
'kohtuva'
'kohtuotsuse'
'kohtuniku'
'kohtuasja_'
'kohtua'
'kohanemis'
'kohandam'
'kogupüük_'
'koduma'
'kodanikku_'
'kodakondsuse_'
'knowing_'
'klubi'
'kliimak'
'kliima_'
'kku'
'kke_'
'kit'
'kirjutas_'
'kirjeldus'
'kirjaliku_'
'kino'
'kinnipidamis'
'kinnipeet'
'kingdom_'
'kindlus_'
'kindla_'
'kilomeetri_'
'killing_'
'kiirust'
'kiirenda'
'keskuse_'
'keskmise'
'keskkonnam'
'keskkonnak'
'keskendum'
'ker_'
'kemikaalide_'
'kem'
'kehtiva_'
'keerulis'
'keemilist'
'keeldumi'
'keel_'
'kd'
'kavatsust'
'kavast_'
'kaval'
'kaupu_'
'kaupade'
'kaugus'
'kaugema'
'kaubave'
'kaubanduslepingu'
'katkesta'
'kasvas_'
'kasutuselevõtu'
'kasutusel'
'kasutatav_'
'kasutata_'
'kasutajad_'
'kari'
'kaotat'
'kandma_'
'kampaania'
'kaluri'
'kalli'
'kalapüügi_'
'kalandust'
'kalalaeva'
'kak'
'kajastam'
'kaitsemeetme'
'kaitsele_'
'kahtluse_'
'kahetsus'
'kahetse'
'kahes'
'kahepoolsete_'
'kahepoolsed_'
'kahane'
'kag'
'kaebuste'
'kaart'
'kaalut'
'jõustamise'
'jõupingutused_'
'jõuks_'
'jõudude'
'jõudsid_'
'jõudmi'
'jõudma_'
'jõudis_'
'jätm'
'jätkuvat_'
'jätkam'
'järgneb_'
'järgmiste'
'järgita'
'järgides_'
'järeldustes_'
'järelda'
'jär'
'jälgita'
'jäetaks'
'juulist_'
'jutu'
'justiitsminister_'
'justify_'
'justi'
'jurisdiction_'
'juhtumi'
'juhtorganite'
'juhtiv_'
'judgments_'
'journ'
'jook'
'jatega_'
'jate'
'jas'
'jala'
'jal'
'jaht'
'jagamine_'
'jadus'
'jaanuarist_'
'jaan'
'jF'
'ived_'
'ival'
'ito'
'itis'
'itel_'
'itee'
'itamise'
'istungitel_'
'istungit'
'istel'
'isolation_'
'islami'
'isikute'
'isikus'
'isikuid_'
'irre'
'iro'
'iri_'
'ipi'
'invite_'
'investorite_'
'investori'
'investing_'
'investeerimislepingu'
'inve'
'intra_'
'institutsioonilist'
'inso'
'inquiry_'
'innustab_'
'innovat'
'inno'
'initially_'
'inimkaubandus'
'ingredient'
'infrastruktuuride_'
'infrastructures_'
'informa'
'infe'
'individuaalset'
'individuaalse'
'indispensable_'
'indicate_'
'incorporate'
'incor'
'incon'
'impress'
'immi'
'imb'
'imat'
'illustrat'
'ille'
'ilis'
'ikl'
'ikkus'
'ikas'
'ija'
'iin'
'iim'
'igi'
'igasugune_'
'iet'
'ience_'
'idil'
'idapartnerlus'
'icul'
'ick'
'icien'
'ications_'
'hüvitise'
'hüvitamise_'
'hüvit'
'hüved'
'hõlpsam'
'hõlmat'
'hõlbusta'
'hääletustulemus'
'hääletas_'
'hääletame_'
'hääletama'
'hävitada_'
'hydro'
'hvet'
'huvisid_'
'huviga_'
'hut'
'hundred_'
'hukk'
'html9e'
'html9c'
'html5c'
'html5a'
'hta'
'hour_'
'hotel'
'hos'
'horizontal_'
'horis'
'hoolitse'
'hooldaja'
'hoogusta'
'hood_'
'hooaja'
'honour_'
'hono'
'hoius'
'hoidmise'
'hoiaku'
'hoiak'
'historic_'
'hirm'
'hinnatakse_'
'hindavad_'
'hindama_'
'high'
'hie'
'hhanism'
'hh'
'helist'
'heitkogus'
'hedge_'
'heate'
'heat_'
'hearing_'
'heameel_'
'hasartmäng'
'haridust'
'hariduses_'
'hariduse'
'hange'
'halvenemi'
'halvasti_'
'hakka_'
'hakka'
'haj'
'haavatavamate'
'gÿÿÿÿ_'
'gue'
'gude_'
'grip'
'greatly_'
'grav'
'grand'
'grade'
'gor'
'gne'
'gli'
'gis_'
'gio'
'gge'
'gevus'
'geogra'
'gen'
'gede'
'gate_'
'gases_'
'gaasit'
'gOKtext_'
'furt'
'fun'
'fulfilled_'
'ful'
'frame'
'fragile_'
'foster_'
'fossiilkütuste'
'formed_'
'formaalse'
'forgotten_'
'foresee'
'ford_'
'fondis'
'fondides'
'fonde_'
'fly'
'finantsm'
'finantseerimis'
'filmide_'
'field2_'
'ffc'
'ffb'
'ff7'
'feeling_'
'fear'
'fe5'
'fde'
'fdc'
'fb7'
'fb4'
'farm_'
'farm'
'far'
'fakti'
'facto'
'fa4'
'fa1'
'f95'
'f7d'
'f61'
'f6'
'f50'
'f46'
'f32'
'f31'
'f26'
'f22'
'f06'
'eÿÿÿÿ_'
'exporting_'
'explosive'
'explor'
'explicitly_'
'explained_'
'expla'
'expense_'
'expansion_'
'exit_'
'exemption'
'execution_'
'exceptions_'
'exceed_'
'examination_'
'evus'
'evident_'
'everybody_'
'evasion_'
'eurooplast'
'ettevõtetel_'
'ettevõte'
'etteva'
'etenda'
'etappi_'
'etapp_'
'essence_'
'esmaj'
'esitan_'
'esimeste'
'ervatiiv'
'eriva'
'eriumi'
'eripära'
'erip'
'erioodi_'
'erinevatel'
'erinevat_'
'erineva_'
'erine'
'eriline_'
'eraldat'
'eraldamine_'
'erakordse'
'epre'
'eping_'
'eos'
'envelope'
'entrepreneurs_'
'enthusias'
'eno'
'ennetamise'
'ennetamine_'
'engineer_'
'enforc'
'energiatar'
'energiapoliitika'
'endis'
'enamikus_'
'enama'
'emise_'
'emba'
'emakeele'
'elundite_'
'elundi'
'elluviimist_'
'elluviimisel'
'elluviimise_'
'elluviimise'
'ellu'
'eliminati'
'eliminate_'
'eliku'
'elik'
'elemente_'
'elemendid_'
'elektroonilist'
'elektroonilise'
'electronics_'
'electro'
'elect'
'elan'
'eku'
'ekst'
'eki'
'ekal'
'eita'
'eis'
'eir'
'ehitust'
'ehitamis'
'efo'
'efi'
'ef4'
'ef1'
'eesmärgin'
'eesmärgile_'
'eeskujuks_'
'eesk'
'eesia'
'eenuste_'
'eenuse'
'eelnõud'
'eeliseid_'
'eelarvea'
'eedi_'
'ee6'
'ee3'
'ee0'
'edukat'
'eduaruande_'
'edin'
'edi'
'edendatakse_'
'edastata'
'ection_'
'ecological_'
'ec6'
'ebapiisava'
'eb7'
'eb5'
'eastern_'
'ease'
'earmarked_'
'ea6'
'eOKtext_'
'e9c'
'e90'
'e8f5'
'e8f'
'e83'
'e7f'
'e7d'
'e6c'
'e6b'
'e62'
'e3d'
'e34'
'e30'
'e28'
'e20'
'e10'
'e08'
'dva'
'dv'
'dump'
'dude_'
'duc'
'dtW'
'dru'
'drive'
'dri'
'dor_'
'doctors_'
'dness_'
'dli'
'dk'
'diversifi'
'distribute'
'distr'
'distincti'
'display'
'dish'
'direktiivi'
'dile_'
'digitaalarengu_'
'die_'
'dide'
'dict'
'dialoog_'
'dfa'
'devoted_'
'develop'
'detsembri'
'detect_'
'detai'
'deserve'
'desert'
'ders_'
'deploy'
'dens'
'demokraatlikku_'
'demi'
'delays_'
'delayedb'
'delayed8'
'delayed7'
'deks_'
'dek'
'deficits_'
'defending_'
'defender'
'declared_'
'decl'
'decades_'
'debati'
'ddc'
'dca'
'dc5'
'dang'
'damag'
'dade'
'dada_'
'dad'
'da7'
'da4'
'd9a'
'd71'
'd41'
'd33'
'd2b'
'd0a'
'cyber_'
'curr'
'cts_'
'ctor'
'ction'
'cruel_'
'criticism_'
'criterion_'
'creativity_'
'cracy_'
'counting_'
'coun'
'constitutes_'
'constituen'
'consolidate_'
'consisten'
'consci'
'connect'
'confer'
'condemned_'
'concentrat'
'computing_'
'compris'
'components_'
'competing_'
'comparative_'
'commit_'
'comme'
'combined_'
'collect'
'collapse_'
'coh'
'coast_'
'cloud_'
'claim'
'cks'
'cker_'
'cite'
'cit'
'cina'
'cide'
'ching_'
'chamber_'
'challenging_'
'chairman_'
'cf'
'centr'
'cens'
'ceilings_'
'ce8'
'ce3'
'cd9'
'cd3'
'ccf'
'cc5'
'cba'
'cb6'
'catches_'
'catch_'
'cart'
'carrier_'
'cargo_'
'candidates_'
'cancell'
'calendar_'
'c9f'
'c95'
'c81'
'c61'
'c54'
'c51'
'c4'
'c3e'
'c3b'
'c34'
'c11'
'bw'
'buyer'
'bus_'
'bureaucratic_'
'budgets_'
'bru'
'broaden'
'broadcasting_'
'briefed_'
'brave'
'brain_'
'bottom_'
'borat'
'booki'
'boarding_'
'bly_'
'blee'
'bl'
'biote'
'biomassi_'
'biokütuste_'
'biokütus'
'bimi'
'bf0'
'beneficial_'
'benchmarks_'
'belie'
'bed_'
'bce'
'bc9'
'bbf'
'barr'
'banned_'
'baas'
'ba7'
'ba4'
'b9a'
'b8d'
'b8'
'b64'
'b54'
'b4d'
'b30'
'b29'
'b26'
'b12'
'avalikul'
'avaldusi_'
'avalduse'
'avaldata'
'avaldasi'
'avaid_'
'automaatse'
'authori'
'austuse'
'austus'
'austamise'
'aust'
'atuse'
'attend'
'attain'
'atraktiivsust_'
'atraktiivse'
'ato'
'asukoha'
'asud'
'astuda_'
'astrono'
'astme'
'asti_'
'astas'
'astam'
'assisting_'
'assa'
'aspir'
'aspekti_'
'ask'
'asjaolude'
'asjakohase'
'asjak'
'asep'
'asendada_'
'asenda'
'asem'
'arvutamise'
'arvuta'
'arvestama_'
'arvavad_'
'arvata_'
'arvab_'
'arva_'
'arutati_'
'arutat'
'arutasime_'
'arusaam_'
'aru'
'artnerlus'
'arstiabi_'
'arrested_'
'arne'
'argument_'
'argue'
'arengumaade'
'arendat'
'ard'
'arch'
'aps'
'appropriations_'
'approach'
'appeal'
'apparent_'
'any'
'antav'
'anni'
'anism'
'anik'
'andmete'
'andi'
'anda'
'analüüsis'
'analüü'
'analyses_'
'ametliku'
'ametlik'
'ametis'
'amet'
'amen'
'amaz'
'alustas_'
'alustanud_'
'alustades_'
'alust_'
'alset'
'als'
'allpool_'
'allocati'
'allkirjastatud_'
'allerg'
'alle'
'alkoh'
'ality_'
'alin'
'alik'
'algul_'
'algatused_'
'algatab_'
'alase'
'alarm'
'alad'
'aktiivne_'
'aktide'
'akett'
'ak_'
'ajavahemiku_'
'ajate'
'ajaloos_'
'ajakohastamis'
'ajad'
'aj'
'aitamiseks_'
'aitami'
'ais'
'aina_'
'ail_'
'aid'
'aia'
'agentuur_'
'afford'
'afd'
'af8'
'af0'
'aegu_'
'aegade_'
'ae6'
'ae3'
'advocate'
'advis'
'advances_'
'adopts_'
'administrations_'
'activat'
'acted_'
'ack'
'accus'
'account'
'accord'
'accessibility_'
'ac5'
'abili'
'abielu'
'abia'
'abandoned_'
'ab5'
'ab0'
'aas'
'aan'
'aaf'
'a9e'
'a99'
'a96'
'a6b'
'a5c'
'a5a'
'a56'
'a29'
'a26'
'a24'
'a1d'
'a1a'
'a18'
'a01'
'^ ` _'
'] ` _'
'] - _'
']   _'
'Ze'
'Yugoslav_'
'You'
'YT'
'Xt'
'XK'
'Wÿÿÿÿÿÿÿÿÿÿÿÿÿÿÿÿÿÿÿÿþÿÿÿ_'
'WÿÿÿÿÿÿÿÿÿÿÿÿÿÿÿÿÿÿÿÿüÿÿÿReceive_'
'Working_'
'West'
'Washingtoni'
'Warsaw_'
'War_'
'WTO'
'WH'
'Võ'
'Vla'
'Vir'
'Viis'
'Veeb'
'Vastasel_'
'Valgevene'
'Valg'
'Vale'
'Vajame_'
'Vaid'
'Vabariigis_'
'Vaa'
'VER'
'VAL'
'Uued_'
'Uue'
'Usbekistani'
'Umbes_'
'UV'
'UND'
'UL'
'UA'
'U6'
'Tš'
'Tõepoolest_'
'Turkish_'
'Tun'
'Tuleviku'
'Trea'
'Transa'
'Trai'
'Tin'
'Those_'
'Thanks_'
'Tervise'
'Teil'
'Tegevus'
'Teams_'
'Teadusuuringute_'
'TZ'
'TN'
'TI_'
'Sv'
'Supervisor'
'Sup'
'Stabiilsus'
'Sports_'
'Spo'
'Soviet_'
'Sotsiaalk'
'Soomes_'
'Somaalia_'
'SolidWorks_'
'Solid'
'Solana_'
'Sloveenias_'
'Sloveenia'
'Slov'
'Skills_'
'Similarly_'
'Sii'
'Sid'
'She'
'Sen'
'Schu'
'School'
'San'
'Sama'
'Saksamaa'
'Sai'
'Sac'
'SY'
'SSE'
'SME_'
'SKT'
'SK'
'SEN_'
'SED_'
'Rää'
'Run'
'Royal_'
'Rootsi'
'Rompuy_'
'Roman'
'Roma'
'Roadmap_'
'Risk'
'Resolut'
'Rese'
'Ren'
'Registr'
'Regionaalarengu_'
'Recovery_'
'Rahvaste_'
'Raha'
'RR'
'ROK'
'RD'
'RAPEX'
'Qs'
'QE'
'Põllumajandus_'
'Põhjam'
'Päev'
'Pun'
'Pros'
'Prop'
'Programmi_'
'Programmi'
'Prantsuse_'
'Post'
'Polic'
'Poli'
'Platform_'
'Pk'
'Pierre_'
'Paten'
'Pas'
'Pang'
'Pag'
'PRI'
'PM'
'Osale'
'Opera'
'Ometi_'
'Oct_'
'OO'
'Nõukogude_'
'Numb'
'Nord'
'Non_'
'Nik'
'Niisiis_'
'Nii'
'Ng'
'Nel'
'Nap'
'Nais'
'NA_'
'Möödunud_'
'Mõlemad_'
'Mõlema'
'Multilingualism_'
'Msoms_'
'Mont'
'Mol'
'Miss'
'Mimica_'
'Mate'
'Master'
'Marg'
'Mala'
'Majanduskasvu_'
'Madeira_'
'MS'
'ML'
'MIL'
'MIC'
'MEL'
'MARK'
'Läänemer'
'Lä'
'Luc_'
'Love'
'Londonis_'
'List_'
'Liiku'
'Liiga'
'Liidust_'
'Life'
'Leping_'
'Left_'
'Las'
'Lar'
'LA_'
'LAR'
'Kõigepealt_'
'Kultuuri'
'Koo'
'Kongo_'
'Komisjonile_'
'Kli'
'Kir'
'Kin'
'Kasuta'
'Kall'
'Kaks_'
'KOV'
'KOK'
'KOHT'
'KAS'
'Järel'
'Junckeri_'
'Jun'
'Jos'
'Jesus_'
'JQ'
'Iraagis_'
'Integrat'
'Insurance_'
'Institution_'
'Innovatsioon'
'Inimesed_'
'Improve'
'Igaü'
'Id'
'IZ'
'IMI'
'IIIa_'
'ICT'
'Hun'
'Hous'
'Hiljutise'
'Hiinas'
'Hetke'
'Having_'
'Have'
'Hau'
'HR_'
'Göt'
'Gw'
'Guidelines_'
'Govern'
'Good_'
'Gol'
'Globalisation_'
'Glo'
'Genera'
'Gender_'
'GRA'
'GM_'
'GMTù'
'GMTï_'
'GMTê'
'GMTÎ'
'GMTm'
'GMTi'
'GMTh'
'GMTg'
'GMTT'
'GMTRoute_'
'GMTJ'
'GMT4'
'GMES'
'GC'
'GAL'
'Frontexi_'
'Form'
'Fondi'
'Fland'
'Fla'
'Fina'
'Festival_'
'Federation_'
'Family_'
'Fak'
'Fair'
'FRONTEX_'
'FP'
'FIN_'
'FG'
'FF'
'Exce'
'Europass'
'Eurooplas'
'Eurojusti_'
'Ette'
'Esta'
'Est'
'Esitatud_'
'Esimese'
'Erinev'
'Equal_'
'Equal'
'Elu'
'Eli'
'Electronic'
'Elect'
'Egiptus'
'Eeld'
'EST'
'ESF_'
'ERF'
'ERC_'
'EMP'
'ELile_'
'ECA_'
'Dÿÿÿÿ_'
'Dumpinguvastased_'
'Due_'
'Dor'
'Div'
'Disab'
'Dia'
'Developing_'
'Delegation'
'Dele'
'David_'
'Darfur_'
'Dalai_'
'DV'
'DES_'
'DC'
'Cul'
'Criminal_'
'Cri'
'Cot'
'Corr'
'Corbett_'
'Conse'
'Competition_'
'Compar'
'Companies_'
'Commi'
'Comm'
'Combating_'
'Clea'
'Cit'
'Church_'
'Christi'
'Cent'
'CU'
'CH_'
'CHA'
'BÈW'
'Bus'
'Bulgarian_'
'Budget_'
'Bresso_'
'Br'
'Book'
'Boel_'
'Bla'
'Bh'
'Bei'
'Balkan'
'Award_'
'Asse'
'Aruanne_'
'Aruandes'
'Articles_'
'Araabia_'
'Appl'
'Anti'
'Anal'
'Ameti_'
'Amet'
'Amendments_'
'Ambassador_'
'Alus'
'Ajak'
'Act'
'Accession_'
'Academy_'
'Aafrika'
'ASE'
'AQ'
'ANC'
'AME'
'AGR'
': -'
': (_'
'9f8'
'9db'
'9c8'
'9b_'
'9b7'
'9b0'
'9b'
'9af'
'9a4'
'9a0'
'99f'
'98e'
'96a'
'96'
'951'
'94a'
'93a'
'937'
'9367'
'9014'
'901'
'8e7'
'8e3'
'8e2'
'8df'
'8ce'
'8c9'
'8c0'
'8bf'
'8bc'
'8a2'
'8W'
'89c'
'87c'
'85e'
'850_'
'840'
'83c'
'81d'
'804_'
'7m'
'7ee'
'7e5'
'7c9'
'7a7'
'79b'
'78c'
'77b'
'760_'
'760'
'748_'
'746_'
'73e'
'705_'
'701e'
'70'
'6f'
'6e8'
'6d4'
'6c1'
'6b1'
'6a0'
'696_'
'694'
'648_'
'62a'
'627'
'625_'
'5ÈW'
'5fc'
'5f2'
'5e7'
'5d2'
'5c4'
'5bf'
'5a8'
'5a6'
'5B'
'59e'
'599'
'58b'
'584_'
'57b'
'57a'
'576_'
'574_'
'572_'
'56d'
'565'
'561_'
'553_'
'552_'
'551_'
'54a'
'546_'
'523'
'512_'
'50e'
'5000'
'4ed'
'4d4'
'495'
'4842'
'47c'
'477'
'475_'
'471'
'46e'
'468_'
'45b'
'452_'
'44f'
'44c'
'44b'
'434_'
'434'
'40f'
'4031'
'40'
'3m'
'3ec'
'3eb'
'3e73'
'3e5'
'3da'
'3d'
'3ce'
'3c8'
'3b0'
'3a8'
'3A'
'38c'
'375_'
'36e'
'357_'
'3524'
'3502'
'349_'
'3491'
'3409'
'34'
'3309'
'314_'
'30c'
'2fb'
'2f1'
'2e2'
'2e'
'2d2'
'2c0'
'2a5'
[...]
