'<pad>_'
'<EOS>_'
', _'
'._'
'the_'
'_'
'in_'
'of_'
'to_'
'die_'
'and_'
'der_'
'und_'
'a_'
's_'
'-_'
'is_'
'that_'
'zu_'
'for_'
'den_'
'on_'
'von_'
''_'
'I_'
'n_'
'für_'
'ist_'
'The_'
'. _'
'en_'
'be_'
'an_'
'es_'
'das_'
'with_'
'e_'
'des_'
'auf_'
'are_'
'?_'
'it_'
'mit_'
'nicht_'
'as_'
'- _'
'eine_'
't_'
'by_'
'im_'
'dass_'
'you_'
'have_'
'this_'
' (_'
'Die_'
'will_'
'not_'
'werden_'
'Sie_'
'ein_'
'sich_'
'was_'
'we_'
'dem_'
'EU_'
'has_'
'from_'
'European_'
': _'
'er_'
'which_'
'at_'
'wird_'
'wir_'
'sind_'
'r_'
'ich_'
'or_'
'auch_'
' – _'
'In_'
'um_'
') _'
'als_'
'sie_'
'ing_'
'so_'
'all_'
'hat_'
'Ich_'
'Commission_'
'’_'
'd_'
'!_'
'/_'
'can_'
'haben_'
'über_'
'wie_'
' - _'
'also_'
'zur_'
'einer_'
'Kommission_'
'its_'
'ed_'
'their_'
'oder_'
'more_'
'would_'
'Das_'
'y_'
'einen_'
'It_'
'Union_'
'but_'
'been_'
'bei_'
'aus_'
'our_'
'one_'
'do_'
'm_'
'should_'
'This_'
'they_'
':_'
'We_'
'durch_'
'einem_'
'1_'
'ung_'
'2_'
'nur_'
'Mr_'
'Der_'
'nach_'
'können_'
'up_'
'; _'
'diese_'
'new_'
',_'
'there_'
'kann_'
'am_'
'your_'
'noch_'
'Es_'
'zum_'
'like_'
'other_'
'about_'
'war_'
'vor_'
'dieser_'
' , _'
'Wir_'
'out_'
'States_'
'no_'
'countries_'
'us_'
'sein_'
'must_'
'o_'
'Europe_'
'A_'
'President_'
'only_'
'wenn_'
'these_'
'man_'
'were_'
'Member_'
'aber_'
'uns_'
'You_'
'wurde_'
'time_'
' "_'
'my_'
'de_'
'than_'
'me_'
'what_'
'3_'
'müssen_'
'if_'
'ten_'
'very_'
'Europäischen_'
'te_'
'he_'
'now_'
'mehr_'
'who_'
'5_'
'such_'
'into_'
'people_'
' ._'
're_'
'ihre_'
'du_'
'% _'
'some_'
'them_'
'when_'
'his_'
'sehr_'
'Council_'
'need_'
'ng_'
'world_'
')._'
'Herr_'
'unter_'
'l_'
'But_'
'4_'
'muss_'
'had_'
'diesem_'
'economic_'
'any_'
'alle_'
'well_'
'eines_'
'ly_'
'Mitgliedstaaten_'
'make_'
'policy_'
'years_'
'Parliament_'
'..._'
'two_'
'zwischen_'
'over_'
'Europäische_'
'between_'
'), _'
'support_'
'just_'
'most_'
'first_'
'US_'
'way_'
'keine_'
'i_'
'" _'
'could_'
'many_'
'take_'
'' _'
'work_'
'those_'
'information_'
'mich_'
'use_'
'market_'
'report_'
'(_'
'bis_'
'right_'
'Europa_'
'important_'
'Präsident_'
'sowie_'
'public_'
'0_'
' „_'
'because_'
' “_'
'gegen_'
'see_'
'Hotel_'
'anderen_'
'hier_'
'al_'
'For_'
'may_'
'da_'
'gibt_'
'Und_'
'mir_'
'year_'
'China_'
'know_'
'here_'
'vom_'
'möchte_'
'system_'
'made_'
'7_'
'political_'
'wurden_'
'g_'
'll_'
'even_'
'S_'
'6_'
'If_'
'under_'
'... _'
'ungen_'
've_'
'how_'
'dieses_'
'being_'
'where_'
'Wenn_'
'Jahr_'
'financial_'
'development_'
'social_'
'country_'
'That_'
'want_'
'damit_'
'And_'
'national_'
'good_'
'her_'
'through_'
'st_'
'heute_'
'much_'
'able_'
'seine_'
'k_'
'both_'
'10_'
'get_'
'Im_'
'Bericht_'
'immer_'
'habe_'
')_'
'Commissioner_'
'8_'
'! _'
'government_'
'same_'
'Unternehmen_'
'go_'
'against_'
'Maßnahmen_'
'Diese_'
'europäischen_'
'diesen_'
'end_'
'Entwicklung_'
'Zeit_'
'daß_'
'h_'
'Menschen_'
'würde_'
'after_'
'Jahren_'
'today_'
'There_'
'part_'
'Was_'
'So_'
'What_'
'As_'
'long_'
'said_'
'ihrer_'
'ihr_'
'Er_'
'sollten_'
'international_'
'dann_'
'dies_'
'own_'
'Parlament_'
'last_'
'number_'
'neue_'
'order_'
'ion_'
'jedoch_'
'sondern_'
'He_'
'000_'
'sollte_'
'9_'
' _'
'place_'
'too_'
'area_'
'rights_'
'measures_'
'growth_'
'Länder_'
'neuen_'
'bin_'
'unsere_'
'possible_'
'"_'
'hotel_'
'then_'
'before_'
'denen_'
'future_'
'does_'
'Aber_'
'“ _'
'think_'
' '_'
'andere_'
'still_'
'services_'
'already_'
'set_'
'ohne_'
'bereits_'
'Welt_'
'say_'
'global_'
'doch_'
'jetzt_'
'case_'
'They_'
'him_'
'Rat_'
'wieder_'
'aid_'
'z_'
'within_'
'United_'
'don_'
'Ein_'
'zwei_'
'” _'
'machen_'
'high_'
'le_'
'geht_'
'back_'
'therefore_'
'help_'
'c_'
'Wie_'
'seiner_'
'ihren_'
'down_'
'20_'
'energy_'
'USA_'
'level_'
'dazu_'
'No_'
'Frau_'
'soll_'
'available_'
'point_'
'particular_'
'ation_'
'Rahmen_'
'three_'
'könnte_'
'free_'
'better_'
'Informationen_'
' % _'
'fact_'
'without_'
'15_'
'used_'
'Ihnen_'
'since_'
'schon_'
'example_'
'etwas_'
'trade_'
'come_'
'Frage_'
'denn_'
'course_'
'believe_'
'Mit_'
'areas_'
'E_'
'law_'
'far_'
'ers_'
'great_'
'Land_'
'further_'
'wäre_'
'weil_'
'rules_'
'human_'
'30_'
'including_'
'se_'
'Eine_'
'2009_'
'state_'
'selbst_'
'million_'
'Community_'
'C_'
'process_'
'less_'
'change_'
'ne_'
'Zusammenarbeit_'
'gut_'
'Regierung_'
'ensure_'
'allen_'
'economy_'
'next_'
'find_'
'darauf_'
'security_'
'give_'
'based_'
'Bereich_'
'p_'
'why_'
'2000_'
';_'
'rs_'
'ganz_'
'Unterstützung_'
'B_'
'sector_'
'means_'
'power_'
'going_'
'unserer_'
'role_'
'while_'
'ts_'
'provide_'
'did_'
'These_'
'issue_'
'State_'
'Committee_'
'waren_'
'view_'
'different_'
'day_'
'dafür_'
'access_'
'viel_'
'action_'
'viele_'
'problem_'
'common_'
'cannot_'
'Richtlinie_'
'während_'
'proposal_'
'programme_'
'finden_'
'few_'
'citizens_'
'put_'
'insbesondere_'
'ge_'
'meine_'
'einige_'
'Ländern_'
'Lage_'
'wo_'
'tion_'
'Euro_'
'business_'
'wollen_'
'making_'
'clear_'
'situation_'
'sagen_'
'current_'
'12_'
'el_'
'large_'
'got_'
'’ _'
'nun_'
'non_'
'real_'
'ch_'
'? _'
'ihn_'
'11_'
'drei_'
'Du_'
'become_'
'agreement_'
'2006_'
'la_'
'lich_'
'best_'
'Dies_'
'per_'
'full_'
'kommen_'
'et_'
'each_'
'life_'
'term_'
'room_'
'problems_'
'necessary_'
'taken_'
'private_'
'ns_'
'ja_'
'again_'
'To_'
'Staaten_'
'lassen_'
'health_'
'allem_'
'tun_'
'protection_'
'decision_'
'Ziel_'
'Nach_'
'authorities_'
'Bürger_'
'products_'
'investment_'
'alles_'
'Jahre_'
'00_'
'however_'
'All_'
'2007_'
'question_'
'ob_'
'hatte_'
'Bank_'
'service_'
'little_'
'around_'
'EUR_'
'50_'
'2008_'
'money_'
'2002_'
'needs_'
'every_'
'\u_'
'Sicherheit_'
'2004_'
'seit_'
'crisis_'
'2001_'
'off_'
'major_'
'cooperation_'
'politischen_'
'D_'
'2005_'
'main_'
'during_'
'issues_'
'dich_'
'small_'
'old_'
'institutions_'
'companies_'
'u_'
'debate_'
'competition_'
'budget_'
'x_'
'result_'
'letzten_'
'Internet_'
'Ihre_'
'markets_'
'At_'
'Arbeit_'
'whether_'
'regional_'
'data_'
'continue_'
'Fall_'
'ter_'
'projects_'
'liegt_'
'basis_'
'another_'
'stellen_'
'steht_'
'policies_'
'ce_'
'line_'
'key_'
'given_'
'T_'
'Politik_'
'interest_'
'framework_'
'legal_'
'worden_'
'gen_'
'2003_'
'second_'
'quality_'
'ment_'
'davon_'
'When_'
'sehen_'
'conditions_'
'."_'
'she_'
'rate_'
'However_'
'Germany_'
'Auch_'
'together_'
'certain_'
'ab_'
'On_'
'weiter_'
'ern_'
'seinen_'
'proposed_'
'nichts_'
'kein_'
'Ende_'
'something_'
'ies_'
'P_'
'Herrn_'
'geben_'
'Teil_'
'besteht_'
'Für_'
'os_'
'bar_'
'2010_'
'zwar_'
'women_'
'really_'
'mal_'
'Bei_'
' | _'
' [[_'
'weitere_'
'open_'
'erhalten_'
'Probleme_'
'America_'
'systems_'
'New_'
'management_'
'local_'
'increase_'
'europäische_'
'called_'
'Vorschlag_'
'never_'
'ihm_'
'dabei_'
'beim_'
'Bedeutung_'
'Auf_'
'might_'
'hope_'
'transport_'
'efforts_'
'Recht_'
'Japan_'
'period_'
'25_'
'Kommissar_'
'öffentlichen_'
'führen_'
'System_'
'Oh_'
'Art_'
'present_'
'möglich_'
'dir_'
'adopted_'
'Fragen_'
'vote_'
'society_'
'progress_'
'once_'
'With_'
'einmal_'
'control_'
'Treaty_'
'32_'
'region_'
'politische_'
'members_'
'gegenüber_'
'always_'
'France_'
'working_'
'risk_'
'ersten_'
'bringen_'
'ble_'
'yet_'
'Millionen_'
'position_'
'Als_'
'environment_'
'legislation_'
'kommt_'
'innerhalb_'
'Region_'
'terms_'
'Wirtschaft_'
'research_'
'food_'
'deren_'
'city_'
'Directive_'
'third_'
'let_'
'einfach_'
'children_'
'Namen_'
'group_'
'done_'
'Well_'
'Rolle_'
'stehen_'
'bietet_'
'particularly_'
'close_'
'away_'
'German_'
'weniger_'
'look_'
'ihnen_'
'approach_'
'O_'
'Mrs_'
'tax_'
'resources_'
'least_'
'home_'
'billion_'
'Doch_'
'sten_'
'respect_'
'ins_'
'Problem_'
'Group_'
'Court_'
'100_'
'wirklich_'
'große_'
'education_'
'unterstützen_'
'stay_'
'general_'
'dort_'
'Parlaments_'
'How_'
'proposals_'
'ieren_'
'R_'
'wissen_'
'strategy_'
'EIB_'
' _'
'stellt_'
'sollen_'
'price_'
'nationalen_'
'hin_'
'Iran_'
'Da_'
'single_'
'ry_'
'f_'
'Weg_'
'Russia_'
'Deutschland_'
'often_'
'nd_'
'matter_'
'internationalen_'
'industry_'
'form_'
'daher_'
'wirtschaftlichen_'
'production_'
'One_'
'recent_'
'plan_'
'euro_'
'Israel_'
'nt_'
'b_'
'water_'
'ons_'
'age_'
'Zusammenhang_'
'Leben_'
'. - _'
' '
'weiß_'
'shall_'
'keit_'
'following_'
'aller_'
'Zukunft_'
'Ziele_'
'Ja_'
'ie_'
'em_'
'capital_'
'großen_'
'fully_'
'found_'
'etwa_'
'call_'
'N_'
'whole_'
'standards_'
'gehen_'
'especially_'
'chen_'
'account_'
'safety_'
'rather_'
'past_'
'offers_'
'governments_'
'ever_'
'reform_'
'include_'
'implementation_'
'Frauen_'
'ty_'
'foreign_'
'Wachstum_'
'Now_'
'tell_'
'co_'
'Zimmer_'
'World_'
'Hilfe_'
': "_'
'16_'
'indem_'
'Um_'
'UN_'
'others_'
'könnten_'
'ischen_'
'com_'
'besser_'
'Weise_'
'Gemeinschaft_'
'towards_'
'nehmen_'
'low_'
'greater_'
'Mittel_'
'M_'
'House_'
'weiterhin_'
'thing_'
'needed_'
'ago_'
'F_'
'start_'
'employment_'
'eigenen_'
'costs_'
'things_'
'project_'
'play_'
'ren_'
'months_'
'men_'
'ig_'
'beiden_'
'rates_'
'liche_'
'left_'
'itself_'
'American_'
' ( _'
'until_'
'meiner_'
'gemacht_'
'fast_'
'effective_'
'Rates_'
'Ihr_'
'funds_'
'environmental_'
'developing_'
'among_'
'Umsetzung_'
'opinion_'
'meisten_'
'led_'
'erreichen_'
'banks_'
'Strategie_'
'1999_'
'taking_'
'rn_'
'gesagt_'
'create_'
'Programm_'
'unseren_'
'regard_'
'nden_'
'improve_'
'darüber_'
'across_'
'results_'
'regions_'
'short_'
'nen_'
'name_'
'land_'
'having_'
'climate_'
'Minister_'
'Europas_'
'würden_'
'though_'
'lichen_'
'enden_'
'Daten_'
'Article_'
'specific_'
'prices_'
'hand_'
'debt_'
'"._'
'states_'
'sen_'
'page_'
'nie_'
'Schutz_'
'40_'
'th_'
'sowohl_'
'democracy_'
'central_'
'cases_'
'Ebene_'
'total_'
'related_'
'Möglichkeit_'
'Förderung_'
'18_'
'wichtig_'
'welche_'
'ted_'
'sure_'
'keinen_'
'hätte_'
'enough_'
'che_'
'November_'
'Man_'
'Investitionen_'
'Auswirkungen_'
'sche_'
'resolution_'
'programmes_'
'macht_'
'almost_'
'Verfügung_'
'Artikel_'
'schen_'
'concerns_'
'concerned_'
'Press_'
'Kinder_'
'G_'
' $_'
'wish_'
'ss_'
'several_'
'mein_'
'ls_'
'impact_'
'higher_'
'activities_'
'value_'
'ic_'
'field_'
'Hier_'
'reason_'
'que_'
'halten_'
'gentlemen_'
'forward_'
'bring_'
'vielleicht_'
'besonders_'
'allerdings_'
'She_'
'.”_'
'using_'
'sogar_'
'ous_'
'opportunity_'
'iert_'
'ask_'
'September_'
'L_'
'werde_'
'staff_'
'rapporteur_'
'provided_'
'hinaus_'
'force_'
'cost_'
'Zugang_'
'Italy_'
'Initiative_'
'IP_'
'strong_'
'military_'
'Seite_'
'East_'
'pro_'
'nächsten_'
'lead_'
'ert_'
'company_'
'aufgrund_'
'Thema_'
'Grundlage_'
'responsible_'
'longer_'
'International_'
'14_'
'13_'
'special_'
'significant_'
'serious_'
'sei_'
'jobs_'
'early_'
'Website_'
'Ansicht_'
'young_'
'seinem_'
'les_'
'ische_'
'Nein_'
'Grund_'
'ar_'
'Verfahren_'
'|_'
'mean_'
'24_'
'various_'
'schaffen_'
'ner_'
'directive_'
'deal_'
'Frankreich_'
'workers_'
'vielen_'
'sicher_'
'meeting_'
'located_'
'integration_'
'four_'
'border_'
'air_'
'Programme_'
'Mio_'
'Lösung_'
'welcome_'
'ting_'
'step_'
'makes_'
'ihrem_'
'hen_'
'agree_'
'Geld_'
'Fraktion_'
'son_'
'rooms_'
'please_'
'peace_'
'eu_'
'wohl_'
'show_'
'remain_'
'principle_'
'positive_'
'los_'
'leaders_'
'civil_'
'bleiben_'
'Stadt_'
'Let_'
'parties_'
'funding_'
'feel_'
'face_'
'demand_'
'darin_'
'bieten_'
'Development_'
'weit_'
'everything_'
'difficult_'
'Fortschritte_'
'Central_'
'wichtige_'
'thank_'
'nde_'
'meet_'
'keep_'
'ity_'
'importance_'
'focus_'
'date_'
'Beispiel_'
'April_'
'ia_'
'hast_'
'freedom_'
'democratic_'
'daran_'
'Why_'
'Weitere_'
'subject_'
'groups_'
'five_'
'erste_'
'My_'
'Greece_'
'sustainable_'
'relations_'
'offer_'
'member_'
'list_'
'levels_'
'gilt_'
'excellent_'
'Kosten_'
'Behörden_'
'verschiedenen_'
'themselves_'
'run_'
'potential_'
'kind_'
'interests_'
'fight_'
'existing_'
'dessen_'
'GDP_'
'Form_'
'Bereichen_'
' & _'
'zusammen_'
'involved_'
'internal_'
'increased_'
'gemeinsamen_'
'fall_'
'days_'
'car_'
'bitte_'
'X_'
'Our_'
'More_'
'wegen_'
'unterstützt_'
'technology_'
'responsibility_'
'negotiations_'
'ive_'
'challenges_'
'allow_'
'achieve_'
'UK_'
'Situation_'
'Indeed_'
'Africa_'
'w_'
'modern_'
'location_'
'light_'
'genau_'
'doing_'
'deutlich_'
'century_'
'ben_'
'Vereinigten_'
'Ukraine_'
'U_'
'Landes_'
'General_'
'Dienstleistungen_'
'words_'
'population_'
'points_'
'nuclear_'
'night_'
'igen_'
'eren_'
'currently_'
'big_'
'appropriate_'
'Kollegen_'
'Fund_'
'60_'
'19_'
'zurück_'
'stand_'
'sozialen_'
'questions_'
'nothing_'
'experience_'
']] _'
'Dieser_'
'By_'
': „_'
'21_'
'side_'
'sagte_'
'na_'
'ladies_'
'hatten_'
'due_'
'decisions_'
'building_'
'benefit_'
'Verhandlungen_'
'Madam_'
'Beziehungen_'
' ) _'
'– _'
'thus_'
'seen_'
'road_'
'house_'
'care_'
'attention_'
'Seiten_'
'M'
'An_'
'2013_'
'addition_'
'Entscheidung_'
'After_'
'", _'
' ..._'
'procedure_'
'operation_'
'income_'
'half_'
'consumers_'
'above_'
'Portugal_'
'Mal_'
'French_'
'Bevölkerung_'
'Aus_'
'wide_'
'views_'
'true_'
'rise_'
'provides_'
'move_'
'gute_'
'commitment_'
'changes_'
'arbeiten_'
'V_'
'Of_'
'Institutionen_'
'understand_'
'training_'
'simply_'
'exchange_'
'ens_'
'ebenfalls_'
'decided_'
'Vorschriften_'
'Spain_'
'Regionen_'
'Mitglieder_'
'://_'
'range_'
'pay_'
'objectives_'
'möchten_'
'initiative_'
'http_'
'glaube_'
'bereit_'
'T'
'Chinese_'
'unser_'
'thought_'
'solche_'
'share_'
'reforms_'
'quite_'
'poor_'
'lot_'
'job_'
'Do_'
'Deshalb_'
'schnell_'
'personal_'
'live_'
'individual_'
'centre_'
'beispielsweise_'
'behalf_'
'bedeutet_'
'agreements_'
'Turkey_'
'wenig_'
'reduce_'
'press_'
'lange_'
'application_'
'Russland_'
'Regierungen_'
'Gruppe_'
'EC_'
'17_'
' : _'
'solution_'
'required_'
'jeder_'
'ions_'
'gerade_'
'family_'
'essential_'
'cultural_'
'ck_'
'amendments_'
'address_'
'Members_'
'II_'
'H'
'Dieses_'
'Bezug_'
'BIP_'
' (+_'
'top_'
'tes_'
'regulation_'
'nämlich_'
'handelt_'
'easy_'
'dürfen_'
'developed_'
'Krise_'
'Hintergrund_'
'Alle_'
'return_'
'ors_'
'einigen_'
'community_'
'Verbraucher_'
'Tag_'
'Meinung_'
'vier_'
'technical_'
'network_'
'europa_'
'direct_'
'consider_'
'Wettbewerb_'
'version_'
'stop_'
'site_'
'sch_'
'remains_'
'outside_'
'oil_'
'idea_'
'helfen_'
'gemeinsame_'
'fünf_'
'benefits_'
'Yes_'
'South_'
'Republic_'
'Aufgabe_'
'release_'
'politik_'
'near_'
'ke_'
'internationale_'
'gt_'
'darf_'
'bzw_'
'V'
'Ergebnisse_'
'Außerdem_'
'ways_'
'unternehmen_'
'joint_'
'held_'
'gas_'
'erreicht_'
'Just_'
'Interesse_'
'Government_'
'Geschichte_'
'Bekämpfung_'
'2014_'
'wirtschaftliche_'
'procedures_'
'ness_'
'majority_'
'likely_'
'erst_'
'either_'
'ds_'
'derzeit_'
'capacity_'
'came_'
'WTO_'
'Verbesserung_'
'Markt_'
'Jahres_'
'Iraq_'
'Gesellschaft_'
'Ausschuss_'
'took_'
'times_'
'opportunities_'
'nutzen_'
'natürlich_'
'known_'
'gehört_'
'favour_'
'cy_'
'created_'
'actions_'
'Verordnung_'
'Some_'
'Office_'
' -_'
'upon_'
'sprechen_'
'six_'
'setzen_'
'promote_'
'established_'
'ende_'
'balance_'
'Vorschläge_'
'Forschung_'
'Dollar_'
'ze_'
'stability_'
'ngen_'
'effect_'
'direkt_'
'didn_'
'actually_'
'Umwelt_'
'Service_'
'Hinblick_'
'Demokratie_'
'un_'
'statt_'
'gab_'
'betrifft_'
'Vertrag_'
'Moreover_'
'Abkommen_'
'website_'
'prevent_'
'objective_'
'notwendig_'
'mind_'
'ling_'
'etc_'
'ent_'
'develop_'
'assistance_'
'Justice_'
'Ergebnis_'
'Don_'
'Background_'
'takes_'
'ste_'
'ra_'
'fundamental_'
'economies_'
'content_'
'befindet_'
'bank_'
'anything_'
'Today_'
'EG_'
'Bedingungen_'
'turn_'
'text_'
'sense_'
'recently_'
'effects_'
'deshalb_'
'Reihe_'
'Präsidenten_'
'Menschenrechte_'
'India_'
'Handel_'
' / _'
' . _'
'traditional_'
'talk_'
'table_'
'leading_'
'einschließlich_'
'ebenso_'
'd'
'coming_'
'bleibt_'
'W_'
'TV_'
'Macht_'
'Beitrag_'
'2020_'
'try_'
'tragen_'
'party_'
'online_'
'klar_'
'hours_'
'gewährleisten_'
'fördern_'
'expected_'
'comes_'
'clearly_'
'accept_'
'Not_'
'Milliarden_'
'27_'
'weltweit_'
'vergangenen_'
'soon_'
'scheint_'
'requirements_'
'protect_'
'body_'
'bad_'
'alten_'
'ability_'
'Von_'
'Schaffung_'
'Mann_'
'Economic_'
'December_'
'Brussels_'
'„_'
'risks_'
'reach_'
'poverty_'
'natural_'
'lediglich_'
'later_'
'financing_'
'final_'
'bekannt_'
'Zu_'
'West_'
'L'
'Bemühungen_'
'neu_'
'führt_'
'active_'
'Paris_'
'Obama_'
'Integration_'
'Haus_'
'Even_'
'Aussprache_'
'öffentliche_'
'stark_'
'sea_'
'rule_'
'nature_'
'movement_'
'looking_'
'km_'
'gonna_'
'ging_'
'context_'
'certainly_'
'brauchen_'
'Türkei_'
'Krieg_'
'Gesundheit_'
'wichtigsten_'
'seems_'
'recht_'
'product_'
'person_'
'lässt_'
'living_'
'jeden_'
'heit_'
'gemeinsam_'
'finance_'
'entfernt_'
'cht_'
'along_'
'June_'
'23_'
'hard_'
'fiscal_'
'dialogue_'
'conflict_'
'ate_'
'Ihrer_'
'Bush_'
'Anwendung_'
'2011_'
'Öffentlichkeit_'
'visit_'
'values_'
'previous_'
'meinen_'
'leben_'
'infrastructure_'
'businesses_'
'ant_'
'Your_'
'Spanien_'
'Schritt_'
'London_'
'Kontrolle_'
'Ist_'
'British_'
'zeigen_'
'x'
'whose_'
'v'
'town_'
'success_'
'response_'
'provisions_'
'principles_'
'lack_'
'je_'
'heißt_'
'goods_'
'contact_'
'asked_'
'ary_'
'alone_'
'act_'
'Vor_'
'Verantwortung_'
'Policy_'
'May_'
'Erfolg_'
'ECB_'
'Durch_'
'Debatte_'
'22_'
'wrong_'
'providing_'
'minutes_'
'ks_'
'insgesamt_'
'ful_'
'erklärte_'
'emissions_'
'breakfast_'
'anti_'
'Y_'
'Regulation_'
'Affairs_'
'soziale_'
'media_'
'konnte_'
'kam_'
'indeed_'
'ige_'
'ierung_'
'growing_'
'gegeben_'
'gar_'
'erung_'
'einzelnen_'
'dar_'
'besten_'
'Personen_'
'Industrie_'
'Gebiet_'
'Abstimmung_'
'. - (_'
'ur_'
'unserem_'
'sectors_'
'lt_'
'love_'
'leave_'
'late_'
'language_'
'industrial_'
'erforderlich_'
'consumer_'
'beitragen_'
'apply_'
'annual_'
'according_'
'Möglichkeiten_'
'Italien_'
'Finally_'
'Erweiterung_'
'Dank_'
'Banken_'
'ziehen_'
'won_'
'via_'
'ta_'
'software_'
'reached_'
'increasing_'
'history_'
'hab_'
'fest_'
'administration_'
'Western_'
'N'
'K_'
'1998_'
'“, _'
'é_'
'wichtigen_'
'rt_'
'require_'
'reasons_'
'model_'
'ments_'
'ma_'
'liegen_'
'heart_'
'enlargement_'
'culture_'
'Warum_'
'Since_'
'S'
'Kampf_'
'Information_'
'Gründen_'
'Dann_'
'B'
'2012_'
'verwendet_'
'stage_'
'request_'
'partners_'
'creation_'
'agreed_'
'Rechtsvorschriften_'
'Lisbon_'
'Kommissarin_'
'Interessen_'
'Darüber_'
'Beihilfen_'
'70_'
'ändern_'
'zen_'
'weiteren_'
'week_'
'muß_'
'ler_'
'hold_'
'fragen_'
'former_'
'ermöglichen_'
'ca_'
'angenommen_'
'amount_'
'aim_'
'Staat_'
'Seit_'
'P'
'Nicht_'
'January_'
'Is_'
'Bildung_'
'Berlin_'
'Agreement_'
'500_'
'verbessern_'
'v_'
'type_'
'structural_'
'game_'
'fen_'
'fair_'
'external_'
'enjoy_'
'beautiful_'
'York_'
'While_'
'Social_'
'Rechte_'
'Indien_'
'Damit_'
'80_'
'voll_'
'strategic_'
'steps_'
'space_'
'regime_'
'program_'
'partner_'
'package_'
'medium_'
'limited_'
'ken_'
'i'
'hinsichtlich_'
'extremely_'
'ec_'
'directly_'
'bist_'
'agenda_'
'Projekte_'
'Presidency_'
'Preis_'
'Juni_'
'From_'
'supported_'
'strengthen_'
'spielen_'
'rund_'
'hoffe_'
'eben_'
'board_'
'bed_'
'anderer_'
'agricultural_'
'additional_'
'[_'
'X'
'Tatsache_'
'Mitglied_'
'March_'
'Liste_'
'Grenzen_'
'Beschäftigung_'
'Asia_'
'Also_'
'Abgeordneten_'
'200_'
'throughout_'
'size_'
'similar_'
'rest_'
'parts_'
'moment_'
'included_'
'gleichzeitig_'
'gleich_'
'geführt_'
'deficit_'
'darum_'
'concern_'
'Uhr_'
'Griechenland_'
'Daher_'
'Bestimmungen_'
'45_'
' :_'
'à_'
'wären_'
'unemployment_'
'told_'
'tatsächlich_'
'study_'
'oft_'
'globalen_'
'genug_'
'follow_'
'creating_'
'consequences_'
'aspects_'
'achieved_'
'Regeln_'
'Reformen_'
'Plan_'
'Nutzung_'
'Ihren_'
'Hand_'
'Dialog_'
'Auffassung_'
'.“_'
'&_'
'user_'
'sorgen_'
'self_'
'presented_'
'plans_'
'matters_'
'lives_'
'guarantee_'
'euch_'
'est_'
'concerning_'
'check_'
'beginning_'
'basic_'
'art_'
'added_'
'Zahl_'
'War_'
'Terrorismus_'
'Security_'
'Party_'
'National_'
'Kontakt_'
'Here_'
'Convention_'
'wanted_'
'spending_'
'ring_'
'reduction_'
'maßnahmen_'
'labour_'
'includes_'
'falls_'
'ey_'
'event_'
'e'
'below_'
'Vice_'
'Russian_'
'Richtung_'
'Ort_'
'Hey_'
'Herren_'
'Antwort_'
'Anfang_'
'waste_'
'warum_'
'rural_'
'purpose_'
'ien_'
'highly_'
'findet_'
'death_'
'carried_'
'brought_'
'bestehen_'
'average_'
'Vielleicht_'
'O'
'IT_'
'Einführung_'
'Come_'
'violence_'
'terrorism_'
'started_'
'red_'
'pressure_'
'obwohl_'
'nice_'
'mail_'
'instruments_'
'infringement_'
'inflation_'
'ground_'
'ft_'
'contribution_'
'considered_'
'complete_'
'center_'
'answer_'
'ally_'
'allein_'
'affected_'
'Punkt_'
'Prozess_'
'Erklärung_'
'Afghanistan_'
'? - _'
'zehn_'
'verstehen_'
'ure_'
'supply_'
'station_'
'sound_'
'shown_'
'requires_'
'post_'
'performance_'
'p'
'overall_'
'networks_'
'net_'
'mentioned_'
'huge_'
'h'
'effort_'
'cross_'
'credit_'
'ated_'
'accession_'
'Republik_'
'Middle_'
'Herausforderungen_'
'Energie_'
'wahrscheinlich_'
'verhindern_'
'successful_'
'sieht_'
'practice_'
'hätten_'
'entwickelt_'
'domestic_'
'currency_'
'contains_'
'bisher_'
'although_'
'Stellungnahme_'
'Nur_'
'La_'
'Kosovo_'
'Italian_'
'Haushalts'
'-, _'
'zeigt_'
'works_'
'verfügt_'
'shows_'
'relevant_'
'pages_'
'organisations_'
'lost_'
'gesehen_'
'gesamten_'
'events_'
'eurozone_'
'effectively_'
'committee_'
'choice_'
'Restaurant_'
'Nationen_'
'Innovation_'
'Gelegenheit_'
'Dezember_'
'35_'
'ves_'
'verschiedene_'
'treffen_'
'treatment_'
'setting_'
'priority_'
'phone_'
'meinem_'
'jede_'
'innovation_'
'independent_'
'ihres_'
'facilities_'
'efficient_'
'competitiveness_'
'competitive_'
'challenge_'
'bestimmten_'
'behind_'
'Während_'
'Monaten_'
'Jetzt_'
'Finanzierung_'
'Entscheidungen_'
'Einsatz_'
'90_'
'28_'
'send_'
'res_'
'representatives_'
'receive_'
'monetary_'
'largest_'
'justice_'
'getting_'
'gehören_'
'forces_'
'erster_'
'di_'
'commercial_'
'charge_'
'aware_'
'alternative_'
'add_'
'Wettbewerbsfähigkeit_'
'Gewalt_'
'EN_'
'Damen_'
'D'
'Berichterstatter_'
'August_'
'2015_'
'voted_'
'simple_'
'operations_'
'neuer_'
'mobile_'
'leisten_'
'latest_'
'kleinen_'
'jedes_'
'isch_'
'gleichen_'
'getan_'
'fishing_'
'ermöglicht_'
'designed_'
'customers_'
'communication_'
'closed_'
'ance_'
'Wasser_'
'Wahl_'
'Kraft_'
'Konferenz_'
'Folgen_'
'First_'
',” _'
'“_'
'wants_'
'union_'
'siehe_'
'schaft_'
'scale_'
'richtig_'
'rich_'
'quickly_'
'popular_'
'paid_'
'monitoring_'
'legislative_'
'knowledge_'
'ht_'
'entwickeln_'
'enable_'
'conference_'
'clean_'
'ard_'
'allowed_'
'Z'
'Nähe_'
'Nun_'
'Furthermore_'
'F'
'Binnenmarkt_'
'Ausschusses_'
'31_'
'1990_'
'ton_'
'technologies_'
'speak_'
'setzt_'
'saw_'
'reports_'
'ready_'
'nationale_'
'ings_'
'improving_'
'front_'
'f'
'enthält_'
'ensuring_'
'child_'
'cause_'
'calls_'
'bekommen_'
'ations_'
'assessment_'
'approved_'
'Yeah_'
'Wert_'
'Wer_'
'W'
'Then_'
'Präsidentin_'
'Opfer_'
'Hotels_'
'Dr_'
'Conference_'
'26_'
'trust_'
'threat_'
'restaurant_'
'perhaps_'
'morgen_'
'lose_'
'hear_'
'gestellt_'
'gebracht_'
'danken_'
'damage_'
'completely_'
'befinden_'
'Windows_'
'Verbindung_'
'Markt'
'Landwirtschaft_'
'K'
'Armut_'
'Ansatz_'
'1997_'
'www_'
'review_'
'regards_'
'received_'
'news_'
'morning_'
'ine_'
'increasingly_'
'implemented_'
'illegal_'
'größten_'
'fallen_'
'establish_'
'efficiency_'
'build_'
'bevor_'
'Zum_'
'Wort_'
'Mediterranean_'
'Kunden_'
'I'
'Arbeitnehmer_'
' €_'
'wollte_'
'ums_'
'submitted_'
'scheme_'
'saying_'
'safe_'
'reality_'
'priorities_'
'organisation_'
'org_'
'negative_'
'lower_'
'llen_'
'encourage_'
'elections_'
'deine_'
'consumption_'
'avoid_'
'amerikanischen_'
'Ressourcen_'
'Qualität_'
'North_'
'July_'
'Greek_'
'Dinge_'
'Dabei_'
'­_'
'zuständige_'
'wobei_'
'ship_'
'seines_'
'regarding_'
'probably_'
'paper_'
'kaum_'
'ism_'
'gemäß_'
'friendly_'
'failure_'
'einzige_'
'durchgeführt_'
'denke_'
'dadurch_'
'aktuellen_'
'Yet_'
'Trade_'
'Tage_'
'Rechts'
'Poland_'
'Platz_'
'Natürlich_'
'Nations_'
'Ireland_'
'Gesamt'
'Gefahr_'
'ät_'
'target_'
'solutions_'
'nce_'
'mainly_'
'len_'
'ker_'
'kannst_'
'humanitarian_'
'hinter_'
'head_'
'expect_'
'distribution_'
'computer_'
'Where_'
'Schritte_'
'San_'
'Please_'
'Notwendigkeit_'
'Ko'
'G'
'Co'
'Brüssel_'
'zeit_'
'walk_'
'ties_'
'standard_'
'read_'
'raise_'
'privaten_'
'pool_'
'note_'
'nimmt_'
'month_'
'met_'
'internet_'
'ger_'
'equal_'
'enthalten_'
'else_'
'despite_'
'design_'
'decades_'
'cut_'
'criteria_'
'contribute_'
'cities_'
'chance_'
'c'
'borders_'
'analysis_'
'Vertrauen_'
'Verfassung_'
'Prozent_'
'Produkte_'
'Lösungen_'
'Lissabon_'
'Leute_'
'God_'
'Druck_'
'CO2_'
'Bürgern_'
'Blick_'
'Austria_'
'African_'
'Änderungsantrag_'
'zweite_'
'ying_'
'weapons_'
'versuchen_'
'trotz_'
'test_'
'sechs_'
'school_'
'schließlich_'
'paar_'
'lle_'
'lines_'
'konnten_'
'kleine_'
'hoch_'
'großer_'
'ganzen_'
'g'
'digital_'
'confidence_'
'comprehensive_'
'bringt_'
'aims_'
'Who_'
'Wahlen_'
'Verwendung_'
'Themen_'
'Reform_'
'Parteien_'
'Mitgliedstaat_'
'Its_'
'EZB_'
'Ausdruck_'
'ver_'
'under'
'status_'
'somit_'
'option_'
'jedem_'
'guten_'
'erklärt_'
'complex_'
'beyond_'
'base_'
'b'
'agriculture_'
'Sektor_'
'Rights_'
'Oktober_'
'NATO_'
'Irak_'
'H_'
'DE_'
'Bitte_'
'Arbeits'
'Am_'
'300_'
' ‘_'
'stärker_'
'solidarity_'
'recovery_'
'powers_'
'opening_'
'giving_'
'geschaffen_'
'generation_'
'gelten_'
'frei_'
'features_'
'erzielt_'
'erwarten_'
'direction_'
'Unsere_'
'Tatsächlich_'
'Regelung_'
'R'
'Pakistan_'
'Only_'
'Linie_'
'Kingdom_'
'Fällen_'
'äußerst_'
'weg_'
'weeks_'
'verfahren_'
'office_'
'nor_'
'mus_'
'massive_'
'keyword_'
'k'
'integrated_'
'image_'
'heard_'
'genommen_'
'file_'
'farmers_'
'failed_'
'equipment_'
'da'
'cs_'
'crucial_'
'concluded_'
'cal_'
'became_'
'ad_'
'See_'
'People_'
'Partei_'
'März_'
'Märkte_'
'Juli_'
'J_'
'Höhe_'
'Good_'
'Barcelona_'
'Are_'
'Allerdings_'
'A'
'ß_'
'Änderung_'
'später_'
'signed_'
'reducing_'
'payments_'
'offered_'
'meines_'
'medical_'
'mag_'
'instrument_'
'instead_'
'happen_'
'glauben_'
'friends_'
'folgt_'
'details_'
'committed_'
'cher_'
'carry_'
'beide_'
'angesichts_'
'Such_'
'Park_'
'Organisation_'
'Initiativen_'
'Heute_'
'Den_'
'Ausgaben_'
'Aufmerksamkeit_'
'75_'
'wer_'
'ssen_'
'speed_'
'sir_'
'ses_'
'phase_'
'participation_'
'möglicherweise_'
'music_'
'initiatives_'
'implement_'
'ideal_'
'goal_'
'geworden_'
'entire_'
'draft_'
'double_'
'del_'
'card_'
'beschlossen_'
'Zudem_'
'Zeitpunkt_'
'Pressemitteilung_'
'Preise_'
'Palestinian_'
'Market_'
'Du'
'Czech_'
'C'
'Bereiche_'
'Beitritt_'
' ('
'Änderungen_'
'zweiten_'
'zahlen_'
'worked_'
'tomorrow_'
'task_'
'sub_'
'sh_'
'sent_'
'reviews_'
'relation_'
'regionalen_'
'regionale_'
'produce_'
'official_'
'innovative_'
'index_'
'ideas_'
'ian_'
'guidelines_'
'exports_'
'construction_'
'bus_'
'built_'
'book_'
'banking_'
'aufgenommen_'
'applications_'
'administrative_'
'Woche_'
'Systems_'
'Software_'
'Risiken_'
'Obwohl_'
'Medien_'
'Korea_'
'Enterprise_'
'Dazu_'
'%._'
'Ä'
'verfügen_'
'uni'
'tions_'
'structure_'
'scientific_'
'provision_'
'original_'
'leadership_'
'ität_'
'investments_'
'ier_'
'häufig_'
'gs_'
'everyone_'
'election_'
'eigentlich_'
'eigene_'
'developments_'
'braucht_'
'bessere_'
'bald_'
'außerdem_'
'authority_'
'] _'
'Untersuchung_'
'Transparenz_'
'Polen_'
'Mai_'
'Kultur_'
'Europeans_'
'Barroso_'
'Angst_'
'Agenda_'
', '
'überhaupt_'
'z'
'wichtiger_'
'went_'
'völlig_'
'ue_'
'transparent_'
'ster_'
'staatliche_'
'secure_'
'practices_'
'oben_'
'mission_'
'intended_'
'granted_'
'forms_'
'eher_'
'circumstances_'
'bereich_'
'aimed_'
'Transport_'
'Stärkung_'
'Steuer'
'Stelle_'
'Sache_'
'Raum_'
'Projekt_'
'Mitteilung_'
'Meine_'
'Mail_'
'John_'
'His_'
'Health_'
'Großbritannien_'
'Get_'
'Gebieten_'
'Funktion_'
'Federal_'
'Familie_'
'During_'
'City_'
'Captain_'
'Bild_'
'Anteil_'
'Anstrengungen_'
'@_'
'--_'
'worth_'
'weise_'
'vorgeschlagen_'
'video_'
'verbunden_'
'unique_'
'treten_'
'travel_'
'sta'
'sometimes_'
'politics_'
'pleased_'
'measure_'
'launched_'
'lang_'
'item_'
'gefunden_'
'formal_'
'firms_'
'father_'
'discussed_'
'comfortable_'
'caused_'
'categories_'
'bodies_'
'bestimmte_'
'bare_'
'außerhalb_'
'amendment_'
'advanced_'
'Wo_'
'Vorteile_'
'Text_'
'Schließlich_'
'Königreich_'
'Jo'
'J'
'Gerichtshof_'
'Einfluss_'
'Angesichts_'
'01_'
'.'
'zone_'
'weltweiten_'
'vor'
'verpflichtet_'
'trading_'
'stock_'
'sing_'
'relationship_'
'refer_'
'normal_'
'no'
'material_'
'insurance_'
'il_'
'happened_'
'gewesen_'
'function_'
'evidence_'
'erfüllen_'
'doubt_'
'discussion_'
'critical_'
'cover_'
'compromise_'
'commitments_'
'assets_'
'anders_'
'ahead_'
'adopt_'
'Zur_'
'Vorhaben_'
'Therefore_'
'Tagen_'
'Strategy_'
'Schwierigkeiten_'
'Research_'
'Position_'
'Mehrheit_'
'MEMO_'
'Instrument_'
'High_'
'Eurozone_'
'Energy_'
'Bar_'
'Action_'
': '
'29_'
'“._'
'veröffentlicht_'
'speech_'
'so'
'reference_'
'prepared_'
'practical_'
'politischer_'
'places_'
'on'
'ms_'
'minimum_'
'mehrere_'
'm'
'links_'
'licher_'
'letzte_'
'legen_'
'improved_'
'ierte_'
'hands_'
'halte_'
'facing_'
'easier_'
'dürfte_'
'campaign_'
'beach_'
'activity_'
'Tu'
'Technologien_'
'Politiker_'
'Organisationen_'
'October_'
'Nutzen_'
'Forum_'
'English_'
'Chinas_'
'CE'
'Beginn_'
'Arab_'
'Amerika_'
'Aktivitäten_'
'Afrika_'
'According_'
' € _'
'zudem_'
'talking_'
'pre_'
'opposition_'
'kurz_'
'influence_'
'größte_'
'gives_'
'establishment_'
'drive_'
'demands_'
'cohesion_'
'changed_'
'betreffenden_'
'balanced_'
'außer_'
'allows_'
'adoption_'
'Vereinbarung_'
'Prüfung_'
'Prime_'
'Partnerschaft_'
'Ministers_'
'Many_'
'Januar_'
'Führung_'
'Frieden_'
'Anti'
'1996_'
'1995_'
'übernehmen_'
'yourself_'
'versucht_'
'umgesetzt_'
'solchen_'
'sign_'
'says_'
'ps_'
'police_'
'plant_'
'nach'
'n'
'myself_'
'ln_'
'icht_'
'hohe_'
'größere_'
'erklären_'
'document_'
'ches_'
'bit_'
'arrangements_'
'applied_'
'Vor'
'Version_'
'Na'
'Minuten_'
'Mein_'
'Mar'
'Lebens'
'In'
'Financial_'
'Euro'
'Einklang_'
'ER'
'Chance_'
'Booking_'
'Bewertung_'
'Although_'
' ''_'
' " _'
'Österreich_'
'za'
'writing_'
'word_'
'users_'
'us'
'urban_'
'stated_'
'remember_'
'refugees_'
'reduced_'
'possibility_'
'pass_'
'partnership_'
'nahe_'
'mit'
'gezeigt_'
'genannten_'
'folgen_'
'extra_'
'extent_'
'europäischer_'
'entspricht_'
'entsprechenden_'
'doesn_'
'der'
'dangerous_'
'connection_'
'closely_'
'ces_'
'boost_'
'berücksichtigt_'
'ber_'
'Zeitraum_'
'Viele_'
'Unter_'
'U'
'Thank_'
'Spiel_'
'Spanish_'
'Ra'
'Osten_'
'Groß'
'Go'
'Folge_'
'Fehler_'
'Durchführung_'
'Contacts_'
'Augen_'
'Abend_'
'%, _'
'web_'
'tt_'
'trying_'
'transparency_'
'traffic_'
'tra'
'ter'
'ten'
'sites_'
'seem_'
'schützen_'
'rising_'
'regulations_'
'nis_'
'minute_'
'ise_'
'institutional_'
'htm_'
'gern_'
'gave_'
'export_'
'ess_'
'erwartet_'
'enterprises_'
'emerging_'
'documents_'
'ck'
'buy_'
'budgetary_'
'ber'
'Wo'
'Wann_'
'Vereinten_'
'University_'
'Tagesordnung_'
'Sicherheits'
'Services_'
'Look_'
'Given_'
'Diskussion_'
'Cor'
'CH'
'�_'
'written_'
'vertreten_'
'uses_'
'sufficient_'
'someone_'
'scope_'
'relating_'
'perfect_'
'payment_'
'obligations_'
'migration_'
'looks_'
'lly_'
'investors_'
'implementing_'
'happy_'
'governance_'
'gesamte_'
'genehmigt_'
'ganze_'
'establishing_'
'discuss_'
'decide_'
'crime_'
'britischen_'
'Verwaltung_'
'Standards_'
'Stabilität_'
'Not'
'Netherlands_'
'Management_'
'Inter'
'Ihrem_'
'Ba'
'Al'
' -, _'
'zufolge_'
'vergessen_'
'usually_'
'tic_'
'suchen_'
'students_'
'spend_'
'source_'
'represent_'
'reden_'
'published_'
'professional_'
'productivity_'
'produced_'
'participate_'
'larger_'
'j'
'interested_'
'hohen_'
'handeln_'
'globale_'
'geschlossen_'
'gekommen_'
'freien_'
'erneut_'
'ell_'
'dagegen_'
'consultation_'
'code_'
'class_'
'announced_'
'abge'
'Zentrum_'
'Zeit'
'Waren_'
'St_'
'Solidarität_'
'Regional_'
'Prodi_'
'Prioritäten_'
'Le'
'KMU_'
'Hinsicht_'
'Geschäfts'
'Freiheit_'
'El'
'Einrichtung_'
'E'
'Do'
'Berichte_'
'Anzahl_'
': “_'
'33_'
'Änderungsanträge_'
'zed_'
'thinking_'
'story_'
'sed_'
's'
'reading_'
'prüfen_'
'property_'
'promoting_'
'primary_'
'plus_'
'players_'
'mittel_'
'message_'
'loss_'
'ley_'
'labor_'
'ja'
'guests_'
'fear_'
'erhöhen_'
'ely_'
'elements_'
'eindeutig_'
'do'
'controls_'
'chinesischen_'
'cally_'
'ans_'
'ang_'
'agencies_'
'Zeiten_'
'Werte_'
'Vergangenheit_'
'Unabhängigkeit_'
'Su'
'Sorge_'
'Romania_'
'Punkte_'
'Personal_'
'Par'
'No'
'Neu'
'Idee_'
'Free_'
'Foreign_'
'Because_'
'. '
', "_'
''._'
' &_'
'zusätzliche_'
'zahlreiche_'
'weder_'
'victims_'
'verwenden_'
'ven_'
'thousands_'
'supporting_'
'substantial_'
'sub'
'style_'
'statement_'
'served_'
'ser_'
'schwer_'
'round_'
'regulatory_'
'port_'
'politicians_'
'options_'
'ning_'
'nation_'
'minister_'
'lung_'
'investigation_'
'id_'
'hält_'
'goes_'
'gesetzt_'
'folgenden_'
'finanzielle_'
'estimated_'
'duty_'
'distance_'
'deutschen_'
'continued_'
'attack_'
'addressed_'
'acquisition_'
'Vo'
'Verpflichtungen_'
'Unter'
'Syria_'
'Sweden_'
'Steuern_'
'So'
'Secondly_'
'Report_'
'Männer_'
'Mi'
'Mal'
'Infrastruktur_'
'Hause_'
'Finanz'
'Empfehlungen_'
'Centre_'
'Can_'
'Belgium_'
'AN'
'.)_'
'verfolgen_'
'turned_'
'toward_'
'team_'
'stable_'
'sets_'
'search_'
'save_'
'programs_'
'pe_'
'neben_'
'link_'
'leicht_'
'kosten_'
'join_'
'immigration_'
'her'
'gewährleistet_'
'fine_'
'fields_'
'festgelegt_'
'erfolgreich_'
'emergency_'
'el'
'dy_'
'ding_'
'choose_'
'calling_'
'bestehenden_'
'as'
'Vertreter_'
'Verkehrs'
'Sir_'
'Ri'
'Partner_'
'Most_'
'Kredit'
'Kolleginnen_'
'Irland_'
'IMF_'
'George_'
'Bio'
'16'
'., _'
'zunächst_'
'ys_'
'wealth_'
'vorgelegt_'
'types_'
'tut_'
'trägt_'
'tools_'
'territory_'
'tabled_'
'schwierig_'
'sal'
'ro_'
'pp'
'onen_'
'nächste_'
'mar'
'maintain_'
'introduction_'
'immediately_'
'igkeit_'
'hören_'
'guest_'
'ere_'
'door_'
'disease_'
'congratulate_'
'becoming_'
'Zweitens_'
'Wirtschafts'
'Washington_'
'Waffen_'
'Stunden_'
'Sicht_'
'Präsidentschaft_'
'Partnership_'
'Paper_'
'Pa'
'Human_'
'Her'
'Grund'
'Dienste_'
'Bedenken_'
'Aspekte_'
'AR'
'150_'
'. _'
'и'
'Übernahme_'
'Über_'
'zumindest_'
'worldwide_'
'woman_'
'wider_'
'vital_'
'vision_'
'tu'
'transfer_'
'train_'
'targets_'
'sts_'
'shared_'
'sha'
'ser'
'respond_'
'recommendations_'
'raum_'
'presence_'
'path_'
'olitik_'
'nachhaltige_'
'mis'
'materials_'
'limit_'
'leader_'
'introduced_'
'immediate_'
'finally_'
'fe_'
'entsprechende_'
'electricity_'
'difference_'
'contacts_'
'conclusion_'
'con_'
'che'
'carbon_'
'broad_'
'bilden_'
'anyone_'
'anderem_'
'accepted_'
'Währung_'
'Vielfalt_'
'Veränderungen_'
'Tat_'
'Public_'
'Programms_'
'Ma'
'Home_'
'Environment_'
'Entschließung_'
'Eastern_'
'CD_'
'Amsterdam_'
'Al_'
'36_'
'160_'
'..." _'
'ß'
'Öl'
'win_'
'unbedingt_'
'suggest_'
'raised_'
'ory_'
'offen_'
'ni'
'lösen_'
'ka_'
'jeweiligen_'
'helpful_'
'green_'
'goals_'
'gewinnen_'
'getroffen_'
'französischen_'
'eingesetzt_'
'dollar_'
'comply_'
'compared_'
'bestimmt_'
'began_'
'ban_'
'au'
'ably_'
'Verringerung_'
'Selbst_'
'RA'
'Produktions'
'Pro'
'Nacht_'
'Meer_'
'Lu'
'Kindern_'
'Kar'
'Industrie'
'Herausforderung_'
'Haupt'
'Gruppen_'
'Globalisierung_'
'Funds_'
'Fonds_'
'Erfahrungen_'
'Energie'
'Einigung_'
'Dar'
'Anstieg_'
'Annahme_'
'09_'
'überzeugt_'
'zi'
'ze'
'voice_'
'van_'
'ut_'
'transition_'
't'
'stärken_'
'sources_'
'sektor_'
'section_'
'religious_'
'planning_'
'nations_'
'linked_'
'leider_'
'inzwischen_'
'ingen_'
'ina'
'ice_'
'himself_'
'fisheries_'
'famous_'
'express_'
'entsprechend_'
'enter_'
'demokratischen_'
'degree_'
'darstellt_'
'core_'
'contract_'
'comments_'
'cars_'
'begrüße_'
'Wochen_'
'Um'
'Status_'
'Sta'
'RE'
'Produktion_'
'Nachfrage_'
'Konzept_'
'III_'
'Fa'
'Behandlung_'
'Anforderungen_'
'Amendment_'
'400_'
'+_'
'white_'
'voting_'
'vermeiden_'
'tzen_'
'tte_'
'to'
'starting_'
'sagt_'
'pro'
'precisely_'
'park_'
'musste_'
'laid_'
'ji'
'ium_'
'informiert_'
'ical_'
'ho'
'hit_'
'heiten_'
'fund_'
'fordert_'
'fish_'
'ene_'
'dringend_'
'discrimination_'
'concept_'
'candidate_'
'asset_'
'airport_'
'accommodation_'
'Za'
'Vergleich_'
'Tri'
'Technologie_'
'SMEs_'
'Ro'
'Phase_'
'MI'
'Latin_'
'Lassen_'
'Gemeinsamen_'
'Emissionen_'
'Einrichtungen_'
'Da'
'Constitution_'
'Bu'
'Besuch_'
'48_'
'39_'
'Überwachung_'
'zer'
'yesterday_'
'wesentlich_'
'wenige_'
've'
'umfassenden_'
'technischen_'
'staatlichen_'
'ships_'
'seven_'
'restaurants_'
'represents_'
'record_'
'programm_'
'president_'
'ourselves_'
'markt_'
'launch_'
'kommenden_'
'jene_'
'ierten_'
'hoch'
'heutigen_'
'he'
'greatest_'
'gone_'
'gleiche_'
'fordern_'
'fo'
'files_'
'expressed_'
'evening_'
'erte_'
'einiger_'
'easily_'
'draw_'
'ch'
'biggest_'
'begrüßen_'
'animal_'
'Tel_'
'Station_'
'Sinne_'
'See'
'Schlusselwortern_'
'Saudi_'
'Richtlinien_'
'Regierungs'
'RI'
'Microsoft_'
'Men'
'Maße_'
'Land'
'Israeli_'
'Hälfte_'
'Great_'
'Global_'
'Flughafen_'
'Erachtens_'
'Di'
'De_'
'Datei_'
'Bis_'
'Belgien_'
'Amerikas_'
'Agency_'
'Abschluss_'
'14'
','
'( _'
'о'
'ó'
' % _'
'verstärkt_'
'verringern_'
'vehicles_'
'variety_'
'um'
'tätig_'
'tried_'
'summer_'
'spirit_'
'speaking_'
'series_'
'seek_'
'running_'
'relativ_'
'reflect_'
'quiet_'
'pursue_'
'played_'
'ping_'
'picture_'
'oren_'
'ogen_'
'namely_'
'modified_'
'mark_'
'managed_'
'loans_'
'lernen_'
'introduce_'
'ina_'
'finanziellen_'
'fahren_'
'facilitate_'
'exactly_'
'contracts_'
'considerable_'
'boy_'
'bor'
'bezüglich_'
'benötigen_'
'attacks_'
'ating_'
'anderes_'
'absolutely_'
'Welt'
'Wasser'
'Verwaltungs'
'Privat'
'Name_'
'Nahen_'
'Nach'
'Monate_'
'Mit'
'Jahrhunderts_'
'Ho'
'Herzen_'
'Gaza_'
'Forschungs'
'Einige_'
'Did_'
'Communication_'
'Arbeitslosigkeit_'
'Angebot_'
'99_'
'43_'
'2'
'а'
'übernachten_'
'zunehmend_'
'zation_'
'unten_'
'tre'
'technische_'
'taxation_'
'stimmen_'
'star_'
'skills_'
'situated_'
'ru'
'restrictions_'
'rd_'
'rasch_'
'ra'
'r'
'quote_'
'proposes_'
'profitieren_'
'producers_'
'persons_'
'nationaler_'
'möglichen_'
'method_'
'lichkeit_'
'legt_'
'laws_'
'laufen_'
'jemand_'
'ismus_'
'increases_'
'helping_'
'gs'
'fuel_'
'floor_'
'fixed_'
'erkennen_'
'elle_'
'electronic_'
'diejenigen_'
'detailed_'
'denken_'
'decline_'
'concrete_'
'conclusions_'
'compliance_'
'behandelt_'
'barkeit_'
'aufzu'
'au_'
'associated_'
'animals_'
'achieving_'
'Wirtschafts_'
'Web_'
'Süd'
'SA'
'Roma_'
'Risiko_'
'Putin_'
'Pi'
'Person_'
'Other_'
'Märkten_'
'Kriterien_'
'Koordinierung_'
'Keine_'
'Jahrhundert_'
'Inflation_'
'Handels'
'Frühstück_'
'Ferner_'
'Erstens_'
'Debian_'
'Bulgaria_'
'BE'
'Angelegenheiten_'
'95_'
'11'
')'
'zentrale_'
'wor'
'useful_'
'une'
'umfasst_'
'ub'
'transaction_'
'tor_'
'thanks_'
'summit_'
'stra'
'spent_'
'specifically_'
'ski'
'sicherzustellen_'
'scher_'
'reichen_'
'processes_'
'placed_'
'offering_'
'o'
'ni_'
'nachdem_'
'map_'
'lagen_'
'island_'
'initial_'
'imports_'
'größeren_'
'geändert_'
'ges_'
'genuine_'
'generally_'
'ga'
'families_'
'expenditure_'
'exercise_'
'erhöht_'
'entry_'
'enforcement_'
'eingeführt_'
'durchaus_'
'discussions_'
'difficulties_'
'derzeitigen_'
'defined_'
'darstellen_'
'ci'
'besondere_'
'begrüßt_'
'asylum_'
'apartment_'
'ale_'
'ah_'
'advantage_'
'Zustimmung_'
'Zivilgesellschaft_'
'Verpflichtung_'
'Unser_'
'Twitter_'
'Tre'
'Stellen_'
'Sorgen_'
'Sea_'
'Schulden_'
'Per'
'OK_'
'Luxembourg_'
'Leitlinien_'
'Kind_'
'Irish_'
'Investment_'
'February_'
'EC'
'Code_'
'Basis_'
'Aufgaben_'
'Arbeitsplätze_'
'229_'
'21'
'. (_'
'е'
'zurückge'
'wert_'
'votes_'
'understanding_'
'unbe'
'ul_'
'thereby_'
'sse_'
'sofort_'
'si_'
'server_'
'selected_'
'sales_'
'sage_'
'proceedings_'
'pre'
'pa'
'ngs'
'nder_'
'ming_'
'mechanism_'
'maximum_'
'limits_'
'las_'
'killed_'
'jo'
'independence_'
'ial_'
'hä'
'guter_'
'flexible_'
'fellow_'
'fa'
'exist_'
'est'
'entstehen_'
'ender_'
'deep_'
'customs_'
'bilateral_'
'ali'
'ae'
'accounts_'
'accordance_'
'Zweck_'
'Unternehmens'
'Umwelt'
'Te'
'Sonder'
'Server_'
'SE'
'Red_'
'Ni'
'Mutter_'
'Michael_'
'Luft'
'Kopf_'
'Hungary_'
'Falle_'
'DE'
'Britain_'
'Beteiligung_'
'Bad_'
'Auswahl_'
'Analyse_'
'AG_'
'1791_'
'* _'
'%_'
'" (_'
'yes_'
'wait_'
'wa'
'vorgesehen_'
'ving_'
'tool_'
'supposed_'
'strengthening_'
'strategies_'
'st'
'species_'
'sides_'
'rer_'
'outcome_'
'ordnung_'
'operators_'
'operating_'
'ons'
'ones_'
'ns'
'notwendigen_'
'ng'
'mother_'
'mobility_'
'learn_'
'langfristige_'
'la'
'ku'
'konzentrieren_'
'ko'
'improvements_'
'host_'
'hol'
'hin'
'ger'
'freie_'
'fand_'
'entschieden_'
'endlich_'
'echte_'
'dra'
'dar'
'corporate_'
'conclude_'
'claims_'
'bu'
'beginnen_'
'ball_'
'allgemeine_'
'aktuelle_'
'ain_'
'acht_'
'Wirtschaftswachstum_'
'Uni'
'Tod_'
'Tele'
'THE_'
'Systeme_'
'Structural_'
'Strategien_'
'Soviet_'
'Se'
'Sa'
'Rumänien_'
'Pre'
'Po'
'PC_'
'Noch_'
'Mc'
'LE'
'Hamas_'
'Haltung_'
'Gleichzeitig_'
'Gesundheits'
'Fed_'
'El_'
'Christian_'
'CA'
'Bau'
'Aufbau_'
'Another_'
'Americans_'
'AIDS_'
'ür'
'zurück'
'wing_'
'wind_'
'welfare_'
'wei'
'ware_'
'vast_'
'technological_'
'stimmt_'
'sort_'
'smaller_'
'seeking_'
'resolve_'
'rapidly_'
'protected_'
'planned_'
'planet_'
'perspective_'
'per'
'par'
'oo'
'mehreren_'
'läuft_'
'lo'
'kill_'
'ite_'
'isierung_'
'inside_'
'improvement_'
'hour_'
'historical_'
'highest_'
'grounds_'
'go'
'gelangen_'
'gan'
'followed_'
'eye_'
'eu'
'ete_'
'enen_'
'ee_'
'determined_'
'described_'
'daily_'
'continent_'
'contain_'
'colleagues_'
'cho'
'bt_'
'attempt_'
'arms_'
'anzu'
'ambitious_'
'allgemeinen_'
'akzeptieren_'
'Vorbereitung_'
'Vater_'
'Secretary_'
'Schluss_'
'Rück'
'Rome_'
'Rechnung_'
'Nr_'
'Monat_'
'Michel_'
'Madrid_'
'Lo'
'Justiz_'
'Haben_'
'Gästebewertungen_'
'Green_'
'Grand_'
'Gott_'
'Friedens'
'Finanzierungs'
'Design_'
'David_'
'Club_'
'Center_'
'Ausland_'
'Asien_'
'Anerkennung_'
'1781_'
'überall_'
'í'
'ä'
'ßt_'
'Über'
'za_'
'welcomes_'
'weiterer_'
'vollständig_'
'tz_'
'tz'
'stri'
'sho'
'sel'
'sea'
'schön_'
'schließen_'
'ro'
'ris'
'restructuring_'
'relatively_'
'rapid_'
'parking_'
'organised_'
'opinions_'
'operate_'
'oli'
'officials_'
'niemand_'
'nennen_'
'mention_'
'll'
'lies_'
'ld_'
'largely_'
'l'
'kt_'
'knew_'
'king_'
'kennen_'
'intervention_'
'inter'
'industrie_'
'impossible_'
'ici'
'geschehen_'
'gerne_'
'geprüft_'
'genießen_'
'gen'
'erforderlichen_'
'entscheiden_'
'ellen_'
'earlier_'
'directives_'
'deutsche_'
'criminal_'
'coordination_'
'continues_'
'betrachtet_'
'begin_'
'back'
'ausgestattet_'
'aten_'
'appear_'
'abgeschlossen_'
'Wege_'
'Ver'
'Under_'
'Thanks_'
'Strom'
'Stra'
'Star_'
'Staats'
'Sozial'
'Son'
'SA_'
'Regel_'
'Perhaps_'
'Nu'
'NA'
'Mitteln_'
'Mitgliedschaft_'
'Mexico_'
'Mac'
'Küche_'
'Klimawandel_'
'Japanese_'
'Go_'
'Gemeinschafts'
'Further_'
'Erfahrung_'
'Ent'
'End'
'Eindruck_'
'DVD_'
'Clinton_'
'Bürgerinnen_'
'Both_'
'Beschäftigungs'
'Besch'
'Berichts_'
'Ben'
'Be'
'25'
'1994_'
'17'
'ären_'
'zuständig_'
'ya_'
'ya'
'worse_'
'wesentlichen_'
'vorgeschlagenen_'
'verabschiedet_'
'ver'
'va_'
'unseres_'
'trouble_'
'studies_'
'stress_'
'significantly_'
'selbstverständlich_'
'se'
'sanctions_'
'reich_'
'origin_'
'numerous_'
'numbers_'
'neu'
'multi'
'mu'
'moving_'
'membership_'
'mass_'
'markt'
'lokalen_'
'latter_'
'lage_'
'ker'
'jüngsten_'
'j_'
'ire_'
'ir_'
'ine'
'ik_'
'ier'
'identified_'
'helped_'
'gung_'
'gro'
'games_'
'forget_'
'flexibility_'
'film_'
'fi'
'ff'
'expression_'
'era'
'equipped_'
'enk'
'elsewhere_'
'einge'
'den'
'dead_'
'dachte_'
'compatible_'
'cing_'
'bewusst_'
'betroffenen_'
'beste_'
'berg_'
'bedarf_'
'baren_'
'at'
'appears_'
'Zweifel_'
'Zi'
'Wahl'
'UN'
'Sprache_'
'Sha'
'Revolution_'
'Reise'
'Nice_'
'Na_'
'NE'
'Mitgliedern_'
'Konflikt_'
'Islamic_'
'Haushalt_'
'Han'
'Generation_'
'Frei'
'Framework_'
'England_'
'Engagement_'
'Egypt_'
'EN'
'Cyprus_'
'Brazil_'
'Bewegung_'
'Beschluss_'
'Bar'
'Arten_'
'800_'
'193'
'10'
'03_'
'ón_'
'zuletzt_'
'whom_'
'weisen_'
'warning_'
'ur'
'unterschiedlichen_'
'und'
'truly_'
'tet_'
'tests_'
'taxes_'
'street_'
'strategischen_'
'stets_'
'seriously_'
'science_'
'schriftlich_'
'rein_'
'reaching_'
'putting_'
'purchase_'
'promotion_'
'primarily_'
'politisch_'
'permanent_'
'out'
'nts_'
'nbsp_'
'mid_'
'manage_'
'listed_'
'li'
'learning_'
'lan'
'lag_'
'ju'
'ir'
'instance_'
'impose_'
'il'
'holiday_'
'guy_'
'gestimmt_'
'gesprochen_'
'fire_'
'feature_'
'fe'
'experts_'
'evaluation_'
'eten_'
'erinnern_'
'eri'
'ergeben_'
'era_'
'einander_'
'ehen_'
'ds'
'des'
'deliver_'
'corruption_'
'contrary_'
'collective_'
'cken_'
'cies_'
'changing_'
'car'
'break_'
'bon'
'besonderen_'
'beg'
'bear_'
'ar'
'actual_'
'Wissen_'
'West'
'Vorschlägen_'
'Volks'
'Tro'
'Stellung_'
'Stand_'
'Sohn_'
'Polizei_'
'Op'
'Natur_'
'Nachdem_'
'Mädchen_'
'Muslim_'
'Mindest'
'Los_'
'Linux_'
'Liberalisierung_'
'Le_'
'Krankheiten_'
'Kapital'
'Je'
'Internal_'
'Instrumente_'
'IWF_'
'Gesetz_'
'Gegenteil_'
'Fischerei_'
'Entwurf_'
'EWSA_'
'ES'
'EI'
'Deutsche_'
'Business_'
'Bus'
'Before_'
'Bau_'
'Alles_'
'A5_'
'98_'
'44_'
'3'
'13'
'+ _'
'ö'
'ßen_'
'wiederum_'
'wichtigste_'
'whatever_'
'wenden_'
'waters_'
'warm_'
'vorschriften_'
'treated_'
'tischen_'
'systeme_'
'supports_'
'stelle_'
'sport_'
'sonst_'
'serve_'
'schneller_'
'sa_'
'richtige_'
'ram'
'raising_'
'propose_'
'prevention_'
'parents_'
'ort_'
'oral_'
'operational_'
'opened_'
'ol_'
'moderne_'
'lli'
'leaving_'
'knows_'
'iti'
'io_'
'internationaler_'
'industries_'
'ility_'
'hrt_'
'holding_'
'gerecht_'
'geleistet_'
'führte_'
'funktioniert_'
'figures_'
'extension_'
'excessive_'
'eta'
'essen_'
'entwickelten_'
'entweder_'
'emphasis_'
'elected_'
'eight_'
'dienen_'
'di'
'consensus_'
'communities_'
'claim_'
'begann_'
'army_'
'arbeitet_'
'alte_'
'allowing_'
'Zentralbank_'
'Worte_'
'Wohlstand_'
'Will_'
'Westen_'
'Voraussetzungen_'
'Volk_'
'Versuch_'
'Verkehr_'
'VAT_'
'Ungarn_'
'Two_'
'Treffen_'
'Tra'
'Ta'
'Syrien_'
'Street_'
'Room_'
'Priorität_'
'Pen'
'Online_'
'Oder_'
'Neben_'
'Morgen_'
'Lebensmittel'
'Last_'
'La'
'Kontroll'
'Klein'
'Handels_'
'Google_'
'Ge'
'Februar_'
'Entwicklungs'
'Einkommen_'
'Despite_'
'Darlehen_'
'Dan'
'DI'
'Association_'
'Am'
'Absatz_'
'55_'
'352_'
'1991_'
'02_'
'.._'
'á'
'wodurch_'
'wife_'
'weg'
'war'
'wanna_'
'w'
'verfolgt_'
'verbundenen_'
'urgent_'
'up'
'unter'
'unless_'
'tt'
'talks_'
'sä'
'starken_'
'standing_'
'spread_'
'spa'
'sized_'
'schools_'
'revenue_'
'resulting_'
'reserves_'
'renewable_'
'remove_'
'rechts_'
'pt_'
'prosperity_'
'proper_'
'powerful_'
'offenen_'
'notably_'
'ner'
'nearly_'
'nd'
'lten_'
'letter_'
'leads_'
'lang'
'konkrete_'
'jungen_'
'innen_'
'ing'
'iger_'
'gruppe_'
'grant_'
'gain_'
'friend_'
'feststellen_'
'extend_'
'erm'
'erg'
'enormous_'
'ence_'
'ek'
'ein'
'du'
'differences_'
'danke_'
'connected_'
'coffee_'
'burden_'
'bei'
'angeht_'
'amounts_'
'amerikanische_'
'abroad_'
'Zunächst_'
'White_'
'Vi'
'Verhältnis_'
'Umgebung_'
'Tor'
'Summit_'
'Sti'
'Standpunkt_'
'Site_'
'Sehr_'
'SI'
'Royal_'
'Ph'
'Or'
'Monetary_'
'MA'
'Li'
'Kultur'
'Kern'
'Kenntnis_'
'IA'
'Hotel'
'Gründe_'
'Growth_'
'Gipfel_'
'Fähigkeit_'
'Flug'
'Ein'
'Dienstleistungs'
'Denmark_'
'Auto_'
'Angaben_'
'Air_'
'Aid_'
'64_'
'1989_'
', “_'
'', _'
' "..._'
'т'
'üsse_'
'übrigen_'
'zugunsten_'
'zimmer_'
'zahlreichen_'
'y'
'wollten_'
'wo'
'verloren_'
'verlassen_'
'verbessert_'
'uss'
'truth_'
'terrorist_'
'tar'
'suffering_'
'substances_'
'stronger_'
'starke_'
'stand'
'session_'
'separate_'
'selection_'
'released_'
'relate_'
'owned_'
'otherwise_'
'nis'
'neues_'
'ne'
'multi_'
'modernen_'
'miss'
'middle_'
'meaning_'
'maritime_'
'manchmal_'
'ländlichen_'
'languages_'
'künftige_'
'kt'
'kleiner_'
'ka'
'jährlich_'
'institution_'
'informed_'
'höhere_'
'haus_'
'har'
'ha_'
'gold_'
'früher_'
'fort'
'forced_'
'firm_'
'figure_'
'extended_'
'ern'
'erleichtern_'
'eo'
'ent'
'eln_'
'diversity_'
'definition_'
'defence_'
'darunter_'
'danger_'
'danach_'
'covered_'
'considers_'
'closer_'
'charged_'
'causes_'
'box_'
'bo'
'besseren_'
'becomes_'
'article_'
'ad'
'Worten_'
'Volkswirtschaften_'
'Unfortunately_'
'Un'
'Umfang_'
'Trotz_'
'Team_'
'TA'
'Ru'
'Robert_'
'Reserve_'
'Q'
'Preis'
'Praxis_'
'Pe'
'Ohne_'
'Modell_'
'Mo'
'Kra'
'Kapital_'
'Innen'
'Informations'
'Homepage_'
'Hoffnung_'
'Hel'
'He'
'HIV_'
'Grundsatz_'
'Freund_'
'Film_'
'FR_'
'FI'
'EL'
'Dennoch_'
'Ca'
'Bi'
'Berichterstatterin_'
'Aspekt_'
'65_'
'00'
'). _'
' [_'
'zusätzlich_'
'zt_'
'wirtschaft_'
'vulnerable_'
'umfassende_'
'track_'
'teilweise_'
'tackle_'
'suggests_'
'sorry_'
'slow_'
'sitting_'
'sion_'
'sehe_'
'schi'
'rten_'
'richtlinie_'
'rf'
'remaining_'
'referred_'
'profit_'
'pra'
'po'
'pension_'
'passiert_'
'over'
'ole'
'ok_'
'möglichkeiten_'
'mm_'
'meetings_'
'manner_'
'mann_'
'maintained_'
'log_'
'loan_'
'land'
'komme_'
'keits'
'kaufen_'
'ized_'
'hotels_'
'hn'
'hip_'
'ha'
'ft'
'freue_'
'flo'
'ferner_'
'fer_'
'expensive_'
'except_'
'ernst_'
'erhält_'
'erfordert_'
'erfolgen_'
'equality_'
'einzu'
'dor'
'died_'
'derartige_'
'decade_'
'dealing_'
'consideration_'
'conflicts_'
'compensation_'
'communications_'
'combating_'
'combat_'
'col'
'bitten_'
'betreffen_'
'bestätigt_'
'aufzunehmen_'
'approval_'
'and'
'ana_'
'al'
'aktiv_'
'ak'
'adequate_'
'absence_'
'Ya'
'Währungs'
'Wegen_'
'Vertrags_'
'Ve'
'Val'
'Tätigkeiten_'
'TE'
'Sol'
'Seine_'
'Schengen_'
'Sand'
'Rede_'
'Re'
'Rahmen'
'Peter_'
'Open_'
'Met'
'Mer'
'Maßnahme_'
'Komm_'
'Jeder_'
'Investitions'
'Gebiete_'
'Finland_'
'Every_'
'Estonia_'
'Entwicklungsländern_'
'Ebenso_'
'Digital_'
'Denn_'
'DA'
'Car'
'CI'
'Bulgarien_'
'Bedrohung_'
'As'
'Any_'
'Anspruch_'
'An'
'Aktionsplan_'
'Ai'
'92_'
'195'
'12'
') '
'в'
'äre_'
'willing_'
'wi'
'wall_'
'vorhanden_'
'ungs'
'the'
'television_'
'sla'
'sierung_'
'shopping_'
'schlägt_'
'responsibilities_'
'positions_'
'platz_'
'piece_'
'ped_'
'parliamentary_'
'ou_'
'ongoing_'
'obviously_'
'obvious_'
'nisse_'
'nicht'
'möglichst_'
'mutual_'
'monitor_'
'mer'
'mel'
'marketing_'
'lokale_'
'liberalisation_'
'illi'
'ia'
'hy'
'historischen_'
'hilfe_'
'gewährt_'
'geschützt_'
'fähigkeit_'
'frage_'
'finanziert_'
'ff_'
'fertig_'
'factors_'
'faced_'
'expectations_'
'ex_'
'erlaubt_'
'erfüllt_'
'enti'
'ee'
'ed'
'dro'
'drink_'
'dennoch_'
'ctive_'
'criticism_'
'completed_'
'combined_'
'clients_'
'bringing_'
'bre'
'bly_'
'appeal_'
'alt_'
'ade'
'achten_'
'Ze'
'Y'
'Weltwirtschaft_'
'Vizepräsident_'
'Vielen_'
'Verbesserungen_'
'Urlaub_'
'Turkish_'
'Tier'
'Teilen_'
'TI'
'Studie_'
'Strand_'
'Stimme_'
'Ste'
'Sektoren_'
'Schweden_'
'Rechts_'
'Reaktion_'
'Protokoll_'
'Post'
'Mrd_'
'Leistungen_'
'Kyoto_'
'Kriegs'
'Kinder'
'Ju'
'Jean_'
'Jahres'
'Grundrechte_'
'Gerichts'
'Fang'
'Familien_'
'Entwicklungsländer_'
'En'
'EU'
'EESC_'
'Drittländern_'
'Dimension_'
'Charta_'
'CC'
'Board_'
'Bo'
'Bildungs'
'Beispiele_'
'Auto'
'Aufgrund_'
'Atom'
'Arbeitsplätzen_'
'Arbeiten_'
'Amt_'
'Airport_'
'Ab'
'AS'
'AM'
' ... _'
'® _'
'write_'
'wirtschaftlicher_'
'wine_'
'werk_'
'vis_'
'verst'
'verk'
'unge'
'umzusetzen_'
'ultimately_'
'tro'
'touch_'
'tis'
'tasks_'
'stellung_'
'situations_'
'shift_'
'sharing_'
'screen_'
'recognise_'
'raus_'
'prospects_'
'presidential_'
'pollution_'
'owing_'
'output_'
'ou'
'notice_'
'nk'
'nes_'
'mut'
'motion_'
'militärischen_'
'men'
'lo_'
'lis'
'issued_'
'ionen_'
'involvement_'
'interesting_'
'inform_'
'individuals_'
'igt_'
'höher_'
'hot_'
'hl_'
'historic_'
'head'
'haven_'
'gleich'
'girl_'
'gets_'
'geo'
'gender_'
'gele'
'gap_'
'führenden_'
'functions_'
'for'
'flight_'
'fighting_'
'eyes_'
'extensive_'
'eventually_'
'et'
'erzielen_'
'erhebliche_'
'erfahren_'
'eib_'
'driving_'
'dollars_'
'district_'
'dimension_'
'depth_'
'delegation_'
'ded_'
'damals_'
'ct_'
'confirmed_'
'con'
'chinesische_'
'black_'
'benutzt_'
'beha'
'ausreichend_'
'asking_'
'ami'
'acceptable_'
'Weiter'
'Vertragsverletzungsverfahren_'
'VI'
'Unternehmens_'
'Those_'
'Sub'
'Spar'
'Sind_'
'Schiff_'
'Safety_'
'SO'
'Regelungen_'
'Post_'
'Over_'
'Os'
'Niveau_'
'Ne'
'Musik_'
'Museum_'
'Moment_'
'Miss_'
'Medi'
'Ku'
'Kommunikations'
'Ja'
'IE'
'Har'
'Guest_'
'Gi'
'Gesellschaften_'
'Gegensatz_'
'Gefühl_'
'Ereignisse_'
'Energien_'
'Ei'
'Ed'
'EWG_'
'Delegation_'
'Cooperation_'
'Chancen_'
'Bre'
'Berücksichtigung_'
'Außenminister_'
'Austrian_'
'Au'
'Angelegenheit_'
'49_'
'42_'
' -- _'
'Überprüfung_'
'zufrieden_'
'zeit'
'warten_'
'walking_'
'waiting_'
'vorlegen_'
'vorgesehenen_'
'verantwortlich_'
'vehicle_'
'universal_'
'une_'
'tter'
'top'
'tan_'
'submit_'
'ständig_'
'ssion_'
'sieben_'
'shares_'
'schlecht_'
'sbe'
'sa'
'rweise_'
'registered_'
'register_'
'recognition_'
'reasonable_'
'purposes_'
'promise_'
'plants_'
'pit'
'os'
'ora'
'offensichtlich_'
'nu'
'notified_'
'mp'
'moral_'
'mine_'
'millions_'
'ma'
'länger_'
'liebe_'
'lending_'
'lay_'
'keiner_'
'keeping_'
'isation_'
'involving_'
'import_'
'großes_'
'gre'
'gezogen_'
'gegenwärtigen_'
'gefallen_'
'felt_'
'feed_'
'falsch_'
'extreme_'
'exists_'
'ero'
'ergreifen_'
'erfolgt_'
'employees_'
'element_'
'einsetzen_'
'dt_'
'dein_'
'contributions_'
'collapse_'
'ce'
'ble'
'betrachten_'
'berücksichtigen_'
'bathroom_'
'barriers_'
'baby_'
'ay_'
'atmosphere_'
'ange'
'agen_'
'advance_'
'ach_'
'abzu'
'Zivil'
'Zentralbanken_'
'Without_'
'Wissenschaft_'
'Weil_'
'Ur'
'To'
'Tiere_'
'Their_'
'Teil'
'Tal'
'TO'
'Sitzung_'
'Single_'
'Schutz'
'Right_'
'Restaurants_'
'Regime_'
'Q_'
'Port'
'Nord'
'Nachbarn_'
'Miss'
'Militär'
'Methode_'
'Mel'
'Maybe_'
'LI'
'Ke'
'Kan'
'Insel_'
'Grenze_'
'Gesch'
'GI'
'Firmen_'
'Europäer_'
'Del'
'Beste'
'Ber'
'Barack_'
'BO'
'Angriff_'
'Adresse_'
'Absicht_'
'96_'
'4'
'33'
'24'
'1992_'
'überprüfen_'
'á_'
'zusätzlichen_'
'zuständigen_'
'zing_'
'ystem_'
'wissenschaftlichen_'
'weltweite_'
'verstärken_'
'venture_'
'uner'
'unable_'
'uk'
'tel_'
'ta'
'sustainability_'
'struggle_'
'ster'
'solcher_'
'societies_'
'sensitive_'
'saving_'
'satellite_'
'rufen_'
'rr'
'reported_'
'rechtlichen_'
'rat_'
'presidency_'
'post'
'playing_'
'passengers_'
'parliaments_'
'or'
'offene_'
'occur_'
'nötig_'
'ney_'
'mor'
'merely_'
'listen_'
'lin'
'lieber_'
'liches_'
'len'
'lar'
'kamen_'
'ish_'
'intention_'
'ierungs'
'identity_'
'identify_'
'hundred_'
'hren_'
'hauptsächlich_'
'grundlegende_'
'greenhouse_'
'gering_'
'gegenwärtig_'
'gefordert_'
'garantiert_'
'führung_'
'fällt_'
'fun_'
'fore'
'focused_'
'flows_'
'fla'
'finde_'
'exclusive_'
'equivalent_'
'els_'
'ei_'
'dynamic_'
'diskutieren_'
'devices_'
'desire_'
'deeply_'
'deaths_'
'daraus_'
'cuts_'
'cri'
'convinced_'
'character_'
'brings_'
'blood_'
'auszu'
'aufgefordert_'
'ani'
'ama'
'absolute_'
'Wohn'
'Wettbewerbs'
'Vietnam_'
'Tätigkeit_'
'Schlüssel'
'Scha'
'Sanktionen_'
'SS'
'Rooms_'
'Realität_'
'Projekt'
'Problemen_'
'Or_'
'Ombudsman_'
'ON_'
'Niederlande_'
'Mus'
'Mobilität_'
'Mitte_'
'Menschen'
'Media_'
'Maria_'
'Lin'
'Len'
'Labour_'
'Kur'
'Kritik_'
'Kon'
'Kommunikation_'
'Kir'
'Institute_'
'Instead_'
'IT'
'Hol'
'Hoch'
'Hast_'
'Glück_'
'Fälle_'
'Freunde_'
'Frank_'
'Fort'
'Formen_'
'Forderung_'
'Flüchtlinge_'
'Fischler_'
'Faktoren_'
'Erde_'
'Eisenbahn'
'Einhaltung_'
'Data_'
'Costa_'
'Chi'
'Bon'
'Boden_'
'Bei'
'Bas'
'Ausbildung_'
'Aufnahme_'
'Ar'
'Ad'
'97_'
'93_'
'9'
'52_'
'34_'
'31'
'1980_'
'08_'
'è'
'Ö'
'zählen_'
'ziemlich_'
'youth_'
'yo'
'worry_'
'window_'
'vorge'
'vol'
'verlieren_'
'var'
'van'
'unternommen_'
'unacceptable_'
'u'
'ture_'
'ti'
'tele'
'super'
'sun_'
'stocks_'
'stellte_'
'sis_'
'signal_'
'seien_'
'rti'
'ri_'
'rb'
'ral_'
'protecting_'
'processing_'
'preise_'
'ports_'
'physical_'
'pen'
'participants_'
'ot_'
'nz_'
'niemals_'
'neither_'
'nachhaltigen_'
'models_'
'menu_'
'mechanisms_'
'mal'
'lin_'
'ließen_'
'kämpfen_'
'krise_'
'keinerlei_'
'ke'
'kan'
'jeweils_'
'jener_'
'je'
'isn_'
'involve_'
'indicated_'
'imposed_'
'hundreds_'
'hu'
'hell_'
'hei'
'happens_'
'griechischen_'
'gra'
'gla'
'gi'
'genannt_'
'ge'
'gar'
'folgende_'
'fin'
'festgestellt_'
'examples_'
'erheblich_'
'entirely_'
'eng_'
'enables_'
'en'
'eit_'
'ehemaligen_'
'ef'
'dly_'
'ding'
'court_'
'couple_'
'correct_'
'competitors_'
'combination_'
'cold_'
'charges_'
'bottom_'
'born_'
'bility_'
'ba'
'ausschließlich_'
'ausge'
'aufge'
'ates_'
'asi'
'aro'
'approximately_'
'appointed_'
'ank'
'affect_'
'affairs_'
'addressing_'
'accompanied_'
'accessible_'
'a'
']], _'
'Zentral'
'Wachstums_'
'Vorteil_'
'Verträge_'
'UNO_'
'Swedish_'
'Straße_'
'Sport_'
'Sport'
'Spe'
'Serbia_'
'Schulden'
'San'
'Rückgang_'
'Polish_'
'Piebalgs_'
'Natur'
'NEW_'
'Mir_'
'Meeres'
'Luc'
'Leistung_'
'Kontrollen_'
'Kompromiss_'
'Ka'
'IR'
'IP'
'Grenz'
'Gre'
'Golf_'
'Fortschritt_'
'Forderungen_'
'Finnland_'
'Entwicklungen_'
'Earth_'
'Each_'
'Doha_'
'Direkt'
'Dateien_'
'Danke_'
'Cu'
'CS'
'Bundes'
'Brasilien_'
'Agrar'
'AC'
'AB'
'30'
'196'
'194'
'. € _'
'- (_'
''' _'
'''
' )._'
'”._'
'н'
'zurückzu'
'wählen_'
'wonder_'
'widely_'
'wer'
'wenigen_'
'weitgehend_'
'vorstellen_'
'verdient_'
'ures_'
'unmittelbar_'
'tät_'
'ts'
'tri'
'treaty_'
'tor'
'teil_'
'te'
'stattfinden_'
'spielt_'
'sm_'
'ski_'
'sicherlich_'
'schreiben_'
'rs'
'root_'
'ries_'
'railway_'
'quarter_'
'providers_'
'produktion_'
'producing_'
'prior_'
'patients_'
'opposed_'
'og'
'oc'
'ob'
'named_'
'nachge'
'mögliche_'
'ml'
'minority_'
'mindestens_'
'min'
'micro'
'me'
'maintaining_'
'länder_'
'lp'
'losses_'
'looked_'
'ller_'
'lesen_'
'laut_'
'lat'
'klare_'
'investieren_'
'ini'
'ica_'
'hr_'
'housing_'
'hi'
'gestärkt_'
'gestern_'
'früheren_'
'fri'
'frei'
'financed_'
'er'
'entered_'
'ente'
'ele'
'effectiveness_'
'eat_'
'durchzuführen_'
'drugs_'
'dri'
'cu'
'ction_'
'cru'
'consistent_'
'color_'
'citizen_'
'chten_'
'cer'
'cation_'
'cat'
'cast_'
'carefully_'
'camera_'
'breite_'
'bra'
'bislang_'
'bar'
'auto'
'ausdrücklich_'
'asse'
'applying_'
'applicable_'
'angeboten_'
'afraid_'
'abkommen_'
'Zahlen_'
'War'
'Video_'
'Van_'
'Unterkategorien_'
'Thus_'
'Städten_'
'Städte_'
'Standard_'
'Spa_'
'Slovakia_'
'Saddam_'
'Rezession_'
'Resort_'
'Regional'
'Regierungschefs_'
'PT_'
'PA'
'Ordnung_'
'Okay_'
'Nicht'
'NI'
'Mon'
'MO'
'Like_'
'Landwirte_'
'Konflikte_'
'Jacques_'
'Island_'
'Installation_'
'Ins'
'Indi'
'IS_'
'IS'
'Höchst'
'Herstellung_'
'Have_'
'HE'
'Fest'
'Erholung_'
'Einzel'
'Education_'
'Democrats_'
'Dem_'
'DO'
'Computer_'
'Ci'
'Che'
'Charter_'
'Cap'
'Bro'
'Bilder_'
'Ball'
'Aus'
'Armee_'
'Arbeitsmarkt_'
'Antrag_'
'Alternative_'
'Abkommens_'
'1993_'
'übertragen_'
'Übereinstimmung_'
'Öl_'
'  _'
'zeiten_'
'wouldn_'
'whi'
'weiteres_'
'weiter'
'weit'
'verstanden_'
'vere'
'usw_'
'unf'
'unabhängig_'
'tung_'
'tonight_'
'testing_'
'teilen_'
'sz'
'subsidies_'
'strongly_'
'sterben_'
'stands_'
'ssi'
'ss'
'sold_'
'ska'
'sicherstellen_'
'severe_'
'scho'
'savings_'
'resolved_'
'reicht_'
'radio_'
'quer'
'qualität_'
'prime_'
'preparation_'
'ph'
'partly_'
'paragraph_'
'ously_'
'ol'
'obligation_'
'ny_'
'nte_'
'north_'
'nc'
'mm'
'milk_'
'methods_'
'meant_'
'maybe_'
'marked_'
'logical_'
'ld'
'laden_'
'kept_'
'junge_'
'iv_'
'intellectual_'
'int'
'ingly_'
'inclusion_'
'ille'
'iel'
'ics_'
'humanitäre_'
'hervor_'
'hand'
'guys_'
'guarantees_'
'gruppen_'
'grand'
'gli'
'gez'
'gelegen_'
'funded_'
'functioning_'
'founded_'
'fer'
'fel'
'fail_'
'ents_'
'emphasise_'
'eli'
'eingerichtet_'
'ehr'
'eh'
'ea'
'divided_'
'delay_'
'default_'
'dan'
'cycle_'
'cutting_'
'counter_'
'continuing_'
'click_'
'catch_'
'bur'
'bonds_'
'bildung_'
'bi'
'bet'
'bekämpfen_'
'behalten_'
'begonnen_'
'argue_'
'apartments_'
'anti'
'ano'
'anhand_'
'ana'
'aircraft_'
'ah'
'agency_'
']_'
'Verbindungen_'
'Unterschiede_'
'USS_'
'Teile_'
'Super'
'Sterne_'
'Stein'
'Signal_'
'Sche'
'Rest_'
'Presse'
'PL_'
'Nummer_'
'Normen_'
'Mä'
'Mont'
'Mittelmeer_'
'Meiner_'
'Massen'
'Mas'
'ME'
'Legal_'
'LA'
'Kä'
'Kor'
'Kat'
'Joe_'
'Hu'
'Hor'
'Hong_'
'Gespräche_'
'Geschäft_'
'Fi'
'Far'
'Eu'
'Erhöhung_'
'Erasmus_'
'ES_'
'ED'
'Dra'
'Diskussionen_'
'Dadurch_'
'Bewältigung_'
'Best_'
'Bank'
'Bade'
'Alt'
'Ale'
'Abgeordnete_'
'AP'
'51_'
'295_'
'23'
'22'
'191'
'06_'
'('
'$_'
' –, _'
' = _'
'öffentlich_'
'´_'
'zugleich_'
'wieder'
'wahr'
'vollständige_'
'verändert_'
'verkehr_'
'val'
'unterzeichnet_'
'unc'
'una'
'täglich_'
'tradition_'
'tourism_'
'tier'
'th'
'swe'
'su'
'structures_'
'stone_'
'sto'
'statistics_'
'statements_'
'southern_'
'solange_'
'signs_'
'shed_'
'senior_'
'schemes_'
'ré'
'rightly_'
'reply_'
'relative_'
'reg'
'rechts'
'reception_'
'ple'
'passed_'
'pan'
'pace_'
'obtain_'
'nsch'
'nommen_'
'nf'
'mittel'
'miteinander_'
'ministers_'
'min_'
'mbi'
'manufacturing_'
'lä'
'ler'
'langen_'
'kurzem_'
'kla'
'ked_'
'judicial_'
'invest_'
'inequality_'
'immt_'
'ig'
'hinweisen_'
'hardly_'
'guess_'
'globalization_'
'glo'
'girls_'
'gesch'
'ges'
'gerichtet_'
'gel'
'gefördert_'
'ga_'
'fu'
'forum_'
'format_'
'explain_'
'ets_'
'equally_'
'ep'
'em'
'einzusetzen_'
'economics_'
'dritten_'
'diseases_'
'disc'
'dinner_'
'detail_'
'depend_'
'declaration_'
'daten_'
'dank_'
'courses_'
'comp'
'comfort_'
'colleague_'
'coal_'
'club_'
'centres_'
'capable_'
'buffet_'
'britische_'
'books_'
'beruht_'
'belief_'
'behandeln_'
'bedeuten_'
'außerordentlich_'
'assess_'
'arten_'
'aren_'
'applies_'
'all'
'Willen_'
'Verhalten_'
'Umständen_'
'Time_'
'Take_'
'Switzerland_'
'Stu'
'Slovenia_'
'Sk'
'Sinn_'
'Selbst'
'Schlussfolgerungen_'
'Schi'
'Sal'
'Reding_'
'Produkten_'
'Portuguese_'
'Paul_'
'Pact_'
'Me'
'Licht_'
'Leider_'
'KE'
'James_'
'Islam_'
'Investoren_'
'Insbesondere_'
'Inhalt_'
'Hilfs'
'Haushalte_'
'HA'
'Gäste_'
'Gut_'
'Gesetze_'
'Gericht_'
'Gefahren_'
'Following_'
'Export'
'Copenhagen_'
'Bürger'
'Botschaft_'
'Beweis_'
'Benutzer_'
'Bel'
'Beihilfe_'
'Bed'
'BA'
'80'
'37_'
'27'
'192'
'05_'
'0'
'. – _'
'"'
'! - _'
'—_'
'с'
'ı'
'Übereinkommen_'
'zuvor_'
'zu'
'wünschen_'
'wonderful_'
'wirtschaftlich_'
'wirken_'
'westlichen_'
'weight_'
'weak_'
'wan'
'vorbei_'
'urge_'
'update_'
'unlikely_'
'unit_'
'ums'
'umge'
'trotzdem_'
'totally_'
'tive_'
'tionen_'
'ti_'
'surrounding_'
'successfully_'
'stations_'
'sports_'
'sou'
'seitens_'
'sam_'
'rt'
'roads_'
'ring'
'rin'
'registration_'
'recht'
'rd'
'rail_'
'ps'
'productive_'
'preis'
'pol'
'pointed_'
'player_'
'persönlichen_'
'peaceful_'
'parallel_'
'older_'
'nl'
'naturally_'
'mäßig_'
'mussten_'
'motor'
'militärische_'
'manche_'
'machte_'
'letztlich_'
'leiden_'
'kürzlich_'
'kas'
'kal'
'ities_'
'iten_'
'it'
'iss'
'informieren_'
'ied_'
'höheren_'
'honourable_'
'hen'
'gezwungen_'
'gewisse_'
'gestalten_'
'gabe_'
'fort_'
'follows_'
'faster_'
'fails_'
'expansion_'
'existence_'
'erwähnt_'
'erf'
'entsprechen_'
'entf'
'ended_'
'einzigen_'
'ege'
'doctor_'
'display_'
'dient_'
'demokratische_'
'deiner_'
'debates_'
'coordinated_'
'constitutional_'
'compete_'
'cash_'
'buildings_'
'binding_'
'beziehen_'
'betonen_'
'bestand_'
'benötigt_'
'behavior_'
'beachten_'
'aut_'
'ari_'
'anbieten_'
'ale'
'ake'
'ages_'
'Zielen_'
'Ziel'
'Wirklichkeit_'
'We'
'Wandel_'
'Very_'
'Vereinbarungen_'
'Unterschied_'
'Suche_'
'Struktur_'
'Stimmen_'
'Stadt'
'Staates_'
'Sprachen_'
'Sollte_'
'Slowakei_'
'Ski'
'Si'
'Second_'
'Rückkehr_'
'Reg'
'Problems_'
'Pop'
'Patienten_'
'PPE_'
'Nutzer_'
'News_'
'Net'
'ND'
'My'
'Modernisierung_'
'Mission_'
'Menschenrechts'
'Mehr'
'Leit'
'Krankheit_'
'Komp'
'Kommissions'
'Kein_'
'Karte_'
'Inseln_'
'Ideen_'
'ID_'
'Hinweis_'
'Ha'
'Größe_'
'Gra'
'Gold_'
'Gleich'
'Gegen'
'Gebäude_'
'Frankfurt_'
'Festlegung_'
'Fe'
'Falls_'
'FE'
'FA'
'Ehe'
'Durchsetzung_'
'Drittens_'
'Dep'
'Control_'
'Competition_'
'Common_'
'BR'
'Ausnahme_'
'Auftrag_'
'Anfrage_'
'Akteure_'
'Abschließend_'
'AT'
'; '
'85_'
'51'
'20'
'197'
'07_'
'); _'
'• _'
'л'
'über'
'ön'
'äu'
'äch'
'Übergangs'
'zugänglich_'
'zero_'
'welches_'
'voll'
'vo'
'umwelt'
'uf'
'tten_'
'tobacco_'
'time'
'temporary_'
'survive_'
'sugar_'
'stre'
'steigen_'
'specified_'
'sovereign_'
'sit'
'shops_'
'sf'
'settlement_'
'sell_'
'sale_'
'russischen_'
'reserve_'
'reasoned_'
'ran'
'proved_'
'produkte_'
'pour_'
'pin'
'pick_'
'pi'
'perfectly_'
'ona'
'ok'
'oa'
'noted_'
'nen'
'neighbouring_'
'nahme_'
'mostly_'
'lier'
'legitimate_'
'kulturellen_'
'itt_'
'ite'
'italienischen_'
'ip'
'in'
'ie'
'ida'
'ichen_'
'hr'
'hor'
'hoffen_'
'hierzu_'
'gu'
'groß_'
'grow_'
'gradually_'
'globalisation_'
'gin'
'genutzt_'
'gelegt_'
'ged_'
'fresh_'
'fraud_'
'flu'
'finding_'
'farming_'
'ext'
'everybody_'
'esta'
'erten_'
'erte'
'erlassen_'
'entscheidende_'
'enormen_'
'enhance_'
'enabling_'
'eliminate_'
'dritte_'
'drei'
'drawn_'
'download_'
'dis'
'ders_'
'declared_'
'crises_'
'contrast_'
'constitution_'
'confirm_'
'collaboration_'
'cancer_'
'bs'
'bewegen_'
'beteiligten_'
'beteiligt_'
'besuchen_'
'besch'
'ba_'
'automatisch_'
'aufnehmen_'
'attractive_'
'ator_'
'association_'
'ara'
'anst'
'angel'
'ang'
'ame'
'allgemein_'
'ag_'
'ade_'
'abhängig_'
'abe_'
'Wa'
'Vielzahl_'
'Vertrags'
'VO'
'Umweltschutz_'
'Struktur'
'Star'
'Standard'
'Stability_'
'Sein_'
'Schwerpunkt_'
'Schul'
'SL'
'Raum'
'RT'
'Private_'
'Plan'
'Photo'
'Option_'
'Opposition_'
'Ol'
'NO'
'NG_'
'NC'
'Mol'
'Mittel'
'Min'
'Menge_'
'Martin_'
'Mag'
'Luxemburg_'
'Küsten'
'Kunst_'
'Kong_'
'Hü'
'Gro'
'GmbH_'
'Georgia_'
'Gen'
'Foundation_'
'Executive_'
'Erzeugnisse_'
'Erwartungen_'
'EGF_'
'EADS_'
'Dutch_'
'Dis'
'Dass_'
'Ce'
'Budget_'
'Betrag_'
'Beide_'
'Bedarf_'
'Auge_'
'Ans'
'Andere_'
'Amerikaner_'
'Aktionen_'
'Agentur_'
'59_'
'26'
' ?_'
' %._'
'öt'
'ör'
'ía_'
'ähnliche_'
'Übergang_'
'zustimmen_'
'wirst_'
'wirksam_'
'wesentliche_'
'welcomed_'
'watch_'
'wagen_'
'vorliegenden_'
'village_'
'verfügbar_'
'ut'
'use'
'uri'
'updated_'
'unterschiedliche_'
'unity_'
'tur'
'trends_'
'trend_'
'theory_'
'surveillance_'
'surplus_'
'succeed_'
'stä'
'strategische_'
'spricht_'
'sky_'
'sit_'
'serves_'
'schönen_'
'rk'
'remind_'
'reich'
'rei'
'regeln_'
'reflects_'
'rechtzeitig_'
'reagieren_'
'ration_'
'rat'
'ranging_'
'punkt_'
'properly_'
'pla'
'phrase_'
'personnel_'
'percentage_'
'ond'
'nnen_'
'nn_'
'nehme_'
'müsste_'
'ms'
'miles_'
'mer_'
'memory_'
'managing_'
'machine_'
'liberal_'
'leu'
'kle'
'jährigen_'
'ists_'
'is'
'intends_'
'inde'
'implications_'
'ily_'
'ili'
'ile_'
'ide_'
'ic'
'huh_'
'houses_'
'household_'
'hi_'
'hau'
'halt_'
'gutes_'
'guide_'
'gewissen_'
'geplanten_'
'garden_'
'garantieren_'
'gained_'
'französische_'
'fit_'
'ez_'
'ev'
'erinnert_'
'enz'
'entitled_'
'enta'
'eni'
'enhanced_'
'enc'
'elo'
'elektronische_'
'eingehen_'
'dung_'
'distributed_'
'disaster_'
'determine_'
'denk'
'cop'
'convergence_'
'constitute_'
'consequence_'
'conducted_'
'condition_'
'collection_'
'ci_'
'cha'
'bü'
'brachte_'
'benutzen_'
'believes_'
'bekommt_'
'befassen_'
'be'
'battle_'
'ban'
'background_'
'aviation_'
'aspect_'
'arrival_'
'annehmen_'
'angen_'
'ai'
'ag'
'advertising_'
'acts_'
'actors_'
'acting_'
'Zusammenhalt_'
'Zug_'
'Zoll'
'Z_'
'Wunsch_'
'Wohl'
'WI'
'Vision_'
'Verständnis_'
'Verbreitung_'
'Trans'
'Teilnahme_'
'Straßen'
'Square_'
'Shi'
'Sec'
'Sat'
'SS_'
'SD'
'Prozesses_'
'Pri'
'Norway_'
'Norden_'
'NGOs_'
'Mitarbeiter_'
'Mexiko_'
'Marc'
'Lord_'
'Lohn'
'Leid_'
'Language_'
'Kurs_'
'Kombination_'
'Kas'
'IM'
'Hä'
'Hindernisse_'
'Hersteller_'
'HI'
'Gu'
'Grad_'
'Ger'
'Führungs'
'Fähigkeiten_'
'Food_'
'Fle'
'Fax_'
'Einwanderung_'
'Dänemark_'
'Director_'
'Depression_'
'Congress_'
'Charakter_'
'Bur'
'Bill_'
'Beschreibung_'
'Beim_'
'Bahn_'
'Außen'
'Authority_'
'Atmosphäre_'
'Anwendungen_'
'Antworten_'
'Anreize_'
'Air'
'60'
'53_'
'50'
'41_'
'2016_'
'/ _'
'är'
'zusammenarbeiten_'
'zentralen_'
'ys'
'wrote_'
'voters_'
'voller_'
'vieler_'
'verwe'
'versa'
'verlangt_'
'unver'
'uns'
'ungefähr_'
'uit'
'turning_'
'tische_'
'tisch_'
'tea'
'swimming_'
'subs'
'stuff_'
'sting_'
'steel_'
'spring_'
'spezifischen_'
'sozial'
'sli'
'sleep_'
'sk'
'shape_'
'select_'
'seeks_'
'schu'
'schlagen_'
'scheinen_'
'sam'
'rtung_'
'richten_'
'revised_'
'ret'
'resort_'
'requirement_'
'requests_'
'reliable_'
'rejected_'
'regular_'
'recognize_'
'profits_'
'pri'
'pose_'
'pictures_'
'pal'
'owners_'
'ow_'
'ott'
'op'
'onds_'
'offiziellen_'
'off'
'nter'
'none_'
'ned_'
'nar'
'mittlerweile_'
'merk'
'meat_'
'manufacturers_'
'mandate_'
'maintenance_'
'lu'
'losing_'
'lor'
'linie_'
'les'
'le'
'kes_'
'journalists_'
'itu'
'installation_'
'ima'
'holen_'
'hl'
'heutige_'
'heißen_'
'heavy_'
'grundlegenden_'
'gehalten_'
'gebiet_'
'führende_'
'fruit_'
'fonds_'
'fle'
'federal_'
'failing_'
'ersch'
'erk'
'erfolgreichen_'
'enorme_'
'emp'
'email_'
'ema'
'ek_'
'een_'
'ec'
'duties_'
'drug_'
'driver_'
'dre'
'dor_'
'diplomatic_'
'del'
'database_'
'cro'
'conventional_'
'considering_'
'considerably_'
'components_'
'comment_'
'co'
'chosen_'
'category_'
'candidates_'
'ca'
'bridge_'
'breiten_'
'bildet_'
'bezahlt_'
'bestätigen_'
'bemüht_'
'bee'
'bal'
'ausgesetzt_'
'aufmerksam_'
'auf'
'ative_'
'ationen_'
'arbeits'
'appreciate_'
'ant'
'angezeigt_'
'angesprochen_'
'air'
'acquis_'
'Zahlungs'
'Wähler_'
'Wirkung_'
'WA'
'Voll'
'Verteidigung_'
'Verbot_'
'Titel_'
'Third_'
'Start_'
'Staats_'
'Spieler_'
'Spiel'
'Speicher'
'She'
'Schule_'
'Schuld'
'Scho'
'Sarkozy_'
'Sai'
'Rob'
'Rad'
'Quelle_'
'Pu'
'Professor_'
'Once_'
'Nie'
'Nevertheless_'
'NT'
'Ms_'
'Mil'
'Mehr_'
'Lieutenant_'
'Leistungs'
'Lebens_'
'Lac'
'King_'
'Joint_'
'Is'
'Internet'
'Internationalen_'
'Holz'
'HO'
'Geschäfte_'
'Genehmigung_'
'Gegenstand_'
'Gas'
'Free'
'Fisheries_'
'Fan'
'Familien'
'Fahr'
'Empfehlung_'
'Dor'
'Diskriminierung_'
'Des'
'Day_'
'Daten'
'Cohesion_'
'Cal'
'CF'
'Breakfast_'
'Bra'
'Big_'
'Bestandteil_'
'Beseitigung_'
'Bedürfnisse_'
'BSE_'
'BI'
'Arabia_'
'Ap'
'Anpassung_'
'Alliance_'
'Allgemeinen_'
'Agrarpolitik_'
'78_'
'61'
'190'
'1'
'03'
'01'
'): _'
'”, _'
'öffnen_'
'ée_'
'äts'
'änge_'
'äge_'
'zieren_'
'werte_'
'welcher_'
'weist_'
'vorher'
'vir'
'victory_'
'vi'
'versorgung_'
'vera'
'usi'
'urgently_'
'unto_'
'unde'
'ue'
'tsche'
'transform'
'tot_'
'ton'
'terrible_'
'telecommunications_'
'targeted_'
'tan'
'swa'
'sur'
'substance_'
'stro'
'storage_'
'stimulus_'
'sobald_'
'smart_'
'sma'
'sight_'
'si'
'seri'
'schwierigen_'
'sah_'
'rück'
'rou'
'riesigen_'
'rge'
'revolution_'
'represented_'
'rely_'
'raw_'
'race_'
'pur'
'prove_'
'politisches_'
'passenger_'
'para'
'ose_'
'operator_'
'omi'
'oll'
'netz_'
'names_'
'müssten_'
'moved_'
'mach'
'lovely_'
'lessons_'
'legally_'
'leg'
'lands_'
'lande'
'kulturelle_'
'konfrontiert_'
'ko_'
'kitchen_'
'kenn'
'keiten_'
'justified_'
'jam'
'itte'
'invited_'
'ink'
'inden_'
'imagine_'
'if'
'ht'
'hoher_'
'hier'
'ham_'
'guaranteed_'
'granting_'
'gotta_'
'gangen_'
'gains_'
'funktionieren_'
'fach'
'expense_'
'examine_'
'equity_'
'entschlossen_'
'endorse_'
'ending_'
'eich'
'eco'
'echten_'
'durch'
'driven_'
'destruction_'
'dem'
'delivered_'
'define_'
'cy'
'currencies_'
'cra'
'covers_'
'cor'
'contributed_'
'contemporary_'
'command_'
'cla'
'chu'
'cap'
'cal'
'broken_'
'bestimmen_'
'bedingungen_'
'bau'
'bars_'
'award_'
'automatically_'
'ath'
'assure_'
'assume_'
'art'
'armed_'
'anerkannt_'
'ander'
'amp'
'alen_'
'abuse_'
'Zusatz'
'Wein'
'Web'
'Voraussetzung_'
'Verhandlungs'
'Verfassungs'
'Tun'
'Teilnehmer_'
'Technology_'
'Tagung_'
'Straßen_'
'Stan'
'Sei'
'Schäden_'
'Schulen_'
'Schu'
'Schaden_'
'Ruhe_'
'Roman_'
'Rohstoff'
'Reise_'
'Regierungskonferenz_'
'Prä'
'Produkt'
'Prinzip_'
'Polizei'
'Pol'
'Pat'
'Ob'
'OECD_'
'Nat'
'Nachfolgend_'
'MySQL_'
'Mensch_'
'Man'
'Louis_'
'Lebanon_'
'Latvia_'
'Körper_'
'Kurz'
'Krisen'
'Kommissionsmitglied_'
'Klicken_'
'Kann_'
'KI'
'Inf'
'Gründung_'
'Gewinne_'
'Geschäftsordnung_'
'Gam'
'Fra'
'For'
'Fo'
'Fischer_'
'Fal'
'External_'
'Ex'
'Ele'
'ECHO_'
'EB'
'Denk'
'Dem'
'Dec'
'Culture_'
'Colonel_'
'Cha'
'Capital_'
'CO'
'Buch'
'Bri'
'Beziehung_'
'Berufs'
'Beitritts'
'Beihilfe'
'Ausweitung_'
'Arm'
'Anliegen_'
'Abst'
'Abfall'
'86_'
'47_'
'15'
'02'
'... '
'-'
' !_'
'р'
'ο'
'üh'
'übersch'
'ält_'
'{{_'
'zo'
'yer_'
'warming_'
'wages_'
'wage_'
'vorschlagen_'
'voran'
'voluntary_'
'veröffentlichte_'
'verurteilt_'
'verg'
'va'
'uta'
'usual_'
'university_'
'un'
'ump'
'translation_'
'trafficking_'
'tourist_'
'tief_'
'threats_'
'teilnehmen_'
'supplies_'
'supervision_'
'suffer_'
'square_'
'south_'
'sor'
'son'
'sme'
'shower_'
'shot_'
'schie'
'sation_'
'rp'
'ringen_'
'rig'
'rib'
'reporting_'
'replace_'
'reject_'
'reconstruction_'
'recommendation_'
'rechte_'
'quick_'
'prä'
'plenary_'
'pic'
'photos_'
'persönlich_'
'peri'
'pel'
'paying_'
'parti'
'packages_'
'orders_'
'onto_'
'ommen_'
'oma'
'om'
'obs'
'nsi'
'nni'
'nine_'
'nic'
'ngs_'
'newly_'
'natürlichen_'
'nationals_'
'nal'
'mt_'
'movements_'
'mo'
'menschliche_'
'med_'
'macroeconomic_'
'llt_'
'lie_'
'lf'
'leid_'
'langfristigen_'
'ky_'
'kur'
'ks'
'kor'
'konzentriert_'
'komplett_'
'ization_'
'isi'
'ischer_'
'irr'
'ight_'
'ians_'
'hood_'
'hlen_'
'historische_'
'highlight_'
'helps_'
'handel_'
'gewähren_'
'gesto'
'gest'
'gem'
'gegründet_'
'geb'
'fördert_'
'freiheit_'
'finish_'
'finanzieren_'
'explanation_'
'experienced_'
'ess'
'erstellt_'
'erscheint_'
'ergriffen_'
'erfolgreiche_'
'entsch'
'enterprise_'
'eligible_'
'eins'
'einheitlichen_'
'ech'
'dienst'
'device_'
'det_'
'destroyed_'
'dea'
'constructive_'
'conditioning_'
'conce'
'choices_'
'checks_'
'boys_'
'bound_'
'boa'
'block_'
'blo'
'birth_'
'betr'
'beteiligen_'
'beige'
'behaupten_'
'awarded_'
'arn'
'anschließend_'
'an'
'amongst_'
'allocation_'
'afternoon_'
'accounting_'
'accidents_'
'Zusammenschluss_'
'Zu'
'Zeichen_'
'Yu'
'Would_'
'Women_'
'Wien_'
'Wieder'
'Whi'
'Wahrheit_'
'Vereinigte_'
'Verd'
'Verb'
'Var'
'Universität_'
'Tür_'
'Times_'
'Three_'
'TA_'
'Support_'
'Strukturen_'
'Special_'
'Sektors_'
'Science_'
'Sach'
'Regions_'
'Regen'
'Protection_'
'Projekten_'
'Premierminister_'
'Preisen_'
'Pläne_'
'Paket_'
'PO'
'Organe_'
'Old_'
'Next_'
'Netz_'
'Nacht'
'NI_'
'May'
'Mat'
'Live_'
'Lei'
'Klima'
'Ki'
'Je_'
'Gedanken_'
'Geb'
'Gast'
'Force_'
'Firstly_'
'Firma_'
'Fach'
'Elemente_'
'Effizienz_'
'EWR_'
'ET'
'Dokument_'
'Does_'
'Definition_'
'Cou'
'Clo'
'Climate_'
'Cla'
'Burma_'
'Bol'
'Blair_'
'Bla'
'Binnenmarktes_'
'Betriebs'
'Besides_'
'Beschlüsse_'
'Belarus_'
'Beiträge_'
'Ban'
'Bal'
'Aussicht_'
'At'
'Asian_'
'Argentina_'
'Apartments_'
'Anti_'
'Anlass_'
'Anlagen_'
'Ala'
'Aktion_'
'AKP_'
'=_'
': +_'
'86'
'75'
'41'
'38'
'250_'
'. "_'
'," _'
'%'
' — _'
'”'
'ück'
'és_'
'zust'
'ystems_'
'yl_'
'yi'
'xi'
'wn_'
'wishes_'
'wirksame_'
'willst_'
'widespread_'
'whereas_'
'welchem_'
'vorzu'
'volume_'
'volle_'
'virus_'
'verursacht_'
'verbrauch'
'vel'
'uss_'
'usa'
'ura'
'universities_'
'ungsp'
'ung'
'transitional_'
'tin'
'stimme_'
'stakeholders_'
'spot_'
'spoke_'
'spanischen_'
'sozialer_'
'soweit_'
'sought_'
'smoking_'
'ske'
'sichern_'
'showing_'
'showed_'
'sh'
'season_'
'runs_'
'rum_'
'ruling_'
'rre'
'rke'
'richtigen_'
'requested_'
'representative_'
'rent_'
'removed_'
'remote_'
'recorded_'
'recommend_'
'rare_'
'proof_'
'prepare_'
'potentially_'
'possibilities_'
'positiven_'
'poorest_'
'platform_'
'percent_'
'overs'
'outstanding_'
'oti'
'ordinary_'
'nti'
'nte'
'nein_'
'nb'
'nan'
'nahe'
'mö'
'musst_'
'mountain_'
'los'
'llo'
'linien_'
'learned_'
'lea'
'lautet_'
'kon'
'km'
'kinds_'
'jährlichen_'
'jointly_'
'interessiert_'
'incentives_'
'immigrants_'
'ik'
'ih'
'ien'
'höchsten_'
'hängt_'
'harmful_'
'happening_'
'haft_'
'greatly_'
'gh'
'genannte_'
'geltenden_'
'gehe_'
'gang_'
'fuels_'
'franc'
'flow_'
'finances_'
'festgelegten_'
'fees_'
'feeling_'
'fairly_'
'facto_'
'fac'
'ez'
'etz'
'ethnic_'
'eth'
'esti'
'eröffnet_'
'erscheinen_'
'enger_'
'emi'
'elegant_'
'electoral_'
'eingehalten_'
'einfachen_'
'earth_'
'diverse_'
'dit'
'discover_'
'determination_'
'demanding_'
'deli'
'defend_'
'customer_'
'credibility_'
'couldn_'
'controlled_'
'chi'
'chaft_'
'cate'
'careful_'
'cards_'
'button_'
'blind_'
'beschäftigt_'
'beinahe_'
'beds_'
'bedeutenden_'
'bedeutende_'
'bath_'
'bat'
'bas'
'awareness_'
'ari'
'arbeit_'
'ap'
'ants_'
'anten_'
'ante_'
'anstatt_'
'alliance_'
'afrikanischen_'
'advantages_'
']] [[_'
'Zuständigkeit_'
'Zer'
'Wild'
'Wi'
'Wesentlichen_'
'Verheugen_'
'Verge'
'Verbrechen_'
'Uns'
'Test'
'Tages_'
'Tages'
'Strukturfonds_'
'Spitze_'
'Space_'
'Sieg_'
'Senkung_'
'Sehenswürdigkeiten_'
'Santa_'
'SP'
'Rotary_'
'Rot'
'Ric'
'Regulierungs'
'Reform'
'Ratspräsidentschaft_'
'Produkt_'
'Pflicht_'
'Pacific_'
'PS'
'PRO'
'Ost'
'Off'
'Northern_'
'Mot'
'Mobile_'
'Mittelpunkt_'
'Minderheiten_'
'Migration_'
'Malta_'
'Macht'
'Luft_'
'Laufe_'
'Lang'
'Ladies_'
'Klima_'
'Katastrophe_'
'Kap'
'Ir'
'Investitionsbank_'
'Inc'
'Identität_'
'Ib'
'Harry_'
'Grunde_'
'Großteil_'
'Gla'
'Gas_'
'Funktionen_'
'Fitness'
'Fern'
'Experten_'
'Europol_'
'Ern'
'Energieeffizienz_'
'Employment_'
'Einkommens'
'Einheit_'
'Einen_'
'Eigen'
'Dom'
'Dienst'
'Den'
'Dauer_'
'DG_'
'Cuba_'
'Consumer_'
'Chris_'
'Check_'
'Canada_'
'Bor'
'Bea'
'Be_'
'Balkans_'
'Az'
'Aufenthalt_'
'Assembly_'
'Area_'
'Ansch'
'Amendments_'
'Airbus_'
'Abs'
'700_'
'61_'
'56_'
'54_'
'5'
'38_'
'...._'
'- '
'' '
' )_'
'к'
'д'
'Š'
'übernommen_'
'änder_'
'Ökonomen_'
'zusammenge'
'zuerst_'
'zentrum_'
'zen'
'ysteme_'
'yp'
'xt'
'wave_'
'wars_'
'wachsenden_'
'verstehe_'
'verh'
'vergeben_'
'vent'
'ux_'
'unwi'
'unmöglich_'
'unfortunately_'
'undi'
'umfangreiche_'
'ui'
'ug_'
'ud'
'ual_'
'ty'
'tru'
'trifft_'
'terror_'
'terrace_'
'teachers_'
'tal_'
'sämtliche_'
'sum_'
'suitable_'
'suffered_'
'stärkere_'
'store_'
'stor'
'star'
'somewhat_'
'solide_'
'sole_'
'sofern_'
'sm'
'siert_'
'sen'
'seemed_'
'see'
'scientists_'
'schwe'
'scha'
'sch'
'sar'
'rä'
'ry'
'rte_'
'rop'
'rna'
'ress_'
'responses_'
'resource_'
'reservation_'
'replaced_'
'repeat_'
'remained_'
'relax_'
'reinforce_'
'regardless_'
'records_'
'realistic_'
'reagiert_'
'punkte_'
'pu'
'pti'
'print_'
'preparing_'
'praktisch_'
'positiv_'
'policymakers_'
'phenomenon_'
'periods_'
'parliament_'
'ov'
'opposite_'
'oni'
'om_'
'offen'
'occasion_'
'nunmehr_'
'mögen_'
'marine_'
'ls'
'lig'
'lie'
'leichter_'
'leaves_'
'künftigen_'
'kraft_'
'kosten'
'kontrollieren_'
'kk'
'joined_'
'jenen_'
'isten_'
'ions'
'involves_'
'intensive_'
'intend_'
'incentive_'
'impressive_'
'images_'
'ill_'
'ichten_'
'hostels_'
'hop'
'hilft_'
'heran'
'han'
'gl'
'gie'
'gesellschaften_'
'geschieht_'
'gener'
'genauso_'
'gelöst_'
'gefährlich_'
'geeignet_'
'gedacht_'
'führer_'
'ful'
'fr_'
'folgender_'
'flat_'
'findings_'
'fehlt_'
'faces_'
'exit_'
'erstmals_'
'enten_'
'engaged_'
'einzelne_'
'einheitliche_'
'einfacher_'
'dominant_'
'dienste_'
'dia'
'depends_'
'defense_'
'dear_'
'dealt_'
'crimes_'
'credible_'
'connections_'
'cks_'
'chte_'
'chri'
'cher'
'channels_'
'brand_'
'bla'
'bio'
'bezeichnet_'
'bezahlen_'
'betroffen_'
'besitzen_'
'beinhaltet_'
'begr'
'ausger'
'atz'
'assist_'
'aside_'
'ark'
'aris'
'arguments_'
'apart_'
'ans'
'angemessene_'
'angeb'
'anf'
'alt'
'ald'
'ak_'
'aged_'
'adopting_'
'acht'
'[[_'
'Zwar_'
'Zustand_'
'Zinsen_'
'Wettbewerbs_'
'Vorsitz_'
'Vizepräsidentin_'
'Verg'
'Verein'
'Untersuchungen_'
'Tot'
'Tochter_'
'Telefon'
'Sur'
'Sin'
'Sid'
'Sicher'
'Show_'
'Sea'
'Schlüssel_'
'Schie'
'Saint_'
'Runde_'
'Ruf_'
'Risiko'
'Ram'
'Qualitäts'
'Prinzipien_'
'Pin'
'Parlaments'
'Optionen_'
'Niemand_'
'Mu'
'Merkel_'
'Malaysia_'
'MEPs_'
'Lithuania_'
'Lis'
'Law_'
'LO'
'Kräfte_'
'Korruption_'
'Innovationen_'
'Indian_'
'IN'
'IL'
'IC'
'Hum'
'Hinter'
'Hin'
'Herz_'
'Her_'
'Helsinki_'
'Hello_'
'Hei'
'Hat_'
'Governance_'
'Gleichgewicht_'
'Geld'
'Ganz_'
'Fu'
'Freizeit'
'Fre'
'Flo'
'Fernseh'
'Europa'
'Essen_'
'Erklärungen_'
'Entschließungsantrag_'
'Emi'
'Einbeziehung_'
'EL_'
'Doppel'
'Darfur_'
'Dad_'
'Company_'
'Comp'
'Click_'
'Cho'
'Bä'
'Bud'
'Buch_'
'Branche_'
'Block'
'Betrieb_'
'Barnier_'
'Aufforderung_'
'Auf'
'Assad_'
'Ari'
'Anschluss_'
'Annex_'
'Anlage_'
'Ah_'
'Ac'
'AL'
'> _'
'82_'
'67_'
'600_'
'32'
'188'
'):_'
') (_'
' /_'
'  _'
'ño'
'é'
'}'
'zählt_'
'zuf'
'zer_'
'zahl_'
'wonach_'
'wissenschaftliche_'
'wick'
'weshalb_'
'werfen_'
'welt'
'weather_'
'wake_'
'wahr_'
'vous_'
'vorzulegen_'
'vorgeschlagene_'
'vier'
'viel'
'vessels_'
'verteilt_'
'versi'
'verpflichten_'
'verlangen_'
'verkaufen_'
'verf'
'verehrte_'
'underlying_'
'umzu'
'tü'
'tzung_'
'typische'
'typical_'
'treiben_'
'transactions_'
'tou'
'toll_'
'thro'
'thousand_'
'ther'
'telephone_'
'teil'
'taxpayers_'
'tain'
'surprised_'
'stu'
'strength_'
'stance_'
'sson_'
'sso'
'sses_'
'speakers_'
'spacious_'
'sovereignty_'
'solid_'
'soldiers_'
'smus_'
'sim'
'sicheren_'
'shortly_'
'shop_'
'shi'
'securities_'
'seats_'
'seat_'
'schnelle_'
'schm'
'ruhig_'
'roll_'
'ria'
'rg'
'reta'
'rest'
'respective_'
'researchers_'
'representing_'
'reifen_'
'ree'
'rede'
'recognised_'
'radical_'
'push_'
'ption_'
'prison_'
'precise_'
'pr'
'plenty_'
'pleasure_'
'pilot_'
'pie'
'personally_'
'patent_'
'passieren_'
'ought_'
'ose'
'organizations_'
'ore_'
'okay_'
'occurred_'
'occasions_'
'obstacles_'
'nze'
'nin'
'neun_'
'nds_'
'nahmen_'
'my'
'mus'
'mt'
'motor_'
'mode_'
'metro_'
'match_'
'lus'
'lots_'
'lived_'
'liti'
'liquidity_'
'lg'
'leistungen_'
'lde'
'laufenden_'
'ktion_'
'konkreten_'
'keineswegs_'
'investitionen_'
'inter_'
'insufficient_'
'indicate_'
'illegalen_'
'iger'
'idi'
'ich'
'humanitären_'
'hence_'
'handling_'
'größer_'
'grown_'
'grateful_'
'gew'
'fr'
'fell_'
'fas'
'faith_'
'extra'
'exclusion_'
'ex'
'evi'
'estate_'
'erstellen_'
'erp'
'ere'
'erbe'
'entscheidender_'
'encouraging_'
'ena'
'einfache_'
'east_'
'drop_'
'dom'
'dist'
'discovered_'
'deserves_'
'derart_'
'deficits_'
'deco'
'deb'
'dahin_'
'cuisine_'
'ct'
'crew_'
'creative_'
'copy_'
'constantly_'
'consists_'
'cle'
'church_'
'cht'
'cheap_'
'chain_'
'causing_'
'caught_'
'castle_'
'bul'
'bru'
'blue_'
'bli'
'bilateralen_'
'bi_'
'bestehende_'
'bes_'
'bemühen_'
'bel_'
'bed'
'bau_'
'availability_'
'auswirken_'
'ausgezeichneten_'
'aub'
'atz_'
'attempts_'
'arte'
'ard'
'appropriations_'
'anyway_'
'anybody_'
'ante'
'am'
'ahmen_'
'adjustment_'
'adjusted_'
'adapt_'
'ada_'
'acc'
'abwe'
'abgesch'
'ab'
'Zweiten_'
'Youth_'
'Währungsunion_'
'Within_'
'Weltbank_'
'Weiß'
'Völker_'
'Vorstellung_'
'Versicherungs'
'Verfolgung_'
'Verbraucher'
'Unge'
'Umfeld_'
'Tradition_'
'Tour_'
'Ti'
'Tell_'
'Tat'
'Tan'
'Taiwan_'
'TR'
'Sus'
'Steuerzahler_'
'Stellungnahmen_'
'Steinmeier_'
'Sowjetunion_'
'Sommer_'
'Soldaten_'
'Sitz_'
'Siehe_'
'Samsung_'
'Sachen_'
'Rezeption_'
'Rechten_'
'Real'
'Ratsvorsitz_'
'Pro_'
'Play'
'Paul'
'Palestine_'
'PI'
'PDF_'
'Ober'
'OS_'
'Nos_'
'Non_'
'Natura_'
'National'
'NS'
'Männern_'
'Morocco_'
'Mor'
'Mikro'
'Micro'
'Methoden_'
'Mart'
'Mark_'
'Major_'
'Lauf'
'Las_'
'Kontinent_'
'Kommissionspräsident_'
'Kartell'
'Kapazitäten_'
'Israelis_'
'Interessen'
'Institution_'
'Innovations'
'ICT_'
'Hauses_'
'Haus'
'Hauptstadt_'
'Ham'
'Halb'
'Hal'
'Gut'
'Gleichstellung_'
'Gemeinschaften_'
'Garantien_'
'Gang_'
'Ga'
'GA'
'Foto_'
'Fenster_'
'FR'
'Express_'
'Eurobarometer_'
'Erhaltung_'
'Erfolge_'
'Eltern_'
'Einwohner_'
'Einstellung_'
'Eins'
'ER_'
'EEA_'
'Dublin_'
'Drogen'
'Drei_'
'Dienst_'
'Department_'
'Declaration_'
'Decision_'
'Darum_'
'Danish_'
'DER_'
'Cre'
'Commissioners_'
'Civil_'
'Chile_'
'COM_'
'CD'
'Bus_'
'Blut'
'Besorgnis_'
'Bereitstellung_'
'Bene'
'Bay_'
'Balkan_'
'Austausch_'
'Atlantic_'
'Anhang_'
'And'
'Allgemein'
'Act_'
'Abschaffung_'
'ASEAN_'
'AI'
'?"_'
'82'
'77_'
'73_'
'40'
'1970_'
'1000_'
'''_'
''''
' )'
'ührung_'
'öffentlicher_'
'ès_'
'ätze_'
'är_'
'zugrunde_'
'zh'
'zar'
'ye_'
'ye'
'wirkt_'
'wirksamen_'
'wertung_'
'wachsende_'
'versch'
'vern'
'verhindert_'
'verd'
'usly_'
'urs_'
'undertaken_'
'uh_'
'tätigkeit_'
'tsch'
'trillion_'
'treat_'
'traditionellen_'
'tly_'
'title_'
'tf'
'ters_'
'süd'
'sver'
'survey_'
'sur_'
'strict_'
'sti'
'ssa'
'spät_'
'sprach_'
'sicherheit_'
'she'
'selbst'
'seid_'
'secret_'
'schl'
'sb'
'saved_'
'sad'
'räume_'
'rose_'
'rin_'
'rie_'
'rian_'
'returned_'
'retail_'
'respected_'
'renewed_'
'ren'
'rein'
'regret_'
'referendum_'
'recover_'
'read'
'rag'
'rac'
'quotas_'
'quit'
'qualified_'
'pun'
'pul'
'projekte_'
'produziert_'
'pretty_'
'prefer_'
'por_'
'photo_'
'pho'
'phi'
'pf'
'permitted_'
'pe'
'pattern_'
'path'
'participating_'
'para_'
'ow'
'overcome_'
'osi'
'orte'
'näher_'
'normalerweise_'
'nord'
'noise_'
'nnte'
'netze_'
'ndl'
'mou'
'mill'
'migrants_'
'mi'
'mes_'
'mental_'
'meist_'
'makers_'
'lz'
'lit'
'lichkeiten_'
'leisure_'
'leich'
'lauf'
'labelling_'
'künftig_'
'kom'
'klaren_'
'ki_'
'kenne_'
'joining_'
'ize_'
'israelischen_'
'ious_'
'ins'
'ino_'
'indi'
'ile'
'hör'
'hydro'
'hum'
'hs_'
'hoo'
'hole_'
'hm'
'hil'
'herrscht_'
'heraus_'
'hearing_'
'harmonisation_'
'habit'
'gt'
'gon'
'gewählt_'
'genügend_'
'gent'
'freuen_'
'fre'
'firstly_'
'fewer_'
'farm_'
'falling_'
'examined_'
'etzen_'
'esp'
'esa'
'erwi'
'erlauben_'
'erie'
'entlang_'
'ens'
'enge_'
'enge'
'emb'
'ell'
'eingeleitet_'
'egt_'
'ede'
'ecken_'
'dürften_'
'drivers_'
'drinking_'
'dream_'
'division_'
'disposal_'
'discussing_'
'disasters_'
'direkten_'
'derer_'
'dependent_'
'dep'
'demonstrate_'
'decisive_'
'de'
'dauer'
'cul'
'cooperate_'
'client_'
'classes_'
'cis'
'chts'
'chen'
'centuries_'
'cent_'
'bung_'
'bro'
'briefly_'
'bracht_'
'betont_'
'beschließen_'
'beschleunigen_'
'beraten_'
'ben'
'believed_'
'behauptet_'
'begegnen_'
'beenden_'
'ava'
'außen_'
'ausb'
'auftr'
'aufen_'
'armen_'
'anywhere_'
'anlagen_'
'angesehen_'
'ane'
'andererseits_'
'ances_'
'alcohol_'
'airports_'
'ahr'
'absolut_'
'Wird_'
'Win'
'Wil'
'Welche_'
'WE'
'Volkes_'
'Verkauf_'
'Urteil_'
'UR'
'Texte_'
'Ter'
'Taliban_'
'Süden_'
'Stunde_'
'Sowohl_'
'Schwer'
'School_'
'Rom'
'Resolution_'
'Rat'
'RG'
'Power_'
'Potenzial_'
'Politiken_'
'Pla'
'Pala'
'PHP_'
'PC'
'Nahrungsmittel'
'Nachrichten_'
'Motor'
'Mona'
'Mess'
'Mei'
'Mangel_'
'Mad'
'Lö'
'Located_'
'Kulturen_'
'Krisen_'
'Kai'
'Jugend_'
'Jugend'
'Jesus_'
'Jedes_'
'Ihres_'
'Hussein_'
'Hochschul'
'Herz'
'Hen'
'Handeln_'
'Grundsätze_'
'Give_'
'Gewährleistung_'
'Genau_'
'Geldpolitik_'
'Gelder_'
'Garten_'
'Gar'
'Förder'
'Front_'
'Frankreichs_'
'Flexibilität_'
'Finanzkrise_'
'Film'
'Everything_'
'Erreichung_'
'Emissions'
'ECU_'
'Deswegen_'
'Cro'
'Cam'
'Cab'
'CE_'
'C5_'
'Breitband'
'Blut_'
'Blue_'
'Bemerkungen_'
'Beach_'
'Baby_'
'Außenpolitik_'
'Aussch'
'Aufhebung_'
'Asyl'
'Arr'
'Altstadt_'
'Alter_'
'Agriculture_'
'Achtung_'
'Absch'
'AU'
'AT_'
'ACP_'
'? '
'90'
'63_'
'62_'
'57_'
'37'
'2050_'
'04'
'/'
'.” _'
'.: +_'
'-/_'
', „_'
') - _'
'! '
' » _'
'“ (_'
'üb'
'ú'
'él'
'äßig'
'Ü'
'Öffnung_'
' – _'
'zukommen_'
'zieht_'
'zahlungen_'
'yr'
'wünsche_'
'wu'
'worst_'
'work'
'wood_'
'wis'
'winter_'
'willkommen_'
'wild_'
'welt_'
'weißt_'
'vorgenommen_'
'visa_'
'vielmehr_'
'verä'
'verz'
'verletzt_'
'verkauft_'
'verein'
'uti'
'ust'
'uren_'
'upper_'
'unterliegen_'
'unabhängigen_'
'unabhängige_'
'uli'
'ug'
'uer_'
'twenty_'
'tter_'
'troops_'
'tritt_'
'topic_'
'tom'
'till_'
'ther_'
'tea_'
'tb'
'supplementary_'
'super_'
'suggested_'
'steigern_'
'spectrum_'
'sne'
'sichergestellt_'
'shortcomings_'
'shadow_'
'sending_'
'seeing_'
'schöne_'
'scar'
'sab'
'roughly_'
'rity_'
'rift_'
'richt'
'revenues_'
'restore_'
'resistance_'
'residence_'
'relief_'
'relaxing_'
'refugee_'
'refers_'
'rechtliche_'
'rece'
'rea'
'raten_'
'rate'
'rapporteurs_'
'qua'
'prüf'
'proposing_'
'programming_'
'previously_'
'pred'
'prakti'
'pon'
'poli'
'pha'
'palästinensischen_'
'paket_'
'our'
'organisationen_'
'ogene'
'obtained_'
'northern_'
'normalen_'
'nk_'
'nge_'
'nder'
'nahm_'
'multilateral_'
'mini_'
'menschlichen_'
'medicines_'
'mati'
'mat'
'marks_'
'lär'
'luxury_'
'logy_'
'lls_'
'liked_'
'leichte'
'legitimacy_'
'lb'
'lan_'
'kurze_'
'kennt_'
'ition_'
'items_'
'ita'
'investiert_'
'introducing_'
'input_'
'indicators_'
'ind'
'imper'
'imp'
'imagin'
'igung_'
'iges_'
'ierungen_'
'iens_'
'iegen_'
'ido'
'ick'
'hurt_'
'households_'
'hof_'
'hes_'
'heritage_'
'herausge'
'hart_'
'halte'
'hal'
'gun_'
'grati'
'graphics_'
'grants_'
'gr'
'ght_'
'gge'
'gewonnen_'
'geschrieben_'
'geplant_'
'gep'
'geni'
'gemein'
'gelungen_'
'gebe_'
'förder'
'free'
'forthcoming_'
'foot_'
'finished_'
'films_'
'festzustellen_'
'fantastic_'
'false_'
'exposed_'
'explore_'
'explor'
'exclusively_'
'exceptional_'
'eti'
'estimates_'
'ese'
'es'
'ersetzt_'
'erse'
'erleben_'
'ering_'
'ered_'
'entwurf_'
'engage_'
'einrichtungen_'
'eingegangen_'
'effektive_'
'eastern_'
'don'
'disp'
'discipline_'
'desk_'
'depending_'
'def'
'counter'
'contra'
'containing_'
'contained_'
'conduct_'
'concentration_'
'coherent_'
'ceremony_'
'cable_'
'buying_'
'bot_'
'bind'
'bic'
'beweg'
'beträgt_'
'best'
'besitzt_'
'beschränkt_'
'bereitgestellt_'
'beobachten_'
'bekannten_'
'beispiel'
'beigetragen_'
'behörden_'
'beaches_'
'badly_'
'aver'
'autumn_'
'ausschuss_'
'attitude_'
'arrest_'
'arabischen_'
'angemessen_'
'amended_'
'alter_'
'allocated_'
'akzeptiert_'
'aktive_'
'airlines_'
'affects_'
'aff'
'admit_'
'accident_'
'abd'
'YORK_'
'Wä'
'Wor'
'Wolf'
'Wissenschaftler_'
'Wir'
'Weg'
'Wachstums'
'Vom_'
'Villa_'
'Veränderung_'
'Versorgung_'
'Verlust_'
'Venezuela_'
'Ven'
'Valencia_'
'Va'
'VER'
'Ut'
'Up'
'UM'
'Trump_'
'Tonnen_'
'Ten'
'Telekommunikations'
'Taten_'
'TH'
'Sudan_'
'Stä'
'Studenten_'
'Stor'
'Stoffe_'
'Sto'
'Stil_'
'Sprach'
'Spiele_'
'Society_'
'Sm'
'Skype_'
'Sit'
'Sing'
'Should_'
'Sher'
'SCH'
'Roman'
'Road_'
'Rh'
'Rei'
'Ref'
'Rechnungs'
'Quellen_'
'Praktiken_'
'Positionen_'
'Planung_'
'Pic'
'Pf'
'Pan'
'Objective_'
'OR_'
'ON'
'OM'
'Note_'
'Nor_'
'Niederlanden_'
'Neelie_'
'Musik'
'Mur'
'Munich_'
'Minutes_'
'Marktes_'
'MM'
'Lit'
'Leitung_'
'League_'
'LL'
'Kurz_'
'Kredite_'
'Kranken'
'Konsequenzen_'
'Konsens_'
'Junge_'
'Jam'
'Insgesamt_'
'Hi_'
'Has'
'Hallo_'
'Hai'
'Grünbuch_'
'Glauben_'
'Glas'
'Fuß_'
'Franc'
'Flughäfen_'
'Find_'
'Ferien'
'Euch_'
'Erd'
'Einnahmen_'
'Dynamik_'
'Dur'
'Due_'
'Drittel_'
'Details_'
'Dea'
'Datenbank_'
'Cy'
'Cur'
'Croatia_'
'Con'
'Comm'
'Cle'
'Cin'
'Char'
'Catal'
'CAN'
'Black_'
'Beteiligten_'
'Besteuerung_'
'Bereitschaft_'
'Ben_'
'Begriff_'
'BMW_'
'Ausbau_'
'Anst'
'Anbetracht_'
'All'
'Alc'
'Administration_'
'Abwe'
'Abf'
'A3'
'89_'
'87_'
'8'
'66_'
'58_'
'45'
'34'
'2030_'
'186'
'180_'
'04_'
'!'
'ätzen_'
'äg'
'Ägypten_'
'zweifellos_'
'zurückzuführen_'
'zunehmenden_'
'zulassen_'
'zit'
'zie'
'xa'
'wireless_'
'wie'
'west_'
'wesen_'
'weapon_'
'water'
'wasn_'
'wann_'
'wahren_'
'wachsen_'
'visited_'
'vis'
'violent_'
'vin'
'vet'
'verweisen_'
'vert'
'verle'
'vereinbar_'
'vac'
'untersucht_'
'unterge'
'unre'
'unh'
'ungs_'
'understood_'
'uncertainty_'
'ufen_'
'ues_'
'tting_'
'träger_'
'tori'
'tig'
'tha'
'teri'
'tene'
'tend_'
'strengthened_'
'strategie_'
'stoff'
'stimulate_'
'steigt_'
'stayed_'
'stake_'
'sponsor'
'sph'
'spezifische_'
'speziell_'
'spe'
'sounds_'
'somebody_'
'solve_'
'solely_'
'sle'
'sinnvoll_'
'sichere_'
'shut_'
'sge'
'senken_'
'seite_'
'seconds_'
'sake_'
'rze'
'russische_'
'rta'
'rl'
'rien'
'ri'
'rental_'
'rem'
'regulators_'
'reflection_'
'reflected_'
'red'
'rechtlich_'
'rati'
'ran_'
'rahmen_'
'qualifications_'
'pushed_'
'purchases_'
'proud_'
'promised_'
'proc'
'pressures_'
'ppi'
'plays_'
'pays_'
'owe'
'organisiert_'
'operates_'
'op_'
'ogi'
'nütz'
'nse'
'nm'
'nken_'
'nge'
'nde'
'nachfrage_'
'ministeri'
'mes'
'manchen_'
'lter_'
'loyal'
'ließ_'
'liefern_'
'letzter_'
'lesson_'
'length_'
'lei'
'lau'
'könne_'
'kostet_'
'komplizierte'
'komp'
'kno'
'klein_'
'klar'
'kar'
'ised_'
'ise'
'internen_'
'institut'
'initially_'
'ining_'
'inh'
'informal_'
'infolge_'
'iff'
'homes_'
'home'
'hinzu'
'hingewiesen_'
'hingegen_'
'hard'
'handle_'
'grundsätzlich_'
'griechische_'
'gor'
'golf_'
'gewalt'
'getragen_'
'generations_'
'geklärt_'
'gegenwärtige_'
'gee'
'gal'
'fühlen_'
'fying_'
'fund'
'früh_'
'froh_'
'freundliche_'
'freundlich_'
'formed_'
'fen'
'falsche_'
'extraordinary_'
'etr'
'esi'
'escape_'
'erzeug'
'ert'
'erin_'
'erheblichen_'
'erfordern_'
'entsteht_'
'ents'
'engineering_'
'engine_'
'enf'
'elli'
'eite_'
'eis'
'effiziente_'
'edge_'
'ear'
'doubts_'
'disputes_'
'dispute_'
'direkte_'
'digitalen_'
'dienst_'
'delivery_'
'deinen_'
'dee'
'dd'
'dad_'
'cus'
'count_'
'copyright_'
'cope_'
'consultative_'
'consult_'
'considerations_'
'concentrate_'
'committees_'
'coalition_'
'clo'
'clarify_'
'chef_'
'camp_'
'bun'
'budgets_'
'bs_'
'brother_'
'broader_'
'boot'
'blieb_'
'bili'
'betrieben_'
'beseitigen_'
'bericht_'
'bene'
'bel'
'bekräftigt_'
'bek'
'beibehalten_'
'behörde_'
'behaviour_'
'basiert_'
'bank'
'ausländische_'
'ausgerichtet_'
'arise_'
'approves_'
'anwenden_'
'answers_'
'ancient_'
'alo'
'ais'
'afford_'
'affecting_'
'actively_'
'\\_'
'Zwei_'
'Zuge_'
'Zo'
'Ziffer_'
'Year_'
'Wieso_'
'Wall'
'Vertretern_'
'Verletzung_'
'Verfügbarkeit_'
'Vel'
'Ungleichheit_'
'USD_'
'Trag'
'Tourismus_'
'Tisch_'
'The'
'Test_'
'Tar'
'TU'
'System'
'Streit'
'Ster'
'Steigerung_'
'Sor'
'Situationen_'
'Schiffe_'
'SQL_'
'SE_'
'Rettungs'
'Respekt_'
'Relations_'
'Red'
'Ratspräsident_'
'Protocol_'
'Pra'
'Pilot'
'Perspektive_'
'Palestinians_'
'PM'
'Official_'
'Notes_'
'Neben'
'NG'
'Myanmar_'
'Mos'
'Maß_'
'Mazedonien_'
'Manuel_'
'Maastricht_'
'Lä'
'Luftverkehrs'
'Lou'
'Liikanen_'
'Laut_'
'Lam'
'Können_'
'Kooperation_'
'Konvent_'
'Kontext_'
'Konjunktur'
'Kompetenzen_'
'Kommen_'
'Kle'
'Kla'
'Key_'
'Kategorie_'
'Jud'
'José_'
'Internationale_'
'Inneres_'
'Info'
'High'
'Henry_'
'Got'
'Glaubwürdigkeit_'
'Gibt_'
'Gewicht_'
'Gesetzgebung_'
'Gerichte_'
'Gel'
'Geist_'
'Fü'
'Funktionieren_'
'Frist_'
'Fri'
'Freizügigkeit_'
'Finnish_'
'Fi_'
'Fer'
'Event'
'Ev'
'Et'
'Erwerb_'
'Entscheidungsträger_'
'EF'
'Drogen_'
'Dre'
'Download_'
'Dol'
'Disk'
'Deutschlands_'
'Dal'
'DC_'
'Cross_'
'CT'
'CIA_'
'Book_'
'Beschlusses_'
'Bef'
'Beamten_'
'BER'
'Ausgangs'
'Ausführungen_'
'Argentinien_'
'Arc'
'Apple_'
'Anzeichen_'
'Ant'
'Angel'
'Ama'
'Act'
'Abd'
'AD'
'91'
'62'
'57'
'48'
'1957_'
'"?_'
'č_'
'č'
'ünd'
'überaus_'
'äng'
'ändige'
'ält'
'ährung_'
'äh'
'zz'
'zes_'
'yt'
'yed_'
'yan'
'wunder'
'win'
'whilst_'
'whereby_'
'welchen_'
'weiterge'
'vorher_'
'vorgestellt_'
'voraus_'
'vid'
'viable_'
'verw'
'verteidigen_'
'verdienen_'
'ved_'
'valuable_'
'valid_'
'uße'
'unm'
'ungsk'
'una_'
'ultra'
'uen_'
'udi'
'ucht_'
'uchen_'
'türkischen_'
'tw'
'trans'
'topics_'
'tle'
'tight'
'territories_'
'termin'
'teilt_'
'tatsächlichen_'
'taten_'
'tage_'
'surprise_'
'surface_'
'suite_'
'suggestions_'
'subsequent_'
'ständigen_'
'stattfindet_'
'ssen'
'spre'
'sorg'
'solches_'
'sodass_'
'slightly_'
'sis'
'significance_'
'selector_'
'seiten_'
'seh'
'schwer'
'schme'
'sau'
'sat'
'san'
'rücken_'
'row_'
'row'
'route_'
'returns_'
'resulted_'
'respects_'
'remarks_'
'religion_'
'reli'
'regionaler_'
'regimes_'
'reduzieren_'
'recommended_'
'reck'
'rechnen_'
're'
'rc'
'rbe'
'rasche'
'rap'
'quent'
'puts_'
'promises_'
'professionals_'
'presents_'
'posed_'
'plane_'
'pis'
'photograph'
'permit_'
'perform_'
'pen_'
'partnerships_'
'papers_'
'ownership_'
'outdoor_'
'ote'
'ori'
'organis'
'ohn'
'ny'
'nom'
'nne'
'nights_'
'nger_'
'nger'
'net'
'nearby_'
'ndel'
'nch'
'mü'
'mpl'
'mpe'
'mountains_'
'minor_'
'mini'
'mil'
'mehr'
'medicine_'
'manager_'
'manage'
'mache_'
'ländern_'
'lla'
'lists_'
'liquid'
'lighting_'
'legte_'
'langsam_'
'kit'
'kis'
'kil'
'kh'
'kel_'
'kel'
'karte_'
'jüngste_'
'justify_'
'jet'
'itt'
'isti'
'iri'
'ira'
'ior_'
'invo'
'interess'
'insist_'
'ino'
'inne'
'infringements_'
'inclusive_'
'ij'
'iga'
'ies'
'iel_'
'ian'
'ial'
'höchste_'
'husband_'
'humans_'
'hit'
'hinzu_'
'hinder'
'hilfreich_'
'hergestellt_'
'hel'
'hee'
'hed_'
'heads_'
'gä'
'gru'
'gkeit_'
'gewe'
'getötet_'
'get'
'geringere'
'generated_'
'gel_'
'furniture_'
'frequently_'
'fourth_'
'foundation_'
'foster_'
'form'
'forest_'
'fordere_'
'ford_'
'fol'
'focusing_'
'focuses_'
'flug'
'flights_'
'fis'
'female_'
'fehl'
'favor_'
'fassen_'
'facts_'
'exploitation_'
'exciting_'
'examination_'
'everywhere_'
'esh'
'ery_'
'erwiesen_'
'erweise_'
'ersetzen_'
'ers'
'erre'
'erneuerbare_'
'erlebt_'
'erle'
'ergänzt_'
'env'
'entw'
'ende'
'emphasised_'
'eme'
'ela'
'einges'
'einerseits_'
'eigenes_'
'eigen'
'egen_'
'effizient_'
'eas'
'dé'
'drawing_'
'dramatic_'
'dg'
'dec'
'deadline_'
'dates_'
'creates_'
'cre'
'covering_'
'courts_'
'cou'
'conservative_'
'conservation_'
'competence_'
'commodity_'
'ckt_'
'cking_'
'cil'
'chts_'
'chl'
'cart'
'carrying_'
'can'
'bond_'
'bezieht_'
'bewältigen_'
'bela'
'beginnt_'
'bedroom_'
'authorisation_'
'ausländischen_'
'ausgezeichnete_'
'ausg'
'aug'
'audit_'
'audio_'
'ato'
'ati'
'arti'
'apo'
'anischen_'
'angemessenen_'
'alter'
'alp'
'akt'
'adequately_'
'addresses_'
'achtet_'
'ac'
'Zypern_'
'Zwischen'
'Zusammen'
'Zug'
'Zen'
'Würde_'
'Wit'
'Wie'
'Wall_'
'Vorw'
'Vienna_'
'Viel'
'Verwirklichung_'
'Verla'
'Verl'
'Verf'
'VI_'
'US'
'Trek_'
'Todesstrafe_'
'Teufel_'
'Tests_'
'Tabak'
'Such'
'Strei'
'Start'
'Stahl'
'Southern_'
'Sonnen'
'Sobald_'
'Siege'
'Sen'
'Selbstverständlich_'
'Seh'
'Schau'
'Rom_'
'Ret'
'Renten'
'Regimes_'
'Referendum_'
'Rechtsstaatlichkeit_'
'Raums_'
'Rap'
'Rahmenbedingungen_'
'Radio_'
'Qua'
'Procedure_'
'Planeten_'
'Personen'
'Peace_'
'Partnerschaften_'
'Palacio_'
'PRESS_'
'PE'
'On'
'OU'
'OF_'
'Nin'
'Nielson_'
'Nehmen_'
'Nation_'
'Moscow_'
'Med'
'Mechanismen_'
'Mark'
'Mak'
'Mac_'
'Lü'
'Lehr'
'Lebensmittel_'
'Leave_'
'Kroes_'
'Kos'
'Konsultation_'
'Konf'
'Klasse_'
'Kirk_'
'Kha'
'Ken'
'Karten_'
'Kapitel_'
'Kampf'
'Kam'
'Jordan_'
'Job_'
'Ji'
'Jane'
'Jahr'
'Jack_'
'Islands_'
'Import'
'Hände_'
'Hy'
'Hostel_'
'Hera'
'Haftung_'
'Gewi'
'Gesicht_'
'Ges'
'Georg'
'Geneva_'
'General'
'Gemäß_'
'GF'
'Freude_'
'Form'
'Ford_'
'Fla'
'Federation_'
'Faktor_'
'Errichtung_'
'Erf'
'Einstellungen_'
'Einer_'
'EP'
'EA'
'Dort_'
'Don'
'Din'
'Des_'
'Could_'
'Col'
'Cli'
'Cher'
'Charlie_'
'Charles_'
'Camp'
'CON_'
'Büro_'
'Broad'
'Blo'
'Berg'
'Baltic_'
'Arbeitgeber_'
'Arbeiter_'
'Anzeige'
'Ana'
'Aktien'
'Ah'
'AG'
'69_'
'55'
'44'
'42'
'3D_'
'39'
'36'
'...'
', '_'
'™ _'
'…'
'“'
'‘_'
'ün'
'überprüft_'
'übermittelt_'
'österreichischen_'
'ähnlich_'
'ägen_'
'ão_'
'án'
'{_'
'zügig'
'zl'
'ziel'
'wood'
'wohnen_'
'wig'
'wiederholt_'
'wichtiges_'
'wettbewerbs'
'wenigsten_'
'weite_'
'wasser'
'warn'
'wachstum_'
'vorliegt_'
'von'
'vollen_'
'virtually_'
'ville_'
'victim_'
'ven'
'vely_'
'ute'
'unterstütze_'
'unt'
'unemployed_'
'undertakings_'
'uncon'
'ufe'
'ua'
'tungs'
'tun'
'tte'
'tst'
'trip_'
'trans_'
'traditionelle_'
'trace'
'tors_'
'tic'
'thre'
'teuer'
'territorial_'
'teams_'
'tausch'
'tande'
'tab'
'supplier_'
'succeeded_'
'stupid_'
'studio_'
'stories_'
'stein_'
'stadt_'
'spiel'
'spi'
'spa_'
'sp'
'soft_'
'smooth_'
'signing_'
'shipping_'
'ship'
'sexual_'
'selten_'
'selling_'
'seg'
'sco'
'schä'
'schwere_'
'schrittweise_'
'schle'
'schau'
'satisfied_'
'safer_'
'safeguard_'
'rü'
'rut'
'roa'
'ride_'
'residents_'
'representation_'
'repeated_'
'repa'
'remarkable_'
'releases_'
'regularly_'
'regelung_'
'regelmäßig_'
'refuse_'
'rder'
'raus'
'ratio_'
'ratification_'
'raph'
'rant'
'quantitative_'
'prospect_'
'propaganda_'
'progressive_'
'preis_'
'praktische_'
'pped_'
'pou'
'populations_'
'pli'
'pil'
'patterns_'
'patient_'
'pass'
'ove'
'oun'
'oss'
'org'
'ore'
'ordnungsgemäß_'
'optimal_'
'opi'
'oning_'
'ona_'
'olin'
'offizielle_'
'ock'
'nochmals_'
'nobody_'
'nko'
'niveau_'
'nissen_'
'niedrigen_'
'niederländischen_'
'nieder'
'necessarily_'
'ndi'
'mä'
'multiple_'
'momentan_'
'mol'
'mmel'
'mittels_'
'miss_'
'mid'
'messen_'
'meinte_'
'mber'
'maß'
'mali'
'machines_'
'lös'
'lying_'
'luc'
'lter'
'logi'
'lock_'
'locations_'
'lle'
'lim'
'li_'
'lays_'
'late'
'lap'
'lam'
'kov'
'kl'
'kin_'
'kid_'
'jemals_'
'ix_'
'ister'
'islands_'
'ish'
'invested_'
'install_'
'inn'
'influen'
'inevitable_'
'inen_'
'inder'
'inco'
'impression_'
'ils_'
'ild'
'ika'
'ign'
'ient'
'icherheit_'
'ib'
'hopes_'
'honour_'
'hne_'
'hn_'
'highlighted_'
'hierfür_'
'hierbei_'
'heraus'
'hem'
'heits'
'heavily_'
'healthy_'
'hat'
'hair_'
'habt_'
'gut'
'guidance_'
'gri'
'grenzüberschreitenden_'
'grenz'
'gratulieren_'
'grand_'
'gier'
'geöffnet_'
'gewa'
'gesellschaft_'
'gene'
'gemeinsamer_'
'geme'
'gelo'
'gek'
'gegen'
'gefährden_'
'foundations_'
'formen_'
'flying_'
'fleet_'
'firmly_'
'ffi'
'fashion_'
'familiar_'
'fairen_'
'facility_'
'exp'
'existiert_'
'exemption_'
'exception_'
'erwerben_'
'erkannt_'
'erh'
'erei'
'epi'
'entrepreneurs_'
'ente_'
'enr'
'engagement_'
'endet_'
'employ'
'elektronischen_'
'ektor_'
'einverstanden_'
'eil'
'eigener_'
'ei'
'educational_'
'eda'
'economists_'
'echen_'
'eb'
'dul'
'discharge_'
'dining_'
'deswegen_'
'destroy_'
'derzeitige_'
'defe'
'decken_'
'deals_'
'davor_'
'dance_'
'dal'
'constant_'
'consi'
'computers_'
'composed_'
'comb'
'cli'
'clause_'
'chief_'
'ced_'
'capitalism_'
'capita_'
'cad'
'busy_'
'brief_'
'booking_'
'boat_'
'blocks_'
'betrieb'
'bestimmter_'
'beschäftigen_'
'belo'
'beings_'
'beauty_'
'beantworten_'
'bauen_'
'basieren_'
'avi'
'auszus'
'ausl'
'ausgehen_'
'ausgeb'
'aus'
'audit'
'auber'
'attach'
'att'
'ata'
'argument_'
'argued_'
'anis'
'ament_'
'alternatives_'
'adi'
'achievements_'
'abgest'
'aba'
'aa'
'[ _'
'Zusammenbruch_'
'Zins'
'Yo'
'Wort'
'William_'
'Wagen_'
'Wach'
'Vorsitzenden_'
'Vorausschau_'
'Voraus'
'Vir'
'Verz'
'Verteilung_'
'Verteidigungs'
'Versorgungs'
'Versammlung_'
'Verabschiedung_'
'Until_'
'UE'
'Ton'
'Through_'
'Tha'
'Terroristen_'
'Telefon_'
'TT'
'TO_'
'TF'
'Sul'
'Stufe_'
'Sou'
'Ska'
'Similarly_'
'Sil'
'Sh'
'Sep'
'Sel'
'Schreiben_'
'Schn'
'Schlacht'
'Sau'
'SC'
'Rural_'
'Rein'
'Register_'
'Rats'
'Rather_'
'Project_'
'Prize_'
'Presse_'
'Point_'
'Patent'
'Parti'
'Park'
'Para'
'Palästinenser_'
'Palace_'
'Pad'
'Ok'
'Od'
'Nigeria_'
'Nieder'
'Newsletter_'
'New'
'Never_'
'Netz'
'Neighbourhood_'
'Nachricht_'
'Mut_'
'Multi'
'Mittelmeer'
'Missbrauch_'
'Ministerpräsident_'
'Mini'
'Mid'
'Mass'
'Mari'
'Marg'
'Mao_'
'Main'
'Made'
'MP'
'Listen_'
'Links_'
'LU'
'LIFE_'
'König_'
'Kriminalität_'
'Kopenhagen_'
'Komponenten_'
'Kollege_'
'Kluft_'
'Klimaanlage_'
'Kil'
'Kauf_'
'Kauf'
'Jin'
'Israels_'
'Immer_'
'IF'
'Hör_'
'Häfen_'
'Hot'
'Hohe_'
'Hill_'
'Herkunft_'
'Heads_'
'Head_'
'Having_'
'Hall'
'Haft'
'Had'
'Gute_'
'Gri'
'Gegner_'
'Galileo_'
'Fä'
'Fotos_'
'Flugzeug'
'Finanzp'
'Finanzierungen_'
'Fast_'
'Fassung_'
'Exporte_'
'Enjoy_'
'Element_'
'EP_'
'Die'
'Deutschen_'
'Democratic_'
'Deb'
'Dach'
'Country_'
'Constitutional_'
'Computer'
'College_'
'Cent'
'Card_'
'CN'
'CM'
'CL'
'Burg'
'Bug'
'Budgets_'
'Bru'
'Bring'
'Bou'
'Bos'
'Borg_'
'Binnen'
'Bin'
'Bild'
'Bez'
'Bes'
'Bek'
'Beijing_'
'Behörde_'
'Bauern_'
'Banken'
'Bahn'
'B5_'
'Ava'
'Ausnahme'
'Ausge'
'Ausarbeitung_'
'Augenblick_'
'App'
'Apartment_'
'Annual_'
'Ann'
'Anbieter_'
'Amts'
'Ak'
'Ach_'
'Ablehnung_'
'Abhängigkeit_'
'Abb'
'?'
': @_'
':'
'99'
'81_'
'74'
'72_'
'54'
'53'
'4379_'
'350_'
'35'
'28'
'1967_'
'-- _'
');_'
' « _'
'–_'
'м'
'üg'
'überzeugen_'
'übertr'
'überrascht_'
'ère_'
'Übersch'
'Öko'
'· _'
'®'
'zy'
'zun'
'zugute_'
'zis'
'zentren_'
'yours_'
'ym'
'yb'
'wusste_'
'wur'
'wre'
'wirk'
'windows_'
'wiederholen_'
'werke_'
'wen_'
'wartet_'
'vorauss'
'visitors_'
'verändern_'
'verwende_'
'versetzt_'
'verschiedener_'
'verschaffen_'
'verringert_'
'vergi'
'verda'
'uts_'
'ute_'
'uste'
'ush'
'ursprünglichen_'
'ursprünglich_'
'upt'
'unu'
'untern'
'united_'
'unions_'
'umgehen_'
'ully_'
'uin'
'uch'
'töten_'
'typically_'
'tum_'
'trains_'
'tr'
'tough_'
'tons_'
'til'
'tigen_'
'tial_'
'throw_'
'teure'
'tee'
'technologischen_'
'tap'
'syn'
'sufficiently_'
'stü'
'stick_'
'stehenden_'
'staaten_'
'sprachen_'
'spo'
'spiegelt_'
'sorgt_'
'sorgfältig_'
'sol'
'setz'
'sensible_'
'schwieriger_'
'schweren_'
'schutz'
'schlechte_'
'scen'
'sauber_'
'sand'
'rz'
'rus'
'rung_'
'rte'
'routes_'
'ros'
'roll'
'roi'
'rn'
'rma'
'rio'
'rik'
'rieren_'
'revol'
'revision_'
'retten_'
'restricted_'
'residential_'
'reputation_'
'repeatedly_'
'regelungen_'
'rechten_'
'reale_'
'reaction_'
'react_'
'rau'
'question'
'q_'
'prozess_'
'proportion_'
'promoted_'
'prom'
'profound_'
'procurement_'
'privacy_'
'pris'
'predict'
'potenziellen_'
'possibly_'
'polnischen_'
'politically_'
'planung_'
'plan'
'phones_'
'pet_'
'pert'
'performed_'
'pei'
'osa'
'ordern_'
'ordered_'
'ord_'
'opens_'
'offiziell_'
'offices_'
'nt'
'nsp'
'notwendige_'
'nischen_'
'nie'
'nat'
'nachdrücklich_'
'müsse_'
'movie_'
'mistake_'
'missing_'
'mi_'
'metres_'
'meter_'
'merger_'
'meister'
'mein'
'maximi'
'man'
'male_'
'läng'
'lte_'
'lk'
'link'
'lift'
'lieb'
'liability_'
'leistung_'
'lebt_'
'laying_'
'langfristig_'
'lac'
'kraft'
'korrekt_'
'kop'
'judge_'
'jegliche_'
'ira_'
'investing_'
'interface_'
'intelligence_'
'institutionelle_'
'insist'
'implies_'
'ilde'
'igkeiten_'
'igi'
'ießen_'
'ico'
'hör_'
'hostel_'
'hospital_'
'holds_'
'hinge'
'hing_'
'highlights_'
'heim'
'heat_'
'halb'
'haft'
'gul'
'greifen_'
'governing_'
'gn'
'gliche'
'glad_'
'gingen_'
'gh_'
'gestiegen_'
'gesta'
'geringe_'
'geraten_'
'geplante_'
'geheim'
'gefragt_'
'geeignete_'
'gedr'
'ged'
'fü'
'frühen_'
'freund'
'foot'
'flee'
'fix_'
'fig'
'fears_'
'fan'
'fahrt_'
'factor_'
'expertise_'
'expert_'
'ew'
'essentially_'
'erst'
'ermutigen_'
'erleichtert_'
'erhol'
'equi'
'entwicklung_'
'entscheidend_'
'enth'
'entering_'
'ensch'
'encourages_'
'empower'
'emission_'
'electric_'
'einzuführen_'
'eins_'
'eind'
'egal_'
'ect'
'dy'
'dog_'
'dl'
'div'
'dishes_'
'disa'
'dio'
'digitale_'
'difficulty_'
'description_'
'definitely_'
'definiert_'
'declare_'
'daughter_'
'dasselbe_'
'cut'
'coup_'
'convenient_'
'constitutes_'
'cons'
'complaints_'
'colour'
'coastal_'
'classic_'
'circu'
'chw'
'ched_'
'chas'
'charming_'
'centr'
'by'
'bus'
'bte'
'bri'
'branche_'
'bol'
'bis'
'biodiversity_'
'bezug_'
'bewu'
'bewiesen_'
'bet_'
'besorgt_'
'berufliche_'
'beitr'
'begins_'
'befa'
'band_'
'bahn_'
'backing_'
'backed_'
'authorised_'
'authori'
'aut'
'ausgesprochen_'
'aufzubauen_'
'attended_'
'aste'
'ast'
'ash'
'articles_'
'architect'
'approaches_'
'app'
'angs'
'andte'
'amo'
'amend_'
'alive_'
'ags_'
'adult_'
'ado_'
'adjustments_'
'act'
'absch'
'abo'
']]_'
'Zeitung_'
'Work_'
'Wollen_'
'Winter_'
'Weste'
'Werbung_'
'Webseite_'
'Was'
'Waren'
'Wallström_'
'Wald'
'Waffen'
'WLAN_'
'Vorlage_'
'Vorg'
'Vorbereitungen_'
'Vorbe'
'Viertel_'
'Verlauf_'
'VA'
'Ursachen_'
'Up_'
'Tur'
'Trau'
'Transport'
'Tim'
'Technik_'
'Tea'
'Tau'
'Tas'
'Tarif'
'TNG_'
'Sy'
'Stück_'
'Stärke_'
'Studien_'
'Strukturreformen_'
'Strom_'
'Strasbourg_'
'Spring_'
'Spi'
'Spa'
'Sn'
'Smith_'
'Sl'
'Sie'
'Sho'
'Serb'
'Selbstver'
'Schuh'
'Schon_'
'SY'
'STE'
'SH'
'Rules_'
'Rou'
'Roh'
'Rev'
'Rep'
'Regionalpolitik_'
'RELEASE_'
'Question_'
'Put_'
'Puerto_'
'Prom'
'Potočnik_'
'Pool_'
'Poli'
'Player_'
'Pap'
'Page_'
'PSE_'
'PL'
'PA_'
'Oste'
'Open'
'OLAF_'
'Neg'
'Nahrungsmittel_'
'Mund'
'Moo'
'Mom_'
'Mir'
'Millennium_'
'Mich'
'Mechanismus_'
'Mary_'
'Ltd_'
'Location_'
'Liefer'
'Liebe_'
'Leu'
'Lesung_'
'Lebensqualität_'
'Lass_'
'Lager'
'Kürze_'
'Klimawandels_'
'Kau'
'Kali'
'Justiz'
'Journalisten_'
'Jen'
'Jede_'
'Java_'
'JavaScript_'
'Jahrzehnten_'
'Indonesia_'
'II'
'IG'
'Hierzu_'
'Hi'
'Haupta'
'Gui'
'Gor'
'Glo'
'Gib_'
'Gewässer_'
'Genu'
'Gemeinsame_'
'Gem'
'Geber'
'Gate'
'GP'
'Fur'
'Foto'
'Flüchtlings'
'Fehler'
'Fakten_'
'Facilities_'
'FS'
'Esp'
'Erm'
'Erl'
'Erk'
'Erdgas'
'Er'
'Entschlossenheit_'
'Energies'
'Einf'
'Eigentum_'
'EX'
'EM'
'De'
'Cra'
'Const'
'Consider_'
'Commander_'
'Com'
'Christmas_'
'Chat'
'Chancengleichheit_'
'Chairman_'
'Cat'
'Cameron_'
'Call'
'CP'
'CA_'
'CAMBRIDGE_'
'Büro'
'Bö'
'Byrne_'
'Brexit_'
'Bett_'
'Beifall_'
'Beha'
'Bedürfnissen_'
'Beachtung_'
'Band'
'BM'
'Ausst'
'Auslands'
'Ausgaben'
'Auditors_'
'Angebote_'
'Alta'
'Abh'
'AS_'
'AN_'
'91_'
'71'
'70'
'68'
'6'
'47'
'46_'
'46'
'200'
'198'
'+'
') – _'
' > _'
' +_'
' ("_'
'е_'
'š'
'üssen_'
'ühren_'
'ühr'
'überwiegend_'
'überwachen_'
'übernimmt_'
'überlassen_'
'ös'
'öm'
'ände_'
'Änderungsanträgen_'
'zusammenzuarbeiten_'
'zo_'
'zig'
'zeichne'
'zeichen_'
'zahlt_'
'yn'
'yeah_'
'xe'
'wächst_'
'wort'
'wl'
'wisdom_'
'wirkliche_'
'wich'
'western_'
'weiterzu'
'wa_'
'vollkommen_'
'vita'
'vin_'
'vic'
'verzeichnen_'
'versehene_'
'verschärft_'
'verschl'
'vegeta'
'uu'
'utter'
'ust_'
'updates_'
'unlike_'
'ungsmaßnahmen_'
'undoubtedly_'
'unau'
'ulos'
'ul'
'ude'
'uch_'
'ual'
'tä'
'tv'
'tragic_'
'tone_'
'timely_'
'tie'
'threatened_'
'thal'
'tested_'
'tes'
'teile_'
'tehen_'
'tas'
'tar_'
'tall'
'tag_'
'tables_'
'symbol_'
'switch_'
'surrounded_'
'surely_'
'sun'
'sum'
'sul'
'substantially_'
'su_'
'straight_'
'steigende_'
'ste'
'stages_'
'stab'
'sst_'
'spätestens_'
'spoken_'
'spezielle_'
'speeches_'
'sound'
'soil_'
'slave'
'sions_'
'sin'
'sig'
'shit_'
'sex_'
'selben_'
'secondary_'
'sd'
'schr'
'schli'
'scal'
'run'
'ror'
'rip'
'ria_'
'restoration_'
'rese'
'remo'
'relie'
'reisen_'
'recall_'
'rds_'
'radi'
'quis'
'que'
'qualit'
'pto'
'präsentiert_'
'provider_'
'prope'
'producer_'
'proceed_'
'principal_'
'praktischen_'
'portugiesische'
'pop'
'plo'
'piel'
'phon'
'perfekte'
'pel_'
'parks_'
'ovi'
'otel_'
'oriented_'
'ord'
'opt_'
'ont'
'oe'
'och'
'observations_'
'obliged_'
'ntar'
'not'
'niedrig_'
'nha'
'ngi'
'natur'
'nah'
'museums_'
'murder_'
'multilateralen_'
'mont'
'mono'
'mod'
'mn'
'mix_'
'mist'
'mines_'
'mic_'
'merika'
'meets_'
'meals_'
'mb'
'mangel'
'mals_'
'lüsse'
'ländliche_'
'ly'
'luxurious_'
'lte'
'loved_'
'loo'
'logie_'
'lled_'
'lige'
'life'
'liegenden_'
'leiten_'
'leistet_'
'leib'
'leb'
'layer_'
'kul'
'kri'
'kostenlos_'
'kostenfreie'
'konferenz_'
'kolle'
'kids_'
'ki'
'ket'
'jemanden_'
'japanische_'
'iso'
'ique_'
'ione'
'investor_'
'interpret'
'interm'
'integriert_'
'installed_'
'inca'
'inadequate_'
'illegale_'
'ify_'
'ific'
'iefer'
'ideological_'
'identification_'
'ide'
'icher'
'hre'
'honest_'
'hmen_'
'hme'
'hinzufügen_'
'hinaus'
'hielt_'
'hervorragende_'
'hend_'
'heil'
'hap'
'had'
'gle'
'gesunde'
'gestaltet_'
'gespielt_'
'gesetz'
'gerät_'
'gerufen_'
'geographical_'
'generate_'
'gemeinschaftlichen_'
'gemeinschaft_'
'gelernt_'
'gehabt_'
'gefa'
'gebieten_'
'fünf'
'fälle_'
'fähig_'
'fä'
'ften_'
'fro'
'frau'
'fragment'
'fought_'
'forderte_'
'fly_'
'fin_'
'fill_'
'fied_'
'fic'
'fi_'
'fate_'
'fal'
'fab'
'eß'
'expanded_'
'expand_'
'exa'
'eure_'
'etzt_'
'ession'
'essen'
'error_'
'erheben_'
'entscheidenden_'
'entity_'
'ensi'
'enjoyed_'
'ener'
'encouraged_'
'employed_'
'emotional_'
'elt_'
'els'
'einzuleiten_'
'einst_'
'einschlägigen_'
'eingestellt_'
'eien_'
'eide'
'eichen_'
'effektiv_'
'economically_'
'ea_'
'dumm'
'dt'
'disturb'
'director_'
'dir'
'destination_'
'deposit_'
'dent'
'denjenigen_'
'demonstrated_'
'dedicated_'
'deck'
'dece'
'dark_'
'crops_'
'coverage_'
'corporations_'
'contributing_'
'contin'
'consultations_'
'comparison_'
'com'
'coast_'
'clubs_'
'cleared_'
'cks'
'cker_'
'chne'
'chemical_'
'channel_'
'certainty_'
'cell_'
'cc'
'camps_'
'camp'
'calm_'
'browser_'
'broadly_'
'boosting_'
'betreiben_'
'beschränken_'
'beschl'
'bert_'
'beizutragen_'
'behe'
'beh'
'beglückwünschen_'
'beendet_'
'bearing_'
'az'
'aussch'
'ausreichende_'
'auftreten_'
'aufgeführt_'
'attend_'
'attached_'
'ations'
'assi'
'ass_'
'arm'
'arkt_'
'ara_'
'appoint'
'appe'
'apparent_'
'anzunehmen_'
'anymore_'
'ano_'
'ann'
'anderswo_'
'ande'
'anda'
'alongside_'
'allies_'
'allerg'
'alg'
'ai_'
'aging_'
'af'
'advice_'
'acquired_'
'achievement_'
'accurate_'
'abh'
'abgelehnt_'
'Zwei'
'Zwecke_'
'Zoo'
'Währungen_'
'Wähler'
'Wissens'
'Wind'
'Willst_'
'Wiederaufbau_'
'Widerstand_'
'Widerspruch_'
'Wert'
'Welcome_'
'Wander'
'WO'
'Vin'
'Videos_'
'Veröffentlichung_'
'Vertretung_'
'Versch'
'Vermögens'
'Veranstaltung_'
'Vas'
'Ums'
'Umgang_'
'USB_'
'Trä'
'Though_'
'Thailand_'
'Südafrika_'
'Syrian_'
'Swi'
'Sustainable_'
'Stri'
'Straf'
'Stockholm_'
'Standort_'
'Staff_'
'Stadtzentrum_'
'Spaß_'
'Spannungen_'
'Slovak_'
'Silver'
'Sierra_'
'Sicherung_'
'Scotland_'
'Schwe'
'Schre'
'Schlu'
'Scheiß'
'Scheitern_'
'Sam'
'Saa'
'STA'
'Roo'
'Rock_'
'River_'
'Richter_'
'Richard_'
'Rent'
'Regulierung_'
'RS'
'Que'
'Pul'
'Protokolls_'
'Prop'
'Programm'
'Plaza_'
'Pl'
'Personal'
'Pay'
'Partnern_'
'Ok_'
'Ob_'
'Nobel_'
'Nic'
'Neus'
'Netzwerk_'
'Navigation_'
'Nar'
'Nachbarschaftspolitik_'
'Muslims_'
'Montenegro_'
'Modell'
'Minute_'
'Ministry_'
'Menschheit_'
'Massa'
'Malaria_'
'Mala'
'Mah'
'Lun'
'Liberal'
'Lernen_'
'Lehre_'
'Lateinamerika_'
'Laeken_'
'Kunst'
'Korean_'
'Konvents_'
'Konvention_'
'Kom'
'Kin'
'Kampagne_'
'Jerusalem_'
'Irak'
'Intervention_'
'Inhalte_'
'Indonesien_'
'Importe'
'Im'
'ING_'
'IKT_'
'Hon'
'Hof_'
'Hit'
'Harmonisierung_'
'Hamburg_'
'Haar'
'HR'
'Guidelines_'
'Gue'
'Grün'
'Grundlagen_'
'Großen_'
'Grab'
'Gold'
'Gh'
'Gestaltung_'
'Gerechtigkeit_'
'GD_'
'GAP_'
'Freiheiten_'
'Fon'
'Fisch'
'Finde_'
'Finanzen_'
'Finance_'
'Fernsehen_'
'Fat'
'Fas'
'Fahrzeug'
'Facility_'
'Face'
'Extra'
'Existenz_'
'Erwerbs'
'Ersatz'
'Ergebnissen_'
'Entwicklungsp'
'Einheit'
'Eco'
'EEC_'
'Druck'
'Dritt'
'Dorf_'
'Direct_'
'Diesel'
'Dialogs_'
'Demo'
'Defizit_'
'Dau'
'Darin_'
'Cold_'
'Christ_'
'Can'
'Budapest_'
'Br'
'Bolkestein_'
'Bett'
'Betracht_'
'Beschränkungen_'
'Bemerkung_'
'Bele'
'Back'
'Ave'
'Automobil'
'Ausschuß_'
'Ausführung_'
'Arzt_'
'Arzneimittel_'
'Arbeitsplatz_'
'Arbeitslosen'
'Anträge_'
'Alters'
'Alm'
'Alle'
'Akt'
'Agr'
'Ab_'
'AV'
'AL_'
'900_'
'88_'
'76_'
'68_'
'52'
'43'
'226_'
'1990er_'
'001'
'.  _'
'. )'
' ­ _'
' : '
' -'
' "'
'  '
'ст'
'ž_'
'üch'
'überh'
'ösen_'
'örtlichen_'
'öl'
'ér'
'äten_'
'ät'
'ämpf'
'älteren_'
'Übrigen_'
'Übertragung_'
'« _'
' '
'zwei'
'zuzu'
'zug_'
'zones_'
'zon'
'zio'
'zig_'
'ziert_'
'ziel_'
'zerstört_'
'zers'
'zens'
'yard_'
'wünscht_'
'ws_'
'worsen'
'wohl'
'willingness_'
'wholesale_'
'wettbewerbsfähige'
'wand'
'wal'
'wahl'
'visible_'
'verstärkte_'
'versichern_'
'verifi'
'verfügbaren_'
'verboten_'
'uß_'
'unterwegs_'
'unres'
'unl'
'undertake_'
'umso_'
'umfassend_'
'ula'
'uis'
'ually_'
'täglichen_'
'turns_'
'triumph'
'trial_'
'transposition_'
'transporte'
'transportation_'
'trag'
'tracks_'
'tra_'
'tol'
'tighten'
'thinks_'
'thin'
'theo'
'tera'
'tens_'
'tende'
'teilung_'
'tei'
'technischer_'
'techni'
'tax'
'tat'
'tal'
'systemen_'
'systematic_'
'swi'
'sw'
'sverfahren_'
'supporters_'
'sucht_'
'subt'
'stun'
'strike_'
'streets_'
'stoffen_'
'stieg_'
'steuer'
'stem'
'stati'
'starts_'
'stag'
'sste'
'ssel'
'spur'
'sper'
'some'
'solar_'
'soa'
'sna'
'smo'
'skin_'
'sil'
'side'
'sichtig'
'sic'
'sex'
'separate'
'sentiment'
'sect'
'sches_'
'schaften_'
'scenario_'
'satisfactory_'
'rö'
'ruled_'
'rseits_'
'roots_'
'rm_'
'rken_'
'river_'
'richtet_'
'rh'
'rfe'
'reverse_'
'retirement_'
'resse'
'responded_'
'resp'
'reserved_'
'rend'
'religiösen_'
'reitung'
'regelmäßige'
'recession_'
'realize_'
'rational_'
'ration'
'rar'
'rain'
'rah'
'rade'
'quo_'
'quel'
'qualifi'
'q'
'pursuit_'
'purely_'
'ptions_'
'prize_'
'preventing_'
'prevented_'
'prevail'
'ppen_'
'posts_'
'postal_'
'popul'
'plötzlich_'
'pleasant_'
'ple_'
'perceived_'
'peoples_'
'pendi'
'partei_'
'parlamentarischen_'
'pan_'
'oz'
'ost'
'ork'
'oon_'
'ommen'
'ome_'
'old'
'of'
'ode'
'occupation_'
'obi'
'obe'
'nä'
'ntin'
'nta'
'notification_'
'noticed_'
'notes_'
'nomin'
'nitten_'
'ngel'
'newspaper_'
'nett_'
'neighbors_'
'neig'
'negotiating_'
'negativen_'
'nati'
'nachzu'
'nachweis'
'mäßigen_'
'mpi'
'mouth_'
'moralische_'
'moni'
'mon_'
'mitteln_'
'minds_'
'mere_'
'meal_'
'mas'
'manifest'
'mandatory_'
'managers_'
'malaria_'
'mai'
'mad_'
'lungen_'
'lt'
'load_'
'lm'
'llen'
'licht_'
'lich'
'legacy_'
'lebenden_'
'lation'
'lasting_'
'lake_'
'kten_'
'koordinierte'
'kne'
'killing_'
'kes'
'kehr'
'kation_'
'kata'
'jurisdiction_'
'junger_'
'jun'
'journey_'
'jetzigen_'
'japanischen_'
'ius_'
'its'
'italienische_'
'israelische_'
'irs_'
'iron_'
'intentions_'
'instructions_'
'institutionellen_'
'iness'
'ines_'
'indirect_'
'imbalances_'
'ildung_'
'ila'
'igu'
'ignore_'
'ified_'
'ife'
'ichts'
'ichtig'
'iche_'
'ible_'
'häuser_'
'hw'
'hot'
'hoc_'
'hink'
'heu'
'herzlich_'
'harm_'
'haltung_'
'hai'
'gur'
'gues'
'großem_'
'grau'
'gion'
'ghte'
'gg'
'gewöhn'
'gewo'
'gesellschaftlichen_'
'geregelt_'
'genetic_'
'gend'
'geh'
'gefällt_'
'gef'
'gear'
'führ'
'frag'
'finds_'
'ffen_'
'ferr'
'explained_'
'experiment'
'exi'
'exempt'
'excluded_'
'excess_'
'evaluate_'
'eur_'
'ett'
'este'
'erzeugt_'
'erwa'
'err'
'erhöhte'
'erhältlich_'
'erhielt_'
'erfreut_'
'erfasst_'
'eres_'
'erate'
'erarbeitet_'
'equa'
'environmentally_'
'entspr'
'entgegen_'
'enste'
'enst'
'endl'
'endi'
'endes_'
'enabled_'
'emerge_'
'elf_'
'einzigartigen_'
'eintreten_'
'eintr'
'einf'
'eim'
'eg'
'edited_'
'durchs'
'dry_'
'directed_'
'dig'
'dic'
'dial'
'denselben_'
'dens'
'denkt_'
'defizit_'
'dargelegt_'
'crea'
'courage_'
'corresponding_'
'confidentiality_'
'confi'
'conc'
'complicated_'
'competent_'
'collected_'
'cock'
'closing_'
'class'
'claimed_'
'cker'
'cken'
'civilian_'
'chä'
'chung_'
'chat'
'char'
'cas'
'cam'
'cac'
'bä'
'broadband_'
'breite'
'breath'
'breach_'
'blu'
'blame_'
'bit'
'bir'
'billige'
'billig'
'bigger_'
'bewegt_'
'bewa'
'betreffend_'
'besonderer_'
'berichten_'
'benefited_'
'bell'
'belgischen_'
'bekam_'
'behoben_'
'beau'
'bea'
'basi'
'auszur'
'ausschusses_'
'auffordern_'
'aufbauen_'
'attract_'
'ast_'
'assa'
'arrived_'
'arrive_'
'arrested_'
'are'
'appointment_'
'apologi'
'ape'
'ansehen_'
'anschl'
'anniversary_'
'angegebenen_'
'angebracht_'
'ane_'
'ands_'
'album_'
'aggressive_'
'aft_'
'acknowledge_'
'ack'
'accomplish'
'acceptance_'
'acce'
'abs'
'abr'
'abili'
'abb'
']]._'
']]'
'Zugleich_'
'Zucker'
'Zahlungen_'
'You'
'Winter'
'Wiederherstellung_'
'Who'
'Werten_'
'Wein_'
'Wei'
'Watch_'
'Wars'
'Wait_'
'Wahrnehmung_'
'Vorschlags_'
'Vorgehen_'
'Vet'
'Verst'
'Versprechen_'
'Vers'
'Verr'
'Vergnügen_'
'Verbraucherschutz_'
'Vene'
'Vassiliou_'
'Us'
'Unternehmer_'
'Uns_'
'Umstrukturierung_'
'Umfrage_'
'Uh_'
'UND_'
'Tyr'
'Typ_'
'Turn'
'Truppen_'
'Trotzdem_'
'Transaktionen_'
'Trans_'
'Train'
'Tom'
'Tibet_'
'Therm'
'Tabelle_'
'Swiss_'
'Straßburg_'
'Stiftung_'
'Steuer_'
'Stattdessen_'
'Stand'
'Spitzen'
'Sozialpartner_'
'Slowenien_'
'Slo'
'Sim'
'Shanghai_'
'Serie_'
'Serbien_'
'Section_'
'Schwester_'
'Schrift'
'Schnell'
'Schle'
'Schatz_'
'Salz'
'SU'
'SM'
'Rä'
'Rund'
'Rule_'
'Rue_'
'Ren'
'Reduzierung_'
'Reco'
'Rai'
'Rab'
'RO'
'RC'
'Quin'
'Ps_'
'Präsenz_'
'Programmen_'
'Premier_'
'Poi'
'Plattform_'
'Pha'
'Pers'
'Patten_'
'Pass'
'Partnerschafts'
'Papa_'
'Palästina_'
'PP'
'Orten_'
'Officer_'
'OT'
'Nord_'
'Nichts_'
'Netto'
'Nachhaltigkeit_'
'NT_'
'NL_'
'MwSt_'
'Muster_'
'Mittelmeerraum_'
'Merger_'
'Mercosur_'
'Mengen_'
'Meanwhile_'
'Market'
'Mandat_'
'MS_'
'Lärm'
'Lizenz'
'Level_'
'Lat'
'Lady_'
'LE_'
'LD'
'Kö'
'Kroatien_'
'Kro'
'Kre'
'Kraftstoff'
'Konver'
'Kontin'
'Konsum'
'Konkurrenz_'
'Kongress_'
'Konflikten_'
'Kohäsionspolitik_'
'Kilometer_'
'Key'
'Jugendlichen_'
'Journal_'
'Jos'
'Jordanien_'
'Jim_'
'Jer'
'Jahrzehnte_'
'Irr'
'Iraqi_'
'Inkrafttreten_'
'Index_'
'Ideal'
'IV_'
'IO'
'Hostelsclub_'
'Histori'
'Herrschaft_'
'Halte'
'Haiti_'
'Hafen_'
'Grö'
'Griechenlands_'
'Green'
'Grand'
'Gir'
'Georgien_'
'Gener'
'Garantie_'
'GU'
'GN'
'GM_'
'GH'
'GB_'
'Führer_'
'Fundamental_'
'Frühstücksbuffet_'
'Fraktionen_'
'Fische'
'Fehl'
'Fahrzeuge_'
'FT'
'Extrem'
'Est'
'Erwachsene_'
'Erfüllung_'
'Erfolgs'
'Entwicklungshilfe_'
'Entw'
'Empire_'
'Ehre_'
'ED_'
'Durchschnitt_'
'Donald_'
'Dokumente_'
'Daniel_'
'Creati'
'Count'
'Coo'
'Colo'
'Class_'
'Chamber_'
'CAP_'
'Bü'
'Brand'
'Bot'
'Boot_'
'Blog_'
'Blin'
'Ble'
'Bist_'
'Billy_'
'Bewerber'
'Bew'
'Bevölkerungs'
'Bestände_'
'Best'
'Besi'
'Beratung_'
'Belgian_'
'Beh'
'Bee'
'Bedien'
'Bahnhof_'
'Bag'
'BB'
'Avi'
'Australia_'
'Auss'
'Ausmaß_'
'Audio_'
'Armen_'
'Argumente_'
'Arbeitsweise_'
'Ara'
'Antonio_'
'Antoine_'
'Anhänger_'
'Anfragen_'
'Andre'
'Anders_'
'Anb'
'Amtsblatt_'
'Ambiente_'
'Allianz_'
'Abo'
'92'
'83_'
'81'
'79'
'7'
'29'
'202'
'189'
'1040_'
'*_'
'*'
'() _'
' $ _'
'’._'
'’, _'
'‑_'
'üß'
'üt'
'ügen_'
'öh'
'ég'
'äußern_'
'äss'
'ärkte_'
'äglich'
'Überwachungs'
'Überlegungen_'
'zweiter_'
'zutiefst_'
'zukünftige_'
'zuk'
'zuge'
'zug'
'zte'
'zi_'
'zentraler_'
'yl'
'ycl'
'yar'
'wunderschöne'
'worried_'
'withdraw_'
'wirtschafts'
'wirksamer_'
'winners_'
'web'
'vorsieht_'
'vorschlag_'
'vors'
'vorhandenen_'
'vore'
'virtual_'
'verwi'
'vertreter_'
'verteilung_'
'vermittelt_'
'vermieden_'
'vermi'
'verleihen_'
'verkehrs'
'verhäng'
'verhalten_'
'verb'
'variable_'
'uum_'
'urn'
'upgrade_'
'unmittelbare'
'uneingeschränkt_'
'umfassen_'
'umfangreiche'
'umf'
'ume_'
'uma'
'ulen'
'ule'
'ufs'
'täts'
'tätigen_'
'twice_'
'twi'
'trauen_'
'tragedy_'
'torture_'
'tlich_'
'tle_'
'tit'
'tin_'
'tik_'
'ticket_'
'threatening_'
'tender_'
'tempt'
'tells_'
'tell'
'tech_'
'tau'
'taste_'
'tand'
'takt'
'tag'
'tackling_'
'sy_'
'sy'
'sv'
'surviv'
'suppliers_'
'summe'
'suit_'
'stärkeren_'
'stream_'
'stopped_'
'stimmung'
'stige'
'stell'
'starr'
'stammen_'
'sprach'
'spezi'
'spekt'
'soul_'
'social'
'snow'
'smit'
'smi'
'slide'
'sitzen_'
'simultaneously_'
'sie'
'shock_'
'shing_'
'sheet_'
'sharply_'
'sharp_'
'shareholders_'
'seu'
'serving_'
'serviert_'
'selecti'
'sei'
'schritt'
'schrift'
'schnitt'
'schauen_'
'schafft_'
'scared_'
'sba'
'sauna_'
'satz_'
'sagten_'
'rungen_'
'rum'
'ruin'
'rom_'
'rly_'
'rit'
'rischen_'
'riff'
'restrictive_'
'respond'
'resolutions_'
'rescue_'
'remind'
'rele'
'rek'
'reif'
'regarded_'
'recognized_'
'rch'
'ratifiziert_'
'rale'
'rak'
'rage_'
'radio'
'rad_'
'qualitative_'
'protest'
'projected_'
'programms_'
'profile_'
'professionelle'
'profession'
'preserve_'
'prechen_'
'ppo'
'poses_'
'por'
'pf_'
'periode_'
'perce'
'pensions_'
'pens'
'past'
'pain_'
'pack'
'ot'
'oro'
'orie'
'organisierten_'
'organ'
'order'
'opa'
'ommt_'
'ole_'
'oke'
'oh'
'officers_'
'od'
'observed_'
'nzi'
'nung_'
'ntly_'
'nste'
'np'
'normally_'
'norm'
'nor'
'nn'
'niedrige'
'nh'
'ngst'
'neuesten_'
'negotiated_'
'navigation_'
'natürliche_'
'narrow_'
'nachhaltig_'
'mächtig'
'mud'
'mos'
'mord'
'modify_'
'mo_'
'mme_'
'mitglied'
'minder'
'mg'
'messages_'
'ment'
'mengen_'
'medizinische_'
'meaningfully_'
'master_'
'mand'
'male'
'mainstream_'
'magnificent_'
'lve'
'lunch_'
'ltung_'
'loc'
'ln'
'lls'
'lla_'
'line'
'lieben_'
'lett'
'let'
'lay'
'langem_'
'käm'
'kurz'
'kriegen_'
'kriege'
'kra'
'kost'
'konzipiert_'
'konf'
'kompa'
'komm'
'kni'
'knapp_'
'kat'
'kana'
'jer'
'jederzeit_'
'jar'
'jack'
'iva'
'itor'
'iste'
'iranischen_'
'interpretation_'
'integrity_'
'integrierten_'
'inspection_'
'innovations_'
'inland_'
'infl'
'impl'
'imo'
'immun'
'igte'
'ieht_'
'ieben_'
'hy_'
'hohem_'
'hle'
'histori'
'hire_'
'hide_'
'hervor'
'hersteller_'
'heading_'
'hause'
'handels'
'han_'
'haften_'
'günstige'
'gy_'
'gue_'
'guard'
'gua'
'gten_'
'gte_'
'größerer_'
'gross_'
'grenzüberschreitende_'
'grammatically_'
'governmental_'
'golden_'
'gnis'
'gner'
'glich'
'gewählten_'
'gewidmet_'
'gesp'
'geschw'
'geringen_'
'generat'
'gelassen_'
'gelangt_'
'gegangen_'
'gefü'
'gefährdet_'
'geboren_'
'gea'
'gate_'
'fulfil_'
'frequency_'
'freely_'
'fossil_'
'flood'
'fli'
'flash_'
'flag'
'finger'
'fests'
'favourable_'
'favor'
'farms_'
'failures_'
'extending_'
'executive_'
'exe'
'euros_'
'etzungs'
'etzung_'
'esch'
'erzielte_'
'erzeugnisse_'
'erungen_'
'ernsthaft_'
'erl'
'erfolgte_'
'erfolg'
'entz'
'entscheid'
'entities_'
'entdeckt_'
'enn'
'enhancing_'
'endgültigen_'
'enb'
'empf'
'ekti'
'einzelstaatlichen_'
'eink'
'einbezogen_'
'eif'
'eib'
'ehemalige_'
'ego'
'egi'
'edly_'
'editi'
'edi'
'echn'
'ean'
'dys'
'durchführen_'
'download'
'doctors_'
'diskutiert_'
'discriminatory_'
'dignity_'
'dig_'
'die'
'dh'
'deutsch'
'detaillierte'
'dest'
'designs_'
'design'
'deserve_'
'derartigen_'
'departure_'
'department_'
'demokratischer_'
'delighted_'
'deg'
'defining_'
'deemed_'
'dans_'
'ction'
'cow'
'cot'
'corner_'
'contextually_'
'contents_'
'constraints_'
'conse'
'complement'
'commission_'
'commented_'
'combine_'
'collect_'
'cle_'
'clarity_'
'cip'
'cin'
'chutz'
'ching_'
'checking_'
'cells_'
'care'
'capacities_'
'cap_'
'cab'
'butt'
'bud'
'buch'
'brain_'
'bought_'
'bod'
'blow'
'bitter'
'bisherigen_'
'bin'
'billions_'
'bilde'
'bie'
'bewirken_'
'bett'
'besti'
'bes'
'bequem_'
'behindert_'
'begrenzten_'
'begl'
'beeinflusst_'
'beeinflussen_'
'bedürf'
'beda'
'bec'
'baut_'
'band'
'bab'
'ax_'
'author_'
'ausreichende'
'ausgew'
'ausgeführt_'
'ausgaben_'
'ausführliche'
'aufh'
'aufgezahlt_'
'aufb'
'assumed_'
'assessed_'
'ars'
'architecture_'
'approve_'
'apa'
'angewendet_'
'anc'
'amerikanischer_'
'ambition_'
'ambi'
'ala_'
'aktiven_'
'airs'
'aft'
'admi'
'adds_'
'accepting_'
'abstimmen_'
'abgew'
']'
'Zuständigkeiten_'
'Zusch'
'Zulassung_'
'Zuge'
'Zimmern_'
'Zimmer'
'Zeitalter_'
'Wan'
'Wachstumsp'
'Vorrang_'
'Vorl'
'Viviane_'
'Viv'
'Villa'
'Versa'
'Verordnungen_'
'Verhaltens'
'Verbrauchern_'
'Use_'
'Ursprungs'
'Unterzeichnung_'
'Une'
'Tut_'
'Tru'
'Treaties_'
'Traditionen_'
'Total_'
'Tin'
'Thursday_'
'Textil'
'Teilnehmer'
'Tab'
'TER'
'Systemen_'
'Str'
'Spielraum_'
'Sony_'
'Sommer'
'Soci'
'Sicherheitspolitik_'
'Schätzungen_'
'Schuld_'
'Schiffs'
'Schei'
'Sar'
'Sag_'
'Sad'
'Russlands_'
'Rub'
'Ron'
'Ris'
'Rhetorik_'
'Review_'
'Ree'
'Rede'
'Rec'
'Real_'
'Ratschlag_'
'Rand'
'Pur'
'Provi'
'Projekts_'
'Produktivitäts'
'Process_'
'Politik'
'Poker_'
'Place_'
'Pis'
'Past'
'PRI'
'PAR'
'Out_'
'Offizier'
'Offen'
'Objekt'
'OW'
'Nov'
'Nordkorea_'
'Nor'
'Mö'
'Monsieur_'
'Monopol'
'Mond'
'Moldova_'
'Mitte'
'Mitgliedsstaaten_'
'Mist'
'Metall'
'Mau'
'Maschinen_'
'Marktwirtschaft_'
'Mario_'
'Mani'
'Mach_'
'Lux'
'Lot'
'Logik_'
'Link_'
'Libanon_'
'Laun'
'Late'
'Lastly_'
'Lab'
'LAN'
'Küste_'
'Körper'
'Kunden'
'Kritiker_'
'Kreuz'
'Kr'
'Korre'
'Kopf'
'Konze'
'Konto_'
'Kommand'
'Komfort_'
'Kim_'
'Ker'
'KO'
'KDE_'
'KA'
'Japans_'
'Janez_'
'Jak'
'Jahrzehnt_'
'Investment'
'Innerhalb_'
'Inflations'
'Industry_'
'Inde'
'Immobilien'
'IN_'
'ID'
'Händen_'
'Hungarian_'
'Host'
'Heimat_'
'Hard'
'Gulf_'
'Gua'
'Governments_'
'Gipfeltreffen_'
'Gil'
'Gesprächen_'
'Gesetzes'
'Gesetz'
'Geschlecht'
'Gemeinden_'
'Gegend_'
'Gef'
'Gau'
'Garden_'
'G8_'
'Fun'
'Friday_'
'Freunden_'
'Frank'
'Frage'
'Four_'
'Format_'
'Fore'
'Flash_'
'Fischereipolitik_'
'Fire'
'Finanzdienstleistungen_'
'Fin'
'Fett'
'Fertig'
'FP'
'Expert'
'Eva'
'Europ'
'Erz'
'Erweiterungs'
'Ernährungs'
'Entsch'
'Emp'
'Elektro'
'Dro'
'Dreh'
'Dr'
'Doktor_'
'Doctor_'
'Denken_'
'Dek'
'Debatten_'
'Datenschutz'
'Datei'
'Clear'
'Clar'
'Citizens_'
'Catherine_'
'Cath'
'Cas'
'Cannes_'
'Cana'
'Call_'
'Bulgarian_'
'Brü'
'Brutto'
'Brother'
'Boo'
'Bib'
'Bewusstsein_'
'Beurteilung_'
'Besucher_'
'Bern'
'Berg_'
'Bell'
'Beitrittsländern_'
'Beispielsweise_'
'Basi'
'Banc'
'Back_'
'BU'
'Außen_'
'Aussichten_'
'Aussage_'
'Ausbildungs'
'Atomwaffen_'
'Argument_'
'Archiv'
'Arbeitskräfte_'
'Ank'
'Angriffe_'
'Andris_'
'Amtszeit_'
'Almunia_'
'Alexander_'
'Airlines_'
'Adobe_'
'Abschnitt_'
'Abe'
'Abbau_'
'93'
'59'
'237'
'1986_'
'187'
'.“ _'
'% '
'") _'
'" '
' ….. _'
' .'
' - '
'ь'
'у'
'з'
'überwinden_'
'übermitteln_'
'überf'
'ört_'
'ören_'
'ó_'
'änkte'
'älteste'
'älle_'
'ähr'
'Überzeugung_'
'Übersetzung_'
'Übers'
'»'
'~ _'
'}} '
'zwingen_'
'zusch'
'zusammen'
'zus'
'zuges'
'zn'
'zins'
'zin'
'zier'
'ziele_'
'zeitge'
'zeigte_'
'zahl'
'ypt'
'xin'
'wä'
'withdrawal_'
'wirklichen_'
'winning_'
'widerspr'
'widen'
'wid'
'wherever_'
'werten_'
'well'
'wechsel_'
'wear_'
'wahlen_'
'vr'
'vorzunehmen_'
'vorläufige'
'vollständigen_'
'violations_'
'vie'
'vertraut_'
'versteht_'
'versehenen_'
'verschieden'
'vermutlich_'
'verläss'
'verlust'
'verge'
'verbe'
'vari'
'utt'
'ussi'
'unterstützte_'
'unsicher'
'uno'
'unk'
'unfair_'
'undertaking_'
'undermine_'
'ultimate_'
'ular_'
'ught'
'tö'
'typ'
'ture'
'tum'
'tti'
'trip'
'trick'
'tric'
'trib'
'treat'
'traum'
'transnational_'
'transmission_'
'traditions_'
'towns_'
'tour_'
'threshold_'
'thorough'
'territoriale'
'terra'
'terr'
'tern'
'tent'
'tens'
'tely_'
'tellten_'
'telling_'
'tatt'
'tant'
'tangible_'
'tam'
'tail'
'tagung_'
'sus'
'supp'
'supervis'
'suff'
'sue'
'succ'
'stützen_'
'städtischen_'
'stressed_'
'straf'
'stol'
'still'
'stie'
'stic_'
'steuer_'
'stabile_'
'ssions'
'ssch'
'sri'
'srecht'
'squa'
'spr'
'spon'
'spiel_'
'speziellen_'
'speichern_'
'sogenannten_'
'sod'
'sman'
'slu'
'slaughter'
'sing'
'sier'
'shore_'
'sgr'
'sfreiheit_'
'sey_'
'set'
'sens'
'schädlich'
'schwach_'
'schien_'
'scheid'
'schaftliche'
'sail'
'safeguards_'
'rzeug'
'ruf'
'rsch'
'rov'
'rog'
'rock_'
'rkte'
'reviv'
'revi'
'revers'
'returning_'
'restrict_'
'ression'
'resist'
'resid'
'requiring_'
'renowned_'
'reno'
'reibung'
'reiben_'
'rei_'
'regulated_'
'regulate_'
'rect'
'rdin'
'rche'
'rauch'
'rasche_'
'rank'
'rad'
'pull_'
'pull'
'proportional'
'propo'
'prominent_'
'programm'
'prof'
'presentation_'
'predict_'
'pp_'
'plain'
'physi'
'pharmaceutical_'
'persönliche_'
'penalty_'
'pec'
'pati'
'panel_'
'ows_'
'overview_'
'ov_'
'ours_'
'oris'
'originally_'
'oppose_'
'opp'
'operated_'
'ook_'
'onne'
'ologie_'
'olen_'
'ola'
'ochen_'
'object_'
'nten_'
'nswerte'
'nsu'
'nou'
'normale_'
'ning'
'nem'
'neighbourhood_'
'nba'
'mpo'
'mob'
'mmt_'
'mmer'
'mittleren_'
'minimal_'
'menta'
'md'
'mask'
'manufacture'
'mant'
'mani'
'lst'
'loses_'
'losen_'
'log'
'lling_'
'lj'
'lenken_'
'lem'
'lebens'
'latz_'
'lar_'
'landscape_'
'kü'
'kö'
'ktor_'
'krieg_'
'kontrolliert_'
'kontrollen_'
'klima'
'kleines_'
'kleinere_'
'key'
'kette_'
'kate'
'kam'
'judgment_'
'jpg_'
'jo_'
'ji_'
'jekt'
'jedenfalls_'
'jed'
'jahr_'
'ize'
'ision'
'irk'
'irgend'
'internationally_'
'intern'
'interessen_'
'interessant_'
'inten'
'installations_'
'inhabitants_'
'iner'
'industriellen_'
'individuelle_'
'incompatible_'
'imported_'
'immense_'
'ike'
'ification_'
'iff_'
'iest_'
'ierte'
'hö'
'hro'
'hon'
'holidays_'
'hly_'
'herz'
'hervorheben_'
'herum_'
'herauszu'
'helle'
'headed_'
'hea'
'hate_'
'halt'
'günstig_'
'gültige'
'gäbe_'
'guid'
'grünen_'
'griffen_'
'grade_'
'grad'
'ghe'
'geäußert_'
'gewinn'
'gewaltige'
'getr'
'geschäft_'
'geri'
'gere'
'gepr'
'generell_'
'genaue'
'gelt'
'geistigen_'
'gegenseitigen_'
'gebaut_'
'gas'
'gardens_'
'füll'
'fügen_'
'fur'
'fung_'
'fs_'
'freedoms_'
'fortgesetzt_'
'formally_'
'forests_'
'forecast_'
'finanz'
'ffel'
'fet'
'festge'
'festen_'
'fertili'
'feld_'
'feld'
'feet_'
'fed_'
'fare_'
'fangen_'
'fang'
'fanden_'
'fall'
'fahrzeuge_'
'exzellente'
'extrem_'
'exporte'
'experiences_'
'exchanges_'
'eva_'
'ets'
'eto'
'eten'
'erörtert_'
'erzielten_'
'ersta'
'erreichte_'
'erreichbar_'
'ernannt_'
'erlangen_'
'erin'
'erge'
'eo_'
'entl'
'enrich'
'enp'
'enl'
'ening_'
'enemy_'
'ene'
'ends_'
'ency_'
'eld_'
'eit'
'eise_'
'einig_'
'eingesch'
'eindeutige_'
'ehl'
'ega'
'eck'
'eber'
'ebene_'
'ease_'
'durchschnittlich_'
'dru'
'dringende'
'dramatically_'
'dorf_'
'donors_'
'dle'
'dismiss'
'disi'
'dip'
'dige'
'dien'
'dialog_'
'deutet_'
'dern_'
'demanded_'
'deinem_'
'definierte'
'defi'
'damaged_'
'curi'
'cts_'
'critics_'
'cos'
'correctly_'
'convert_'
'conventions_'
'conta'
'confirms_'
'confident_'
'conduct'
'component_'
'complement_'
'communist_'
'commit_'
'comi'
'colon'
'colla'
'coe'
'codecision_'
'cod_'
'clock_'
'clar'
'ción_'
'chtung_'
'chr'
'chm'
'chern_'
'chal'
'chair'
'cet'
'cations_'
'card'
'capabilities_'
'caf'
'buses_'
'burg_'
'broadcast'
'borne_'
'boot_'
'black'
'bisschen_'
'bez'
'bewerten_'
'betreiber_'
'bestimmungen_'
'besi'
'berg'
'bereiche_'
'berech'
'beiträgt_'
'begun_'
'begründet_'
'begrenzt_'
'bedroht_'
'bedroh'
'bb'
'bathrooms_'
'banker'
'banken_'
'bahn'
'automati'
'auszusch'
'austerity_'
'aussehen_'
'auss'
'ausr'
'ausgeschlossen_'
'ausgegeben_'
'ausgef'
'aufw'
'aufrechterhalten_'
'audience_'
'attractions_'
'atory_'
'ational_'
'assen_'
'artistic_'
'array_'
'arian_'
'ards_'
'ap_'
'anzubieten_'
'antr'
'ann_'
'anlage_'
'angewiesen_'
'anerkannte'
'anbelangt_'
'analog'
'alte'
'aki'
'ain'
'ahl'
'agne'
'adults_'
'ads_'
'adaptation_'
'achs'
'ach'
'absorb'
'abl'
'abgesehen_'
'abgeben_'
'abg'
'Zwischen_'
'Zwangs'
'Zurück'
'Zunahme_'
'Zone_'
'Zimbabwe_'
'Yel'
'Ye'
'Yan'
'Wirtschaftswachstums_'
'Wirtschaftsraum_'
'Wirtschaftspolitik_'
'Wirtschaftskrise_'
'Wirk'
'Wid'
'Wertpapier'
'Werke_'
'Werbe'
'Weltkrieg_'
'Weißt_'
'Weißbuch_'
'Weiteren_'
'Weit'
'Wechselkurs'
'Watson_'
'Water'
'Warte'
'WW'
'Vorsch'
'Vorher'
'Vorgehensweise_'
'Vier'
'Vielmehr_'
'Verw'
'Verfahrens'
'Vereinfachung_'
'Verda'
'Use'
'Unt'
'Unionsbürger'
'Unbe'
'Umstellung_'
'Umst'
'Tourism_'
'Tour'
'Top_'
'Tom_'
'Together_'
'Tim_'
'Tief'
'Ticket_'
'Terrasse_'
'Tel'
'Technologie'
'Task_'
'TE_'
'Suite_'
'Stock'
'Stimm'
'Still_'
'Still'
'Statt_'
'Spo'
'Sonne_'
'Sofort'
'Simpl'
'Simbabwe_'
'Shari'
'Shar'
'Set_'
'Set'
'Sei_'
'Sco'
'Schü'
'Schulung'
'Schr'
'Schme'
'Schloss_'
'Schlag'
'Schiff'
'Schicksal_'
'Sav'
'Satz_'
'Satelliten'
'Sant'
'ST_'
'SP_'
'Ros'
'Res'
'Repr'
'Regi'
'Qualifikationen_'
'Punkten_'
'Protein'
'Produktivität_'
'Pres'
'Power'
'Posten_'
'Plus_'
'Plenum_'
'Plenar'
'Philippe_'
'Pferde'
'Petitions'
'Pension'
'Penn'
'Pea'
'PR'
'PD'
'Otherwise_'
'Osteuropa_'
'Operation_'
'Olympic_'
'OR'
'Nothing_'
'Nonetheless_'
'Nizza_'
'Niederlage_'
'Neue_'
'NU'
'NRO_'
'Mütter'
'Müll'
'Module_'
'Minister'
'Mike_'
'Migrations'
'Meter_'
'Menschenhandel_'
'Medien'
'Master_'
'Marin'
'Make_'
'Log'
'Litauen_'
'List_'
'Lind'
'Life_'
'Libyen_'
'Lib'
'Lev'
'Lettland_'
'Lern'
'Leiter_'
'Lee_'
'Lebensmittelsicherheit_'
'Laur'
'Last'
'Landes'
'Lake_'
'Labor'
'LT_'
'LONDON_'
'Künstler_'
'König'
'Kurs'
'Kontakt'
'Konsum_'
'Kohle'
'Koalition_'
'Kli'
'Kirche_'
'Kara'
'Kandidaten_'
'KOM_'
'Joseph_'
'Jones_'
'JA'
'It'
'Inn_'
'Infrastrukturen_'
'Informationsgesellschaft_'
'Infektion'
'Imp'
'Id_'
'ICA'
'IBM_'
'Hilfe'
'Heu'
'Hauptbahnhof_'
'Handelss'
'Hand'
'Gun'
'Grunds'
'Golf'
'Getreide'
'Gesamtbe'
'Geno'
'Generationen_'
'Geht_'
'Gehen_'
'Gebrauch_'
'Gebietskörperschaften_'
'Games_'
'GR'
'GNU_'
'GE'
'Freuen_'
'Freu'
'Franz_'
'Fou'
'Flugzeuge_'
'Fisch_'
'Firm'
'Finger'
'Finanzmärkte_'
'Finanz_'
'Feier'
'FO'
'FL'
'Exchange_'
'Eth'
'Erzeuger_'
'Ersch'
'Enr'
'Englisch_'
'Energiee'
'End_'
'Element'
'Einzelheiten_'
'Einst'
'Eg'
'Economy_'
'EV'
'Disc'
'Dia'
'Design'
'DP'
'DA_'
'Countries_'
'Conf'
'Conc'
'Communist_'
'Coc'
'Chirac_'
'Chan'
'Champ'
'Chal'
'Casa'
'CR'
'By'
'Bruder_'
'Bron'
'Brau'
'Box_'
'Boss_'
'Bord_'
'Beweise_'
'Betroffenen_'
'Besuch'
'Besitz_'
'Beschwerden_'
'Berichten_'
'Berechnung_'
'Begleit'
'Bat'
'Based_'
'Bart'
'Bars_'
'Barc'
'Barb'
'Band_'
'Ausstattung_'
'Aufnahme'
'Auflagen_'
'Aufg'
'Ass'
'Aspekten_'
'Arbeitss'
'Arbeitsmarkt'
'Arbeitnehmern_'
'Appro'
'Ansichten_'
'Anleihen_'
'Angela_'
'Analys'
'Among_'
'Alg'
'Alb'
'Ag'
'Af'
'Abwasser'
'Absichten_'
'Abe_'
'AND_'
'94_'
'84_'
'76'
'74_'
'1985_'
'184'
'182'
'000'
'.'_'
'." _'
'))._'
'({{_'
'  _'
' + _'
' ) ._'
'ы'
'ž'
'ül'
'ört'
'í_'
'ätzlich'
'ängen_'
'änden_'
'án_'
'ßl'
'Überf'
'Überblick_'
'É'
'zwölf_'
'zweit'
'zunehmende_'
'zum'
'zogen_'
'zel'
'zeitige'
'you'
'xt_'
'xp'
'xen'
'worrying_'
'worker_'
'wn'
'wild'
'wet'
'wenigstens_'
'wem'
'welcoming_'
'weaken'
'vorsichtig_'
'vorsch'
'vorbe'
'voneinander_'
'vollem_'
'viewed_'
'veränderte'
'vertreib'
'verte'
'verständlich_'
'versions_'
'versicherung_'
'verse'
'verlager'
'verl'
'verbreitet_'
'verbindung_'
'vat'
'usch'
'urs'
'uring_'
'urgi'
'urgency_'
'ups'
'unterm'
'untergraben_'
'unpa'
'unn'
'uniform_'
'ungsr'
'ungsm'
'ungerecht'
'underway_'
'unders'
'underground_'
'undergo'
'unce'
'unb'
'umweltfreundliche'
'umgehend_'
'umbr'
'umb'
'ulde'
'uer'
'uche_'
'turb'
'tu_'
'truck_'
'tron'
'treu'
'trei'
'trat_'
'transfers_'
'transatlantic_'
'tout'
'tours_'
'tolle'
'tliche_'
'tl'
'tipp'
'timetable_'
'tickets_'
'thirds_'
'themes_'
'theme_'
'texts_'
'tert'
'terrorists_'
'teaching_'
'teach_'
'tch_'
'tate'
'tariffs_'
'systematische'
'surf'
'suited_'
'successes_'
'stützt_'
'student_'
'strictly_'
'strafrechtliche'
'stoffe_'
'stem_'
'steh'
'staying_'
'ssp'
'sque'
'spy'
'spot'
'spl'
'spend'
'spect'
'speaker_'
'spaces_'
'soeben_'
'slowdown_'
'slow'
'singe'
'sili'
'signature_'
'sieren_'
'siehst_'
'shaping_'
'senden_'
'seitige'
'sec'
'scu'
'schätzen_'
'schw'
'schlimmsten_'
'schlechter_'
'schlafen_'
'schick'
'schein'
'schaden_'
'satisfaction_'
'sai'
'räsident'
'räfte_'
'ruhige'
'rue_'
'rsi'
'rschaft_'
'roo'
'ron'
'rolle_'
'rock'
'robust_'
'robe'
'rne'
'rmo'
'riffen_'
'rif'
'riesige'
'rier'
'rid_'
'rg_'
'revolutionary_'
'retain'
'ressourcen_'
'repu'
'repres'
'repr'
'renz'
'rent'
'renew'
'reminded_'
'religiöse_'
'reise_'
'regionen_'
'rega'
'refusal_'
'referring_'
'reduziert_'
'recover'
'reci'
'reap'
'realistische'
'real'
'reak'
'react'
'rchi'
'raums_'
'rass'
'rang'
'raine'
'raft'
'radikale'
'radiation_'
'racing_'
'quir'
'quie'
'ques'
'put'
'pursued_'
'province_'
'prop'
'promising_'
'pricing_'
'presenting_'
'preliminary_'
'preference_'
'ppe_'
'pid'
'pea'
'patch'
'pari'
'parent_'
'parameters_'
'par_'
'pak'
'pai'
'pa_'
'oßen_'
'oy'
'owe_'
'overl'
'oul'
'ost_'
'osition'
'organisieren_'
'orde'
'ora_'
'optimis'
'openness_'
'ope'
'onder'
'omp'
'omm'
'omen'
'olt'
'ntra'
'nsta'
'nowadays_'
'noti'
'nos_'
'non'
'nnt_'
'nkt_'
'nit'
'nig'
'ngle'
'ngene'
'nevertheless_'
'nesi'
'neighbours_'
'nec'
'namen_'
'nam'
'nai'
'nad'
'nachhaltiges_'
'märkte_'
'männ'
'mung'
'moreover_'
'modest_'
'mobilis'
'mixed_'
'mix'
'mittlere_'
'mitten_'
'mina'
'mete'
'menti'
'melt'
'medi'
'materiali'
'masse'
'married_'
'marquis_'
'längst_'
'lts'
'lous'
'lounge_'
'lokaler_'
'logisch'
'local'
'lobby_'
'litera'
'light'
'lev'
'lern_'
'lehn'
'legale'
'lass'
'lager'
'lag'
'kürze'
'kümmern_'
'könnt_'
'ktur'
'kte_'
'kreative'
'kont'
'kommiss'
'kers_'
'kernel_'
'kern_'
'ken'
'kehrt_'
'iv'
'itz'
'itions'
'itet_'
'istische'
'ism'
'isiert_'
'irtschaft_'
'invite_'
'investigate_'
'invent'
'interacti'
'intensiven_'
'integrierte_'
'installiert_'
'injur'
'initiated_'
'ini_'
'inglich'
'infr'
'incu'
'incorporated_'
'incomes_'
'incidents_'
'imperative_'
'ifying_'
'ifi'
'ient_'
'iehen_'
'ider_'
'ichtung_'
'iat'
'höchst'
'hunting_'
'hundert_'
'hren'
'hos'
'horse_'
'honey_'
'homo'
'holes_'
'hochwertige'
'hnen_'
'hio'
'hinter'
'hinein_'
'hill_'
'hilfe'
'heim_'
'hd'
'haz'
'hardware_'
'hall'
'habitat'
'größeres_'
'grenzübergreifende'
'got'
'globe_'
'globaler_'
'gkeiten_'
'gewar'
'getrennt'
'gestattet_'
'gestatten_'
'gese'
'geschafft_'
'geräte_'
'geringer_'
'gera'
'genuinely_'
'genaue_'
'gelingt_'
'gegebenenfalls_'
'gebr'
'gebiete_'
'fühl'
'förmliche'
'functional_'
'forgotten_'
'forever_'
'flexible'
'fires_'
'finanzieller_'
'filled_'
'ffen'
'festzulegen_'
'fehler'
'feelings_'
'fear'
'fat_'
'fan_'
'fache'
'expressing_'
'exposure_'
'exploit'
'exo'
'existieren_'
'execution_'
'exceptions_'
'evol'
'ethi'
'ete'
'este_'
'erweitern_'
'erweisen_'
'erwe'
'erwarte'
'erv'
'erstes_'
'erri'
'erneuerbaren_'
'erläutert'
'erlei'
'enw'
'entwickelte_'
'entschuldigen_'
'entri'
'enthaltenen_'
'enemies_'
'endorsed_'
'empty_'
'empfangen_'
'emerged_'
'elite_'
'einziges_'
'einzig_'
'einstellen_'
'einl'
'einig'
'eingeräumt_'
'eingereicht_'
'eingebracht_'
'eile'
'ehrlich_'
'ebu'
'eben'
'eate'
'dynamische'
'durchge'
'dst'
'dropped_'
'droh'
'draußen_'
'dran_'
'draft'
'domin'
'distinguish_'
'displaced_'
'discount'
'dictatorship_'
'devi'
'describes_'
'describe_'
'depo'
'demonstrates_'
'demographic_'
'demografische'
'dauerhafte_'
'dac'
'cry'
'critici'
'credits_'
'crazy_'
'counterfeit'
'count'
'confidential_'
'compli'
'completion_'
'complementary_'
'comparable_'
'commande'
'clothing_'
'cleaning_'
'cit_'
'cion'
'cia_'
'chtlich_'
'chtigen_'
'chtet_'
'chs_'
'chel'
'chau'
'chase'
'cen'
'celebrate'
'ceiling_'
'cameras_'
'bst'
'brutal_'
'broke_'
'boom_'
'bold_'
'bo_'
'bn'
'beweisen_'
'betriebe_'
'bete'
'besuch'
'besseres_'
'beschrieben_'
'berichtet_'
'bere'
'bem'
'belast'
'bedrooms_'
'bath'
'base'
'barr'
'backs_'
'aß'
'awa'
'avoided_'
'außer'
'ausst'
'ausgewählt_'
'aufhören_'
'aufgef'
'attempted_'
'ats_'
'atis'
'assuming_'
'asso'
'assessments_'
'ase'
'arme_'
'arch'
'appr'
'appeared_'
'appearance_'
'appeal'
'apparently_'
'anzuwenden_'
'anz_'
'anta'
'anhaltenden_'
'angepasst_'
'angeh'
'amm'
'amenities_'
'amb'
'alis'
'alb'
'aktuell_'
'akte'
'aj'
'ail_'
'ahren_'
'ager'
'agent_'
'ageing_'
'adhere'
'adapted_'
'ace_'
'ace'
'accused_'
'accord'
'abt'
'abrufbar_'
'aben_'
'Zwischenzeit_'
'Zust'
'Zusammensetzung_'
'Zul'
'Zugriff_'
'Wür'
'Wu'
'Wirtschaftss'
'Wirtschaftsm'
'Wiki'
'Wettbewerber_'
'Wellness'
'Webseiten_'
'Wea'
'Walter_'
'Waldner_'
'Vorz'
'Vors'
'Vorr'
'Vorfeld_'
'Vol'
'Vogel'
'Viertens_'
'Veri'
'Verbündeten_'
'Veranstaltungs'
'Valley_'
'Ursprung_'
'Unternehmer'
'Unglück'
'Umwelta'
'Umstände_'
'UB'
'Type'
'Tschechischen_'
'Todes'
'Tod'
'Thor'
'Thomas_'
'Texas_'
'Termin'
'Tempo_'
'Tausende_'
'Tank'
'Tag'
'Südkorea_'
'Sä'
'Swa'
'Summe_'
'Summ'
'Stör'
'Studio_'
'Student'
'Streitkräfte_'
'Steuerung_'
'Steuers'
'Sterb'
'Stab'
'Staatsanleihen_'
'Sow'
'Some'
'Solar'
'Sogar_'
'Snow'
'Sign'
'Sicherheitss'
'Sicherheitsa'
'Several_'
'Seminar'
'Schwei'
'Schulter'
'Schlag_'
'Schiffen_'
'Schauspieler'
'Sah'
'Sac'
'SF'
'SAP'
'Rubrik_'
'Roth'
'Romanian_'
'Rock'
'Reisen_'
'Redner_'
'Rechtsa'
'Recht'
'Reaktionen_'
'Rand_'
'Rahmens_'
'RU'
'RD_'
'Qu'
'Pun'
'Prog'
'Profit'
'Prob'
'Prague_'
'Portal'
'Port_'
'Poor_'
'Poll'
'Partner'
'Paradi'
'Papier'
'Pana'
'Pakete_'
'PH'
'Os_'
'Original'
'Organization_'
'Organ'
'Opinion_'
'Oliven'
'Nä'
'Nutz'
'Nuklear'
'Nova'
'Normal'
'Nokia_'
'Nobody_'
'Nazi_'
'Nap'
'Mängel_'
'Mut'
'Moment'
'Mobilfunk'
'Ministeri'
'Million_'
'Menü_'
'Maß'
'Material_'
'Marketing_'
'Maritime_'
'Manchmal_'
'Manche_'
'Manage'
'Mail'
'Magi'
'Ma_'
'MU'
'MB_'
'Long_'
'Lon'
'Loc'
'Light'
'Libya_'
'Les'
'Lau'
'Lan'
'Ky'
'Krit'
'Krieges_'
'Kosten'
'Kopie'
'Kont'
'Kommunist'
'Kommt_'
'Kollegin_'
'Kohlenstoff'
'Kni'
'Kit'
'Kie'
'Kenntnisse_'
'Katastrophenschutz'
'Katastrophen_'
'Karriere_'
'Kal'
'Kab'
'Jur'
'Jung'
'Joey_'
'Jess'
'JE'
'Isa'
'Iranian_'
'Investition_'
'Infrastruktur'
'Informationss'
'Ill'
'Ic'
'Hör'
'Hö'
'Hunger_'
'Human'
'Hos'
'Horizont'
'Hop'
'Hohen_'
'Hohe'
'Hinzu'
'Hinweise_'
'Hil'
'Herbst_'
'Hav'
'Haushaltsplan'
'Haushalts_'
'Hart'
'Handlungs'
'Hall_'
'Hab'
'HTML_'
'Gä'
'Golden_'
'God'
'Ghana_'
'Geschwindigkeit_'
'Gerade_'
'Generalsekretär_'
'Geldbußen_'
'Geh_'
'Gegen_'
'Gefängnis_'
'Geburt'
'GM'
'GC'
'Funk'
'Full_'
'Fue'
'Fru'
'Friedens_'
'Frequenz'
'Freedom_'
'Fred'
'Fracht'
'Foot'
'Folglich_'
'Fluggesellschaften_'
'Fleisch_'
'Filme_'
'Ferrero_'
'Feld'
'Farb'
'Export_'
'Excel'
'Erwägung'
'Erste'
'Erst_'
'Erscheinung'
'Environmental_'
'Entwicklungsa'
'Enlargement_'
'Einw'
'Einsp'
'Einschätzung_'
'Einsch'
'Einb'
'Ech'
'Eb'
'Easy_'
'Durchführungs'
'Drive'
'Dollars_'
'Distribution_'
'Disco'
'Direktor_'
'Dir'
'Diesen_'
'Devisen'
'Dev'
'Detail'
'Desk_'
'Demokraten_'
'Defizite_'
'Davos_'
'DS_'
'DR'
'Cost'
'Consequently_'
'Conn'
'Compa'
'Comb'
'Co_'
'Chinesen_'
'Chief_'
'Chicago_'
'Ch'
'Certain'
'Cad'
'CON'
'Bühne_'
'Börse_'
'Buche'
'Brennstoff'
'Brad'
'Boh'
'Bie'
'Better_'
'Betrug_'
'Betr'
'Besonders_'
'Belliard_'
'Befugnisse_'
'Bearbeitung_'
'Bach'
'Ausl'
'Ausgangspunkt_'
'Ausfuhr'
'Auftr'
'Aufsch'
'Att'
'Arte'
'Armenia_'
'Architektur_'
'Aqua'
'Appar'
'Apo'
'Ano'
'Annäherung_'
'Anha'
'Anf'
'Alte'
'Alp'
'Alli'
'Aktiv'
'Aktien_'
'Against_'
'Afrikas_'
'Admi'
'Acc'
'Abteilung_'
'Abstimmungs'
'Abre'
'About_'
'ALDE_'
'AK'
'AA'
': '_'
'65'
'58'
'21000_'
'1945_'
'18'
'120_'
'002'
'...?_'
'%), _'
' ), _'
' '''
'” (_'
'и_'
'а_'
'üss'
'übrigens_'
'überz'
'überw'
'ü'
'ökologischen_'
'ñ'
'äußerte_'
'äusch'
'ässer'
'ärk'
'äne'
'änderung_'
'äl'
'äd'
'â'
'ár'
'Üb'
'Ökonomie_'
'Ärzte_'
' –, _'
'zweitens_'
'zwangsläufig_'
'zuw'
'zuv'
'zutr'
'zusagen_'
'zukünftigen_'
'zuh'
'zierung_'
'zierte'
'zien'
'zia'
'ysi'
'yne'
'yield_'
'wü'
'wär_'
'wort_'
'workforce_'
'with'
'wiederh'
'whe'
'wes'
'weren_'
'wel'
'weis'
'wee'
'waves_'
'wart'
'warf'
'wander'
'wahre_'
'vulnerability_'
'vornehmen_'
'vorliegen_'
'vollst'
'vity_'
'vieles_'
'verwu'
'verweist_'
'vertrete'
'verstoßen_'
'verspr'
'verschwinden_'
'versamm'
'vermitteln_'
'veri'
'vereinfach'
'verbringen_'
'verbleibenden_'
'verbesserte_'
'verabschieden_'
'vene'
'usion'
'urteil'
'urse'
'upe'
'unverzüglich_'
'untersuchen_'
'unterst'
'unterschiedlich_'
'ungss'
'ungsge'
'ungsf'
'ungsan'
'unerlässlich_'
'underpin'
'umsetzen_'
'umgeb'
'uen'
'uct'
'uck'
'ua_'
'tzt_'
'tze'
'typen_'
'tus_'
'tue'
'tse'
'trop'
'troll'
'treffen'
'trees_'
'tras'
'transferred_'
'tran'
'trained_'
'totalit'
'tolerance_'
'tnis'
'tis_'
'tions'
'tiefe'
'tied_'
'tia'
'ths_'
'theoretisch'
'tern_'
'teilzu'
'tehende'
'techniques_'
'taxi_'
'tation_'
'tati'
'tariff_'
'tape_'
'südlichen_'
'sustained_'
'supplied_'
'supplement'
'superior_'
'stärksten_'
'stylish_'
'strip'
'strat'
'stored_'
'stops_'
'stit'
'stische_'
'stet_'
'steri'
'steiger'
'stars_'
'starkes_'
'staatlicher_'
'staatlich'
'sser'
'spring'
'split_'
'spin'
'spiegel'
'speed'
'specialist'
'special'
'spann'
'soll'
'sko'
'sixt'
'sischen_'
'sinken_'
'sink'
'sign'
'sights'
'shortage_'
'short'
'sep'
'sent'
'seminar'
'sees_'
'secret'
'secondly_'
'scre'
'scra'
'sco_'
'schwächer'
'schwerwiegende'
'schuld'
'schrieb_'
'schreib'
'schlimm'
'schicken_'
'scheduled_'
'scharf'
'schafts'
'schaft'
'sand_'
'rund'
'rui'
'rtie'
'rth'
'rst'
'rote'
'rot_'
'rom'
'rnen_'
'risen_'
'rie'
'rich'
'rhe'
'rez'
'revealed_'
'ress'
'respecting_'
'reproduc'
'rene'
'relates_'
'rel'
'reiche_'
'reibungslose'
'reform'
'receiving_'
'reas'
'realise_'
'rarely_'
'rable_'
'quellen_'
'protocol_'
'prosperous_'
'prospe'
'pron'
'proliferation_'
'projekt_'
'proceed'
'probe'
'privileged_'
'premium_'
'prejudice_'
'poss'
'portal_'
'populist'
'poly'
'plä'
'plu'
'pill'
'pflanz'
'pfl'
'pez'
'personenbezogene'
'persistent_'
'pear'
'peak_'
'patent'
'password_'
'passi'
'participa'
'partic'
'pant'
'paint'
'overt'
'overlooking_'
'outset_'
'outlined_'
'oto'
'oste'
'osen_'
'osc'
'ort'
'originate'
'organization_'
'organisierte_'
'ordina'
'orate'
'onist'
'oin'
'oid'
'oi'
'ohl'
'oh_'
'officer_'
'odo'
'ock_'
'observers_'
'observation_'
'objects_'
'nützlich_'
'nz'
'nurs'
'nto'
'normen_'
'nir'
'nier'
'niedrigere'
'nic_'
'nia'
'neuro'
'nest'
'nern_'
'nehm'
'negotiation_'
'negotiate_'
'neglect'
'negativ'
'neg'
'ndr'
'nce'
'native_'
'nahezu_'
'na'
'mé'
'mst'
'motiv'
'morat'
'monet'
'mon'
'momentum_'
'moments_'
'moderne'
'mk'
'mitzu'
'mitge'
'missbrauch'
'minorities_'
'mik'
'miet'
'mic'
'meters_'
'meta'
'mess'
'mergers_'
'mei'
'medic'
'measurement'
'meaningful_'
'mble_'
'maßen_'
'master'
'massive'
'mas_'
'manufacturer_'
'mans'
'magi'
'lux'
'lth'
'loose_'
'loop'
'lohn'
'loa'
'lität_'
'lingu'
'linder'
'like'
'lik'
'lift_'
'ließ'
'lid'
'licherweise_'
'license_'
'licence_'
'libr'
'liberal'
'lh'
'lets_'
'leitet_'
'leid'
'legislat'
'legend'
'leer'
'lber'
'law'
'lav'
'last'
'lady_'
'lad'
'kä'
'kurzfristigen_'
'kter'
'kredit'
'kostengünstig'
'kos_'
'konzept'
'konst'
'konkret_'
'konflikt'
'komm_'
'kol'
'kohärente'
'kg_'
'kehrte'
'kamer'
'jährliche_'
'jour'
'jor'
'ject'
'izi'
'iz_'
'ität'
'itze'
'ith'
'ison_'
'isolated_'
'islamischen_'
'isierte'
'isen_'
'isches_'
'isa'
'irm'
'irischen_'
'irgendwie_'
'irgendeine'
'interrupt'
'internal'
'int_'
'inst'
'inquiries_'
'inl'
'inis'
'ingt_'
'inge'
'infrastructures_'
'inf'
'incredible_'
'incomp'
'inan'
'impa'
'immen'
'imm'
'ilung_'
'illness'
'illa'
'ilia'
'iko'
'ignoriert_'
'ignored_'
'ieß'
'ierenden_'
'ied'
'ieb'
'ically_'
'hörig'
'hundert'
'hten_'
'hte_'
'hte'
'hoped_'
'hinzugefügt_'
'hervorge'
'herrliche'
'herin'
'herbei'
'harder_'
'handlung'
'ham'
'hall_'
'halb_'
'hack'
'habe'
'gradual_'
'grab'
'governed_'
'gos'
'goldene'
'gleichg'
'gleichermaßen_'
'gleicher_'
'ggi'
'gewählte_'
'gewicht'
'geta'
'gestr'
'geschr'
'gesamt'
'gers_'
'geopolitische'
'gentl'
'gens'
'generous_'
'gemütliche'
'gelingen_'
'gelegene'
'gede'
'geboten_'
'geblieben_'
'ganze'
'gangs'
'gallery_'
'gall'
'gaining_'
'fy_'
'furnished_'
'fuck_'
'ftig_'
'fs'
'freez'
'fran'
'fra'
'fortune_'
'fortsetzen_'
'formulierte'
'foreseen_'
'fores'
'football_'
'fon'
'folk'
'floors_'
'flie'
'flaw'
'flag_'
'fl'
'fits_'
'fitness_'
'fines_'
'fil'
'ffic'
'ffer'
'ffe'
'fern'
'fabric'
'exportier'
'explod'
'explains_'
'existed_'
'exhibit'
'exercise'
'exer'
'exc'
'evolve'
'eventuell_'
'eute'
'europ'
'euren_'
'ette'
'esse'
'eso'
'ese_'
'erörtern_'
'eröffne'
'erwähnen_'
'ertig'
'erstaunlich'
'errors_'
'ernsthafte_'
'erkennt_'
'erische'
'erhoben_'
'ergänzen_'
'ergeh'
'erforderliche_'
'erarbeiten_'
'entstanden_'
'entre'
'enntnis'
'enm'
'enha'
'endanger'
'encounter'
'empfohlen'
'emitt'
'ella_'
'elektr'
'eiten_'
'einn'
'einm'
'einhalten_'
'eingehende'
'eigentlichen_'
'ehren'
'ehen'
'ehe'
'effizienter_'
'effizienten_'
'effektiven_'
'ebr'
'eba'
'durchgeführten_'
'duc'
'druck_'
'droht_'
'dramatische'
'dr'
'down'
'dou'
'dot'
'dop'
'doors_'
'doo'
'donor_'
'dominated_'
'dle_'
'distortion_'
'distort'
'disrupt'
'disabled_'
'differ_'
'dier'
'dge_'
'df'
'devastating_'
'desto_'
'derogation'
'deregulation_'
'democracies_'
'defende'
'defeat'
'decrease_'
'declining_'
'das'
'darstell'
'dangers_'
'dairy_'
'curs'
'criterion_'
'craft_'
'court'
'cosy_'
'cool_'
'convince_'
'conv'
'controversial_'
'continuous_'
'cont'
'constituenc'
'consolidation_'
'connect_'
'connect'
'confine'
'condemn_'
'concludes_'
'comprises_'
'competing_'
'compatibility_'
'colours_'
'coherence_'
'cm_'
'clu'
'chst'
'choosing_'
'chip'
'chamb'
'chair_'
'chaft'
'career_'
'cand'
'builds_'
'bug_'
'bright_'
'brid'
'breast_'
'breaking_'
'bout'
'bour'
'blut'
'blow_'
'blick'
'blank'
'birds_'
'bina'
'bild_'
'bilaterale_'
'bezogen'
'bewältig'
'bewusste'
'bewahren_'
'beurteil'
'beträchtliche_'
'besucht_'
'besorgniserregend'
'besondere'
'bese'
'beschleunigt_'
'berühmte'
'berichte'
'bereitzustellen_'
'bereiten_'
'bera'
'bemerk'
'beitung'
'beit_'
'beihilfen_'
'behindern_'
'befürworten_'
'befasst_'
'bef'
'beeinträchtigt_'
'bedeut'
'bears_'
'beam'
'bathing_'
'barer_'
'aya'
'autonom'
'ausw'
'ausse'
'ausgedrückt_'
'ause_'
'aufzus'
'aufs_'
'aufgew'
'aufgegeben_'
'audiovisual_'
'atl'
'ateral'
'associations_'
'asiatischen_'
'artificial_'
'ars_'
'arre'
'arm_'
'arität'
'arche'
'anzuzeigen_'
'antin'
'anstreben_'
'anrufen_'
'annually_'
'anne'
'anl'
'anhalten'
'angen'
'angehör'
'angefangen_'
'andern'
'analyse_'
'amen_'
'ambitions_'
'alternative'
'allzu_'
'allo'
'allen'
'alle'
'alk'
'alism_'
'alarm'
'airline_'
'aiming_'
'aid'
'age'
'advances_'
'administrations_'
'aden_'
'acqu'
'aci'
'achen_'
'academic_'
'abzuw'
'abzusch'
'abw'
'ables_'
'abhängen_'
'abgeb'
'Zut'
'Zusätzlich_'
'Zusammens'
'Zur'
'Zentr'
'Zel'
'Zeitungen_'
'Zahlung_'
'Young_'
'Xi_'
'XL'
'Wälder_'
'Währungsfonds_'
'Wur'
'Wood'
'Wissenschaft'
'Wirksamkeit_'
'Wikitravel_'
'Wi_'
'Wesen_'
'Wes'
'Werk_'
'Weltraum'
'Weekly_'
'Websites_'
'Ware_'
'Want_'
'Wand'
'Wal'
'Wai'
'Wah'
'Vorsitzender_'
'Volkswirtschaft_'
'Visa'
'View_'
'Versuche_'
'Verk'
'Verfahrens_'
'Vereinigung'
'Veranstaltungen_'
'Vera'
'Varia'
'Vall'
'Using_'
'Update_'
'Under'
'Umwelts'
'Umge'
'UT'
'UNI'
'UNESCO_'
'Tür'
'Typ'
'Traum_'
'Tor_'
'Top'
'Tony_'
'Tok'
'Tip_'
'Theor'
'Th'
'Terror_'
'Terr'
'Terminal'
'Ten_'
'Teams_'
'Tak'
'TB_'
'Süd_'
'Symbol_'
'Sunday_'
'Stock_'
'Statistiken_'
'Stabilitäts_'
'Spl'
'Spielen_'
'Spezialitäten_'
'Spezial'
'Spanisch'
'Souveränität_'
'Sound'
'Somalia_'
'Small_'
'Slow'
'Siemens_'
'Sicherheitsrat_'
'Sex_'
'Sek'
'Seg'
'Scott_'
'Schüler'
'Schönheit'
'Schöne'
'Schwäche_'
'Schwerpunkte_'
'Schweiz_'
'Schulz_'
'Schottland_'
'Schlußfolgerung'
'Sca'
'Sauna_'
'Sammlung_'
'Salo'
'Sab'
'SV_'
'STO'
'ST'
'SR'
'SPA'
'SOL'
'SME_'
'SG'
'Roy'
'Ross'
'Rose'
'Romano_'
'Rig'
'Richtig'
'Representative_'
'Religion'
'Regulierungsbehörden_'
'Reduc'
'Reden_'
'Rechtssystem'
'Reagan_'
'Raketen'
'RT_'
'RO_'
'Quart'
'Qa'
'Präsident'
'Proc'
'Privileg'
'Privatisierung_'
'Price'
'Presidents_'
'Portug'
'Por'
'Pont'
'Politikern_'
'Pod'
'Plug'
'Pierre_'
'Philosophie_'
'Philippines_'
'Phil'
'Pharma'
'Pel'
'Peking_'
'Pass_'
'Parliamentary_'
'Parlament'
'Palm'
'Palette_'
'Pal'
'Pakt_'
'PER'
'Opera_'
'Olive'
'Offenheit_'
'Of'
'Oe'
'Oc'
'OS'
'OC'
'Nächste'
'Notice_'
'Neue'
'Nero_'
'Nei'
'Nationale_'
'Nas'
'NGO_'
'Müh'
'Muse'
'Mun'
'Movie'
'Mosc'
'Mord_'
'Moral'
'Mode'
'Mittag'
'Mitentscheidung'
'Mitbe'
'Milosevic_'
'Milch'
'Migranten_'
'Mem'
'Meister'
'Meinungs'
'Medizin_'
'Martin'
'Marine_'
'Mandelson_'
'Manager_'
'Majest'
'Main_'
'MF'
'Ly'
'Luftraum'
'Luftfahrtunternehmen_'
'Love'
'Lim'
'Likewise_'
'Lehrer_'
'Later_'
'Landwirtschafts'
'Laden_'
'Labor_'
'LabVIEW_'
'Kum'
'Kuba_'
'Kontakte_'
'Konse'
'Kons'
'Konferenz'
'Kompromiss'
'Kommunismus_'
'Kohle_'
'Know_'
'Know'
'Kern_'
'Kenya_'
'Kelly_'
'Keep_'
'Kant'
'Kanada_'
'Kaffee_'
'Jungs_'
'Jemand_'
'Jackson_'
'Jack'
'Jac'
'JP'
'Ironi'
'Instan'
'Innenstadt_'
'Il'
'ISO_'
'ICH'
'Händler_'
'Hug'
'His'
'Herzlich'
'Herman_'
'Hea'
'Haupts'
'Hau'
'Güter_'
'Göteborg_'
'Griff_'
'Grad'
'Gewinn'
'Gewalt'
'Gew'
'Georgieva_'
'Gemeinschaftsrecht_'
'Gemeinschaftsm'
'Geiste'
'Geheim'
'Gefangenen_'
'Gefa'
'Ged'
'Gala'
'GE_'
'Fuß'
'Francisco_'
'Fr'
'Fortunately_'
'Flu'
'Fli'
'Five_'
'Festival_'
'Ferr'
'Fen'
'Farbe_'
'Fair'
'Fab'
'FIN'
'Eurosystem_'
'Euros'
'Erstellung_'
'Ersta'
'Erkenntnisse_'
'Erbe_'
'Entscheidungs'
'Entdeck'
'Energieversorgung_'
'Empfänger_'
'Em'
'Einwanderer_'
'Einkaufs'
'Eines_'
'Eigenschaften_'
'Egyptian_'
'EQ'
'ENT'
'EE'
'Dä'
'Durch'
'Dritte_'
'Directorate_'
'Dingen_'
'Dimas_'
'Digital'
'Diensten_'
'Demonstration'
'Dein_'
'Defence_'
'Davi'
'Datenb'
'Das'
'Danach_'
'Dafür_'
'Daddy_'
'DS'
'Cut'
'Corn'
'Color'
'Clubs_'
'Claude_'
'Christ'
'Children_'
'Chen'
'Change_'
'Cambridge_'
'California_'
'Cai'
'CEO_'
'Bürokratie_'
'Bündnis'
'Börsen'
'Buff'
'Bour'
'Bosnien_'
'Bosnia_'
'Black'
'Bisher_'
'Bis'
'Bilde'
'Bilanz'
'Bil'
'Bewirtschaftung_'
'Beschäftigten_'
'Beratungen_'
'Beobachter_'
'Benjamin_'
'Bedrohungen_'
'Bear'
'Bajor'
'Baby'
'Autor_'
'Ausw'
'Aufforderung'
'Aufb'
'Ast'
'Arsch'
'Architekt'
'Arbeitsbedingungen_'
'Annehmlichkeiten_'
'Anmerkung'
'Anleger_'
'Angehörige'
'Androulla_'
'Andererseits_'
'Allein_'
'Akzeptanz_'
'Aktions'
'Adria'
'Ada'
'AdR_'
'Account'
'Absol'
'Abschluss'
'Ablauf_'
'AB_'
'89'
'79_'
'546_'
'344_'
'1988_'
'183'
'140_'
'116'
'104_'
'07'
'&#_'
'%) _'
' ,_'
' ,,_'
'… _'
'” – _'
'ł'
'üs'
'ührt_'
'übertrag'
'übersteig'
'übern'
'überein'
'überdenken_'
'überb'
'öhn'
'öglich'
'ín'
'äst'
'ärm'
'änderung'
'äle_'
'äisch'
'ßte'
'ßen'
'Übersetz'
'Überg'
'Äußerungen_'
'Är'
'Ängste_'
'°_'
'  '
'zy_'
'zwischenstaatliche'
'zweck'
'zw'
'zurückgegangen_'
'zunehmen_'
'zulässig_'
'zul'
'zugeh'
'zue'
'zili'
'zess'
'zerstören_'
'zerstör'
'zahle'
'yer'
'yd'
'xes_'
'wärt'
'worthy_'
'wohn'
'wind'
'willen'
'wieso_'
'wies_'
'wider'
'whol'
'whenever_'
'west'
'wesentlicher_'
'werken_'
'wehr'
'wedding_'
'weaknesses_'
'weaker_'
'watch'
'wasser_'
'wards_'
'ward_'
'walls_'
'waffe'
'vorw'
'vorges'
'vorbereitet_'
'vorb'
'volumen_'
'vocational_'
'vill'
'vessel_'
'verwiesen_'
'verwa'
'verursachen_'
'vertrieben'
'versuche_'
'verstr'
'verschw'
'verschmutz'
'verrückt_'
'vernehm'
'verlang'
'verkauf'
'verhelfen_'
'verhandlungen_'
'verhandeln_'
'verfolg'
'vereinbarung_'
'verbr'
'verbinden_'
'verantwortliche'
'verabschiedeten_'
'val_'
'vak'
'uzz'
'usti'
'uranium_'
'uphold'
'uous'
'untr'
'unterstreicht_'
'unterscheidet_'
'unterscheiden_'
'unterrichte'
'unterla'
'unterh'
'unterd'
'unterbreitet_'
'unstable_'
'unrea'
'unprecedented_'
'unmittelbare_'
'unilateral_'
'ungspro'
'ungen'
'unentgeltlich_'
'undu'
'unab'
'umgekehrt_'
'umgeben_'
'umfassendere'
'ume'
'ulier'
'uld'
'ula_'
'uel'
'täte'
'tär'
'tyr'
'turn'
'trä'
'travel'
'transmitted_'
'transformation_'
'tram'
'trail'
'traders_'
'total'
'tory_'
'tive'
'tile'
'tiere'
'tical'
'thy_'
'thirt'
'therapy_'
'text'
'teuer_'
'terminal_'
'tennis_'
'tempo'
'temp'
'tem_'
'technik_'
'tec'
'tbar'
'tai'
'synchroni'
'symptom'
'symbol'
'sweet_'
'suspended_'
'suspend'
'suites_'
'suit'
'substitute'
'subsidi'
'subsequently_'
'subjects_'
'ständige_'
'sty'
'stunde_'
'studied_'
'struktur_'
'struck_'
'string_'
'strikes_'
'strange_'
'stood_'
'stl'
'stin'
'stil'
'stif'
'steuern_'
'stec'
'stattf'
'stammt_'
'ssta'
'spiele'
'specifications_'
'spar'
'sooner_'
'sons_'
'solid'
'sn'
'slip'
'sku'
'skilled_'
'sister_'
'sio'
'sin_'
'sident'
'sher'
'sges'
'sfr'
'settled_'
'seltene'
'sell'
'seitdem_'
'seit'
'sections_'
'seas_'
'score_'
'schätz'
'schwierige_'
'schwerer_'
'schwarze'
'schuldig_'
'schei'
'schedule_'
'scarce'
'sav'
'samen_'
'safe'
'sach'
'räge_'
'ruft_'
'ruck_'
'rout'
'ros_'
'robot'
'rob'
'rkt_'
'rk_'
'rine'
'rily_'
'rigid'
'right'
'ridi'
'rid'
'rfen_'
'rett'
'resu'
'restored_'
'resign'
'resident_'
'repea'
'renoviert_'
'reng'
'removing_'
'reme'
'reject'
'regi'
'refused_'
'referend'
'reductions_'
'realis'
'realer_'
'realen_'
'reaffirm'
'reactions_'
'rba'
'ratified_'
'rali'
'raft_'
'quota_'
'quantities_'
'py'
'publications_'
'publication_'
'psycholog'
'provo'
'provin'
'prove'
'proto'
'prohibits_'
'produzieren_'
'produces_'
'prea'
'pragmatis'
'practically_'
'ppt_'
'power'
'positi'
'portra'
'polar'
'pm_'
'plant'
'planen_'
'piracy_'
'philosophi'
'pflicht'
'persuade_'
'permanently_'
'patron'
'passive'
'passen_'
'parteien_'
'parl'
'oß_'
'ova'
'outlook_'
'outline_'
'orn_'
'orientierte'
'organized_'
'organic_'
'opti'
'oppo'
'opo'
'operativen_'
'opera'
'ony_'
'onst'
'ological_'
'olo'
'ohnehin_'
'og_'
'oftmals_'
'occupied_'
'oas'
'nve'
'nutzt'
'ntw'
'nst'
'nr'
'novel_'
'nke'
'nj'
'nitt'
'nist'
'nien_'
'nia_'
'nhei'
'ngen'
'new'
'necessity_'
'ndes_'
'nden'
'ncy_'
'nationalistische'
'nationalist_'
'national'
'nal_'
'müh'
'märkten_'
'mutige'
'musik'
'motive_'
'moon_'
'monopoli'
'modernisier'
'moderni'
'moderate_'
'modell_'
'missed_'
'misc'
'mirror'
'mie'
'metal'
'met'
'merge'
'melden_'
'meint_'
'mba'
'maßgebliche'
'mate'
'marke'
'mano'
'mage'
'machst_'
'lösung_'
'läßt_'
'lowering_'
'lom'
'logic_'
'locked_'
'llung'
'lize'
'lip'
'linguistic_'
'lings_'
'linge'
'liebt'
'lica'
'library_'
'liberat'
'liberalisier'
'lia'
'lel'
'leidet_'
'leiden'
'lect'
'lder_'
'lc'
'lawyers_'
'lasse_'
'lase'
'ladi'
'lacking_'
'label_'
'label'
'kund'
'kun'
'ktor'
'kritisiert_'
'kritischen_'
'kriegs'
'krank_'
'kot'
'kostenlose_'
'konsum'
'konk'
'knapp'
'klär'
'kennen'
'kap'
'kane'
'kampf'
'jähriger_'
'jährige_'
'js'
'iß'
'iz'
'ively_'
'itten_'
'itischen_'
'iron'
'irgendwo_'
'ior'
'invites_'
'intr'
'interventions_'
'intermediat'
'intensivier'
'intense_'
'intelligente'
'intelligent_'
'integrieren_'
'inta'
'insula'
'insert'
'insec'
'inse'
'inig'
'inherit'
'inflows_'
'infected_'
'indlich'
'individuellen_'
'indicati'
'inc'
'importantly_'
'impede'
'immte'
'illusion'
'ii'
'iesen_'
'iere_'
'ieg_'
'ick_'
'iche'
'ica'
'ias_'
'hur'
'humanity_'
'hub'
'hospitals_'
'hono'
'holders_'
'hohes_'
'hne'
'hle_'
'historisch_'
'his'
'hir'
'hinweg_'
'hierher_'
'hie'
'hic'
'hervorgehoben_'
'heroi'
'here'
'heiraten_'
'headquarters_'
'hazardous_'
'handels_'
'hair'
'hafte_'
'gungs'
'guided_'
'gründen_'
'grid'
'gree'
'gramm_'
'grafi'
'gna'
'gn_'
'glieder'
'gle_'
'glass_'
'gir'
'gewisser'
'gewerbliche'
'geschlossene'
'geschl'
'geschickt_'
'gescheitert'
'gerichtete_'
'gerechten_'
'geor'
'gent_'
'genetische'
'gene_'
'geln_'
'gela'
'geholfen_'
'geha'
'gefäl'
'gefährlichen_'
'gebo'
'gebildet_'
'gd'
'gage_'
'fürs'
'fügte_'
'fältig'
'fällig_'
'fus'
'furt'
'fun'
'fulfilled_'
'fuckin'
'fte_'
'front'
'frische'
'friedliche_'
'freundliche'
'freight_'
'frame_'
'fragile_'
'formation'
'formali'
'foremost_'
'foc'
'fläche_'
'flower'
'flicht'
'flan'
'fica'
'festlegen_'
'festges'
'fertig'
'fee_'
'fans_'
'familien'
'fairness_'
'fahrt'
'factory_'
'express'
'explicitly_'
'expect'
'expanding_'
'ewer'
'ever'
'ethnischen_'
'estimate_'
'ession_'
'erzählen_'
'erzähl'
'erweiterten_'
'erweitert_'
'erweck'
'errichten_'
'ernst'
'ermittelt_'
'erklär'
'erinner'
'erhe'
'erfa'
'erend'
'entscheidungen_'
'entrepreneurship_'
'ently_'
'enlarged_'
'engere_'
'ener_'
'endo'
'end'
'enact'
'emphasize'
'emissionen_'
'eman'
'ellung'
'elles_'
'eller_'
'element'
'electrical_'
'eistung'
'einsch'
'einle'
'einheimische'
'eingeschränkt_'
'eignet_'
'egu'
'egel'
'ees_'
'eer'
'ebo'
'eating_'
'earned_'
'dünn'
'dyn'
'drängen_'
'doubl'
'dos_'
'doppelte'
'dokument'
'doctrine_'
'dm'
'districts_'
'displayed_'
'dismantl'
'diskr'
'disk_'
'disg'
'discon'
'dioxide_'
'dim'
'differently_'
'dict'
'devoted_'
'deutliche_'
'detected_'
'detect'
'dete'
'det'
'designi'
'desert'
'descri'
'derived_'
'derartig'
'deposits_'
'deployment_'
'deployed_'
'demonstrations_'
'demon'
'delicious_'
'delicate_'
'dek'
'definitions_'
'defens'
'decent_'
'debated_'
'dauern_'
'cycli'
'cua'
'creditors_'
'cred'
'crack'
'cost'
'correspond'
'conviction'
'contract'
'cong'
'complaint_'
'competences_'
'communicat'
'communa'
'commerce_'
'command'
'comm'
'come'
'collaborat'
'clip'
'ckl'
'cked_'
'citizenship_'
'chtu'
'chlag'
'cheat'
'chart'
'characteristics_'
'cell'
'cca'
'catch'
'cata'
'captain_'
'cano'
'cals_'
'calendar_'
'buck'
'buchen_'
'brows'
'broker'
'broadcasting_'
'brenn'
'borrowing_'
'boo'
'bloß_'
'bish'
'bill_'
'bilanz'
'bewirkt_'
'beträchtlich'
'bestre'
'bestehender_'
'berühmten_'
'bers'
'beneficiaries_'
'beneficial_'
'belegen_'
'beizu'
'beinhalten_'
'begeben_'
'begangen_'
'befürworte'
'befreien_'
'beeindruckende'
'bedenk'
'bedanken_'
'beat_'
'beantragen_'
'bean'
'beabsichtigt_'
'bail'
'azi'
'ay'
'aw'
'außenpolitische'
'autonomy_'
'automatic_'
'authors_'
'auswählen_'
'aussprechen_'
'ausges'
'ausgelöst_'
'ausgeg'
'ause'
'aufrecht_'
'aufhalten_'
'aufget'
'auferleg'
'attract'
'atten'
'assumption_'
'assum'
'assigned_'
'aspir'
'artists_'
'artige'
'arisch'
'aria'
'arbeite'
'anzukurbeln_'
'anzuh'
'anzugehen_'
'anz'
'anteil'
'anstelle'
'anpass'
'announce_'
'anh'
'angry_'
'angewandt_'
'angenehme'
'angemeldet'
'anfangen_'
'analysier'
'amt'
'amp_'
'amazing_'
'allgemeinem_'
'aller'
'alleg'
'alisier'
'alike_'
'align'
'alb_'
'aktivitäten_'
'aket'
'ahme_'
'ahlen_'
'agr'
'aggr'
'agents_'
'aga'
'affl'
'advised_'
'ado'
'adapt'
'acquire_'
'aco'
'acit'
'accura'
'accelerate_'
'academi'
'abuses_'
'abso'
'abschl'
'abf'
'abandoned_'
'Zuf'
'Zuerst_'
'Zoll_'
'Zinssätze_'
'Zerstörung_'
'Zei'
'Wohnung_'
'Wirtschaftsp'
'Wind_'
'Willi'
'Wikicars_'
'Wider'
'Whether_'
'Werkzeuge_'
'Wende'
'Weltk'
'Wahrscheinlichkeit_'
'Wahr'
'WHO_'
'Voyager_'
'Vorstellungen_'
'Vorgänger_'
'Visa_'
'Video'
'Vic'
'Verzögerungen_'
'Verwe'
'Vertrieb'
'Verteidigungspolitik_'
'Verstärkung_'
'Verstä'
'Vermögen_'
'Verluste_'
'Verletz'
'Verle'
'Vent'
'VP_'
'Uri'
'Urheberrecht'
'Unterstütz'
'Unters'
'Unterricht'
'Unterkunft_'
'Unterdrückung_'
'Unless_'
'Universitäten_'
'Ul'
'UL'
'Twe'
'Try_'
'Trop'
'Tria'
'Training_'
'Trad'
'Town_'
'Tourismus'
'Too_'
'Tob'
'Tit'
'Til'
'Theorie_'
'Theater_'
'Termin_'
'Temperatur'
'Tee'
'Tanz'
'Tam'
'Table_'
'THE'
'TC'
'TAC_'
'TAC'
'Sun'
'Subject_'
'Streng'
'Straftat'
'Stop_'
'Step'
'Steel'
'Stay_'
'Sports_'
'Sound_'
'Sometimes_'
'Something_'
'Solche_'
'Sis'
'Serv'
'Scien'
'Schwellenländer_'
'Schwach'
'Schne'
'Say_'
'Sarah_'
'Saharan_'
'SN'
'Ruh'
'Roll'
'Roc'
'Rit'
'Richt'
'Reserv'
'Religion_'
'Rela'
'Referenz'
'Rechtssicherheit_'
'Rechtsakt'
'Rau'
'Ratsvorsitzes_'
'RP'
'RB'
'Quoten'
'Qui'
'Quest'
'Qualifi'
'Publi'
'Präsidentschaftswahl'
'Provence_'
'Produzenten_'
'Prin'
'Prev'
'Pressestelle_'
'Pressekon'
'Preise'
'Pr'
'Pos'
'Political_'
'Plat'
'Pflanzen'
'Peni'
'Patri'
'Paar_'
'PS_'
'PRESSEMITTEILUNG_'
'PLA'
'Ozean'
'Over'
'Ort'
'Orient'
'Opfern_'
'Oli'
'Nou'
'Notenbank'
'Norwegen_'
'None_'
'Nob'
'Nicolas_'
'Nichts'
'Netze_'
'Nachfrage'
'NOT'
'NCC_'
'Mächte_'
'Must'
'Mountain'
'Motor_'
'Motiv'
'Monday_'
'Modern_'
'Mobiltelefon'
'Mittela'
'Mitgliedstaats_'
'Mitgliedsl'
'Ministerpräsidenten_'
'Minder'
'Mill'
'Mexican_'
'Merc'
'Math'
'Marsh'
'Marr'
'Manhattan_'
'Mang'
'Mandat'
'Mama_'
'Mali_'
'Magazin'
'Mach'
'MID'
'ME_'
'Lösungs'
'László_'
'Lud'
'Lounge_'
'Little_'
'Lich'
'Let'
'Lese'
'Legitimität_'
'Legislativ'
'Lea'
'LateRooms_'
'Lar'
'Lands'
'Lag'
'Lad'
'LP'
'LL_'
'Kurdish_'
'Kongo_'
'Konflikt'
'Komme'
'Klin'
'Klimas'
'Kl'
'Kernkraft'
'Kenn'
'Karibik_'
'Kapitalm'
'Kandidat'
'Kamera_'
'Kalt'
'Kad'
'KB'
'Juncker_'
'Jugendliche'
'Jobs_'
'Jia'
'Italien'
'Islam'
'Intr'
'Interi'
'Interess'
'Inter_'
'Instruments_'
'Institution'
'Inspektor'
'Inn'
'Initiativ'
'Ing'
'Industrieländern_'
'Indikatoren_'
'Ig'
'Identifi'
'Ia'
'ISIS_'
'Hübner_'
'Hut'
'Hunde'
'How'
'Hongkong_'
'Hollande_'
'Himmel_'
'Heim'
'Heil'
'Heb'
'Hauptziel'
'Hass'
'Gästen_'
'Guy'
'Guests_'
'Grünen_'
'Gross'
'Glücklicherweise_'
'Global'
'Gle'
'Glaube'
'Gewinn_'
'Gewerkschaften_'
'Gewe'
'Gerichten_'
'Gentoo_'
'Gegens'
'Gara'
'Ganzen_'
'Gan'
'Gal'
'GS'
'G20_'
'Future_'
'Fusionskontrolle_'
'Funktion'
'Fundament'
'Friendly_'
'Frattini_'
'Forscher_'
'Formular_'
'Follow_'
'Folgendes_'
'Flüchtlingen_'
'Fluss_'
'Florida_'
'Flexi'
'Fischerei'
'Finanzsystem_'
'Finanzmittel_'
'Feuer'
'Feinde_'
'Feind'
'Family_'
'FA_'
'Exporte'
'Experience_'
'Euroraum_'
'Euroco'
'Eura'
'Este'
'Esta'
'Erzähl'
'Erzeugung_'
'Erwärmung_'
'Erwa'
'Erh'
'Erg'
'Erbringung_'
'Erb'
'Entwicklungszusammenarbeit_'
'Ents'
'Entlastung_'
'Energiequellen_'
'Energiepolitik_'
'Enc'
'Electronic'
'Einzelhandel'
'Einschränkung_'
'Einh'
'Einfuhr_'
'Edit'
'Ecke_'
'EO'
'EME'
'EG'
'Durchbruch_'
'Dum'
'Dubai_'
'Dru'
'Dorn'
'Div'
'District_'
'Dist'
'Disp'
'Differenz_'
'Diag'
'Det'
'Derzeit_'
'Depo'
'Defizit'
'Deep_'
'Datenschutz_'
'Dara'
'Damals_'
'Dai'
'DS9_'
'Cruz_'
'Cru'
'Court'
'Cop'
'Conven'
'Conte'
'Consumers_'
'Confi'
'Citi'
'Cit'
'Chávez_'
'Chap'
'Chai'
'Centr'
'Casino_'
'Carol'
'Card'
'Canon_'
'CAR'
'Burn'
'Burk'
'Bund'
'Brücke_'
'Brief_'
'Branchen_'
'Borde'
'Bonn_'
'Boden'
'Bob_'
'Bleib'
'Blan'
'Binnenmarkts_'
'Bin_'
'Bewegungen_'
'Betreiber_'
'Bet'
'Bestimmung_'
'Bergen_'
'Bela'
'Begr'
'Beg'
'Beamte_'
'Basis'
'Barrot_'
'Barr'
'BS'
'BN'
'BL'
'Ay'
'Av'
'Autos_'
'Auswärtige'
'Ausweg_'
'Ausse'
'Ausr'
'Ausgleich_'
'Ausgabe_'
'Auseinandersetzung'
'Ausb'
'Aufstieg_'
'Aufs'
'Aufenthalts'
'Asse'
'Artikels_'
'Arch'
'Arabien_'
'Anweisung'
'Anpassungen_'
'Anne_'
'Anhörung_'
'Angl'
'Angebots'
'Ange'
'Angabe_'
'Anal'
'Ami'
'Ali'
'Akte'
'Akk'
'Aga'
'Aff'
'Abschl'
'Abg'
'AP_'
'AF'
'AD_'
'78'
'77'
'72'
'71_'
'296_'
'236'
'1920'
'06'
'. „_'
'.  _'
'. -_'
'. ('
'**'
''' (_'
'# _'
'", "_'
' ;_'
' ; _'
'€_'
'”_'
'г'
'ürzt'
'ürt'
'ürfe_'
'ür_'
'üns'
'übrig_'
'überst'
'übers'
'überraschend_'
'überl'
'überd'
'öpf'
'ökologische'
'év'
'én'
'ées_'
'éa'
'äum'
'ätz'
'äsent'
'ärmsten_'
'ärkten_'
'änger'
'ändert_'
'än_'
'äle'
'ährt'
'ähnlicher_'
'ähig'
'ßer'
'Überraschung_'
'Überr'
'Öffentliche_'
'Änderungs'
'Ähnlich'
'·'
'«_'
'}}) '
'}} **{{_'
'züge'
'zöger'
'zykl'
'zweif'
'zuzus'
'zuteil'
'zusätzliche'
'zustellen_'
'zusammenzu'
'zusammenf'
'zurückf'
'zung_'
'zog_'
'zeug'
'zeitlich'
'zeita'
'younger_'
'yellow_'
'xon'
'würdigen_'
'wö'
'womit_'
'wohin_'
'wle'
'witnessed_'
'wirtschaft'
'willig_'
'wette'
'westlich_'
'weste'
'weiten_'
'websites_'
'wd'
'wandeln_'
'wag'
'waffen_'
'wach'
'vs'
'vot'
'vorstell'
'vorgelegten_'
'vorg'
'vorbehalt'
'voraussichtlich_'
'vollzieh'
'voi'
'visual_'
'vist'
'violate'
'vez_'
'verweiger'
'verwaltet'
'vertra'
'verstößt_'
'versp'
'versehen'
'verschwunden_'
'verschwende'
'vermute'
'verhältnis'
'verha'
'vergleich'
'vereinbart_'
'verbot'
'verbesserten_'
'verantwortungsvolle'
'varian'
'utz'
'usse'
'usschusses_'
'urges_'
'urf_'
'ure'
'ups_'
'uppe'
'upgrading_'
'upcoming_'
'unzureichend_'
'unwe'
'unusual_'
'unterzeichnete'
'unterste'
'untereinander_'
'unta'
'universe_'
'universal'
'units_'
'unification_'
'ungssysteme'
'unglaublich'
'ungeachtet_'
'underpinned_'
'undermining_'
'uncertain_'
'unabhängige'
'ull'
'uhig'
'uf_'
'ub_'
'tür'
'täusch'
'tzu'
'twentieth_'
'tures_'
'truppe'
'trug'
'trock'
'tries_'
'tres'
'treib'
'treaties_'
'trau'
'transportier'
'transmit'
'transformed_'
'tranquil'
'train'
'tow'
'touris'
'tos'
'tip'
'tine'
'timm'
'tiful'
'tiefe_'
'tie_'
'thrown_'
'thread'
'thr'
'thode'
'thi'
'theorie'
'themati'
'textiles_'
'tere'
'techno'
'technisch'
'teacher_'
'tausende_'
'tausend'
'tas_'
'tari'
'tane'
'tad'
'sätze_'
'sympathy_'
'symp'
'sure'
'suppress'
'sup'
'sunn'
'suddenly_'
'sudden_'
'subsidiarity_'
'submi'
'subject'
'stärkere'
'ständi'
'stunning_'
'stung_'
'stud'
'stream'
'strand'
'stores_'
'stopp'
'stig'
'stereo'
'steigenden_'
'sted_'
'steckt_'
'stagnation_'
'stabilize'
'stabilen_'
'sstsein'
'sst'
'sschreiben_'
'sr'
'spätere'
'sprachliche'
'spite_'
'spare_'
'spanische_'
'sowjetische'
'sonstige_'
'sonn'
'som'
'solltest_'
'sogenannte_'
'smell_'
'slot'
'sl'
'skand'
'sk_'
'sition'
'sins'
'sinnvolle'
'silence_'
'sieg'
'sichtbar_'
'show'
'shouldn_'
'shooting_'
'shad'
'settlements_'
'sessions_'
'sequence'
'sektors_'
'seize_'
'score'
'schwei'
'schwedischen_'
'schwank'
'schutz_'
'schte'
'scht_'
'scholars'
'schnellere'
'schn'
'schlechten_'
'schla'
'schicht'
'scene_'
'scape'
'sca'
'sat_'
'samt_'
'salt_'
'sahen_'
'sache'
'rät'
'räch'
'rust'
'ruhigen_'
'rude'
'rts'
'rste'
'rott'
'ront'
'rod'
'rnt'
'rklärung'
'riz'
'rische_'
'risch'
'riert'
'rhetoric_'
'rgi'
'reward_'
'retro'
'retire'
'reti'
'retain_'
'reso'
'reservations_'
'res'
'repli'
'replac'
'repair_'
'remi'
'remedy_'
'remark'
'relocat'
'reiterate'
'reiten_'
'reis_'
'reine'
'reicher_'
'registr'
'regel'
'refuses_'
'refle'
'redi'
'rechtfertigen_'
'rech'
'rec'
'realiz'
'rbi'
'raises_'
'rai'
'raci'
'quil'
'qui_'
'queries_'
'qual'
'publicly_'
'public'
'pub'
'pt'
'prüfung_'
'präsentier'
'präg'
'prox'
'protest_'
'pros'
'promote'
'profil'
'professor_'
'produz'
'produkti'
'preventive_'
'pressing_'
'present'
'pres'
'premises_'
'premi'
'preisen_'
'precious_'
'preced'
'pper_'
'pot_'
'positione'
'posi'
'porte'
'pools_'
'polls_'
'politike'
'politi'
'poet'
'pläne_'
'pledge'
'platz'
'platforms_'
'pipeline_'
'pig'
'piel_'
'phy'
'pher'
'phe'
'phan'
'person'
'perfekt_'
'perception_'
'peer_'
'patents_'
'pate'
'paral'
'paradi'
'pap'
'painful_'
'packaging_'
'pac'
'owner_'
'overlook'
'othe'
'ote_'
'orti'
'orit'
'orientiert_'
'ordnungsgemäße'
'ordentliche'
'optional_'
'optim'
'opol'
'operatione'
'oo_'
'onier'
'ong'
'ones'
'oned_'
'one'
'omb'
'ois'
'oir'
'oil'
'offset_'
'officially_'
'offenbar_'
'odu'
'occurs_'
'oca'
'objecti'
'nötigen_'
'nächster_'
'nutzung_'
'nungs'
'num'
'nuklearen_'
'ntr'
'nth'
'nonetheless_'
'nob'
'nische_'
'nisch_'
'newsletter_'
'neutral_'
'nel_'
'neben'
'ndung_'
'ndliche_'
'ndere'
'navigat'
'nau'
'nas'
'nant_'
'namens_'
'nah_'
'nachgewiesen_'
'nac'
'mun'
'mul'
'mte'
'mps'
'mpf'
'mortgage_'
'monitored_'
'modi'
'mobile'
'mmer_'
'mium_'
'mitglieder_'
'mism'
'miracle'
'mile'
'micro_'
'mehrfach_'
'mea'
'maß_'
'mau'
'maschine_'
'mankind_'
'manipulation_'
'mam'
'makroökonomischen_'
'mail'
'mad'
'machten_'
'lute'
'lug'
'lud'
'lse'
'loud'
'lone'
'locker'
'lock'
'lob'
'llige'
'lles_'
'lity_'
'limitations_'
'lieder'
'liberalis'
'letzte'
'letters_'
'lerat'
'lenge'
'lende'
'leistungs'
'lebenslange'
'laute'
'laus'
'laste'
'landwirtschaftliche'
'landing_'
'lager_'
'lab'
'künstlich'
'kühl'
'körper'
'kurs_'
'kunden_'
'ktions'
'ktionen_'
'kro'
'kre'
'kratie'
'krank'
'konzentrierte'
'konve'
'kontrollierte'
'kontrolle_'
'konservative'
'komplexen_'
'kommunale'
'kommst_'
'kommerziellen_'
'kod'
'knowing_'
'klären_'
'klingt_'
'klicken_'
'kins_'
'king'
'kin'
'kett'
'keinem_'
'keen_'
'kau'
'kapital_'
'kab'
'justification_'
'juristische'
'jugoslawische'
'judg'
'jk'
'jan'
'ivit'
'ivi'
'ittel_'
'itin'
'istischen_'
'ista'
'issu'
'issen_'
'isierungs'
'irakischen_'
'iot'
'ionary_'
'io'
'investigated_'
'into'
'interne_'
'instantly_'
'installi'
'inn_'
'initi'
'inhaltlich'
'ingl'
'inflation'
'infer'
'infection_'
'inen'
'ined_'
'indispensable_'
'indirekte'
'independently_'
'inch'
'ination'
'inander'
'imposi'
'imit'
'imate'
'ilig'
'iler'
'ilen_'
'ikat'
'iete'
'ierbar'
'iege'
'iede'
'idio'
'ider'
'identifizier'
'identical_'
'ideale_'
'ideal'
'ichte'
'ibl'
'höchst_'
'hyper'
'hung'
'hug'
'hst_'
'horn'
'hoping_'
'holt'
'hnung_'
'hnt_'
'hli'
'hierarch'
'hidden_'
'hid'
'hervorragenden_'
'herstellen_'
'herrsch'
'herein'
'hende_'
'heitlich'
'haushalts'
'harmonisier'
'harmonised_'
'harmoni'
'harm'
'hanging_'
'handlung_'
'hab'
'guilt'
'größter_'
'größtenteils_'
'grund_'
'großartige'
'grow'
'grosse'
'grenze_'
'good'
'god'
'gm'
'gin_'
'gig'
'gewiss_'
'geti'
'geste'
'gesorgt_'
'gesetzgeb'
'gesellschaftliche_'
'geschlagen_'
'gescha'
'genauer_'
'gemeinsames_'
'geleistete'
'gekämpft_'
'geko'
'gekennzeichnet_'
'gekauft_'
'gegl'
'gefr'
'gefolgt_'
'geehrte'
'gebunden_'
'gebi'
'gation_'
'gast'
'gam'
'gaben_'
'fut'
'funny_'
'frühere_'
'frontier'
'fristige'
'fried'
'freut_'
'freiwillige'
'freige'
'forth_'
'forschung_'
'formuliert_'
'formula'
'forge'
'flow'
'fishermen_'
'fische'
'finnische'
'fine'
'finanziell_'
'fielen_'
'fft_'
'festival_'
'fest'
'fertigte'
'fault_'
'fare'
'farb'
'fantas'
'fam'
'fakt'
'fahr'
'faction'
'extremist'
'externen_'
'exten'
'explicit_'
'experiencing_'
'expenses_'
'expe'
'exempl'
'excuse_'
'exci'
'exceeding'
'exceeded_'
'evolution_'
'evident_'
'europaweit_'
'ette_'
'essa'
'esetz'
'erworben'
'erver'
'erupt'
'erteilt_'
'erta'
'ersucht_'
'erschütter'
'ernen'
'erli'
'ergab_'
'erbar'
'episode_'
'enthusias'
'entertainment_'
'entails_'
'endu'
'endgültig_'
'endem'
'endeavour'
'empha'
'empfiehlt_'
'emon'
'embryo'
'embrace_'
'elpreis'
'elin'
'eliminated_'
'eits'
'eister'
'einnehmen_'
'eingerichtete_'
'eilt'
'ehm'
'edit'
'ecu'
'ecological_'
'eckt_'
'echnologie'
'eau_'
'dü'
'dungen_'
'dumping_'
'drück'
'drin_'
'dream'
'drafted_'
'dominance_'
'document'
'dler'
'divide_'
'diversi'
'diss'
'disproportionate'
'disparities_'
'dische'
'directory_'
'digung'
'digital'
'differ'
'diesmal_'
'dieselben_'
'dienstleistungen_'
'dian_'
'destroying_'
'desperate'
'derselben_'
'derive'
'dera'
'depr'
'demonstrier'
'democrat'
'demi'
'delt'
'delivering_'
'delight'
'delet'
'delegate'
'defeat_'
'decorated_'
'debts_'
'debtor'
'debian_'
'deadl'
'culo'
'cted_'
'criticise'
'cript'
'creditor_'
'creativity_'
'craft'
'countryside_'
'countless_'
'counterparts_'
'council_'
'corp'
'cooperative_'
'cooperat'
'conversion_'
'contracting_'
'construct_'
'confusion_'
'configure'
'concentrati'
'compulsory_'
'compre'
'compensate'
'como_'
'communicate_'
'commen'
'collect'
'coc'
'claiming_'
'cke'
'cit'
'circle_'
'ciones_'
'cian'
'cial_'
'cia'
'chter_'
'chle'
'child'
'chie'
'chemicals_'
'charm'
'charit'
'chances_'
'chan'
'centrali'
'cattle_'
'cast'
'cari'
'cans_'
'calculation'
'calculated_'
'but'
'burning_'
'brutale'
'bringe_'
'breed'
'brauche_'
'bonus_'
'bombe'
'boards_'
'blood'
'blas'
'bing_'
'bezieh'
'bewegung_'
'bev'
'beunruhigend'
'betreib'
'betonte_'
'beteiligung_'
'bestmöglich'
'beso'
'besitz'
'beschreibt_'
'beschleunigte'
'berü'
'bereitstellen_'
'bereitet_'
'bereit'
'bereichen_'
'berechtigt_'
'benchmark'
'benachteiligten_'
'benachbarten_'
'bemerkt_'
'belegt_'
'belaufen_'
'bekämpfung_'
'behandlung'
'begründe'
'befürchten_'
'beförder'
'bedauerlich'
'beabsichtig'
'bat_'
'bargain'
'ball'
'balances_'
'bak'
'awi'
'aw_'
'avoid'
'authoritarian_'
'authentic'
'ausschl'
'ausmachen_'
'ausgewählten_'
'ausgehend_'
'aufweisen_'
'auftrag'
'aufste'
'auff'
'attempting_'
'atic_'
'ater_'
'asch'
'arro'
'arriving_'
'arra'
'arising_'
'aring_'
'arbitrary_'
'anzust'
'anzus'
'anwesend_'
'antwortet'
'antworten_'
'antik'
'antic'
'anische_'
'angr'
'anget'
'angehören_'
'angeg'
'angef'
'angeblich_'
'anerkennen_'
'ando_'
'anda_'
'anb'
'amme'
'amending_'
'alu'
'allowances_'
'alleine_'
'ality_'
'ahl_'
'agier'
'aftermath_'
'affordable_'
'affirm'
'affiliat'
'afe'
'aero'
'adore'
'ada'
'actor_'
'activists_'
'acknowledge'
'acke'
'accordingly_'
'accommodate_'
'aca'
'abilität_'
'abges'
'`_'
'Zuwa'
'Zus'
'Zukunfts'
'Zit'
'Zeitraums_'
'Zeitplan_'
'Zeile'
'Zauber'
'Zahlreiche_'
'Yugoslavia_'
'YOU_'
'Wünsche_'
'Wärme'
'Wy'
'Wunder'
'Wr'
'Working_'
'Won'
'Wiederbelebung_'
'Which_'
'Werk'
'Weltkrieg'
'Wellness_'
'Weiterentwicklung_'
'Wassers'
'Warnung_'
'WM'
'WE_'
'Völker'
'Vorsi'
'Vorfa'
'Vorbild_'
'Vladimir_'
'Vita'
'Virus_'
'Vil'
'Vie'
'Vertriebs'
'Vertragsverletzungsverfahrens_'
'Vertrages_'
'Verschwinde'
'Verhältnisse'
'Verga'
'Verbrauchs'
'Verbrauch_'
'Vat'
'Van'
'VIS_'
'Ursache_'
'Urlaubs'
'Unver'
'Untersch'
'Unr'
'Universit'
'Ungleichgewicht'
'Unabhängig'
'Umweltbe'
'Ukrainian_'
'Turb'
'Tunnel'
'Tsa'
'Trust'
'Trend_'
'Treib'
'Transfer'
'Throughout_'
'Thr'
'Thirdly_'
'Things_'
'Thin'
'Terror'
'Temple_'
'Temp'
'Tap'
'Tajani_'
'TS'
'Süß'
'Suppo'
'Supp'
'Sunni_'
'Strand'
'Strafe'
'Stimme'
'Stick'
'Sternen'
'Standort'
'Stamm'
'Stal'
'St'
'Sri_'
'Spy'
'Speci'
'Song'
'Soc'
'Sky'
'Skep'
'Sitzungen_'
'Simon'
'Sieh_'
'Sicherheitsbe'
'Sich'
'Show'
'Service'
'Sele'
'Screen'
'Schön_'
'Schlussfolgerung_'
'Schatten_'
'Schalt'
'Scann'
'Sara'
'Sanc'
'Sala'
'Sahara_'
'Sag'
'Sachverständige'
'SC_'
'Rü'
'Ronald_'
'Roger_'
'River'
'Rie'
'Richtlinien'
'Rich'
'Resultat'
'Ressourcen'
'Republicans_'
'Renaissance_'
'Rem'
'Rel'
'Rek'
'Read'
'Raumfahrt'
'Ras'
'Radio'
'RE_'
'Quick'
'Quartal_'
'Quant'
'Quadra'
'Qaeda_'
'QU'
'Prävention_'
'Provinz_'
'Prote'
'Progress_'
'Prima'
'Porto_'
'Polens_'
'Pola'
'Plu'
'Playa_'
'Piazza_'
'Pete'
'Peru_'
'Perspe'
'Pay_'
'Passe'
'Pascal_'
'Partnerl'
'Partition'
'Papier_'
'Papa'
'Panzer'
'Palästinensische'
'PI_'
'Others_'
'Ot'
'Ostsee'
'Orl'
'Organen_'
'Ora'
'Opti'
'Operation'
'Ohr'
'Og'
'OP'
'OG'
'Null'
'Nimm_'
'Nichte'
'Nev'
'Neube'
'Netzwerke'
'Net_'
'Nelson_'
'Nan'
'Nachfolger_'
'Nachbar'
'NP'
'Münzen_'
'Mum'
'Mugabe_'
'Mou'
'Mord'
'Mog'
'Mobili'
'Mobil'
'Minderheit_'
'Metro_'
'Mega'
'Me_'
'Marken'
'Marke_'
'Mare'
'Mand'
'Malmström_'
'Mallorca_'
'Magn'
'Macedonia_'
'MH'
'MAN_'
'Löhne_'
'Luk'
'Luftfahrt'
'Los'
'Local_'
'Lil'
'Lieb'
'Library_'
'Libert'
'Lebensbedingungen_'
'Lama_'
'Künst'
'Kühl'
'Kräften_'
'Kri'
'Konte'
'Konsumenten_'
'Konsultationen_'
'Kolle'
'Kohäsionsfonds_'
'Koch'
'Keynes_'
'Kenne'
'Kaz'
'Kare'
'Kabine'
'KL'
'Jungen_'
'Jun'
'Juan_'
'Jews_'
'Jewish_'
'Jedoch_'
'Jede'
'Jan_'
'Interventionen_'
'Intera'
'Int'
'Institut_'
'Ink'
'Indo'
'Impr'
'Immobilien_'
'Image_'
'Häufig'
'Humanitarian_'
'Hostels_'
'Holl'
'Hir'
'Hindernis_'
'Him'
'Hier'
'Herzegowina_'
'Herber'
'Helm'
'Hear'
'Haushaltsk'
'Hauptver'
'Harv'
'Hans_'
'Hafen'
'Habitat'
'Guinea_'
'Große_'
'Gregor'
'Grant'
'Graf'
'Grac'
'Gouverneur'
'Gottes_'
'Gift'
'Gewinner_'
'Gesundheits_'
'Gestatten_'
'Gestalt'
'Gesichtspunkt'
'Geräte_'
'Gerä'
'Gene_'
'Gender_'
'Gemein'
'Gei'
'Geh'
'Gefangene'
'Gast_'
'Gale'
'Gab'
'GEN'
'Fürst'
'Fünf'
'Fußball'
'Funktions'
'Früchte_'
'Freitag_'
'Forschungsra'
'Fors'
'Forge'
'Flächen'
'Flughafen'
'Flan'
'Find'
'Finanzsektor'
'Fili'
'Fil'
'Fift'
'Fee'
'Fau'
'Father_'
'Farben_'
'Fahrrad'
'Fahrer_'
'Fachk'
'Fabrik'
'FI_'
'Experten'
'Exp'
'Excellent_'
'Europe'
'Europarat'
'Eure'
'Eti'
'Ess'
'Erw'
'Ert'
'Erlass_'
'Erinnerung_'
'Erforder'
'Erdöl'
'Entspann'
'Engl'
'Energiem'
'Empfang'
'Email_'
'Elizabeth_'
'Elite_'
'Elektronik'
'Einsatz'
'Einfuhr'
'Effektivität_'
'Ef'
'Ecuador_'
'Eck'
'Ebenen_'
'ENP_'
'Dé'
'Drittstaaten_'
'Download'
'Down'
'Dou'
'Dos'
'Donnerstag_'
'Dim'
'Dick'
'Devi'
'Description_'
'Demokratien_'
'Deck'
'Darstellung_'
'DV'
'DNA_'
'DES_'
'DEN'
'DD'
'Cri'
'Cotonou_'
'Corporation_'
'Copy'
'Cookie'
'Contra'
'Congo_'
'Communities_'
'CoR_'
'Chu'
'Christine_'
'Chr'
'Cer'
'Cel'
'Cash'
'Carlo_'
'Carl_'
'Caribbean_'
'Camer'
'CK'
'Böse'
'Busquin_'
'Bulle'
'Building_'
'Buck'
'Bucht_'
'Brook'
'Brok_'
'Brief'
'Bres'
'Boy'
'Boris_'
'Bilanz_'
'Bezirk'
'Beu'
'Between_'
'Bestimm'
'Besondere'
'Bereits_'
'Berat'
'Bena'
'Belo'
'Bekannt'
'Beitrittsländer_'
'Beitr'
'Bein'
'Beihilfevorschriften_'
'Behinderte'
'Befürchtungen_'
'Beförderung_'
'Bedauerlicherweise_'
'Beauf'
'Bauer'
'Base_'
'Barbara_'
'Balkan'
'Bald'
'Avenue_'
'Außenbeziehungen_'
'Autobahn'
'Aut'
'Auswe'
'Auswahl'
'Ausschüsse_'
'Ausschreibung'
'Ausrichtung_'
'Ausgleichs'
'Ausga'
'Ausf'
'Ausch'
'Auftrags'
'Aufsichts'
'Auflösung_'
'Aufk'
'Ate'
'Ashton_'
'Arbeitsplatz'
'Arbeitskräften_'
'Arbeitsgruppe_'
'Arbeiter'
'Arabi'
'Applause_'
'Apart_'
'Ante'
'Ansprüche_'
'Anreiz_'
'Anne'
'Anna_'
'Anlage'
'Anhebung_'
'Ander'
'Analysen_'
'Alternativen_'
'Allow_'
'Alex'
'Aktivität_'
'Aktionäre_'
'Akteuren_'
'Agent_'
'Afrikanische'
'Afghan_'
'Admiral_'
'Addi'
'Achse'
'Abstand_'
'Abr'
'AM_'
'>'
'83'
'66'
'49'
'450_'
'1st_'
'1990s_'
'1980er_'
'1979_'
'185'
'181'
'150'
'130_'
'111_'
'110_'
'05'
'010'
'.: '
'.) _'
'. €'
', (_'
'), '
')) '
'''''
'%-_'
'">'
'!"'
' –'
' » '
' *'
' ) '
' ()'
'♪ _'
'” '
'“-_'
'ч'
'ο_'
'ütze'
'üte'
'ünstigung'
'üm'
'ühre'
'ücke'
'üchter'
'übt_'
'übliche'
'überwacht_'
'überschreiten_'
'überlegen_'
'überge'
'überein_'
'örde'
'öpfung_'
'öl_'
'öch'
'ï'
'ë'
'ê'
'éri'
'éc'
'äußerster_'
'äumt_'
'äuft_'
'ätte'
'ärmer'
'äre'
'ängig'
'änd'
'ällt_'
'ällen_'
'ägt'
'ächtige'
'ä_'
'ál'
'Überschneidungen_'
'Überprüf'
'Überleben'
'Überarbeitung_'
'Ärger_'
'Ägypte'
'zö'
'zzl'
'zzi'
'zwing'
'zweig'
'zwanzig_'
'zuwe'
'zustande_'
'zuse'
'zusammenarbeit'
'zurückkehren_'
'zugängliche'
'zugelassen_'
'zugang'
'zufriedenstellend'
'zt'
'zm'
'zil'
'zeitung'
'zb'
'zan'
'zahlung_'
'yu'
'yss'
'yme'
'yle_'
'yle'
'yk'
'year'
'würdige'
'writer_'
'withdr'
'wit'
'wise_'
'wirkungsvoll'
'wirkungen_'
'willkürlich'
'will'
'widrige'
'widmen_'
'wi_'
'wert'
'werks'
'wen'
'weltweite'
'weitest'
'weitaus_'
'weigh'
'weiche'
'wed_'
'weakness_'
'wea'
'warst_'
'warrant'
'warned_'
'vorzugehen_'
'vorzubereiten_'
'vorange'
'volu'
'viv'
'visu'
'virtuelle'
'virtue_'
'violation_'
'vio'
'villages_'
'viertel_'
'vielfältige'
'vielfa'
'vice_'
'via'
'veterinary_'
'verwandeln_'
'verwaltung_'
'verträg'
'vertrag_'
'verschr'
'verscho'
'verschle'
'verpflicht'
'verordnung_'
'vernachlässig'
'verließ'
'verknüpft_'
'verfass'
'verfa'
'verdoppel'
'verdi'
'verbindlich_'
'verbindet_'
'verba'
'veranlasst'
'verabschiedete_'
'ventione'
'veni'
'vegetables_'
'vate'
'uzi'
'ux'
'uver'
'ution'
'utiliz'
'utilit'
'urop'
'urf'
'urch'
'ural'
'ura_'
'unzureichende'
'unwilling'
'unvor'
'unterschiedlicher_'
'untersag'
'unterhalt'
'unschuldig'
'unp'
'ungsver'
'unges'
'unfa'
'unein'
'underline'
'unden_'
'unden'
'unchanged_'
'unanimously_'
'umstritten'
'umi'
'ulta'
'ulsion_'
'uld_'
'ulari'
'uh'
'uelle'
'ucti'
'uchs'
'uar'
'tze_'
'typisch_'
'twin_'
'tus'
'turnover_'
'tube_'
'tts'
'ttle'
'tten'
'träum'
'trinken_'
'trenn'
'treasur'
'travellers_'
'travelle'
'trav'
'trap_'
'transnationale'
'transit_'
'transa'
'too'
'tom_'
'tole'
'tok'
'toilet'
'tiz'
'tired_'
'tien'
'tiefgreifende'
'thou'
'thie'
'thereafter_'
'theit_'
'textile_'
'testi'
'terroristische'
'tering_'
'tensions_'
'tellen_'
'telle'
'telephon'
'teils_'
'teilig'
'teh'
'technologische_'
'technologie_'
'tch'
'tat_'
'taste'
'tandards_'
'talis'
'tabl'
'sé'
'systemic_'
'systematically_'
'synerg'
'suspension_'
'sus_'
'surroundings_'
'surpluses_'
'supervisory_'
'sung'
'subvention'
'substanti'
'stück_'
'städt'
'ströme'
'strukturierte'
'strukturellen_'
'string'
'strengere_'
'stoppen_'
'stock'
'stimul'
'stete'
'sters_'
'stepp'
'sten'
'stel'
'stecken_'
'steady_'
'starten_'
'standen_'
'stan_'
'stamm'
'stad'
'ssung'
'sstr'
'ssl'
'ssing_'
'sse'
'srei'
'sreg'
'sra'
'spürbar'
'sport'
'spiritu'
'spezialisierte'
'specialities_'
'sparen_'
'sophisticated_'
'song_'
'solch_'
'soft'
'smart'
'slos'
'slight_'
'sive_'
'simplify_'
'simpli'
'signal'
'sicht'
'sia'
'shrink'
'shr'
'shoot_'
'shoes_'
'shell'
'shape'
'shame'
'sexuellen_'
'sett'
'servi'
'sere'
'separation_'
'selt'
'seller_'
'sel_'
'secu'
'scrutiny_'
'script_'
'schütz'
'schür'
'schöner_'
'schulde'
'schnellsten'
'schnellen_'
'schloss_'
'schlimmer_'
'schließt_'
'schlicht_'
'scher'
'sche'
'sc'
'sbur'
'saubere'
'samkeit'
'sag_'
'rückt'
'rän'
'räfte'
'runde'
'rumänische'
'ruktur'
'rtun'
'rtis'
'rsp'
'rpr'
'roof_'
'ron_'
'roblem'
'rnd'
'rmen_'
'rme'
'rmaßen_'
'rle'
'riti'
'rige_'
'riften_'
'rieg'
'rieb'
'ric'
'rew'
'revolutionäre'
'reveals_'
'reten'
'restructure'
'restoring_'
'rer'
'republik'
'replacement_'
'renminbi_'
'remuneration_'
'rem_'
'reliability_'
'relevanten_'
'relevance_'
'reist'
'reinforcing_'
'reimburse'
'reichend'
'refu'
'refr'
'refer'
'recreation'
'recommends_'
'reco'
'rechnung'
'recess'
'rebelli'
'realm'
'realized_'
'realised_'
'reactor'
'reaches_'
'rdi'
'rci'
'rce'
'rber'
'ranking'
'rall'
'rahmens_'
'quem'
'quarters_'
'quant'
'qu'
'pushing_'
'purchasing_'
'pump'
'provoke'
'proven_'
'protectionis'
'proportionate_'
'promptly_'
'prompt'
'prohibited_'
'progress'
'profitiert_'
'produkten_'
'processor'
'prob'
'prinzip_'
'printed_'
'prin'
'prim'
'preferences_'
'preci'
'prach'
'pping_'
'postponed_'
'portfolio'
'polizei'
'pole'
'pledged_'
'pir'
'pipe'
'pillar_'
'pier'
'pielen_'
'pieces_'
'persone'
'perform'
'peg'
'ped'
'pdf_'
'patri'
'pat'
'paren'
'pann'
'pale'
'pal_'
'pag'
'packen_'
'oxid'
'owi'
'overseas_'
'outs_'
'outl'
'outermost_'
'outb'
'orsch'
'ormen_'
'orma'
'orm_'
'ordinate'
'orc'
'optimale_'
'opoulou_'
'opfer'
'openly_'
'onik'
'onal_'
'ommens_'
'oly'
'ols_'
'ologisch'
'olle_'
'olle'
'olive_'
'olitische'
'ois_'
'ogramm_'
'ogat'
'odit'
'ode_'
'och_'
'ober'
'nzl'
'ntwicklung_'
'ntes'
'npro'
'nose_'
'normali'
'nke_'
'nish'
'niedriger_'
'nforderungen_'
'netz'
'ners_'
'nel'
'nehmer_'
'ndo_'
'ndig'
'ndern_'
'nda_'
'nces_'
'navi'
'nav'
'nannte'
'nacht'
'nachkommen_'
'mächt'
'myst'
'multinationale'
'moves_'
'mone'
'monat'
'modes_'
'modernisation_'
'modernis'
'moderner_'
'moderate'
'mmern_'
'mmen_'
'mma'
'mitteilen_'
'mistakes_'
'missions_'
'missile_'
'minu'
'minist'
'mineral_'
'militärischer_'
'mf'
'metropoli'
'methode'
'mern_'
'menschlich'
'menge'
'meins'
'mehrerer_'
'mega'
'mee'
'medit'
'measur'
'mble'
'max_'
'mathematic'
'massa'
'marriage_'
'mark'
'managements_'
'magic_'
'macro_'
'lücke'
'löst_'
'lö'
'lässig'
'längerfristige'
'län'
'lva'
'lv'
'luxuriöse'
'ltu'
'lti'
'lower'
'low'
'lon_'
'ller'
'literature_'
'listening_'
'lining_'
'limiting_'
'lifelong_'
'lieben'
'liberalization_'
'lian'
'liabilities_'
'leute_'
'letztes_'
'lement'
'leiste'
'lehr'
'legung_'
'legitime'
'leg_'
'lebendig'
'lah'
'kurzfristig_'
'kurzer_'
'kurzen_'
'kultur_'
'ktive'
'kräftige'
'kritis'
'krimin'
'kreise'
'kooper'
'konze'
'kontin'
'konsultier'
'kolo'
'kollektive'
'klus'
'klu'
'kische'
'killer_'
'kie'
'keys_'
'keeps_'
'karten_'
'kapazitäten_'
'justi'
'juris'
'jump_'
'journalist'
'joke'
'jas'
'jan_'
'iziert'
'itteln_'
'ist'
'isse_'
'isolier'
'ischem_'
'irre'
'ios_'
'ion'
'intri'
'intervene_'
'interpreted_'
'internationales_'
'interessanten_'
'interessante_'
'interc'
'integ'
'insti'
'instances_'
'innere'
'initiati'
'initiate_'
'informi'
'influenced_'
'individually_'
'indication_'
'indicates_'
'incite'
'incident'
'inability_'
'impr'
'impetus_'
'immunity_'
'immi'
'ilungen_'
'ild_'
'ika_'
'igung'
'ignor'
'ienst'
'ielt_'
'ielle'
'ideologische'
'ideologi'
'ident'
'iden'
'ideale'
'id'
'icklung'
'ichkeit'
'ichert'
'icat'
'ibe'
'ianische'
'höhere'
'häus'
'hun'
'hrten_'
'hrer_'
'hran'
'hosti'
'hochwertige_'
'ho_'
'hmigung'
'hinein'
'hind'
'hilfen_'
'high'
'heti'
'hesitat'
'hervorruf'
'herum'
'hers_'
'herges'
'herausstellen_'
'heiße'
'heb'
'heate'
'heart'
'healthcare_'
'has'
'hart'
'harb'
'hang_'
'handed_'
'hac'
'guard_'
'gründlich_'
'gründe'
'größt'
'grie'
'greift_'
'grave_'
'gran'
'graduate'
'gori'
'gnet'
'gne'
'glücklich_'
'glaubwürdige'
'gio'
'gift_'
'gift'
'ght'
'gewinnt_'
'gewer'
'gewachsen_'
'gesucht_'
'gestü'
'gestellten_'
'gestartet_'
'gespeichert_'
'gesetzlichen_'
'geschützte'
'geschäfte'
'geschichte_'
'geru'
'gerichtlich'
'genocide_'
'gelder'
'geld_'
'gelangte'
'gekü'
'geiz'
'geist'
'gehörte'
'gehe'
'gegenseitig_'
'geführten_'
'gefühl'
'geeigneten_'
'gearbeitet_'
'gather_'
'gases_'
'gard'
'garage_'
'fürchte'
'fünfte'
'fällen_'
'fähigen_'
'fäh'
'funktionierende'
'fulfill'
'fruit'
'frist'
'friedlichen_'
'freie'
'frameworks_'
'fou'
'fortzusetzen_'
'fortge'
'forme'
'forecasts_'
'forcing_'
'foods_'
'fond'
'folgte_'
'folgende'
'folge'
'flüge'
'flächen'
'flotte'
'fliegen_'
'fitt'
'fishe'
'fisch_'
'firm'
'fire'
'finish'
'finanzierung_'
'finanzier'
'financially_'
'figur'
'fifth_'
'fifteen_'
'fiel_'
'fib'
'fetch'
'feststellt'
'fern_'
'federa'
'favourite_'
'fasc'
'far'
'faire_'
'fahrzeug'
'fahrer'
'facilitating_'
'facilitated_'
'facilitat'
'ezi'
'extremen_'
'extract'
'externe_'
'experimental_'
'experiment_'
'exklusive'
'excellence_'
'exce'
'ew_'
'evil_'
'even'
'ett_'
'esu'
'esten_'
'esische'
'esc'
'erzählt_'
'ertrag'
'ersuchen_'
'erstatte'
'erschie'
'errichtet_'
'erlich'
'erlangt_'
'ergibt_'
'erfu'
'erfreu'
'erd'
'eradicati'
'epr'
'entgegenge'
'entgegen'
'enter'
'ensures_'
'ensured_'
'ense'
'ensat'
'enjoying_'
'engines_'
'energie_'
'endung_'
'endgültige_'
'encrypt'
'enbe'
'employers_'
'employee_'
'emotion'
'ements_'
'electr'
'elan'
'eist_'
'einzurichten_'
'einzig'
'einst'
'einräum'
'einr'
'einhergehen'
'einheitlich'
'einheit'
'einhe'
'eingetr'
'eingefü'
'eindeutige'
'einbr'
'eight'
'eigentliche_'
'eige'
'ehrt_'
'edn'
'ected_'
'echt_'
'echo'
'eb_'
'eable_'
'durchsetzen_'
'duration_'
'drängt'
'drittens_'
'dring'
'dred'
'drastic'
'dox'
'dominat'
'dne'
'diversification_'
'dite'
'disziplin_'
'distract'
'distinct_'
'dispa'
'diskriminierung'
'discre'
'disco'
'disappeared_'
'diplomatische'
'dikt'
'dieselbe_'
'dictator'
'dicht_'
'diam'
'dha'
'determin'
'deteriorat'
'destin'
'desired_'
'desirable_'
'derjenigen_'
'dependen'
'departments_'
'denied_'
'demokratisch_'
'definitive'
'definieren_'
'decl'
'deca'
'debating_'
'deba'
'ddl'
'dazu'
'dauerhaften_'
'datum_'
'darge'
'cycl'
'custom'
'corrupt'
'corr'
'corn'
'coordinate_'
'coo'
'convey'
'convert'
'convenience_'
'conte'
'conso'
'consent_'
'confront_'
'condition'
'concert'
'concepts_'
'concentrated_'
'conceiv'
'comple'
'compare_'
'compa'
'comme'
'combining_'
'column'
'coincide'
'codes_'
'coat'
'closure_'
'clinical_'
'cler'
'cleane'
'civili'
'cid'
'chutz_'
'chtigung'
'chtig'
'chtete'
'chte'
'christliche'
'chose_'
'chni'
'chin'
'chancen_'
'chairman_'
'cease'
'cati'
'cartel'
'bürger'
'bust'
'bunt'
'brü'
'bring'
'brand'
'bran'
'bow'
'bother'
'boom'
'bombing'
'blue'
'blog'
'blocki'
'block'
'blind'
'bles_'
'biome'
'biologischen_'
'bio_'
'bills_'
'bil'
'bid_'
'beweist_'
'bewaffneten_'
'beständig'
'bestimmtes_'
'beschwer'
'beschloss_'
'beruflichen_'
'berechnet_'
'benutzer'
'beneficiary_'
'benannt'
'bemerkenswerte'
'bekunde'
'beihilfe'
'beider'
'beherrschen_'
'beer_'
'beef_'
'bedingten_'
'bedienen_'
'bedd'
'beantwortet_'
'basierte'
'basierende'
'bart'
'barely_'
'bare'
'banana'
'ballo'
'bags_'
'aux_'
'ausüben_'
'ausschließ'
'ausreichen_'
'auslösen_'
'ausgezeichnet_'
'ausgewogenen_'
'ausgewogene'
'ausgestattete'
'ausgesch'
'ausgeprägt'
'ausgenommen_'
'ausgearbeitet_'
'auseinander_'
'ausbr'
'aul'
'aufst'
'aufsicht'
'aufrechtzuerhalten_'
'aufl'
'aufk'
'aufgesch'
'aufgerufen_'
'audi'
'attribute'
'attacked_'
'atm'
'atives_'
'ative'
'ate'
'asu'
'astro'
'assist'
'assessing_'
'assembly_'
'ase_'
'arit'
'ario'
'arin'
'aries_'
'ares'
'archiv'
'archa'
'api'
'anzeigen_'
'anwe'
'anonym'
'anme'
'ankomm'
'anisch'
'ani_'
'angere'
'anger_'
'angenommenen_'
'angelegt_'
'angehen_'
'angebot_'
'ando'
'amenta'
'ament'
'alleviat'
'alleged_'
'alia_'
'ala'
'aku'
'aktive'
'ains'
'ail'
'ahrt_'
'ahlung'
'aggress'
'advocate_'
'adverse_'
'additi'
'accus'
'accr'
'acced'
'abzielen_'
'abst'
'abse'
'abru'
'ablehnen_'
'abhäng'
'abgestimmt_'
'aben'
'aban'
'aat'
'Zä'
'Zwi'
'Zw'
'Zuw'
'Zuständ'
'Zuschauer'
'Zusammenfassung_'
'Zusagen_'
'Zugangs_'
'Zinss'
'Zimmerservice_'
'XP_'
'Wohnung'
'Wiederver'
'Wichtigkeit_'
'Whatever_'
'Wettbewerbsvor'
'Wettbewerbspolitik_'
'Wen_'
'Weis'
'Weine'
'Wat'
'Wandels_'
'Wahrung_'
'Wag'
'Waffe_'
'WORD_'
'Völkerrecht'
'Völkern_'
'Votum_'
'Vorstands'
'Vorsorge'
'Vorder'
'Vit'
'Visual'
'Visi'
'Verteidigungsminister'
'Verpflichtungs'
'Verme'
'Verkehrst'
'Verkehrsmittel_'
'Verha'
'Verfassungsvertrag'
'Vereinigung_'
'Verbind'
'Verarbeitung_'
'VII_'
'VE'
'User_'
'Unzu'
'Unm'
'Universal_'
'Unfall_'
'Una'
'Umfragen_'
'Ultra'
'URBAN_'
'Tschechische_'
'True_'
'Trick'
'Trends_'
'Treibhausgasemissionen_'
'Transaktion'
'Tragödie_'
'Tourist'
'Tool_'
'Tibet'
'Thyssen'
'Tho'
'Tempora'
'Telecom_'
'Tee_'
'Tax'
'TS_'
'Szenari'
'Synt'
'Swoboda_'
'Swe'
'Sure_'
'Sud'
'Suche'
'Stütz'
'Studierende'
'Strände'
'Stru'
'Stress'
'Storage_'
'Stoff'
'Stimmung_'
'Steuerv'
'Steuereinnahmen_'
'Stern_'
'Statisti'
'Staatss'
'Staatsf'
'Staatliche_'
'Sprech'
'Spre'
'Spieler'
'Spazierg'
'Sozialisten_'
'Source_'
'Sonderbe'
'Socialists_'
'Sir'
'Sieb'
'Sicherheitsn'
'Serge'
'Ser'
'Sendung'
'Select_'
'Sekunden_'
'Schätz'
'Schä'
'Schweizer_'
'Schmu'
'Schluss'
'Schlo'
'Schlimm'
'Schli'
'Schl'
'Schach'
'Saturday_'
'Sam_'
'SPE'
'SI_'
'SIT'
'SB_'
'Rückz'
'Ryan'
'Russians_'
'Rum'
'Ruhe'
'Rud'
'Rote'
'Rose_'
'Roa'
'Rindfleisch'
'Riesen'
'Rezept'
'Reserve'
'Reparatur'
'Renn'
'Remember_'
'Reich_'
'Rehn_'
'Regulator'
'Registr'
'Redner'
'Recovery_'
'Rechtss'
'Rechtsgrundlage_'
'Rechtsetzung_'
'Rechnungshof_'
'Rechner'
'Rechenschaft'
'Rece'
'Rea'
'Rati'
'Railway_'
'Rahmenprogramm_'
'Raf'
'RS_'
'ROM'
'Queen_'
'Put'
'Proto'
'Protest'
'Prost'
'Prognosen_'
'Problematik_'
'Prinz'
'Prince_'
'Prag'
'Poste'
'Pole'
'Pit'
'Picard_'
'Philip'
'Philadelphia_'
'Pflanzen_'
'Pfad'
'Petr'
'Pes'
'Performance_'
'Peer_'
'Panel_'
'Pak'
'PROCESSED_'
'PM_'
'PG'
'Out'
'Ost_'
'Organis'
'Operationen_'
'Onkel_'
'Obst_'
'Oberste'
'Obamas_'
'OE'
'OD'
'Nähere'
'Notfall'
'North'
'Nordic_'
'Nixon_'
'Night'
'Nichtraucherzimmer_'
'Ner'
'Nenn'
'Nase_'
'Namibia_'
'Nahrung'
'Mögliche'
'Mär'
'Muslime_'
'Multi_'
'Motto_'
'Mose'
'Morg'
'Mora'
'Monte'
'Mons'
'Monats_'
'Mitarbeitern_'
'Mischung_'
'Milli'
'Milan'
'Mikrof'
'Mik'
'Mergers_'
'Mercedes_'
'Menschenrechtsverletzungen_'
'Medikamente_'
'Maxim'
'Max_'
'Maur'
'Materialien_'
'Massage'
'Marken_'
'Marina_'
'Marco_'
'Map'
'Mai'
'Mae'
'MT'
'MPEG_'
'MP3_'
'MD'
'MAR'
'MAN'
'Luis_'
'Lug'
'Lub'
'Loi'
'Lock'
'Liv'
'Liquiditäts'
'Leuten_'
'Leone_'
'Leonardo_'
'Leon'
'Leh'
'Lebensmitteln_'
'Laz'
'Lass'
'Laser'
'Langs'
'Lamy_'
'Lamanite'
'LIN_'
'LG'
'LEA'
'LA_'
'Kürzungen_'
'Kurd'
'Kul'
'Kru'
'Krimin'
'Kremlin_'
'Krebs_'
'Kran'
'Korr'
'Kooperationsabkommen'
'Konzepte_'
'Kontra'
'Kompetenz'
'Kolonial'
'Klimaschutz_'
'Klassen'
'Klar_'
'Kis'
'Kernel_'
'Kennzeichnung_'
'Katze'
'Karls'
'Kapitalismus_'
'KP'
'KORE_'
'Jon'
'Johnson'
'Joaquín_'
'Jem'
'Jahresende_'
'Jahresbericht_'
'Iz'
'Ivo'
'Italian'
'Italia_'
'Iss'
'Interp'
'Intensi'
'Innovat'
'Informations_'
'Industrial_'
'Indem_'
'Includ'
'Inc_'
'Imagin'
'Id'
'Iceland_'
'INE'
'IB'
'Hölle_'
'Hätte'
'Hundert'
'Honor'
'Homo'
'Home'
'Hochzeit'
'Hersteller'
'Herb'
'Hence_'
'Help_'
'Helen_'
'Heilig'
'Hed'
'Haushaltsmittel_'
'Hastings_'
'Harbour_'
'Handlung'
'Handelsk'
'Halt'
'HD'
'Guide_'
'Guard'
'Guan'
'Größen'
'Grou'
'Gran'
'Good'
'Gon'
'Glückw'
'Globalisation_'
'Gleichbehandlung_'
'Gl'
'Gipfels_'
'Get'
'Gesundheitswesen_'
'Gesundheitsversorgung_'
'Gesundheitsp'
'Gestern_'
'Gesp'
'Gesamte'
'Gent'
'Generaldirektor'
'Gene'
'Gemeinschaftsunternehmen_'
'Gemeinschaftsin'
'Gemeinde_'
'Geltung'
'Gehminuten_'
'Gefü'
'Gebühren_'
'Gebäuden_'
'GBP_'
'Fut'
'Fusionskontrollverordnung_'
'Furcht_'
'Frühjahr_'
'Frist'
'Fremd'
'Freihandelsabkommen_'
'Französisch'
'Frankl'
'Fran'
'Fox_'
'Forma'
'Fol'
'Flus'
'Flugg'
'Flug_'
'Fiskal'
'Firefox_'
'Finanzminister_'
'Finanzmarkt'
'Figu'
'Fig'
'Feuer_'
'Ferienwohnung_'
'Feli'
'Feld_'
'Fehlen'
'Farm_'
'Familienz'
'Fachw'
'FF_'
'FF'
'FC_'
'Explorer_'
'Experiment'
'Exist'
'Exc'
'Evolution'
'Ever'
'Eurostat_'
'Europäisches_'
'Ethiopia_'
'Eta'
'Estland_'
'Ersparnisse'
'Erneuerung_'
'Ernennung_'
'Erleichterung_'
'Erinner'
'Erfordernisse'
'Equi'
'Epi'
'Entscheidungsprozess'
'Enth'
'Energiea'
'Elys'
'Eli'
'Einleitung_'
'Eigenkapital'
'Eigenheim'
'Edition_'
'Early_'
'EURO'
'ESC_'
'ENT_'
'ENI'
'Dyna'
'Ds_'
'Droh'
'Dritten_'
'Donau'
'Domini'
'Domin'
'Document'
'Display_'
'Director'
'Directives_'
'Diplomatie_'
'Differenzen_'
'Differen'
'Deutsch_'
'Demokratischen_'
'Delegation'
'Dele'
'Deflation_'
'Dat'
'Darlehens'
'Darf_'
'Dane'
'Dame_'
'Dama'
'DF'
'Customs_'
'Current_'
'Curr'
'Cup_'
'Criminal_'
'Content_'
'Connect'
'Common'
'Code'
'Client_'
'Clearly_'
'Churchill_'
'Chip'
'Chin'
'Child_'
'Chia'
'Chef_'
'Chef'
'Cau'
'Castro_'
'Cast'
'Case_'
'Cardassian'
'Café_'
'Bücher_'
'Bureau_'
'Bs_'
'Brüder_'
'Brun'
'Brit'
'Brem'
'Bond'
'Bob'
'Boa'
'Blau'
'Blase'
'Birm'
'Binnenmarkt'
'Bibliothek_'
'Bh'
'Bewer'
'Bevölkerungsgruppen_'
'Betten_'
'Betrüger'
'Bestands'
'Beschwerde'
'Berna'
'Berichterstatters_'
'Bere'
'Bemühen_'
'Belast'
'Beitrittskandidaten_'
'Beile'
'Behauptung_'
'Begründung_'
'Beendigung_'
'Bedingung_'
'Barre'
'Banglades'
'Bang'
'BC'
'Außengrenzen_'
'Autonomie_'
'Autonom'
'Automati'
'Australien_'
'Ausfuhre'
'Ausbeutung_'
'Aun'
'Augen'
'Aufträge_'
'Auftri'
'Aufr'
'Assistent'
'Arzneimitteln_'
'Arti'
'Armeni'
'Argument'
'Arbeitnehmer'
'Anwesenheit_'
'Anwendungs'
'Antrags'
'Anreise'
'Anonymous_'
'Anleihe'
'Anle'
'Andr'
'Ando'
'Andalusi'
'Anc'
'Amerikan'
'Alpe'
'Alkohol'
'Algeria_'
'Alexand'
'Albert_'
'Albanien_'
'Advis'
'Adam_'
'Acht_'
'Abu_'
'Abgesehen_'
'Abendessen_'
'Abbott_'
'ALE_'
'AE'
'A1'
';'
': €'
': (_'
'84'
'73'
'64'
'63'
'3G'
'320'
'201'
'19th_'
'1960_'
'1900_'
'08'
'. “_'
'. +'
', ,'
')(_'
''', _'
'".'
'"-'
'!!!'
' – '
' &#_'
' %) _'
' "._'
'™'
'…"..._'
'“) _'
'я_'
'о_'
'Č'
'ütig'
'ündet'
'üger'
'ückt_'
'überwachung_'
'übertrieben'
'überra'
'übermäßig_'
'überleben_'
'übergehen'
'übergeben_'
'öst'
'öse_'
'ös_'
'ölf'
'ökonomischen_'
'öglichkeiten_'
'öge'
'öffnet_'
'öffentlich'
'öf'
'ña_'
'ét'
'éo'
'éd'
'è_'
'äumen_'
'äufig'
'äufe_'
'äter'
'ärt'
'änglich'
'änderte'
'än'
'äm'
'ächtig'
'ßte_'
'ßb'
'Übertr'
'Überschu'
'Übernachtung_'
'Überleg'
'Überein'
'Überdies_'
'zä'
'zweier_'
'zwan'
'zuversichtlich_'
'zukunfts'
'zugewiesen'
'zugestimmt_'
'zugenommen_'
'zufällig'
'zube'
'zoo'
'zip'
'zione_'
'zeugen_'
'zellen_'
'zeitwei'
'zeitraum_'
'yz'
'yse'
'yon'
'ymo'
'xist'
'wüsste_'
'würdig'
'wünschte'
'wünschenswert_'
'wör'
'währung'
'wäch'
'wunderbare'
'ws'
'worfen_'
'woll'
'wofür_'
'witness_'
'wishing_'
'wished_'
'wirtschaftliches_'
'wirt'
'winner_'
'wing'
'widerst'
'widers'
'who'
'wha'
'wettbewerb'
'westliche_'
'wertvolle_'
'wertvoll'
'werte'
'weld'
'weißen_'
'weitergehen_'
'wechsel'
'wealthy_'
'weakening_'
'waterway'
'wast'
'wash'
'was'
'ward'
'wai'
'wahrnehmen_'
'wachsende'
'vy_'
'vre_'
'vou'
'vorschläge_'
'vorrangige'
'vorne'
'vorn_'
'vorhaben_'
'vorgegeben'
'volunteer'
'volks'
'void'
'voices_'
'vo_'
'vit'
'visiting_'
'vine'
'viability_'
'veröffentlichten_'
'veröffentlichen_'
'verzeichnet'
'verze'
'verwirklichen_'
'verwandelt_'
'verursachten_'
'verträge_'
'vertri'
'vertret'
'verteidigt'
'verspricht_'
'versetzen_'
'verschi'
'verpass'
'vernünftige'
'verma'
'verm'
'verlorene'
'verlor_'
'verliert_'
'verletz'
'verleih'
'verla'
'verkünde'
'verkehrs_'
'verhei'
'verheerende_'
'verhaftet_'
'vergeb'
'verfahrens_'
'vereint_'
'verehrten_'
'verbreitete'
'verbracht'
'verbl'
'verbindungen_'
'verbindliche_'
'verbieten_'
'verband_'
'verarbeiten'
'verantwort'
'vention'
'vas'
'varied_'
'variations_'
'valley'
'vaccination_'
'utzte'
'uty_'
'ution_'
'uten_'
'usage_'
'urt_'
'urren'
'uropäischen_'
'urg'
'urce'
'ural_'
'upload'
'unverh'
'unterz'
'unterstreichen_'
'unterschätz'
'unterschr'
'unterschiede'
'unterliegt_'
'unterhalten_'
'untere'
'unterbrech'
'unsch'
'unnecessary_'
'unktion'
'universelle'
'unilateral'
'ungst'
'ungsre'
'ungslos'
'ungsg'
'ungsbed'
'ungsbe'
'ungsa'
'ungew'
'ungeh'
'unfähig'
'understands_'
'undenen_'
'uncom'
'unbekannte'
'unan'
'umu'
'umk'
'umgebracht_'
'ulti'
'ult'
'ulation_'
'ugen'
'ud_'
'uci'
'uchte'
'uche'
'uce'
'uber'
'uali'
'tägliche_'
'twelve_'
'turm_'
'tude_'
'ttung_'
'ttel_'
'tta_'
'trum'
'tream'
'trea'
'tre_'
'traße'
'traurig'
'transparenten_'
'transc'
'transatlantischen_'
'traf_'
'trademark'
'trade'
'tracking_'
'tp'
'toxic_'
'toxi'
'tment_'
'tme'
'tlin'
'tk'
'tj'
'tiv'
'tischer_'
'timing_'
'tili'
'tiker'
'tick'
'tibe'
'thumbnail_'
'thumb_'
'thu'
'thoughts_'
'thir'
'thes'
'thanking_'
'tg'
'tete'
'temple'
'temperature_'
'telefonisch_'
'telecoms_'
'teilnehmenden_'
'teiln'
'teg'
'technologien_'
'tailor'
'tagen_'
'szen'
'syrische'
'swiftly_'
'sweise_'
'surpris'
'subsidiary_'
'stür'
'stufe'
'strukturen_'
'strongest_'
'strikte'
'stren'
'straße_'
'strain'
'storm_'
'stolz_'
'stolen_'
'stirbt_'
'stipulate'
'stetig'
'steam_'
'stead'
'stea'
'stays_'
'statute_'
'statu'
'starters_'
'starker_'
'standard'
'stalt'
'ssene'
'ssar'
'spreche_'
'spolitik_'
'spir'
'speedi'
'speculat'
'sonstigen_'
'sona'
'somewhere_'
'solven'
'solide'
'sofortige'
'smuggl'
'slo'
'sleeping_'
'siz'
'sighted_'
'sierung'
'sierten_'
'sieb'
'sicher'
'shu'
'shortages_'
'shire_'
'shifts_'
'shelter_'
'shake'
'sfe'
'setzte_'
'settings_'
'sers_'
'sends_'
'sende'
'semi'
'sem'
'selig'
'sehbar'
'seat'
'screens_'
'schön'
'schwin'
'schriftliche_'
'schrei'
'schreckliche'
'schiff_'
'scheu'
'schalte'
'scandal'
'scan_'
'sberei'
'sans'
'san_'
'sala'
'sag'
'sacr'
'saa'
'rüst'
'rüh'
'rüber'
'räum'
'rwe'
'rupt'
'rul'
'rufe_'
'rra'
'rounds_'
'rooted_'
'romantic_'
'roman'
'roles_'
'rogramm_'
'rogramm'
'roe'
'rodukt'
'robi'
'rmu'
'rliche'
'rku'
'rist'
'risiken_'
'ril'
'richte'
'rha'
'rgen_'
'rgebnisse_'
'rge_'
'rga'
'rey_'
'reveal_'
'rev'
'rete'
'resultierende'
'responding_'
'resort'
'resolving_'
'reserven_'
'reserv'
'reproduction_'
'repai'
'reo'
'rena'
'relatives_'
'reiß'
'regulier'
'reformi'
'reduces_'
'rede_'
'recycle'
'recourse_'
'recons'
'recon'
'receives_'
'realities_'
'realisier'
'rdnung'
'rans'
'rakti'
'rail'
'raid'
'rage'
'radical'
'quoten_'
'quin'
'quet_'
'quest_'
'quelle_'
'qualify_'
'qualifizierten_'
'pus'
'pursuing_'
'punish'
'publishe'
'publish_'
'ptu'
'psycho'
'pru'
'prozesses_'
'prozess'
'prohibit'
'programmen_'
'profession_'
'produktive'
'probleme'
'problematisch'
'privat'
'prisons_'
'prisoners_'
'prinzipie'
'printing_'
'primäre'
'pretend'
'prer'
'preparations_'
'predictable_'
'prech'
'prache_'
'pound'
'politischem_'
'po_'
'plötzliche'
'plätze_'
'plug_'
'play'
'planes_'
'pl'
'pity_'
'pin_'
'pilot'
'pie_'
'pick'
'phr'
'philosophy_'
'pflichte'
'pflicht_'
'pfen_'
'pes'
'perspectives_'
'personali'
'persona'
'persist'
'pers_'
'permi'
'periodi'
'perf'
'penalties_'
'penal'
'pay'
'pave'
'passt_'
'passport_'
'passes_'
'partnerschaft'
'partition_'
'participated_'
'partial_'
'pane'
'pala'
'painting_'
'packe'
'owsk'
'overwhelming_'
'overr'
'outsi'
'outlets_'
'oute'
'outd'
'outbreak_'
'ouse'
'otis'
'otia'
'osten_'
'ormi'
'organiz'
'ordnung'
'optic'
'ops_'
'opposing_'
'ool_'
'onwards_'
'onsp'
'ono'
'onisch'
'oni_'
'ong_'
'oner_'
'olung'
'ology_'
'oldest_'
'offizie'
'offe_'
'oes'
'odie'
'odi'
'oda'
'oci'
'occupy'
'occupational_'
'occup'
'occ'
'obl'
'objektive'
'objekt'
'objections_'
'nördlichen_'
'näher'
'nwa'
'nutrition'
'nty_'
'ntat'
'notable_'
'nost'
'nominat'
'nominal_'
'nner'
'nne_'
'nitr'
'nism_'
'nineteenth_'
'nik_'
'niemandem_'
'nglich'
'nga'
'nfa'
'neueste'
'neuem_'
'nerv'
'neoliberal'
'neo'
'nent_'
'neighbour'
'nbe'
'nationalism_'
'nant'
'nachhaltiger_'
'nable_'
'müd'
'möglich'
'möge_'
'museum_'
'murder'
'municipalities_'
'multinational_'
'multimedia_'
'mpa'
'mp_'
'mov'
'mouse_'
'motiviert'
'mortal'
'moralischen_'
'morali'
'moo'
'monument'
'monopoly_'
'mobilisiert_'
'mmig'
'mmen'
'mittelfristige'
'mitb'
'mistr'
'mische'
'mir'
'mino'
'minimi'
'minde'
'militia'
'militant'
'mili'
'mig'
'mie_'
'mica'
'mess_'
'meri'
'mercury_'
'menschen'
'mem'
'mehrs'
'medieval_'
'mechanismus_'
'mean'
'matic_'
'mart'
'margin_'
'marg'
'march'
'manual'
'mane'
'mandat'
'malt'
'magn'
'machung_'
'lé'
'läche'
'lut'
'lust'
'lusive'
'lun'
'luft'
'lucky_'
'ltr'
'lover'
'losigkeit_'
'lon'
'loi'
'logisti'
'loading_'
'lively_'
'litäten_'
'litik_'
'listings_'
'listened_'
'list'
'lio'
'liner_'
'lien'
'lieferung'
'lied_'
'lichem_'
'licensing_'
'license'
'lic_'
'liberty_'
'lhr'
'lgen'
'lex'
'levy_'
'leverage_'
'lete'
'lers_'
'lera'
'lens'
'lem_'
'leit'
'leis'
'lee'
'launching_'
'lass_'
'lacks_'
'ky'
'kw'
'kurzfristige_'
'kungen_'
'ktis'
'kst'
'kräfte_'
'kratisch'
'korrigiert_'
'korrigieren_'
'kontro'
'kontextuellen_'
'kontextuell_'
'konsum_'
'konstruktive_'
'komplette'
'kompl'
'kommen'
'kleinste'
'kleineren_'
'klassische'
'klarer_'
'klagt'
'kind'
'kilometers_'
'kick'
'keyboard'
'keinesfalls_'
'kationen_'
'kapazität_'
'kan_'
'justifi'
'jug'
'journe'
'izit'
'ives_'
'iveness_'
'iven_'
'ita_'
'ising_'
'ises'
'isch'
'irt'
'irgendwann_'
'ird'
'irat'
'ios'
'iona'
'inz'
'inw'
'invi'
'investigations_'
'investigat'
'invad'
'inva'
'intra'
'interview_'
'interview'
'interinstitutionelle'
'interim_'
'intera'
'intensify'
'integrate_'
'integral_'
'insult'
'instal'
'inspe'
'insp'
'insi'
'inist'
'inie'
'ings'
'infringed_'
'industrialis'
'indoor_'
'indischen_'
'indigkeit'
'inci'
'inb'
'inander_'
'inad'
'importi'
'implant'
'impe'
'immune_'
'immer'
'illustr'
'illegale'
'ill'
'ilis'
'ii_'
'ihre'
'igen'
'ierter_'
'iegend'
'iebene'
'iden_'
'icti'
'icherung'
'hübsch'
'häufiger_'
'hängen_'
'händler_'
'hurricane'
'hts'
'html_'
'honor_'
'hom'
'holm'
'hof'
'hmt_'
'hma'
'hips_'
'hinzufugen_'
'heutzutage_'
'hervorgeh'
'herunterladen_'
'hell'
'helicopter'
'heg'
'heel'
'heaven'
'haushalt_'
'haul'
'hass'
'hase_'
'harmonische'
'hara'
'handel'
'halle'
'halben_'
'hal_'
'hake_'
'haber_'
'güter_'
'güter'
'gültig'
'gy'
'gun'
'grüne_'
'grüne'
'größe'
'grundsätzliche'
'grundlegende'
'grundl'
'groundwater_'
'grob'
'grasp'
'grammatisch_'
'grade'
'governor'
'gotten_'
'gni'
'gma'
'glück'
'globale'
'glaubwürdig_'
'glas'
'gische'
'gger'
'gewünschten_'
'gewünscht'
[...]
