'<pad>_'
'<EOS>_'
', _'
'._'
'de_'
'the_'
'a_'
'la_'
'of_'
'_'
'to_'
'and_'
'y_'
'que_'
'en_'
'el_'
's_'
'in_'
'los_'
''_'
'is_'
'las_'
'del_'
'that_'
'?_'
'I_'
'-_'
'for_'
'se_'
'on_'
'es_'
'un_'
'para_'
'. _'
'you_'
'no_'
'o_'
'con_'
'una_'
'as_'
'por_'
' (_'
'The_'
'with_'
'it_'
'be_'
'are_'
'- _'
'al_'
'/_'
'this_'
'e_'
'by_'
'su_'
'have_'
'lo_'
') _'
'not_'
'!_'
': _'
'an_'
'or_'
't_'
'was_'
'we_'
'El_'
'do_'
'me_'
'No_'
'from_'
'at_'
'n_'
'como_'
'más_'
'will_'
'which_'
'¿_'
'La_'
'os_'
'all_'
'has_'
'sobre_'
'r_'
'1_'
'ha_'
'can_'
'A_'
'your_'
'd_'
'ing_'
'It_'
'En_'
'; _'
'sus_'
'its_'
'he_'
'2_'
'ed_'
'You_'
'este_'
':_'
'their_'
'our_'
'one_'
',_'
'been_'
'but_'
'We_'
'also_'
'..._'
'm_'
'they_'
'In_'
'te_'
'3_'
'está_'
'would_'
' - _'
'dos_'
'my_'
'esta_'
'like_'
'le_'
'This_'
'were_'
'there_'
'European_'
'up_'
'so_'
'more_'
'también_'
' _'
'should_'
'son_'
'other_'
'about_'
'... _'
'what_'
' "_'
'5_'
'4_'
'out_'
're_'
'(_'
'us_'
'ción_'
'Comisión_'
')._'
'si_'
'), _'
'Por_'
'who_'
'’_'
'his_'
'time_'
'¡_'
'had_'
'if_'
'know_'
'entre_'
'hotel_'
'ó_'
')_'
'ser_'
'Mr_'
'todo_'
'pero_'
'Los_'
'han_'
'todos_'
'da_'
'Y_'
'very_'
'General_'
'Commission_'
'people_'
'mi_'
'them_'
'mos_'
'What_'
'puede_'
'must_'
'States_'
'only_'
'just_'
'Estados_'
'right_'
'l_'
'Es_'
'new_'
'muy_'
'Council_'
'these_'
'when_'
'into_'
'And_'
'nos_'
'Consejo_'
'such_'
'United_'
'6_'
'ya_'
'países_'
'some_'
'here_'
'10_'
'He_'
'er_'
'go_'
'any_'
'countries_'
'now_'
';_'
'qué_'
'tiene_'
'7_'
'i_'
'well_'
' “_'
'sin_'
'work_'
'take_'
'ndo_'
'need_'
'don_'
'ón_'
'than_'
'8_'
'him_'
'les_'
'those_'
'Presidente_'
'bien_'
've_'
'President_'
'report_'
'Qué_'
'ng_'
'way_'
'vez_'
'parte_'
'two_'
'social_'
'see_'
'años_'
'may_'
'así_'
'" _'
'get_'
'good_'
'first_'
'ly_'
'made_'
'That_'
'Si_'
'make_'
'S_'
'hacer_'
'ía_'
'between_'
'want_'
'cuando_'
'Se_'
'over_'
'international_'
'tion_'
'll_'
'her_'
'contra_'
'Las_'
'hay_'
'desarrollo_'
'C_'
'informe_'
'tu_'
'because_'
'esto_'
'If_'
'use_'
'where_'
'9_'
'derechos_'
'Committee_'
'rights_'
'Hotel_'
'could_'
'fue_'
'tiempo_'
'otros_'
'information_'
'many_'
'mente_'
'desde_'
'están_'
'Nations_'
'Member_'
'trabajo_'
'through_'
'years_'
'development_'
'most_'
'lugar_'
' ._'
'personas_'
'aquí_'
'información_'
'being_'
'am_'
'against_'
'"_'
'das_'
'said_'
'eso_'
'miembros_'
'Unión_'
'Union_'
'under_'
'world_'
'particular_'
'De_'
'' _'
'Oh_'
' , _'
'There_'
'support_'
'tanto_'
'era_'
', ¿_'
'é_'
'how_'
'But_'
'- ¿_'
'12_'
'human_'
'think_'
'0_'
'c_'
'back_'
'Naciones_'
'cada_'
'sea_'
'important_'
'g_'
'Unidas_'
'2001_'
'sólo_'
'sido_'
'á_'
'15_'
'say_'
'política_'
'gran_'
'hasta_'
'even_'
'000_'
'year_'
'2000_'
'Sí_'
'ni_'
'going_'
'ahora_'
'todas_'
'did_'
'after_'
'Parlamento_'
'Europea_'
'debe_'
'ese_'
'% _'
'E_'
'hecho_'
'20_'
'country_'
'yo_'
'then_'
'acuerdo_'
'h_'
'They_'
'Señor_'
'same_'
'mismo_'
'general_'
'Lo_'
'2002_'
'system_'
'shall_'
'able_'
'Europe_'
'sistema_'
'30_'
'Parliament_'
'porque_'
'she_'
'Me_'
'11_'
'seguridad_'
'place_'
'come_'
'before_'
'algo_'
'Pero_'
'man_'
'ar_'
'uno_'
'forma_'
'ciones_'
'debate_'
'part_'
'importante_'
'mundo_'
'including_'
'down_'
'b_'
'women_'
'año_'
'pueden_'
'vida_'
'medidas_'
'durante_'
'antes_'
'For_'
'control_'
'As_'
'day_'
'much_'
'life_'
'2003_'
'policy_'
'national_'
'within_'
'All_'
'usted_'
'mejor_'
'still_'
'Europa_'
'order_'
'hace_'
'Para_'
'cuenta_'
'humanos_'
'donde_'
'too_'
'programa_'
'país_'
'él_'
'00_'
'respecto_'
'got_'
'servicios_'
'resolution_'
'Este_'
'personal_'
'estos_'
'otras_'
'sector_'
'” _'
'k_'
'does_'
'help_'
'D_'
' – _'
'economic_'
'embargo_'
'tan_'
'fin_'
'great_'
'State_'
'internacional_'
'día_'
'favor_'
'used_'
'menos_'
'number_'
'derecho_'
'children_'
'L_'
'ba_'
'International_'
'ver_'
'So_'
'mayor_'
'EU_'
'find_'
'both_'
'without_'
'caso_'
'? _'
'public_'
'p_'
'situación_'
'room_'
'Yeah_'
'24_'
'own_'
'last_'
'mucho_'
'Estado_'
'2004_'
'nuestro_'
'political_'
'law_'
'give_'
'Comité_'
'esa_'
'decir_'
'area_'
'período_'
'set_'
'ia_'
'God_'
'tipo_'
'Sr_'
'ones_'
'view_'
'niños_'
'something_'
'case_'
'u_'
'rooms_'
'per_'
'otro_'
'Sin_'
'señor_'
'resolución_'
'estas_'
'nuevo_'
'O_'
'­_'
'really_'
'proceso_'
'long_'
'Esta_'
'va_'
'manera_'
'services_'
'possible_'
'ble_'
'25_'
'momento_'
'point_'
'Dios_'
'artículo_'
'actividades_'
'To_'
' '_'
'tener_'
'ion_'
'13_'
'health_'
'total_'
'mujeres_'
'ellos_'
'process_'
'tienen_'
'aplicación_'
'com_'
'otra_'
'había_'
'Well_'
'14_'
'solo_'
'each_'
'available_'
'three_'
'security_'
'off_'
'nuestra_'
'medio_'
'level_'
'city_'
'proyecto_'
'nada_'
'during_'
'cualquier_'
'án_'
'18_'
'activities_'
'sino_'
'ers_'
'después_'
'nosotros_'
'access_'
'She_'
'different_'
'Grupo_'
'16_'
'www_'
'end_'
'ra_'
'apoyo_'
'Europeo_'
'At_'
'Una_'
'://_'
' _'
'local_'
'http_'
'taken_'
'non_'
'market_'
'free_'
'Al_'
'Un_'
'tres_'
'ment_'
'cuestión_'
'high_'
'nombre_'
'base_'
'Community_'
'why_'
'put_'
'Yo_'
'siempre_'
'regional_'
'cooperation_'
'meeting_'
'How_'
'small_'
'little_'
'habitaciones_'
'plan_'
'therefore_'
'look_'
'17_'
'today_'
'toda_'
'ta_'
'idea_'
'estar_'
'best_'
'R_'
'poco_'
'ir_'
'millones_'
'2005_'
'z_'
'based_'
'situation_'
'means_'
'When_'
'P_'
'problemas_'
'believe_'
'already_'
'También_'
'financial_'
'ce_'
'posible_'
'measures_'
'ejemplo_'
'x_'
'further_'
'areas_'
'algunos_'
'ciudad_'
'However_'
'issue_'
'datos_'
'cosas_'
'tes_'
'provide_'
'"._'
'while_'
'stay_'
'rse_'
'real_'
'punto_'
'every_'
'ello_'
'ante_'
'propuesta_'
'course_'
'working_'
'sí_'
'service_'
'emos_'
'better_'
'old_'
'family_'
'nivel_'
'final_'
'50_'
'legal_'
'again_'
'Con_'
'since_'
'Let_'
'never_'
'rá_'
'cooperación_'
'Gobierno_'
'tal_'
'primer_'
'na_'
'mercado_'
'decision_'
'call_'
'Yes_'
'21_'
'hemos_'
'programme_'
'primera_'
'ies_'
'around_'
'1999_'
'ron_'
'programas_'
'casa_'
'action_'
'tell_'
'Esto_'
'another_'
'water_'
'issues_'
'called_'
'next_'
'future_'
'cual_'
'second_'
'rs_'
'problema_'
' — _'
'número_'
'name_'
'muchos_'
'ella_'
'T_'
'ted_'
'let_'
'On_'
'less_'
'fact_'
'B_'
' ..._'
'government_'
'away_'
'uso_'
'sesiones_'
'estado_'
'nuestros_'
'necessary_'
'Government_'
'relación_'
'quiero_'
'productos_'
'cómo_'
'few_'
'estoy_'
'done_'
'Israel_'
'recursos_'
'change_'
'sé_'
'problem_'
'paz_'
'implementation_'
'hacia_'
'full_'
'business_'
'Assembly_'
'“_'
'puedo_'
'doing_'
'Why_'
'always_'
'! _'
'thing_'
'respect_'
'group_'
'My_'
'poder_'
'members_'
'gonna_'
'together_'
'didn_'
'» _'
'dad_'
'centro_'
'condiciones_'
'common_'
'civil_'
'."_'
'things_'
'peace_'
'given_'
'días_'
'role_'
'protección_'
'podría_'
'Te_'
'Asamblea_'
'hoy_'
'Don_'
'ty_'
'protection_'
'open_'
'making_'
'deben_'
'calidad_'
'Social_'
'necesario_'
'clear_'
'Group_'
'Convention_'
'ts_'
'salud_'
'dentro_'
'acceso_'
'sure_'
'22_'
'verdad_'
'io_'
'ensure_'
'ado_'
'tenemos_'
'special_'
'resources_'
'estaba_'
'dicho_'
'Unidos_'
'Además_'
'proposal_'
'organizaciones_'
'million_'
'Security_'
'Commissioner_'
'ofrece_'
'following_'
'Hey_'
'th_'
'present_'
'UE_'
'New_'
'ne_'
'M_'
'Do_'
'Como_'
'session_'
'question_'
'love_'
'global_'
'será_'
'estamos_'
'certain_'
'ayuda_'
'algunas_'
'19_'
'days_'
'With_'
'Secretary_'
'might_'
'mean_'
'creo_'
'unos_'
'state_'
'persona_'
'natural_'
'amente_'
'F_'
'period_'
'partes_'
'marco_'
'fundamental_'
'example_'
'data_'
'community_'
'cannot_'
'atención_'
'podemos_'
'empresas_'
'adopted_'
'Now_'
'problems_'
'offers_'
'incluso_'
'far_'
'among_'
'World_'
'República_'
'Internet_'
'party_'
'organizations_'
'internacionales_'
'aún_'
'Come_'
'Así_'
'um_'
'mí_'
'modo_'
'men_'
'hand_'
'dar_'
'bajo_'
'tengo_'
'particularly_'
'needs_'
'located_'
'et_'
'100_'
'zona_'
'ting_'
'become_'
'través_'
'trata_'
'tions_'
'pasado_'
'large_'
'continue_'
'red_'
'misma_'
'land_'
'haya_'
'31_'
'whole_'
'nueva_'
'found_'
'house_'
'education_'
'Eso_'
'haber_'
'efforts_'
'Rights_'
'23_'
'nacional_'
'materia_'
'main_'
'DE_'
'gente_'
'age_'
'These_'
'N_'
'trade_'
'importancia_'
'Secretario_'
'region_'
'provided_'
'horas_'
'Cómo_'
'26_'
'power_'
'mediante_'
'dinero_'
'Cuando_'
'money_'
'gracias_'
'ban_'
'Hay_'
'.  _'
'hope_'
'draft_'
'grupo_'
'food_'
'etc_'
'ambiente_'
'Our_'
'27_'
'upon_'
'servicio_'
'ic_'
'tema_'
'st_'
'medios_'
'mayoría_'
'management_'
'Gracias_'
'Court_'
'2009_'
'veces_'
'res_'
'nacionales_'
'however_'
'cerca_'
'políticas_'
'night_'
'ley_'
'grupos_'
'basis_'
'hombre_'
'fully_'
'close_'
'capacidad_'
' -_'
'mujer_'
'matter_'
'least_'
'environment_'
'40_'
'form_'
'f_'
'developing_'
'Bueno_'
'held_'
'groups_'
'ciudadanos_'
'care_'
'Article_'
'staff_'
'play_'
'home_'
'dijo_'
'cuestiones_'
'specific_'
'quality_'
'left_'
'decisión_'
'actual_'
'Republic_'
'products_'
'presente_'
'fuera_'
'Ahora_'
'”._'
'– _'
'tú_'
'having_'
'China_'
'regard_'
'person_'
'mis_'
'investigación_'
'esos_'
'asistencia_'
'using_'
'kind_'
'sociedad_'
'objetivo_'
'include_'
'agreement_'
'San_'
'yet_'
'vote_'
'ste_'
'result_'
'project_'
'ever_'
'Development_'
'December_'
'line_'
'debería_'
'concerned_'
'child_'
'U_'
'key_'
'especialmente_'
'Está_'
'crisis_'
'co_'
'II_'
'ti_'
'según_'
'related_'
'normas_'
'capital_'
'hours_'
'cuanto_'
'cia_'
'Internacional_'
'miento_'
'major_'
'Ya_'
'Convención_'
'. - _'
'nunca_'
'individual_'
'endo_'
'Office_'
'web_'
'noche_'
'increase_'
'común_'
'anything_'
'Le_'
'2007_'
'2006_'
'society_'
'research_'
'feel_'
'encuentra_'
'conditions_'
'casos_'
'bar_'
'’ _'
'parece_'
'especial_'
'energy_'
'además_'
'Seguridad_'
'diciembre_'
'cultural_'
'whether_'
'sentido_'
'programmes_'
'muchas_'
'building_'
' $_'
'parties_'
'nuestras_'
'Conference_'
'term_'
'position_'
'cabo_'
'ca_'
'agua_'
'Okay_'
'28_'
'2008_'
' '
'third_'
'show_'
'razón_'
'proyectos_'
'private_'
'buena_'
'ación_'
'Vamos_'
'US_'
'May_'
'various_'
'ro_'
'offer_'
'objetivos_'
'nuclear_'
'centre_'
'aunque_'
'above_'
'. ¿_'
'wish_'
'subject_'
'nuevos_'
'dor_'
'dice_'
'account_'
'especially_'
'citizens_'
'article_'
'armas_'
'taking_'
'site_'
'mientras_'
'gestión_'
'ge_'
'dólares_'
'acerca_'
', "_'
'until_'
'several_'
'rules_'
'podrá_'
'importance_'
'acción_'
'Que_'
' | _'
'varios_'
'terms_'
'soy_'
'papel_'
'ous_'
'minutes_'
'central_'
'authorities_'
'Su_'
'Human_'
'times_'
'start_'
'futuro_'
'ask_'
'systems_'
'institutions_'
'importantes_'
'file_'
'cambio_'
'[_'
'Mrs_'
'Creo_'
'", _'
' «_'
'resultados_'
'live_'
'fueron_'
'estás_'
'cases_'
'budget_'
'approach_'
'Mi_'
'June_'
'vista_'
'principal_'
'labor_'
'keep_'
'field_'
'falta_'
'assistance_'
'”, _'
'words_'
'pueda_'
'principio_'
'comunidad_'
'ation_'
'air_'
'ad_'
'One_'
'ry_'
'paragraph_'
'ons_'
'once_'
'everything_'
'car_'
'young_'
'tus_'
'todavía_'
'respuesta_'
'responsibility_'
'relevant_'
'nte_'
'lado_'
'hombres_'
'heart_'
'bring_'
'appropriate_'
'último_'
'ían_'
'training_'
'región_'
'others_'
'crear_'
'van_'
'towards_'
'thought_'
'largo_'
'ideal_'
'experience_'
'enough_'
'agenda_'
'segundo_'
'medida_'
'libre_'
'idad_'
'entonces_'
'diferentes_'
'Just_'
'short_'
'necesidades_'
'itself_'
'haciendo_'
'September_'
'tierra_'
'plazo_'
'minutos_'
'four_'
'developed_'
'Your_'
'Tribunal_'
'House_'
'single_'
'pueblo_'
'ninguna_'
'grandes_'
'effective_'
'side_'
'quite_'
'principales_'
'legislation_'
'leave_'
'gas_'
'body_'
'attention_'
'Windows_'
'Is_'
'., _'
'took_'
'progress_'
'production_'
'población_'
'nothing_'
'media_'
'mañana_'
'gobierno_'
'debemos_'
'Estoy_'
'told_'
'palabras_'
'lot_'
'light_'
'ions_'
'hora_'
'Iraq_'
'ido_'
'current_'
'York_'
'National_'
' & _'
'unas_'
'resultado_'
'quieres_'
'please_'
'ness_'
'km_'
'interés_'
'Central_'
'America_'
'1997_'
' ‘_'
'ámbito_'
'understand_'
'transporte_'
'sitio_'
'reunión_'
'persons_'
'lista_'
'list_'
'known_'
'force_'
'aid_'
'• _'
'za_'
'siendo_'
'sería_'
'results_'
'quien_'
'público_'
'producción_'
'modern_'
'location_'
'familia_'
'came_'
'Thank_'
'Are_'
'ter_'
'sa_'
'realidad_'
'nt_'
'ity_'
'experiencia_'
'Entonces_'
'Derechos_'
'war_'
'talk_'
'reason_'
'guerra_'
'coming_'
'ales_'
'1998_'
' / _'
'práctica_'
'projects_'
'often_'
'llegar_'
'alto_'
'Where_'
'November_'
'Hola_'
' [_'
'provides_'
'propuestas_'
'mind_'
'Africa_'
'único_'
'vamos_'
'town_'
'submitted_'
'proposed_'
'opinión_'
'nuevas_'
'hablar_'
'eres_'
'equipo_'
'American_'
'): _'
'serious_'
'okay_'
'ma_'
'five_'
'energía_'
'Special_'
'tas_'
'stop_'
'siento_'
'policies_'
'nice_'
'meses_'
'línea_'
'informes_'
'europea_'
'disposiciones_'
'29_'
'sociales_'
'saber_'
'participación_'
'ión_'
'involved_'
'esas_'
'address_'
'voy_'
'tienes_'
'principios_'
'ningún_'
'garantizar_'
'established_'
'empleo_'
'Who_'
'tomar_'
'párrafo_'
'ns_'
'necesidad_'
'cuatro_'
'capacity_'
'camino_'
'run_'
'responsible_'
'population_'
'living_'
'led_'
'facilities_'
'due_'
'X_'
'His_'
'w_'
'violence_'
'turn_'
'software_'
'seguir_'
'reports_'
'proposals_'
'instituciones_'
'alguien_'
'V_'
'October_'
'60_'
'- ¡_'
'school_'
'ría_'
'past_'
'orden_'
'months_'
'ios_'
'historia_'
'esfuerzos_'
'des_'
'casi_'
'thank_'
'oportunidad_'
'fecha_'
'environmental_'
'beautiful_'
'autoridades_'
'April_'
'ten_'
'police_'
'ntes_'
'mundial_'
'mo_'
'makes_'
'face_'
'buen_'
'Tratado_'
'Here_'
'G_'
'Desde_'
'Asuntos_'
'quiere_'
'ie_'
'efecto_'
'económica_'
'Treaty_'
'TV_'
'200_'
'siguiente_'
'military_'
'material_'
'junto_'
'educación_'
'deal_'
'cosa_'
'company_'
'ch_'
'bles_'
'Mundial_'
'January_'
'terrorism_'
'realmente_'
'página_'
'puedes_'
'promote_'
'history_'
'excellent_'
'decisiones_'
'dado_'
'create_'
'creación_'
'comunicación_'
'cierto_'
'book_'
'ago_'
'workers_'
'views_'
'valor_'
'serie_'
'required_'
'mes_'
'mejorar_'
'legislación_'
'later_'
'job_'
'difícil_'
'behalf_'
'application_'
'alguna_'
'Good_'
'treatment_'
'tenido_'
'responsabilidad_'
'pesar_'
'crecimiento_'
'concerning_'
'H_'
'Comisario_'
'pues_'
'lucha_'
'habían_'
'efectos_'
'conflict_'
'breakfast_'
'allí_'
'ahí_'
'ada_'
'South_'
'true_'
'sistemas_'
'seguro_'
'luego_'
'julio_'
'item_'
'addition_'
'Then_'
'Hoteles_'
'55_'
'welcome_'
'trabajar_'
'sustainable_'
'seen_'
'sean_'
'rather_'
'permite_'
'ings_'
'frente_'
'encontrar_'
'easy_'
'demás_'
'context_'
'comfortable_'
'cinco_'
'cause_'
'Not_'
'July_'
'Conferencia_'
'tarde_'
'puntos_'
'presupuesto_'
'member_'
'mar_'
'mal_'
'levels_'
'junio_'
'growth_'
'framework_'
'date_'
'concern_'
'big_'
'additional_'
'Organization_'
'Bien_'
'í_'
'sigue_'
'risk_'
'rate_'
'pay_'
'miembro_'
'jóvenes_'
'empresa_'
'bad_'
'2010_'
'1996_'
'try_'
'review_'
'request_'
'opinion_'
'documento_'
'conformidad_'
'act_'
'Programa_'
'Please_'
'March_'
'Director_'
'walk_'
'value_'
'top_'
'technical_'
'soon_'
'page_'
'org_'
'office_'
'mayo_'
'looking_'
'knowledge_'
'fondos_'
'fight_'
'eran_'
'death_'
'aspectos_'
'] _'
'East_'
'Desarrollo_'
'tecnología_'
'septiembre_'
'interior_'
'interest_'
'formación_'
'ex_'
'evaluación_'
'cent_'
'brought_'
'accordance_'
'Todo_'
'Sólo_'
'Some_'
'zonas_'
'tras_'
'texto_'
'significa_'
'puedan_'
'note_'
'nature_'
'ls_'
'llevar_'
'internet_'
'included_'
'hizo_'
'hard_'
'enero_'
'comes_'
'L'
'Economic_'
'últimos_'
'África_'
'wrong_'
'supuesto_'
'space_'
'poner_'
'organización_'
'octubre_'
'libertad_'
'europeos_'
'económico_'
'comercio_'
'claro_'
'Look_'
'trabajadores_'
'tenía_'
'meet_'
'igual_'
'habitación_'
'either_'
'difficult_'
'considered_'
'companies_'
'ate_'
'amount_'
'Spain_'
'Quiero_'
'.._'
'ías_'
'safety_'
'pública_'
'provisions_'
'posición_'
'obtener_'
'estrellas_'
'currently_'
'costs_'
'corazón_'
'check_'
'última_'
'technology_'
'semana_'
'return_'
'range_'
'puesto_'
'outside_'
'objeto_'
'moment_'
'ling_'
'existe_'
'decided_'
'conjunto_'
'ayudar_'
'actually_'
'Oficina_'
'Comunidad_'
'— _'
'visto_'
'ustedes_'
'solución_'
'simple_'
'similar_'
'sesión_'
'rural_'
'received_'
'needed_'
'lugares_'
'cost_'
'compromiso_'
'allow_'
'Tengo_'
'Service_'
'Programme_'
'M'
'An_'
'won_'
'transport_'
'share_'
'sexual_'
'reform_'
'points_'
'muerte_'
'half_'
'created_'
'conseguir_'
'algún_'
'Spanish_'
'Nos_'
') (_'
'visit_'
'thus_'
'text_'
'representatives_'
'recent_'
'practice_'
'near_'
'euros_'
'ellas_'
'dores_'
'agree_'
'Usted_'
'Reglamento_'
'1995_'
'éxito_'
'wanted_'
'sabes_'
'relaciones_'
'pregunta_'
'partir_'
'locales_'
'heard_'
'greater_'
'complete_'
'carácter_'
'Ha_'
'Get_'
'week_'
'vo_'
'status_'
'realizar_'
'price_'
'mano_'
'improve_'
'forward_'
'establecer_'
'alta_'
'Señorías_'
'500_'
'went_'
'violencia_'
'study_'
'señora_'
'questions_'
'policía_'
'original_'
'ores_'
'luz_'
'longer_'
'gentlemen_'
'early_'
'duda_'
'cuales_'
'campo_'
'Sra_'
'35_'
'1994_'
'themselves_'
'siguientes_'
'saying_'
'regionales_'
'quién_'
'quisiera_'
'posibilidad_'
'obstante_'
'ga_'
'financiación_'
'enjoy_'
'N'
'Asia_'
'paso_'
'ke_'
'interests_'
'industry_'
'hear_'
'hacerlo_'
'fuerte_'
'examen_'
'espacio_'
'clearly_'
'bueno_'
'amos_'
'Son_'
'French_'
'After_'
'1992_'
'.”_'
' : _'
'type_'
'though_'
'terrorismo_'
'station_'
'sabe_'
'read_'
'reach_'
'opportunity_'
'network_'
'mantener_'
'happened_'
'follow_'
'doesn_'
'demasiado_'
'contexto_'
'competencia_'
'changes_'
'aire_'
'abril_'
'Todos_'
'R'
'57_'
'vistas_'
'promover_'
'presented_'
'evitar_'
'agreed_'
'W_'
'Organización_'
'First_'
'80_'
'58_'
'totalmente_'
'ton_'
'standards_'
'relating_'
'nota_'
'language_'
'ejecución_'
'consider_'
'actions_'
'France_'
'Especial_'
'ES_'
'B'
'—_'
'ves_'
'tratamiento_'
'tos_'
'poverty_'
'morning_'
'mas_'
'justice_'
'guy_'
'fine_'
'events_'
'edad_'
'aumento_'
'Dr_'
'Did_'
'90_'
'. (_'
'word_'
'video_'
'simply_'
'político_'
'nes_'
'madre_'
'incluye_'
'error_'
'der_'
'bit_'
'Lord_'
'Can_'
'unto_'
'team_'
'rule_'
'principle_'
'participation_'
'move_'
'mejores_'
'majority_'
'justicia_'
'else_'
'document_'
'directive_'
'along_'
'T'
'Room_'
'Reino_'
'Porque_'
'Él_'
'throughout_'
'strategy_'
'states_'
'sorry_'
'rapporteur_'
'property_'
'pobreza_'
'pasar_'
'nadie_'
'lead_'
'lack_'
'formas_'
'estudio_'
'estrategia_'
'according_'
'S'
'Jesus_'
'EN_'
'v_'
'ties_'
'tenga_'
'self_'
'rest_'
'remain_'
'ready_'
'propia_'
'paid_'
'hold_'
'haga_'
'ful_'
'favour_'
'europeo_'
'eron_'
'class_'
'art_'
'Presidencia_'
'Nacional_'
'�_'
'talking_'
'road_'
'padre_'
'low_'
'hijo_'
'funds_'
'effect_'
'dónde_'
'develop_'
'declaración_'
'cantidad_'
'From_'
'English_'
'E'
'Después_'
'Affairs_'
'56_'
'weapons_'
'suficiente_'
'segunda_'
'restaurant_'
'referencia_'
'providing_'
'precio_'
'ponente_'
'juego_'
'initiative_'
'forces_'
'fondo_'
'enmiendas_'
'ejercicio_'
'culture_'
'consideration_'
'communication_'
'choice_'
'amplia_'
'actividad_'
'acciones_'
'Of_'
'Members_'
'K_'
'India_'
'G'
'Estas_'
'wide_'
'significant_'
'says_'
'prevent_'
'políticos_'
'necesita_'
'impact_'
'hijos_'
'gustaría_'
'gobiernos_'
'doctor_'
'direct_'
'connection_'
'asked_'
'archivo_'
'amigos_'
'achieve_'
'P'
'Humanos_'
'By_'
'2012_'
'és_'
'table_'
'product_'
'killed_'
'función_'
'dialogue_'
'democratic_'
'continued_'
'century_'
'amendments_'
'across_'
'X'
'John_'
'temas_'
'strong_'
'safe_'
'rán_'
'regions_'
'recommendations_'
'propio_'
'palabra_'
'internal_'
'fácil_'
'friendly_'
'former_'
'father_'
'dades_'
'criminal_'
'contact_'
'causa_'
'Servicio_'
'H'
'vas_'
'serán_'
'relativa_'
'regular_'
'program_'
'positive_'
'popular_'
'mismos_'
'lograr_'
'ideas_'
'establecimiento_'
'democracia_'
'decisions_'
'conference_'
'clientes_'
'asunto_'
'works_'
'woman_'
'trying_'
'someone_'
'sed_'
'industrial_'
'equipment_'
'economía_'
'directly_'
'dejar_'
'clase_'
'aware_'
'amor_'
']_'
'\u_'
'Ley_'
'seis_'
'requirements_'
'remember_'
'pruebas_'
'prepared_'
'ors_'
'nor_'
'met_'
'hacen_'
'dead_'
'clean_'
'Señora_'
'HIV_'
'Aunque_'
'América_'
'45_'
'utilizar_'
'traditional_'
'situado_'
'series_'
'relations_'
'preocupación_'
'poor_'
'negotiations_'
'king_'
'concerns_'
'benefits_'
'benefit_'
'archivos_'
'See_'
'Parte_'
'Francia_'
'Directive_'
'59_'
'varias_'
'speak_'
'seems_'
'reducción_'
'potential_'
'noviembre_'
'miles_'
'increased_'
'igualdad_'
'i'
'head_'
'guests_'
'grande_'
'fuerzas_'
'creation_'
'contacto_'
'cocina_'
'carried_'
'Tenemos_'
'Report_'
'ás_'
'ways_'
'star_'
'solution_'
'response_'
'resolutions_'
'radio_'
'queda_'
'ments_'
'iniciativa_'
'gastos_'
'fuerza_'
'front_'
'freedom_'
'est_'
'essential_'
'entrada_'
'ely_'
'effects_'
'designed_'
'democracy_'
'agreements_'
'Western_'
'Russian_'
'Germany_'
'August_'
'Alemania_'
'33_'
'300_'
'stand_'
'preguntas_'
'pequeño_'
'pasa_'
'mother_'
'ladies_'
'je_'
'includes_'
'gave_'
'floor_'
'files_'
'esté_'
'ds_'
'K'
'February_'
'España_'
'32_'
'values_'
'regarding_'
'principles_'
'online_'
'late_'
'humanitarian_'
'foreign_'
'ez_'
'extremely_'
'economy_'
'debido_'
'balance_'
'actualmente_'
'ability_'
'Fund_'
'FAO_'
'Centre_'
'African_'
': "_'
'2015_'
' ¿_'
'órganos_'
'statement_'
'rlo_'
'proteger_'
'protect_'
'pool_'
'phone_'
'participar_'
'objectives_'
'ias_'
'higher_'
'ey_'
'ent_'
'disposición_'
'beginning_'
'acuerdos_'
'Unido_'
'Santa_'
'Rusia_'
'Declaración_'
'Costa_'
'); _'
'whose_'
'víctimas_'
'versión_'
'usuarios_'
'reduce_'
'receive_'
'priority_'
'ja_'
'instrumentos_'
'families_'
'expressed_'
'everyone_'
'event_'
'completo_'
'climate_'
'ces_'
'cargo_'
'asuntos_'
'ando_'
'ados_'
'2014_'
' -- _'
'única_'
'users_'
'tipos_'
'stage_'
'smo_'
'six_'
'saw_'
'restaurante_'
'regulation_'
'regiones_'
'reducir_'
'prácticas_'
'official_'
'obligations_'
'niño_'
'niveles_'
'instalaciones_'
'game_'
'fundamentales_'
'friends_'
'estilo_'
'establishment_'
'elementos_'
'diálogo_'
'dirección_'
'committed_'
'chance_'
'cal_'
'análisis_'
'amigo_'
'alone_'
'alcanzar_'
'Since_'
'Quién_'
'People_'
'Nueva_'
'J'
'Estás_'
'Durante_'
'Directiva_'
'70_'
'1990_'
'฀ _'
'types_'
'teléfono_'
'strengthen_'
'step_'
'ras_'
'primero_'
'precios_'
'post_'
'perfect_'
'naturaleza_'
'manos_'
'laws_'
'ian_'
'hands_'
'ero_'
'employment_'
'directamente_'
'design_'
'conflicto_'
'competition_'
'basic_'
'Red_'
'F'
'x'
'victims_'
'user_'
'takes_'
'sing_'
'ses_'
's'
'representantes_'
'quienes_'
'professional_'
'organization_'
'marzo_'
'ica_'
'guest_'
'governmental_'
'gender_'
'existen_'
'excelente_'
'e'
'digital_'
'bed_'
'allá_'
'ally_'
'Summit_'
'Party_'
'. _'
'" (_'
'viaje_'
'version_'
'recomendaciones_'
'procedure_'
'objective_'
'normal_'
'music_'
'esencial_'
'disponibles_'
'discriminación_'
'directiva_'
'di_'
'bastante_'
'agencies_'
'adelante_'
'Web_'
'Mexico_'
'Gran_'
'Fondo_'
'Entre_'
'Ella_'
'--_'
' ?_'
'via_'
'truth_'
'students_'
'steps_'
'ss_'
'relativas_'
'procedimiento_'
'plenamente_'
'operaciones_'
'movement_'
'limited_'
'knew_'
'gone_'
'euro_'
'drug_'
'built_'
'DLL_'
'D'
'Colombia_'
'Business_'
'Barcelona_'
'Austria_'
'Action_'
'votación_'
'ure_'
'ue_'
'tales_'
'riesgo_'
'refiere_'
'probably_'
'prices_'
'opportunities_'
'operation_'
'meetings_'
'ismo_'
'investment_'
'forms_'
'ente_'
'cultura_'
'bodies_'
'ano_'
'although_'
'Park_'
'PC_'
'. - (_'
'virtud_'
'ura_'
'uh_'
'términos_'
'standard_'
'sir_'
'reforma_'
'misión_'
'ive_'
'getting_'
'focus_'
'features_'
'existing_'
'equipped_'
'double_'
'carta_'
'behind_'
'aspects_'
'aquellos_'
'ampliación_'
'alrededor_'
'almost_'
'administrative_'
'Presidenta_'
'Law_'
'sound_'
'sectores_'
'régimen_'
'pronto_'
'producto_'
'prevención_'
'performance_'
'organismos_'
'negocios_'
'negociaciones_'
'image_'
'guys_'
'ground_'
'establish_'
'especiales_'
'entitled_'
'elecciones_'
'delegation_'
'constituye_'
'apply_'
'analysis_'
'administración_'
'acts_'
'Tu_'
'C'
'Bar_'
'Add_'
'2013_'
'," _'
'yourself_'
'valores_'
'travel_'
'toma_'
'thanks_'
'test_'
'sostenible_'
'simplemente_'
'ré_'
'plans_'
'planning_'
'initiatives_'
'iniciativas_'
'independent_'
'implement_'
'dispone_'
'cumplir_'
'contenido_'
'card_'
'cambios_'
'cambiar_'
'apartado_'
'anyone_'
'activity_'
'Rooms_'
'Minister_'
'Because_'
'Although_'
'36_'
'writing_'
'thinking_'
'siglo_'
'sent_'
'sense_'
'reference_'
'parts_'
'judicial_'
'instruments_'
'increasing_'
'hour_'
'girl_'
'estaban_'
'espera_'
'enfoque_'
'effort_'
'den_'
'court_'
'consecuencia_'
'conexión_'
'agricultural_'
'accept_'
'Portugal_'
'High_'
'Cuba_'
'48_'
'/ _'
'w'
'volver_'
'técnica_'
'terreno_'
'send_'
'ring_'
'requested_'
'representante_'
'relacionados_'
'ran_'
'puerta_'
'pequeñas_'
'origen_'
'noted_'
'm'
'lives_'
'cy_'
'content_'
'comunidades_'
'computer_'
'commitment_'
'comisión_'
'challenges_'
'baño_'
'Women_'
'UN_'
'LA_'
'Department_'
'Cámara_'
'CE_'
': “_'
'2011_'
'understanding_'
'territorio_'
'style_'
'solicitud_'
'respeto_'
'purpose_'
'nce_'
'message_'
'joint_'
'humana_'
'exchange_'
'escrito_'
'escala_'
'discrimination_'
'coordinación_'
'aprobación_'
'Trabajo_'
'Puede_'
'Justicia_'
'Health_'
'During_'
'British_'
'Acuerdo_'
' –_'
'previous_'
'presentar_'
'month_'
'mercados_'
'letter_'
'importa_'
'habría_'
'gusta_'
'fall_'
'documentos_'
'diputados_'
'contributions_'
'continuación_'
'conflictos_'
'centros_'
'center_'
'board_'
'While_'
'VIH_'
'U'
'Puerto_'
'Paris_'
'Información_'
'Board_'
'ze_'
'ying_'
'vital_'
'utilización_'
'tendrá_'
'setting_'
'resto_'
'reserva_'
'reception_'
'presentación_'
'practices_'
'inside_'
'inglés_'
'industria_'
'febrero_'
'disponible_'
'disfrutar_'
'dio_'
'cumplimiento_'
'crime_'
'colaboración_'
'cabeza_'
'baby_'
'Tú_'
'THE_'
'Presidency_'
'Plan_'
'Informe_'
'Derecho_'
'sur_'
'reuniones_'
'recently_'
'rates_'
'promoción_'
'produce_'
'procesos_'
'p'
'matters_'
'lost_'
'labour_'
'intereses_'
'income_'
'il_'
'enmienda_'
'enable_'
'cuerpo_'
'color_'
'beach_'
'apoyar_'
'Solo_'
'Según_'
'Right_'
'Palestinian_'
'Other_'
'México_'
'Hemos_'
'City_'
'1993_'
'1991_'
' ... _'
'shown_'
'salir_'
'reviews_'
'prueba_'
'profesional_'
'procedimientos_'
'net_'
'mentioned_'
'leyes_'
'ks_'
'iendo_'
'ida_'
'hell_'
'grave_'
'funding_'
'funcionamiento_'
'evidence_'
'entire_'
'documents_'
'cover_'
'claim_'
'artículos_'
'arreglo_'
'alimentos_'
'actos_'
'Uh_'
'Thanks_'
'North_'
'CD_'
'AIDS_'
'38_'
'34_'
'à_'
'° _'
'serio_'
'section_'
'responsables_'
'remains_'
'regulations_'
'opción_'
'nas_'
'modelo_'
'minute_'
'jo_'
'hayan_'
'gubernamentales_'
'governments_'
'friend_'
'familiar_'
'estudios_'
'equal_'
'encuentran_'
'discussion_'
'creating_'
'comprehensive_'
'clave_'
'below_'
'atmosphere_'
'ary_'
'addressed_'
'Working_'
'Turkey_'
'Take_'
'Soy_'
'III_'
'stated_'
'sabemos_'
'ros_'
'puestos_'
'places_'
'oil_'
'leading_'
'leaders_'
'integration_'
'ina_'
'goes_'
'funcionarios_'
'fire_'
'fines_'
'edificio_'
'distintos_'
'defensa_'
'código_'
'cuarto_'
'ck_'
'authority_'
'asociación_'
'arms_'
'animales_'
'Russia_'
'Jesús_'
'Go_'
'Dónde_'
'Congo_'
'Bank_'
'? - _'
'*_'
'usar_'
'success_'
'somos_'
'semanas_'
'search_'
'scope_'
'podrán_'
'pequeña_'
'paper_'
'oportunidades_'
'myself_'
'motivo_'
'menudo_'
'mantenimiento_'
'isn_'
'iones_'
'happy_'
'happen_'
'funciones_'
'eficaz_'
'ding_'
'deberían_'
'customers_'
'animal_'
'adoptar_'
'V'
'Tiene_'
'Italy_'
'Charter_'
'Agreement_'
', “_'
'_'
'viene_'
'tratar_'
'superior_'
'shows_'
'riesgos_'
'nd_'
'médico_'
'model_'
'mensaje_'
'ka_'
'juicio_'
'illegal_'
'giving_'
'generales_'
'curso_'
'contribution_'
'conocimiento_'
'aplicar_'
'anti_'
'aimed_'
'Miembros_'
'Latin_'
'Italia_'
'Global_'
'Estos_'
'Christ_'
'A'
'54_'
'. '
' . _'
' ( _'
'éste_'
'´_'
'visita_'
'ur_'
'tor_'
'tomorrow_'
'tax_'
'starting_'
'solamente_'
'size_'
'representative_'
'relationship_'
'reached_'
'quiet_'
'procedures_'
'ning_'
'necesarios_'
'ncia_'
'máximo_'
'island_'
'h'
'eyes_'
'deseo_'
'desea_'
'critical_'
'construcción_'
'club_'
'charge_'
'Kingdom_'
'Hello_'
'Estamos_'
'EUR_'
'Convenio_'
'Cada_'
'COM_'
'Artículo_'
'Aquí_'
'* _'
'ye_'
'universal_'
'tercer_'
'sangre_'
'rich_'
'queremos_'
'presidente_'
'peoples_'
'operations_'
'obra_'
'markets_'
'imagen_'
'hospital_'
'highly_'
'habla_'
'du_'
'doble_'
'die_'
'dicha_'
'details_'
'delegación_'
'considera_'
'completely_'
'completa_'
'cara_'
'apartment_'
'answer_'
'ana_'
'aim_'
'aeropuerto_'
'Non_'
'Irlanda_'
'Habitaciones_'
'Federal_'
'CN_'
'Act_'
'unique_'
'train_'
'trabajando_'
'structure_'
'relation_'
'registro_'
'reasons_'
'realizado_'
'provision_'
'propiedad_'
'pass_'
'ner_'
'monitoring_'
'lly_'
'immediately_'
'gives_'
'financing_'
'famous_'
'f'
'external_'
'exterior_'
'diversas_'
'complex_'
'choose_'
'adopción_'
'administration_'
'achieved_'
'W'
'Tienes_'
'Services_'
'Puedo_'
'OK_'
'Le'
'German_'
'Declaration_'
'). _'
'ven_'
'trust_'
'started_'
'sta_'
'sala_'
'reglamento_'
'pueblos_'
'published_'
'privado_'
'prevention_'
'presentado_'
'possibility_'
'podrían_'
'physical_'
'partners_'
'obligaciones_'
'ni'
'necesarias_'
'mayores_'
'mandate_'
'integración_'
'estación_'
'em_'
'económicos_'
'drink_'
'cámara_'
'contained_'
'consumo_'
'colegas_'
'bus_'
'build_'
'begin_'
'assessment_'
'armed_'
'applied_'
'active_'
'Trade_'
'Regional_'
'Madrid_'
'Madam_'
'Governments_'
'.'
'wasn_'
'trabajos_'
'supply_'
'story_'
'padres_'
'news_'
'mission_'
'mail_'
'instrument_'
'individuals_'
'imágenes_'
'estará_'
'entrar_'
'encourage_'
'elaboración_'
'door_'
'crucial_'
'covered_'
'comercial_'
'camera_'
'beyond_'
'bathroom_'
'b'
'asegurar_'
'agosto_'
'Sierra_'
'Más_'
'Mira_'
'Ministro_'
'Linux_'
'Kosovo_'
'Juan_'
'Jo'
'Japan_'
'Father_'
'Centro_'
'Argentina_'
'éis_'
'wants_'
'voted_'
'virus_'
'useful_'
'tecnologías_'
'tamaño_'
'supported_'
'strengthening_'
'siquiera_'
'remos_'
'próximo_'
'propios_'
'parking_'
'osa_'
'oficial_'
'neither_'
'militares_'
'mejora_'
'manner_'
'mandato_'
'girls_'
'financieros_'
'fe_'
'establecido_'
'diversos_'
'direction_'
'claramente_'
'border_'
'blood_'
'applications_'
'anteriores_'
'anterior_'
'add_'
'Ministry_'
'Food_'
'Finally_'
'Earth_'
'Departamento_'
'Constitution_'
'Constitución_'
'According_'
'92_'
'39_'
'05_'
'wouldn_'
'whom_'
'wait_'
'situated_'
'save_'
'salida_'
'resulta_'
'require_'
'recommended_'
'quickly_'
'press_'
'planes_'
'pie_'
'partnership_'
'participantes_'
'overall_'
'militar_'
'metros_'
'mecanismos_'
'marcha_'
'lleva_'
'listen_'
'link_'
'justo_'
'hubiera_'
'familias_'
'enfermedades_'
'diseño_'
'dan_'
'conclusiones_'
'concepto_'
'communities_'
'calls_'
'boy_'
'avoid_'
'associated_'
'ar'
'ance_'
'amplio_'
'Universidad_'
'Ministerio_'
'Maybe_'
'Great_'
'Executive_'
'Asimismo_'
'Agency_'
'01_'
'♪ _'
'Ã_'
'zo_'
'yes_'
'wife_'
'vía_'
'visión_'
'uses_'
'terrorist_'
'street_'
'statements_'
'spirit_'
'seven_'
'rápido_'
'record_'
'reality_'
'raised_'
'públicos_'
'pocos_'
'partido_'
'parents_'
'option_'
'ist_'
'indeed_'
'habrá_'
'examinar_'
'er'
'drive_'
'discussed_'
'cuentas_'
'confianza_'
'cliente_'
'arriba_'
'amendment_'
'airport_'
'adhesión_'
'Salud_'
'Ra'
'Many_'
'J_'
'En'
'Church_'
'77_'
'2'
'ésta_'
'y'
'voluntad_'
'variety_'
'utiliza_'
'source_'
'siguen_'
'seguimiento_'
'responsable_'
'regards_'
'pressure_'
'oso_'
'oficiales_'
'medical_'
'learn_'
'kill_'
'issued_'
'instrumento_'
'instead_'
'informed_'
'indigenous_'
'improving_'
'género_'
'facilitar_'
'exactly_'
'eat_'
'dispuesto_'
'daily_'
'commercial_'
'closed_'
'características_'
'became_'
'aumentar_'
'Nunca_'
'Ireland_'
'Fue_'
'Eres_'
'EC_'
'Cumbre_'
'Also_'
'95_'
'37_'
'00'
'” (_'
'»._'
'ª_'
'zed_'
'uni'
'tried_'
'sti'
'species_'
'sometimes_'
'sol_'
'sign_'
'resoluciones_'
'reduction_'
'reciente_'
'provisional_'
'preciso_'
'pe_'
'norte_'
'mucha_'
'mil_'
'jobs_'
'hit_'
'finally_'
'fase_'
'escuela_'
'enter_'
'distance_'
'diez_'
'conocer_'
'condition_'
'Y'
'Will_'
'Tra'
'St_'
'LI'
'Check_'
'150_'
'violaciones_'
'usually_'
't'
'ship_'
'round_'
'presence_'
'pleno_'
'players_'
'playa_'
'pesca_'
'peligro_'
'pago_'
'observaciones_'
'mientos_'
'kids_'
'ier_'
'ice_'
'hablando_'
'gs_'
'growing_'
'forest_'
'fear_'
'expertos_'
'distancia_'
'director_'
'demand_'
'consiguiente_'
'consecuencias_'
'comunitaria_'
'che_'
'certainly_'
'calle_'
'buy_'
'buscar_'
'awareness_'
'ambos_'
'actuales_'
'West_'
'Very_'
'Turquía_'
'Sa'
'Nuestro_'
'No'
'Ms_'
'Meeting_'
'London_'
'Carta_'
'47_'
',” _'
'youth_'
'worth_'
'wonderful_'
'website_'
'solidarity_'
'signed_'
'seem_'
'seek_'
'sectors_'
'reported_'
'recientemente_'
'reading_'
'ps_'
'pertinentes_'
'pena_'
'ojos_'
'necesitamos_'
'mitad_'
'llamado_'
'likely_'
'lejos_'
'join_'
'j'
'goods_'
'fun_'
'financiero_'
'felt_'
'entorno_'
'elements_'
'earth_'
'distribution_'
'disease_'
'diferente_'
'criterios_'
'credit_'
'contigo_'
'conmigo_'
'break_'
'Public_'
'Protocol_'
'Nuestra_'
'IT_'
'Hi_'
'HO'
'David_'
'Chairman_'
'Banco_'
'Al'
')'
''._'
'waiting_'
'veo_'
'uras_'
'tuvo_'
'the'
'teniendo_'
'speaking_'
'situaciones_'
'serve_'
'resolver_'
'razones_'
'que'
'propias_'
'pro_'
'participate_'
'osos_'
'ny_'
'necesaria_'
'mo'
'materials_'
'introduced_'
'integrated_'
'instalación_'
'hija_'
'highest_'
'guidelines_'
'guarantee_'
'grado_'
'fuego_'
'express_'
'experts_'
'espíritu_'
'el'
'doubt_'
'dije_'
'defence_'
'decide_'
'debt_'
'deberá_'
'dealing_'
'coordination_'
'contains_'
'considerable_'
'concept_'
'completamente_'
'coche_'
'carry_'
'aproximadamente_'
'adopt_'
'adas_'
'Uno_'
'Safety_'
'Sabes_'
'Q'
'Paul_'
'Oye_'
'Furthermore_'
'Even_'
'Ese_'
'Esa_'
'DI'
'46_'
'44_'
') - _'
'yeah_'
'walking_'
'voice_'
'vigor_'
'venir_'
'v'
'units_'
'traffic_'
'televisión_'
'sub'
'speed_'
'promotion_'
'presencia_'
'podía_'
'perhaps_'
'necesitan_'
'medium_'
'llegado_'
'libro_'
'legislative_'
'items_'
'intervención_'
'inter_'
'intención_'
'incluidos_'
'finales_'
'fair_'
'estabilidad_'
'enseñanza_'
'enlargement_'
'elegir_'
'elections_'
'desayuno_'
'damage_'
'd'
'culturales_'
'consultas_'
'committee_'
'comida_'
'comerciales_'
'coffee_'
'click_'
'caused_'
'campaña_'
'approved_'
'annex_'
'affected_'
'Voy_'
'Parties_'
'Muy_'
'Mal'
'Information_'
'Holy_'
'Have_'
'Federation_'
'Canada_'
'Ah_'
');_'
' ('
'turned_'
'task_'
'strategies_'
'sources_'
'shopping_'
'responder_'
'requires_'
'públicas_'
'prison_'
'pretty_'
'prensa_'
'pide_'
'pensar_'
'pe'
'organisations_'
'options_'
'muestra_'
'mention_'
'maybe_'
'lower_'
'loss_'
'l'
'intended_'
'ico_'
'himself_'
'gets_'
'fuentes_'
'extra_'
'expected_'
'esposa_'
'dificultades_'
'couple_'
'consumers_'
'ayudas_'
'annual_'
'allows_'
'added_'
'Ve'
'Therefore_'
'Sorry_'
'Representative_'
'Rapporteur_'
'RI'
'Padre_'
'Only_'
'Like_'
'Israeli_'
'Iglesia_'
'Hoy_'
'Hasta_'
'Has_'
'Gra'
'EE_'
'DA'
'Association_'
'600_'
'1932_'
'–_'
'white_'
'trafficking_'
'tool_'
'sión_'
'rise_'
'ria_'
'reconocimiento_'
'recibir_'
'recibido_'
'played_'
'placed_'
'picture_'
'pequeños_'
'par_'
'ora_'
'opciones_'
'methods_'
'menores_'
'medicamentos_'
'juntos_'
'fuente_'
'fish_'
'federal_'
'factor_'
'estructura_'
'enfermedad_'
'emergency_'
'efficient_'
'económicas_'
'domestic_'
'determinar_'
'destino_'
'debates_'
'cut_'
'creado_'
'contar_'
'code_'
'circunstancias_'
'categoría_'
'box_'
'beneficios_'
'autor_'
'arte_'
'adoption_'
'accommodation_'
'acceder_'
'abuse_'
'Vale_'
'University_'
'UNICEF_'
'Such_'
'Misión_'
'Mediterranean_'
'Ja'
'Italian_'
'Guatemala_'
'Debian_'
'Chile_'
'Children_'
'ín_'
'worked_'
'win_'
'weeks_'
'vivir_'
'usuario_'
'tarea_'
'suites_'
'stas_'
'specifically_'
'skills_'
'shower_'
'sen_'
'refugiados_'
'presentó_'
'port_'
'permitir_'
'ourselves_'
'ori'
'on'
'ofrecer_'
'ofrecen_'
'oferta_'
'o'
'numerous_'
'naturales_'
'ms_'
'mine_'
'mechanisms_'
'maintain_'
'largest_'
'ita_'
'hechos_'
'graves_'
'fo'
'flexible_'
'familiares_'
'explain_'
'exercise_'
'estancia_'
'esfuerzo_'
'errores_'
'eros_'
'easily_'
'desarrollar_'
'derecha_'
'criteria_'
'conocimientos_'
'conclusion_'
'compromisos_'
'comments_'
'co'
'civiles_'
'cities_'
'cable_'
'búsqueda_'
'attacks_'
'aprender_'
'alo'
'Today_'
'Te'
'Sé_'
'Stop_'
'Roma_'
'Pre'
'Popular_'
'Partes_'
'Ni_'
'Na'
'Free_'
'Espero_'
'Du'
'Booking_'
'Agenda_'
'65_'
'42_'
'weather_'
'variedad_'
'tráfico_'
'torno_'
'tic_'
'strategic_'
'sola_'
'sis_'
'separate_'
'scientific_'
'satisfacción_'
'rápida_'
'rme_'
'relacionadas_'
'próxima_'
'profesionales_'
'prioridades_'
'preparación_'
'pre_'
'posibilidades_'
'over'
'ot_'
'or'
'operating_'
'ol_'
'oficina_'
'n'
'movimiento_'
'motivos_'
'mass_'
'latest_'
'ki_'
'kept_'
'je'
'inversión_'
'implementing_'
'implemented_'
'humano_'
'financiera_'
'esperanza_'
'duty_'
'discussions_'
'deep_'
'cross_'
'cos_'
'correcto_'
'conclusions_'
'combat_'
'assist_'
'articles_'
'ant_'
'agriculture_'
'abierto_'
'Z'
'UN'
'Tal_'
'Regulation_'
'La'
'Justice_'
'ER'
'Brazil_'
'Bosnia_'
'Best_'
'&_'
'ña_'
'ámbitos_'
'ys_'
'whatever_'
'waste_'
'votes_'
'vision_'
'vino_'
'una'
'ubicación_'
'título_'
'territory_'
'studies_'
'solutions_'
'shit_'
'sa'
'revisión_'
'redes_'
'quieren_'
'quería_'
'qua'
'primary_'
'ped_'
'peaceful_'
'oro_'
'momentos_'
'lu'
'initial_'
'inicio_'
'individuales_'
'incluido_'
'fronteras_'
'fifty_'
'es'
'entes_'
'drugs_'
'distribución_'
'difference_'
'des'
'cuadro_'
'consulta_'
'construction_'
'circumstances_'
'capaz_'
'bienes_'
'began_'
'au_'
'Ver'
'Ta'
'Pe'
'More_'
'Middle_'
'Ga'
'Era_'
'CEE_'
'52_'
'51_'
'3'
'área_'
'zone_'
'za'
'voluntary_'
'tro'
'tengan_'
'television_'
'sun_'
'stability_'
'served_'
'selection_'
'sección_'
'relativo_'
'realización_'
'powers_'
'pobres_'
'paquete_'
'opened_'
'nucleares_'
'joven_'
'investigation_'
'hot_'
'honor_'
'ho'
'fucking_'
'fiscal_'
'facilitate_'
'existentes_'
'enorme_'
'district_'
'directa_'
'diciendo_'
'ded_'
'contiene_'
'consumidores_'
'conferencia_'
'claims_'
'ciudades_'
'changed_'
'cama_'
'appear_'
'allowed_'
'ain_'
'ahead_'
'aguas_'
'aceptar_'
'Washington_'
'Under_'
'Ri'
'Quieres_'
'Partido_'
'Pacto_'
'Mission_'
'Les_'
'Hi'
'Cristo_'
'Caribe_'
'Antes_'
'Alto_'
'%._'
'# _'
' % _'
'zation_'
'warm_'
'vacaciones_'
'técnicas_'
'sos_'
'si'
'shot_'
'sh_'
'sex_'
'select_'
'scale_'
'rio_'
'ri_'
'requests_'
'representa_'
'religious_'
'recomienda_'
'raise_'
'processes_'
'prioridad_'
'presenta_'
'playing_'
'planta_'
'photo_'
'ol'
'offered_'
'negative_'
'ned_'
'música_'
'mío_'
'monitor_'
'metro_'
'knows_'
'ió_'
'istas_'
'involvement_'
'institutional_'
'ingresos_'
'incluir_'
'improved_'
'hi_'
'helpful_'
'hair_'
'g'
'function_'
'fishing_'
'financieras_'
'fast_'
'factors_'
'exist_'
'except_'
'estén_'
'establishing_'
'ensuring_'
'encia_'
'drogas_'
'dinner_'
'difficulties_'
'conduct_'
'conciencia_'
'comunicaciones_'
'comer_'
'ce'
'calling_'
'billion_'
'ah_'
'Wa'
'Timor_'
'Secretaría_'
'Representante_'
'PA'
'Moreover_'
'Medio_'
'Lisbon_'
'Institute_'
'I'
'Democratic_'
'Comisaria_'
'Casa_'
'75_'
'400_'
', '
'zing_'
'wanna_'
'vidas_'
'trouble_'
'trip_'
'trial_'
'transparencia_'
'tampoco_'
'successful_'
'sit_'
'secure_'
'rey_'
'respecta_'
'regime_'
'referred_'
'refer_'
'publicación_'
'priorities_'
'principalmente_'
'practical_'
'plena_'
'plantas_'
'personnel_'
'pedido_'
'park_'
'organized_'
'offering_'
'minimum_'
'ma'
'leadership_'
'larger_'
'ky_'
'k'
'ir'
'interesting_'
'gu'
'functions_'
'fomentar_'
'failure_'
'esperar_'
'especies_'
'equality_'
'elección_'
'eficacia_'
'crédito_'
'couldn_'
'correspondiente_'
'correo_'
'contribute_'
'contrario_'
'consequences_'
'conferencias_'
'businesses_'
'bilidad_'
'anual_'
'ambas_'
'afectados_'
'adicionales_'
'a'
'Two_'
'SI'
'Puedes_'
'Ne'
'Lu'
'Latina_'
'Kuwait_'
'Ko'
'Hace_'
'Grand_'
'Front_'
'Each_'
'EC'
'Democrática_'
'Claro_'
'Caribbean_'
'ACP_'
'30'
'08_'
'-- _'
'$_'
' [[_'
'ño_'
'íamos_'
'zo'
'zar'
'yesterday_'
'viven_'
'um'
'supervisión_'
'sufficient_'
'suerte_'
'ster_'
'situations_'
'sit'
'seguros_'
'sale_'
'rápidamente_'
'running_'
'release_'
'recepción_'
'purposes_'
'programs_'
'potencial_'
'ping_'
'perspective_'
'package_'
'operational_'
'numbers_'
'mar'
'lose_'
'llama_'
'ler_'
'ización_'
'incluyendo_'
'incluida_'
'iba_'
'hará_'
'exactamente_'
'entry_'
'email_'
'diferencia_'
'contribuir_'
'comunes_'
'cas_'
'cal'
'ayer_'
'alcance_'
'ages_'
'adequate_'
'accession_'
'abajo_'
'War_'
'UU_'
'Servicios_'
'SIDA_'
'Research_'
'Nice_'
'Nicaragua_'
'Most_'
'Geneva_'
'Foreign_'
'Brasil_'
'64_'
'1'
'02_'
', ¡_'
') '
'É'
'zi'
'written_'
'véase_'
'vio_'
'urban_'
'union_'
'unidad_'
'término_'
'turismo_'
'trato_'
'trans'
'telephone_'
'sort_'
'requisitos_'
'released_'
'pre'
'métodos_'
'middle_'
'mental_'
'measure_'
'maximum_'
'id_'
'historical_'
'forth_'
'formal_'
'fisheries_'
'fields_'
'farmers_'
'extent_'
'espero_'
'entender_'
'electronic_'
'efficiency_'
'dangerous_'
'cuya_'
'controlar_'
'condición_'
'compromise_'
'compartir_'
'church_'
'challenge_'
'buenas_'
'born_'
'asimismo_'
'ario_'
'Za'
'Sur_'
'Ru'
'Restaurant_'
'Muchas_'
'Mary_'
'Lo'
'José_'
'Iran_'
'Ho'
'Exteriores_'
'Dar'
'DO_'
'Covenant_'
'Bolivia_'
'Ba'
'Aún_'
'5'
'43_'
'è'
'vos_'
'violations_'
'verdadero_'
'up'
'transfer_'
'tra'
'tiempos_'
'threat_'
'technologies_'
'supporting_'
'supone_'
'super'
'summer_'
'soluciones_'
'sleep_'
'reforms_'
'recognized_'
'recognition_'
'pérdida_'
'páginas_'
'pursuant_'
'pul'
'proporciona_'
'proper_'
'prestar_'
'preparation_'
'posibles_'
'perspectiva_'
'permanente_'
'origin_'
'networks_'
'nation_'
'mierda_'
'micro'
'looks_'
'llamada_'
'languages_'
'laid_'
'ko'
'ista_'
'isla_'
'ine_'
'independiente_'
'html_'
'guess_'
'ges_'
'generally_'
'garden_'
'followed_'
'feeling_'
'evidente_'
'escuelas_'
'elemento_'
'developments_'
'creer_'
'correspondientes_'
'conclusión_'
'ch'
'bi'
'baja_'
'audio_'
'aplicaciones_'
'antiguo_'
'alojamiento_'
'agrícola_'
'Street_'
'Saint_'
'SO'
'Rica_'
'RO'
'Q_'
'Panel_'
'OF_'
'NE'
'Me'
'Ka'
'Junta_'
'EL_'
'EADS_'
'Desk_'
'Civil_'
'CE'
'Asociación_'
'AL'
'?'
'53_'
'49_'
'23'
'07_'
'04_'
'. "_'
'-¿_'
'ä'
'worry_'
'vosotros_'
'vi'
'venta_'
'truly_'
'tools_'
'terrace_'
'terceros_'
'target_'
'supposed_'
'south_'
'shared_'
'rte_'
'restaurants_'
'responsabilidades_'
'requiere_'
'represent_'
'rd_'
'propuesto_'
'promoting_'
'para'
'pagar_'
'ou_'
'método_'
'moving_'
'moderno_'
'miedo_'
'map_'
'manage_'
'limit_'
'le'
'ko_'
'jugar_'
'izquierda_'
'infrastructure_'
'improvement_'
'immigration_'
'haven_'
'golf_'
'goal_'
'ging_'
'gi'
'foot_'
'fighting_'
'faith_'
'expresión_'
'encontramos_'
'empezar_'
'distintas_'
'directo_'
'dated_'
'cs_'
'comunitario_'
'comentarios_'
'cold_'
'clic_'
'celebrada_'
'candidatos_'
'brother_'
'boys_'
'bilateral_'
'autoridad_'
'author_'
'aspecto_'
'apartamento_'
'agentes_'
'actualidad_'
'Yugoslavia_'
'Those_'
'TO_'
'RE'
'Permanent_'
'Ol'
'Norte_'
'Ni'
'Netherlands_'
'Mont'
'Mo'
'Japón_'
'IN_'
'IC'
'Herzegovina_'
'Guinea_'
'Ecuador_'
'Económico_'
'EEC_'
'Canadá_'
'CA'
'Bulgaria_'
'Australia_'
'Arab_'
'Any_'
'Administración_'
'AC_'
'? ¿_'
'41_'
'1988_'
'"?_'
'áreas_'
'á'
'|_'
'zar_'
'voz_'
'velocidad_'
'vehículos_'
'vehicles_'
'unless_'
'territorial_'
'so'
'sion_'
'ser'
'segura_'
'schools_'
'saben_'
'rta'
'reconoce_'
'produced_'
'previsto_'
'pleased_'
'payment_'
'opening_'
'officials_'
'mesa_'
'luchar_'
'links_'
'lectura_'
'ise_'
'ini'
'in'
'images_'
'ical_'
'ial_'
'husband_'
'huh_'
'hice_'
'gotta_'
'gar'
'forget_'
'flights_'
'extra'
'enti'
'electrónico_'
'electoral_'
'effectively_'
'dra'
'dolor_'
'detalles_'
'deberíamos_'
'da'
'costa_'
'cielo_'
'cho'
'capacitación_'
'campaign_'
'black_'
'bases_'
'average_'
'announced_'
'alcohol_'
'acaba_'
'absolutely_'
'Un'
'Sub'
'Spa_'
'Protocolo_'
'Política_'
'Policy_'
'OS_'
'Note_'
'Man'
'MO'
'He'
'Having_'
'Gi'
'Gentoo_'
'Do'
'Cor'
'Cha'
'Center_'
'Before_'
'Acción_'
'99_'
'85_'
'26'
'10'
'09_'
'/'
'. ¡_'
'+_'
'únicamente_'
'ándose_'
'watch_'
'voto_'
'treaty_'
'tive_'
'thousands_'
'ter'
'teachers_'
'supports_'
'structures_'
'spacious_'
'sites_'
'sha'
'se'
'risks_'
'progreso_'
'pasó_'
'otherwise_'
'mismas_'
'method_'
'me'
'líneas_'
'lla_'
'lines_'
'laboral_'
'jefe_'
'ja'
'is'
'infraestructura_'
'influence_'
'identified_'
'holding_'
'guide_'
'goals_'
'ft_'
'expression_'
'estrategias_'
'eo_'
'ea_'
'destrucción_'
'den'
'demanda_'
'declaraciones_'
'deberán_'
'correct_'
'contribución_'
'consiste_'
'confidence_'
'compared_'
'comfort_'
'combatir_'
'chicos_'
'character_'
'celebrar_'
'capable_'
'breve_'
'ble'
'bility_'
'bedrooms_'
'attack_'
'ated_'
'aprobó_'
'anexo_'
'acondicionado_'
'Ya'
'TA'
'Rules_'
'Penal_'
'News_'
'Mon'
'María_'
'Islands_'
'Inc_'
'IS'
'Greece_'
'Google_'
'Ford_'
'Espera_'
'Day_'
'Cuándo_'
'Corte_'
'Bur'
'Breakfast_'
'Airport_'
'24'
'06_'
','
'wrote_'
'wood_'
'verano_'
'ver'
'twenty_'
'tren_'
'tree_'
'tourism_'
'touch_'
'tional_'
'te'
'suffering_'
'sto'
'socios_'
'señal_'
'seeing_'
'reduced_'
'pu'
'propone_'
'progresos_'
'presentes_'
'powerful_'
'piscina_'
'partner_'
'particularmente_'
'oral_'
'ocasión_'
'nations_'
'mu'
'moral_'
'menor_'
'marca_'
'learning_'
'keeping_'
'interested_'
'inmigración_'
'indica_'
'histórico_'
'historic_'
'herramientas_'
'granted_'
'fumadores_'
'francés_'
'fixed_'
'film_'
'figura_'
'factores_'
'existencia_'
'existence_'
'exigencias_'
'evolución_'
'errors_'
'eliminar_'
'ele'
'dy_'
'download_'
'dichas_'
'debo_'
'crimes_'
'continuing_'
'collaboration_'
'cion_'
'ciencia_'
'cha'
'budgetary_'
'bal'
'arrangements_'
'applicable_'
'accepted_'
'Ven_'
'Todas_'
'Sure_'
'Siempre_'
'Plaza_'
'Peter_'
'Nosotros_'
'Mientras_'
'Ma'
'Listen_'
'LA'
'Je'
'Fax_'
'Education_'
'Cuál_'
'Club_'
'Carlos_'
'Ca'
'CO_'
'Buenos_'
'Au'
'AR'
'800_'
'29'
'11'
'', _'
'… _'
'wine_'
'vulnerable_'
'voting_'
'tribunal_'
'thy_'
'tar'
'suma_'
'submit_'
'stable_'
'sports_'
'solidaridad_'
'sharing_'
'satellite_'
'revolution_'
'responsibilities_'
'reporting_'
'refugees_'
'reformas_'
'race_'
'proporcionar_'
'probablemente_'
'prior_'
'plano_'
'permanent_'
'path_'
'par'
'outcome_'
'negocio_'
'mínimo_'
'materiales_'
'mainly_'
'lies_'
'happens_'
'fácilmente_'
'focused_'
'exposición_'
'europeas_'
'establece_'
'ess_'
'eri'
'efectiva_'
'earlier_'
'discuss_'
'detrás_'
'decidió_'
'cree_'
'consultation_'
'closely_'
'clara_'
'civilian_'
'candidate_'
'cabe_'
'c'
'asking_'
'ancient_'
'altos_'
'alternative_'
'affect_'
'actuar_'
'acontecimientos_'
'abordar_'
'abierta_'
'UK_'
'Tell_'
'System_'
'Suite_'
'SE'
'Protection_'
'Países_'
'Paz_'
'O'
'Its_'
'Instituto_'
'For'
'California_'
'Algunos_'
'38'
'31'
'0'
'-'
' ♪_'
' !_'
'útil_'
'í'
'xa'
'write_'
'tur'
'transparency_'
'transferencia_'
'tivo_'
'terroristas_'
'tercera_'
'ta'
'swimming_'
'spend_'
'sirve_'
'sin'
'revised_'
'respuestas_'
'represents_'
'rendimiento_'
'quizás_'
'puesta_'
'per'
'pedir_'
'papá_'
'ou'
'ora'
'opiniones_'
'offices_'
'ne'
'llegó_'
'llega_'
'llamar_'
'jurídico_'
'ira_'
'institution_'
'indicated_'
'impossible_'
'immediate_'
'ible_'
'hotels_'
'herramienta_'
'hand'
'gun_'
'green_'
'geo'
'ga'
'fund_'
'follows_'
'eye_'
'ethnic_'
'estudiantes_'
'estrecha_'
'eras_'
'encuentro_'
'empleados_'
'elected_'
'do'
'disc'
'died_'
'defined_'
'cre'
'cra'
'courts_'
'coste_'
'conforme_'
'concrete_'
'comprar_'
'communications_'
'cer'
'carga_'
'ber'
'añadir_'
'availability_'
'auto'
'aprobado_'
'anti'
'amenaza_'
'al'
'advantage_'
'adicional_'
'acto_'
'accounts_'
'Wait_'
'USA_'
'UNCTAD_'
'Secretariat_'
'Sala_'
'Ro'
'Pat'
'Inn_'
'DE'
'Bu'
': '
'86_'
'4'
'21'
'20'
'  _'
'฀_'
'ér'
'°_'
'zación_'
'z'
'ures_'
'un'
'transición_'
'totally_'
'tarjeta_'
'suficientes_'
'struggle_'
'structural_'
'sm_'
'relativos_'
'realizados_'
'próximos_'
'protected_'
'propósito_'
'presión_'
'positivo_'
'pienso_'
'pidió_'
'photos_'
'percent_'
'oli'
'oeste_'
'obras_'
'notes_'
'namely_'
'murder_'
'membership_'
'mecanismo_'
'lar_'
'kid_'
'install_'
'ins_'
'innovation_'
'inicial_'
'infantil_'
'huéspedes_'
'host_'
'hip_'
'har'
'grounds_'
'gre'
'funciona_'
'fresh_'
'forced_'
'for'
'figures_'
'feature_'
'facing_'
'explotación_'
'expect_'
'entirely_'
'elegant_'
'eh_'
'diversidad_'
'desire_'
'delito_'
'dejar'
'crimen_'
'continuar_'
'commitments_'
'bet_'
'beaches_'
'auto_'
'attractions_'
'ani'
'ale'
'Uganda_'
'Tierra_'
'Station_'
'Salvador_'
'Nor'
'Mar'
'IN'
'Forum_'
'Facilities_'
'Energy_'
'ER_'
'Des'
'DVD_'
'DO'
'Comercio_'
'CI'
'BI'
'Ale'
'Ala'
'Afganistán_'
'98_'
'97_'
' —_'
'«_'
'weapon_'
'village_'
'vecinos_'
'var'
'ua'
'té_'
'tis'
'thou_'
'tendrán_'
'temporary_'
'tele'
'tec'
'suelo_'
'spoke_'
'socio_'
'skin_'
'sitios_'
'siete_'
'sell_'
'sanctions_'
'sales_'
'resource_'
'recommends_'
'properly_'
'proceedings_'
'prepare_'
'pointed_'
'perspectivas_'
'personales_'
'perfectamente_'
'peor_'
'paragraphs_'
'ofertas_'
'nts_'
'nti'
'noticias_'
'muerto_'
'miss_'
'launched_'
'ker_'
'investigaciones_'
'introduction_'
'interesante_'
'indígenas_'
'ilidad_'
'iglesia_'
'idas_'
'guía_'
'gusto_'
'ger_'
'fotos_'
'firm_'
'figure_'
'ff_'
'failed_'
'expenditure_'
'evaluation_'
'etapa_'
'esfera_'
'ep'
'en'
'diseases_'
'dia'
'device_'
'determined_'
'described_'
'delitos_'
'definición_'
'cuál_'
'cuidado_'
'costes_'
'convertido_'
'controles_'
'consumer_'
'construir_'
'constituyen_'
'compañía_'
'collection_'
'chu'
'chica_'
'che'
'category_'
'cards_'
'capítulo_'
'ca'
'bienestar_'
'beneficio_'
'becoming_'
'ard_'
'animals_'
'an'
'Would_'
'WTO_'
'Vi'
'Ti'
'TI'
'Sweden_'
'Su'
'Smoking_'
'Ser'
'Second_'
'Sam_'
'París_'
'Or_'
'Nada_'
'Malta_'
'Mac'
'King_'
'Islamic_'
'IT'
'Gri'
'Ge'
'GE'
'Federación_'
'Does_'
'Cu'
'Cap'
'Ban'
'Annex_'
'?"_'
'50'
'1989_'
'», _'
'º_'
'yours_'
'xi'
'votado_'
'ul'
'ts'
'to'
'targets_'
'tareas_'
'square_'
'showed_'
'she'
'selected_'
'rla_'
'reflect_'
'recordar_'
'prestación_'
'podamos_'
'plant_'
'planificación_'
'piece_'
'perfecto_'
'os'
'ory_'
'ona_'
'oficinas_'
'obligation_'
'north_'
'ng'
'mus'
'multi'
'muertos_'
'modelos_'
'mit'
'mini_'
'kitchen_'
'j_'
'interno_'
'interesados_'
'inter'
'insurance_'
'incluyen_'
'hicieron_'
'hen'
'haces_'
'ght_'
'gain_'
'fourth_'
'formato_'
'fore'
'finalmente_'
'figuran_'
'fe'
'extension_'
'employees_'
'eight_'
'eficiencia_'
'ee_'
'ea'
'duración_'
'dollars_'
'diferencias_'
'deuda_'
'destacar_'
'define_'
'decidido_'
'cualquiera_'
'costo_'
'contract_'
'conflicts_'
'compatible_'
'cla'
'chico_'
'char'
'carrera_'
'car'
'bu'
'broad_'
'bra'
'bo'
'basada_'
'back'
'ampliar_'
'alt'
'aims_'
'agricultura_'
'Wo'
'Venezuela_'
'Va'
'Use_'
'Uni'
'Tras_'
'Rome_'
'Prime_'
'Microsoft_'
'Michael_'
'Li'
'Jack_'
'Irán_'
'Inter'
'Financial_'
'Family_'
'Ellos_'
'Chinese_'
'CR'
'BA'
'Another_'
'94_'
'25'
'. “_'
'"'
'! ¡_'
'ár'
'ye'
'ya'
'worldwide_'
'via'
'ut'
'ul_'
'ual_'
'tea_'
'tan'
'substantial_'
'speech_'
'soporte_'
'sexo_'
'sen'
'rs'
'rlos_'
'ret'
'resulting_'
'recorded_'
'reasonable_'
'r'
'primeros_'
'prevenir_'
'precisamente_'
'post'
'petición_'
'pasos_'
'pasando_'
'pa'
'oído_'
'obtain_'
'observación_'
'ob'
'nearly_'
'movilidad_'
'mer'
'menu_'
'mamá_'
'maintenance_'
'ji'
'iva_'
'ism_'
'interpretation_'
'helping_'
'hambre_'
'guarantees_'
'greatest_'
'frecuencia_'
'fla'
'expresar_'
'exige_'
'eventos_'
'evening_'
'estructuras_'
'equipos_'
'entidades_'
'encontrado_'
'ear_'
'dro'
'draw_'
'dora_'
'digo_'
'destruction_'
'deporte_'
'declaration_'
'culpa_'
'crees_'
'courses_'
'counter_'
'continues_'
'consultations_'
'considerar_'
'congratulate_'
'conducted_'
'competitiveness_'
'comenzar_'
'cierta_'
'ci'
'chosen_'
'causes_'
'cariño_'
'buffet_'
'buenos_'
'ari'
'aprovechar_'
'appointed_'
'aircraft_'
'affairs_'
'adoptadas_'
'adecuado_'
'ad'
'acting_'
'aba_'
'Vo'
'Sus_'
'Star_'
'Si'
'Shi'
'Secondly_'
'Sea_'
'Rotary_'
'Parece_'
'Pa'
'PO'
'Occidental_'
'NGOs_'
'Millennium_'
'MI'
'MA'
'Londres_'
'Her_'
'Har'
'Francisco_'
'Far'
'Cra'
'Cooperación_'
'CO'
'Bo'
'AT'
'1987_'
'195'
'03_'
'01'
', (_'
'! '
'época_'
'áis_'
'weight_'
'vuelo_'
'volumen_'
'venido_'
'valuable_'
'une_'
'unable_'
'u'
'tío_'
'tras'
'tierras_'
'th'
'tar_'
'sur'
'stuff_'
'strongly_'
'standing_'
'sitting_'
'sacar_'
'rios_'
'reducing_'
'ques_'
'prevé_'
'piel_'
'permitirá_'
'penal_'
'pa_'
'ocurre_'
'obligación_'
'oa'
'niñas_'
'naciones_'
'muestran_'
'motor_'
'machine_'
'luxury_'
'lin'
'leaving_'
'judge_'
'intercambio_'
'instance_'
'inmediato_'
'impedir_'
'ii_'
'humanidad_'
'hubo_'
'her'
'gra'
'gate_'
'furnished_'
'forests_'
'fellow_'
'fa'
'exclusive_'
'escribir_'
'equipadas_'
'enta'
'eliminación_'
'ek'
'een_'
'ee'
'duro_'
'drawn_'
'directrices_'
'detención_'
'despite_'
'demostrado_'
'cuyo_'
'controls_'
'consensus_'
'comprobar_'
'compliance_'
'competencias_'
'command_'
'colleagues_'
'cio_'
'borders_'
'ber_'
'bebé_'
'balanced_'
'avances_'
'asociados_'
'appreciate_'
'altas_'
'als_'
'alive_'
'alimentaria_'
'agrícolas_'
'advance_'
'adi'
'ables_'
'UNESCO_'
'To'
'Thus_'
'TS_'
'Section_'
'Really_'
'Pro'
'Per'
'OR_'
'Network_'
'LO'
'Ku'
'Greek_'
'Fe'
'FI'
'Ed'
'División_'
'De'
'Código_'
'Code_'
'Christian_'
'Child_'
'Box_'
'Be_'
'Amsterdam_'
'AN'
'AC'
'? '
': ¿_'
'vuelos_'
'visible_'
'violación_'
'vigilancia_'
'val'
'usa_'
'técnicos_'
'track_'
'tourist_'
'torture_'
'topic_'
'ti'
'threats_'
'territorios_'
'terminar_'
'telling_'
'suitable_'
'sub_'
'stock_'
'st'
'spread_'
'señalar_'
'salas_'
'sabía_'
'rt_'
'reservas_'
'railway_'
'prohibición_'
'pone_'
'podido_'
'player_'
'planet_'
'partidos_'
'partida_'
'pagos_'
'organisation_'
'opposition_'
'ocupación_'
'numerosas_'
'notice_'
'multilateral_'
'mos'
'mm_'
'mid_'
'metres_'
'mento_'
'memory_'
'meant_'
'mam'
'looked_'
'latter_'
'jurídica_'
'intento_'
'innovación_'
'inmediatamente_'
'ine'
'impuestos_'
'illa_'
'ili'
'igualmente_'
'idiomas_'
'identity_'
'identify_'
'huge_'
'hostels_'
'hogar_'
'ho_'
'healthy_'
'glad_'
'generation_'
'gan'
'gama_'
'foto_'
'flu'
'finance_'
'feet_'
'estándar_'
'estuvo_'
'engine_'
'engaged_'
'enforcement_'
'emisiones_'
'election_'
'effectiveness_'
'disponibilidad_'
'dirigida_'
'dicen_'
'detail_'
'desa'
'defender_'
'corto_'
'contribuciones_'
'contain_'
'conocido_'
'conferences_'
'complejo_'
'comparación_'
'chemical_'
'campos_'
'básicos_'
'bor'
'bo_'
'bly_'
'block_'
'be'
'attempt_'
'atrás_'
'association_'
'ares_'
'ara'
'appeal_'
'apertura_'
'ans_'
'ances_'
'ala_'
'afraid_'
'advice_'
'actively_'
'Vice_'
'Val'
'Storage_'
'Sol_'
'Sir_'
'Santo_'
'Podría_'
'Pacific_'
'OS'
'OC'
'Mu'
'Mor'
'Lisboa_'
'George_'
'Express_'
'Environment_'
'EM'
'Ci'
'CN'
'Bre'
'Ar'
'Agriculture_'
'Administration_'
'@_'
'68_'
'... '
'.. _'
'yo'
'ws_'
'willing_'
'vivo_'
'viajes_'
'verdadera_'
'vemos_'
'utilizando_'
'urge_'
'under'
'tu'
'tradicionales_'
'tenían_'
'talks_'
'suite_'
'ss'
'sor'
'soldiers_'
'showing_'
'sessions_'
'screen_'
'science_'
'rí'
'rre'
'remaining_'
'reaching_'
'quincuagésimo_'
'quiera_'
'putting_'
'precisely_'
'pon'
'po'
'playas_'
'passed_'
'oriental_'
'ongoing_'
'onal_'
'noches_'
'negro_'
'ndi'
'nal_'
'mountains_'
'missing_'
'minorías_'
'menú_'
'madera_'
'logical_'
'lie_'
'leer_'
'ku'
'juegos_'
'jos_'
'jo'
'ire_'
'instrucciones_'
'instalar_'
'ing'
'informal_'
'independencia_'
'incluidas_'
'idos_'
'hermanos_'
'heavy_'
'han'
'generación_'
'fuck_'
'fiesta_'
'feliz_'
'faced_'
'extensive_'
'eti'
'envía_'
'eni'
'enhance_'
'ejército_'
'donantes_'
'difusión_'
'dichos_'
'determinación_'
'demands_'
'del'
'deja_'
'dealt_'
'daño_'
'dark_'
'culo_'
'clima_'
'ciertos_'
'ciertas_'
'cash_'
'carne_'
'buscando_'
'busca_'
'bringing_'
'botón_'
'bedroom_'
'basado_'
'avance_'
'assets_'
'ase'
'army_'
'approval_'
'ala'
'Zi'
'Z_'
'Ucrania_'
'Tri'
'Sta'
'Soviet_'
'Se'
'SA'
'Pues_'
'Pu'
'Open_'
'OEA_'
'Nu'
'Monday_'
'Miss_'
'Market_'
'HA'
'Gu'
'FA'
'Every_'
'Dos_'
'Click_'
'Bush_'
'Bro'
'Bra'
'Ben'
'BE'
'Angola_'
'Amendment_'
'Ac'
'96_'
'700_'
'250_'
'22'
'1980_'
'%, _'
'ze'
'ventajas_'
'utilizado_'
'ure'
'update_'
'unit_'
'tomó_'
'tica_'
'theme_'
'tasa_'
'substances_'
'sts_'
'stars_'
'sized_'
'sensitive_'
'rte'
'retos_'
'reto_'
'resolve_'
'resistencia_'
'registered_'
'reforzar_'
'recommend_'
'recomendación_'
'puso_'
'plane_'
'permita_'
'periods_'
'peri'
'participants_'
'operación_'
'older_'
'ocasiones_'
'numerosos_'
'names_'
'médicos_'
'mon'
'mechanism_'
'mantiene_'
'man'
'mal'
'límites_'
'leg'
'learned_'
'larga_'
'ju'
'inversiones_'
'introduce_'
'intentar_'
'installation_'
'imposible_'
'ill_'
'ide_'
'ici'
'hundred_'
'hor'
'hermano_'
'helped_'
'heads_'
'haré_'
'habitantes_'
'gri'
'gos_'
'go'
'games_'
'format_'
'flow_'
'flight_'
'finding_'
'fi'
'extended_'
'esferas_'
'equally_'
'ens'
'encontrará_'
'element_'
'educational_'
'dre'
'disco_'
'disarmament_'
'devices_'
'determination_'
'detention_'
'detailed_'
'depende_'
'declared_'
'dando_'
'corruption_'
'contrary_'
'consumidor_'
'confirmed_'
'concluded_'
'collective_'
'circulación_'
'ches_'
'changing_'
'causas_'
'cast_'
'café_'
'ban'
'avi_'
'attitude_'
'asylum_'
'as'
'aria_'
'aplica_'
'apartments_'
'amenazas_'
'ame_'
'alia_'
'alguno_'
'agency_'
'absolutamente_'
'ab'
'Which_'
'Texas_'
'Sub_'
'Sri_'
'Sha'
'Relator_'
'Quisiera_'
'Po'
'Pedro_'
'Over_'
'Os'
'Official_'
'OR'
'Nothing_'
'Muchos_'
'Líbano_'
'Lin'
'Life_'
'Ki'
'Joe_'
'Interior_'
'Georgia_'
'Estaba_'
'Del_'
'Chipre_'
'Che'
'Ce'
'Bill_'
'Allah_'
'Afghanistan_'
'Ad'
'AND_'
'AI'
':'
'91_'
'46'
'42'
'40'
'33'
'2016_'
'1985_'
'13'
'...'
' /_'
'éstos_'
'én_'
'zas_'
'yt'
'ware_'
'vuelta_'
'viejo_'
'urgente_'
'urgent_'
'ur'
'unemployment_'
'técnico_'
'terrible_'
'tasks_'
'tain'
'sueño_'
'substance_'
'strike_'
'ste'
'stands_'
'spent_'
'spa_'
'soul_'
'siga_'
'señala_'
'sel'
'seeking_'
'sca'
'satisfacer_'
'ri'
'respond_'
'residuos_'
'reconocer_'
'recommendation_'
'radio'
'probable_'
'prisión_'
'pleasure_'
'plantea_'
'planned_'
'planeta_'
'phase_'
'peso_'
'perder_'
'pea'
'payments_'
'pantalla_'
'pan_'
'pacientes_'
'ow_'
'outstanding_'
'oo'
'officers_'
'ocupa_'
'nto_'
'nse_'
'multi_'
'min'
'messages_'
'merely_'
'married_'
'loved_'
'llas_'
'lia'
'ito_'
'installed_'
'indispensable_'
'increasingly_'
'ility_'
'ilegal_'
'gold_'
'frame_'
'fortalecer_'
'formulación_'
'ford_'
'fix_'
'fica'
'expert_'
'examine_'
'evil_'
'especie_'
'entered_'
'ela_'
'ejemplos_'
'dudas_'
'drop_'
'dom'
'dic'
'cáncer_'
'cursos_'
'correcta_'
'convenient_'
'consumption_'
'consideración_'
'conservación_'
'consenso_'
'cons'
'connections_'
'concretas_'
'colores_'
'coches_'
'cies_'
'books_'
'ball_'
'autobús_'
'aun_'
'asumir_'
'arena_'
'ap'
'anos_'
'ana'
'amended_'
'amar'
'ae'
'aciones_'
'achieving_'
']._'
'Welcome_'
'Viena_'
'Tru'
'Time_'
'Thursday_'
'Sur'
'She'
'Seguro_'
'Project_'
'PE'
'ONU_'
'Mus'
'Milenio_'
'Last_'
'Kar'
'Investigación_'
'Incluso_'
'IV_'
'IS_'
'Hu'
'Give_'
'Fin'
'Er'
'Debemos_'
'Criminal_'
'Control_'
'Congreso_'
'Both_'
'Bas'
'Alliance_'
'AL_'
'88_'
'62_'
'32'
'28'
'27'
'1986_'
'194'
'191'
'16'
'120_'
'" '
' ¡_'
'éndose_'
'é'
'xe'
'waters_'
'ward_'
'volume_'
'vivienda_'
'uri'
'unidades_'
'unde'
'treaties_'
'tre'
'trabajan_'
'tonight_'
'tin'
'stations_'
'sta'
'sought_'
'similares_'
'sho'
'servidor_'
'selección_'
'secretaría_'
'sanciones_'
'ré'
'ru'
'ropa_'
'rico_'
'restaurantes_'
'represented_'
'rent_'
'relax_'
'raising_'
'racial_'
'privada_'
'presidency_'
'presentation_'
'posts_'
'positions_'
'poderes_'
'placer_'
'piensa_'
'perdido_'
'pelo_'
'patrimonio_'
'parecer_'
'one'
'ole'
'ok_'
'oe'
'neo'
'necesito_'
'nción_'
'moved_'
'mor'
'modificación_'
'mid'
'meaning_'
'match_'
'lity_'
'length_'
'leisure_'
'leader_'
'la'
'kilómetros_'
'ki'
'ke'
'ka'
'irse_'
'invited_'
'iniciar_'
'informar_'
'impacto_'
'idades_'
'humanitario_'
'gift_'
'gen'
'ganar_'
'física_'
'financia'
'extranjeros_'
'extend_'
'experiencias_'
'examples_'
'et'
'estimated_'
'estatuto_'
'est'
'específicas_'
'esco'
'encima_'
'encargado_'
'efectivo_'
'du'
'dimensión_'
'dices_'
'delante_'
'decidir_'
'dance_'
'customs_'
'cool_'
'consistent_'
'conditioning_'
'conclude_'
'completed_'
'competitive_'
'cheap_'
'charged_'
'cell_'
'carefully_'
'caja_'
'bur'
'booking_'
'bio'
'award_'
'ata'
'aspect_'
'appears_'
'apartamentos_'
'apart_'
'and'
'amounts_'
'agradable_'
'ador_'
'adoptado_'
'adecuada_'
'ac'
'Yu'
'We'
'US'
'UNI'
'Trans'
'Tom_'
'Tom'
'Tema_'
'TRA'
'TE'
'Sunday_'
'Sou'
'Sección_'
'SS_'
'RA'
'Pur'
'Primera_'
'Primer_'
'Pi'
'Personal_'
'PRO'
'Oriente_'
'Oriental_'
'Once_'
'NT'
'Mi'
'Ji'
'Internal_'
'IP_'
'IP'
'IM'
'Ha'
'HI'
'Go'
'FE'
'Division_'
'Di'
'Dan'
'Cooperation_'
'Chief_'
'Bangladesh_'
'Bajos_'
'93_'
'39'
'34'
'193'
'. – _'
', '_'
'últimas_'
'wishes_'
'welfare_'
'vo'
'visitors_'
'visitar_'
'violation_'
'viernes_'
'vic'
'vi_'
'ven'
'us'
'une'
'undertaken_'
'tó_'
'tura_'
'tivos_'
'till_'
'terminado_'
'tendría_'
'swa'
'stress_'
'streets_'
'sse'
'spot_'
'spiritual_'
'sco'
'sauna_'
'sas_'
'rob'
'rnos_'
'requirement_'
'representan_'
'reglas_'
'registration_'
'ree'
'records_'
'realiza_'
'purchase_'
'pudiera_'
'producir_'
'pretende_'
'ple'
'plants_'
'pin'
'pick_'
'pho'
'parque_'
'paquetes_'
'osi'
'organizar_'
'organiza'
'oposición_'
'non'
'no'
'named_'
'múltiples_'
'mouth_'
'mark_'
'mari'
'log_'
'lmente_'
'llevó_'
'llevan_'
'linked_'
'libres_'
'leaves_'
'ld_'
'lay_'
'jugadores_'
'it'
'ists_'
'integral_'
'impresión_'
'hoteles_'
'hearing_'
'hacemos_'
'gratuita_'
'gratis_'
'governance_'
'gli'
'ge'
'fui_'
'ficación_'
'exploitation_'
'excepción_'
'ets_'
'estadísticas_'
'entiendo_'
'ear'
'dé'
'dul'
'dream_'
'domina'
'división_'
'discapacidad_'
'disaster_'
'din'
'dimension_'
'debajo_'
'danger_'
'conseguido_'
'comunitarios_'
'comply_'
'complace_'
'combination_'
'combinación_'
'ck'
'cifras_'
'cientos_'
'casas_'
'cartas_'
'carrying_'
'bol'
'beauty_'
'bear_'
'barrio_'
'bank_'
'ay_'
'ations_'
'ataques_'
'ass_'
'arse_'
'allocated_'
'achievement_'
'ably_'
'Yo'
'YOU_'
'Universal_'
'Unfortunately_'
'Third_'
'TO'
'Sobre_'
'Sim'
'Sam'
'SE_'
'Robert_'
'Ram'
'RD'
'Question_'
'Proyecto_'
'Portuguese_'
'Poland_'
'Podemos_'
'Permanente_'
'PN'
'PC'
'ONG_'
'ND'
'Ministros_'
'Management_'
'Labour_'
'Ir'
'Indeed_'
'Hijo_'
'Gobiernos_'
'Ginebra_'
'Fer'
'Excuse_'
'Euro'
'Espíritu_'
'Eli'
'EN'
'Dra'
'Defensa_'
'Congress_'
'CIA_'
'CD'
'Bou'
'Bio'
'Belgium_'
'Bar'
'Area_'
'Ambassador_'
'Ali'
'AD_'
'35'
'('
' #_'
'”_'
'votar_'
'und_'
'tomando_'
'symptoms_'
'superficie_'
'stra'
'ssi'
'solicitudes_'
'soldados_'
'shops_'
'ships_'
'server_'
'seriously_'
'seres_'
'sections_'
'scene_'
'san'
'sali'
'sac'
'río_'
'ruido_'
'rop'
'ries_'
'religion_'
'regreso_'
'puerto_'
'ption_'
'president_'
'pm_'
'perfectly_'
'out'
'ought_'
'osas_'
'orientación_'
'opposed_'
'oni'
'ola_'
'occidental_'
'números_'
'ngs_'
'máxima_'
'misiones_'
'mejoras_'
'marketing_'
'managed_'
'lovely_'
'llevado_'
'lift_'
'iste_'
'ish_'
'involving_'
'internos_'
'informó_'
'independientes_'
'ima'
'im_'
'ile'
'idi'
'icas_'
'hundreds_'
'hago_'
'ha'
'guidance_'
'gue_'
'gh'
'gen_'
'ged_'
'fy_'
'fulfil_'
'fuel_'
'fre'
'fle'
'filled_'
'far'
'facts_'
'experiences_'
'español_'
'escuchar_'
'ería_'
'equilibrio_'
'elaborar_'
'ela'
'eficaces_'
'dura_'
'dosis_'
'diversity_'
'disponen_'
'differences_'
'determinadas_'
'describe_'
'der'
'delivery_'
'delay_'
'degree_'
'dedicated_'
'dear_'
'daños_'
'cuyos_'
'contaminación_'
'confortable_'
'comportamiento_'
'comment_'
'citizen_'
'cing_'
'ciento_'
'centres_'
'centr'
'bre'
'bin'
'beings_'
'becomes_'
'banda_'
'ay'
'automatically_'
'asesinato_'
'antigua_'
'ag'
'adultos_'
'abre_'
'Ukraine_'
'Turkish_'
'Tu'
'Tro'
'Tor'
'Three_'
'Tar'
'Tan'
'Staff_'
'So'
'SH'
'Rwanda_'
'Re'
'Qui'
'Political_'
'Pan'
'PPE_'
'Otro_'
'Nuclear_'
'Nigeria_'
'Mari'
'Located_'
'LE'
'Ke'
'Ju'
'Is'
'Implementation_'
'Hag'
'Framework_'
'Firstly_'
'Finalmente_'
'FR_'
'Eastern_'
'Despite_'
'Decision_'
'Cultural_'
'Countries_'
'Burundi_'
'BU'
'Az'
'Avi'
'An'
'AM'
'AD'
'; '
'9'
'89_'
'87_'
'71_'
'60'
'02'
'...?_'
'- '
'…_'
'ín'
'ático_'
'yr'
'window_'
'west_'
'wall_'
'ventana_'
'uz'
'ura'
'uns'
'tribunales_'
'tratados_'
'tors_'
'toneladas_'
'title_'
'terraza_'
'tengamos_'
'sustancias_'
'sun'
'sucede_'
'statistics_'
'song_'
'solar_'
'smoking_'
'sli'
'secretariat_'
'salvo_'
'ró_'
'ride_'
'ress_'
'remote_'
'remained_'
'rede'
'recurso_'
're'
'ras'
'qui'
'publication_'
'prove_'
'promise_'
'preparing_'
'preocupaciones_'
'pp'
'posee_'
'politics_'
'pol'
'poblaciones_'
'petróleo_'
'permitido_'
'pen'
'ordenador_'
'opposite_'
'opinions_'
'operativo_'
'ona'
'objetos_'
'nk'
'ney_'
'nearby_'
'murió_'
'motion_'
'mobile_'
'miras_'
'minuto_'
'matrimonio_'
'mani'
'límite_'
'lujo_'
'lit'
'listo_'
'launch_'
'kernel_'
'ken'
'ked_'
'jardín_'
'itu'
'irre'
'introducción_'
'integridad_'
'inclusión_'
'ila'
'housing_'
'holiday_'
'heaven_'
'hablado_'
'grateful_'
'gh_'
'genuine_'
'fri'
'franc'
'fit_'
'fija'
'export_'
'expansion_'
'estados_'
'específicos_'
'ence_'
'ena_'
'emergencia_'
'elo_'
'eli'
'driving_'
'dll_'
'dispositivo_'
'dishes_'
'discurso_'
'delegations_'
'có_'
'có'
'currency_'
'cu'
'crea_'
'crazy_'
'covers_'
'corresponde_'
'contrato_'
'constante_'
'consideran_'
'conducta_'
'concreto_'
'compañías_'
'comienzo_'
'climático_'
'clients_'
'cit'
'cerrado_'
'celebración_'
'catch_'
'carretera_'
'cancer_'
'cam'
'button_'
'bro'
'bri'
'boat_'
'blo'
'birth_'
'bb'
'batalla_'
'associations_'
'arre'
'armonización_'
'arios_'
'are'
'apoya_'
'anymore_'
'ane'
'amo_'
'alcanzado_'
'afecta_'
'adecuadas_'
'activamente_'
'abogado_'
'aba'
'`_'
'Wow_'
'UNDP_'
'Toma_'
'Support_'
'Royal_'
'Procedure_'
'Police_'
'Pol'
'Pin'
'Perú_'
'Nevertheless_'
'Nadie_'
'Myanmar_'
'Ministers_'
'MP'
'Luggage_'
'Lanka_'
'Lady_'
'Joint_'
'Jerusalem_'
'Jean_'
'James_'
'Indonesia_'
'Hour_'
'Honduras_'
'Home_'
'Her'
'Grecia_'
'GN'
'GI'
'GA'
'Fu'
'Foundation_'
'Fil'
'Fa'
'Estonia_'
'Deposit_'
'Daniel_'
'Da'
'Cyprus_'
'Com'
'Ciudad_'
'Chic'
'Can'
'Bus'
'Bruselas_'
'Britain_'
'Bi'
'Bel'
'Algunas_'
'Air_'
'69_'
'66_'
'66'
'$ _'
' > _'
' +_'
'ños_'
'worst_'
'warning_'
'vídeo_'
'visitas_'
'videos_'
'versiones_'
'vers'
'vale_'
'udi'
'tuvieron_'
'tropical_'
'tri'
'transition_'
'tori'
'tomado_'
'thereby_'
'testing_'
'tarifas_'
'síntomas_'
'summit_'
'suggested_'
'storage_'
'ster'
'spa'
'son'
'slow_'
'ski_'
'sister_'
'sf'
'señalado_'
'sede_'
'secret_'
'seat_'
'seas_'
'sb'
'sar'
'rot'
'ros'
'rock_'
'ro'
'river_'
'rica'
'ric'
'reservation_'
'repeat_'
'remind_'
'reg'
'recientes_'
'rdi'
'qualified_'
'push_'
'puertas_'
'provincia_'
'procedentes_'
'prisoners_'
'previa_'
'preparado_'
'positiva_'
'porta'
'penalty_'
'packages_'
'ordered_'
'om_'
'oh_'
'og'
'od'
'ocupado_'
'ocho_'
'obstáculos_'
'nombres_'
'nci'
'nar'
'mutual_'
'mountain_'
'models_'
'mi'
'meters_'
'mencionar_'
'mat'
'margen_'
'maintained_'
'machines_'
'lunch_'
'ls'
'logros_'
'lo'
'llamamiento_'
'libertades_'
'las'
'ks'
'kinds_'
'joined_'
'iri'
'involve_'
'intergovernmental_'
'innocent_'
'inform_'
'indicators_'
'incorporated_'
'immigrants_'
'ight_'
'idioma_'
'ia'
'humanitaria_'
'hu'
'hood_'
'hi'
'ham'
'grow_'
'forecast_'
'finished_'
'feed_'
'extremadamente_'
'expectations_'
'excelentes_'
'everybody_'
'esenciales_'
'ento_'
'enterprises_'
'energética_'
'emphasis_'
'eme_'
'elegante_'
'dis'
'dignidad_'
'dese'
'desarrollado_'
'deliver_'
'decirle_'
'de'
'cuestionario_'
'cru'
'corner_'
'core_'
'copy_'
'copia_'
'conversaciones_'
'contenidos_'
'contemporary_'
'containing_'
'connected_'
'components_'
'competent_'
'compensation_'
'compara'
'comenzó_'
'col'
'cohesion_'
'coa'
'cli'
'ciclo_'
'chapter_'
'cargos_'
'campaigns_'
'burden_'
'bosques_'
'ben'
'bell'
'background_'
'aside_'
'arti'
'aron_'
'arising_'
'ara_'
'aquel_'
'ali'
'alemán_'
'afirma_'
'ace'
'acceptable_'
'abo'
'Zimbabwe_'
'Van_'
'VI_'
'Uruguay_'
'UL'
'Skype_'
'Science_'
'School_'
'SU'
'Rio_'
'Review_'
'Protección_'
'Prensa_'
'Par'
'Otra_'
'Notes_'
'Noruega_'
'Mur'
'Mer'
'Media_'
'Luxembourg_'
'Liberia_'
'Irish_'
'Il'
'Hong_'
'Henry_'
'Governing_'
'Ger'
'Gay_'
'Fundación_'
'Friendly_'
'Force_'
'FO'
'Everything_'
'Eritrea_'
'Egypt_'
'Educación_'
'ES'
'Dec'
'Comisionado_'
'Christmas_'
'CT'
'CP_'
'Brussels_'
'Berlin_'
'Authority_'
'Asi'
'As'
'Anti'
'Amnesty_'
'Ag'
'AS'
'78_'
'17'
' ; _'
'ü'
'ó'
'Á'
'wa_'
'votos_'
've'
'utilizan_'
'uel'
'trees_'
'transparent_'
'tory_'
'tiendas_'
'there'
'theory_'
'ters_'
'tables_'
'suggest_'
'stupid_'
'stressed_'
'sold_'
'sim'
'significantly_'
'sides_'
'sh'
'sentence_'
'seminarios_'
'scheme_'
'sation_'
'sat'
'sand'
'ry'
'rurales_'
'respetar_'
'respective_'
'reply_'
'repair_'
'rein'
'reducido_'
'realizan_'
'ra'
'quen_'
'quedar'
'quarter_'
'province_'
'profit_'
'processing_'
'probar_'
'pro'
'privados_'
'previously_'
'ponerse_'
'po_'
'pla'
'pies_'
'pictures_'
'períodos_'
'permiten_'
'pensando_'
'película_'
'patients_'
'palestinos_'
'ote'
'orders_'
'occur_'
'nueve_'
'ns'
'nor'
'nin'
'negociación_'
'nación_'
'mur'
'modos_'
'modernas_'
'mistake_'
'missions_'
'mir'
'minority_'
'mentos_'
'mencionado_'
'med_'
'libros_'
'lady_'
'ip'
'intention_'
'inmigrantes_'
'inferior_'
'indicadores_'
'incremento_'
'imos_'
'im'
'illo_'
'iba'
'hy'
'ht'
'hs_'
'houses_'
'hin'
'hiciste_'
'helps_'
'harm_'
'habido_'
'globalización_'
'gar_'
'futuras_'
'fruit_'
'fomento_'
'fly_'
'firma_'
'finish_'
'female_'
'everywhere_'
'estatales_'
'esca'
'ene_'
'employed_'
'ement_'
'displayed_'
'dijeron_'
'diario_'
'dia_'
'det'
'desempeñar_'
'definitely_'
'debi'
'darle_'
'dar'
'cí'
'crímenes_'
'creciente_'
'count_'
'corrupción_'
'convinced_'
'conventions_'
'contracts_'
'considerado_'
'consciente_'
'conoce_'
'comprender_'
'comodidades_'
'combina'
'closer_'
'charming_'
'cas'
'cars_'
'capacidades_'
'cally_'
'by'
'broken_'
'bit'
'beds_'
'bar'
'avanzar_'
'autores_'
'ausencia_'
'au'
'ati'
'atender_'
'ataque_'
'assume_'
'asilo_'
'artists_'
'arro'
'approximately_'
'applies_'
'altura_'
'alquiler_'
'almente_'
'afternoon_'
'afirma'
'actitud_'
'absence_'
'aa'
'Win'
'Wednesday_'
'UC'
'Todavía_'
'TH'
'Sá'
'Sustainable_'
'Space_'
'Sho'
'Recordando_'
'Perhaps_'
'Old_'
'Next_'
'NA'
'Mom_'
'Met'
'Max_'
'Mar_'
'Man_'
'Len'
'Legal_'
'Lea'
'Lar'
'Kong_'
'Hor'
'Guest_'
'Gre'
'Friday_'
'Frank_'
'Flo'
'FOR_'
'Están_'
'Egipto_'
'EP'
'Doctor_'
'Co_'
'Cho'
'Cer'
'Bye_'
'Bor'
'Ben_'
'Anexo_'
'Algo_'
'Aires_'
'Agencia_'
'8'
'76_'
'%'
'él'
'»'
'zado_'
'wise_'
'wind_'
'water'
'wa'
'vuelve_'
'vive_'
'va'
'ust'
'use'
'university_'
'understood_'
'tratando_'
'tradición_'
'tiva_'
'tit'
'textos_'
'tel_'
'technological_'
'surrounded_'
'suficientemente_'
'subsequent_'
'strengthened_'
'store_'
'sociedades_'
'ski'
'signs_'
'shed_'
'seventh_'
'sets_'
'scar'
'runs_'
'route_'
'rig'
'revolución_'
'resistance_'
'realize_'
'ral_'
'quer'
'q_'
'pérdidas_'
'pursue_'
'publicado_'
'primeras_'
'possibilities_'
'poll'
'pocas_'
'platform_'
'periodistas_'
'peacekeeping_'
'participan_'
'parad'
'palestino_'
'pages_'
'ort'
'ola'
'offence_'
'nº_'
'nta'
'niña_'
'médica_'
'moneda_'
'mom_'
'modificar_'
'mis'
'milk_'
'medi'
'matar'
'marido_'
'mant'
'luck_'
'lli'
'llegada_'
'lle_'
'llama'
'lim'
'letters_'
'lem'
'leche_'
'laugh'
'ization_'
'ium_'
'ique_'
'introducing_'
'interc'
'integrado_'
'innovative_'
'inhabitants_'
'independence_'
'increases_'
'improvements_'
'hostel_'
'hit'
'head'
'hacerse_'
'gro'
'gin'
'ganado_'
'formed_'
'flexibilidad_'
'fitness_'
'firme_'
'fill_'
'fault_'
'fac'
'explore_'
'explained_'
'ex'
'estre'
'estima_'
'ero'
'eo'
'entrega_'
'entities_'
'ens_'
'ended_'
'emente_'
'ema'
'eficiente_'
'east_'
'ds'
'dol'
'displaced_'
'dignity_'
'determine_'
'determinados_'
'descon'
'ders_'
'debía_'
'customer_'
'convertirse_'
'contactos_'
'constitucional_'
'considering_'
'compra_'
'colleague_'
'coast_'
'client_'
'cifra_'
'científica_'
'chief_'
'chi'
'cer_'
'capaces_'
'cambiado_'
'básica_'
'busca'
'bridge_'
'bot'
'boca_'
'bet'
'belleza_'
'beat_'
'bath_'
'bars_'
'barco_'
'aso'
'asa'
'anyway_'
'anuales_'
'amp'
'amazing_'
'ama'
'ak_'
'agricultores_'
'afectan_'
'aero'
'actuación_'
'activa_'
'absoluto_'
'abrir_'
'abe'
'abandon'
'Véase_'
'UR'
'Their_'
'Switzerland_'
'Suiza_'
'Sol'
'Sin'
'Sig'
'Sal'
'Romania_'
'Resolución_'
'Rep'
'RT'
'RES'
'Pra'
'Peace_'
'Panama_'
'Palestina_'
'PP'
'ON_'
'OD'
'Nuevo_'
'Necesito_'
'Necesitamos_'
'NO'
'NL_'
'NI'
'My'
'Mil'
'Mesa_'
'Mel'
'Mas'
'Make_'
'ME_'
'MA_'
'Libro_'
'Lam'
'Lake_'
'It'
'Heating_'
'Foro_'
'Finland_'
'Fine_'
'Eu'
'ED'
'Dinamarca_'
'DR'
'Croatia_'
'Corea_'
'Chapter_'
'Bélgica_'
'Bureau_'
'Bla'
'Bal'
'Administrative_'
'A5_'
'84_'
'80'
'67_'
'14'
'.)_'
'”'
'е'
'а'
'órgano_'
'ór'
'worse_'
'wo'
'welcomes_'
'victim_'
'vessels_'
'vaya_'
'usando_'
'updated_'
'unt'
'unacceptable_'
'ubicado_'
'tuve_'
'ture_'
'treated_'
'tradicional_'
'time'
'thro'
'thousand_'
'teoría_'
'targeted_'
'strength_'
'spoken_'
'sonido_'
'somebody_'
'sixth_'
'sie'
'sick_'
'settlement_'
'seemed_'
'sam'
'rt'
'rp'
'ron'
'rg'
'revista_'
'revisar_'
'restricciones_'
'rest'
'residence_'
'requieren_'
'repercusiones_'
'removed_'
'rejected_'
'reflected_'
'recognize_'
'reca'
'rea'
'puta_'
'pure_'
'prácticamente_'
'proud_'
'primaria_'
'pri'
'presentada_'
'pleasant_'
'plaza_'
'pista_'
'patient_'
'oración_'
'onto_'
'occurred_'
'oc'
'observed_'
'observa_'
'nu'
'normativa_'
'norma_'
'none_'
'necesitas_'
'móvil_'
'mundiales_'
'montañas_'
'moderna_'
'mining_'
'memoria_'
'manual_'
'malo_'
'mag'
'lots_'
'logro_'
'lling_'
'lengua_'
'legitimate_'
'lai'
'lad'
'lación_'
'kar'
'jas_'
'ized_'
'itos_'
'interna_'
'ines_'
'ina'
'imposed_'
'icos_'
'hei'
'hacía_'
'gratuito_'
'ger'
'genera'
'gan_'
'funny_'
'funcionar_'
'fun'
'fortalecimiento_'
'fis'
'fin'
'extraordinario_'
'execution_'
'evaluaciones_'
'enjoyed_'
'encouraged_'
'encontrar'
'encanto_'
'ejercer_'
'ejecuta'
'ei'
'edi'
'economies_'
'duties_'
'driver_'
'dona'
'dogs_'
'disponer_'
'disabled_'
'dirigentes_'
'di'
'descubrir_'
'demo'
'deliberaciones_'
'delegaciones_'
'dejado_'
'definir_'
'decorated_'
'deals_'
'daughter_'
'células_'
'cuentan_'
'cue'
'cua'
'convierte_'
'constitutional_'
'constitute_'
'conexiones_'
'comisiones_'
'claridad_'
'científicos_'
'characteristics_'
'chain_'
'cen_'
'celebrado_'
'categorías_'
'careful_'
'cami'
'bs_'
'brings_'
'biodiversity_'
'balcony_'
'bab'
'ba'
'attached_'
'att'
'aten'
'ast'
'asociaciones_'
'ano'
'anal'
'ambiental_'
'allowing_'
'ago'
'agents_'
'adora'
'adopting_'
'acoge_'
'accused_'
'UNEP_'
'Ten'
'TE_'
'Supreme_'
'Sometimes_'
'San'
'SC'
'Rou'
'Rico_'
'Relaciones_'
'Recalling_'
'Real_'
'RS'
'RE_'
'Quizá_'
'Pide_'
'Pass'
'Palacio_'
'PR'
'Or'
'OMC_'
'OI'
'New'
'Men'
'Mat'
'Luis_'
'Luego_'
'Lou'
'Light_'
'Leone_'
'Korea_'
'Kir'
'Kara'
'Jehová_'
'Island_'
'Industrial_'
'In'
'Hol'
'Herman'
'Han'
'Guests_'
'Guerra_'
'Gro'
'Garden_'
'Esc'
'Disarmament_'
'Debido_'
'Dad_'
'DA_'
'Cruz_'
'Común_'
'Chamber_'
'CS'
'CON'
'CH'
'Ber'
'Autoridad_'
'Ash'
'Ama'
'Alex_'
'About_'
'AM_'
'74_'
'37'
'.'_'
'." _'
'-, _'
'órdenes_'
'éramos_'
'árboles_'
'¿ _'
'® _'
' '
'zcan_'
'zca_'
'zan'
'yan'
'xt'
'workshops_'
'winter_'
'welcomed_'
'vías_'
'vuestro_'
'vor'
'visiting_'
'violent_'
'vid'
'vegeta'
'vast_'
'ult'
'ues_'
'ud'
'tratado_'
'transfers_'
'tradition_'
'trabaja_'
'totalidad_'
'thi'
'territories_'
'tea'
'surrounding_'
'sumamente_'
'su'
'straight_'
'stone_'
'spaces_'
'southern_'
'sla'
'señaló_'
'season_'
'scheduled_'
'sch'
'sau'
'satisfaction_'
'sal'
'sake_'
'rna'
'rle_'
'res'
'representación_'
'rei'
'regresar_'
'referente_'
'recuperación_'
'recovery_'
'reconciliation_'
'recibe_'
'realizadas_'
'razonable_'
'párrafos_'
'psi'
'propose_'
'prom'
'producers_'
'preguntar'
'ports_'
'por'
'plenty_'
'plenary_'
'periódico_'
'periodo_'
'perfecta_'
'pecado_'
'pattern_'
'parecen_'
'orn'
'ore_'
'op_'
'olvidar_'
'núcleo_'
'noise_'
'nit'
'nine_'
'nie'
'nia'
'nda_'
'musical_'
'mp'
'minibar_'
'metal_'
'merece_'
'meat_'
'mb'
'maneja'
'mala_'
'mai'
'mac'
'lógica_'
'líder_'
'ly'
'lea'
'kilo'
'kes_'
'judges_'
'journalists_'
'ities_'
'israelíes_'
'interface_'
'intelectual_'
'integrar_'
'instructions_'
'institución_'
'influencia_'
'incrementar_'
'impressive_'
'identidad_'
'id'
'ica'
'ians_'
'hr'
'hot'
'hopes_'
'he'
'handling_'
'hagan_'
'guilty_'
'geni'
'gast'
'gases_'
'ft'
'freedoms_'
'fiscales_'
'finds_'
'faces_'
'extranjero_'
'extensión_'
'específica_'
'ere'
'era'
'enviar_'
'ensa'
'eno'
'encouraging_'
'ell_'
'editor_'
'economías_'
'drinking_'
'drawing_'
'dise'
'diferencia'
'destroy_'
'desastres_'
'departments_'
'department_'
'demostrar_'
'definition_'
'default_'
'def'
'decía_'
'dará_'
'cárcel_'
'cámaras_'
'cuándo_'
'cuisine_'
'creen_'
'credit'
'counter'
'coordinated_'
'contratos_'
'continua_'
'conservation_'
'configuración_'
'conducir_'
'completar_'
'colega_'
'clases_'
'civilians_'
'cin'
'celebrará_'
'cel'
'caught_'
'casco_'
'camp_'
'calor_'
'calm_'
'blanco_'
'biennium_'
'believed_'
'behaviour_'
'banks_'
'attended_'
'art'
'arrival_'
'arma_'
'aren_'
'ape'
'aparte_'
'aparece_'
'ambientales_'
'alojarte_'
'ai'
'agencia_'
'advantages_'
'acu'
'accessible_'
']] _'
'Zu'
'White_'
'Wal'
'WHO_'
'Venga_'
'Us'
'Up_'
'Univision_'
'Tur'
'The'
'Sy'
'Sp'
'Sor'
'Sit'
'Sie'
'Should_'
'Shop_'
'Sab'
'SP'
'Rob'
'Quizás_'
'Pr'
'Pon'
'Pla'
'Pap'
'PSE_'
'PNUD_'
'PM_'
'PI'
'Obama_'
'OM'
'Nº_'
'Nikon_'
'Museo_'
'Min'
'Mike_'
'Martin_'
'Mark_'
'Marco_'
'Luxemburgo_'
'Lei'
'Lebanon_'
'Kyoto_'
'Ky'
'Ken'
'Kal'
'Jun'
'Inter_'
'Industry_'
'ILO_'
'IL'
'ID'
'Gaza_'
'Gan'
'GR'
'Fuerza_'
'Following_'
'Es'
'Enjoy_'
'El'
'Democrats_'
'Deb'
'Cualquier_'
'Crime_'
'Comi'
'CU'
'Bay_'
'BO'
'Ambiente_'
'Adiós_'
'Actualmente_'
'72_'
'45'
'03'
'):_'
' )_'
'’, _'
'о'
'š'
'ö'
'Í'
'· _'
'wear_'
'visual_'
'visits_'
'verde_'
'vacuna'
'urgencia_'
'urged_'
'unilateral_'
'ula_'
'ual'
'twice_'
'transmisión_'
'tour_'
'thinks_'
'tes'
'ten'
'taste_'
'tap'
'talked_'
'tac'
'sy'
'surely_'
'summary_'
'suministro_'
'subs'
'starts_'
'som'
'solve_'
'solicitar_'
'sky_'
'sive_'
'sigan_'
'siente_'
'señales_'
'saved_'
'satélite_'
'rlas_'
'ricos_'
'rf'
'reta'
'respira'
'repu'
'renova'
'remove_'
'remo'
'regula'
'registry_'
'recién_'
'reciben_'
'raíz_'
'ratification_'
'ram'
'quedado_'
'puedas_'
'pt_'
'proliferación_'
'preventing_'
'pregnant_'
'positivos_'
'plataforma_'
'piso_'
'pieces_'
'pic'
'pi'
'permiso_'
'perform_'
'pat'
'pasar'
'pasa'
'participating_'
'papers_'
'pain_'
'ovi'
'outs'
'organizado_'
'operate_'
'odio_'
'obtained_'
'nt'
'nia_'
'necesariamente_'
'nce'
'na'
'multiple_'
'muer'
'modified_'
'mode_'
'medioambientales_'
'mea'
'marcas_'
'logrado_'
'llamar'
'listening_'
'light'
'licencia_'
'let'
'largely_'
'lam'
'ivo_'
'ivas_'
'iti'
'involves_'
'invite_'
'interpretación_'
'interesa_'
'inteligente_'
'inteligencia_'
'ino_'
'inmediata_'
'impu'
'importe_'
'implica_'
'imagine_'
'ille'
'ign'
'ig'
'iento_'
'ied_'
'ics_'
'iat'
'hom'
'hogares_'
'hincapié_'
'highlight_'
'harán_'
'happening_'
'hall'
'grown_'
'glass_'
'funded_'
'fifth_'
'fic'
'feels_'
'fail_'
'explica_'
'expertise_'
'eu_'
'eu'
'eta'
'estarán_'
'estadounidense_'
'especializados_'
'erna'
'ene'
'emissions_'
'elo'
'electricidad_'
'elaborado_'
'ega'
'ducha_'
'dog_'
'directives_'
'desarrollados_'
'dee'
'database_'
'cuánto_'
'cutting_'
'cur'
'cuotas_'
'cumbre_'
'cula'
'cub'
'créditos_'
'confort_'
'concretos_'
'conce'
'comunitarias_'
'comprensión_'
'combined_'
'com'
'cohesión_'
'clo'
'ciudadano_'
'cari'
'bull'
'bottom_'
'blow_'
'bis'
'bike_'
'battle_'
'basa_'
'band_'
'añadido_'
'aza'
'aw'
'automáticamente_'
'ata_'
'assi'
'arrest_'
'aprobada_'
'anteriormente_'
'ande'
'alimentación_'
'alb'
'ajuste_'
'airlines_'
'africanos_'
'adecuados_'
']'
'Zealand_'
'Without_'
'Wi'
'WA'
'Vic'
'Verde_'
'Torre'
'Sun_'
'Star'
'Stan'
'Somalia_'
'Sar'
'Santiago_'
'Rev_'
'RC'
'Pública_'
'Por'
'Polonia_'
'Pacífico_'
'PE_'
'Out_'
'Ob'
'ON'
'Nie'
'Natural_'
'Mother_'
'Mini'
'Mexican_'
'Master_'
'Mart'
'Mamá_'
'Local_'
'Letter_'
'Lan'
'LO_'
'Kan'
'Japanese_'
'Indian_'
'ING_'
'IG'
'Help_'
'Has'
'Han_'
'Gua'
'Free'
'Euro_'
'Est'
'Energía_'
'Elevator_'
'EL'
'Dor'
'District_'
'Denmark_'
'Debe_'
'Date_'
'Cop'
'Company_'
'Communications_'
'Communication_'
'Canon_'
'CF'
'CC'
'Buenas_'
'Bat'
'Anne_'
'Advisory_'
'AP'
'63_'
'61_'
'44'
'43'
'19th_'
'12'
' = _'
'т'
'ès_'
'ão_'
'zz'
'zones_'
'yl'
'wonder_'
'wi'
'vous_'
'vol_'
'ventaja_'
'van'
'valid_'
'utilizarse_'
'usi'
'unions_'
'und'
'umb'
'tr'
'ton'
'tomar'
'tis_'
'tienda_'
'testigos_'
'tendencia_'
'taxi_'
'tasas_'
'sum'
'stick_'
'staying_'
'specialized_'
'sovereignty_'
'smaller_'
'sle'
'sight_'
'shi'
'seguido_'
'rro'
'returned_'
'resort_'
'relaxing_'
'relacionado_'
'regímenes_'
'regla_'
'refleja_'
'reco'
'recinto_'
'rar'
'quick_'
'pur'
'protecting_'
'proof_'
'profunda_'
'producido_'
'producen_'
'proba'
'print_'
'presentan_'
'poli'
'plus_'
'plug_'
'platos_'
'piedra_'
'peticiones_'
'perdi'
'pensiones_'
'pasajeros_'
'parámetros_'
'orio_'
'organizada_'
'organismo_'
'orador_'
'occupation_'
'occasion_'
'obviously_'
'ntr'
'nter'
'nos'
'nde'
'mostrar_'
'mostrar'
'missed_'
'minorities_'
'minas_'
'min_'
'mes'
'mensajes_'
'master_'
'manda'
'mach'
'lt_'
'lt'
'llo_'
'llamadas_'
'll'
'limitado_'
'lidad_'
'lessons_'
'leads_'
'late'
'last'
'lados_'
'jun'
'journey_'
'jes_'
'ive'
'invita_'
'intervention_'
'intenta_'
'institucional_'
'inse'
'infraestructuras_'
'index_'
'impe'
'illos_'
'illas_'
'ill'
'ida'
'ian'
'hurt_'
'highlighted_'
'hermana_'
'hall_'
'gui'
'graph'
'grand'
'gran'
'genial_'
'genetic_'
'gad'
'functional_'
'frío_'
'findings_'
'fantastic_'
'fal'
'eza_'
'extreme_'
'extraño_'
'experienced_'
'existente_'
'exi'
'evaluar_'
'estatal_'
'estadounidenses_'
'esperando_'
'esperamos_'
'espacios_'
'escenario_'
'escape_'
'esc'
'enviar'
'ents_'
'entera'
'enormes_'
'empe'
'ek_'
'ed'
'ech'
'eating_'
'dor'
'documentación_'
'distrito_'
'destroyed_'
'destinadas_'
'desk_'
'desempleo_'
'depending_'
'depend_'
'denomina'
'denied_'
'democrático_'
'democrática_'
'demanding_'
'definitiva_'
'defend_'
'dan'
'cycle_'
'cultivo_'
'cul'
'controlled_'
'contratación_'
'continente_'
'constantly_'
'consejo_'
'componente_'
'competentes_'
'cometido_'
'combustible_'
'ching_'
'charges_'
'cena_'
'castle_'
'capitales_'
'calles_'
'cad'
'buildings_'
'bound_'
'blanca_'
'binding_'
'biblioteca_'
'berg_'
'believes_'
'bel'
'bea'
'band'
'bajos_'
'aus'
'ato_'
'aquellas_'
'aprendizaje_'
'approaches_'
'applying_'
'appeared_'
'apenas_'
'antiguos_'
'answers_'
'amplia'
'ami'
'amenities_'
'air'
'af'
'Year_'
'Ye'
'Villa_'
'Valencia_'
'Tí'
'Times_'
'Technology_'
'Super'
'Sudáfrica_'
'Será_'
'Serbia_'
'Saturday_'
'ST_'
'SS'
'SI_'
'Rock'
'Reunión_'
'Requests_'
'Rem'
'Red'
'Rec'
'Ran'
'Pen'
'Palace_'
'Oc'
'Observa'
'Nota_'
'Northern_'
'Niza_'
'Mira'
'LOS_'
'Kat'
'Instead_'
'ID_'
'IA_'
'Him_'
'Given_'
'Fre'
'Financiación_'
'Eh_'
'ET'
'Cro'
'Cri'
'Corre'
'Consultiva_'
'Comm'
'Comentarios_'
'Charlie_'
'Bug'
'Beijing_'
'Barroso_'
'Ari'
'Ang'
'AR_'
'AN_'
'900_'
'52'
'48'
'47'
'41'
'36'
'04'
'... ¿_'
'.) _'
'''
'!'
'ú_'
'ío_'
'áticos_'
'worried_'
'wedding_'
'vínculo_'
'victory_'
'vehicle_'
'ums_'
'ud_'
'tía_'
'troops_'
'treat_'
'traduc'
'trading_'
'tha'
'tests_'
'temor_'
'teams_'
'teaching_'
'taxes_'
'tabled_'
'tab'
'sólida_'
'swi'
'superar_'
'suffered_'
'stronger_'
'stri'
'stocks_'
'sting_'
'stal'
'ssa'
'spo'
'spending_'
'specified_'
'siguiendo_'
'sex'
'sensación_'
'seed_'
'sc'
'san_'
'resumen_'
'restrictions_'
'resta'
'reserve_'
'reservations_'
'represión_'
'replace_'
'reh'
'registros_'
'recuerda_'
'rechaza'
'rec'
'realis'
'raro_'
'rare_'
'quit'
'quedan_'
'pá'
'proveedores_'
'professionals_'
'profesores_'
'productores_'
'proceder_'
'procede_'
'possibly_'
'pollution_'
'pit'
'piloto_'
'permit_'
'percentage_'
'pent'
'patio_'
'past'
'participated_'
'panel_'
'pad'
'ost'
'osa'
'oria_'
'organizational_'
'ore'
'oma'
'oda'
'object_'
'nsi'
'nl'
'newly_'
'm²_'
'museo_'
'movie_'
'morir_'
'mol'
'modificaciones_'
'modifica'
'ministros_'
'migration_'
'mercancías_'
'matar_'
'martes_'
'marriage_'
'manifiesto_'
'mando_'
'malos_'
'makers_'
'líderes_'
'lying_'
'lounge_'
'lor'
'load_'
'llevar'
'listas_'
'lica'
'liability_'
'li_'
'les'
'legislativo_'
'legales_'
'lavandería_'
'lanzamiento_'
'laboratorio_'
'kit'
'juez_'
'jefes_'
'ion'
'invent'
'internationally_'
'intend_'
'intellectual_'
'instancia_'
'infra'
'informar'
'informado_'
'inclusive_'
'inci'
'inas_'
'impuesto_'
'imiento_'
'ie'
'ically_'
'humanity_'
'horse_'
'honest_'
'homes_'
'hate_'
'hal'
'gue'
'guaranteed_'
'grant_'
'gestionar_'
'garantías_'
'gap_'
'futura_'
'foundation_'
'fli'
'ffe'
'fell_'
'exposed_'
'examina'
'evento_'
'eva'
'eto_'
'eth_'
'estate_'
'estabas_'
'erin'
'entran'
'entiende_'
'ent'
'empty_'
'empa'
'elegido_'
'electricity_'
'ece'
'dy'
'doy_'
'divided_'
'diseñado_'
'designa'
'descarga_'
'dep'
'deja'
'decade_'
'deaths_'
'ct'
'cro'
'creemos_'
'creature_'
'cou'
'corre'
'cop'
'continua'
'continental_'
'continent_'
'conse'
'concluir_'
'componentes_'
'competitividad_'
'commit_'
'coalition_'
'cis'
'cias_'
'chair_'
'cha_'
'cen'
'causar_'
'cau'
'cambiar'
'camas_'
'cadena_'
'bye_'
'blue_'
'birds_'
'bir'
'bienvenida_'
'bienio_'
'awarded_'
'attractive_'
'atra'
'ative_'
'asignación_'
'armados_'
'aprecia'
'anuncios_'
'ambitious_'
'alm'
'agradecimiento_'
'agencias_'
'aga'
'acompaña'
'accounting_'
'accidentes_'
'accident_'
']]'
'Youth_'
'WE'
'Vel'
'VI'
'Ts'
'Suecia_'
'Stra'
'Square_'
'Source_'
'Several_'
'Sel'
'ST'
'River_'
'Resort_'
'Play'
'Photocopying_'
'Peru_'
'Permítanme_'
'Part_'
'Pakistan_'
'Online_'
'Om'
'Nov'
'NG_'
'MySQL_'
'Mujer_'
'Marina_'
'Mala'
'Madre_'
'Luc'
'Lista_'
'Line_'
'Kha'
'Kenya_'
'Joseph_'
'Iraqi_'
'IF'
'Hungary_'
'Hotels_'
'Hea'
'Gar'
'Fra'
'Extra'
'Ejecutivo_'
'EX'
'ED_'
'EA'
'Dutch_'
'Der'
'Den'
'Cá'
'Corr_'
'Col'
'Coc'
'Co'
'Chi'
'Casa'
'Cam'
'CL'
'Book_'
'Bible_'
'Bag'
'Art'
'Army_'
'Arabia_'
'Ara'
'Americas_'
'Alle'
'All'
'AS_'
'AF'
'82_'
'61'
'3D_'
'1984_'
'1000_'
'%) _'
'! - _'
' + _'
' *_'
' ) _'
'ña'
'ída'
'éstas_'
'éc'
'ática_'
'ás'
'ál'
' (_'
'zer'
'work'
'windows_'
'weekend_'
'wave_'
'vulnerables_'
'vuestra_'
'ville_'
'viendo_'
'unión_'
'uniform_'
'ung'
'ultimately_'
'uit'
'uf'
'ue'
'uct'
'turno_'
'tun'
'tru'
'trials_'
'transformación_'
'tortura_'
'toria_'
'tor'
'tom'
'tol'
'threatened_'
'terminal_'
'temporada_'
'tells_'
'techniques_'
'teacher_'
'sí'
'superiores_'
'subsidies_'
'subjects_'
'speakers_'
'shouldn_'
'shoot_'
'severe_'
'settings_'
'serving_'
'serves_'
'sensible_'
'sencillo_'
'segundos_'
'secreto_'
'salvar_'
'rás_'
'ruta_'
'rma'
'rid'
'rev'
'resulted_'
'resolved_'
'residentes_'
'replaced_'
'regulatory_'
'reconstruction_'
'rca'
'ral'
'químicas_'
'quizá_'
'quis'
'quet'
'pull_'
'publica'
'préstamos_'
'promulga'
'profundo_'
'profesor_'
'proceed_'
'privadas_'
'presupuestos_'
'presents_'
'presentadas_'
'preocupa_'
'practica'
'porcentaje_'
'podrás_'
'pensé_'
'pensamiento_'
'particulares_'
'owner_'
'ov_'
'oto'
'opens_'
'odo'
'ode'
'oci'
'observar_'
'ny'
'normalmente_'
'nol'
'nic_'
'nevertheless_'
'ner'
'necessity_'
'nea'
'nder_'
'nder'
'mínima_'
'moreover_'
'moments_'
'modificada_'
'mm'
'ming_'
'millions_'
'menta'
'medioambiental_'
'meals_'
'materias_'
'marked_'
'maintaining_'
'losing_'
'logy_'
'llamó_'
'lived_'
'limits_'
'lasting_'
'lanza'
'lands_'
'land'
'lago_'
'jurídicos_'
'jam'
'iza_'
'isi'
'interview_'
'intervenciones_'
'interp'
'ining_'
'independientemente_'
'inde'
'incluya_'
'import_'
'ily_'
'honey_'
'hone'
'histórica_'
'hey_'
'heritage_'
'hearts_'
'heading_'
'hardware_'
'hablar'
'guardia_'
'governing_'
'golpe_'
'god_'
'gg'
'genes_'
'fu'
'fort'
'foro_'
'firmemente_'
'fied_'
'fet'
'fax_'
'farm_'
'famoso_'
'exportación_'
'explicar'
'explanation_'
'expenses_'
'excuse_'
'exclusively_'
'exclusivamente_'
'esta'
'erta'
'entero_'
'enormous_'
'enda_'
'encargar'
'empresarios_'
'egi'
'eg'
'edificios_'
'edición_'
'dur'
'dri'
'dormir_'
'donors_'
'doc'
'divin'
'disk_'
'discovered_'
'dirigido_'
'dir'
'diga_'
'deter'
'dera'
'debes_'
'deber_'
'dates_'
'cus'
'critica'
'correr_'
'corp'
'continúa_'
'constant_'
'considerarse_'
'confirma'
'condena_'
'concesión_'
'concentración_'
'concentra'
'comparable_'
'clubs_'
'clock_'
'classes_'
'cional_'
'celebrar'
'career_'
'campañas_'
'caliente_'
'cali'
'bon'
'bill'
'belong_'
'bebidas_'
'barcos_'
'azul_'
'ayudar'
'aviones_'
'aven'
'autorización_'
'aut'
'at'
'asi'
'arrested_'
'arquitectura_'
'alternativas_'
'alternativa_'
'alojado_'
'alma_'
'aje_'
'ain'
'agro'
'affecting_'
'adapta'
'actualización_'
'aco'
'aceite_'
'abroad_'
'] '
'Ze'
'Within_'
'Whoa_'
'Watch_'
'WI'
'Vol'
'Vie'
'Ve_'
'Van'
'VER'
'USD_'
'UNHCR_'
'UNFPA_'
'Through_'
'Swedish_'
'Society_'
'SW'
'SV_'
'Rule_'
'Roman'
'Richard_'
'Resp'
'Rei'
'Recursos_'
'Prevention_'
'Pay'
'Papá_'
'Paper_'
'Pablo_'
'PS_'
'Operaciones_'
'OU'
'OIT_'
'Nick_'
'Never_'
'Net'
'Mundo_'
'Multi'
'Montreal_'
'Miguel_'
'Marc'
'Mai'
'MD'
'Land_'
'LT'
'LL'
'Jar'
'Jan'
'Jam'
'Helsinki_'
'Gol'
'GO'
'Fri'
'Fourth_'
'Fecha_'
'Everyone_'
'Escuch'
'Emp'
'Ejecutiva_'
'Ea'
'EI'
'EE'
'Dr'
'Div'
'Czech_'
'Comunidades_'
'Communities_'
'Chan'
'Cat'
'Car'
'Caja_'
'CP'
'CM'
'Bretaña_'
'Bol'
'Blo'
'Atlantic_'
'Art_'
'Ap'
'Antonio_'
'Ann'
'Andorra_'
'Alguna_'
'Ak'
'Af'
'Acta_'
'AG'
'88'
'73_'
'55'
'53'
'51'
'192'
'189'
'05'
' €_'
' :: _'
' )._'
' %'
'� _'
'“'
'р'
'ú'
' % _'
'{_'
'zos_'
'zes_'
'zb'
'yó_'
'xo'
'witness_'
'whi'
'whenever_'
'ví'
'vuelto_'
'vivi'
'visited_'
'visit'
'vis'
'virtual_'
'ving_'
'viajar_'
'verte_'
'ventas_'
'vela'
'utilidad_'
'ured_'
'unfortunately_'
'uda_'
'tó'
'té'
'turning_'
'tte_'
'tránsito_'
'tropas_'
'travellers_'
'translation_'
'tranquila_'
'trained_'
'toward_'
'tos'
'tome_'
'tle'
'titulado_'
'tickets_'
'thoughts_'
'texts_'
'tendremos_'
'temporal_'
'temperatura_'
'tel'
'tario_'
'sweet_'
'suspended_'
'surprise_'
'supongo_'
'sucedió_'
'subvenciones_'
'stu'
'strange_'
'stores_'
'sson_'
'somewhere_'
'solicit'
'sno'
'sna'
'smoke_'
'slightly_'
'selling_'
'sanitaria_'
'salón_'
'salta'
'sabido_'
'root_'
'rit'
'riqueza_'
'rip'
'ria'
'restore_'
'respectivamente_'
'rese'
'reproductive_'
'representation_'
'rend'
'reliable_'
'relatively_'
'register_'
'recu'
'reconocido_'
'reales_'
'rat'
'rag'
'quedó_'
'pudo_'
'pto'
'proporcionan_'
'producing_'
'primarily_'
'previo_'
'pretend'
'presta'
'presenta'
'politicians_'
'pido_'
'ph'
'permitir'
'pens'
'pase_'
'parada_'
'pack_'
'owners_'
'owned_'
'ow'
'ova'
'oth'
'ot'
'organised_'
'operators_'
'opa'
'ont'
'ology_'
'officer_'
'ocio_'
'occupied_'
'obvious_'
'nte'
'not'
'ncias_'
'nat'
'mí'
'máquina_'
'mut'
'mp_'
'movi'
'modernis'
'mira'
'migrantes_'
'meta'
'media'
'masa_'
'manager_'
'lunes_'
'log'
'loco_'
'llena_'
'lists_'
'linea'
'limpieza_'
'liberalización_'
'liberalisation_'
'libera'
'lde'
'lat'
'kidding_'
'ken_'
'jur'
'jan_'
'itud_'
'ite'
'italiano_'
'iso'
'ised_'
'ise'
'invasion_'
'int_'
'insufficient_'
'industriales_'
'inclusion_'
'impre'
'implications_'
'ieron_'
'identificar_'
'hum'
'hostales_'
'home'
'holidays_'
'hes_'
'heat_'
'hath_'
'ham_'
'hablamos_'
'graba'
'geographical_'
'gathered_'
'garantía_'
'gara'
'gal'
'futuros_'
'fos'
'forum_'
'formular_'
'foot'
'flexibility_'
'fi_'
'felicitar_'
'fair'
'fabricación_'
'expresa_'
'exportaciones_'
'examined_'
'evidencia_'
'ete'
'estructurales_'
'esti'
'estando_'
'específico_'
'espa'
'ery_'
'equivoca'
'envió_'
'engage_'
'encar'
'enabling_'
'emerging_'
'eleva'
'efectivamente_'
'ef'
'edition_'
'ede'
'eco'
'eastern_'
'dé_'
'dot'
'divertido_'
'diverse_'
'dispuestos_'
'dispositivos_'
'directivas_'
'directed_'
'dip'
'dijiste_'
'dial_'
'dge_'
'devo'
'destinado_'
'description_'
'demonstrated_'
'demonstrate_'
'delivered_'
'deca'
'dea'
'dans_'
'damos_'
'dada_'
'cup'
'culturas_'
'cubierta_'
'críticas_'
'crops_'
'creative_'
'covering_'
'cook'
'conversation_'
'convencido_'
'consultor'
'constitutes_'
'consists_'
'considers_'
'consentimiento_'
'conozco_'
'compañero_'
'comodidad_'
'combate_'
'collect_'
'cobertura_'
'clause_'
'cielos_'
'cia'
'ci_'
'choices_'
'chino_'
'chin'
'channel_'
'cerrar_'
'cerebro_'
'cercano_'
'celebrate_'
'ced_'
'canales_'
'calendario_'
'cado_'
'burn_'
'bru'
'brand_'
'brain_'
'bosque_'
'bla'
'biggest_'
'basta_'
'bast'
'bancos_'
'azúcar_'
'aspira'
'asistir_'
'ash'
'architecture_'
'anas_'
'alumnos_'
'altamente_'
'almacenamiento_'
'alleged_'
'aged_'
'affiliates_'
'adults_'
'adquisición_'
'addressing_'
'adaptación_'
'achievements_'
'accordingly_'
'aca'
'[[_'
'Work_'
'Wor'
'Water_'
'Villa'
'Vienna_'
'VA'
'Ur'
'Unit_'
'Tre'
'Trabaja'
'Tour_'
'Terr'
'Tele'
'Tas'
'Supongo_'
'Spirit_'
'Somos_'
'Shut_'
'Rose'
'Rom'
'Rod'
'Restaurante_'
'Remember_'
'Reg'
'Read_'
'Radi'
'Qatar_'
'QUE_'
'Prop'
'Program_'
'Podrá_'
'Pir'
'Photo'
'Pers'
'Parque_'
'Ok_'
'OO'
'Nuestros_'
'Navidad_'
'NO_'
'Mill'
'Mes'
'Mc'
'May'
'Mak'
'Macedonia_'
'Lor'
'Log'
'Libre_'
'Leona_'
'Laundry_'
'Lat'
'Keep_'
'JavaScript_'
'Item_'
'ION_'
'Hostelsclub_'
'Holiday_'
'Hand'
'Ham'
'Haití_'
'Green_'
'Gestión_'
'GU'
'Fisheries_'
'Fan'
'FT'
'Espacio_'
'Entre'
'Enterprise_'
'Ejército_'
'Económica_'
'Diego_'
'Cup_'
'Cuban_'
'Cre'
'Country_'
'Clo'
'Char'
'Cant'
'CA_'
'Blue_'
'Bee'
'Beach_'
'Barb'
'Asian_'
'Armenia_'
'App'
'Ant'
'And'
'Alt'
'Alg'
'Ah'
'Actually_'
'Abd'
'AB'
': (_'
'57'
'54'
'- (_'
'- "_'
'%_'
'". _'
' ), _'
'útiles_'
'ús'
'ética_'
'Ésta_'
'ys'
'who'
'vol'
'vinos_'
'vil'
'viejos_'
'verse_'
'vent'
'variables_'
'ute'
'uta'
'ut_'
'urs_'
'unfair_'
'unda'
'ulas_'
'uch'
'uales_'
'ua_'
'traditions_'
'torio_'
'tonnes_'
'til'
'tico_'
'terra'
'tern'
'teri'
'tendencias_'
'teach_'
'taria_'
'successfully_'
'substantive_'
'subsequently_'
'studied_'
'stayed_'
'star'
'spring_'
'soft_'
'sobre'
'sint'
'sins_'
'significance_'
'sentir_'
'seleccionar_'
'sea'
'scu'
'script_'
'rá'
'rti'
'rose_'
'roads_'
'rm'
'ritmo_'
'rie'
'rica_'
'revealed_'
'residencia_'
'relief_'
'relativamente_'
'rela'
'reject_'
'regulación_'
'regres'
'refers_'
'rapporteurs_'
'ranging_'
'rain'
'raci'
'rac'
'quin'
'quede_'
'queda'
'publications_'
'pró'
'prosperidad_'
'proporción_'
'proponer_'
'promoted_'
'promised_'
'profundamente_'
'prof'
'productividad_'
'procesa'
'prepara'
'prefer_'
'precisa_'
'prayer_'
'pra'
'postura_'
'posteriormente_'
'poorest_'
'ponga_'
'plays_'
'planteado_'
'plantea'
'pir'
'photograph'
'pher'
'pesad'
'personally_'
'personali'
'pers_'
'periodista_'
'partnerships_'
'parliaments_'
'parl'
'pagar'
'paga_'
'ownership_'
'ong_'
'ond'
'omo'
'off'
'ocurrió_'
'ocasiona'
'observó_'
'observe_'
'observadores_'
'nervios'
'negotiation_'
'nda'
'mía_'
'multiplica'
'movimientos_'
'movements_'
'ml'
'ministro_'
'meter_'
'mas'
'maritime_'
'marina_'
'manifestado_'
'lun'
'losses_'
'loc'
'llena'
'lis'
'limpio_'
'license_'
'ler'
'lac'
'killing_'
'kg_'
'keys_'
'ker'
'judgment_'
'jointly_'
'jer'
'jar'
'iz'
'israelí_'
'isc'
'ior'
'iona'
'investigate_'
'investigadores_'
'interna'
'interesadas_'
'inte'
'insult'
'instala'
'inso'
'iniciado_'
'informaciones_'
'inevitable_'
'industries_'
'incom'
'incluir'
'inaugura'
'impose_'
'iles_'
'iera_'
'ier'
'hunger_'
'house'
'hou'
'hn'
'hiciera_'
'hem'
'heart'
'hagas_'
'habitual_'
'haberse_'
'gru'
'globalization_'
'glo'
'gir'
'furniture_'
'fundamento_'
'funda'
'fumar_'
'fs_'
'frontera_'
'fraud_'
'forman_'
'firmado_'
'financiar_'
'fer_'
'fenómeno_'
'fechas_'
'exists_'
'executive_'
'exclusión_'
'exceso_'
'exception_'
'examination_'
'eth'
'estábamos_'
'espacial_'
'esi'
'entraña'
'entidad_'
'enterprise_'
'enter'
'enlace_'
'ends_'
'ending_'
'endi'
'empower'
'embar'
'elevado_'
'ecu'
'dulce_'
'duc'
'dose_'
'don'
'dollar_'
'distribu'
'disposal_'
'display_'
'disasters_'
'diría_'
'dieron_'
'destination_'
'destinados_'
'desm'
'desi'
'deseamos_'
'desarme_'
'depends_'
'departamento_'
'denuncias_'
'demonios_'
'delincuencia_'
'defini'
'dedicado_'
'decidi'
'deb'
'damente_'
'creí'
'correspond'
'conversion_'
'contribuyen_'
'construido_'
'construct'
'consent_'
'configuration_'
'conci'
'con'
'comprometido_'
'compras_'
'competence_'
'compact_'
'committees_'
'colla'
'cks_'
'chicas_'
'cesa'
'certification_'
'centrar'
'catal'
'cat_'
'carbon_'
'cara'
'campa'
'cameras_'
'cabr'
'browser_'
'break'
'boot_'
'bonita_'
'bitch_'
'bigger_'
'belief_'
'bearing_'
'bathrooms_'
'bas'
'bag_'
'añ'
'avión_'
'avanzado_'
'aumentado_'
'attend_'
'attain'
'assessments_'
'asegurar'
'arrastra'
'arbitrary_'
'arbitrari'
'aprobar_'
'aplicable_'
'ak'
'agi'
'agente_'
'afuera_'
'advertising_'
'advanced_'
'adolescentes_'
'administrativa_'
'ade_'
'addresses_'
'actores_'
'activos_'
'acordado_'
'acogida_'
'ace_'
'accompanied_'
'acceptance_'
'Wil'
'War'
'Var'
'Up'
'Trust_'
'Trinidad_'
'Tratados_'
'Transport_'
'Training_'
'Ten_'
'Technical_'
'Table_'
'Subs'
'Sto'
'Something_'
'Software_'
'Smith_'
'Sería_'
'Senegal_'
'Sede_'
'Sch'
'Sat'
'Res'
'Rental_'
'Records_'
'Radio_'
'ROM_'
'Qa'
'Pun'
'Pres'
'Power'
'Pesca_'
'Pes'
'Part'
'Pakistán_'
'Pac'
'PU'
'Ou'
'OTAN_'
'Newspapers_'
'Neu'
'Mis_'
'Mis'
'Marruecos_'
'Mark'
'Maria_'
'MAR'
'Ly'
'Lun'
'Love_'
'Looks_'
'Leave_'
'Janeiro_'
'Islas_'
'Im'
'ISO_'
'Headquarters_'
'Había_'
'Guardaequipajes_'
'Golfo_'
'Golf_'
'Gene'
'Gat'
'Gab'
'Fort'
'Fondos_'
'Follow_'
'Fo'
'Europeas_'
'Europeans_'
'Et'
'Esperamos_'
'Esco'
'Eng'
'Económicos_'
'ECU_'
'Doha_'
'Dic'
'Dev'
'Demo'
'Dem'
'Côte_'
'Cuadro_'
'Cru'
'Crees_'
'Constitutional_'
'Con'
'College_'
'Checa_'
'Change_'
'Card'
'Cab'
'Bob_'
'Blanca_'
'Belarús_'
'Año_'
'Auto'
'Anna_'
'Ahí_'
'AU'
'AP_'
': «_'
'77'
'72'
'350_'
'1973_'
'1373_'
'101_'
'...._'
'!"_'
' .._'
'€'
'с'
'н'
'ún_'
'ís'
'ám'
'Árabe_'
'zó_'
'zin'
'you'
'yn'
'worship_'
'wild_'
'whilst_'
'web'
'volver'
'visa_'
'viento_'
'vienen_'
'vie'
'vesti'
'verdaderamente_'
'vene'
'velo'
'vehículo_'
'unnecessary_'
'universo_'
'universidad_'
'undertaking_'
'ui'
'ug'
'trip'
'tria'
'transportes_'
'transportation_'
'transparente_'
'topics_'
'tone_'
'tle_'
'tivas_'
'tired_'
'tion'
'throw_'
'thee_'
'teo'
'tely_'
'tarjetas_'
'tantos_'
'tam'
'tal'
'símbolo_'
'survey_'
'sue'
'succeeded_'
'stylish_'
'stro'
'stakeholders_'
'ssion_'
'sport_'
'sons_'
'songs_'
'soc'
'sma'
'shop_'
'sentencia_'
'sentenced_'
'secundaria_'
'seconds_'
'sec'
'sco_'
'schedule_'
'satisfied_'
'sad'
'rra'
'rk'
'rin'
'rightly_'
'rias_'
'rga'
'residents_'
'religión_'
'relationships_'
'relajarse_'
'regresa'
'rega'
'refugee_'
'reflects_'
'refiero_'
'recruitment_'
'recognise_'
'reclamaciones_'
'rece'
'reanuda'
'rci'
'raza_'
'rap'
'ran'
'quo'
'querido_'
'quedar_'
'q'
'párr_'
'prohibido_'
'previstas_'
'previamente_'
'preserve_'
'preparar_'
'predict'
'pour_'
'posted_'
'plenaria_'
'planea'
'plan'
'pilot_'
'pil'
'pertenece_'
'personalmente_'
'permitted_'
'paseo_'
'pal'
'pag'
'output_'
'organic_'
'operadores_'
'ook_'
'ono_'
'omi'
'of'
'observa'
'ní'
'nza_'
'ntin'
'nobody_'
'nga'
'nf'
'ndo'
'naturally_'
'nationals_'
'municipal_'
'ms'
'mot'
'mostly_'
'mortalidad_'
'misprints_'
'mic'
'meti'
'meta_'
'mer_'
'mencionados_'
'mejorado_'
'meal_'
'mate_'
'mata'
'mart'
'manufacturing_'
'mann_'
'manejar_'
'lí'
'lograr'
'loans_'
'load'
'llo'
'llevará_'
'lleno_'
'liza'
'listed_'
'limitación_'
'limitaciones_'
'lights_'
'liderazgo_'
'library_'
'legs_'
'legally_'
'lar'
'lan_'
'kind'
'jurisdiction_'
'jamás_'
'islas_'
'iron_'
'invitation_'
'invierno_'
'invertir_'
'interpreta'
'intercambios_'
'integra'
'int'
'indemnización_'
'incorporación_'
'impulso_'
'impulsar_'
'ilegales_'
'ij'
'iguales_'
'if'
'horn'
'honour_'
'hole_'
'hma'
'hidro'
'herself_'
'hermoso_'
'hayas_'
'habló_'
'gust'
'guard_'
'generar_'
'gasto_'
'gardens_'
'fuertes_'
'frustra'
'fro'
'forthcoming_'
'foros_'
'forever_'
'finalidad_'
'finali'
'filiales_'
'fen'
'faster_'
'fan_'
'ez'
'extradition_'
'externos_'
'exteriores_'
'expresado_'
'explo'
'expe'
'expansión_'
'estima'
'establecidas_'
'estable_'
'ess'
'específicamente_'
'erá_'
'erm'
'equivalent_'
'entradas_'
'entendido_'
'enseña'
'enge'
'ener'
'endorsed_'
'encu'
'encaminadas_'
'em'
'efectuar_'
'eci'
'easier_'
'ean'
'décadas_'
'drinks_'
'dreams_'
'drafting_'
'down'
'division_'
'discover_'
'disabilities_'
'digitales_'
'devoted_'
'detained_'
'despe'
'descubri'
'desarroll'
'desafío_'
'dere'
'deposit'
'deportes_'
'deje_'
'declaró_'
'decid'
'cumple_'
'criticism_'
'criterio_'
'creando_'
'crash_'
'costos_'
'corrientes_'
'corporate_'
'cooperate_'
'coopera'
'conveni'
'conven'
'contributed_'
'contrast_'
'continuous_'
'contar'
'cont'
'consumi'
'consciousness_'
'conjunta_'
'computadora_'
'comprendido_'
'component_'
'complicated_'
'complaints_'
'compensa'
'comparti'
'comme'
'comienza_'
'colour_'
'college_'
'cle'
'cidad_'
'cida'
'chap'
'cero_'
'cells_'
'categories_'
'care'
'buses_'
'bus'
'breach_'
'bras'
'bordo_'
'book'
'bomba_'
'bolsa_'
'bid'
'bi_'
'bat'
'ayudará_'
'aste_'
'assessed_'
'asociado_'
'asesoramiento_'
'artist_'
'articula'
'arrived_'
'arm'
'arch'
'applicant_'
'anywhere_'
'anta'
'amiento_'
'amable_'
'ale_'
'aki'
'agradecer_'
'agent_'
'afrontar_'
'affects_'
'aeropuertos_'
'adult_'
'adores_'
'ade'
'activo_'
'acero_'
'aceptado_'
'accidente_'
'acaba'
'Yet_'
'Wii_'
'Was_'
'Wall'
'Vista_'
'Vin'
'Video_'
'VE'
'Usuario_'
'Ud_'
'UP'
'Town_'
'Terrorism_'
'Terrace_'
'Tanto_'
'TU'
'TR'
'Swi'
'Sudán_'
'Ste'
'Stay_'
'Socialist_'
'Siria_'
'Sir'
'Sil'
'Show_'
'Shan'
'Session_'
'Scientific_'
'Sant'
'SM'
'SD_'
'Río_'
'Roman_'
'Resolution_'
'Ray_'
'Que'
'Put_'
'Private_'
'Pri'
'Presupuesto_'
'Pope_'
'Pont'
'Palestinians_'
'Out'
'Olympus_'
'Of'
'OT'
'Nuestras_'
'NI_'
'Museum_'
'Mot'
'Mir'
'Ministerial_'
'Miami_'
'Merc'
'Mediterráneo_'
'Matt'
'Mani'
'MY_'
'MS'
'ME'
'MB'
'Long_'
'Land'
'Lac'
'LORD_'
'LE_'
'Journal_'
'Jen'
'Ivoire_'
'Initiative_'
'Inf'
'Indigenous_'
'Inclu'
'Igual'
'IE'
'Hungría_'
'Hen'
'Hall_'
'HE'
'Gen'
'GB_'
'Fr'
'Forma'
'Finlandia_'
'Find_'
'Financing_'
'FL'
'Exp'
'Exchange_'
'Ex'
'Eve'
'Estatuto_'
'Esp'
'Enc'
'Em'
'Down'
'Discrimination_'
'Disc'
'Dir'
'Dijo_'
'Di_'
'Design_'
'Darfur_'
'DC_'
'Cross_'
'Croacia_'
'Crea'
'Conc'
'Cl'
'Charles_'
'Camp'
'COR'
'C5_'
'Boy'
'Bot'
'Black_'
'Barbados_'
'Ass'
'Annual_'
'Ai'
'Adv'
'83_'
'79_'
'76'
'73'
'1983_'
'160_'
'130_'
'.)'
' : '
'ñas_'
'à'
'Ó'
'» '
'zoom_'
'yard_'
'worthy_'
'workshop_'
'witnesses_'
'withdrawal_'
'winning_'
'wing_'
'whereby_'
'wealth_'
'wards_'
'walls_'
'vé'
'vr'
'visitantes_'
'viable_'
'versa'
'veni'
'vel'
'vea'
'variable_'
'val_'
'utiliza'
'usual_'
'updates_'
'unknown_'
'unanimously_'
'uer'
'ude'
'uci'
'uca'
'tí'
'ty'
'turístico_'
'tura'
'tter_'
'tratos_'
'trate_'
'tratar'
'transit_'
'transferred_'
'transacciones_'
'tram'
'traducción_'
'tradiciones_'
'trabajado_'
'toc'
'tim'
'thirty_'
'thereof_'
'ther_'
'tet'
'tensión_'
'tem'
'teatro_'
'tado_'
'sábado_'
'surprised_'
'supon'
'supervisor'
'sugar_'
'subsidiary_'
'sua'
'student_'
'strip'
'stories_'
'stag'
'sque'
'split_'
'speed'
'spectacular_'
'spe'
'sounds_'
'sophisticated_'
'sop'
'someter'
'sol'
'sleeping_'
'sirven_'
'signing_'
'significado_'
'shooting_'
'shares_'
'sentar'
'seguir'
'scen'
'salió_'
'sacrifice_'
'sacar'
'rías_'
'rue'
'roa'
'rly_'
'rid_'
'rice_'
'resu'
'responses_'
'respaldo_'
'requisito_'
'reparación_'
'renovated_'
'remember'
'reinforce_'
'regret_'
'reglamentos_'
'referring_'
'reducida_'
'red'
'recon'
'realization_'
'realizada_'
'rato_'
'ratificación_'
'rapidly_'
'rapid_'
'rail_'
'racism_'
'quí'
'quinto_'
'quil'
'quieras_'
'question'
'ques'
'pí'
'providers_'
'proved_'
'prote'
'propaganda_'
'programming_'
'programación_'
'profundidad_'
'profits_'
'primavera_'
'prevista_'
'presupuestario_'
'prestado_'
'press'
'presos_'
'presentará_'
'premios_'
'pregunto_'
'ppe'
'porte'
'podríamos_'
'podr'
'poca_'
'pica'
'pet'
'pes'
'perro_'
'periodic_'
'pendientes_'
'pel'
'pega'
'pdf_'
'patterns_'
'patrón_'
'password_'
'partly_'
'parti'
'parcial_'
'outdoor_'
'ously_'
'originales_'
'opt'
'ojo_'
'oi'
'oficialmente_'
'octavo_'
'observation_'
'obligados_'
'notificación_'
'noticia_'
'nombramiento_'
'nne'
'ninguno_'
'nh'
'newspaper_'
'neu'
'nes'
'nd'
'nb'
'nac'
'mé'
'my'
'montón_'
'mono'
'mn'
'mil'
'medicamento_'
'marine_'
'mapa_'
'manejo_'
'male_'
'los'
'long'
'lon'
'lle'
'leak'
'lati'
'largas_'
'landscape_'
'laborales_'
'kin_'
'ket'
'jurídicas_'
'jueves_'
'jor'
'izar_'
'iza'
'iz_'
'ist'
'ising_'
'ish'
'iraquí_'
'io'
'invest_'
'introducir_'
'interven'
'intentar'
'intent'
'institu'
'inner_'
'informa'
'influ'
'infancia_'
'indicate_'
'incapa'
'inadequate_'
'inaceptable_'
'imprisonment_'
'importaciones_'
'imagina'
'imagin'
'ik_'
'ienta'
'ide'
'ico'
'ice'
'há'
'hydro'
'hy_'
'hur'
'huevos_'
'hue'
'holds_'
'hol'
'hel'
'hectáreas_'
'hasn_'
'haría_'
'haremos_'
'habita'
'hab'
'gubernamental_'
'greatly_'
'gna'
'gle_'
'ght'
'gene'
'gel'
'gant'
'físico_'
'fábrica_'
'fulfill'
'fuer'
'fue'
'fra'
'foundations_'
'formats_'
'formar_'
'formal'
'forestal_'
'football_'
'fomenta'
'flows_'
'flat_'
'firmly_'
'firm'
'fication_'
'festival_'
'fest'
'feelings_'
'feeding_'
'facility_'
'explicar_'
'expensive_'
'exe'
'exceptional_'
'examinado_'
'eta_'
'estudiar_'
'estra'
'esp'
'equity_'
'envío_'
'entró_'
'encourages_'
'enci'
'electrónica_'
'ejecutivo_'
'edge_'
'ec_'
'dí'
'dryer_'
'dou'
'donor_'
'dit'
'distributed_'
'distinction_'
'diso'
'disfrute_'
'discusión_'
'dirigidas_'
'dirigi'
'difíciles_'
'dificultad_'
'diet_'
'die'
'determinado_'
'destinos_'
'desafíos_'
'depósito_'
'dependent_'
'demuestra_'
'deficit_'
'dedo'
'declare_'
'declara_'
'dec'
'debían_'
'darme_'
'cé_'
'cy'
'creó_'
'crea'
'coverage_'
'cosecha'
'copies_'
'convenience_'
'contribuido_'
'contents_'
'consultar_'
'constructive_'
'considero_'
'considerando_'
'conocidos_'
'configura'
'confer'
'conditioned_'
'completa'
'complet'
'complaint_'
'compa'
'communi'
'comedor_'
'combating_'
'colon'
'cob'
'claimed_'
'ciudadanía_'
'ciertamente_'
'chair'
'básico_'
'básicas_'
'bá'
'bone_'
'beneficiar'
'begins_'
'base'
'basa'
'banco_'
'ayud'
'aves_'
'av'
'assess_'
'artistas_'
'armado_'
'aries_'
'arbitraje_'
'aprueba_'
'apre'
'aparezcan_'
'ants_'
'anda_'
'analizar_'
'amplias_'
'amongst_'
'amending_'
'alu'
'alle'
'albergue_'
'airports_'
'afirmó_'
'afectadas_'
'adquirir_'
'adoptó_'
'acusaciones_'
'act'
'accurate_'
'academic_'
'ac_'
'absolute_'
'abs'
'abarca_'
'Word_'
'Who'
'Whatever_'
'Web'
'WC_'
'Va_'
'Um_'
'UNMIK_'
'Túnez_'
'Ty'
'Tour'
'Tony_'
'Tok'
'Tea'
'Suites_'
'Steve_'
'Someone_'
'Sociedad_'
'Sociales_'
'Small_'
'Simplemente_'
'Shu'
'Server_'
'Schengen_'
'Sand'
'Sali'
'Sac'
'SMEs_'
'SA_'
'Rural_'
'Reve'
'Ren'
'Ref'
'RU'
'RR'
'RES_'
'Qua'
'QUI'
'Premio_'
'Power_'
'Port_'
'Point_'
'Plus_'
'Playa_'
'Pasa'
'Participa'
'Paraguay_'
'Palestine_'
'Pact_'
'PS'
'PL_'
'PARA_'
'Otros_'
'Os_'
'Operations_'
'Ombudsman_'
'Officer_'
'OH'
'OAS_'
'Net_'
'Nat'
'NS'
'NATO_'
'Mun'
'Mul'
'Mue'
'Moscú_'
'Mons'
'Mit'
'Mercury_'
'Mad'
'Lie'
'Les'
'Lee_'
'LU'
'Java_'
'Imp'
'Ideal'
'Hon'
'Hau'
'Haiti_'
'HD_'
'Granada_'
'Got_'
'Gla'
'GO_'
'Fat'
'Euros'
'Ethiopia_'
'Eth'
'Esas_'
'Entra'
'Eg'
'Ech'
'EST'
'Dun'
'Dub'
'Dia'
'Descripción_'
'Desarme_'
'Deputy_'
'Defence_'
'Debo_'
'DS'
'DG_'
'Cuestiones_'
'Could_'
'Cou'
'Consulta'
'Confi'
'Conf'
'Comp'
'Commissioners_'
'Colo'
'Chap'
'Chair_'
'Ch'
'Cau'
'Castle_'
'Case_'
'Car_'
'Captain_'
'Calefacción_'
'CI_'
'Budgetary_'
'Bri'
'Besides_'
'Berlín_'
'Bei'
'Based_'
'Bab'
'BR'
'Austrian_'
'Articles_'
'Apoyo_'
'Americans_'
'Amb'
'Agricultura_'
'ACNUR_'
'? !_'
'<_'
'95'
'90'
'56'
'1982_'
'180_'
'15'
'102_'
'.)._'
'))._'
'!!'
' ''
'’._'
'ónica_'
'ís_'
'íc'
'és'
'ép'
'áticas_'
'Ú'
'yi'
'yer_'
'wn_'
'we'
'watching_'
'warrant_'
'wake_'
'vulnerability_'
'vuelva_'
'volv'
'vocational_'
'vir'
'victoria_'
'vet'
'verification_'
'venga_'
'vacation_'
'ux_'
'utilizados_'
'usado_'
'usa'
'upper_'
'universities_'
'universidades_'
'uniforme_'
'undertake_'
'uncon'
'uma'
'uk'
'tz_'
'tric'
'tratan_'
'trat'
'transactions_'
'tranquilidad_'
'tourists_'
'torn'
'tores_'
'tip'
'ticket_'
'terre'
'terapia_'
'tent'
'teni'
'telecomunicaciones_'
'tat'
'tas'
'tackle_'
'tabaco_'
'systematic_'
'symbol_'
'sweet'
'supplies_'
'supplementary_'
'supervision_'
'super_'
'suit_'
'sufri'
'suffer_'
'suelen_'
'succeed_'
'subraya'
'stopped_'
'stood_'
'stic_'
'sphere_'
'speeches_'
'somewhat_'
'solicitado_'
'smart_'
'siv'
'siones_'
'sing'
'silencio_'
'signal_'
'shortly_'
'shift_'
'sexuales_'
'set'
'servir_'
'sent'
'seno_'
'senior_'
'sending_'
'selecciona'
'seguirá_'
'secondary_'
'secador_'
'sci'
'salva'
'run'
'rub'
'rr'
'rou'
'roots_'
'roo'
'rod'
'roc'
'rne'
'rme'
'rib'
'rial_'
'rh'
'retro'
'restricted_'
'restored_'
'respeta'
'representing_'
'repit'
'repeti'
'rental_'
'relieve_'
'rehabilitación_'
'rectifica'
'recover_'
'recording_'
'recordar'
'reclama'
'recipient'
'recibió_'
'receiving_'
'reaction_'
'rds_'
'rata'
'rank'
'rado_'
'químicos_'
'qui_'
'pó'
'pue'
'publicar_'
'protocols_'
'proteger'
'proliferation_'
'productive_'
'privacy_'
'pris'
'prime_'
'preventive_'
'preparativos_'
'preocupes_'
'precise_'
'pp_'
'pot'
'posiciones_'
'poseen_'
'pose'
'populations_'
'poet'
'podían_'
'podrías_'
'pl'
'permission_'
'pere'
'perd'
'paying_'
'pase'
'parec'
'paciente_'
'oye'
'outl'
'ordinary_'
'oras_'
'ons'
'oir'
'oficiosas_'
'ocupan_'
'obten'
'obliged_'
'objects_'
'norms_'
'nights_'
'nice'
'net'
'nen'
'neighbours_'
'necessarily_'
'nch'
'nc'
'naturalmente_'
'native_'
'mínimas_'
'mundialización_'
'mund'
'mpa'
'mount_'
'moral'
'module_'
'modalidades_'
'minor_'
'mg_'
'mezcla_'
'merc'
'mens'
'men'
'mati'
'marcos_'
'maravilloso_'
'mantenido_'
'maneras_'
'maestros_'
'maestro_'
'mad_'
'mad'
'luc'
'lte'
'lom'
'locations_'
'localidad_'
'local'
'lobby_'
'llevando_'
'llegan_'
'liked_'
'liberty_'
'liberación_'
'lets_'
'len'
'lei'
'legislativas_'
'law'
'larg'
'knowing_'
'key'
'kers_'
'jugador_'
'juga'
'jueces_'
'judiciales_'
'jero'
'islands_'
'ional'
'inunda'
'interval'
'intensive_'
'intensiv'
'intenciones_'
'inform'
'infi'
'infection_'
'indicates_'
'incu'
'increíble_'
'incre'
'incidents_'
'impunity_'
'impunidad_'
'imports_'
'implica'
'imi'
'il'
'igu'
'identificación_'
'ición_'
'iar'
'hoped_'
'hoo'
'honourable_'
'hidden_'
'harmonisation_'
'handle_'
'habr'
'guardar_'
'greet'
'gras'
'grafía_'
'gradually_'
'globalisation_'
'gio_'
'generado'
'gab'
'fá'
'functioning_'
'frequency_'
'founded_'
'formuladas_'
'formulada_'
'formation_'
'foods_'
'flota_'
'flota'
'flores_'
'floors_'
'figura'
'fewer_'
'fans_'
'famosa_'
'fals'
'falling_'
'facilita'
'extending_'
'exports_'
'expir'
'exhibition_'
'exclusiva_'
'exc'
'euro'
'estimaciones_'
'estatu'
'estaría_'
'espiritual_'
'espera'
'espe'
'escuch'
'erte'
'err'
'erg'
'equip'
'equi'
'enta_'
'ensayos_'
'engineering_'
'enes_'
'energético_'
'enemigo_'
'ened_'
'encontró_'
'encarga'
'empresarial_'
'empl'
'embarazo_'
'eléctrica_'
'elimination_'
'ein_'
'ec'
'dynamic_'
'doras_'
'doors_'
'documentation_'
'dobles_'
'diss'
'discuti'
'dim'
'dig'
'dictamen_'
'detenidos_'
'detenido_'
'detalle_'
'destaca_'
'descanso_'
'desapareci'
'depth_'
'dependencia_'
'demonstrat'
'dejando_'
'debida_'
'damn_'
'cz_'
'cura'
'cultures_'
'ction_'
'cted_'
'costa'
'corta_'
'correctly_'
'convention_'
'convenio_'
'contamina'
'conta'
'consejos_'
'conoci'
'connect_'
'confirmar_'
'confi'
'concurso_'
'concepts_'
'concentrate_'
'computers_'
'comprende_'
'communicate_'
'commend'
'comité_'
'cometidos_'
'comercialización_'
'colors_'
'colonial_'
'cola'
'coherencia_'
'coastal_'
'clothes_'
'cle_'
'classified_'
'cke'
'cionales_'
'cim'
'cif'
'channels_'
'chan'
'cercan'
'cente'
'cent'
'cenar_'
'cell'
'cea'
'cap'
'cantidades_'
'canción_'
'cancela'
'caer_'
'cadenas_'
'cables_'
'cabin'
'cab'
'bú'
'brief_'
'breaking_'
'bour'
'bou'
'boss_'
'borne_'
'bols'
'blow'
'block'
'blemente_'
'bird_'
'biom'
'bilaterales_'
'bes_'
'beneficia'
'bath'
'bas_'
'barriers_'
'bares_'
'bah'
'bag'
'aéreo_'
'az'
'auténtica_'
'autobuses_'
'audit_'
'audience_'
'attempts_'
'atrev'
'ato'
'artistic_'
'arreglos_'
'arranged_'
'arias_'
'argumentos_'
'ards_'
'apropiado_'
'apoyado_'
'ao'
'anybody_'
'anuncio_'
'anuncia'
'analiza'
'amiga_'
'after'
'affirm'
'advocate'
'admira'
'administrativos_'
'adic'
'acy_'
'actors_'
'acos'
'acogedor_'
'ach_'
'acepta'
'abuela_'
'aborda'
'aboli'
'Zo'
'Wu'
'Wi_'
'Wei'
'Victoria_'
'Verd'
'Vaya_'
'Vall'
'VO'
'VAT_'
'Utiliza'
'UND'
'UA'
'Tuesday_'
'Tourism_'
'Tienen_'
'Tes'
'Southern_'
'Son'
'Site_'
'Sistema_'
'Shit_'
'Sher'
'Sen'
'Segundo_'
'Saudi_'
'Sarah_'
'SD'
'Roth'
'Registro_'
'Recepción_'
'Realmente_'
'Read'
'Rea'
'Rab'
'Propuesta_'
'Professional_'
'Primero_'
'Prest'
'Pos'
'Policía_'
'Pierre_'
'Philippines_'
'Ph'
'Pensé_'
'Pel'
'PT_'
'Over'
'Op'
'On'
'OMS_'
'Number_'
'Norway_'
'Nar'
'NU'
'NT_'
'Mozambique_'
'Mos'
'Morocco_'
'Mierda_'
'Micro'
'Meli'
'Mejor_'
'Mayor_'
'Mata'
'Mag'
'Luna_'
'Lastly_'
'Lag'
'Kur'
'Km_'
'Ker'
'Jer'
'Jefes_'
'Jake_'
'Islam_'
'Inm'
'Ig'
'ISBN_'
'IR'
'IA'
'Hold_'
'Heads_'
'Habla'
'Guide_'
'Grupos_'
'Green'
'Geo'
'GRA'
'GA_'
'Further_'
'Fui'
'Fue'
'Fred'
'Fle'
'Fiscal_'
'Fi_'
'Fac'
'FM'
'FBI_'
'Existen_'
'Ep'
'Enter'
'Empire_'
'Dy'
'Drug_'
'Draft_'
'Dominican_'
'Din'
'Dicho_'
'Danny_'
'Cur'
'Creemos_'
'Cort'
'Copenhagen_'
'Chu'
'Chris_'
'Cause_'
'Canadian_'
'Cana'
'Cambio_'
'CAS'
'Bon'
'Belarus_'
'Be'
'Basic_'
'Back_'
'BL'
'B5_'
'Ava'
'Andrew_'
'Agu'
'; (_'
'86'
'70'
'67'
'62'
'58'
'49'
'2nd_'
'1st_'
'1978_'
'1975_'
'.” _'
'+'
'). — (_'
'' '
'■ _'
'™ _'
'’'
'ón'
'ñe'
'ñ'
'índice_'
'ê'
'ém'
'ère_'
'árabe_'
'án'
'¡¿_'
'~ _'
'zu'
'zh'
'zen'
'yun'
'worker_'
'widespread_'
'whereas_'
'wer'
'wea'
'was'
'wanting_'
'vínculos_'
'víctima_'
'vis_'
'virtu'
'violated_'
'vincula'
'velar_'
'valora'
'vai'
'utilizada_'
'utiliz'
'uss'
'urgency_'
'urbano_'
'upt'
'unta'
'unsu'
'universe_'
'unemployed_'
'ultra'
'tán'
'turns_'
'truc'
'trop'
'trick'
'trends_'
'transmission_'
'transform'
'tranquilo_'
'tortur'
'tort'
'tomen_'
'tolerancia_'
'tolerance_'
'timely_'
'terror_'
'tenth_'
'tennis_'
'tene'
'tend_'
'tend'
'tanta_'
'tangible_'
'sé'
'sy_'
'suscita'
'surroundings_'
'surface_'
'suced'
'subrayar_'
'submission_'
'subjected_'
'stunning_'
'strict_'
'stream_'
'stre'
'stati'
'stake_'
'spi'
'specialist_'
'soña'
'sou'
'sombra_'
'solid_'
'solely_'
'societies_'
'soberanía_'
'smile_'
'sindical'
'sinceramente_'
'sil'
'significa'
'sier'
'sia_'
'shut_'
'show'
'short'
'shelter'
'sencilla_'
'seminars_'
'seminar_'
'secretos_'
'searching_'
'schemes_'
'satisfy_'
'salarios_'
'sag'
'sad_'
'rutas_'
'ruling_'
'rug'
'rosa'
'roman'
'roll_'
'rim'
'revolutionary_'
'revisa'
'reviewed_'
'reti'
'resume_'
'respectively_'
'resident_'
'resi'
'repara'
'rep'
'renovación_'
'renewed_'
'remit'
'religiosos_'
'regi'
'reduc'
'recurrir_'
'recopila'
'recognised_'
'recall_'
'realized_'
'realise_'
'reacción_'
'rango_'
'radical_'
'radia'
'rad'
'racismo_'
'quota_'
'puts_'
'punishment_'
'provi'
'propu'
'proportion_'
'promesas_'
'promesa_'
'prohibited_'
'produjo_'
'procura'
'prize_'
'presupuestaria_'
'presenting_'
'prepar'
'premio_'
'prejudice_'
'preferred_'
'preci'
'posterior_'
'poster'
'posiblemente_'
'portion_'
'ponen_'
'pobre_'
'pli'
'planteamiento_'
'planta'
'piedras_'
'pest'
'permanece_'
'pensión_'
'pension_'
'pensado_'
'passengers_'
'parliamentary_'
'parliament_'
'parlamentaria_'
'parent_'
'oí'
'oz'
'oy'
'owing_'
'ota'
'oro'
'originally_'
'opera_'
'openness_'
'om'
'offences_'
'odia'
'ocean_'
'obvio_'
'obstacles_'
'nó'
'numera'
'nuevamente_'
'ntl'
'notably_'
'nge'
'nest'
'ness'
'nera'
'neighbouring_'
'negra_'
'negativos_'
'need'
'ncy_'
'nca'
'nacionalidad_'
'nacimiento_'
'mou'
'moon_'
'montaña_'
'monos_'
'mira_'
'ministry_'
'ministers_'
'ministerial_'
'minister_'
'millón_'
'mic_'
'metal'
'mere_'
'melo_'
'mediano_'
'medianas_'
'masas_'
'mankind_'
'lógico_'
'lon_'
'loca_'
'llos_'
'lleve_'
'llegar'
'lla'
'liti'
'lig'
'lie'
'lid'
'lib'
'laying_'
'lake_'
'knife_'
'kle'
'kilometres_'
'justified_'
'joy_'
'journal_'
'jen'
'jan'
'ix_'
'ional_'
'invitación_'
'interrupt'
'intelligence_'
'instantly_'
'insi'
'inquiry_'
'ingreso_'
'industrias_'
'incrementa'
'ilustra'
'illicit_'
'iff_'
'ientos_'
'ict'
'ican'
'ibi'
'humanas_'
'hing_'
'hermosa_'
'hectares_'
'headquarters_'
'hard'
'hable_'
'habiendo_'
'haber'
'gá'
'gua'
'gor'
'gle'
'gira'
'gent'
'generalmente_'
'gas'
'garantiza_'
'gado_'
'fur'
'frutas_'
'freely_'
'fraude_'
'frac'
'foster_'
'formulated_'
'flujo_'
'fluid'
'flowers_'
'fig'
'felicita'
'fees_'
'fee_'
'falls_'
'eys_'
'expresó_'
'exponer_'
'experimenta'
'exp'
'exigi'
'exhorta'
'exclusion_'
'exa'
'evangeli'
'etic_'
'eter'
'estimates_'
'estaremos_'
'establecidos_'
'establecen_'
'espect'
'escu'
'escena_'
'erro'
'erradicación_'
'ering_'
'equivalente_'
'epidemic_'
'enviado_'
'entrenamiento_'
'entre'
'entra_'
'entertainment_'
'enjoys_'
'enhancing_'
'enh'
'energías_'
'ences_'
'emphasized_'
'emphasise_'
'emo'
'embr'
'eman'
'eliminate_'
'eligi'
'ecus_'
'economically_'
'eb'
'débiles_'
'duplica'
'dorf_'
'domain_'
'doc_'
'disminuir_'
'dinámica_'
'dieta_'
'diaria'
'diabetes_'
'despliegue_'
'despi'
'desin'
'desgracia_'
'deserve_'
'desee_'
'derr'
'derived_'
'deny_'
'deno'
'demographic_'
'demandas_'
'dejan_'
'decades_'
'debidamente_'
'deberías_'
'debati'
'cuáles_'
'cure_'
'cultivos_'
'cuarta_'
'cti'
'ct_'
'crítica_'
'corrupt'
'coordinate_'
'conventional_'
'contra'
'conti'
'consulta'
'constituir_'
'consideraciones_'
'consequence_'
'conscientes_'
'conocida_'
'conjuntamente_'
'confirm_'
'conductores_'
'composed_'
'compete_'
'compare_'
'comentario_'
'color'
'coca_'
'cm_'
'cimiento_'
'cher_'
'chen'
'ched_'
'checks_'
'chap_'
'centuries_'
'centrales_'
'celebró_'
'caída_'
'cav'
'carbono_'
'campesinos_'
'busy_'
'buscar'
'bullet'
'bs'
'br_'
'bought_'
'borde'
'boot'
'bonito_'
'biological_'
'bill_'
'bili'
'bendiciones_'
'avis'
'avanzada_'
'asse'
'ase_'
'arroz_'
'arra'
'arc'
'aplicado_'
'aparecen_'
'apa'
'anu'
'analyze'
'alrededores_'
'ajustes_'
'ai_'
'agradezco_'
'agra'
'agota'
'agen'
'afr'
'adaptar'
'adapt_'
'ach'
'accu'
'acabado_'
'abordar'
'abiertos_'
'Zh'
'YE'
'XXI_'
'William_'
'Will'
'West'
'Vicepresidente_'
'Vete_'
'UT'
'USB_'
'UM'
'Tunisia_'
'Treaties_'
'Toda_'
'Tit'
'Thomas_'
'Text'
'Terraza_'
'Tan_'
'TT'
'TC'
'Sus'
'Suplemento_'
'Superior_'
'Sul'
'Strategy_'
'Statute_'
'Sm'
'Situation_'
'Siento_'
'Sid'
'Sena'
'Sabemos_'
'SP_'
'Rumania_'
'Rest'
'Regla'
'Ray'
'Rat'
'Rap'
'Prome'
'Porta'
'Poll'
'Petro'
'Papa_'
'Palm'
'PRE'
'PL'
'Ow'
'Organismo_'
'Order_'
'Od'
'OG'
'Not'
'Nord'
'NC'
'Munich_'
'Mujeres_'
'Monta'
'Mm_'
'Mid'
'Medi'
'Martin'
'Mac_'
'MT'
'MP3_'
'MIN'
'Lle'
'Lim'
'Lago'
'LC_'
'Kas'
'Jud'
'Jewish_'
'Jefe_'
'Jamaica_'
'IÓN_'
'Indi'
'Independiente'
'ICA'
'Horario_'
'Hom'
'Hei'
'Hab'
'Gui'
'Grand'
'GDP_'
'GC'
'Fuente_'
'Frank'
'Florida_'
'Five_'
'Final_'
'Fid'
'Fi'
'Feli'
'Expe'
'Especial'
'Eslovenia_'
'EO'
'Día_'
'Dro'
'Disabled_'
'Directorate_'
'Digital_'
'Dep'
'Dentro_'
'Decisión_'
'Coun'
'Core'
'Cond'
'Compr'
'Common_'
'Cleaning_'
'Class_'
'Ciencia_'
'Centr'
'Call_'
'CONT'
'But'
'Busca'
'Bull_'
'Buena_'
'Buen_'
'Brit'
'Bow'
'Bet'
'BS'
'Atr'
'At'
'Ande'
'Among_'
'Am'
'Alon'
'Alguien_'
'Agr'
'Abo'
'Aba'
'AE'
': '_'
'7'
'68'
'64'
'63'
'1979_'
'1974_'
'187'
'110_'
'109_'
'105_'
'.- _'
'. [_'
'-¡_'
' ($_'
' "'
'” '
'‘_'
'—'
'и'
'üe'
'ól'
'ét'
'ég'
'ção_'
'árbol_'
'ág'
'zero_'
'ym'
'yendo_'
'wr'
'wondering_'
'wl'
'wireless_'
'win'
'weird_'
'vivos_'
'vity_'
'vistazo_'
'vist'
'vin'
'vigentes_'
'vieja_'
'vest'
'verd'
'ventanas_'
'vendi'
'vender_'
'venci'
'veinte_'
'vas'
'vad'
'vacío_'
'usu'
'usan_'
'ury_'
'urn'
'upgrade_'
'unusual_'
'ular'
'uis'
'ued_'
'typical_'
'tuya_'
'tube_'
'tting_'
'tro_'
'transporta'
'transpo'
'tough_'
'total'
'top'
'tonto_'
'tied_'
'testimonio_'
'terrorists_'
'tero'
'teléfonos_'
'techo_'
'tation_'
'tación_'
'tabl'
'swe'
'sustainability_'
'survival_'
'surgi'
'suppose_'
'suppliers_'
'supp'
'suns'
'suggestion_'
'sufrido_'
'sueldo_'
'stops_'
'stomach_'
'steel_'
'spite_'
'spect'
'spare_'
'social'
'sob'
'sk'
'sitúa_'
'siglas_'
'sica'
'ship'
'settled_'
'semi_'
'seme'
'seca'
'scientists_'
'sche'
'sav'
'salvar'
'salvación_'
'sabor_'
'ríos_'
'ruso_'
'rumor'
'rum'
'rri'
'row'
'rom'
'roll'
'ris'
'riding_'
'rge'
'reu'
'reto'
'reten'
'responded_'
'respects_'
'respectivos_'
'respected_'
'residential_'
'reservar_'
'rescue_'
'renovado_'
'reme'
'relaxation_'
'reitera'
'rehabilitation_'
'regulated_'
'regarded_'
'regal'
'refused_'
'recuperar_'
'record'
'reconstrucción_'
'reconciliación_'
'reci'
'rechazo_'
'rech'
'realizando_'
'realistic_'
'reali'
'rde'
'rar_'
'radical'
'queja'
'pág_'
'puertos_'
'pude_'
'publicidad_'
'provincial_'
'prove'
'protocol_'
'protest'
'pros'
'properties_'
'promising_'
'prohibit'
'procurement_'
'proc'
'presidencia_'
'preparations_'
'preparar'
'preocupado_'
'premises_'
'prefer'
'precedentes_'
'pot_'
'posi'
'pong'
'polvo_'
'pn'
'plo'
'plates_'
'placing_'
'phy'
'pertinente_'
'pers'
'permitan_'
'pending_'
'ped'
'peces_'
'participaron_'
'participa'
'pareja_'
'parc'
'pana'
'pan'
'overcome_'
'orm'
'orienta'
'ordinario_'
'orden'
'oradores_'
'op'
'oon_'
'oo_'
'officially_'
'obviamente_'
'nz'
'novia_'
'notable_'
'noci'
'noble_'
'nn'
'nima'
'negotiating_'
'neck_'
'nds_'
'mpi'
'mostra'
'mortal_'
'moni'
'miércoles_'
'mist'
'mini'
'minds_'
'mina_'
'mina'
'migración_'
'metr'
'meter'
'mentira_'
'mem'
'mel'
'medieval_'
'medicines_'
'mato'
'managing_'
'managers_'
'malas_'
'magn'
'm2_'
'lth'
'loop'
'llora'
'llegue_'
'llar'
'lively_'
'lite'
'limitar_'
'lf'
'letra_'
'lento_'
'lent'
'lenguas_'
'ld'
'lawyer_'
'ku_'
'kt'
'kh'
'juntas_'
'judg'
'journalist_'
'izado_'
'ite_'
'isation_'
'iré_'
'irme_'
'invi'
'investigar_'
'intervenir_'
'interim_'
'intergubernamentales_'
'integrity_'
'instant'
'insta_'
'inspir'
'insisti'
'inn'
'inmun'
'ined_'
'inad'
'imprescindible_'
'impres'
'importación_'
'importa'
'implementación_'
'ima_'
'ile_'
'ido'
'identifica'
'ideal'
'ic'
'ib'
'hubiese_'
'homo'
'hoja_'
'hide_'
'here'
'hed_'
'headed_'
'hea'
'harassment_'
'had'
'géneros_'
'guerras_'
'guard'
'grin'
'grade_'
'grace_'
'goza_'
'gno'
'gl'
'gest'
'gathering_'
'fútbol_'
'fulfilled_'
'fuese_'
'fres'
'free'
'frase_'
'fotografía_'
'forma'
'forgot_'
'fora'
'firstly_'
'fil'
'ficheros_'
'ff'
'fat_'
'farms_'
'false_'
'faithful_'
'fact'
'exámenes_'
'extrema_'
'ext'
'expu'
'explicación_'
'expedi'
'exigir_'
'excluded_'
'excepto_'
'exact_'
'eve'
'ete_'
'estrictamente_'
'estratégico_'
'estratégica_'
'estar'
'esperan_'
'eses_'
'escucha'
'escritorio_'
'escapa'
'erratas_'
'erda'
'equipada_'
'enví'
'envi'
'enve'
'entrevista_'
'entregar'
'entrance_'
'entos_'
'enhanced_'
'enga'
'enemigos_'
'enemies_'
'endure'
'enda'
'enabled_'
'employers_'
'empezar'
'emisión_'
'elsewhere_'
'ell'
'electrónicos_'
'electrical_'
'educa'
'eco_'
'ead'
'dura'
'dt_'
'dom_'
'dly_'
'diversifica'
'dita'
'dil'
'dies_'
'dict'
'devolver'
'determining_'
'detallada_'
'destacado_'
'desl'
'desempeña'
'descargar_'
'deroga'
'depart'
'dental'
'delighted_'
'delicious_'
'dei'
'defensores_'
'defensor_'
'defending_'
'deeply_'
'deemed_'
'dedicar'
'decline_'
'declara'
'decisive_'
'decirte_'
'decimos_'
'deba'
'dde'
'dat'
'cumplido_'
'cuerpos_'
'cry_'
'crit'
'crib'
'crew_'
'crean_'
'cow'
'courage_'
'cosy_'
'costas_'
'corriente_'
'corriendo_'
'correct'
'copa'
'cookies_'
'convirtió_'
'convi'
'convenios_'
'contributing_'
'contrata'
'contract'
'contienen_'
'contest'
'content'
'contacts_'
'constitution_'
'constantemente_'
'considerablemente_'
'confronta'
'confidencial'
'conf'
'condena'
'concreta_'
'comunicar'
'come'
'combines_'
'colo'
'collected_'
'colección_'
'coc'
'coach_'
'clasificación_'
'clam'
'cl'
'citado_'
'cita_'
'ciona'
'cierre_'
'centers_'
'ceiling_'
'cat'
'castigo_'
'carpet'
'card'
'capitán_'
'candidates_'
'canciones_'
'can'
'califica'
'cafe'
'bé'
'buscador_'
'broke_'
'brinda'
'bomb'
'blocks_'
'blanqueo_'
'beneplácito_'
'belonging_'
'basically_'
'bail'
'ayun'
'avoiding_'
'autonomía_'
'automática_'
'automatic_'
'attacked_'
'atrapa'
'ating_'
'ates_'
'ater'
'asset_'
'asesina'
'asa_'
'ars_'
'arrange_'
'arl'
'aptitudes_'
'aprendido_'
'apparently_'
'appar'
'apoyar'
'aportar_'
'aplican_'
'answered_'
'anima'
'amuebladas_'
'ampliada_'
'amo'
'americana_'
'ambition_'
'alternatives_'
'altera'
'alin'
'alimenta'
'alien_'
'alg'
'alemanes_'
'alega'
'albergues_'
'ajustar_'
'ajusta'
'ador'
'adopte_'
'adopta'
'adel'
'actualizar_'
'actua'
'actor_'
'acquired_'
'acknowledge_'
'acercar'
'aceptación_'
'acc'
'absten'
'XI_'
'World'
'Wikitravel_'
'Whether_'
'Voltaire_'
'Viv'
'Vietnam_'
'Via'
'Vend'
'Vegas_'
'Vas_'
'Univers'
'USE_'
'UNC'
'Turismo_'
'Top_'
'Tobago_'
'Thu'
'Team_'
'Tampoco_'
'Tal'
'TA_'
'Sun'
'Sue'
'Subcommittee_'
'Stud'
'Structural_'
'Still_'
'Sony_'
'Socialista_'
'Ski'
'Sk'
'Sign'
'Señoría_'
'Set_'
'Segunda_'
'Scho'
'Schl'
'Sai'
'STA'
'Rey_'
'Rey'
'Resulta_'
'Resources_'
'Rein'
'Ras'
'Racial_'
'RT_'
'Prosecutor_'
'Pros'
'Pret'
'Pregunta_'
'Port'
'Polish_'
'Pod'
'Place_'
'Pit'
'Pienso_'
'Persons_'
'Pas'
'Pai'
'Page_'
'PER'
'Ort'
'Organisation_'
'Open'
'OJ_'
'OA'
'Número_'
'Nobody_'
'Niño_'
'Nev'
'NG'
'Monterrey_'
'Monitoring_'
'Mol'
'Mobile_'
'Massa'
'Mars'
'Marg'
'Marcos_'
'Mallorca_'
'MS_'
'MM'
'Ll'
'Liechtenstein_'
'Kor'
'Kon'
'Kin'
'Kill'
'Kam'
'Jimmy_'
'Jesucristo_'
'Jacob_'
'JE'
'Isla_'
'Isa'
'Introduction_'
'Ib'
'Hat'
'Harri'
'Had'
'Hac'
'HU'
'Guidelines_'
'Goals_'
'General'
'Gall'
'Funds_'
'Freedom_'
'Filipinas_'
'Fai'
'Explo'
'Expertos_'
'Escuela_'
'Eric'
'Edition_'
'ENT'
'Dum'
'Don'
'Disfrute_'
'Dis'
'Dirección_'
'Description_'
'Deli'
'Deja'
'Deberíamos_'
'Dan_'
'Cue'
'Cos'
'Conse'
'Communist_'
'Catholic_'
'Carl'
'Card_'
'Canal_'
'CONS'
'Burkina_'
'Bull'
'Brown_'
'Bridge_'
'Brand'
'Ble'
'Bir'
'Bin'
'Big_'
'Bene'
'Banquet_'
'Balcanes_'
'Bad_'
'Asistencia_'
'Ascensor_'
'Apo'
'Angeles_'
'Andrea_'
'Am_'
'Ali_'
'Algeria_'
'Alexander_'
'Against_'
'Adobe_'
'Adam_'
'Aco'
'Access_'
'Abra'
'Abb'
'82'
'6'
'59'
'1981_'
'1967_'
'1948_'
'125_'
'06'
'..."_'
', _'
'#_'
' ...'
' - '
' ''_'
'úl'
'úa'
'ø'
'ô'
'ógico_'
'óf'
'ístico_'
'íf'
'ándo'
'ÓN_'
'­ _'
'zza'
'younger_'
'yl_'
'xic'
'wre'
'wisdom_'
'width_'
'whis'
'wherever_'
'welcoming_'
'weigh'
'wan'
'vuestros_'
'votar'
'votantes_'
'voluntarios_'
'viva_'
'vigente_'
'vibra'
'verlo_'
'vayas_'
'vali'
'ué_'
'utmost_'
'ute_'
'urs'
'unp'
'unirse_'
'unce'
'unanimidad_'
'ulos_'
'ule'
'ucion'
'títulos_'
'tá'
'tz'
'typically_'
'tuviera_'
'tutor'
'turco_'
'tud'
'tt_'
'trend_'
'transmitted_'
'transforma'
'trag'
'tours_'
'torias_'
'tons_'
'toilet_'
'tine'
'tica'
'thorough_'
'terri'
'termina_'
'tendrás_'
'temp'
'telecommunications_'
'tb'
'taxation_'
'talent'
'suyo_'
'sustituir_'
'sustantivo_'
'sus'
'sufrimiento_'
'sufren_'
'suena_'
'suck'
'subregion'
'subi'
'strat'
'stop'
'stin'
'stee'
'sted_'
'statistical_'
'stan_'
'stab'
'sse_'
'sponsors_'
'spin'
'sorpresa_'
'sona'
'solía_'
'sobrev'
'smi'
'sio'
'sindicatos_'
'simula'
'significativo_'
'significativa_'
'sights_'
'sida_'
'sib'
'shoes_'
'sheet_'
'shape_'
'sew'
'separately_'
'sentir'
'senta'
'sensibilización_'
'sem'
'seiz'
'see'
'seduc'
'seats_'
'scandal'
'scan_'
'sand_'
'rui'
'rov'
'roles_'
'rojo_'
'roe'
'ris_'
'ril'
'rez_'
'revision_'
'restructuring_'
'respond'
'respect'
'reserves_'
'resc'
'reproducción_'
'repos'
'reporta'
'repe'
'renewable_'
'removing_'
'remedy_'
'reli'
'relative_'
'relate_'
'registrados_'
'registra'
'regardless_'
'recom'
'reclu'
'reba'
'rch'
'rapidez_'
'radi'
'quitar'
'querida_'
'pub_'
'ptic'
'próximas_'
'proven_'
'prosecution_'
'promete'
'progresa'
'profile_'
'productivity_'
'priva'
'primas_'
'presupuestarios_'
'presupuestarias_'
'presidential_'
'preserva'
'prer'
'preparatory_'
'preju'
'pray_'
'potenciales_'
'posed_'
'ponentes_'
'politically_'
'policías_'
'polic'
'podremos_'
'plazos_'
'play'
'pick'
'pertenecen_'
'perpetua'
'permitió_'
'permiti'
'permaneci'
'perfecciona'
'perf'
'perder'
'pera'
'películas_'
'pee'
'pedir'
'peace'
'pasada_'
'pas'
'paredes_'
'pared_'
'panoramic_'
'pain'
'pacífica_'
'pace_'
'overlook'
'otorga_'
'ote_'
'oscuridad_'
'oria'
'organs_'
'ordenación_'
'opu'
'opol'
'oni_'
'oner_'
'oma_'
'ofreci'
'ofrecemos_'
'observations_'
'observan'
'obra'
'obliga'
'obi'
'nza'
'nta_'
'nowhere_'
'noon_'
'neuro'
'nde_'
'navi'
'navegador_'
'nas'
'nar_'
'nament'
'nacidos_'
'móviles_'
'myth'
'mul'
'moves_'
'mother'
'monetaria_'
'moc'
'mirar_'
'metas_'
'merits_'
'meri'
'meets_'
'medications_'
'medication_'
'mbo'
'mbi'
'massive_'
'marítimo_'
'mara'
'map'
'manufacturers_'
'manifestar_'
'mang'
'mane'
'mandatory_'
'mand'
'magistrados_'
'lucky_'
'luces_'
'lose'
'lled_'
'llam'
'liv'
'line'
'lin_'
'limita'
'lien'
'licencias_'
'li'
'leve'
'leo'
'lenguaje_'
'lan'
'lamenta'
'lag'
'lab'
'knock'
'kin'
'just'
'jump_'
'jack'
'ize_'
'izan'
'itar'
'italiana_'
'ita'
'issu'
'ira'
'inútil_'
'invo'
'invest'
'invasión_'
'intra'
'internally_'
'interacción_'
'intensifica'
'integrada_'
'inspection_'
'insist_'
'insert'
'insect'
'input_'
'ink'
'initially_'
'inicia'
'inh'
'ington_'
'infe'
'infantiles_'
'individuos_'
'incumpli'
'incomp'
'impression_'
'impresionante_'
'imaginar'
'ils_'
'ignor'
'iga'
'ifica'
'ific'
'iembre_'
'identifying_'
'ial'
'hun'
'human'
'hro'
'household_'
'hospitality_'
'horrible_'
'hop_'
'hoods_'
'homicid'
'hl'
'hist'
'hir'
'hierro_'
'hid'
'has'
'hardly_'
'halla'
'habéis_'
'hablo_'
'hablan_'
'gur'
'gráficos_'
'grew_'
'grand_'
'gracia_'
'gr'
'golpea'
'gn'
'gimnasio_'
'geri'
'generous_'
'generations_'
'gener'
'gay_'
'gained_'
'frequently_'
'freeze'
'frecuentes_'
'frecuentemente_'
'fotografías_'
'fotocopiadora_'
'forums_'
'forgotten_'
'flying_'
'flor'
'fired_'
'finger'
'financed_'
'fili'
'festiv'
'feat'
'favorite_'
'fan'
'fam'
'fallos_'
'fallen_'
'falla'
'facto_'
'fabricantes_'
'ey'
'extract'
'externa_'
'exposure_'
'experimentar_'
'exo'
'exit_'
'excited_'
'excepcional_'
'excelencia_'
'exceed'
'ew'
'evalua'
'ette_'
'estrechamente_'
'estimados_'
'este'
'especifica'
'española_'
'esen_'
'escuchado_'
'escrib'
'ers'
'erradicar_'
'erra'
'equipamiento_'
'entering_'
'enlaces_'
'enla'
'enemy_'
'end'
'encuesta_'
'encuentre_'
'encr'
'encounter_'
'encontré_'
'encargados_'
'enca'
'empresariales_'
'emp'
'ele_'
'elabora'
'ejerce'
'eja'
'ecc'
'eca'
'eas_'
'dying_'
'dw'
'dropped_'
'dressed_'
'dominio_'
'disputes_'
'disminución_'
'discutir_'
'disciplina_'
'dirty_'
'directions_'
'direcciones_'
'diagnóstico_'
'diablos_'
'dh'
'determinada_'
'detener_'
'detect'
'destacó_'
'desor'
'designated_'
'descripción_'
'describi'
'descen'
'desastre_'
'derrota'
'deposit_'
'denuncia_'
'dejó_'
'degrad'
'definitivamente_'
'defens'
'defecto_'
'defect'
'decirme_'
'decent_'
'decen'
'data'
'darkness_'
'dad'
'cé'
'cut'
'custody_'
'cup_'
'cuida'
'ctor_'
'cruza'
'crises_'
'creer'
'crear'
'cr'
'cotidiana_'
'cot'
'cort'
'copias_'
'cool'
'cooking_'
'convoca'
'converted_'
'contrast'
'constru'
'consigna'
'considere_'
'confus'
'confine'
'confiar_'
'condemned_'
'conceptos_'
'concede_'
'comunica'
'compra'
'composition_'
'completion_'
'complementary_'
'complementa'
'complement_'
'compañias_'
'comi'
'colonia'
'colaborar_'
'coco'
'cláusula_'
'cleaning_'
'cker'
'chr'
'chor'
'cho_'
'chen_'
'chemicals_'
'checking_'
'chat_'
'cham'
'chal'
'cf_'
'ces'
'certainty_'
'cere'
'cera'
'cañ'
'carreteras_'
'carbo'
'captura'
'cap_'
'canto'
'campe'
'calcula'
'cala'
'caballo_'
'bul'
'bug_'
'bro_'
'británicos_'
'brinda_'
'boutique_'
'boo'
'bod'
'boats_'
'blas'
'birthday_'
'biodiversidad_'
'bec'
'battery_'
'basura_'
'balcón_'
'bad'
'bacteria'
'az_'
'ax'
'aviso_'
'auditor'
'atl'
'ath'
'ate'
'asu'
'assa'
'asocia'
'asisti'
'asesor'
'aqu'
'apt'
'apropiada_'
'appreciation_'
'apparent_'
'apoyen_'
'apo'
'aplicables_'
'aparcamiento_'
'anes'
'anda'
'ampliamente_'
'amantes_'
'aman'
'alegro_'
'ald'
'alcanza'
'album_'
'agraria'
'advise_'
'adoptada_'
'adopt'
'adjustment_'
'adds_'
'acumula'
'acquire_'
'acor'
'acontecimiento_'
'acio'
'acepte'
'acepta_'
'acelerar_'
'acabar_'
'Wiki'
'Walter_'
'Ví'
'Vil'
'View_'
'Ustedes_'
'Urge'
'Ultra'
'UPS_'
'UD'
'Try_'
'Tou'
'Tool'
'Tommy_'
'Tim'
'Tho'
'Ther'
'Tenía_'
'Swa'
'Sup'
'Sudan_'
'Stor'
'Standard_'
'Spo'
'Spa'
'Singapore_'
'Sigue_'
'Series_'
'Sept'
'Select'
'Schu'
'Save_'
'Sacr'
'STE'
'SEN'
'Ry'
'Ros'
'Roo'
'Road_'
'Reitera'
'Registr'
'Ree'
'Recom'
'Reco'
'Rad'
'Quinta_'
'Questions_'
'Quality_'
'Promotion_'
'Promo'
'Probablemente_'
'Pro_'
'Present'
'Poli'
'Pet'
'Perdón_'
'Patten_'
'Partnership_'
'Paragraph_'
'Panamá_'
'PM'
'Otras_'
'Orden_'
'Ok'
'Ofrece_'
'Oct'
'OSCE_'
'Ny'
'Nin'
'Nepal_'
'Naturalmente_'
'Nan'
'Namibia_'
'NGO_'
'NAS_'
'Má'
'Mongolia_'
'Mod'
'Michel_'
'Mas_'
'Marte'
'Marie_'
'Mara'
'Mant'
'Mano'
'Mann'
'Manager_'
'Majest'
'MEPs_'
'MEN'
'Lul'
'Luke_'
'Lucas_'
'Lla'
'Lit'
'Lima_'
'Law'
'LL_'
'LD'
'Kla'
'Kevin_'
'KO'
'KE'
'Juegos_'
'Jose'
'Jordan_'
'Jona'
'Jardín_'
'Jane_'
'JO'
'Ironing_'
'Intergubernamental_'
'Int'
'Inn'
'INF_'
'ICI'
'Hyd'
'Huh_'
'Hollywood_'
'Hill_'
'Head_'
'Haz_'
'Haga_'
'Guyana_'
'Guy'
'Gr'
'Gon'
'Gil'
'Gas'
'Gala'
'Gal'
'GEN'
'Func'
'Full_'
'Four_'
'Festival_'
'Faso_'
'Familia_'
'Exc'
'Estar'
'Esos_'
'Employment_'
'Dí'
'DvDrip_'
'Doo'
'Donde_'
'Doc_'
'Direct'
'Dime_'
'Diario_'
'Del'
'Deci'
'Day'
'Danish_'
'Daddy_'
'DU'
'DS_'
'DI_'
'Cuáles_'
'Cristian'
'Coordination_'
'Conte'
'Constitucional_'
'Considerando_'
'Compa'
'Clu'
'Champ'
'Chad_'
'Cata'
'Casino_'
'Casi_'
'Cai'
'Brian_'
'Bara'
'Band'
'Bajo_'
'Bah'
'Auditors_'
'Asunto_'
'Argelia_'
'Arena_'
'Aprobación_'
'Appl'
'Angel'
'Anal'
'Amo'
'Alquiler_'
'Alianza_'
'Aj'
'Adelante_'
'Act'
'ASEAN_'
'ALL_'
'AG_'
': ¡_'
'98'
'91'
'75'
'71'
'20th_'
'19'
'186'
'100'
'... - _'
'*'
')]'
' `_'
' :_'
' (“_'
' " _'
'…'
'в'
'úm'
'óm'
'íp'
'índole_'
'éticos_'
'éndol'
'ábamos_'
'ß'
'¡ _'
'zoo'
'zm'
'yu'
'ypt'
'yield'
'yh'
'yan_'
'widely_'
'whatsoever_'
'wee'
'wearing_'
'waves_'
'war'
'wal'
'wage_'
'vuel'
'volcan'
'voi'
'voces_'
'vital'
'vita'
'vir_'
'vigila'
'viewing_'
'vice_'
'veto_'
'verificar_'
'vea_'
'varie'
'vamente_'
'valle_'
'vaca'
'usos_'
'urr'
'urgently_'
'updating_'
'upcoming_'
'unica'
'undi'
'underground_'
'unci'
'ultimate_'
'uid'
'ugh'
'uen_'
'ubicada_'
'uber'
'uat'
'uar'
'turísticos_'
'tud_'
'tuberculosis_'
'tub'
'tte'
'tta_'
'tt'
'tros_'
'trig'
'traza'
'travelling_'
'trap'
'transmiti'
'trai'
'traer'
'tou'
'tly_'
'tives_'
'tips_'
'tia'
'text'
'terrorista_'
'teme'
'tecnológico_'
'tch'
'taught_'
'tarda'
'tard'
'tantas_'
'tali'
'tain_'
'séptimo_'
'swor'
'surveillance_'
'suprimir_'
'supervisar_'
'superb_'
'sul'
'sugiere_'
'suggestions_'
'suddenly_'
'sube'
'stream'
'sten'
'stat'
'spir'
'specially_'
'slo'
'situada_'
'signat'
'sientes_'
'shuttle_'
'shoulder_'
'shorte'
'shin'
'shalt_'
'shadow_'
'señorita_'
'sexto_'
'serían_'
'servid'
'separa'
'sentences_'
'semi'
'sell'
'sees_'
'seeds_'
'secretar'
'scared_'
'saving_'
'satisfecho_'
'salones_'
'sal_'
'safeguards_'
'rápid'
'ruc'
'routine_'
'round'
'roof_'
'romper_'
'rodeado_'
'roda'
'rio'
'rie_'
'ric_'
'revisado_'
'reunirse_'
'resp'
'resist'
'reside_'
'researchers_'
'reproductor_'
'reportedly_'
'repeatedly_'
'repa'
'renc'
'rely_'
'religiosa_'
'relevanc'
'relaja'
'rel'
'reina_'
'regularly_'
'regalo_'
'refund'
'reform'
'refiri'
'reestructuración_'
'reconstru'
'reas'
'realizó_'
'read'
'raz'
'ray_'
'rape_'
'quote_'
'quir'
'qualifications_'
'py'
'puro_'
'punish'
'pun'
'pump'
'pulsa'
'pudieran_'
'pti'
'pso'
'protest_'
'prostitution_'
'prosperity_'
'proposing_'
'proposes_'
'propone'
'propon'
'propietarios_'
'pronóstico_'
'profundiza'
'proclama'
'priest_'
'prestar'
'prestaciones_'
'presidi'
'prep'
'preocupa'
'pregunt'
'predica'
'precisión_'
'precari'
'practicar_'
'potencia'
'portal_'
'populares_'
'pools_'
'pod'
'pocket_'
'plen'
'pien'
'picked_'
'pet_'
'pescadores_'
'perpetrators_'
'permit'
'perm'
'peni'
'pci'
'pay'
'parto_'
'paraíso_'
'panorama_'
'palm'
'paisaje_'
'paciencia_'
'oy_'
'ox'
'owe'
'ous'
'ours_'
'our'
'org'
'orda'
'opr'
'oportuno_'
'opo'
'oning_'
'onc'
'onal'
'omp'
'ología_'
'oles_'
'ok'
'occasions_'
'observado_'
'obe'
'nutrition_'
'nue'
'noti'
'nombra'
'ninth_'
'nings_'
'neutrali'
'neutral_'
'nen_'
'negociar_'
'navegación_'
'narrow_'
'nam'
'nació_'
'máquinas_'
'má'
'murieron_'
'motorway_'
'modifica_'
'moda_'
'mobilize'
'mobility_'
'mme'
'mix'
'minerales_'
'millas_'
'met'
'mess_'
'mejorar'
'mejoramiento_'
'mediterránea_'
'medicine_'
'mbra'
'max'
'masculin'
'marino_'
'maps_'
'males_'
'male'
'magic_'
'magazine_'
'madres_'
'mada'
'machinery_'
'lve'
'longitud_'
'lob'
'loan_'
'llevaron_'
'llevarl'
'llen'
'llan'
'llamo_'
'list'
'lish'
'linguistic_'
'limpiar_'
'limitations_'
'limitar'
'likes_'
'liga'
'liberation_'
'lesson_'
'legislativos_'
'legislaciones_'
'lee'
'lava'
'latino'
'lade'
'labelling_'
'kl'
'justifica'
'jury_'
'juris'
'jar_'
'iéndo'
'ivos_'
'itiv'
'isolated_'
'ire'
'investments_'
'investigations_'
'invernadero_'
'introduc'
'intimida'
'intervene_'
'intermedia'
'interesantes_'
'interact'
'intentando_'
'insuficiente_'
'instruct'
'insti'
'instances_'
'inspiration_'
'inos_'
'inmo'
'inl'
'informan'
'informa_'
'infla'
'infierno_'
'infect'
'indicator_'
'indican_'
'incredible_'
'ince'
'imposición_'
'impone'
'imperative_'
'imper'
'impedi'
'imen'
'imb'
'ild'
'ik'
'ig_'
'ificación_'
'ideally_'
'ibles_'
'hui'
'hotel'
'homel'
'holy_'
'hm'
'hle'
'hill_'
'highlights_'
'hidr'
'hero'
'heri'
'haz_'
'hart'
'harmoniz'
'hang_'
'haci'
'habilidades_'
'gó_'
'gó'
'gula'
'grita'
'grave'
'graphic_'
'gradua'
'goo'
'gon'
'global'
'gia_'
'gera'
'genética'
'genuinely_'
'gentle'
'gem'
'gather_'
'garage_'
'ganas_'
'ganancias_'
'físicos_'
'físicas_'
'fí'
'fundamenta'
'fte'
'frequent_'
'fragmenta'
'frag'
'formula'
'flu_'
'flo'
'flee'
'flash_'
'fire'
'films_'
'fiestas_'
'fear'
'favorecer_'
'favorable_'
'fauna_'
'fathers_'
'fashion_'
'fa_'
'extraordinaria_'
'extend'
'explícita'
'explotaciones_'
'explains_'
'expenditures_'
'exe_'
'exclu'
'excessive_'
'excepciones_'
'examinar'
'ev_'
'estudiando_'
'estudia'
'estableció_'
'establec'
'esqui'
'esposo_'
'escucha_'
'escolar_'
'ere_'
'epi'
'eos_'
'envia'
'envejecimiento_'
'env'
'entra'
'entender'
'entail'
'ense'
'energies_'
'endo'
'ende_'
'encontraba_'
'encanta_'
'enburg_'
'enad'
'empezando_'
'emerged_'
'emblem'
'els_'
'elimina'
'electric_'
'eld_'
'ein'
'eful_'
'echa'
'dual_'
'dow'
'dorm'
'doo'
'domingo_'
'domicilio_'
'doctora'
'doce_'
'dm'
'dl'
'diá'
'divulga'
'div'
'distr'
'dispute_'
'dispuesta_'
'dispon'
'disfr'
'discussing_'
'disculpa'
'disappear'
'disadvantage'
'diploma'
'dio'
'dining_'
'dina'
'differ'
'dif'
'dge'
'devolución_'
'deu'
'detect_'
'detección_'
'destinada_'
'deso'
'desean_'
'descar'
'derivados_'
'dependen_'
'depend'
'demon'
'dema'
'delays_'
'degradation_'
'deduc'
'decoración_'
'decora'
'deci'
'dece'
'deber'
'daña'
'dam'
'curs'
'cumpli'
'cum'
'cubrir_'
'cruz_'
'credibilidad_'
'creates_'
'countless_'
'cott'
'correctamente_'
'corre_'
'coordina'
'convin'
'constructiv'
'constituted_'
'constitu'
'consistently_'
'considerably_'
'conservar_'
'consecutiv'
'conformity_'
'conectar'
'conduci'
'concur'
'concerta'
'comput'
'compulsory_'
'compli'
'complejidad_'
'compila'
'competidor'
'comités_'
'comercializa'
'colours_'
'coherente_'
'coherence_'
'cobra'
'clean'
'classic_'
'claras_'
'cita'
'circula'
'chick'
'chic'
'chas_'
'chairman_'
'certified_'
'ceremonia_'
'cercana_'
'centrali'
'centrado_'
'cciones_'
'causa'
'cata'
'cast'
'casi'
'capability_'
'cand'
'cancelled_'
'canc'
'canal_'
'caminar_'
'caj'
'cade'
'buques_'
'bother_'
'bos'
'bombas_'
'blind_'
'bioc'
'bicicletas_'
'bes'
'begun_'
'beer_'
'bee'
'bed'
'bala'
'bai'
'awesome_'
'autopista_'
'autom'
'aumentar'
'aumenta_'
'aug'
'audiencia_'
'audi'
'attitudes_'
'atracciones_'
'ator'
'asusta'
'assigned_'
'asignar'
'ash_'
'asegurarse_'
'ascensor_'
'ará_'
'arts_'
'artista_'
'arrive_'
'arrangement_'
'armonizar_'
'arise_'
'argument'
'architect'
'arca'
'arb'
'aras_'
'arancel'
'aqui_'
'aquella_'
'aproximación_'
'appli'
'aplicando_'
'apel'
'any'
'antico'
'anniversary_'
'anc'
'ampli'
'americano_'
'am'
'alleg'
'all'
'alentar_'
'alemana_'
'alegra'
'alcanzar'
'alca'
'alarm_'
'aje'
'ahorro_'
'agujero_'
'agrado_'
'aff'
'afectado_'
'advi'
'advances_'
'adopten_'
'adding_'
'activa'
'aconseja'
'aclara'
'aci'
'absoluta_'
'abd'
'[ _'
'Zelandia_'
'Yi'
'Yan'
'XP_'
'XI'
'Wri'
'Workers_'
'Wireless_'
'Vis'
'Vir'
'Vinc'
'Verdad_'
'Valley_'
'User'
'Unless_'
'UE'
'Tuv'
'Total_'
'Tob'
'Thro'
'Tha'
'Tex'
'Tel_'
'Tam'
'Tai'
'TION_'
'THE'
'TEN'
'Systems_'
'Subcomisión_'
'Studies_'
'Stu'
'Stockholm_'
'Srta_'
'Sn'
'See'
'Scot'
'Sci'
'Say_'
'Salida_'
'Safe'
'SPA'
'SG'
'SAL'
'Ryan_'
'Roger_'
'Ris'
'Ric'
'Regi'
'Regarding_'
'Recon'
'Rac'
'RC_'
'Qu'
'Puesta_'
'Pueden_'
'Prove'
'Proc'
'Potencia'
'Pop'
'Poc'
'Player_'
'Pie'
'Pid'
'Pic'
'Perr'
'Patrick_'
'Para'
'Palma_'
'Pala'
'Organi'
'Oficial_'
'Ocean_'
'OECD_'
'Nobel_'
'Ner'
'Navi'
'NA_'
'Muslim_'
'Moses_'
'Mode'
'Mie'
'Michel'
'Mensaje'
'McC'
'Map'
'Manchester_'
'MR'
'Leg'
'Las'
'Ladies_'
'Lab'
'LAN'
'Kit'
'Kid'
'Kath'
'Kai'
'KI'
'Jurídicos_'
'Jur'
'Jim_'
'Jess'
'Jerusalén_'
'Jeff_'
'Jan_'
'Jackson_'
'Iv'
'Inglaterra_'
'Inc'
'Id'
'IO'
'INTER'
'IDE'
'Hy'
'Hunt'
'Hum'
'Hmm_'
'Haya_'
'Harry_'
'Hal'
'Gy'
'Gulf_'
'Guil'
'Gue'
'Good'
'Gift_'
'García_'
'GE_'
'Fuen'
'Fuck_'
'Focus_'
'Fernando_'
'FU'
'FE_'
'Está'
'Espera'
'Eslovaquia_'
'Environmental_'
'England_'
'Ell'
'Ele'
'Eddie_'
'EV'
'EU'
'ESP'
'ESC'
'Dublin_'
'Dry_'
'Donn'
'Dol'
'Dist'
'Developing_'
'Dete'
'Det'
'Deje'
'Deja_'
'Data_'
'Dado_'
'DEL_'
'Có'
'Cy'
'Cultura_'
'Cons'
'Comple'
'Coll'
'Close_'
'Cin'
'Chat'
'Charl'
'Cas'
'Carter_'
'Carr'
'Capitán_'
'Canc'
'Campa'
'Cami'
'Cambodia_'
'CO2_'
'Burg'
'Brun'
'Brazilian_'
'Between_'
'Berg'
'Beni'
'Bell'
'Bau'
'Bang'
'Ay'
'Ask_'
'Arti'
'Arme'
'Aplicación_'
'Apartamento_'
'Apa'
'Anti_'
'Amnistía_'
'Alf'
'Alber'
'Alban'
'Agua_'
'Aga'
'Adu'
'Adjunto_'
'Add'
'Aa'
'AV'
'AT_'
'ADN_'
'ACT'
'AA'
'? ._'
'> _'
'85'
'81_'
'81'
'1976_'
'1960_'
'18th_'
'188'
'118_'
'+ _'
''''
'!!!_'
' .'
' # '
'ñi'
'ï'
'ísima'
'índices_'
'íg'
'ífic'
'éva'
'ético_'
'â_'
'ánea_'
'áne'
'Éste_'
'És'
'}'
'zon'
'zi_'
'zan_'
'zada_'
'yss'
'yb'
'xis'
'wording_'
'wor'
'witnessed_'
'wishing_'
'wis'
'wic'
'western_'
'websites_'
'wd'
'waste'
'wag'
'vá'
'vu'
'von_'
'volvió_'
'voluntario_'
'villa'
'viajeros_'
'viaj'
'versions_'
'veri'
'vergüenza_'
'venga'
'veh'
'vast'
'vary_'
'varied_'
'vani'
'utilizadas_'
'uti'
'usly_'
'urgentes_'
'unwi'
'unsa'
'unprecedented_'
'universali'
'unity_'
'underlying_'
'underline'
'ulo'
'ular_'
'ught_'
'ugh_'
'ues'
'tuvi'
'turística_'
'triu'
'tramp'
'tp'
'tower_'
'touched_'
'tones_'
'toman_'
'toca_'
'tiv'
'titu'
'tire'
'til_'
'tig'
'tick'
'tib'
'thumbnail_'
'threshold_'
'threatening_'
'terap'
'tenéis_'
'tengas_'
'tendency_'
'temperature_'
'tch_'
'tary_'
'tapa'
'taller_'
'swear_'
'suya_'
'suspected_'
'supplied_'
'supplement'
'sumar'
'suje'
'suicide_'
'subway_'
'subsidiari'
'subregional_'
'suba'
'strictly_'
'storm'
'sters_'
'stating_'
'sq'
'spy'
'speaks_'
'speaker_'
'sostenibilidad_'
'soni'
'somet'
'sole_'
'sole'
'sola'
'soil_'
'socialista_'
'sobrevivi'
'sk_'
'sions_'
'simplificar_'
'simples_'
'sill'
'silent_'
'signals_'
'shipping_'
'shing_'
'sg'
'sever'
'settlements_'
'sett'
'ses'
'servir'
'servidores_'
'separado_'
'sepa'
'sentimientos_'
'sentimiento_'
'sensibles_'
'sens'
'seminario_'
'selo_'
'sei'
'seguida_'
'secret'
'sd'
'screen'
'sche_'
'savings_'
'sana'
'salario_'
'safeguard_'
'safe'
'rz'
'rus'
'rran'
'routes_'
'rodea'
'rode'
'rn'
'riz_'
'rivers_'
'risa'
'righteous'
'reward'
'revo'
'revis'
'revers'
'rever'
'revenue'
'reuni'
'retraso_'
'retiro_'
'retain_'
'resultar_'
'resultar'
'resultan_'
'reputation_'
'reporte'
'repl'
'reorganiza'
'renuncia'
'renovables_'
'remarks_'
'rele'
'relaxed_'
'relates_'
'rej'
'reiterated_'
'reino_'
'regulad'
'reglamentación_'
'reflexión_'
'refieren_'
'referendum_'
'recuerdo_'
'rebel'
'reap'
'raíces_'
'rating_'
'rated_'
'quiet'
'quieran_'
'quent'
'quem'
'quedará_'
'quedarme_'
'python1_'
'pt'
'psiqui'
'protec'
'prot'
'propósitos_'
'prop'
'promises_'
'prominent_'
'profet'
'proceeds_'
'prob'
'previstos_'
'presum'
'presta_'
'prend'
'preguntó_'
'preguntar_'
'precaution'
'ponerl'
'pollo_'
'pleas'
'plate_'
'plata_'
'plastic_'
'pita'
'pio'
'pig'
'piezas_'
'pier'
'pia'
'ph_'
'pese_'
'pescado_'
'person'
'persegui'
'perpetra'
'permits_'
'permanecer_'
'permane'
'perfect'
'pate'
'passes_'
'pasaporte_'
'pasan_'
'participa_'
'parks_'
'parecía_'
'parecido_'
'paras_'
'parameters_'
'paral'
'pant'
'pala'
'painting_'
'paci'
'ove'
'outlined_'
'ota_'
'orin'
'organis'
'organi'
'opresión_'
'oportuna'
'opina'
'ood_'
'olvidar'
'oja'
'oint'
'oin'
'odi'
'odd'
'od_'
'ocurrido_'
'ocu'
'obtenidos_'
'obtenido_'
'obstacle_'
'observers_'
'nurse'
'ntó_'
'ntos_'
'nni'
'nieve_'
'nier'
'nie_'
'nic'
'nge_'
'new'
'neoliberal'
'nega'
'nden'
'nave_'
'nav'
'nationality_'
'nami'
'nacido_'
'naci'
'mutila'
'multitud_'
'multinacional'
'muerta_'
'mph'
'mov'
'moto'
'mortality_'
'morat'
'monto'
'monte_'
'monedas_'
'mon_'
'modifications_'
'mobilization_'
'mito'
'misi'
'miser'
'mirando_'
'minera'
'mind'
'mill'
'migrants_'
'mie'
'meridional_'
'mentir'
'mencion'
'medici'
'mburgo_'
'mber'
'matri'
'matern'
'mate'
'marks_'
'manufacturer_'
'mantienen_'
'manten'
'mans'
'mall'
'mainstreaming_'
'mae'
'luxurious_'
'luna_'
'lucro_'
'lucha'
'love'
'loo'
'logist'
'locked_'
'lles_'
'ller_'
'ller'
'llegaron_'
'llega'
'literature_'
'liquid'
'limitada_'
'lici'
'libra'
'liberal_'
'lia_'
'lga'
'lesiones_'
'legislativa_'
'lb'
'lay'
'label'
'kov_'
'keeps_'
'kas'
'juventud_'
'justify_'
'jurisdicción_'
'joining_'
'jewel'
'jail_'
'ivi'
'isolation_'
'irrespons'
'irregular_'
'ique'
'ipe'
'ionistas_'
'involucra'
'invita'
'investors_'
'interpretar'
'interactive_'
'intentado_'
'intensity_'
'inta'
'insu'
'insta'
'insonorizadas_'
'ins'
'inquietud_'
'ino'
'injured_'
'inhuman'
'ingresa'
'info_'
'infl'
'infections_'
'inestabilidad_'
'iness_'
'induci'
'indo'
'individually_'
'indicó_'
'indicación_'
'indica'
'indic'
'incompatible_'
'incluy'
'incidente_'
'incidencia_'
'imperial'
'immunity_'
'imaginati'
'ige_'
'iert'
'idé'
'idiota_'
'ich_'
'iah_'
'hé'
'hwa'
'humans_'
'hospitals_'
'homosexual'
'hojas_'
'históricos_'
'hier'
'hicimos_'
'hic'
'hers_'
'heridos_'
'hepatitis_'
'help'
'heli'
'height_'
'hec'
'hear'
'healing_'
'hallar'
'hairdryer_'
'hacerle_'
'hable'
'habilita'
'habida_'
'guin'
'guided_'
'guerrilla'
'guarda'
'greenhouse_'
'good'
'gobernador_'
'gob'
'gne_'
'git'
'gia'
'gestiona'
'geográfica_'
'generated_'
'gea'
'fren'
'fran'
'founding_'
'fo_'
'flora_'
'flesh_'
'flag'
'fires_'
'finger_'
'filter_'
'fier'
'ffs_'
'fertiliz'
'ferr'
'fer'
'femenin'
'fem'
'fect'
'fec'
'featuring_'
'favor'
'fate_'
'farming_'
'facilidad_'
'fabrica'
'extrem'
'extranjeras_'
'exposiciones_'
'explosión_'
'executed_'
'exclusivo_'
'ewe'
'eur'
'ethical_'
'eterni'
'eternal_'
'estu'
'estrés_'
'estructural_'
'estrella_'
'establezca_'
'establecida_'
'ession'
'essence_'
'especializada'
'escas'
'eria'
'eradication_'
'enunciados_'
'ensi'
'enr'
'engines_'
'engineer'
'enfoques_'
'enables_'
'emplea'
'empezó_'
'emiti'
'emit'
'eme'
'eligible_'
'eles_'
'electro'
'elect'
'ejemplar_'
'eit'
'eim'
'eighth_'
'ego_'
'eficazmente_'
'eed'
'edades_'
'eda_'
'ecosistemas_'
'echo_'
'eas'
'earned_'
'déja'
'due'
'dría_'
'droga_'
'draw'
'drama'
'dp'
'doubts_'
'dota'
'dormitorios_'
'documentar'
'doctors_'
'dne'
'divis'
'divide_'
'disturbing_'
'dispe'
'discret'
'disappeared_'
'disa'
'diré_'
'dirigir_'
'dirige_'
'directos_'
'dioses_'
'dings_'
'dictatorship_'
'diamantes_'
'detriment'
'detective_'
'destrui'
'destr'
'desha'
'desg'
'desempeño_'
'describes_'
'desaf'
'deri'
'deprived_'
'deployed_'
'depl'
'departure_'
'departamentos_'
'denega'
'delight'
'delibera'
'defense_'
'decides_'
'debated_'
'dal_'
'cómodo_'
'cálculo_'
'cál'
'cá'
'cumplen_'
'cumplan_'
'culpab'
'culos_'
'cuidar_'
'cuesta_'
'cubre_'
'cubierto'
'crow'
'crece'
'courtyard_'
'countryside_'
'corri'
'corresponding_'
'corresponden_'
'coro'
'copyright_'
'cooperati'
'convierta_'
'convertir'
'conversación_'
'convergencia_'
'conv'
'control'
'contribuye_'
'continuo_'
'contingentes_'
'contemplar_'
'consume_'
'consult'
'construye'
'constructiva_'
'constituy'
'consolidar_'
'consideramos_'
'consejero'
'consegui'
'confortablemente_'
'configurar_'
'confess'
'conductor_'
'conduce_'
'conciliación_'
'concentrar'
'concedi'
'conceder_'
'compre'
'compr'
'complace'
'compi'
'competir_'
'competente_'
'compensación_'
'compañeros_'
'commission_'
'comer'
'combustibles_'
'codes_'
'cn'
'circuito_'
'cipa'
'cine_'
'cien_'
'cie'
'chis'
'chill'
'cher'
'check'
'characters_'
'cerveza_'
'centra_'
'celebrations_'
'celebrated_'
'celebra'
'cede'
'cci'
'catalog'
'castiga'
'capital'
'capacita'
'cano'
'candidato_'
'cancellation_'
'camps_'
'camina'
'cambia_'
'bó'
'bury_'
'burning_'
'burg_'
'bugs_'
'brutal_'
'broadcast'
'broad'
'brid'
'brand'
'bore'
'bol_'
'bloquea'
'blame_'
'bishop'
'billetes_'
'bia_'
'beneficial_'
'baños_'
'bastard'
'barreras_'
'banquetes_'
'baja'
'bac'
'ayudarte_'
'ayudando_'
'aw_'
'avia'
'aver'
'ave'
'avanza'
'autónomos_'
'authorized_'
'austr'
'aur'
'aumentó_'
'auditoría_'
'attribut'
'attending_'
'attempted_'
'attack'
'atri'
'atmósfera_'
'atar'
'assumed_'
'assembly_'
'asp'
'asociadas_'
'asks_'
'artificial_'
'arte'
'arroja'
'ari_'
'argument_'
'apuestas_'
'apruebe_'
'aprovechar'
'aprovecha'
'aprendi'
'appointment_'
'appeals_'
'appe'
'apoyando_'
'api'
'apaci'
'ap_'
'anula'
'anticipate'
'antic'
'antibi'
'antecedentes_'
'anomal'
'angel_'
'ancho_'
'amist'
'amin'
'amid'
'altar_'
'alp'
'allo'
'aj'
'aha'
'agud'
'agu'
'aggressive_'
'afin'
'afford_'
'afectar_'
'afec'
'ady_'
'administrativas_'
'adjustments_'
'acá_'
'acusado_'
'acusa'
'actú'
'acre'
'acqui'
'acompañar'
'acogedora'
'acid'
'achi'
'aceptable_'
'acent'
'accidents_'
'acaban_'
'abus'
'abu'
'abri'
'abiertas_'
'abi'
'abandonar_'
'abandona'
'aban_'
'\'
'Yahoo_'
'XIX_'
'Wind'
'Website_'
'Weapons_'
'Wea'
'Warcraft_'
'WH'
'Vita'
'Virgin_'
'Vig'
'Vene'
'Valle_'
'VIII_'
'VE_'
'VA_'
'Ut'
'Using_'
'Usa'
'UNA_'
'UNAMSIL_'
'UNAIDS_'
'Twi'
'Tun'
'Travel_'
'Tr'
'Ton'
'Tip'
'Tiempo_'
'Thi'
'Test'
'Terre'
'Termin'
'Tercera_'
'Teniendo_'
'Tarifa_'
'Take'
'Taiwan_'
'Tag'
'THAT_'
'TER'
'Syrian_'
'Sum'
'Strasbourg_'
'Str'
'Stability_'
'Some'
'Sixth_'
'Situated_'
'Situado_'
'Simpl'
'Signed_'
'Sharon_'
'Shari'
'Shall_'
'Sevilla_'
'Set'
'Semana_'
'Search_'
'Sco'
'Santos_'
'Sama'
'Sahara_'
'SR_'
'SF'
'SEC'
'SAR'
'Roll'
'Rol'
'Rid'
'Rebe'
'Rati'
'RO_'
'Quería_'
'Pueblo_'
'Provide'
'Prev'
'Premi'
'Preg'
'Pot'
'Poste'
'Post_'
'Population_'
'Pil'
'Philip'
'Phil'
'Pep'
'Pea'
'Pav'
'Pag'
'PT'
'PH'
'PD_'
'PD'
'Original_'
'Oo'
'Oficiales_'
'Offer'
'Off'
'OF'
'Nonetheless_'
'None_'
'Nicol'
'Ng'
'Name_'
'NPT_'
'NIS'
'NE_'
'Music_'
'Monetary_'
'Moldova_'
'Milan_'
'Miembro_'
'Mercado_'
'Measures_'
'Meanwhile_'
'Mañana_'
'Matthew_'
'Material'
'Made'
'MU'
'MAN_'
'Luz_'
'Lut'
'Lucha_'
'Louis_'
'Lot'
'Lom'
'Llega'
'Llama'
'Lituania_'
'Light'
'Library_'
'Liberal_'
'Letonia_'
'LateRooms_'
'Labor'
'LES_'
'LDCs_'
'LAS_'
'Kr'
'Kn'
'Key'
'Julio_'
'Jue'
'Jor'
'Jack'
'Investment_'
'Introducción_'
'Interp'
'Intern'
'Interi'
'Intergovernmental_'
'Inst'
'Ins'
'Inde'
'Imm'
'INT'
'ICT_'
'Hoo'
'Honor'
'Hond'
'Hill'
'Herr'
'Hel'
'Hard'
'Guid'
'Greg'
'Grande'
'Grace_'
'Gor'
'Gold_'
'God'
'Gl'
'Gh'
'Get'
'Gara'
'Gale'
'Fun'
'Flash_'
'Fish'
'Fifth_'
'Felici'
'Fal'
'Ey'
'Event'
'Estuv'
'Estrategia_'
'Espa'
'Escucha_'
'End_'
'Embajador_'
'Ello_'
'Elli'
'Elec'
'Eff'
'Edi'
'Eco'
'EB'
'EA_'
'Doc'
'Disp'
'Demócratas_'
'Defense_'
'Dee'
'Decides_'
'Deberías_'
'Dam'
'Dal'
'DP_'
'DF'
'DC'
'Currency_'
'Cum'
'Cuenta_'
'Continua'
'Construc'
'Const'
'Considera'
'Consequently_'
'Conn'
'Commonwealth_'
'Coast_'
'Coa'
'Climate_'
'Clearly_'
'Classic'
'Cit'
'Cine'
'Ciencias_'
'Choice_'
'Chin'
'Cart'
'CUA'
'CS_'
'Budget_'
'Buc'
'Brook'
'Brid'
'Bil'
'Bes'
'Being_'
'Bea'
'Basta_'
'Balkans_'
'BT'
'BER'
'BB'
'Ay_'
'Av'
'Aun_'
'Audi'
'Ast'
'Arri'
'Arb'
'Aqui'
'Ana'
'Amendments_'
'Ame'
'Alá_'
'Alca'
'Albania_'
'Aire_'
'Ahm'
'Aeropuerto_'
'Ade'
'Addi'
'Activities_'
'Aca'
'Abu_'
'Abraham_'
'Aber'
'Ab'
'AKVIS_'
'AI_'
'AF_'
'>_'
'=_'
'87'
'78'
'300'
'1º_'
'1969_'
'151'
'140_'
'116_'
'108_'
'. - ¿_'
',... _'
', «_'
'): '
'%)_'
'!”'
' “'
' […]_'
' ['
' (-'
'”. _'
'”) _'
'– '
'ć_'
'ün'
'únicos_'
'ún'
'óp'
'íz'
'ística_'
'ísimo_'
'íri'
'ína_'
'ígen'
'íci'
'íbl'
'êt'
'étnicas_'
'ént'
'émico'
'ée_'
'« _'
'zu_'
'zil'
'zapatos_'
'yp'
'yme'
'xima'
'wives_'
'withdraw_'
'with'
'winners_'
'wines_'
'willingness_'
'wi_'
'whe'
'well'
'weakness'
'warm'
'walked_'
'voluntarias_'
'voc'
'viviendo_'
'vitamin'
'visitar'
'viral_'
'viola'
'vini'
'vine'
'vigilan'
'viewed_'
'vieron_'
'vial_'
'veteran'
'verá_'
'vertical_'
'verificación_'
'vere'
'vein'
'vaso'
'variation'
'var_'
'validez_'
'vac'
'v1_'
'uv'
'uto_'
'usar'
'usada_'
'ups'
'upr'
'uo'
'united_'
'unifica'
'undertakings_'
'ulti'
'ull'
'uli'
'uga'
'uesta_'
'ub'
'uan'
'twe'
'tuvimos_'
'tum'
'tsunami_'
'trayectoria_'
'tratamientos_'
'trataba_'
'traslado'
'transnational_'
'transmit'
'tracking_'
'trabaj'
'tow'
'tournament_'
'tour'
'tio'
'tifica'
'ticos_'
'tial_'
'ths_'
'thin'
'thermal_'
'theat'
'tested_'
'tesis_'
'terrestre_'
'tercero_'
'teno'
'temprana_'
'tech_'
'tear'
'tarifa_'
'tang'
'tand'
'tanc'
'tala'
'sync'
'syn'
'sympath'
'suy'
'sustitución_'
'sust'
'surp'
'surgery_'
'surge'
'supra_'
'support'
'suponen_'
'sum_'
'sugeri'
'sueños_'
'sud'
'subir_'
'studying_'
'struct'
'strikes_'
'sth'
'stand'
'stain'
'stad'
'ssor'
'spr'
'specify_'
'specialists_'
'specialis'
'sore'
'sooner_'
'solve'
'solicitantes_'
'solicita_'
'solemn'
'soi'
'sobrevivir_'
'smic'
'sme'
'slu'
'skill_'
'ska'
'siti'
'silence_'
'shift'
'shame_'
'señalar'
'sexy_'
'severa'
'sequ'
'sep'
'sensor_'
'sensat'
'senador'
'semejante'
'seguramente_'
'segu'
'seeks_'
'secured_'
'secretaria'
'secciones_'
'script'
'scra'
'score_'
'score'
'sant'
'salaries_'
'sail'
'sabr'
'rqu'
'roga'
'robots_'
'rn_'
'riñ'
'rival_'
'ring'
'riche'
'reún'
'revol'
'revi'
'reverse_'
'reveal_'
'reunió_'
'retrasa'
'retire'
'resurrec'
'resum'
'resulte_'
'resulta'
'restrictive_'
'responda'
'resolver'
'resista'
'reseña'
'reserved_'
'reserva'
'rendi'
'render'
'ren_'
'removal_'
'remedies_'
'religioso_'
'religiosas_'
'relacionada_'
'relaciona'
'reinforce'
'regulat'
'reforza'
'refo'
'references_'
'refer'
'reem'
'reductions_'
'redonda_'
'recycl'
'recuerde'
'recruit'
'recorda'
'reconsider'
'receptor'
'ream_'
'realizar'
'realiza'
'real'
'rdo'
'rd'
'rculos'
'rb'
'raw_'
'ratifica'
'rami'
'ram_'
'rall'
'ract'
'quía_'
'quita_'
'quest'
'quera'
'qued'
'párrs_'
'pusi'
'pus'
'pursued_'
'pulled_'
'pudieron_'
'publicity_'
'publicados_'
'psycho'
'provocar_'
'provincia'
'provinces_'
'protocolo_'
'protegidos_'
'protege'
'prosper'
'propuso_'
'propietario_'
'propiedades_'
'propicia'
'propi'
'prophe'
'propaga'
'program'
'produc'
'privilegiad'
'privileg'
'prisiones_'
'prisioneros_'
'prioritaria'
'printed_'
'prima_'
'priests_'
'pric'
'prestando_'
'presiona'
'presa'
'pres'
'preparatorio'
'preocupar'
'preliminary_'
'preguntado_'
'preferent'
'preference'
'pred'
'preco'
'pping_'
'potentially_'
'possession_'
'portfolio_'
'popul'
'pop_'
'poniendo_'
'pondr'
'policiales_'
'pole'
'plástico_'
'plica'
'ple_'
'plazas_'
'plante'
'plain_'
'pine'
'piano_'
'phi'
'phenomenon_'
'pesticides_'
'pes_'
'permitiría_'
'performing_'
'performed_'
'perform'
'pep'
'peores_'
'pensaba_'
'penas_'
'peligroso_'
'pect'
'pecho'
'pati'
'patentes_'
'patent_'
'passion'
'participant'
'participado_'
'partici'
'parallel_'
'palestina'
'pacífic'
'oír_'
'owed_'
'overlooking_'
'overlap'
'ott'
'oriented_'
'orientaciones_'
'organizó_'
'organize_'
'ord_'
'oppo'
'opp'
'operates_'
'opera'
'ope'
'omin'
'olla'
'oid'
'ocurriendo_'
'ocupar'
'ocup'
'oculta'
'oct'
'obtaining_'
'observ'
'obsc'
'nur'
'nud'
'nsa'
'notification_'
'norteamericano_'
'normally_'
'nombrado_'
'nn_'
'nj'
'nish'
'nico_'
'nica_'
'ngu'
'nel_'
'nel'
'negativo_'
'negar'
'nect'
'necesite'
'necesitaba_'
'ndas_'
'nche'
'navega'
'nation'
'narra'
'nap'
'nan'
'nali'
'nail'
'nab'
'mático'
'multimedia_'
'multilaterales_'
'mula'
'much'
'mous'
'motive'
'monitor'
'moderat'
'mni'
'misc'
'mio_'
'minu'
'minor'
'minat'
'mentales_'
'ment'
'memorand'
'mela'
'medicina_'
'measurement_'
'meaningful_'
'matches_'
'marítima_'
'marti'
'marry_'
'marcha'
'mantener'
'manipulat'
'manifestar'
'mandatos_'
'mandates_'
'manage'
'mana_'
'maldito_'
'malaria_'
'magnificent_'
'magi'
'lógicos_'
'loves_'
'lov'
'lot'
'logo_'
'logic_'
'lock'
'lluvia_'
'lleg'
'llaves_'
'literacy_'
'lion_'
'ling'
'ligad'
'lico'
'licence_'
'licenc'
'lice_'
'lic'
'liber'
'liable_'
'levanta'
'leu'
'leng'
'len_'
'legitimacy_'
'lega'
'lecture'
'lealtad_'
'lawyers_'
'lateral_'
'landl'
'lamento_'
'lame'
'lacking_'
'laboratory_'
'kk'
'kis'
'kir'
'kilometers_'
'kill'
'kidn'
'kha'
'ket_'
'kel'
'keen_'
'kam'
'juzgar_'
'justifi'
'justa_'
'jurado_'
'jump'
'juega'
'ji_'
'jardines_'
'jad'
'jacuzzi_'
'iv_'
'ius_'
'itis_'
'iter'
'istán_'
'ison_'
'irá_'
'ious_'
'invitar'
'introdu'
'inti'
'intestin'
'interventions_'
'interrogat'
'interinstitu'
'interesado_'
'intentos_'
'intends_'
'insula'
'institucionales_'
'install'
'inst'
'inscripción_'
'inqui'
'inocente_'
'inj'
'inició_'
'iniciar'
'ingly_'
'infu'
'informativ'
'infected_'
'iner'
'indigna'
'indicar_'
'indicado_'
'indi'
'indemniza'
'incur'
'incomplet'
'inari'
'inal_'
'inal'
'impulsa'
'impressed_'
'imponer_'
'imparti'
'immune_'
'imm'
'ilícito_'
'ilo'
'illustrate'
'iii_'
'igi'
'iga_'
'ien_'
'ien'
'idor'
'idiot_'
'ider'
'identification_'
'identificado_'
'icios_'
'ibr'
'iar_'
'iado_'
'iac'
'hus'
'hurt'
'humil'
'huelga_'
'huel'
'hubieran_'
'htm_'
'hra'
'horario_'
'hoping_'
'hof_'
'hills_'
'hil'
'het_'
'heridas_'
'hered'
'hemorr'
'hecha_'
'heating_'
'hatred_'
'hat_'
'hat'
'hap'
'hanging_'
'hablas_'
'habit'
'gén'
'gym_'
'gus'
'guardian_'
'gt'
'gross_'
'gratitude_'
'grants_'
'graduate'
'gradualmente_'
'gradual_'
'gobernanza_'
'glu'
'gla'
'gio'
'gim'
'gge'
'gers_'
'genocidio_'
'generaciones_'
'gato'
'garantizar'
'garantice_'
'gang_'
'ganar'
'ganan'
'gala'
'fórmula_'
'fying_'
'funcionario_'
'fueran_'
'fucke'
'fronteriz'
'front'
'fracaso_'
'foun'
'forty_'
'formulation_'
'forgive_'
'focusing_'
'focuses_'
'flame'
'firmar'
'fir'
'fini'
'filtro'
'fijado_'
'fij'
'figured_'
'fighter'
'fici'
'fichero_'
'ffi'
'fenómenos_'
'femini'
'fel'
'federa'
'favourable_'
'favorito'
'fast'
'fases_'
'fantástica'
'fancy_'
'familiari'
'falta'
'falso_'
'fairly_'
'factory_'
'extremo_'
'extraterr'
'extraordinaria'
'exter'
'expresses_'
'expresa'
'expo'
'exploración_'
'explicó_'
'explicaciones_'
'experto_'
'expediente_'
'existir_'
'exhaustivo_'
'excusa'
'exclusiv'
'excess_'
'examinando_'
'examina_'
'ew_'
'evitar'
'evident_'
'everyday_'
'ever'
'eventually_'
'etiquetado_'
'estuviera_'
'estudiante_'
'estimular_'
'establecie'
'essentially_'
'esh'
'esforzar'
'esencia_'
'escuchar'
'escolares_'
'erse_'
'erne'
'erio_'
'equ'
'ep_'
'envisaged_'
'environmentally_'
'entretenimiento_'
'entity_'
'entendemos_'
'ense_'
'enrich'
'enlarged_'
'enjoyment_'
'enfrente_'
'enfrentarse_'
'enfo'
'encontra'
'encom'
'encantador_'
'encabeza'
'enact'
'empleado_'
'empezado_'
'emba'
'elin'
'elderly_'
'eggs_'
'editor'
'edifica'
'edia'
'ects_'
'economic'
'earn_'
'déje'
'dwell'
'dula'
'dru'
'drag_'
'dos'
'disp'
'disin'
'disfruta_'
'diseña'
'discusiones_'
'discharge_'
'dimensiones_'
'digit'
'difundi'
'difu'
'diesel_'
'did'
'dictionary_'
'detenidamente_'
'detainees_'
'destruir_'
'destinar'
'destin'
'destaca'
'desearía_'
'descenso_'
'descarta'
'descansar_'
'desarrollar'
'derm'
'denominado_'
'dencia'
'demostrar'
'democratiza'
'dem'
'delu'
'declarado_'
'dating_'
'darse_'
'dare_'
'damages_'
'cuts_'
'custom_'
'cubano'
'cuadra'
'cry'
'cruce'
'cristianos_'
'crip'
'cria'
'creados_'
'cow_'
'costumbre_'
'cost'
'corro'
'corredor'
'corners'
'corn'
'cora'
'cope_'
'copa_'
'coordinar_'
'convirti'
'conviction_'
'convención_'
'contrap'
'contradicci'
'continú'
'contempla_'
'consolidación_'
'consigo_'
'consideró_'
'considerad'
'conserva'
'conseguir'
'consecución_'
'conscious_'
'conozca'
'conocen_'
'conjunt'
'confortables_'
'condenado_'
'cond'
'concretamente_'
'concert'
'conceal'
'comunicado_'
'comuni'
'composición_'
'complimentary_'
'complica'
'completado_'
'complain'
'compl'
'comparar_'
'comp'
'comment'
'commence'
'comis'
'comenzado_'
'comen'
'combinado'
'combina_'
'colm'
'coincide_'
'cocin'
'clínica'
'clinical_'
'climb_'
'claros_'
'clarify_'
'civilización_'
'citizenship_'
'circuns'
'cios_'
'cion'
'cier'
'científico_'
'churches_'
'chi_'
'chest'
'charter_'
'chart'
'chaos_'
'cerrad'
'cerr'
'cepti'
'celebr'
'casar'
'casa'
'carga'
'carecen_'
'carec'
'captain_'
'capi'
'cambian'
'calibr'
'calefacción_'
'calculation'
'calc'
'cac'
'burocracia_'
'buddy_'
'bruto_'
'broader_'
'británico_'
'brindar_'
'bree'
'brea'
'borrado'
'bora'
'boasts_'
'blos'
'bli'
'blank'
'bil'
'bic'
'bert_'
'behavior_'
'beh'
'bebida_'
'bear'
'bati'
'bata'
'basadas_'
'barrios_'
'barri'
'barra_'
'bare'
'bandera_'
'baile_'
'aérea_'
'azu'
'avisar'
'avi'
'aventura_'
'auténtico_'
'autorizado_'
'auc'
'ature_'
'atu'
'attributed_'
'assured_'
'assisting_'
'assert'
'aspiraciones_'
'ases'
'asegurado'
'asciende'
'arri'
'arrenda'
'aros'
'armad'
'arise'
'aris'
'arde'
'aprobar'
'appro'
'appearance_'
'apoyamos_'
'aporta'
'aplique_'
'aplicarse_'
'aparecerá_'
'anz'
'anunciado_'
'anticipa'
'ante'
'aniversario_'
'ang_'
'ancia'
'ancha_'
'analytical_'
'amu'
'amor'
'amen'
'ambi'
'alter'
'alo_'
'allocation_'
'allegations_'
'alit'
'aliado'
'alia'
'alert'
'ake'
'ais_'
'aid'
'agri'
'aggre'
'afl'
'afilia'
'afectada_'
'administrar_'
'adj'
'adheri'
'adelantados_'
'adays_'
'acute_'
'acumulado'
'actualizado_'
'actualizaciones_'
'actualiza'
'actas_'
'acogi'
'aclarar_'
'acer'
'accountability_'
'accepting_'
'abuso_'
'abundant'
'abar'
'abandoned_'
'aXXo_'
']] '
'], _'
'\\_'
'Young_'
'Yemen_'
'YO'
'YA'
'XVI_'
'XL'
'Wellness_'
'Water'
'Warr'
'Want_'
'WO'
'WM'
'Vu'
'Vivi'
'Victor_'
'Varios_'
'VIS'
'VIP_'
'VH'
'Upon_'
'URL_'
'Técnic'
'Turn_'
'Tres_'
'Transportes_'
'Transp'
'Trad'
'Trac'
'Tower_'
'Tomar'
'Thr'
'Thir'
'Theo'
'Th'
'Terrorismo_'
'Territory_'
'Tara'
'Tailandia_'
'Tabl'
'TL'
'Supplement_'
'Supervisión_'
'Subject_'
'Sti'
'Spe'
'Sop'
'Six_'
'Sing'
'Sex'
'Seleccion'
'Sed'
'Schi'
'Sang'
'Salas_'
'Sala'
'SL'
'Rut'
'Roc'
'River'
'Ricardo_'
'Reference_'
'Reduc'
'Recommendation_'
'Recib'
'Recent'
'Rama'
'RY_'
'RS_'
'RM'
'REA'
'RA_'
'Queremos_'
'Queda_'
'Pul'
'Puesto_'
'Ps'
'Provisional_'
'Prohibido_'
'Prof'
'Product'
'Princip'
'Princes'
'Presidents_'
'Preparat'
'Precio_'
'Poor_'
'Plat'
'Pica'
'Photos'
'Peri'
'Paulo_'
'Parliamentary_'
'Park'
'PYME_'
'PIB_'
'PAC'
'Otherwise_'
'Others_'
'Ord'
'Operación_'
'One'
'Oa'
'OLAF_'
'Nuev'
'Noting_'
'North'
'Necesita'
'Nass'
'Nag'
'NAC'
'Mucho_'
'Monte'
'Mine'
'Mind'
'Military_'
'Ment'
'Marrakech_'
'Ma_'
'MC'
'Luci'
'Looking_'
'Loc'
'Live_'
'Lisa_'
'Lincoln_'
'Liberal'
'Level_'
'Legislati'
'Language_'
'Lang'
'LD_'
'Jos'
'Jordania_'
'Jews_'
'Jac'
'Inv'
'Intr'
'Institution'
'Inge'
'Impo'
'ION'
'Hus'
'Hungarian_'
'His'
'Heaven_'
'Hav'
'Hai'
'Habl'
'HR'
'Guía_'
'Guan'
'Growth_'
'Gibraltar_'
'Ghost_'
'Genial_'
'Gast'
'Gamb'
'Galileo_'
'GM'
'GH'
'Fundamental_'
'Fuerzas_'
'Frankfurt_'
'Fran'
'Fos'
'Foo'
'Fire_'
'Finnish_'
'File_'
'Fifty_'
'Facultativo_'
'FS'
'FR'
'FI_'
'FF'
'FCCC_'
'FC'
'External_'
'Export'
'Existe_'
'Exi'
'Excel'
'Exact'
'Evi'
'Euratom_'
'Enca'
'Empleo_'
'Elizabeth_'
'Elis'
'Elimination_'
'Ei'
'Economi'
'EURO'
'ESTA'
'EF'
'Documento_'
'Divin'
'Diversi'
'Dise'
'Dig'
'Die'
'Design'
'Desea'
'Dependencia_'
'Democracy_'
'Delega'
'Debería_'
'Death_'
'Davis_'
'Datos_'
'Das'
'Damn_'
'Dame_'
'Dad'
'DN'
'DEM_'
'Cállate_'
'Cré'
'Corr'
'Corporation_'
'Copenhague_'
'Contribu'
'Content'
'Consumer_'
'Confedera'
'Comunicación_'
'Compre'
'Commit'
'Comen'
'Com_'
'Colombian_'
'Clean'
'Clark_'
'Cerca_'
'Castro_'
'Cariño_'
'Capacit'
'Camer'
'Cali'
'Cabe_'
'COS'
'COMM'
'COL'
'CID'
'CDs_'
'CAR'
'Bö'
'Burn'
'Bund'
'Bring_'
'Boston_'
'Bol_'
'Blue'
'Bit'
'Bern'
'Belgrad'
'Belgian_'
'Bed'
'Bast'
'Bank'
'Baltic_'
'Bahr'
'BC_'
'BA_'
'Azerbaijan_'
'Ayuda_'
'Aut'
'Assistance_'
'Arma'
'Arch'
'Apost'
'Apart_'
'Anton'
'Anthony_'
'Ante'
'Ani'
'Andr'
'Americanos_'
'Amanda_'
'Alte'
'Alta_'
'Alo'
'Allí_'
'Airbus_'
'Age'
'Afghan_'
'Aer'
'Adónde_'
'Admi'
'Additional_'
'Acept'
'Acceso_'
'Abu'
'Abi'
'ART'
'99'
'963_'
'96'
'74'
'65'
'212_'
'203'
'200'
'1949_'
'192_'
'178'
'158'
'156'
'153_'
'134_'
'131_'
'113_'
'107_'
'. — (_'
'. -'
')(_'
'( _'
''' _'
'"¿_'
'"..._'
'".'
' -'
' ,_'
'–, _'
'м'
'Ρ_'
'út'
'ós_'
'ós'
'órica'
'óptima'
'ógic'
'ñola'
'íti'
'éx'
'étnicos_'
'ése_'
'éra'
'énd'
'ço'
'ándolo_'
'Ángel'
'»_'
'zy_'
'ysi'
'ype'
'yourselves_'
'yas'
'xon_'
'xeno'
'wol'
'wished_'
'whoever_'
'whoa_'
'weren_'
'wel'
'weak_'
'wat'
'wars_'
'wak'
'wai'
'vul'
'vota'
'viviendas_'
'viva'
'vision'
'villa_'
'vig'
'video'
'victori'
'verifica'
'veras_'
'vende'
'vel_'
'ved'
'vec'
'vati'
'vat'
'validity_'
'valida'
'vale'
'vaga'
'v2_'
'uvi'
'utter'
'uph'
'unlawful_'
'universitari'
'uner'
'umbre'
'ultraterrestre_'
'ulo_'
'uk_'
'udad'
'uba'
'uar_'
'typ'
'twi'
'tunnel'
'tti_'
'tted_'
'trágic'
'truck_'
'trouble'
'triple_'
'tribute_'
'tribut'
'tribes_'
'tribe_'
'tremendous_'
'treinta_'
'tre_'
'tratarse_'
'trasladar'
'transitional_'
'traer_'
'trad'
'tracks_'
'trabajó_'
'toxic_'
'toni'
'toma'
'tolera'
'tod'
'tocan'
'tobacco_'
'tn'
'tm'
'tl'
'titles_'
'tipi'
'tiny_'
'tin_'
'tight_'
'tici'
'ticas_'
'tian'
'thrown_'
'therapy_'
'tesoro'
'terminó_'
'terminat'
'tercio'
'tenis_'
'tender_'
'tena'
'temátic'
'tempt'
'temporal'
'temple_'
'tche'
'tate'
'tami'
'tamente_'
'tambien_'
'tamb'
'tad'
'tablas_'
'sólidos_'
'sólido_'
'só_'
'sz'
'sustitui'
'sustancia_'
'sustained_'
'suspect_'
'supr'
'supervivencia_'
'sumas_'
'sujeta'
'suited_'
'suggests_'
'sugerencias_'
'sufrir_'
'subt'
'suave_'
'struck_'
'stored_'
'steri'
'stead'
'statu'
'stair'
'spot'
'spor'
'spell_'
'speci'
'souls_'
'soluciona'
'solid'
'solicitad'
'soft'
'soberan'
'smuggl'
'slowly_'
'slee'
'ske'
'sistemática_'
'sincere_'
'simple'
'silv'
'sigu'
'significar'
'signature_'
'sid'
'shock'
'sheep_'
'sham'
'señor'
'señala'
'sexually_'
'servant_'
'seriamente_'
'separati'
'separar'
'separada'
'sepa_'
'sencillamente_'
'semillas_'
'sello'
'sel_'
'seguid'
'segments_'
'secur'
'seam'
'sar_'
'sanitation_'
'sani'
'samples_'
'salvaje'
'salvado'
'salido_'
'salga_'
'sala'
'sabía'
'ró'
'rw'
'rutina'
'rum_'
'rtu'
'rotarios_'
'rota'
'ror'
'roj'
'rog'
'robar'
'roba'
'riv'
'rind'
'rincón_'
'rina_'
'rill'
'rhythm'
'revela_'
'reve'
'reunir'
'returns_'
'retroa'
'retra'
'retorno_'
'retention_'
'resumed_'
'resuel'
'restringi'
'restrain'
'respondió_'
'responden_'
'resign'
'requiring_'
'requerir'
'reproduce'
'reproduc'
'repetida'
'repeated_'
'reor'
'remunera'
'remin'
'remedia'
'rem'
'reliability_'
'registrar_'
'refuerzo_'
'reforzad'
'reflection_'
'refin'
'reducir'
'redacta'
'recourse_'
'recomendar'
'recomendamos_'
'recoger_'
'recib'
'rechazado_'
'recep'
'receives_'
'reat'
'reason'
'realista_'
'reach'
'rca_'
'rbi'
'ratio_'
'ratified_'
'raph'
'ranc'
'rain_'
'racist_'
'quita'
'quisier'
'quina'
'quia'
'querías_'
'querr'
'quenc'
'quema'
'quar'
'qualif'
'qi'
'qa'
'pé'
'puri'
'puntual'
'punta'
'pulmon'
'puente_'
'pudi'
'publicó_'
'pub'
'pse'
'préstamo_'
'proximity_'
'protesta_'
'protective_'
'proporciona'
'pronuncia'
'promo'
'promedio_'
'programad'
'profundas_'
'profesi'
'prod'
'procedente_'
'problemática'
'proactive_'
'privacidad_'
'printing_'
'princes'
'prevented_'
'prevent'
'pretext'
'presu'
'prest'
'presidencial'
'preserv'
'presentados_'
'presen'
'preocuparse_'
'pren'
'premi'
'prematur'
'preliminares_'
'pregnancy_'
'preferi'
'prede'
'preach'
'pr'
'potencia_'
'positivas_'
'pos_'
'portu'
'poo'
'poly'
'polit'
'polio_'
'poderosa_'
'plate'
'piz'
'piso'
'pintura_'
'pillar_'
'pierd'
'pida'
'photo'
'phil'
'pha'
'pf'
'pesquera_'
'pertene'
'personajes_'
'permanentes_'
'periódicos_'
'perc'
'peque'
'pensions_'
'pensa'
'pene'
'pedirle_'
'pedimos_'
'peca'
'patron'
'patria'
'patience_'
'pastor'
'passenger_'
'passage'
'pas_'
'partidari'
'parezca'
'parejas_'
'pareció_'
'pani'
'pane'
'pam'
'pale'
'palacio_'
'palace_'
'pagan_'
'pack'
'owe_'
'outrage'
'outer_'
'ots_'
'otorga'
'otic'
'oti'
'oste'
'orí'
'ortunadamente_'
'ors'
'organise_'
'organ_'
'optimist'
'optimi'
'opi'
'operator_'
'operan'
'onse'
'onis'
'ong'
'ones'
'omm'
'ome_'
'olvida'
'olvid'
'ols_'
'olas_'
'oj'
'ogía_'
'ogi'
'ofrecer'
'oco'
'oca'
'obtuvo_'
'obstáculo_'
'obst'
'obligatorio_'
'obligado_'
'oblig'
'oasis_'
'ntar'
'nso'
'novio_'
'novi'
'novel'
'notic'
'nose_'
'northern_'
'normaliza'
'noi'
'nl_'
'nio'
'nik_'
'neighbour'
'neighbor'
'negocia'
'nec'
'ndl'
'nded_'
'naut'
'nary_'
'nales_'
'muta'
'musulmanes_'
'museum_'
'muere_'
'mpl'
'moto_'
'monumento'
'monta'
'monetari'
'mold'
'modules_'
'mistakes_'
'missile'
'mins'
'ministerios_'
'mineral_'
'miner'
'millennium_'
'mile_'
'mighty_'
'midst_'
'merec'
'mercy_'
'menti'
'mencionadas_'
'mega'
'medita'
'mediodía_'
'medic'
'med'
'mba'
'masters_'
'marquis_'
'marking_'
'marginal_'
'marcar'
'marcado_'
'maravillosa_'
'manipula'
'manifest'
'mandated_'
'maltrat'
'mali'
'maldita_'
'mak'
'main'
'magical_'
'lv'
'loy'
'lord_'
'logía_'
'logg'
'locura_'
'lock_'
'ln'
'llu'
'llegará_'
'llave_'
'llaman_'
'llamamientos_'
'litoral_'
'lita'
'lio'
'lining_'
'limpia_'
'limb'
'like'
'lieu'
'libremente_'
'liberalis'
'levantar_'
'lessly_'
'lenta'
'lement'
'learn'
'lc'
'lava_'
'laundry_'
'lation_'
'laps'
'lanzad'
'lane'
'landscapes_'
'labi'
'kr'
'knock_'
'knee'
'kat'
'kal'
'juguetes_'
'jubilación_'
'jou'
'jera'
'jaro'
'izada_'
'ivo'
'iva'
'ital'
'isti'
'istan'
'irrita'
'irlandés_'
'irlandes'
'irl'
'iraquíes_'
'invitados_'
'investiga'
'inversores_'
'invers'
'introducido_'
'interpret'
'internas_'
'interlocutores_'
'interiores_'
'interg'
'interfaz_'
'interfaces_'
'intentional'
'intens'
'inspiración_'
'inscri'
'innovador'
'inject'
'initiated_'
'inherit'
'inhal'
'infracción_'
'inexp'
'inequalit'
'inef'
'indoor_'
'indication_'
'indicad'
'incorporati'
'inco'
'incident_'
'incentivos_'
'inca'
'impuls'
'impuestas_'
'impone_'
'impon'
'implanta'
'impacts_'
'imme'
'iller_'
'illa'
'iliza'
'ilis'
'ignore_'
'iglesias_'
'ideolog'
'iden'
'icult'
'ich'
'icamente_'
'iana'
'iament'
'hungry_'
'ht_'
'hostilit'
'hosti'
'hormona'
'hog'
'hoc_'
'hmm_'
'hips_'
'hipo'
'hiper'
'him'
'hie'
'hemi'
'hed'
'heav'
'heated_'
'haus'
'halla_'
'habitual'
'habilidad_'
'gía_'
'gustó_'
'gustan_'
'guns_'
'guiad'
'gues'
'guards_'
'guardian'
'grie'
'grass'
'grasa_'
'gracioso_'
'governed_'
'gotten_'
'gon_'
'globales_'
'giro_'
'girlfriend_'
'gica'
'generos'
'genera_'
'gati'
'gat'
'gastronomía_'
'gastronom'
'gaps_'
'gale'
'fér'
'fué_'
'fusion'
'furt'
'fundamentalis'
'funciona'
'funcion'
'fuiste_'
'fría'
'fruits_'
'fruct'
'francesa_'
'formular'
'formulado_'
'foresee'
'fool_'
'font'
'flood'
'flat'
'flag_'
'fixing_'
'fit'
'finaliza'
'filt'
'filosofía_'
'film'
'filling_'
'fijar_'
'fiebre_'
'fid'
'fia'
'feri'
'felices_'
'feas'
'favorece'
'fat'
'fasci'
'falsa_'
'facil'
'eza'
'extranjera_'
'extens'
'expos'
'exporta'
'exponen'
'experimental_'
'experimentado_'
'experiment_'
'expecting_'
'expectativas_'
'expanding_'
'expand_'
'existi'
'exista_'
'exigen_'
'exemption_'
'exciting_'
'evolution_'
'evoluciona'
'evita'
'eut'
'etta'
'etr'
'eto'
'etin'
'estudi'
'estructura'
'estipula'
'estimate_'
'estan_'
'estan'
'estadístico'
'estaciones_'
'estab'
'esquí_'
'esquema_'
'esperaba_'
'especialista'
'escud'
'escribió_'
'escasez_'
'escapar'
'erg_'
'eran'
'episod'
'epidemiol'
'epidemia_'
'eous_'
'entro'
'entrena'
'entrar'
'entr'
'entendimiento_'
'enjoying_'
'ening_'
'enic'
'eng'
'enfrentan_'
'enfrenta'
'enferma'
'energétic'
'encuentr'
'ence'
'encarg'
'encantador'
'ena'
'emotion'
'emocional'
'emociona'
'emi'
'elli_'
'elle_'
'elle'
'elite_'
'elevados_'
'eleganc'
'electr'
'elector'
'ejercid'
'ejecutar_'
'egu'
'eff'
'efectivos_'
'efectivas_'
'efe'
'educativa'
'ecua'
'ecid'
'ebu'
'easiest_'
'dó'
'décimo_'
'década_'
'dynamic'
'dus'
'duradera'
'durab'
'drie'
'dress_'
'dr'
'download'
'donation'
'dolores_'
'doll'
'dle_'
'dj'
'dió'
'divi'
'diversión_'
'diversi'
'distinto_'
'dissemination_'
'disse'
'disparar'
'disminuye_'
'disminu'
'dish_'
'disg'
'diseñado'
'discursos_'
'discover'
'discon'
'discipl'
'directas_'
'dir_'
'diputado_'
'diplomatic_'
'dios_'
'digna_'
'dientes_'
'diablo_'
'dev_'
'determina'
'detection_'
'detectar_'
'detecta'
'desvia'
'destru'
'desplazados_'
'despl'
'despiert'
'despa'
'desired_'
'desigualdad_'
'design'
'desfavorecid'
'deserves_'
'desempeña_'
'desembo'
'desechos_'
'deseado_'
'desb'
'desarrolladores_'
'denuncia'
'demonstrations_'
'democráticos_'
'deliberately_'
'delete_'
'delayed_'
'deg'
'definidos_'
'deficiencias_'
'defi'
'defer'
'defenders_'
'defende'
'decír'
'decrease_'
'decor_'
'deco'
'deciding_'
'decenio_'
'debts_'
'debating_'
'deadline_'
'dc'
'dawn_'
'das'
'cute_'
'custodia'
'curv'
'cun'
'cumplir'
'culpable_'
'cuali'
'ctiva'
'cta'
'crush'
'crucifi'
'crowd_'
'cross'
'cristian'
'cres'
'crack'
'corte_'
'cortado'
'correspondencia_'
'correction_'
'coordinator'
'convince_'
'converti'
'conveniente_'
'conveniencia_'
'convencer_'
'contraven'
'contracting_'
'continúe_'
'continuará'
'continuamente_'
'contesta'
'contemplad'
'constata'
'consta_'
'consola'
'consisti'
'consigue_'
'consi'
'consequently_'
'conquista'
'conoce'
'connect'
'confl'
'confirmado_'
'confe'
'conecta'
'condo'
'concluding_'
'concesion'
'concede'
'computador'
'compress'
'comprehen'
'comprar'
'composi'
'complicat'
'compleja_'
'comparte_'
'compart'
'commu'
'commonly_'
'command'
'comm'
'comienzan_'
'comidas_'
'cometidas_'
'comenta'
'combinar_'
'column'
'coloca'
'colle'
'colga'
'colabora'
'coger_'
'coe'
'coalición_'
'clothing_'
'clinic'
'climátic'
'classical_'
'clasificado_'
'circular_'
'circuit'
'chs'
'chronic_'
'chocolate_'
'chip'
'chil'
'chev'
'charm_'
'charla'
'cet'
'cess'
'certificado_'
'centraliza'
'celebradas_'
'celebraciones_'
'celebra_'
'cela'
'catástrofes_'
'cation'
'cartel_'
'carrier'
'carp'
'cardi'
'caracter'
'capacities_'
'capa_'
'calendar_'
'caci'
'cabi'
'cabe'
'caballos_'
'cabal'
'burgues'
'bureaucracy_'
'budgets_'
'brote'
'británica_'
'briefly_'
'bric'
'brazos_'
'branch_'
'boundaries_'
'bote'
'borrow'
'bonus_'
'bono'
'bond'
'bole'
'blu'
'blood'
'black'
'bien'
'bicicleta_'
'berna'
'beneficiarse_'
'belongs_'
'believ'
'behav'
'beber_'
'bbe'
'bañera_'
'bay'
'basados_'
'barr'
'barato'
'bara'
'bandas_'
'balls_'
'ball'
'bak'
'badly_'
'aéreas_'
'azot'
'azo'
'ayudarlo'
'awful_'
'awake'
'avo'
'aventura'
'avec_'
'avanzando_'
'ava_'
'autorizad'
'autori'
'automóvil_'
'aumentando_'
'aument'
'ator_'
'ational_'
'atic_'
'atel'
'atacar'
'astro'
'assure_'
'assessing_'
'asleep_'
'asigna'
'asesino_'
'asegura'
'artístico_'
'arrep'
'aro_'
'ark_'
'arian'
'arg'
'ardi'
'aquello_'
'aqua'
'apropiadas_'
'aprobados_'
'apro'
'aprende'
'approve_'
'appropriations_'
'appoint'
'app'
'apoy'
'aposta'
'apla'
'antr'
'antis'
'antiguas_'
'anten'
'announcement_'
'angels_'
'ange'
'ang'
'anfitri'
'andan'
'ancianos_'
'anch'
'anat'
'analog'
'ample_'
'amparo_'
'alongside_'
'allowances_'
'alli'
'ality_'
'alist'
'alimenticios_'
'align'
'alianzas_'
'alerta_'
'alentador'
'alcanza_'
'alc'
'aisla'
'ahorrar'
'ah'
'agrupa'
'agrava'
'aggression_'
'africana_'
'advoca'
'adversa'
'adult'
'aduana_'
'adr'
'adquiri'
'adoptar'
'adolescent'
'admiti'
'admit_'
'admisi'
'administra'
'administer'
'adin'
'adhere_'
'adh'
'ades_'
'adequately_'
'adem'
'adaptation_'
'adaptado'
'actuaciones_'
'activists_'
'activis'
'acti'
'acted_'
'acon'
'acknowledged_'
'accord'
'accomplished_'
'accompany'
'accion'
'acar'
'acabo_'
'abili'
'abandonado_'
'] [_'
'\u'
'Zambia_'
'Yahweh_'
'Woods_'
'WiFi_'
'Were_'
'Wan'
'Walt'
'Wall_'
'WOR'
'Visit'
'Vincent_'
'Vid'
'Vicepresident'
'Ves_'
'Verheugen_'
'VM'
'VC'
'Unit'
'Um'
'Treatment_'
'Transfer'
'Tranquil'
'Train'
'Tow'
'Too_'
'Tome_'
'Tin'
'Ticket_'
'Thirdly_'
'Thailand_'
'Tenía'
'Tem'
'Tecnología_'
'Tac'
'TOR'
'TI_'
'TIV'
'THIS_'
'TAR'
'Syria_'
'Swoboda_'
'Swami_'
'Super_'
'Summ'
'Studio_'
'Strengthening_'
'Stephen_'
'Statistics_'
'Stal'
'Sr'
'Spi'
'Speaking_'
'Soleil_'
'Socialists_'
'Slovenia_'
'Slovakia_'
'Slav'
'Sit_'
'Shuttle_'
'Share_'
'Seville_'
'Sett'
'Seriously_'
'Serge'
'Seminar_'
'Secret'
'Sebasti'
'Sean_'
'Sc'
'Savi'
'Samuel_'
'SQL_'
'SIG'
'Rui'
'Rue'
'Ross'
'Romano'
'Riv'
'Ring'
'Revolution'
'Revis'
'Respond'
'Reserva_'
'Requ'
'Rene'
'Reli'
'Relations_'
'Rel'
'Regulations_'
'Región_'
'Recuerdas_'
'Reagan_'
'Raf'
'REC'
'Queen_'
'Quarte'
'Pá'
'Put'
'Puente_'
'Program'
'Problem'
'Proba'
'Prim'
'Prevención_'
'Presupuestos_'
'President'
'Poettering_'
'Podría'
'Planning_'
'Plan'
'Pier'
'Piensa'
'Phar'
'Peti'
'Peters'
'Perfect'
'Penn'
'País_'
'Patri'
'Past'
'Parad'
'POL'
'PI_'
'PDF_'
'PA_'
'Optional_'
'Operation'
'Olympic_'
'Observer_'
'Obr'
'OPS_'
'OL'
'Noticias_'
'Normas_'
'Nero_'
'Nelson_'
'Need'
'Nam'
'Nairobi_'
'NTE'
'NH'
'Mé'
'Mum'
'Multipl'
'Movement_'
'Move_'
'Mount'
'Motor'
'Montenegro_'
'Moll'
'Model_'
'Mess'
'Memor'
'Mega'
'Manhattan_'
'Mam'
'Malaysia_'
'Major_'
'Maastricht_'
'MO_'
'ML_'
'MED'
'Lá'
'Lyon_'
'Lyn'
'Love'
'Lock'
'Location_'
'Lleva'
'Living_'
'Litera'
'Lind'
'Limit'
'Licen'
'Libera'
'Levant'
'Less'
'Leonardo_'
'Legi'
'League_'
'Lanc'
'Lamento_'
'Lad'
'LabVIEW_'
'LIN'
'LAR'
'Kra'
'Justo_'
'Julie'
'Juli'
'Josh_'
'Johnny_'
'Joh'
'Jes'
'Jason_'
'Jacuzzi_'
'Isn_'
'Instancia_'
'Instan'
'Info'
'Indica'
'Independen'
'Improv'
'Image_'
'Igor_'
'IND'
'IM_'
'IMF_'
'II'
'IDAD'
'IDA'
'IC_'
'ICO'
'ICC'
'IB'
'Humani'
'Hostel_'
'Host'
'Hospital_'
'Holi'
'Him'
'Hero'
'Hell'
'Habla_'
'HT'
'HS'
'HA_'
'Gom'
'Gn'
'Gloria_'
'Glen'
'Girl'
'Gia'
'Gender_'
'Garr'
'Gard'
'GNU_'
'GM_'
'GL'
'GC_'
'Fuera_'
'Fro'
'Font'
'Fol'
'Flore'
'Fla'
'Fisc'
'Ferre'
'Fed'
'Fam'
'FRE'
'FP'
'FMI_'
'Exhorta'
'Exe'
'Except_'
'Excellency_'
'Etiopía_'
'Estructurales_'
'Estima'
'Este'
'Estabilidad_'
'Eric_'
'Era'
'Envi'
'Encuentr'
'Empresas_'
'Empe'
'Embajad'
'Electoral_'
'Ela'
'Efe'
'Edu'
'Editor'
'Edinburgh_'
'Ecu'
'EX_'
'EVE'
'Déjame_'
'Drugs_'
'Dom'
'Docs_'
'Disculpe_'
'Dio'
'Dil'
'Digo_'
'Dialog'
'Detective_'
'Desa'
'Depend'
'Dea'
'Dat'
'Damasc'
'DP'
'DM'
'DIS'
'DEC'
'Cuánto_'
'Cualquiera_'
'Cua'
'Crist'
'Creati'
'Court'
'Consumidor_'
'Consult'
'Conde'
'Computer'
'Commercial_'
'Comisarios_'
'Colorado_'
'Colonial'
'Coali'
'Cirque_'
'Christ'
'Cher'
'Chang'
'Cham'
'Chairperson_'
'Centroa'
'Cay'
'Católica_'
'Carn'
'Canarias_'
'Camino_'
'Caf'
'Caballero'
'COU'
'COP_'
'CIO'
'CAN_'
'Bravo_'
'Boot'
'Bissau_'
'Bilbao_'
'Better_'
'Bert'
'Benin_'
'Bear'
'Base_'
'Barr'
'Bangkok_'
'Ball'
'Bai'
'Back'
'BM'
'Aviation_'
'Available_'
'Autom'
'Atenc'
'Astr'
'Asc'
'Arthur_'
'Aq'
'Apple_'
'Anyway_'
'Any'
'Anni'
'Anima'
'Angela_'
'Américas_'
'American'
'Amen'
'Ambos_'
'Alright_'
'Alien'
'Alb'
'Additionally_'
'Ace'
'Accordingly_'
'Abe'
'AW_'
'A3'
'?" _'
': -'
'750_'
'69'
'242_'
'220_'
'201'
'190'
'175'
'148'
'133'
'09'
'08'
'000'
'. -_'
', ..._'
', .'
'),_'
') -'
'')'
'%), _'
'") _'
' ♪ ♪ _'
' \'
' *'
' )'
' ("_'
'♪_'
'€ _'
'”;'
'’ '
'— '
'üh'
'ús_'
'úr'
'ógen'
'ñado_'
'ítico'
'ít'
'ír'
'én'
'éd'
'éct'
'éa'
'ça_'
'ça'
'ántica_'
'áni'
'ánd'
'ámi'
'ámen'
'ác'
'{{_'
'zón_'
'zie'
'zen_'
'zc'
'zal'
'yw'
'xp'
'worrying_'
'woo'
'wonder'
'wire_'
'wider_'
'wich_'
'wei'
'weg'
'wed_'
'warrant'
'warmly_'
'wait'
'vuestras_'
'vs_'
'volvie'
'voluntaria_'
'voluntaria'
'volc'
'vola'
'void_'
'vivie'
'vit'
'visualiza'
'viruses_'
'violate'
'viera'
'vidad_'
'vic_'
'viabilidad_'
'vestid'
'verif'
'verdades_'
'vende_'
'vegetati'
'varia'
'vam'
'valley_'
'valen'
'vací'
'vacu'
'vacanc'
'uña'
'ué'
'uve'
'utility_'
'utic'
'urges_'
'urbanas_'
'upset_'
'ups_'
'unwa'
'uno'
'unl'
'union'
'uniform'
'unified_'
'unido_'
'unequ'
'undoubtedly_'
'underw'
'unbe'
'unb'
'ult_'
'ulation'
'uen'
'uda'
'uado'
'tón_'
'twentieth_'
'twelve_'
'tuyo'
'tures_'
'ture'
'turca'
'trá'
'trips_'
'trenes_'
'transposi'
'transporti'
'transgres'
'transforman'
'transatl'
'tradi'
'trace'
'trabajador_'
'tra_'
'towns_'
'towels_'
'tomará_'
'tolerate'
'tog'
'tocar'
'tile'
'tienden_'
'tie_'
'tida'
'ther'
'themes_'
'thanking_'
'terminar'
'termin'
'tera'
'tensions_'
'tens'
'tendrían_'
'tendi'
'tender'
'templo'
'temer'
'telo_'
'tejido_'
'teen'
'ted'
'taza_'
'tativ'
'tari'
'tardar_'
'tape_'
'talleres_'
'tale_'
'tactic'
'tabla_'
'sá'
'switch_'
'sustenta'
'suspendid'
'suscri'
'surf_'
'sure'
'suprem'
'suppress'
'supplier_'
'summ'
'suministros_'
'suministrar_'
'sumi'
'sui'
'suele_'
'sucio_'
'suceder'
'substan'
'subscribe'
'subrayó_'
'subordina'
'subdi'
'stuck_'
'strive_'
'stones_'
'stole_'
'stl'
'stipulated_'
'stimulate_'
'stem'
'steal_'
'stages_'
'ssions_'
'ssin'
'ssel'
'squa'
'spokes'
'splendid_'
'sped_'
'speciali'
'soviétic'
'sovereign_'
'sov'
'sound'
'sostiene_'
'sostenido_'
'sost'
'sospechoso_'
'sorprendi'
'soport'
'sometidos_'
'sometida'
'somehow_'
'solicitar'
'soldado_'
'solarium_'
'smos_'
'smell_'
'slip'
'slide'
'sirvi'
'sion'
'sinf'
'sine'
'sincerely_'
'silver_'
'silly_'
'silla_'
'silenci'
'siguieron_'
'signos_'
'siglos_'
'sigh'
'sienten_'
'sienta_'
'sición_'
'sic'
'sible_'
'sharp_'
'sharp'
'shaped_'
'shake_'
'señores_'
'serás_'
'servirá_'
'servers_'
'seri'
'seren'
'separation_'
'separated_'
'sentirse_'
'seller'
'seleccionado'
'seg'
'secundario'
'secuestr'
'scrutiny_'
'screw'
'scien'
'school'
'sch_'
'scenario_'
'satisf'
'santi'
'saneamiento_'
'sanciona'
'saludable'
'salt'
'saldo_'
'salary_'
'salad'
'saith_'
'sacrificio_'
'sacred_'
'sacerdotes_'
'saca'
'sabot'
'sab'
'rían_'
'rva'
'runner'
'ruled_'
'rto'
'rsi'
'rro_'
'rotati'
'ront'
'rolling_'
'rock'
'robust'
'rni'
'ritu'
'ritos_'
'rising_'
'riot'
'rida'
'rich'
'revolucionari'
'revist'
'revise_'
'returning_'
'retoma'
'retirement_'
'resuelto_'
'restoration_'
'responde_'
'respete_'
'respet'
'respaldar_'
'resistente'
'reserv'
'requesting_'
'republic'
'repetir_'
'repente_'
'repent'
'reparto_'
'reparar_'
'reno'
'renewal_'
'remota'
'remarkable_'
'reloj_'
'reiterate_'
'regularmente_'
'regulador'
'regresar'
'reglamentar'
'refusal_'
'refleja'
'redo'
'redis'
'recupera'
'recorte'
'reconoció_'
'reconocid'
'reconcili'
'recompensa'
'recomendó_'
'recoge_'
'reclutamiento_'
'recibo_'
'rear_'
'realice_'
'reaffirmed_'
'reaccion'
'rc'
'rav'
'rau'
'rape'
'rail'
'raf'
'rab'
'químico_'
'quotas_'
'quisit'
'quinta_'
'quince_'
'quierd'
'quic'
'quez'
'querría_'
'quer_'
'quel'
'quedarse_'
'quantity_'
'quanti'
'py_'
'purely_'
'pura_'
'pts_'
'pte'
'ps'
'príncipe'
'prácticos_'
'práctico_'
'provocad'
'prostitución_'
'proporcione_'
'proporcionará_'
'proporcionar'
'pronunciado_'
'promptly_'
'prometid'
'prolonga'
'progresiv'
'profit'
'produzca_'
'productiva'
'procesador'
'probabilidad'
'prisa_'
'primo'
'priced_'
'preventiva'
'preste_'
'preside'
'preservar_'
'presento_'
'presentar'
'prescribe'
'presc'
'preparados_'
'preocupada_'
'preocup'
'premium_'
'preferencia_'
'predecesor'
'preciosa_'
'precedente_'
'poultry_'
'pou'
'potente_'
'positiv'
'portra'
'portad'
'políticamente_'
'policial_'
'poderos'
'pluralis'
'plural'
'plu'
'plin'
'plato_'
'platforms_'
'plantear_'
'plantear'
'plantean_'
'planos_'
'piss'
'pis'
'pire'
'pip'
'pintor'
'pieza_'
'piernas_'
'picos_'
'physically_'
'philosophy_'
'phe'
'pertain'
'persecut'
'persecución_'
'perros_'
'permítanme_'
'periodi'
'perfil_'
'peregrin'
'perdona'
'perab'
'pendiente_'
'penalties_'
'penales_'
'pen_'
'peligros_'
'pela'
'pedí_'
'pav'
'pau'
'patente_'
'patch_'
'pastel'
'pasaje'
'pasados_'
'participatory_'
'partial_'
'parques_'
'paro_'
'parental_'
'parecid'
'pare'
'param'
'pais'
'pacto_'
'pact'
'oxi'
'ovsk'
'ov'
'ound'
'oul'
'osp'
'orte'
'orro_'
'ork'
'original'
'organizar'
'ordenado'
'orbit'
'optimism'
'oponen'
'openly_'
'onos_'
'omet'
'olvide'
'olve'
'olog'
'olo_'
'olive_'
'olic'
'olea'
'oldest_'
'oke'
'ograph'
'ogl'
'ogen'
'oga'
'odo_'
'ocupan'
'ock_'
'och'
'occurs_'
'occup'
'ocat'
'obses'
'obligator'
'obliga_'
'obey'
'ná'
'nutrición_'
'nul'
'nube'
'ntio'
'np'
'noticed_'
'normales_'
'nog'
'nob'
'nich'
'ngle'
'nese_'
'neighborhood_'
'negociado'
'neerland'
'nearest_'
'ndin'
'ncio'
'natal'
'narcotr'
'nan_'
'nak'
'mús'
'mínimos_'
'mutua'
'music'
'museums_'
'multipl'
'mud'
'muchacho_'
'mt'
'mpti'
'motor'
'mosca'
'morta'
'mort'
'monopolio'
'monk'
'mond_'
'modu'
'modest'
'mobilis'
'mmat'
'mixed_'
'minimi'
'mines_'
'mili'
'migra'
'micro_'
'mia_'
'mexicano_'
'mexican'
'mero'
'mentes_'
'mentar'
'mena'
'memor'
'melod'
'meditation_'
'medir_'
'medicinal'
'medal'
'measured_'
'mañanas_'
'max_'
'mató_'
'mature_'
'matic_'
'mathematic'
'masses_'
'mask'
'masaje'
'marítim'
'marinos_'
'manufacture_'
'mantenga_'
'mantenerse_'
'mantendrá'
'manifestó_'
'manifestaciones_'
'mania_'
'magia_'
'ló_'
'lé'
'lá'
'lyn_'
'lux'
'lum'
'lu_'
'lto'
'lous'
'loud_'
'logra_'
'logra'
'login_'
'lodge'
'lme'
'lleva'
'llenar_'
'llamados_'
'lik'
'lider'
'lidades_'
'liberar_'
'liberalization_'
'liba'
'leí'
'lez'
'levanta_'
'letra'
'leta'
'lesias'
'lesi'
'lend'
'legítima_'
'legacy_'
'ledge'
'lean'
'lca'
'laundering_'
'lap'
'lamentablemente_'
'km'
'kiss_'
'kee'
'kan'
'justificación_'
'junta_'
'judíos_'
'jpg_'
'jodid'
'jac'
'izó_'
'ividad_'
'ith'
'istr'
'isten'
'islam'
'isa'
'irán_'
'irra'
'irm'
'ires_'
'ione_'
'invoke'
'inventory_'
'inventa'
'invalid_'
'inval'
'interre'
'interpreted_'
'interd'
'intensify_'
'integrados_'
'intact'
'institute_'
'institute'
'inserta'
'inscrib'
'insa'
'innova'
'injusta'
'inhibit'
'inherent_'
'ingen'
'informático'
'inflation_'
'inflama'
'infección_'
'infant_'
'inequ'
'industriali'
'individuo_'
'indicaciones_'
'indefini'
'indeb'
'incurred_'
'incorrect_'
'incorporar_'
'incorporad'
'incluyan_'
'inclina'
'incidence_'
'inalienable'
'inac'
'improv'
'impresionantes_'
'impresiona'
'importes_'
'imported_'
'implies_'
'implicar'
'impl'
'impid'
'impetus_'
'impartial'
'imparcial'
'immense_'
'imientos_'
'ilusi'
'iller'
'ih'
'igen'
'ify'
'ified_'
'ieth_'
'iente_'
'iene_'
'ieg'
'identical_'
'ices_'
'iano_'
'hí'
'hé_'
'hypo'
'hydrat'
'hund'
'hr_'
'hosts_'
'horizontal_'
'honora'
'hipó'
'hig'
'hielo_'
'hes'
'hero_'
'herm'
'herencia_'
'hemis'
'helicopter'
'hechi'
'hechas_'
'heavens_'
'harmony_'
'harm'
'hari'
'har_'
'handed_'
'hair'
'hai'
'hacerme_'
'hacerl'
'habe'
'gy'
'guil'
'guaranteeing_'
'gráfico_'
'ground'
'griego_'
'griega_'
'gree'
'grass_'
'grande'
'gram'
'grad'
'gole'
'gni'
'gna_'
'gma'
'glorio'
'gif'
'gib'
'ghe'
'get'
'gentes_'
'genocide_'
'genius_'
'genital'
'generosi'
'generalizad'
'gau'
'gato_'
'gation_'
'gastro'
'gasolin'
'garr'
'garanti'
'gall'
'gains_'
'fut'
'fulness_'
'fuimos_'
'fug'
'fti'
'frie'
'frescos_'
'frena'
'fragment'
'fotógrafo'
'fortune_'
'formula_'
'forming_'
'formado_'
'forestales_'
'forcing_'
'forc'
'fol'
'float'
'fled'
'firmes_'
'firmas_'
'firma'
'finanzas_'
'fila_'
'fija_'
'fie'
'fide'
'fichas_'
'ffic'
'ffer'
'fens'
'felicidad_'
'federales_'
'fashion'
'fallo_'
'failing_'
'facilitating_'
'facientes_'
'fabric'
'eña_'
'eye'
'extraer_'
'extinc'
'extiende_'
'extensions_'
'extensiones_'
'expuestas_'
'expressing_'
'exploited_'
'explanat'
'experimento'
'experimentan'
'experiencing_'
'exigencia_'
'exchange'
'excepcionales_'
'excedente'
'exced'
'exce'
'examining_'
'exam'
'evo'
'evi'
'ett_'
'eting_'
'estúpida'
'estuvieron_'
'estaría'
'establecer'
'estabilización_'
'essa'
'espon'
'esperar'
'especialidades_'
'espant'
'espalda_'
'espacios'
'esm'
'esión_'
'esforza'
'ese'
'escrit'
'escol'
'escogido'
'esclavitud_'
'ería'
'eriz'
'erb'
'erat'
'eral'
'equivocado_'
'equidad_'
'entrevista'
'entrado_'
'entiende'
'enmenda'
'enl'
'engañ'
'enfrentamos_'
'enfr'
'enforced_'
'ende'
'encou'
'encias_'
'enc'
'emprendi'
'empre'
'eleven'
'elementa'
'elegidos_'
'elegi'
'elegantes_'
'elb'
'elabor'
'eje'
'ej_'
'eho'
'ego'
'efficiently_'
'efectúa'
'efectuar'
'efect'
'ef_'
'edor_'
'edly_'
'edic'
'eda'
'ectiv'
'ecta'
'ecosystems_'
'ecological_'
'echar_'
'ección_'
'eager'
'déficit_'
'débil_'
'dá'
'duration_'
'dum'
'drivers_'
'drew_'
'drastic'
'drain'
'documenta'
'doctrina'
'dobla'
'diz'
'divisas_'
'dividid'
'distinct_'
'disputa'
'disponemos_'
'displays_'
'dispara'
'dispar'
'disorder_'
'disma'
'diseñada'
'discre'
'discour'
'discipline_'
'disciplina'
'discerning_'
'discapacitad'
'disca'
'disappearance_'
'disability_'
'dirig'
'dire'
'dimensions_'
'dilem'
'digno'
'digas_'
'dificulta'
'diffus'
'difficulty_'
'differently_'
'diar'
'dez'
'devil'
'developers_'
'develop'
'devasta'
'determinar'
'deteriora'
'detener'
'desmantela'
'designado_'
'desh'
'desert_'
'deseos_'
'desen'
'deseas_'
'descubrió_'
'descendi'
'descargas_'
'desarrolla_'
'derivadas_'
'deriva_'
'dera_'
'deput'
'depu'
'deos_'
'dens'
'dena'
'demonstration_'
'demanded_'
'delici'
'deleted_'
'delegate'
'deje'
'dejas_'
'definitions_'
'deficiente'
'dedi'
'decret'
'decree_'
'decre'
'decisivo_'
'decidida'
'decida_'
'debatir_'
'deadl'
'dd'
'db'
'daré_'
'darte_'
'darling_'
'dance'
'dama'
'dale'
'daba'
'curtai'
'curse'
'cuartos_'
'cuantos_'
'cualificaci'
'cualesquiera_'
'cture_'
'cts_'
'cto_'
'crossing_'
'critici'
'cristiana_'
'criminals_'
'crie'
'creencia'
'credible_'
'credibility_'
'creden'
'creada_'
'crack_'
'cove'
'counsel_'
'counsel'
'costumbres_'
'corregido_'
'corr'
'corporations_'
'corona'
'copi'
'cop_'
'coordinador_'
'convocatoria_'
'convicted_'
'convertir_'
'convergence_'
'convencida_'
'contu'
'contrat'
'contradict'
'continuidad_'
'contener_'
'contempla'
'contemp'
'contaminantes_'
'contado'
'constraints_'
'consolidation_'
'console_'
'considerations_'
'conscien'
'conm'
'confía'
'conforma'
'confiscat'
'confirmation_'
'cones_'
'conect'
'cone'
'condado_'
'concerniente_'
'comprueb'
'compromise'
'comprises_'
'comport'
'complejos_'
'complejas_'
'competi'
'comparec'
'compar'
'commodities_'
'commissions_'
'comience'
'comic'
'comforts_'
'comfortably_'
'cometi'
'comentar_'
'combine_'
'comand'
'coma'
'columna_'
'collaborati'
'coli'
'colegio'
'coherent_'
'cocktail'
'cloud'
'climb'
'clasifica'
'clari'
'claimant_'
'ckl'
'ció_'
'cited_'
'circu'
'circ'
'cionar'
'cionalmente_'
'cina'
'cido_'
'cic'
'cib'
'cial_'
'chw'
'cht'
'checked_'
'characterise'
'chamber_'
'cesar'
'cereales_'
'centra'
'cease_'
'cción_'
'cc'
'cater'
'castillo_'
'casti'
'casta'
'cartera_'
'carreras_'
'carr'
'caren'
'carbón_'
'característica_'
'capta'
'capt'
'caps'
'capabilities_'
'capa'
'canta'
'cansa'
'camiones_'
'caminos_'
'camar'
'calor'
'calma_'
'cai'
'básicamente_'
'buying_'
'bucks_'
'brutal'
'brilla'
'bright_'
'breath_'
'breaks_'
'booked_'
'blue'
'blocked_'
'blind'
'blessed_'
'bits_'
'binar'
'biliz'
'bian'
'betray'
'besa'
'bers'
'benefit'
'beneficiarios_'
'beat'
'battle'
'basándose_'
'basarse_'
'barb'
'bands_'
'balle'
'ayudarl'
'await'
'avoid'
'avanzados_'
'avan'
'autumn_'
'autonomy_'
'automóviles_'
'automati'
'automated_'
'attraction_'
'attract_'
'attach_'
'atribu'
'atom'
'ativ'
'astronom'
'asim'
'asignad'
'asientos_'
'asi_'
'ascende'
'arán_'
'artificial'
'artesan'
'ars'
'arriesga'
'armadas_'
'arm_'
'aproba'
'apple'
'aportan_'
'aportación_'
'aplicar'
'apelaci'
'apartados_'
'apare'
'apar'
'ao_'
'anónimo_'
'anticipad'
'answering_'
'anim'
'ani_'
'angu'
'angry_'
'angle_'
'anger_'
'anex'
'andr'
'andi'
'analyse'
'amenazan'
'ame'
'amba'
'ama_'
'alternativos_'
'alojar'
'alien'
'alianza_'
'algorit'
'alfa'
'alenta'
'alegría_'
'alcalde'
'ake_'
'ajen'
'agua'
'agradecería_'
'agoni'
'agita'
'aft'
'afortunad'
'afirmar_'
'afirman'
'affair'
'afe'
'af_'
'adventure_'
'admite'
'administrador'
'administered_'
'adapte'
'acuático'
'acusación_'
'acta_'
'ack'
'ache'
'acerc'
'aceptar'
'accredit'
'accountable_'
'accelerat'
'acced'
'abusos_'
'abuelo'
'absorbe'
'absor'
'abra'
'abastecimiento_'
']]._'
'Zoo'
'Zona_'
'Zan'
'YouTube_'
'You'
'XX'
'XVII_'
'Works_'
'Wood'
'Wolf'
'Wit'
'Wis'
'Wild'
'Wikicars_'
'Wie'
'Whit'
'Welcom'
'WITH_'
'WE_'
'WA_'
'Vá'
'Vuelv'
'Voluntari'
'Visit_'
'Visi'
'View'
'Viaje'
'Veron'
'Ven'
'Vau'
'Vatican_'
'Val_'
'Update'
'Universit'
'Unidad_'
'Ul'
'UR_'
'UNTAET_'
'UNOPS_'
'UNIDO_'
'Tus_'
'Turn'
'Tul'
'Trip'
'Tradi'
'Tot'
'Top'
'Timo'
'Tim_'
'Think_'
'Thie'
'Territories_'
'Ter'
'Tendr'
'Telecom'
'Taylor_'
'Task_'
'TS'
'TN'
'TIC_'
'TEL'
'Survey'
'Supremo_'
'Suppl'
'Suf'
'Ster'
'Step'
'Stea'
'Stardoll_'
'Stalin_'
'Soviética_'
'Sof'
'Sma'
'Siste'
'Sic'
'Ship'
'Shin'
'Señor'
'Ses'
'Serb'
'Seguim'
'Sea'
'Scott_'
'Schr'
'Sche'
'Scan'
'Say'
'Saud'
'Sau'
'Salón'
'Sales_'
'Sagrad'
'Sabe_'
'SYS'
'SME'
'SC_'
'SAS_'
'Roy_'
'Rotar'
'Rome'
'Rich'
'Ret'
'Resultado'
'Responsib'
'Resident'
'Recuerdo_'
'Recuerda_'
'Re_'
'Rand'
'RF'
'RB'
'RAT'
'Quite_'
'Quin'
'Quiere_'
'Quien_'
'QUE'
'Página_'
'Professor_'
'Profesor_'
'Proces'
'Principles_'
'Principios_'
'Principal_'
'Price_'
'Prepara'
'Prad'
'Positi'
'Pole'
'Población_'
'Plu'
'Plane'
'Pick'
'Pese_'
'Penta'
'Pensa'
'Pedi'
'Paso_'
'Paquete_'
'Pant'
'Pale'
'Pal'
'Paga'
'Pack_'
'Pack'
'PV'
'PRESIDENT'
'PHP_'
'Ot'
'Oslo_'
'Ora'
'Opo'
'Ooh_'
'Olivi'
'Oliver_'
'Ohio_'
'Observator'
'Obi'
'Oaxaca_'
'ONUSIDA_'
'OM_'
'Num'
'Nou'
'Norma'
'Nep'
'Nas'
'Narco_'
'Napol'
'NCI'
'Mountain_'
'Mou'
'Moon_'
'Monetario'
'Modern'
'Mmm_'
'Minutes_'
'Mez'
'Medjugorje_'
'Medidas_'
'Mass'
'Marshall_'
'Marl'
'Margar'
'Marbella_'
'Manual_'
'Manten'
'Mana'
'Mald'
'Malawi_'
'Malasia_'
'Main_'
'Madagascar_'
'Mada'
'MON'
'MINU'
'MAS'
'MAC'
'Lum'
'Ltd_'
'Los'
'Loa'
'Llo'
'Little_'
'Lithuania_'
'List_'
'Ling'
'Liga_'
'Libya_'
'Lib'
'Lia'
'Leo_'
'Lenin_'
'Legislative_'
'Learn_'
'Lau'
'Latino'
'Larry_'
'Large_'
'Laeken_'
'Kyle_'
'Kre'
'Kol'
'Kodak_'
'Know'
'Kim_'
'Kh'
'Kaz'
'KB'
'Jurídic'
'Judg'
'Jorge_'
'Jon'
'Jersey_'
'JI'
'JA'
'Isabel'
'Iré_'
'Ire'
'Io_'
'Intel_'
'Intel'
'Insu'
'Instrument'
'Instal'
'Include'
'Ia'
'IU'
'IR_'
'INI'
'Huel'
'Hua'
'Honest'
'Home'
'Holl'
'Hil'
'Hem'
'Hay'
'Harm'
'Happy_'
'Hanna'
'Hamp'
'Hama'
'Habi'
'HER'
'Gut'
'Guar'
'Guadal'
'Govern'
'Gin'
'Gates_'
'Gary_'
'Gabriel_'
'GS_'
'GPS_'
'GP'
'GHT_'
'Fried'
'Fres'
'Franco'
'Frances'
'Form'
'Flu'
'Florenc'
'Fiji_'
'Fair_'
'Factor'
'FOR'
'FIC'
'FD'
'Exce'
'Evan'
'Eva_'
'Europ'
'Estat'
'Estaci'
'Esta'
'Espec'
'Eno'
'Emma'
'Eliminación_'
'Edit'
'Ed_'
'Easy_'
'ET_'
'ENC'
'Día'
'Duc'
'Dra_'
'Dou'
'Dona'
'Documentos_'
'Discu'
'Disa'
'Dice_'
'Dice'
'Detail'
'Deseo_'
'Defensor_'
'Decenio_'
'Debes_'
'Dav'
'DVDs_'
'DEF'
'Culture_'
'Cuart'
'Cost'
'Correc'
'Corp'
'Coordinación_'
'Conve'
'Congre'
'Cong'
'Conduct'
'Conce'
'Competition_'
'Comment'
'Clinton_'
'Clar'
'Claire_'
'Cla'
'Citizens_'
'Cir'
'Cie'
'Chr'
'Chicago_'
'Ches'
'Chech'
'Channel_'
'Cere'
'Cen'
'Celebra'
'Celebr'
'Cav'
'Casc'
'Carp'
'Carl_'
'Cand'
'Call'
'Calidad_'
'Cal'
'CIÓN_'
'CHA'
'CCI'
'CAP_'
'Buil'
'Bry'
'Bruce_'
'Brow'
'Brother_'
'Break'
'Br'
'Boni'
'Boe'
'Body_'
'Boa'
'Black'
'Birmingham_'
'Billy_'
'Bia'
'Bena'
'Bell_'
'Beck'
'Bay'
'Bahamas_'
'Bad'
'Babysitting_'
'BLE_'
'Aur'
'Attorney_'
'Att'
'Ato'
'Ath'
'Atenas_'
'Ata'
'Arte_'
'Arms_'
'Apro'
'Applause_'
'Apoya'
'Aplausos_'
'Ape'
'Apartments_'
'Aparte_'
'Aparta'
'Apart'
'Apare'
'Antigua_'
'Ann_'
'Andalusia'
'Amy_'
'Ami'
'Always_'
'Alre'
'Alic'
'Alan_'
'Airlines_'
'Air'
'Africana_'
'Adrian'
'Acci'
'APP'
'ALDE_'
'ADO'
'ACIÓN_'
'?”'
'?._'
'<'
';'
': +_'
'93'
'4th_'
'235_'
'213_'
'1977_'
'197'
'1968_'
'196'
'185'
'183'
'162'
'152'
'145_'
'144'
'137_'
'126_'
'124'
'123'
'106'
'104_'
'.»_'
'.: _'
'..'
'.-'
'. .'
'. )'
'. ( _'
', ‘_'
', $_'
'); '
') [_'
'%)._'
'", "_'
'")'
' ฀ _'
' £_'
' --_'
' $'
'л'
'ν_'
'ür'
'üb'
'últimamente_'
'ör'
'óticos_'
'óptica_'
'óne'
'ólogo_'
'ólico'
'ò'
'ísticos_'
'ímetro'
'ído'
'ére'
'élite'
'éci'
'ç'
'är'
'ári'
'ánimo_'
'áneo_'
'ándonos_'
'ándola'
'ándol'
'áli'
'áfico_'
'ácidos_'
'Ã³'
'·_'
'±_'
'°'
'«'
'}}'
'}_'
'| '
'zum'
'zl'
'zem'
'zamos_'
'zadas_'
'yst'
'yoga_'
'yne_'
'yn_'
'yen'
'yellow_'
'yd'
'yah_'
'xto'
'wsk'
'wrong'
'writer_'
'write'
'worth'
'world'
'wir'
'winds'
'wind'
'wha'
'weekly_'
'warnings_'
'wander'
'walle'
'válidas_'
'volt'
'vivimos_'
'vivido_'
'vitamina_'
'visite_'
'visitante'
'visita'
'visibility_'
'visi'
'virtue_'
'virtually_'
'violad'
'villages_'
'vicio'
'viaja'
'vestíbulo_'
'vertid'
'verte'
'verdaderas_'
'verbal_'
'venue_'
'venture_'
'ventur'
'vendrá_'
'varían_'
'variado_'
'vapor_'
'vall'
'valiosa'
'vaccine_'
'v4_'
'uts_'
'utilice_'
'urt'
'uro'
'uring_'
'urgi'
'urgentemente_'
'urg'
'urbanos_'
'urb'
'uranium_'
'uranio_'
'unres'
'unjust'
'unidos_'
'unicaci'
'uncle_'
'unch'
'uncertainty_'
'uncertain'
'umin'
'ule_'
'ulan'
'ui_'
'ugu'
'uga_'
'uev'
'uelo'
'udo_'
'ucci'
'tín_'
'trámite'
'trust'
'triste_'
'triggered_'
'tribuna'
'treating_'
'treasure'
'trea'
'trastornos_'
'transplant'
'transmit_'
'translated_'
'transformado'
'transferir'
'transfer'
'transf'
'transcurso_'
'transaction_'
'tranquil_'
'trampa_'
'trajo_'
'traje_'
'trail'
'tragic_'
'tragedy_'
'traga'
'tract'
'trac'
'trabajar'
'toxin'
'tot'
'tormenta_'
'torment'
'too'
'tono_'
'tongue_'
'tome'
'tomat'
'tomada_'
'tomad'
'titulada_'
'tism'
'tiro_'
'tir_'
'tionary_'
'timo_'
'timetable_'
'tically_'
'thru'
'thread'
'thre'
'thic'
'therap'
'theo'
'theatre_'
'testimony_'
'terminación_'
'tere'
'tera_'
'tendré_'
'temprano_'
'tempo'
'temperat'
'temo_'
'tell'
'tela'
'tejidos_'
'teeth_'
'tecla'
'technique_'
'tardes_'
'tank'
'tama'
'tall'
'tab_'
'systematically_'
'symp'
'symboli'
'sv'
'sustituy'
'sustancial_'
'sustain_'
'susta'
'suspension_'
'suspens'
'survive_'
'suprimi'
'suponer_'
'suplemento'
'supiera'
'supervisa'
'superficial'
'supera'
'sup'
'summarize'
'sula'
'suits_'
'sugier'
'sugerencia_'
'sufficiently_'
'sue_'
'sucesiv'
'sucedido_'
'successi'
'suc'
'subvención_'
'subsidios_'
'subsidiariedad_'
'subparagraph_'
'submitting_'
'studio_'
'stud'
'structured_'
'stroll_'
'stroke'
'striking_'
'stresses_'
'straight'
'str'
'stos_'
'stolen_'
'stico'
'stic'
'stea'
'statute_'
'ssy_'
'sses_'
'sr'
'spoil'
'sph'
'spel'
'specif'
'span_'
'sorprender'
'sometido_'
'solucionar_'
'solt'
'soldier_'
'socially_'
'socialistas_'
'sni'
'smooth_'
'slope'
'slaves_'
'slave'
'singular_'
'singing_'
'simpat'
'simo'
'siguió_'
'significativa'
'side'
'sick'
'shu'
'shri'
'shore_'
'shire_'
'shad'
'settle_'
'servants_'
'serlo_'
'seria_'
'separados_'
'sensor'
'sensiti'
'select'
'seleccione_'
'sele'
'seized_'
'securing_'
'secuestro'
'sect'
'secretario_'
'sec_'
'seat'
'season'
'searche'
'scream'
'schi'
'scal'
'say'
'satisfechos_'
'satisfactory_'
'satisfactori'
'santos_'
'sante'
'sampl'
'salí'
'salvaguardia'
'salt_'
'salen_'
'sado'
'sacrifici'
'sacr'
'sacerdo'
'sabore'
'sabi'
'rusa'
'ruin'
'romántico_'
'rome_'
'roca'
'robot'
'rnal'
'rles_'
'rite'
'riormente_'
'rino_'
'rigid'
'rigen_'
'rider'
'rian_'
'rgy_'
'reward_'
'revision'
'revelation'
'reunido'
'restricción_'
'restablecer_'
'respetan_'
'reside'
'reservad'
'requiera'
'requerido'
'repositor'
'reporter'
'repartid'
'rente'
'renombr'
'rena'
'remuneración_'
'remiti'
'reminded_'
'relato'
'rejecti'
'reiterar_'
'reins'
'registrada_'
'registr'
'reforma'
'reflex'
'refería_'
'referido_'
'redi'
'recreati'
'recorrido_'
'reconozc'
'recompensa_'
'recogida'
'reclamación_'
'reckon'
'reciproc'
'recibir'
'recibier'
'recibiendo_'
'rechazar_'
'receipt_'
'recalled_'
'recal'
'rebo'
'rebelde'
'reasonably_'
'realm_'
'realicen_'
'readers_'
'react'
'rda'
'ray'
'ratificar_'
'rant'
'rang'
'rale'
'raid'
'rae'
'rador_'
'ración_'
'química_'
'qué'
'quie'
'queta_'
'queso_'
'queros'
'queri'
'querer_'
'quebra'
'qu'
'pur_'
'pupils_'
'pta'
'prudent'
'provocan'
'provider_'
'proveedor_'
'provee'
'prospects_'
'prospect_'
'prosigu'
'prosecutor'
'propos'
'proportiona'
'proporcione'
'prophets_'
'propagación_'
'prometo_'
'prolongada_'
'progressive_'
'progress'
'profession_'
'profess'
'procesamiento_'
'proceda_'
'proce'
'privatiz'
'prioriti'
'prioritario'
'princip'
'primordial_'
'pride_'
'previsi'
'previ'
'preve'
'prevalenc'
'pretende'
'presunto'
'prestigious_'
'prestigio'
'president'
'presente'
'prefiere'
'pref'
'predominant'
'predictab'
'predic'
'precursor'
'precision_'
'precioso'
'precept'
'precede'
'prec'
'prea'
'practi'
'potencialmente_'
'pote'
'potable_'
'posteriores_'
'poss'
'posesión_'
'portugués_'
'port'
'porqué_'
'porno'
'popularity_'
'polaco'
'plun'
'plot_'
'plat'
'planificad'
'planead'
'pixels_'
'pistola_'
'pioneer'
'pin_'
'pile'
'pilar_'
'pie'
'pide'
'phase'
'petroler'
'petrol'
'petition'
'pesquero'
'pesca'
'persua'
'personalizado_'
'persistente'
'permitiendo_'
'permanec'
'periódicas_'
'perceived_'
'pensamos_'
'pelota'
'pell'
'peligrosas_'
'peligrosa_'
'peda'
'pays'
'patrocinadores_'
'patr'
'pará'
'partidarios_'
'participó_'
'participen_'
'partially_'
'part'
'parlamentarios_'
'pari'
'parar_'
'pali'
'paint_'
'painful_'
'packaging_'
'oya'
'overt'
'overse'
'outline_'
'outcomes_'
'ouse'
'osici'
'oscura'
'orta'
'orphan'
'organizados_'
'ordinari'
'ordina'
'ordena'
'orca_'
'orar_'
'oram'
'optional_'
'opponent_'
'operativ'
'operated_'
'onym'
'ono'
'onga'
'onato_'
'onality_'
'onales_'
'onado_'
'omit'
'ológica'
'olu'
'olor'
'oka'
'ois'
'ofthe_'
'ofrezca'
'offset_'
'offende'
'offen'
'ocupar_'
'ocr'
'obtenga'
'obstaculiza'
'observer_'
'observador_'
'obreros_'
'obligatoria_'
'obl'
'objetiva'
'oat'
'nómic'
'nutri'
'nut_'
'nun'
'numbered_'
'ntico'
'ntia'
'nsta'
'nst'
'nr'
'novedad'
'nova'
'nou'
'notificad'
'nominal'
'nombr'
'nod'
'nocturno_'
'nocturna'
'nitr'
'nil'
'nightlife_'
'night'
'niega_'
'newspapers_'
'nev'
'nets_'
'neto'
'ners'
'nem'
'nell'
'negativ'
'necesitar'
'ndan'
'nationalis'
'nal'
'nai'
'nada'
'nad'
'mó'
'mís'
'médi'
'máxim'
'muscle'
'murdered_'
'municipios_'
'municipio_'
'municiones_'
'muni'
'multipli'
'multic'
'mueve'
'mueva'
'muestras_'
'mper'
'movilización_'
'movies_'
'motores_'
'moti'
'mostrado_'
'moo'
'montar_'
'monster_'
'mons'
'monitored_'
'moleste'
'molesta'
'molecul'
'modernización_'
'modern'
'mmer_'
'mixture_'
'mitiga'
'mit_'
'misu'
'minoría_'
'ministerio_'
'militia_'
'migratori'
'mico'
'mia'
'mezcla'
'metá'
'meteor'
'mete'
'messe'
'mento'
'meni'
'mend'
'mención_'
'mencionan_'
'memories_'
'mediat'
'mecánic'
'meantime_'
'mayor'
'math_'
'materna_'
'matan'
'master'
'market'
'march'
'manufactured_'
'mantuv'
'manteniendo_'
'mansion'
'mandamiento'
'mama_'
'malnutrition_'
'malet'
'mail'
'magnífico_'
'magnifi'
'madr'
'maci'
'lude'
'lua'
'ltim'
'lta'
'lp'
'lowest_'
'loving_'
'lovers_'
'lop'
'longe'
'lodging_'
'locali'
'loaded_'
'lli_'
'llevada_'
'llev'
'llegara_'
'llame_'
'llamas_'
'literal'
'lit_'
'lir'
'liquid_'
'liness_'
'limit'
'lime'
'ligeramente_'
'ligera'
'lifestyle'
'lif'
'lied_'
'licensing_'
'lica_'
'lic_'
'libre'
'lh'
'lg'
'lesse'
'lers_'
'lera'
'legitimidad_'
'legislatur'
'legislador'
'legisla'
'legendar'
'legaliza'
'legalidad_'
'legali'
'leer'
'lech'
'lece'
'lección_'
'leaf_'
'ldo'
'lazos_'
'lays_'
'lavado'
'lav'
'lau'
'latest'
'lares_'
'lant'
'lang'
'landi'
'lami'
'laguna'
'lack'
'lab_'
'ky'
'kra'
'kon'
'know'
'kit_'
'kills_'
'kick_'
'kay'
'kan_'
'justificar_'
'justifica_'
'junta'
'juicios_'
'jug'
'jue'
'jin'
'jet_'
'ject'
'jab'
'iér'
'ives_'
'itude_'
'itt'
'itr'
'itati'
'itas_'
'italian'
'islámic'
'irregular'
'iro_'
'ipt'
'ips'
'invitó_'
'invitado_'
'inventor'
'inve'
'introduce'
'intolerance_'
'intimidad_'
'intero'
'intern'
'interconnect'
'intercon'
'intense_'
'intel'
'insurrec'
'insuficientes_'
'instrumenta'
'instaura'
'installing_'
'instalado_'
'inspired_'
'inspector_'
'inspector'
'inspecciones_'
'inspecci'
'insist'
'inocentes_'
'inmedia'
'inicie_'
'iniciales_'
'ingredients_'
'ingles'
'infracciones_'
'informativa_'
'influir_'
'influences_'
'influenced_'
'infini'
'infam'
'infa'
'inex'
'inconvenient'
'inconsisten'
'incon'
'incluía'
'incluyer'
'impress'
'impo'
'implicados_'
'implicaciones_'
'impli'
'implementar_'
'imo_'
'ime'
'ilumina'
'illustrati'
'illness_'
'illi'
'ilia_'
'ija'
'iguien'
'ignored_'
'igni'
'ieur_'
'iest_'
'iere'
'iel'
'ideológic'
'identifie'
'identi'
'icul'
'ick_'
'icio_'
'iciente'
'iales_'
'iada_'
'iP'
'hurry_'
'humor_'
'humo_'
'hume'
'hoste'
'hospeda'
'horror_'
'horror'
'horm'
'hook'
'honor'
'honesto'
'holi'
'holdings_'
'hm_'
'hly_'
'hitting_'
'historias_'
'his'
'hire_'
'hip'
'hincha'
'hicie'
'hesitate_'
'hens'
'hee'
'headline'
'hazardous_'
'haw'
'harmonise'
'harmful_'
'harde'
'hambr'
'halt_'
'hagamos_'
'haciéndolo_'
'hac'
'habrían_'
'habia'
'güe'
'gun'
'guid'
'gues_'
'guerr'
'guar'
'gráfica_'
'gravedad_'
'gratuita'
'grati'
'gramo'
'grados_'
'gou'
'got'
'gos'
'gord'
'gol'
'god'
'gobernante'
'gobernado'
'gm'
'glaci'
'giant_'
'gi_'
'ghts_'
'geográfico'
'gel_'
'gates_'
'gamm'
'galaxi'
'gain'
'gación_'
'funcione_'
'funcionalidad'
'fulfil'
'fts'
'frecuente_'
'franceses_'
'fractura'
'founder_'
'fought_'
'foto'
'forme_'
'formatos_'
'foremost_'
'fond'
'folks_'
'folk_'
'fleet_'
'flagrant'
'fishermen_'
'firms_'
'fine'
'financiado_'
'fina'
'fila'
'ficie'
'fica_'
'fiable_'
'ffl'
'ffin'
'fertil'
'ferrocarril_'
'feria_'
'feed'
'farmacéutico'
'fare_'
'famosos_'
'famosas_'
'falsas_'
[...]
