'<pad>_'
'<EOS>_'
'._'
', _'
''_'
'?_'
'- _'
'I_'
'you_'
'a_'
'the_'
'!_'
'to_'
'' _'
's_'
'di_'
'che_'
'e_'
'in_'
'. _'
't_'
'it_'
'un_'
'non_'
'of_'
'me_'
'la_'
'that_'
'il_'
'... _'
'You_'
'and_'
'Non_'
'..._'
'is_'
'per_'
'E_'
'è_'
'-_'
'una_'
'No_'
'm_'
'for_'
'on_'
'have_'
're_'
'your_'
'this_'
'be_'
'was_'
'What_'
'my_'
'It_'
'know_'
'we_'
'not_'
'l_'
'do_'
'sono_'
'are_'
'Oh_'
'ha_'
'come_'
'don_'
'with_'
'he_'
'can_'
'what_'
'all_'
'con_'
'le_'
'so_'
'ho_'
'mi_'
'da_'
'll_'
'no_'
'i_'
'lo_'
'like_'
'just_'
'We_'
'up_'
'And_'
'here_'
'The_'
'out_'
'cosa_'
'ti_'
'si_'
'He_'
'get_'
'right_'
'him_'
'That_'
'del_'
'about_'
'there_'
'Come_'
'se_'
'go_'
'at_'
'questo_'
'qui_'
'her_'
'ma_'
',_'
'io_'
'Si_'
'Ma_'
've_'
'got_'
'mio_'
'bene_'
'one_'
'ci_'
'd_'
'Mi_'
'hai_'
'think_'
'they_'
'A_'
'want_'
'Yeah_'
'but_'
'solo_'
'So_'
'al_'
'Well_'
'? _'
'she_'
'But_'
'if_'
'tu_'
'Che_'
'', _'
'te_'
''._'
'see_'
'Il_'
'La_'
'from_'
'his_'
'"_'
'fare_'
'will_'
'Ho_'
'Sono_'
'tutto_'
'sei_'
'essere_'
'going_'
'an_'
'mia_'
'della_'
'us_'
'time_'
'gonna_'
'them_'
'fatto_'
'as_'
'now_'
'been_'
'were_'
'Cosa_'
'back_'
'ne_'
'did_'
'. - _'
'era_'
'! _'
'say_'
'How_'
'stato_'
'had_'
'detto_'
'They_'
'good_'
'c_'
'would_'
'quando_'
'Yes_'
'who_'
'gli_'
'She_'
'some_'
'need_'
'This_'
'when_'
'Okay_'
'man_'
'questa_'
'lei_'
'could_'
' "_'
'È_'
'tell_'
'L_'
'quello_'
'Ti_'
'dei_'
'ora_'
'mai_'
'didn_'
'alla_'
'Se_'
'più_'
'take_'
'o_'
'Hey_'
'something_'
'molto_'
'our_'
'or_'
'piu_'
'Why_'
'down_'
'There_'
'tuo_'
'too_'
'suo_'
'make_'
'how_'
'nel_'
'anche_'
'sia_'
'by_'
'All_'
'tua_'
'If_'
'casa_'
'Io_'
'way_'
'tutti_'
'Sì_'
'Don_'
'dire_'
'has_'
'Un_'
'really_'
'Beh_'
'Lo_'
'qualcosa_'
'mean_'
'Grazie_'
'sta_'
'off_'
'Per_'
'In_'
'let_'
'never_'
'Let_'
'should_'
'more_'
'little_'
'fa_'
'Ok_'
'lui_'
'delle_'
'sua_'
'hanno_'
'due_'
'cosi_'
'over_'
'doing_'
'Sei_'
'Do_'
'Ci_'
'Ehi_'
'then_'
'ad_'
'così_'
'Mr_'
'very_'
'vero_'
'su_'
'My_'
'po_'
':_'
'posso_'
'ancora_'
'prima_'
'said_'
'only_'
'okay_'
'Just_'
'tempo_'
'niente_'
'love_'
'abbiamo_'
'andare_'
'why_'
'people_'
'two_'
'loro_'
'even_'
'Perche_'
'uno_'
'thing_'
'any_'
'look_'
'altro_'
'Ha_'
'voglio_'
'sorry_'
'much_'
'chi_'
'Allora_'
'am_'
'siamo_'
'vuoi_'
'va_'
'sempre_'
'quella_'
'into_'
'Now_'
'cose_'
'noi_'
'idea_'
'Le_'
'Hai_'
'."_'
'parte_'
'Are_'
'li_'
'Where_'
'Va_'
'? - _'
'stai_'
'C_'
'dell_'
'fuori_'
'Questo_'
'anything_'
'where_'
'davvero_'
'find_'
'Is_'
'work_'
'life_'
'talk_'
'still_'
'must_'
'Who_'
'nella_'
'perche_'
'because_'
'Perché_'
' ?_'
'vita_'
'thought_'
'before_'
'Tu_'
'their_'
'proprio_'
'help_'
': _'
'volta_'
'sure_'
'other_'
'away_'
'Look_'
'anni_'
'Good_'
'than_'
'day_'
'bisogno_'
'better_'
'long_'
'home_'
'cui_'
'Thank_'
'visto_'
'night_'
'well_'
'poi_'
'uomo_'
'sul_'
'give_'
'"._'
'vedere_'
'modo_'
'Get_'
'voi_'
'stata_'
'sai_'
'posto_'
'fine_'
'first_'
'quel_'
'Ora_'
'lavoro_'
'always_'
'Not_'
'Go_'
'these_'
'quanto_'
'dove_'
'Una_'
'Ciao_'
'Dio_'
'again_'
'Bene_'
'please_'
'guy_'
'Forse_'
'amico_'
'Your_'
'Chi_'
'Can_'
'told_'
'male_'
''?_'
'Did_'
'Ah_'
'via_'
'name_'
'things_'
'" _'
'fosse_'
'puoi_'
'call_'
'God_'
'qualcuno_'
'place_'
'momento_'
'fai_'
'O_'
' '_'
'won_'
'senza_'
'doesn_'
'adesso_'
'signore_'
'ever_'
'ed_'
'dopo_'
'dal_'
'put_'
'nothing_'
'Then_'
'perché_'
'padre_'
'old_'
'left_'
'coming_'
'those_'
'Maybe_'
'parlare_'
'feel_'
'dispiace_'
'being_'
'When_'
'years_'
'last_'
'guys_'
'avere_'
'allora_'
'meglio_'
'Voglio_'
'stop_'
'found_'
'favore_'
'done_'
'Lei_'
'Di_'
'wrong_'
'qualche_'
'great_'
'giorno_'
'ogni_'
'might_'
'car_'
'around_'
'vuole_'
'vi_'
'troppo_'
'far_'
'wanted_'
'money_'
'keep_'
'care_'
'Era_'
'leave_'
'else_'
'Sai_'
'# _'
'miei_'
'dalla_'
'abbia_'
'new_'
'big_'
'believe_'
'Quindi_'
'Here_'
' !_'
'sir_'
'signor_'
'dead_'
'Abbiamo_'
'after_'
'Quando_'
'isn_'
'does_'
'Andiamo_'
'nome_'
'grande_'
'gente_'
'facendo_'
'credo_'
'bad_'
'Please_'
'tanto_'
'sto_'
'madre_'
'lot_'
'kind_'
'girl_'
'altra_'
'world_'
'understand_'
'sarebbe_'
'nuovo_'
'Hi_'
'show_'
'mind_'
'hell_'
'OK_'
'wasn_'
'sembra_'
'saw_'
'piace_'
'own_'
'hear_'
'everything_'
'devo_'
'Hello_'
'trying_'
'house_'
'father_'
'best_'
'through_'
'soldi_'
'ragione_'
'friend_'
'came_'
'--_'
'knew_'
'enough_'
'cazzo_'
'ai_'
'Siamo_'
'D_'
'woman_'
'remember_'
'nice_'
'job_'
'degli_'
'uh_'
'stare_'
'real_'
'può_'
'looking_'
'Stai_'
'Gli_'
'Certo_'
'wouldn_'
'same_'
'queste_'
'made_'
'yeah_'
'tra_'
'sulla_'
'successo_'
'someone_'
'happened_'
'course_'
'aveva_'
'accordo_'
'Dove_'
'went_'
'tutta_'
'mondo_'
'getting_'
'farlo_'
'alle_'
'To_'
'Questa_'
'1_'
'yourself_'
'today_'
'ask_'
'Because_'
'(_'
' - _'
'wait_'
'venire_'
'sa_'
'room_'
'ragazzo_'
'persone_'
'Wait_'
'Uh_'
'Ecco_'
'wife_'
'testa_'
'shit_'
'nessuno_'
'certo_'
'caso_'
'Devo_'
'sentito_'
'notte_'
'fucking_'
'baby_'
'avete_'
'appena_'
'Right_'
'One_'
'tutte_'
'tipo_'
'suoi_'
'son_'
'ragazzi_'
'haven_'
'Da_'
'Cos_'
'three_'
'sapere_'
'nulla_'
'nostro_'
'mamma_'
'faccia_'
'Davvero_'
'seen_'
'forse_'
'avuto_'
'another_'
'Vuoi_'
'yet_'
'talking_'
'sotto_'
'questi_'
'gia_'
'devi_'
'boy_'
', "_'
'which_'
'problema_'
'preso_'
'penso_'
'moglie_'
'maybe_'
'insieme_'
'avevo_'
'Take_'
'trovato_'
'may_'
'hard_'
'fratello_'
'altri_'
'Sto_'
'Have_'
'used_'
'tuoi_'
'school_'
'ok_'
'mother_'
'matter_'
'kill_'
'dovuto_'
'dice_'
'dentro_'
'bella_'
'Thanks_'
'Sta_'
'Of_'
'Con_'
'working_'
'tonight_'
'possiamo_'
'guess_'
'famiglia_'
'case_'
'andiamo_'
'already_'
'Me_'
'Anche_'
'2_'
'took_'
'succede_'
'stay_'
'saying_'
'oggi_'
'nostra_'
'many_'
'fuck_'
'faccio_'
'cos_'
'ago_'
'Posso_'
'Niente_'
'tre_'
'ragazza_'
'problem_'
'prego_'
'killed_'
'già_'
'every_'
'For_'
'-- _'
'persona_'
'head_'
'Credo_'
'worry_'
'whole_'
'deve_'
'called_'
'Tutto_'
'Listen_'
'year_'
'without_'
'sì_'
'myself_'
'ce_'
'aver_'
'volte_'
'use_'
'try_'
'together_'
'serve_'
'potrebbe_'
'live_'
'ero_'
'couldn_'
'Ne_'
'5_'
'start_'
'signora_'
'quindi_'
'prendere_'
'hope_'
'gone_'
'figlio_'
'Sorry_'
'John_'
'Dobbiamo_'
'10_'
'wants_'
'thinking_'
'storia_'
'run_'
'kid_'
'huh_'
'gotta_'
'donna_'
'dai_'
'Guarda_'
'uomini_'
'stesso_'
'puo_'
'most_'
'morto_'
'alone_'
'Stop_'
'Really_'
'Or_'
'Aspetta_'
'As_'
'wanna_'
'nei_'
'morning_'
'men_'
'giusto_'
'dall_'
'amici_'
'Ed_'
'Dr_'
'000_'
'! - _'
'state_'
'sicuro_'
'sarà_'
'ready_'
'move_'
'end_'
'business_'
'Gia_'
'... - _'
''... _'
'"?_'
'tardi_'
'subito_'
'stanno_'
'set_'
'macchina_'
'dato_'
'cercando_'
'anyone_'
'Miss_'
'next_'
'late_'
'grazie_'
'family_'
'face_'
'capito_'
'bello_'
'abbastanza_'
'Solo_'
'S_'
'stuff_'
'soon_'
'says_'
'part_'
'nelle_'
'nell_'
'kids_'
'dollari_'
'Tell_'
') _'
' #_'
'ucciso_'
'qua_'
'meno_'
'lost_'
'heard_'
'film_'
'few_'
'facciamo_'
'col_'
'Vai_'
'Dai_'
'?"_'
'siete_'
'possibile_'
'play_'
'meet_'
'married_'
'hand_'
'fino_'
'bit_'
'avrei_'
'Give_'
'Dov_'
'sera_'
'probably_'
'phone_'
'person_'
'letto_'
'having_'
'happy_'
'giro_'
'brother_'
'bring_'
'andato_'
'Quello_'
'.._'
'vicino_'
'until_'
'trovare_'
'thank_'
'taking_'
'pay_'
'mani_'
'least_'
'dobbiamo_'
'days_'
'both_'
'bambino_'
'Salve_'
'Penso_'
'At_'
'♪ _'
'under_'
'true_'
'tornare_'
'quasi_'
'hurt_'
'gave_'
'body_'
'basta_'
'actually_'
'[_'
'Tutti_'
'Adesso_'
'20_'
'vedo_'
'tomorrow_'
'stati_'
'pensa_'
'mie_'
'door_'
'different_'
'crazy_'
'change_'
'buona_'
'With_'
'Like_'
'Forza_'
'3_'
''!_'
'sangue_'
'piano_'
'nostri_'
'importante_'
'heart_'
'felice_'
'eh_'
'aren_'
'YOU_'
'Mamma_'
'wish_'
'week_'
'turn_'
'read_'
'poco_'
'pensi_'
'neanche_'
'migliore_'
'means_'
'giorni_'
'children_'
'capo_'
'aspetta_'
'also_'
'Sam_'
'Nothing_'
'Jack_'
'His_'
'sue_'
'stiamo_'
'stessa_'
'problemi_'
'pretty_'
'police_'
'mom_'
'mentre_'
'looks_'
'happen_'
'erano_'
'each_'
'date_'
'chiama_'
'avrebbe_'
'Wow_'
'Sir_'
'See_'
'Puoi_'
'Lui_'
'Dad_'
'Charlie_'
'30_'
'yes_'
'vecchio_'
'strada_'
'since_'
'sara_'
'point_'
'occhi_'
'marito_'
'five_'
'finito_'
'eat_'
'dovrei_'
'domani_'
'die_'
'dici_'
'colpa_'
'cio_'
'Così_'
'Be_'
'vai_'
'vado_'
'supposed_'
'minuti_'
'mano_'
'indietro_'
'hit_'
'dare_'
'dad_'
'chiesto_'
'andata_'
'Vi_'
'These_'
'Ce_'
'4_'
'volevo_'
'vediamo_'
'sola_'
'second_'
'polizia_'
'paura_'
'once_'
'lì_'
'hold_'
'half_'
'drink_'
'bel_'
'anno_'
'Will_'
'Two_'
'Sembra_'
'Qui_'
'Michael_'
'Hanno_'
'while_'
'waiting_'
'vostra_'
'shot_'
'sento_'
'presto_'
'pistola_'
'pensato_'
'months_'
'minutes_'
'making_'
'inside_'
'friends_'
'figlia_'
'fatta_'
'exactly_'
'dico_'
'contro_'
'check_'
'amore_'
'Senti_'
'Pronto_'
'Perchè_'
'New_'
'Mio_'
'Lord_'
'vorrei_'
'viene_'
'venuto_'
'uscire_'
'hours_'
'hands_'
'cuore_'
'ass_'
'aiuto_'
'Vieni_'
'Scusa_'
' ..._'
'watch_'
'times_'
'such_'
'significa_'
'rest_'
'piccola_'
'moment_'
'mine_'
'listen_'
'husband_'
'high_'
'game_'
'dicendo_'
'comes_'
'cinque_'
'chance_'
'camera_'
'On_'
'yours_'
'water_'
'story_'
'sleep_'
'settimana_'
'porta_'
'pensare_'
'goes_'
'difficile_'
'diavolo_'
'couple_'
'blood_'
'beautiful_'
'bambini_'
'ahead_'
'against_'
'afraid_'
'T_'
'Pensavo_'
'Excuse_'
'Cosi_'
'Ben_'
'ultima_'
'stupid_'
'stanza_'
'quattro_'
'primo_'
'piccolo_'
'party_'
'open_'
'office_'
'important_'
'entrare_'
'easy_'
'corpo_'
'acqua_'
'Signore_'
'Poi_'
'Devi_'
': "_'
'7_'
')_'
'started_'
'sister_'
'secondo_'
'qualsiasi_'
'portato_'
'nessuna_'
'minute_'
'importa_'
'fun_'
'four_'
'festa_'
'eyes_'
'everyone_'
'domanda_'
'chiamato_'
'buy_'
'between_'
'auto_'
'Uno_'
'Basta_'
'After_'
''..._'
'walk_'
'tesoro_'
'telling_'
'stand_'
'sopra_'
'serio_'
'sentire_'
'scusi_'
'punto_'
'potuto_'
'possa_'
'passato_'
'parlato_'
'parlando_'
'news_'
'makes_'
'hate_'
'gets_'
'eri_'
'ecco_'
'dietro_'
'death_'
'capisco_'
'bed_'
'answer_'
'altre_'
'Te_'
'Mrs_'
'Mom_'
'Mike_'
'war_'
'unica_'
'um_'
'quelle_'
'pure_'
'piacere_'
'perso_'
'numero_'
'mezzo_'
'là_'
'later_'
'ieri_'
'guerra_'
'full_'
'damn_'
'child_'
'ain_'
'Very_'
'THE_'
'Su_'
'Frank_'
'15_'
'tue_'
'truth_'
'stasera_'
'sort_'
'side_'
'scuola_'
'quite_'
'morte_'
'lasciato_'
'gioco_'
'fight_'
'fact_'
'died_'
'daughter_'
'cut_'
'close_'
'ciò_'
'boys_'
'black_'
'Li_'
'David_'
'Al_'
'young_'
'whatever_'
'vostro_'
'town_'
'terra_'
'strano_'
'sit_'
'sicura_'
'shouldn_'
'resto_'
'reason_'
'outside_'
'order_'
'number_'
'nessun_'
'light_'
'gun_'
'front_'
'free_'
'finita_'
'avanti_'
'agente_'
'Looks_'
'...?_'
'word_'
'veramente_'
'tried_'
'spiace_'
'somebody_'
'sent_'
'safe_'
'ragazze_'
'question_'
'quelli_'
'perdere_'
'met_'
'mesi_'
'knows_'
'dovremmo_'
'dormire_'
'divertente_'
'changed_'
'campo_'
'beh_'
'asking_'
'Vorrei_'
'Quanto_'
'Nice_'
'Mia_'
'Great_'
'Fa_'
'Avanti_'
'6_'
' ... _'
'vista_'
'top_'
'speak_'
'sign_'
'siano_'
'senti_'
'sapevo_'
'parola_'
'nobody_'
'lungo_'
'line_'
'forza_'
'food_'
'farmi_'
'fanno_'
'everybody_'
'behind_'
'bar_'
'anymore_'
'amo_'
'affari_'
'Um_'
'Spero_'
'Signor_'
'Qual_'
'Peter_'
'Does_'
'America_'
'vieni_'
'trouble_'
'team_'
'taken_'
'running_'
'quell_'
'quei_'
'prove_'
'passare_'
'parla_'
'nostre_'
'nemmeno_'
'n_'
'lives_'
'its_'
'girls_'
'fire_'
'either_'
'doctor_'
'break_'
'bitch_'
'andando_'
'Ero_'
'Buongiorno_'
'100_'
' ♪_'
'ufficio_'
'ricordi_'
'questions_'
'quale_'
'perchè_'
'needs_'
'lose_'
'lavorare_'
'honey_'
'hey_'
'funny_'
'clothes_'
'clean_'
'avvocato_'
'attimo_'
'Sure_'
'Some_'
'Hold_'
'Già_'
'Due_'
'Captain_'
'50_'
'", _'
'white_'
'weeks_'
'vera_'
'tizio_'
'thanks_'
'test_'
'stia_'
'six_'
'sesso_'
'ricordo_'
'piedi_'
'paio_'
'ore_'
'morta_'
'messo_'
'genere_'
'feeling_'
'facile_'
'dov_'
'donne_'
'dinner_'
'control_'
'comunque_'
'city_'
'almost_'
'alive_'
'Would_'
'Quella_'
'Prima_'
'Everybody_'
'Avete_'
'Any_'
'9_'
'. -_'
'worth_'
'voglia_'
'tratta_'
'telefono_'
'sulle_'
'stavo_'
'stava_'
'sick_'
'shall_'
'scared_'
'parents_'
'motivo_'
'mangiare_'
'invece_'
'hour_'
'hmm_'
'fossi_'
'fantastico_'
'em_'
'dirlo_'
'culo_'
'cool_'
'cause_'
'brought_'
'avevi_'
'anybody_'
'Vado_'
'Tom_'
'Siete_'
'Qualcuno_'
'Possiamo_'
'Paul_'
'Nessuno_'
'Joe_'
'Fuck_'
'Everything_'
'Alex_'
'12_'
'seems_'
'saperlo_'
'riesco_'
'potrei_'
'playing_'
'piacerebbe_'
'papa_'
'miss_'
'lady_'
'idiota_'
'hotel_'
'hot_'
'hospital_'
'futuro_'
'farti_'
'farai_'
'dovrebbe_'
'country_'
'chiamare_'
'capire_'
'avessi_'
'amica_'
'able_'
'Was_'
'Vuole_'
'Those_'
'TO_'
'Signora_'
'Our_'
'Noi_'
'Nel_'
'Mm_'
'Keep_'
'Ascolta_'
' $_'
'window_'
'vedi_'
'somewhere_'
'soltanto_'
'settimane_'
'senso_'
'sacco_'
'roba_'
'radio_'
'quest_'
'puttana_'
'pronto_'
'poter_'
'possono_'
'picture_'
'nuova_'
'living_'
'fortuna_'
'forte_'
'figli_'
'fault_'
'dottore_'
'dog_'
'davanti_'
'controllo_'
'cercare_'
'book_'
'avesse_'
'asked_'
'almeno_'
'Potrebbe_'
'Jimmy_'
'George_'
'From_'
'Even_'
'Alla_'
'. "_'
'viaggio_'
'verso_'
'unico_'
'ultimo_'
'tornato_'
'though_'
'specie_'
'speciale_'
'sense_'
'sarei_'
'restare_'
'possible_'
'piacciono_'
'pare_'
'oh_'
'meeting_'
'lie_'
'libro_'
'guarda_'
'giovane_'
'drive_'
'dica_'
'deal_'
'credi_'
'credere_'
'cielo_'
'centro_'
'building_'
'aspetto_'
']_'
'York_'
'Voi_'
'Smettila_'
'Her_'
'Giusto_'
'First_'
'By_'
'Bill_'
'About_'
'... .._'
'women_'
'takes_'
'shut_'
'short_'
'shoot_'
'seem_'
'scelta_'
'sake_'
'prigione_'
'pensando_'
'moving_'
'morire_'
'mettere_'
'mente_'
'killer_'
'inizio_'
'happens_'
'hair_'
'guardare_'
'fast_'
'evidence_'
'diventare_'
'dance_'
'colpo_'
'citta_'
'caught_'
'catch_'
'capelli_'
'cannot_'
'buon_'
'broke_'
'along_'
'Three_'
'Stiamo_'
'Stavo_'
'Deve_'
'Aveva_'
'8_'
'00_'
'worried_'
'works_'
'worked_'
'vuol_'
'voce_'
'vivere_'
'squadra_'
'sounds_'
'sorella_'
'sogno_'
'signorina_'
'sicurezza_'
'serious_'
'ran_'
'preoccuparti_'
'plan_'
'parole_'
'ordini_'
'near_'
'mandato_'
'lontano_'
'leaving_'
'god_'
'giù_'
'fretta_'
'foto_'
'finally_'
'felt_'
'farò_'
'faro_'
'eye_'
'dream_'
'computer_'
'chiamo_'
'chiami_'
'calling_'
'bravo_'
'bocca_'
'attack_'
'aspettare_'
'alto_'
'agli_'
'Tony_'
'Something_'
'Sa_'
'More_'
'Molto_'
'Jesus_'
'Eh_'
'Damn_'
'Cause_'
'Buona_'
'Bob_'
'Anything_'
''. _'
'wedding_'
'voluto_'
'volete_'
'vada_'
'uccidere_'
'sweet_'
'situazione_'
'pensavo_'
'omicidio_'
'medico_'
'matrimonio_'
'fu_'
'forever_'
'fondo_'
'floor_'
'explain_'
'choice_'
'cane_'
'cambiare_'
'bambina_'
'bagno_'
'armi_'
'anch_'
'air_'
'Which_'
'Vedi_'
'Steve_'
'Sarah_'
'Quel_'
'Però_'
'Papa_'
'M_'
'Bye_'
'An_'
'...._'
' -- _'
'worse_'
'voleva_'
'vogliono_'
'video_'
'swear_'
'succedendo_'
'stupido_'
'special_'
'sbagliato_'
'save_'
'road_'
'return_'
'rather_'
'proposito_'
'prendo_'
'power_'
'pick_'
'nave_'
'murder_'
'month_'
'merda_'
'luck_'
'longer_'
'human_'
'hasn_'
'giornata_'
'gas_'
'forward_'
'esattamente_'
'entrambi_'
'cena_'
'cara_'
'buono_'
'arrivato_'
'alcuni_'
'Volevo_'
'TV_'
'Say_'
'Ooh_'
'Only_'
'Oggi_'
'Never_'
'Man_'
'Isn_'
'Henry_'
'Daddy_'
'Call_'
'18_'
'0_'
'- "_'
'!"_'
'é_'
'write_'
'uscita_'
'trust_'
'stronzo_'
'ship_'
'sex_'
'send_'
'secret_'
'portare_'
'occhio_'
'lovely_'
'himself_'
'future_'
'forget_'
'figure_'
'dovresti_'
'dottor_'
'domande_'
'detective_'
'become_'
'ball_'
'arrivati_'
'aria_'
'accident_'
'] _'
'Whatever_'
'Tesoro_'
'Shit_'
'Put_'
'People_'
'Nobody_'
'Natale_'
'Max_'
'Leave_'
'Jake_'
'Fine_'
'Eddie_'
'Doctor_'
'Comunque_'
'Christmas_'
'Anyway_'
'Actually_'
' ._'
'welcome_'
'vostri_'
'usare_'
'trova_'
'till_'
'sull_'
'seconds_'
'scritto_'
'scena_'
'saputo_'
'sappia_'
'provato_'
'poteva_'
'possibilita_'
'posizione_'
'piuttosto_'
'perfect_'
'partner_'
'ospedale_'
'ordine_'
'ones_'
'music_'
'million_'
'mate_'
'mad_'
'luce_'
'less_'
'lasciare_'
'kidding_'
'jail_'
'grado_'
'given_'
'gentile_'
'finche_'
'fate_'
'dear_'
'conto_'
'company_'
'class_'
'città_'
'caro_'
'capitano_'
'boat_'
'affatto_'
'aereo_'
'Someone_'
'Since_'
'Shut_'
'Ray_'
'Make_'
'J_'
'IT_'
'Hurry_'
'FBI_'
'Com_'
'Cioe_'
'Chuck_'
'? !_'
'win_'
'vogliamo_'
'vittima_'
'thinks_'
'tea_'
'sui_'
'strong_'
'spesso_'
'sparato_'
'sound_'
'sistema_'
'servizio_'
'segreto_'
'security_'
'sarai_'
'realta_'
'provare_'
'prova_'
'pronta_'
'programma_'
'planet_'
'piece_'
'pezzi_'
'pazzo_'
'past_'
'pass_'
'paese_'
'occhiata_'
'normale_'
'movie_'
'molti_'
'meant_'
'learn_'
'law_'
'interessa_'
'incidente_'
'grosso_'
'fuoco_'
'forma_'
'forgot_'
'ex_'
'durante_'
'drunk_'
'driving_'
'dello_'
'controllare_'
'conosco_'
'conosciuto_'
'college_'
'clear_'
'bye_'
'bought_'
'boss_'
'avresti_'
'arrivo_'
'appreciate_'
'anyway_'
'amazing_'
'addosso_'
'THAT_'
'Stay_'
'Stanno_'
'Somebody_'
'San_'
'Ricky_'
'Richard_'
'Quale_'
'Qualcosa_'
'Puo_'
'Presidente_'
'Papà_'
'OF_'
'Nick_'
'Little_'
'Johnny_'
'II_'
'Help_'
'Esatto_'
'Dopo_'
'Dimmi_'
'Avevo_'
'Almeno_'
'{\\_'
'yesterday_'
'wonder_'
'vivo_'
'touch_'
'tired_'
'teach_'
'steal_'
'sorpresa_'
'scene_'
'sappiamo_'
'riesce_'
'relationship_'
'quiet_'
'public_'
'proud_'
'problems_'
'potremmo_'
'pezzo_'
'patient_'
'papà_'
'pace_'
'needed_'
'morti_'
'molte_'
'mille_'
'mese_'
'intorno_'
'interesting_'
'incontro_'
'happening_'
'gran_'
'genitori_'
'fix_'
'faremo_'
'evil_'
'entire_'
'doubt_'
'compagnia_'
'charge_'
'cercato_'
'causa_'
'capisci_'
'brutto_'
'brava_'
'box_'
'born_'
'bastardo_'
'arrivare_'
'area_'
'Walter_'
'Veramente_'
'Think_'
'Sit_'
'R_'
'Proprio_'
'Phil_'
'Ottimo_'
'Nessun_'
'Move_'
'May_'
'Maria_'
'Kate_'
'Huh_'
'Harry_'
'Got_'
'Fai_'
'Dammi_'
'Billy_'
'16_'
'voice_'
'visita_'
'themselves_'
'stopped_'
'spazio_'
'sing_'
'seven_'
'seeing_'
'secondi_'
'ring_'
'ride_'
'red_'
'questione_'
'quanti_'
'pull_'
'prossima_'
'pronti_'
'promise_'
'probabilmente_'
'pregnant_'
'potete_'
'plane_'
'personale_'
'pena_'
'passo_'
'musica_'
'missing_'
'minuto_'
'migliori_'
'lunch_'
'locked_'
'lead_'
'itself_'
'hang_'
'ground_'
'glad_'
'giving_'
'fra_'
'fish_'
'finished_'
'finire_'
'feet_'
'evening_'
'dangerous_'
'cover_'
'cop_'
'comprato_'
'compleanno_'
'common_'
'com_'
'chiedere_'
'chiaro_'
'cervello_'
'certain_'
'careful_'
'caldo_'
'blow_'
'benissimo_'
'assassino_'
'arrivando_'
'aiutare_'
'afternoon_'
'Want_'
'Sul_'
'Sig_'
'Remember_'
'Pensi_'
'Mai_'
'Lascia_'
'Jane_'
'Insomma_'
'Dottore_'
'Didn_'
'Continua_'
'Charles_'
'Adam_'
'/_'
'." _'
'ya_'
'wonderful_'
'wear_'
'vive_'
'vinto_'
'villaggio_'
'venga_'
'umani_'
'turned_'
'trovi_'
'torna_'
'tight_'
'throw_'
'tenere_'
'ten_'
'tanti_'
'tale_'
'suppose_'
'suddenly_'
'song_'
'sometimes_'
'small_'
'sitting_'
'single_'
'signori_'
'semplice_'
'saranno_'
'rubato_'
'rimanere_'
'responsible_'
'record_'
'realtà_'
'potrebbero_'
'potere_'
'personal_'
'parli_'
'pagare_'
'offer_'
'messaggio_'
'marry_'
'legge_'
'lascia_'
'kept_'
'join_'
'information_'
'imagine_'
'idiot_'
'giocare_'
'gay_'
'force_'
'finché_'
'esempio_'
'errore_'
'drop_'
'dalle_'
'cura_'
'crap_'
'court_'
'contact_'
'club_'
'cerca_'
'buddy_'
'bucks_'
'broken_'
'board_'
'bere_'
'basso_'
'averlo_'
'attenzione_'
'arm_'
'appuntamento_'
'act_'
'Today_'
'Thomas_'
'Should_'
'Secondo_'
'Sarebbe_'
'Rachel_'
'Può_'
'Probabilmente_'
'President_'
'Merda_'
'Lasciami_'
'Kevin_'
'IN_'
'Facciamo_'
'Dovresti_'
'Domani_'
'Detective_'
'Cristo_'
'Claire_'
'Bobby_'
'- - _'
'," _'
'}_'
'verita_'
'vede_'
'vanno_'
'vale_'
'studio_'
'spent_'
'solito_'
'simple_'
'segno_'
'schifo_'
'rispetto_'
'riguardo_'
'rich_'
'report_'
'reale_'
'reading_'
'rapporto_'
'qualunque_'
'qual_'
'pubblico_'
'prende_'
'passi_'
'others_'
'notizie_'
'mouth_'
'master_'
'manca_'
'mail_'
'lt_'
'losing_'
'interessante_'
'informazioni_'
'inferno_'
'incontrato_'
'imparato_'
'hole_'
'hide_'
'hadn_'
'grow_'
'giu_'
'funziona_'
'follow_'
'fear_'
'fatti_'
'fall_'
'fair_'
'entro_'
'entra_'
'ended_'
'disse_'
'direi_'
'destra_'
'darti_'
'code_'
'classe_'
'cell_'
'carino_'
'became_'
'bag_'
'Were_'
'Tre_'
'Sara_'
'Ragazzi_'
'Prendi_'
'Ogni_'
'Mary_'
'Magari_'
'Lucy_'
'Love_'
'James_'
'HE_'
'Friday_'
'Five_'
'Everyone_'
'Danny_'
'Daniel_'
'Could_'
'Cazzo_'
'Capisco_'
'Better_'
'Bella_'
'Back_'
'B_'
'Andy_'
'Ancora_'
'Amy_'
'60_'
'40_'
'11_'
'... ... _'
', - _'
'wine_'
'weren_'
'weird_'
'watching_'
'vestito_'
'vestiti_'
'verità_'
'vecchia_'
'tunnel_'
'track_'
'totally_'
'tells_'
'tante_'
'table_'
'system_'
'stuck_'
'straight_'
'stayed_'
'star_'
'stanotte_'
'spero_'
'soli_'
'shooting_'
'scusa_'
'scoperto_'
'sanno_'
'round_'
'risposta_'
'quick_'
'protect_'
'private_'
'prezzo_'
'present_'
'prendi_'
'pranzo_'
'potresti_'
'places_'
'piede_'
'pianeta_'
'permesso_'
'peace_'
'partita_'
'park_'
'orologio_'
'none_'
'mattina_'
'lying_'
'luogo_'
'looked_'
'libero_'
'known_'
'kitchen_'
'improvviso_'
'horse_'
'honest_'
'guai_'
'games_'
'finish_'
'fin_'
'field_'
'feels_'
'favorite_'
'favor_'
'farci_'
'esiste_'
'energy_'
'dolce_'
'dirty_'
'dirmi_'
'differenza_'
'dicono_'
'devono_'
'deserve_'
'denaro_'
'data_'
'dark_'
'crede_'
'contatto_'
'compito_'
'colazione_'
'coffee_'
'cibo_'
'chiunque_'
'certainly_'
'canzone_'
'busy_'
'brothers_'
'borsa_'
'blind_'
'ballo_'
'attento_'
'art_'
'age_'
'Watch_'
'Vattene_'
'Tommy_'
'Time_'
'Stand_'
'Scusi_'
'Queste_'
'Potrei_'
'Oddio_'
'Mulder_'
'Mother_'
'Meglio_'
'Last_'
'King_'
'Kim_'
'Jim_'
'Honey_'
'Father_'
'Every_'
'City_'
'Christ_'
'Buon_'
'Big_'
'Betty_'
'AND_'
'? -_'
';_'
'25_'
'200_'
'..."_'
'. #_'
'É_'
'words_'
'weekend_'
'wearing_'
'volevi_'
'van_'
'upstairs_'
'umano_'
'truck_'
'tree_'
'strange_'
'stesse_'
'station_'
'sparare_'
'soul_'
'serata_'
'semplicemente_'
'seguito_'
'sbaglio_'
'sapete_'
'salute_'
'sala_'
'sad_'
'rumore_'
'ritardo_'
'ringrazio_'
'regalo_'
'race_'
'putting_'
'prison_'
'paid_'
'ormai_'
'normal_'
'nero_'
'neck_'
'names_'
'moved_'
'missed_'
'magari_'
'machine_'
'lucky_'
'loves_'
'loved_'
'list_'
'linea_'
'laugh_'
'judge_'
'inutile_'
'immediatamente_'
'hundred_'
'honor_'
'history_'
'giuro_'
'gift_'
'fratelli_'
'fossero_'
'file_'
'fell_'
'fat_'
'farcela_'
'expect_'
'entrato_'
'edificio_'
'eating_'
'dura_'
'dottoressa_'
'dirti_'
'dimenticato_'
'dieci_'
'destroy_'
'dallo_'
'cucina_'
'crime_'
'cream_'
'completely_'
'completamente_'
'chiamata_'
'checked_'
'casino_'
'carta_'
'carico_'
'bus_'
'buio_'
'birthday_'
'birra_'
'bet_'
'beat_'
'avremo_'
'arrivata_'
'aperto_'
'andate_'
'Vegas_'
'U_'
'Smith_'
'Shall_'
'Senza_'
'Scott_'
'Ross_'
'Rose_'
'Presto_'
'Pensa_'
'Once_'
'Odio_'
'Nella_'
'Neanche_'
'Morning_'
'Mmm_'
'Mark_'
'Lady_'
'Julie_'
'Jeff_'
'Jason_'
'Howard_'
'House_'
'Grace_'
'Fammi_'
'Eric_'
'Earth_'
'Chris_'
'Check_'
'Brian_'
'Avrei_'
'Annie_'
'Abby_'
'500_'
'., _'
'.'_'
' # # _'
'whose_'
'walked_'
'victim_'
'vengono_'
'valore_'
'unless_'
'ultimi_'
'trip_'
'tough_'
'torta_'
'torno_'
'thousand_'
'taxi_'
'suit_'
'stupida_'
'street_'
'store_'
'smell_'
'share_'
'servono_'
'service_'
'sembrava_'
'seat_'
'scrivere_'
'scoprire_'
'scappare_'
'rule_'
'rotto_'
'rimasto_'
'ridere_'
'rid_'
'respect_'
'professore_'
'pochi_'
'plenty_'
'però_'
'peggio_'
'paying_'
'passaggio_'
'parti_'
'pain_'
'pagato_'
'ovunque_'
'ottenere_'
'notizia_'
'nello_'
'negli_'
'necessario_'
'natura_'
'nato_'
'meta_'
'message_'
'mention_'
'massimo_'
'mare_'
'livello_'
'likes_'
'liceo_'
'libertà_'
'legs_'
'lavorando_'
'lavora_'
'incredibile_'
'idee_'
'ice_'
'hurry_'
'hiding_'
'gruppo_'
'green_'
'government_'
'gives_'
'generale_'
'freddo_'
'eravamo_'
'enjoy_'
'eight_'
'ehi_'
'early_'
'during_'
'dude_'
'diritto_'
'desk_'
'decided_'
'de_'
'dammi_'
'cousin_'
'coraggio_'
'cavolo_'
'cars_'
'boyfriend_'
'base_'
'barca_'
'band_'
'awful_'
'ascolta_'
'animali_'
'alcune_'
'aiutarmi_'
'agree_'
'admit_'
'acting_'
'abbiano_'
'Whoa_'
'Tutte_'
'Too_'
'Tomorrow_'
'Still_'
'State_'
'Stan_'
'Show_'
'Senta_'
'Scusate_'
'Sarà_'
'Sapete_'
'Roger_'
'Robert_'
'Ready_'
'Piu_'
'Perhaps_'
'Open_'
'Nathan_'
'Nate_'
'Ms_'
'Larry_'
'Kelly_'
'Holy_'
'Has_'
'Guardate_'
'English_'
'Down_'
'Direi_'
'Dave_'
'Dannazione_'
'Dan_'
'Credi_'
'Before_'
'Attenzione_'
'Arthur_'
'Arrivederci_'
'Ann_'
'Always_'
'Alright_'
'Alle_'
'.. _'
'´_'
'wrote_'
'wondering_'
'willing_'
'whom_'
'volo_'
'visit_'
'vincere_'
'venuti_'
'venuta_'
'vendere_'
'veloce_'
'vederlo_'
'vederla_'
'uso_'
'turns_'
'tieni_'
'third_'
'terrible_'
'teacher_'
'tavolo_'
'surprised_'
'strana_'
'stazione_'
'stavamo_'
'starting_'
'spot_'
'sposato_'
'spirito_'
'spettacolo_'
'sole_'
'smettere_'
'sleeping_'
'situation_'
'sexy_'
'seriously_'
'sell_'
'scherzando_'
'saved_'
'saresti_'
'saremo_'
'salvare_'
'risk_'
'rimane_'
'riguarda_'
'ridiculous_'
'ricevuto_'
'relazione_'
'qualcun_'
'porto_'
'porti_'
'piena_'
'pericolo_'
'perhaps_'
'paziente_'
'palle_'
'owe_'
'ourselves_'
'orders_'
'occasione_'
'né_'
'nuovi_'
'nonna_'
'naso_'
'movies_'
'mistake_'
'minimo_'
'miles_'
'memoria_'
'match_'
'lettera_'
'killing_'
'key_'
'jumped_'
'jump_'
'involved_'
'interested_'
'interesse_'
'instead_'
'incinta_'
'handle_'
'guida_'
'gold_'
'garage_'
'fool_'
'finalmente_'
'fermare_'
'feelings_'
'farei_'
'experience_'
'esserci_'
'esercito_'
'drugs_'
'dress_'
'dolore_'
'diro_'
'direttore_'
'diceva_'
'destino_'
'department_'
'dealing_'
'darling_'
'cops_'
'continuare_'
'contento_'
'consider_'
'conosci_'
'conoscere_'
'closed_'
'cliente_'
'circa_'
'cinema_'
'ciao_'
'chiave_'
'checking_'
'cavallo_'
'cattivo_'
'cash_'
'carriera_'
'career_'
'camion_'
'buco_'
'breakfast_'
'brain_'
'bottom_'
'books_'
'ben_'
'begin_'
'battle_'
'baseball_'
'avevamo_'
'avermi_'
'attraverso_'
'arriva_'
'arms_'
'apartment_'
'anywhere_'
'angry_'
'andati_'
'affare_'
'accusa_'
'accept_'
'above_'
'Vostro_'
'Visto_'
'Try_'
'Tieni_'
'Stava_'
'St_'
'Seriously_'
'Robin_'
'Ricordi_'
'Qualche_'
'Prego_'
'Pete_'
'Padre_'
'None_'
'Matt_'
'Master_'
'Martin_'
'Marie_'
'ME_'
'Lee_'
'Laura_'
'Jones_'
'IS_'
'Fallo_'
'Erano_'
'Dovremmo_'
'Carl_'
'Capito_'
'Bravo_'
'Anna_'
'American_'
'- ..._'
'% _'
' -_'
'zitto_'
'zero_'
'y_'
'within_'
'waste_'
'vostre_'
'view_'
'vederti_'
'using_'
'ufficiale_'
'triste_'
'treat_'
'tetto_'
'sweetheart_'
'study_'
'students_'
'stelle_'
'standing_'
'spend_'
'speaking_'
'somehow_'
'soldier_'
'solamente_'
'society_'
'smettila_'
'sinistra_'
'simile_'
'sig_'
'shirt_'
'sette_'
'sessuale_'
'segnale_'
'seconda_'
'scorsa_'
'scherzo_'
'scelto_'
'scarpe_'
'scale_'
'saro_'
'safety_'
'rules_'
'ricordare_'
'rende_'
'raise_'
'quit_'
'push_'
'punti_'
'proper_'
'processo_'
'presente_'
'presa_'
'preoccupare_'
'potessi_'
'posti_'
'pleasure_'
'pizza_'
'pieces_'
'pictures_'
'pero_'
'pericoloso_'
'perfetto_'
'pelle_'
'pazza_'
'paper_'
'ovviamente_'
'ottimo_'
'ospiti_'
'orribile_'
'original_'
'onore_'
'often_'
'numbers_'
'nove_'
'noticed_'
'notice_'
'notato_'
'nature_'
'nascosto_'
'murdered_'
'missione_'
'milioni_'
'miglior_'
'messa_'
'mess_'
'marriage_'
'mangiato_'
'mandare_'
'ln_'
'lived_'
'lingua_'
'lied_'
'libri_'
'legal_'
'leader_'
'lavorato_'
'lasci_'
'laggiù_'
'ladies_'
'kiss_'
'intenzione_'
'innocent_'
'iniziato_'
'impossibile_'
'hoping_'
'hello_'
'harm_'
'guardate_'
'guardando_'
'grave_'
'grandi_'
'grab_'
'goin_'
'goddamn_'
'giusta_'
'girlfriend_'
'gentleman_'
'general_'
'football_'
'foot_'
'fly_'
'fighting_'
'feed_'
'farsi_'
'farle_'
'farla_'
'faranno_'
'fan_'
'fame_'
'eroe_'
'energia_'
'dying_'
'droga_'
'drinking_'
'downstairs_'
'dovesse_'
'double_'
'dollars_'
'dimmi_'
'difference_'
'difesa_'
'devil_'
'deep_'
'decisione_'
'decide_'
'cute_'
'cure_'
'cup_'
'crimine_'
'create_'
'count_'
'cost_'
'cook_'
'consiglio_'
'comune_'
'cold_'
'circle_'
'chief_'
'chiedo_'
'cellulare_'
'carry_'
'carne_'
'cambio_'
'cambiato_'
'calls_'
'caccia_'
'breve_'
'blue_'
'blew_'
'bill_'
'be0_'
'bastard_'
'banca_'
'avrai_'
'avoid_'
'autobus_'
'attention_'
'attacco_'
'asshole_'
'aspettavo_'
'apart_'
'anima_'
'andartene_'
'ami_'
'americano_'
'alta_'
'afford_'
'advice_'
'address_'
'Yep_'
'Welcome_'
'WE_'
'Vostra_'
'Via_'
'Vero_'
'Tua_'
'Tra_'
'Torna_'
'Tim_'
'Ted_'
'Sounds_'
'Siediti_'
'Shawn_'
'Sembri_'
'Scusami_'
'Sapevo_'
'Santa_'
'Ryan_'
'Quell_'
'Potremmo_'
'Parker_'
'Paris_'
'Los_'
'Linda_'
'Lily_'
'Jackson_'
'Immagino_'
'Ia_'
'Hmm_'
'Happy_'
'Gus_'
'G_'
'Fuori_'
'Exactly_'
'Enterprise_'
'Ellie_'
'Ehm_'
'Easy_'
'Dunque_'
'Dude_'
'Dice_'
'Congratulations_'
'Chloe_'
'Capitano_'
'Calmati_'
'Buonasera_'
'Brown_'
'Bel_'
'Assolutamente_'
'Anch_'
'Am_'
'Allison_'
'Agent_'
'? ._'
'17_'
'14_'
'.. .._'
'zona_'
'witness_'
'whoa_'
'wall_'
'vorrà_'
'universo_'
'turno_'
'train_'
'tradito_'
'towards_'
'tocca_'
'tie_'
'tempi_'
'taught_'
'taste_'
'talked_'
'super_'
'sun_'
'suggest_'
'stolen_'
'stole_'
'stessi_'
'smoke_'
'shoes_'
'sente_'
'sensazione_'
'sembri_'
'scappato_'
'sbagliata_'
'satellite_'
'salire_'
'rock_'
'riuscire_'
'riunione_'
'ridicolo_'
'research_'
'reach_'
'prossimo_'
'progetto_'
'presenza_'
'post_'
'possibilità_'
'popolo_'
'poor_'
'pomeriggio_'
'picked_'
'piaceva_'
'perdono_'
'peccato_'
'ours_'
'oro_'
'oltre_'
'officer_'
'odore_'
'neither_'
'momenti_'
'mission_'
'metti_'
'memory_'
'member_'
'mangia_'
'manager_'
'maggior_'
'macchine_'
'lunga_'
'liked_'
'lettere_'
'letter_'
'learned_'
'lavori_'
'interest_'
'innocente_'
'hungry_'
'heat_'
'health_'
'hat_'
'guidare_'
'guard_'
'governo_'
'glielo_'
'gambe_'
'frattempo_'
'forze_'
'fortunato_'
'form_'
'followed_'
'figured_'
'fidanzata_'
'fece_'
'fara_'
'failed_'
'excuse_'
'especially_'
'escape_'
'enorme_'
'emergency_'
'duty_'
'dubbio_'
'drug_'
'dovevo_'
'dovete_'
'discovered_'
'dirò_'
'dia_'
'decision_'
'danno_'
'danger_'
'dagli_'
'cresciuto_'
'credit_'
'combattere_'
'colore_'
'choose_'
'chiudere_'
'chick_'
'certa_'
'centrale_'
'card_'
'caffe_'
'burning_'
'burn_'
'bottle_'
'bomba_'
'bloody_'
'bird_'
'bicchiere_'
'bianco_'
'bacio_'
'awesome_'
'assolutamente_'
'aspettando_'
'army_'
'arma_'
'aiutarti_'
'aiutarla_'
'agent_'
'action_'
'While_'
'Washington_'
'WHAT_'
'Vediamo_'
'Sua_'
'Stephen_'
'Sophie_'
'Simon_'
'Red_'
'Quattro_'
'Quante_'
'Qualunque_'
'Professor_'
'Piacere_'
'Parigi_'
'P_'
'Out_'
'ON_'
'Nancy_'
'Mister_'
'Madame_'
'Luke_'
'Louis_'
'London_'
'Logan_'
'Lieutenant_'
'Leo_'
'Josh_'
'Generale_'
'Gary_'
'Fucking_'
'Four_'
'Finn_'
'Finalmente_'
'Fantastico_'
'Except_'
'Eravamo_'
'Enough_'
'Emily_'
'Earl_'
'Dovrebbe_'
'Dovete_'
'Donna_'
'Doc_'
'Dean_'
'Davis_'
'Conosco_'
'Conosci_'
'Colonel_'
'Coach_'
'Chinese_'
'Casey_'
'California_'
'BE_'
'Aw_'
'; _'
'45_'
', '_'
'* _'
'#_'
' (_'
'~ _'
'yourselves_'
'written_'
'worst_'
'woods_'
'whoever_'
'weapon_'
'ways_'
'walking_'
'wake_'
'waited_'
'vivi_'
'violence_'
'vino_'
'veri_'
'vengo_'
'usually_'
'uscito_'
'usato_'
'upset_'
'uncle_'
'type_'
'trovata_'
'troops_'
'trial_'
'treno_'
'tranquillo_'
'tipi_'
'tiene_'
'tests_'
'testimone_'
'terribile_'
'tape_'
'suspect_'
'summer_'
'student_'
'stomaco_'
'stick_'
'step_'
'stavi_'
'speranza_'
'spalle_'
'sooner_'
'soluzione_'
'sogni_'
'smart_'
'slept_'
'skin_'
'silenzio_'
'sieda_'
'siate_'
'showing_'
'shout_'
'selling_'
'seguire_'
'segreti_'
'scuse_'
'schiena_'
'sceriffo_'
'scendere_'
'sarò_'
'saprei_'
'sapeva_'
'saltare_'
'river_'
'riuscito_'
'ricerca_'
'restaurant_'
'resta_'
'repeat_'
'regole_'
'realize_'
'reality_'
'rabbia_'
'quegli_'
'qualcos_'
'pò_'
'promised_'
'professor_'
'pressure_'
'preoccupi_'
'prendermi_'
'preferito_'
'praticamente_'
'position_'
'portando_'
'pollo_'
'poliziotti_'
'pieno_'
'picking_'
'piccoli_'
'pensarci_'
'pensano_'
'partire_'
'parlarti_'
'parlarle_'
'papers_'
'pantaloni_'
'pa_'
'ought_'
'otto_'
'opinion_'
'onto_'
'obviously_'
'obvious_'
'natural_'
'modi_'
'military_'
'milione_'
'middle_'
'metri_'
'mercato_'
'meraviglioso_'
'maschio_'
'mantenere_'
'mancato_'
'mal_'
'magia_'
'maestro_'
'luci_'
'lift_'
'lezione_'
'level_'
'leaves_'
'laggiu_'
'keys_'
'investigation_'
'interno_'
'interessato_'
'intera_'
'intendo_'
'intendi_'
'inglese_'
'impossible_'
'immagine_'
'holding_'
'herself_'
'hero_'
'held_'
'heads_'
'headed_'
'guilty_'
'guardi_'
'guardato_'
'group_'
'grateful_'
'glass_'
'giustizia_'
'giochi_'
'gentlemen_'
'genio_'
'gate_'
'funzionato_'
'forgive_'
'follia_'
'folks_'
'flat_'
'fit_'
'fiori_'
'finisce_'
'fiducia_'
'fermo_'
'felicità_'
'fase_'
'farà_'
'farete_'
'farebbe_'
'famous_'
'faceva_'
'f_'
'explanation_'
'exist_'
'except_'
'estate_'
'esperienza_'
'entrata_'
'effetti_'
'earth_'
'dry_'
'dovevi_'
'diverso_'
'diventato_'
'dirle_'
'direct_'
'dicessi_'
'dev_'
'deserto_'
'delicious_'
'deciso_'
'debole_'
'damage_'
'crew_'
'costo_'
'corso_'
'correct_'
'corpi_'
'coppia_'
'contratto_'
'contare_'
'conosciamo_'
'conoscenza_'
'condizioni_'
'completo_'
'comfortable_'
'colpevole_'
'collect_'
'coglioni_'
'codice_'
'climb_'
'chiuso_'
'chiederti_'
'chicken_'
'changing_'
'caused_'
'casi_'
'campione_'
'camp_'
'cadavere_'
'bright_'
'bottiglia_'
'blame_'
'bellissima_'
'bell_'
'beg_'
'ballare_'
'azione_'
'aware_'
'avevano_'
'averti_'
'atto_'
'assieme_'
'ascoltare_'
'arrivi_'
'arrived_'
'arresto_'
'arrest_'
'appartamento_'
'anti_'
'animale_'
'animal_'
'andrà_'
'amiche_'
'allowed_'
'adoro_'
'accaduto_'
'absolutely_'
'`_'
'[ _'
'Yo_'
'Victor_'
'Vedo_'
'United_'
'Tuo_'
'Troppo_'
'Torno_'
'Terry_'
'Ten_'
'Such_'
'Son_'
'Signorina_'
'Seven_'
'Serena_'
'Send_'
'Sean_'
'Sbrigati_'
'Rome_'
'Roma_'
'Quiet_'
'Questi_'
'Quanti_'
'Prova_'
'Pronti_'
'Promise_'
'Potresti_'
'Poor_'
'Più_'
'Pick_'
'Perfetto_'
'Patrick_'
'Over_'
'Onore_'
'Night_'
'Next_'
'Must_'
'Mum_'
'Morgan_'
'Mexico_'
'Metti_'
'Marshall_'
'Londra_'
'Keith_'
'K_'
'Johnson_'
'Jerry_'
'Infatti_'
'Helen_'
'Haven_'
'Goodbye_'
'Gibbs_'
'Gesù_'
'General_'
'French_'
'Forget_'
'Fino_'
'Fate_'
'Eccoci_'
'Dovrei_'
'Digli_'
'Diego_'
'Dico_'
'Dev_'
'DI_'
'Coming_'
'Chicago_'
'Brennan_'
'Avevi_'
'Aspettate_'
'Angeles_'
'Alan_'
'Aiuto_'
'Ain_'
'Again_'
'Absolutely_'
'19_'
''? _'
'–_'
'writing_'
'wild_'
'whether_'
'vorresti_'
'vorrebbe_'
'viva_'
'viso_'
'victims_'
'venduto_'
'veda_'
'upon_'
'uova_'
'trusted_'
'trovo_'
'troviamo_'
'troverai_'
'troppi_'
'trap_'
'training_'
'traffic_'
'tornata_'
'thief_'
'theory_'
'tasca_'
'tappeto_'
'switch_'
'sweetie_'
'surgery_'
'suono_'
'success_'
'strike_'
'strength_'
'starts_'
'stamattina_'
'stage_'
'sport_'
'splendida_'
'spiegare_'
'space_'
'sopravvivere_'
'soprattutto_'
'smoking_'
'slow_'
'singing_'
'sindaco_'
'simili_'
'shop_'
'serial_'
'sentivo_'
'sembrano_'
'self_'
'sees_'
'sedia_'
'secure_'
'secrets_'
'search_'
'sea_'
'scorso_'
'scopo_'
'science_'
'scegliere_'
'salve_'
'rooms_'
'ritorno_'
'risultato_'
'rispondi_'
'rischio_'
'result_'
'resti_'
'responsabile_'
'rent_'
'remain_'
'release_'
'recently_'
'received_'
'rat_'
'ragazzina_'
'r_'
'quickly_'
'protecting_'
'propria_'
'proof_'
'project_'
'program_'
'profumo_'
'principale_'
'pressione_'
'presidente_'
'practice_'
'potevo_'
'possibly_'
'portata_'
'player_'
'plate_'
'plans_'
'planning_'
'photo_'
'persino_'
'pensiero_'
'pensate_'
'pazienti_'
'passed_'
'passata_'
'passa_'
'parlo_'
'parliamo_'
'parco_'
'pants_'
'palla_'
'paint_'
'owner_'
'ottima_'
'originale_'
'ordinato_'
'option_'
'oil_'
'ognuno_'
'nuts_'
'nonno_'
'nemico_'
'negozio_'
'mountain_'
'motel_'
'mossa_'
'morendo_'
'morale_'
'mezza_'
'mezz_'
'metto_'
'mettendo_'
'metal_'
'mentito_'
'members_'
'magic_'
'low_'
'lots_'
'lock_'
'lista_'
'liberi_'
'libera_'
'liar_'
'lezioni_'
'lato_'
'lago_'
'laboratorio_'
'lab_'
'knife_'
'king_'
'kick_'
'joke_'
'intero_'
'intelligente_'
'inizia_'
'incontrare_'
'hitting_'
'hired_'
'greatest_'
'grand_'
'gola_'
'girare_'
'giant_'
'ghost_'
'gamba_'
'funerale_'
'frega_'
'forgotten_'
'following_'
'flight_'
'fired_'
'finestra_'
'final_'
'ferita_'
'fella_'
'fantasma_'
'faith_'
'express_'
'expensive_'
'expecting_'
'esserlo_'
'emergenza_'
'dumb_'
'dubito_'
'dropped_'
'dressed_'
'doveva_'
'domattina_'
'doctors_'
'distrutto_'
'disco_'
'dio_'
'dick_'
'designed_'
'dating_'
'darmi_'
'cry_'
'costa_'
'conversazione_'
'conversation_'
'continue_'
'continua_'
'conosce_'
'confirm_'
'commissione_'
'color_'
'coinvolto_'
'coach_'
'clienti_'
'church_'
'chiusa_'
'chiesa_'
'chiamano_'
'charming_'
'changes_'
'chair_'
'certe_'
'cat_'
'captain_'
'capace_'
'cantare_'
'camminare_'
'butt_'
'buoni_'
'build_'
'brutta_'
'bringing_'
'braccio_'
'bother_'
'bomb_'
'block_'
'biggest_'
'belong_'
'belle_'
'believed_'
'beginning_'
'battaglia_'
'bathroom_'
'balls_'
'bail_'
'averla_'
'aspetti_'
'asleep_'
'arte_'
'arrabbiato_'
'aprire_'
'apologize_'
'andremo_'
'andrai_'
'andava_'
'andarsene_'
'amor_'
'among_'
'altrimenti_'
'allow_'
'aeroporto_'
'addio_'
'Young_'
'Yet_'
'William_'
'Walker_'
'Virginia_'
'Venite_'
'Vengo_'
'Uniti_'
'Uncle_'
'Travis_'
'Tracy_'
'Terra_'
'Tempo_'
'Temo_'
'Talk_'
'THIS_'
'Sydney_'
'Suo_'
'Sunday_'
'Sue_'
'Stati_'
'Speak_'
'Sometimes_'
'Shh_'
'Shane_'
'Scusatemi_'
'School_'
'Santo_'
'Salute_'
'Run_'
'Rilassati_'
'Re_'
'Randy_'
'Prince_'
'Olivia_'
'Oliver_'
'Old_'
'OUT_'
'North_'
'Nessuna_'
'Most_'
'Mommy_'
'Miller_'
'Meredith_'
'Mentre_'
'Martha_'
'Light_'
'Lex_'
'Lascialo_'
'Las_'
'Lane_'
'Know_'
'Julian_'
'Julia_'
'Jo_'
'Jessica_'
'Jenna_'
'Invece_'
'Ie_'
'Hotel_'
'Hot_'
'Hill_'
'Had_'
'German_'
'GET_'
'Follow_'
'FOR_'
'Enjoy_'
'Emma_'
'Ellen_'
'Eccola_'
'Doug_'
'Dennis_'
'DNA_'
'Commander_'
'Clear_'
'Chiudi_'
'Castle_'
'Boy_'
'Bauer_'
'Audrey_'
'Ask_'
'Apri_'
'Appena_'
'Anybody_'
'Alcuni_'
'Africa_'
'Addio_'
'ALL_'
'300_'
'24_'
'22_'
'. (_'
'%._'
'"..._'
'"!_'
' ? _'
' , _'
' # _'
' ?_'
'zio_'
'woke_'
'wet_'
'weather_'
'weak_'
'warm_'
'vuoto_'
'vittime_'
'vite_'
'violenza_'
'version_'
'vergogna_'
'vento_'
'vedremo_'
'usata_'
'unit_'
'umore_'
'ultime_'
'uccelli_'
'u_'
'tè_'
'twice_'
'truppe_'
'trucco_'
'troppe_'
'trees_'
'tracks_'
'tongue_'
'tickets_'
'throat_'
'terzo_'
'tenuto_'
'teeth_'
'teatro_'
'tears_'
'suicide_'
'sudden_'
'sud_'
'stress_'
'strade_'
'storie_'
'stays_'
'staying_'
'stavolta_'
'stanco_'
'stampa_'
'stairs_'
'sposata_'
'sposa_'
'sporco_'
'spiaggia_'
'spia_'
'speech_'
'spazzatura_'
'south_'
'source_'
'sorpreso_'
'sometime_'
'sold_'
'società_'
'smile_'
'sistemare_'
'simply_'
'signal_'
'sicuramente_'
'shower_'
'shape_'
'shame_'
'shake_'
'servire_'
'sentirsi_'
'sentirmi_'
'sending_'
'sembrare_'
'screwed_'
'screw_'
'salvato_'
'sacrifice_'
'rush_'
'rough_'
'rompere_'
'romantic_'
'ristorante_'
'risposto_'
'rispondere_'
'risolvere_'
'riso_'
'rifle_'
'ricco_'
'retro_'
'responsibility_'
'request_'
'remind_'
'reached_'
'razza_'
'radar_'
'quartiere_'
'quante_'
'proteggere_'
'proprietario_'
'privato_'
'primi_'
'presence_'
'prepared_'
'preoccupato_'
'prendiamo_'
'prenderlo_'
'potrai_'
'potesse_'
'poteri_'
'portiamo_'
'portarlo_'
'ponte_'
'poliziotto_'
'pig_'
'pie_'
'piaci_'
'perfettamente_'
'perdoni_'
'patto_'
'passion_'
'passati_'
'parlarne_'
'pallottola_'
'pack_'
'pacco_'
'outta_'
'opportunity_'
'operazione_'
'odd_'
'nuove_'
'nuda_'
'note_'
'nose_'
'nor_'
'nomi_'
'noise_'
'nine_'
'nervous_'
'nearly_'
'mum_'
'mostro_'
'mostrato_'
'moon_'
'milk_'
'mila_'
'metà_'
'mercy_'
'memories_'
'media_'
'map_'
'maiale_'
'lotta_'
'locale_'
'local_'
'listening_'
'letters_'
'leggere_'
'legale_'
'leg_'
'lately_'
'language_'
'labbra_'
'km_'
'keeps_'
'justice_'
'jealous_'
'isola_'
'ione_'
'introduce_'
'intende_'
'insegnato_'
'innamorato_'
'iniziare_'
'incredible_'
'importanza_'
'immagini_'
'illegal_'
'helping_'
'heavy_'
'happiness_'
'guardo_'
'guardie_'
'grown_'
'grandfather_'
'goodbye_'
'giocato_'
'funzionare_'
'fuckin_'
'fucked_'
'fucile_'
'fronte_'
'freedom_'
'forced_'
'fixed_'
'finta_'
'finale_'
'fill_'
'festival_'
'feste_'
'fermati_'
'ferma_'
'female_'
'fatte_'
'faster_'
'faresti_'
'fantastica_'
'falso_'
'false_'
'fake_'
'facts_'
'facility_'
'expected_'
'excited_'
'example_'
'everywhere_'
'erba_'
'enter_'
'enemy_'
'ends_'
'empty_'
'eggs_'
'effetto_'
'earlier_'
'dì_'
'driver_'
'dr_'
'dovrebbero_'
'dogs_'
'documenti_'
'diversi_'
'dite_'
'dita_'
'dissi_'
'discorso_'
'dirgli_'
'direzione_'
'difficult_'
'dies_'
'dettagli_'
'detail_'
'denti_'
'definitely_'
'decisamente_'
'crying_'
'crisi_'
'creature_'
'coward_'
'covered_'
'cooking_'
'contrario_'
'continui_'
'contenta_'
'concerned_'
'concern_'
'commissario_'
'cominciato_'
'coltello_'
'colpito_'
'closer_'
'cieco_'
'chiedendo_'
'chieda_'
'chiavi_'
'chiaramente_'
'chiamate_'
'cerchi_'
'center_'
'cavo_'
'cattiva_'
'carina_'
'cards_'
'capite_'
'capi_'
'campagna_'
'calmo_'
'caduto_'
'burned_'
'bunch_'
'bullet_'
'bugia_'
'breathe_'
'braccia_'
'birth_'
'bills_'
'biglietti_'
'bigger_'
'bianca_'
'bevuto_'
'bellissimo_'
'beer_'
'beauty_'
'bank_'
'badly_'
'babies_'
'avro_'
'avremmo_'
'avrebbero_'
'attitude_'
'attacchi_'
'ate_'
'assistant_'
'ascoltando_'
'arrestato_'
'angolo_'
'andasse_'
'amicizia_'
'amato_'
'amare_'
'albero_'
'alba_'
'aiuti_'
'aiutato_'
'agenti_'
'adorabile_'
'add_'
'accettare_'
'accesso_'
'access_'
'accada_'
'Zoe_'
'Zio_'
'Without_'
'Whose_'
'West_'
'Vince_'
'Venga_'
'Tutta_'
'Turn_'
'Trust_'
'THERE_'
'Sun_'
'Stupid_'
'Street_'
'States_'
'Stark_'
'Six_'
'Signori_'
'Sicuro_'
'Sherman_'
'Sergente_'
'Sergeant_'
'Sarò_'
'Sappiamo_'
'Ruth_'
'Roy_'
'Ricevuto_'
'RE_'
'Quest_'
'Probably_'
'Potete_'
'Porta_'
'Percio_'
'Park_'
'Pare_'
'Pa_'
'Ovviamente_'
'Oscar_'
'Oppure_'
'Officer_'
'Nina_'
'Neil_'
'Natalie_'
'Mitchell_'
'Mine_'
'Might_'
'Margaret_'
'Maledizione_'
'Mac_'
'Lucas_'
'Looking_'
'Klingon_'
'Joey_'
'Jeremy_'
'Jean_'
'Jay_'
'Iraq_'
'Inoltre_'
'However_'
'Holly_'
'Him_'
'Hannah_'
'Hank_'
'Half_'
'Guardi_'
'Guardami_'
'Greg_'
'France_'
'Fire_'
'Find_'
'Fermo_'
'Entra_'
'Elena_'
'Eat_'
'Drop_'
'Drink_'
'Day_'
'Couldn_'
'Colonnello_'
'Clark_'
'Chief_'
'Chiama_'
'Charlotte_'
'Carlos_'
'Capo_'
'Calm_'
'Boston_'
'Boss_'
'Blake_'
'Bisogna_'
'Best_'
'Besides_'
'Benissimo_'
'Bello_'
'Beach_'
'Attento_'
'Aprite_'
'Anthony_'
'Alzati_'
'Albert_'
'Ad_'
'Accidenti_'
'90_'
'48_'
'23_'
'.]_'
'.?_'
'- (_'
',... .._'
''. - _'
'$_'
'° _'
'zombie_'
'zia_'
'wound_'
'worries_'
'witch_'
'wisdom_'
'windows_'
'weight_'
'walls_'
'visti_'
'vissuto_'
'visitor_'
'village_'
'vicini_'
'verde_'
'venisse_'
'veleno_'
'vedrai_'
'vedermi_'
'vecchie_'
'vecchi_'
'vattene_'
'valuable_'
'vacation_'
'utile_'
'usual_'
'universita_'
'uniform_'
'ultimamente_'
'uccisa_'
'uccidermi_'
'uccidendo_'
'troia_'
'treated_'
'trauma_'
'tranne_'
'trade_'
'tour_'
'total_'
'torniamo_'
'torni_'
'tolto_'
'togliere_'
'tizi_'
'tip_'
'tiny_'
'ticket_'
'threw_'
'termine_'
'tentativo_'
'tentare_'
'tenente_'
'temo_'
'tear_'
'tatuaggio_'
'task_'
'tanta_'
'sé_'
'surrender_'
'surprise_'
'support_'
'suicidio_'
'sugli_'
'suffer_'
'succeed_'
'subject_'
'studenti_'
'streets_'
'storm_'
'starai_'
'stands_'
'stanca_'
'staff_'
'stabilire_'
'sposati_'
'split_'
'spirit_'
'speed_'
'spaventoso_'
'spaventato_'
'spalla_'
'solve_'
'soldiers_'
'soldato_'
'soft_'
'sin_'
'simpatico_'
'silly_'
'signed_'
'sigaretta_'
'shows_'
'showed_'
'shots_'
'sharing_'
'sessuali_'
'series_'
'serie_'
'sergente_'
'segnali_'
'seemed_'
'seduta_'
'scusarmi_'
'screaming_'
'scavare_'
'scatola_'
'sarete_'
'sapevi_'
'sale_'
'saggio_'
'ruolo_'
'runs_'
'routine_'
'rosso_'
'rosa_'
'roof_'
'roll_'
'rimasta_'
'riesci_'
'reso_'
'replaced_'
'recognize_'
'reasons_'
'realized_'
'rapporti_'
'rapina_'
'range_'
'ra_'
'quarter_'
'purpose_'
'pugno_'
'prometto_'
'professional_'
'process_'
'prisoner_'
'principal_'
'prime_'
'priest_'
'pride_'
'price_'
'pretend_'
'presenti_'
'prepare_'
'preparato_'
'preparare_'
'precedenti_'
'potevamo_'
'potenza_'
'posta_'
'portano_'
'popular_'
'pop_'
'poison_'
'points_'
'pocket_'
'played_'
'pilota_'
'picnic_'
'piatti_'
'piangere_'
'peso_'
'perfectly_'
'perdita_'
'perciò_'
'percento_'
'pensava_'
'penna_'
'pavimento_'
'patients_'
'pasto_'
'partito_'
'particularly_'
'parere_'
'pair_'
'pagina_'
'page_'
'ovvio_'
'ottenuto_'
'ospite_'
'organizzato_'
'opportunita_'
'opening_'
'online_'
'ombra_'
'olio_'
'older_'
'occasioni_'
'normally_'
'nightmare_'
'nera_'
'nemici_'
'nascosta_'
'muscoli_'
'mr_'
'moves_'
'motori_'
'motherfucker_'
'monster_'
'molta_'
'minacciato_'
'migliaia_'
'mezzanotte_'
'merita_'
'mental_'
'medicine_'
'medication_'
'meantime_'
'meaning_'
'meal_'
'matters_'
'malattia_'
'malato_'
'maggiore_'
'luna_'
'loud_'
'loss_'
'loser_'
'locali_'
'liver_'
'litigato_'
'lire_'
'lines_'
'likely_'
'lieto_'
'lesson_'
'leggi_'
'legato_'
'leather_'
'leads_'
'latte_'
'kinda_'
'keeping_'
'joking_'
'issue_'
'invito_'
'invite_'
'invitato_'
'inverno_'
'inventato_'
'interessi_'
'intendevo_'
'insegnante_'
'insane_'
'incendio_'
'imparare_'
'immagino_'
'imbarazzo_'
'identita_'
'hunting_'
'hits_'
'hi_'
'harder_'
'hanging_'
'gym_'
'guns_'
'grossa_'
'golf_'
'giovani_'
'giornalista_'
'giornale_'
'ginocchia_'
'ghiaccio_'
'generoso_'
'funeral_'
'fully_'
'fresh_'
'freak_'
'foresta_'
'focus_'
'flying_'
'flowers_'
'fiume_'
'finger_'
'finds_'
'figura_'
'fidanzato_'
'felici_'
'fantastic_'
'families_'
'falling_'
'faccenda_'
'extra_'
'evitare_'
'evento_'
'equipment_'
'entrambe_'
'effects_'
'effect_'
'edge_'
'economico_'
'eaten_'
'ears_'
'earned_'
'dust_'
'duro_'
'dumped_'
'dubbi_'
'dritto_'
'drinks_'
'dreams_'
'dovrà_'
'dovro_'
'dovrai_'
'dovessi_'
'dovere_'
'dormendo_'
'doppio_'
'doors_'
'dono_'
'dollar_'
'diverse_'
'diversa_'
'dito_'
'distintivo_'
'distanza_'
'distance_'
'disgusting_'
'disappear_'
'diritti_'
'dipinto_'
'dicevo_'
'developed_'
'destroyed_'
'desert_'
'deny_'
'demand_'
'deluso_'
'degree_'
'decisioni_'
'decent_'
'dargli_'
'dappertutto_'
'dando_'
'daddy_'
'customer_'
'custodia_'
'cugino_'
'crescere_'
'credevo_'
'creda_'
'creatura_'
'created_'
'cowboy_'
'cow_'
'correre_'
'corner_'
'copertura_'
'controllato_'
'conti_'
'contattare_'
'conta_'
'connected_'
'confuso_'
'comprare_'
'complicated_'
'command_'
'cominciare_'
'comando_'
'collo_'
'collega_'
'collana_'
'coincidenza_'
'coi_'
'client_'
'civile_'
'chiudi_'
'chip_'
'chiede_'
'character_'
'chances_'
'certamente_'
'cento_'
'cases_'
'carte_'
'carrying_'
'carefully_'
'carcere_'
'capacita_'
'campus_'
'camicia_'
'cameriera_'
'calore_'
'calmi_'
'calm_'
'calci_'
'cadere_'
'buying_'
'bugie_'
'brings_'
'bridge_'
'breath_'
'borrow_'
'bloccato_'
'bite_'
'besides_'
'benefit_'
'bei_'
'becco_'
'beccato_'
'beam_'
'baci_'
'azioni_'
'awake_'
'avrò_'
'avrete_'
'avranno_'
'avra_'
'attraversare_'
'attore_'
'assignment_'
'ashamed_'
'ascoltami_'
'arrabbiata_'
'armed_'
'apprezzo_'
'appears_'
'appeal_'
'anticipo_'
'angelo_'
'andro_'
'andarci_'
'ambulance_'
'alright_'
'allenatore_'
'allarme_'
'alibi_'
'albergo_'
'aiutarvi_'
'affair_'
'advantage_'
'advance_'
'across_'
'accused_'
'accounts_'
'accadere_'
'\u_'
'\\_'
'Y_'
'Wouldn_'
'World_'
'Women_'
'Wendy_'
'Wade_'
'Volete_'
'Vogliamo_'
'Vedete_'
'Up_'
'Unless_'
'Tyler_'
'Twenty_'
'Tuesday_'
'Traduzione_'
'Tokyo_'
'Todd_'
'Toby_'
'Thirty_'
'Tanto_'
'Suppongo_'
'Subito_'
'Step_'
'Stasera_'
'Seth_'
'Seattle_'
'Scommetto_'
'Same_'
'SO_'
'Russian_'
'Rob_'
'Riley_'
'Riesci_'
'Rick_'
'Rich_'
'Resta_'
'Queen_'
'Quali_'
'Primo_'
'Pretty_'
'Porca_'
'Polizia_'
'Plus_'
'Philippe_'
'Pay_'
'Paulie_'
'Pardon_'
'Order_'
'Obiezione_'
'OH_'
'Norman_'
'Nicole_'
'News_'
'Negli_'
'Navy_'
'NO_'
'Monsieur_'
'Monica_'
'Minister_'
'Miami_'
'Marina_'
'Mani_'
'Mama_'
'Majesty_'
'Maestro_'
'Loro_'
'Lincoln_'
'Lavora_'
'LL_'
'Kyle_'
'Kiss_'
'Kill_'
'Kenny_'
'Justin_'
'Jordan_'
'Jess_'
'Jenny_'
'Jan_'
'Honestly_'
'High_'
'Han_'
'Hall_'
'Guess_'
'Grey_'
'Green_'
'Grant_'
'GO_'
'Fuoco_'
'Francine_'
'Florida_'
'Figlio_'
'Fatti_'
'Faccio_'
'Europe_'
'Eli_'
'El_'
'East_'
'Dovremo_'
'Dovevo_'
'Dottoressa_'
'Dottor_'
'Doesn_'
'Diciamo_'
'Dici_'
'Devono_'
'Devil_'
'Dentro_'
'Denny_'
'De_'
'Darling_'
'DO_'
'Crede_'
'Coraggio_'
'Cooper_'
'Cool_'
'Connor_'
'Comandante_'
'Colin_'
'Col_'
'Club_'
'Clay_'
'Ciò_'
'Cioè_'
'Christopher_'
'Cerca_'
'Cathy_'
'Careful_'
'CIA_'
'Bruce_'
'Brien_'
'Brandon_'
'Brad_'
'Boys_'
'Bones_'
'Beth_'
'Benny_'
'Bell_'
'Barry_'
'Barney_'
'Bang_'
'Babbo_'
'Avresti_'
'Aspetti_'
'Ashley_'
'Ascolti_'
'Aren_'
'Anne_'
'Angie_'
'Angela_'
'Andrew_'
'Amore_'
'Altrimenti_'
'Air_'
'Agente_'
'Adoro_'
'Aaron_'
'80_'
'36_'
'35_'
'21_'
'13_'
' ] _'
'zuppa_'
'zitta_'
'yen_'
'yellow_'
'wow_'
'wise_'
'wire_'
'wind_'
'whenever_'
'vorrai_'
'volto_'
'volevano_'
'volesse_'
'volere_'
'volare_'
'visione_'
'virus_'
'vincitore_'
'villa_'
'vigliacco_'
'vicine_'
'vestita_'
'verranno_'
'verra_'
'venti_'
'vendetta_'
'veicolo_'
'valigetta_'
'urgente_'
'uovo_'
'understood_'
'ucciderti_'
'uccello_'
'ubriaco_'
'trovero_'
'trovarti_'
'tribunale_'
'trappola_'
'transfer_'
'tragedia_'
'trace_'
'tracce_'
'tornate_'
'tornando_'
'toilet_'
'tiro_'
'thy_'
'threat_'
'thousands_'
'theater_'
'testify_'
'terza_'
'tentato_'
'tengo_'
'tenermi_'
'temperature_'
'television_'
'telefonata_'
'telecamere_'
'tecnologia_'
'teaching_'
'tank_'
'tall_'
'tal_'
'swim_'
'svegli_'
'superare_'
'suonare_'
'sucks_'
'stupidi_'
'studiato_'
'struttura_'
'struck_'
'stronzate_'
'stranger_'
'stomach_'
'stavano_'
'staring_'
'squalo_'
'spy_'
'spring_'
'sposo_'
'spirits_'
'speciali_'
'spaventata_'
'sparo_'
'spari_'
'spara_'
'sospetto_'
'soldati_'
'soap_'
'slip_'
'sistemi_'
'shuttle_'
'shaking_'
'sguardo_'
'several_'
'session_'
'servizi_'
'serviva_'
'serpente_'
'seriamente_'
'separate_'
'sentimenti_'
'senior_'
'seguendo_'
'segni_'
'sedere_'
'secolo_'
'scomparso_'
'scientists_'
'scary_'
'scambio_'
'santo_'
'santa_'
'san_'
'salvo_'
'saltato_'
'sacrificio_'
'ruined_'
'rude_'
'rubare_'
'rotta_'
'riuscita_'
'risolto_'
'riservato_'
'rifiutato_'
'ricordato_'
'ricorda_'
'riconosco_'
'ricominciare_'
'ricevere_'
'returned_'
'resistere_'
'regina_'
'raggiungere_'
'ragazzino_'
'quarto_'
'quantita_'
'punk_'
'pulled_'
'provi_'
'provando_'
'protezione_'
'propose_'
'property_'
'promesso_'
'promesse_'
'prom_'
'proiettile_'
'profondo_'
'princess_'
'pretending_'
'prese_'
'preoccupata_'
'preoccupa_'
'prendono_'
'prendendo_'
'pratica_'
'powerful_'
'potrà_'
'potremo_'
'potevano_'
'potente_'
'positive_'
'porte_'
'pool_'
'polvere_'
'polmoni_'
'poche_'
'pillole_'
'pile_'
'pigs_'
'phenomenon_'
'personaggio_'
'persi_'
'permission_'
'permettere_'
'perfetta_'
'perdendo_'
'pee_'
'parts_'
'particolare_'
'parlarmi_'
'pari_'
'parcheggio_'
'paradiso_'
'painted_'
'owns_'
'ovest_'
'orgoglioso_'
'onesto_'
'onesta_'
'officers_'
'offesa_'
'offerta_'
'odio_'
'occhiali_'
'obiettivo_'
'obbligato_'
'north_'
'nights_'
'newspaper_'
'neve_'
'nervoso_'
'nervosa_'
'neri_'
'negative_'
'nazione_'
'nascondere_'
'nap_'
'mysterious_'
'muro_'
'movimento_'
'motto_'
'motore_'
'moto_'
'mothers_'
'mostra_'
'mostly_'
'mortale_'
'moral_'
'moltissimo_'
'model_'
'mixed_'
'miracolo_'
'mile_'
'miglia_'
'mettermi_'
'mette_'
'metropolitana_'
'messing_'
'membri_'
'medical_'
'marine_'
'mancata_'
'malata_'
'magazine_'
'madam_'
'lungs_'
'lord_'
'loose_'
'location_'
'limite_'
'lights_'
'lieutenant_'
'library_'
'liberare_'
'led_'
'lay_'
'laws_'
'lasciarti_'
'lasciarmi_'
'lasciamo_'
'largo_'
'lancia_'
'ladro_'
'kicked_'
'jacket_'
'istruzioni_'
'island_'
'intenzioni_'
'intend_'
'insurance_'
'insegnare_'
'insalata_'
'infatti_'
'indirizzo_'
'indeed_'
'indagine_'
'incident_'
'impronte_'
'impressione_'
'importanti_'
'impazzire_'
'immaginare_'
'idioti_'
'iI_'
'humans_'
'huge_'
'hook_'
'holiday_'
'holds_'
'helps_'
'helped_'
'heaven_'
'hearts_'
'heading_'
'headache_'
'gusto_'
'guardiano_'
'guardia_'
'grows_'
'growing_'
'grew_'
'grandioso_'
'gotten_'
'golden_'
'gloves_'
'giovanotto_'
'giocando_'
'ginocchio_'
'gin_'
'giardino_'
'giapponesi_'
'giapponese_'
'galleria_'
'further_'
'furniture_'
'furgone_'
'fumo_'
'fortunata_'
'fonte_'
'flesh_'
'flash_'
'finding_'
'filthy_'
'filled_'
'files_'
'fila_'
'figliolo_'
'fiera_'
'fianco_'
'fermi_'
'fermato_'
'ferito_'
'femminuccia_'
'femmina_'
'federale_'
'fede_'
'fed_'
'favourite_'
'fargli_'
'famoso_'
'fammi_'
'familiar_'
'famiglie_'
'faced_'
'explosion_'
'explains_'
'exists_'
'event_'
'esterno_'
'essermi_'
'esistono_'
'esami_'
'embarrassing_'
'email_'
'ehm_'
'eccitante_'
'eager_'
'dà_'
'drag_'
'dose_'
'dormito_'
'doin_'
'diversamente_'
'diventata_'
'diventando_'
'distruggere_'
'dispositivo_'
'disastro_'
'dirà_'
'dirvi_'
'dirglielo_'
'diretto_'
'direttamente_'
'director_'
'dirci_'
'dipartimento_'
'dimostrare_'
'diamo_'
'desperate_'
'design_'
'described_'
'depends_'
'denied_'
'decidere_'
'debba_'
'deaf_'
'darci_'
'dara_'
'dancing_'
'cross_'
'croce_'
'criminali_'
'criminal_'
'cried_'
'crederci_'
'crashed_'
'crash_'
'crack_'
'cotta_'
'costumes_'
'costume_'
'convinced_'
'convince_'
'contract_'
'continuo_'
'connection_'
'confirmed_'
'conferma_'
'conferenza_'
'condition_'
'conclusioni_'
'compiti_'
'compagni_'
'commerciale_'
'comandante_'
'colpi_'
'coloro_'
'coinvolta_'
'coat_'
'clue_'
'clock_'
'cleaned_'
'circostanze_'
'cioccolato_'
'cigarette_'
'chiusi_'
'chiedevo_'
'chiamiamo_'
'chiamando_'
'cheer_'
'cheap_'
'charges_'
'cella_'
'cavalli_'
'cavaliere_'
'causes_'
'causato_'
'cattivi_'
'cats_'
'cari_'
'cappello_'
'capisce_'
'capable_'
'cani_'
'cake_'
'cabina_'
'button_'
'butter_'
'bury_'
'buone_'
'buca_'
'brutti_'
'brutte_'
'bravi_'
'bonus_'
'bodies_'
'bisogna_'
'billion_'
'biglietto_'
'bersaglio_'
'bellezza_'
'beating_'
'bear_'
'basketball_'
'balance_'
'bags_'
'avuta_'
'avrà_'
'avessero_'
'available_'
'autorità_'
'auguro_'
'attorney_'
'attacked_'
'assurdo_'
'assistente_'
'assistance_'
'assicurazione_'
'assicurarmi_'
'assegno_'
'aspettano_'
'ascolti_'
'artist_'
'arriviamo_'
'arrivano_'
'arrested_'
'armata_'
'apri_'
'apparently_'
'apology_'
'aperti_'
'aperta_'
'answers_'
'andrò_'
'andra_'
'andavo_'
'amount_'
'ammettere_'
'ambulanza_'
'amano_'
'ama_'
'allo_'
'alcun_'
'aiuta_'
'aggiungere_'
'affitto_'
'affetto_'
'advise_'
'acute_'
'actor_'
'acted_'
'accusato_'
'account_'
'accanto_'
'accadra_'
'accade_'
'abito_'
'abbandonato_'
'abbandonare_'
'Zoey_'
'Zitto_'
'Zack_'
'Yang_'
'Xena_'
'Whoo_'
'Whoever_'
'White_'
'Warren_'
'Wake_'
'Van_'
'Vaffanculo_'
'Vada_'
'Until_'
'UP_'
'Turk_'
'Trova_'
'Tranquillo_'
'Times_'
'Thought_'
'Thanksgiving_'
'Tess_'
'Teresa_'
'Taylor_'
'Taci_'
'Susan_'
'Suona_'
'Straight_'
'Stevens_'
'Stavolta_'
'Stanley_'
'Speriamo_'
'Speravo_'
'Spastico_'
'Sorella_'
'Silver_'
'Silence_'
'Significa_'
'Sheriff_'
'Sheldon_'
'Senior_'
'Senator_'
'Seems_'
'Secretary_'
'Scully_'
'Saranno_'
'Sarai_'
'Sandy_'
'Sally_'
'Sali_'
'Said_'
'SHE_'
'Rory_'
'Ron_'
'Roberto_'
'Ricorda_'
'Relax_'
'Quelli_'
'Quei_'
'Pull_'
'Pronta_'
'Preferisco_'
'Preferirei_'
'Play_'
'Pietro_'
'Piccolo_'
'Peyton_'
'Perfect_'
'Party_'
'Parla_'
'Pacific_'
'Owen_'
'Ow_'
'Ottima_'
'Omar_'
'Number_'
'Nulla_'
'Nemmeno_'
'Ned_'
'Nadia_'
'N_'
'NOW_'
'Moon_'
'Monk_'
'Molly_'
'Miranda_'
'Mind_'
'Min_'
'Mh_'
'Men_'
'Melissa_'
'Meg_'
'Meet_'
'Meanwhile_'
'Marty_'
'Maggiore_'
'Lucky_'
'Lovely_'
'Lou_'
'Lois_'
'Life_'
'Lewis_'
'Lavoro_'
'Kong_'
'Kid_'
'Kent_'
'Katie_'
'Kathy_'
'Karen_'
'KNOW_'
'Jun_'
'Joshua_'
'Joseph_'
'Jews_'
'Jersey_'
'Japanese_'
'Japan_'
'Jackie_'
'Inizio_'
'Imagine_'
'Hope_'
'Hollywood_'
'Harvey_'
'Harper_'
'Hang_'
'Halloween_'
'H_'
'HAVE_'
'Guys_'
'Gray_'
'Grande_'
'Grab_'
'Gordon_'
'Gonna_'
'Girl_'
'Gesu_'
'Free_'
'Fred_'
'Fratello_'
'Francia_'
'Ford_'
'Finally_'
'Fermi_'
'Ferma_'
'Faremo_'
'Ever_'
'Eva_'
'Europa_'
'Esci_'
'Eri_'
'Elliot_'
'Elizabeth_'
'Edward_'
'Eccolo_'
'Durante_'
'Dovrebbero_'
'Doveva_'
'Donovan_'
'Dieci_'
'Del_'
'Dei_'
'Dana_'
'Damon_'
'Dagli_'
'Cross_'
'Credevo_'
'Crazy_'
'Corri_'
'Continue_'
'Company_'
'Close_'
'Cio_'
'Christian_'
'Chiamo_'
'Chen_'
'Cash_'
'Burke_'
'Buonanotte_'
'Bruno_'
'Bring_'
'Boo_'
'Bonnie_'
'Blue_'
'Black_'
'Bevi_'
'Beckett_'
'Banks_'
'Bad_'
'Babe_'
'Aye_'
'Avevamo_'
'Arrivo_'
'Arriva_'
'Anzi_'
'Anderson_'
'Andate_'
'Amico_'
'Amen_'
'Amanda_'
'Also_'
'Alice_'
'Ali_'
'Aiutami_'
'Ai_'
'According_'
'Aah_'
'ARE_'
'911_'
'70_'
'26_'
'1000_'
'...!_'
'... -_'
'... "_'
')}_'
'". _'
' ]_'
' ! _'
'yοu_'
'workers_'
'wolf_'
'winning_'
'wide_'
'whore_'
'west_'
'weakness_'
'wasted_'
'warning_'
'voto_'
'vote_'
'vorranno_'
'volessi_'
'voler_'
'volentieri_'
'violenti_'
'violent_'
'violazione_'
'vince_'
'vicina_'
'viaggi_'
'vessel_'
'verrò_'
'verrà_'
'verrai_'
'venite_'
'venerdi_'
'venduti_'
'velocita_'
'velocemente_'
'vedono_'
'value_'
'vacanze_'
'useless_'
'uscite_'
'usciamo_'
'uscendo_'
'urlare_'
'unknown_'
'universe_'
'undercover_'
'ufficialmente_'
'ufficiali_'
'uccido_'
'ucciderlo_'
'ucciderla_'
'tv_'
'tune_'
'troveremo_'
'trovati_'
'trono_'
'treats_'
'traveling_'
'trattamento_'
'trapped_'
'transplant_'
'traffico_'
'tradimento_'
'tower_'
'toward_'
'totale_'
'toccarlo_'
'toccare_'
'tits_'
'titolo_'
'title_'
'timing_'
'thrown_'
'throne_'
'tette_'
'testimoni_'
'testamento_'
'terroristi_'
'terapia_'
'tennis_'
'tenerlo_'
'temple_'
'telephone_'
'teachers_'
'tazza_'
'tavola_'
'target_'
'talento_'
'taglio_'
'sveglia_'
'surface_'
'surely_'
'supporto_'
'suppongo_'
'superstar_'
'superato_'
'suits_'
'suffered_'
'suck_'
'succedera_'
'style_'
'studiare_'
'strumenti_'
'stronzi_'
'stronza_'
'strategia_'
'strane_'
'stops_'
'stood_'
'stock_'
'stipendio_'
'stiano_'
'steel_'
'statement_'
'standard_'
'stamani_'
'sposarsi_'
'sposarmi_'
'sposare_'
'sports_'
'spoke_'
'spiritual_'
'spinto_'
'spesa_'
'spell_'
'soup_'
'sospettato_'
'sorveglianza_'
'sorta_'
'sorriso_'
'sons_'
'songs_'
'someplace_'
'soil_'
'sognato_'
'soda_'
'socio_'
'societa_'
'social_'
'smesso_'
'slipped_'
'sky_'
'size_'
'sisters_'
'simbolo_'
'sicuri_'
'shoulder_'
'shift_'
'shh_'
'shell_'
'sexual_'
'services_'
'served_'
'serratura_'
'seria_'
'sentono_'
'sentite_'
'sentita_'
'sentirlo_'
'sentences_'
'sensitive_'
'sensibile_'
'seduto_'
'scrub_'
'script_'
'scopare_'
'scientist_'
'schifoso_'
'schedule_'
'scemo_'
'scelte_'
'scandalo_'
'scala_'
'sbrigati_'
'sapra_'
'sapesse_'
'saperne_'
'sabato_'
'ruin_'
'ruba_'
'romantico_'
'rocks_'
'rocce_'
'riusciamo_'
'ritornare_'
'rischi_'
'riding_'
'ricordate_'
'richiesta_'
'ricerche_'
'rice_'
'reward_'
'rete_'
'respects_'
'reports_'
'rendi_'
'removed_'
'released_'
'relazioni_'
'related_'
'regali_'
'refused_'
'records_'
'recording_'
'receive_'
'reazione_'
'reasonable_'
'realise_'
'raped_'
'rape_'
'rain_'
'raffreddore_'
'radiation_'
'racconto_'
'raccontato_'
'questioni_'
'queen_'
'qualcuna_'
'puzza_'
'pur_'
'punizione_'
'pulse_'
'psicologia_'
'prospettiva_'
'proposta_'
'proiettili_'
'progressi_'
'progress_'
'professionale_'
'prize_'
'privacy_'
'prisoners_'
'principles_'
'principe_'
'prete_'
'press_'
'president_'
'presento_'
'presentato_'
'prepara_'
'prendete_'
'prenderti_'
'prendersi_'
'prenderla_'
'prenda_'
'pounds_'
'potrete_'
'potra_'
'posteriore_'
'poster_'
'possiede_'
'positivo_'
'portero_'
'portarla_'
'polso_'
'politica_'
'polite_'
'pochino_'
'plant_'
'planned_'
'pivello_'
'pit_'
'pista_'
'pills_'
'pietre_'
'piani_'
'piacevole_'
'physical_'
'photos_'
'permit_'
'permette_'
'perdonare_'
'percent_'
'peggiore_'
'pazzesco_'
'passione_'
'passando_'
'parlargli_'
'parlarci_'
'parenti_'
'pardon_'
'pancia_'
'pagherà_'
'otherwise_'
'ostaggi_'
'osservare_'
'ossa_'
'organic_'
'orecchie_'
'oppure_'
'opinione_'
'operazioni_'
'opera_'
'opened_'
'officially_'
'official_'
'offered_'
'odi_'
'occupo_'
'occupato_'
'nowhere_'
'notare_'
'noon_'
'noble_'
'nipote_'
'nido_'
'nephew_'
'neighborhood_'
'negare_'
'navetta_'
'naturalmente_'
'naturale_'
'nata_'
'nasconde_'
'nascita_'
'named_'
'naked_'
'mystery_'
'mustn_'
'musical_'
'museo_'
'murders_'
'muove_'
'muore_'
'mountains_'
'mortal_'
'moron_'
'morirai_'
'montagna_'
'monitor_'
'moments_'
'mobile_'
'mistakes_'
'miracle_'
'millions_'
'midnight_'
'mica_'
'mettiamo_'
'mettete_'
'metteremo_'
'metterci_'
'metro_'
'metallo_'
'messed_'
'merito_'
'meravigliosa_'
'menti_'
'mentendo_'
'membro_'
'medicina_'
'meat_'
'meaningless_'
'matto_'
'mass_'
'march_'
'maniera_'
'mancanza_'
'maledizione_'
'malapena_'
'major_'
'main_'
'lusso_'
'lunghi_'
'lookin_'
'lontana_'
'lonely_'
'litigare_'
'link_'
'lifetime_'
'licenziato_'
'licenziata_'
'letteralmente_'
'lento_'
'length_'
'leggera_'
'leggendo_'
'learning_'
'lavorano_'
'lascio_'
'lasciate_'
'lasciata_'
'lap_'
'land_'
'laid_'
'knowing_'
'knocked_'
'knock_'
'knees_'
'knee_'
'kinds_'
'jury_'
'jungle_'
'joined_'
'jobs_'
'j_'
'istituto_'
'istante_'
'invited_'
'inviato_'
'investimento_'
'interrupt_'
'internet_'
'interests_'
'injured_'
'inizi_'
'ingresso_'
'ingannato_'
'incubi_'
'incontri_'
'incastrato_'
'impresa_'
'impiegati_'
'impegno_'
'impatto_'
'immediately_'
'immediate_'
'imbecille_'
'imbarazzante_'
'images_'
'image_'
'hush_'
'hurting_'
'hunt_'
'however_'
'horrible_'
'homeless_'
'hill_'
'helmet_'
'heck_'
'hearing_'
'hated_'
'hardly_'
'hall_'
'guilt_'
'guardati_'
'guanti_'
'grounded_'
'grato_'
'gratis_'
'grandson_'
'grade_'
'grabbed_'
'gliel_'
'glasses_'
'giudice_'
'giri_'
'gira_'
'gioia_'
'gesto_'
'gentili_'
'gentilezza_'
'genitore_'
'gemelli_'
'gelosa_'
'gather_'
'garden_'
'gang_'
'galera_'
'funzione_'
'fucker_'
'fried_'
'freeze_'
'francesi_'
'francese_'
'fought_'
'fottuto_'
'fottuti_'
'fottuta_'
'fortune_'
'forth_'
'forms_'
'former_'
'formaggio_'
'forest_'
'footage_'
'folla_'
'firmare_'
'finora_'
'figo_'
'fever_'
'ferro_'
'federali_'
'fatica_'
'fastidio_'
'farmaci_'
'fans_'
'falls_'
'fail_'
'facciano_'
'facciamolo_'
'extraordinary_'
'experiment_'
'experienced_'
'exam_'
'età_'
'eterna_'
'eta_'
'est_'
'esseri_'
'esplosione_'
'esperto_'
'errori_'
'environment_'
'envelope_'
'entri_'
'enjoying_'
'engaged_'
'ending_'
'electricity_'
'effort_'
'east_'
'earn_'
'ear_'
'duri_'
'dump_'
'dropping_'
'driven_'
'drawn_'
'draft_'
'dovremo_'
'dovevamo_'
'dover_'
'dosso_'
'dope_'
'dollaro_'
'doccia_'
'doc_'
'diventerà_'
'diventa_'
'disposto_'
'disposizione_'
'discutere_'
'discover_'
'disappeared_'
'diretti_'
'diretta_'
'directions_'
'direction_'
'dirai_'
'dipende_'
'dimenticare_'
'dimensioni_'
'diet_'
'determined_'
'desidero_'
'desiderio_'
'deserves_'
'description_'
'demons_'
'degrees_'
'defense_'
'defend_'
'deeply_'
'deboli_'
'debolezza_'
'dati_'
'daro_'
'darkness_'
'dannatamente_'
'daccordo_'
'current_'
'criminale_'
'cretino_'
'credono_'
'creato_'
'creare_'
'courage_'
'counter_'
'cortile_'
'corridoio_'
'corrente_'
'core_'
'copy_'
'cooperate_'
'cookies_'
'convincere_'
'controlled_'
'container_'
'construction_'
'considered_'
'conosciuti_'
'conoscete_'
'connections_'
'confine_'
'conference_'
'condotto_'
'condizionata_'
'conditions_'
'condemned_'
'comporti_'
'comportamento_'
'comporta_'
'completa_'
'compagno_'
'committed_'
'commesso_'
'comincia_'
'combinato_'
'combattimento_'
'colonel_'
'collapsed_'
'coin_'
'cocaina_'
'clinic_'
'classic_'
'circuit_'
'cioe_'
'cintura_'
'chocolate_'
'chilo_'
'chiedi_'
'chiamava_'
'chiamarti_'
'chiamarlo_'
'chest_'
'chef_'
'chase_'
'charm_'
'charity_'
'champagne_'
'champ_'
'challenge_'
'certezza_'
'cerchiamo_'
'cercava_'
'cazzate_'
'castello_'
'cassetta_'
'capture_'
'capsule_'
'capitolo_'
'capita_'
'cantante_'
'cancellare_'
'campioni_'
'cameras_'
'calendar_'
'calda_'
'cage_'
'caffè_'
'caduta_'
'cade_'
'buttato_'
'butcher_'
'busted_'
'buonanotte_'
'built_'
'bugiardo_'
'buffo_'
'bro_'
'brilliant_'
'brillante_'
'breathing_'
'breaking_'
'brand_'
'bowling_'
'bout_'
'boring_'
'border_'
'boot_'
'bones_'
'blu_'
'blonde_'
'bleeding_'
'blah_'
'birds_'
'bike_'
'bianchi_'
'bevo_'
'bestia_'
'benzina_'
'bells_'
'bee_'
'beaten_'
'bears_'
'beach_'
'battuto_'
'battere_'
'bars_'
'barn_'
'barely_'
'bara_'
'bake_'
'bagagli_'
'avendo_'
'autista_'
'attend_'
'attacks_'
'assicuro_'
'assassini_'
'aspettato_'
'aside_'
'ascoltato_'
'articolo_'
'arriverà_'
'argomento_'
'appointment_'
'appartiene_'
'antibiotici_'
'ansia_'
'angel_'
'anello_'
'andarmene_'
'andar_'
'ammazzo_'
'ammazzare_'
'americani_'
'ambiente_'
'alcuna_'
'alarm_'
'aiuterai_'
'aiutera_'
'ah_'
'agreed_'
'agenzia_'
'agenda_'
'adulti_'
'adatto_'
'actual_'
'actions_'
'acque_'
'acciaio_'
'accepted_'
'abbandonata_'
'Yours_'
'Year_'
'YEAH_'
'Work_'
'Woo_'
'Wonder_'
'Won_'
'Williams_'
'Weren_'
'Wednesday_'
'Wayne_'
'Way_'
'Wanna_'
'Wallace_'
'Walk_'
'WELL_'
'Vuol_'
'Vorresti_'
'Vogliono_'
'Violet_'
'Vincent_'
'Vice_'
'Veronica_'
'Vermont_'
'Vedremo_'
'Ve_'
'Use_'
'Uomo_'
'Union_'
'Torniamo_'
'Top_'
'Told_'
'Tipo_'
'Throw_'
'Though_'
'Third_'
'Things_'
'Their_'
'Texas_'
'Tea_'
'Tae_'
'Stronzo_'
'Stronzate_'
'Strano_'
'Steven_'
'Stammi_'
'Special_'
'Sotto_'
'Sookie_'
'Soo_'
'Sky_'
'Simone_'
'Sick_'
'Sia_'
'Sette_'
'Service_'
'Sento_'
'Sentite_'
'Sempre_'
'Sembrava_'
'Secret_'
'Scotch_'
'Saturday_'
'Sammy_'
'Salta_'
'Russia_'
'Russell_'
'Ricordo_'
'RIGHT_'
'Quick_'
'Quelle_'
'Qualsiasi_'
'Professore_'
'Private_'
'Prendo_'
'Prendete_'
'Prende_'
'Practice_'
'Povero_'
'Potter_'
'Potrebbero_'
'Porter_'
'Portare_'
'Portalo_'
'Pierce_'
'Picard_'
'Phone_'
'Philip_'
'Philadelphia_'
'Perù_'
'Peggy_'
'Parlami_'
'Orleans_'
'Numero_'
'November_'
'Nord_'
'Nine_'
'Nicky_'
'Ni_'
'Nell_'
'Neither_'
'Nei_'
'Neal_'
'Nam_'
'NOT_'
'Myers_'
'Molti_'
'Mikey_'
'Miguel_'
'Mettiti_'
'Messico_'
'Mercedes_'
'Megan_'
'Mario_'
'Marine_'
'Marcus_'
'Marco_'
'Makes_'
'Major_'
'Maggie_'
'Maestà_'
'Madre_'
'Madam_'
'MY_'
'MAN_'
'Luc_'
'Lot_'
'Long_'
'Lloyd_'
'Lisa_'
'Lionel_'
'Les_'
'Lenny_'
'Lauren_'
'Later_'
'Lasciala_'
'Ladies_'
'Kitty_'
'Kind_'
'Kennedy_'
'Ken_'
'Jung_'
'Joel_'
'Jill_'
'Jesse_'
'Jennifer_'
'Jen_'
'Jared_'
'Jacob_'
'Italian_'
'Island_'
'Intendo_'
'Intanto_'
'Insieme_'
'Inn_'
'Inizia_'
'Inferno_'
'Incredibile_'
'Ieri_'
'ID_'
'Honor_'
'Hong_'
'Hitler_'
'Hei_'
'Harvard_'
'Harriet_'
'Hands_'
'Haley_'
'HER_'
'Guy_'
'Group_'
'Grandpa_'
'Grandma_'
'Grand_'
'Gone_'
'Gloria_'
'Glielo_'
'Glad_'
'Giù_'
'Giorno_'
'Gina_'
'Germans_'
'Germania_'
'Garcia_'
'Gabriel_'
'GOOD_'
'Fun_'
'Full_'
'Fu_'
'Francisco_'
'Francesca_'
'Fox_'
'Fort_'
'Foreman_'
'Federazione_'
'Farò_'
'Fare_'
'Fancy_'
'F_'
'Excellent_'
'Eve_'
'Especially_'
'Eleanor_'
'Eight_'
'Each_'
'Dylan_'
'Dom_'
'Diglielo_'
'Diceva_'
'Dear_'
'Dead_'
'Dalla_'
'Dal_'
'DON_'
'Curtis_'
'Credimi_'
'Cover_'
'Count_'
'Congratulazioni_'
'Cold_'
'Cody_'
'Claudia_'
'Cinque_'
'Cina_'
'Certainly_'
'Caspita_'
'Case_'
'Carter_'
'Carrie_'
'Caroline_'
'Carol_'
'Carlo_'
'Carino_'
'Cardassians_'
'Capisci_'
'Canada_'
'Cal_'
'CAN_'
'Bureau_'
'Brody_'
'British_'
'Brava_'
'Blair_'
'Benvenuto_'
'Benjamin_'
'Believe_'
'Baby_'
'BETTER_'
'Avrai_'
'Avenue_'
'Assicurati_'
'Ascoltami_'
'April_'
'Anton_'
'Answer_'
'Angelo_'
'Andrà_'
'Andra_'
'Alpha_'
'Allen_'
'Allan_'
'Adrian_'
'Acqua_'
'?" _'
'555_'
'38_'
'28_'
'... (_'
'-- - _'
',.._'
',.. _'
'*_'
'"... _'
'! -_'
' ♪ ♪ _'
' ♪ _'
' --_'
'— _'
'– _'
'zucchero_'
'zampe_'
'yoga_'
'wrap_'
'wounds_'
'worker_'
'woo_'
'winter_'
'wins_'
'winner_'
'wheel_'
'weapons_'
'waves_'
'wasting_'
'wars_'
'warn_'
'w_'
'vulnerable_'
'vorrebbero_'
'vorra_'
'volume_'
'volonta_'
'volevamo_'
'volerlo_'
'volante_'
'vittoria_'
'visiting_'
'violento_'
'vie_'
'viaggiare_'
'verro_'
'vere_'
'venne_'
'veniva_'
'venissi_'
'vengano_'
'venendo_'
'venditore_'
'vendita_'
'vendi_'
'vende_'
'vena_'
'vedeva_'
'vederci_'
'vedendo_'
'vantaggio_'
'values_'
'valigia_'
'vacanza_'
'useful_'
'usano_'
'urla_'
'urine_'
'ups_'
'unusual_'
'unto_'
'unità_'
'uniti_'
'unita_'
'unique_'
'union_'
'uniforms_'
'underneath_'
'umbrella_'
'umane_'
'umana_'
'uguali_'
'uccidero_'
'turning_'
'tryin_'
'trovarmi_'
'trick_'
'treasure_'
'treason_'
'tratto_'
'trasmesso_'
'trasformando_'
'trascorrere_'
'trappole_'
'transferred_'
'trama_'
'tram_'
'trains_'
'traditional_'
'tradition_'
'toys_'
'touching_'
'touched_'
'tortured_'
'torto_'
'tornerò_'
'tornati_'
'topi_'
'tooth_'
'tono_'
'tomba_'
'tocco_'
'toast_'
'tissue_'
'tirato_'
'tirare_'
'ties_'
'tide_'
'thus_'
'throwing_'
'thoughts_'
'thin_'
'text_'
'testimoniare_'
'teste_'
'terribly_'
'term_'
'tentando_'
'tender_'
'tende_'
'tenda_'
'temuto_'
'tempted_'
'tema_'
'telefonica_'
'tedesco_'
'tavoli_'
'tasse_'
'tantissimo_'
'talmente_'
'tagliare_'
'symptoms_'
'sweat_'
'suspects_'
'survive_'
'superiori_'
'suggesting_'
'sugar_'
'sufficiente_'
'suffering_'
'sucking_'
'successa_'
'succedono_'
'succedere_'
'subway_'
'stupro_'
'stupendo_'
'studies_'
'studied_'
'studi_'
'studente_'
'strings_'
'string_'
'strikes_'
'straordinario_'
'stories_'
'stile_'
'sterline_'
'stepped_'
'stella_'
'stealing_'
'steak_'
'states_'
'starò_'
'stanze_'
'stalling_'
'stable_'
'spotted_'
'spostato_'
'sposeremo_'
'sposerai_'
'sportive_'
'sponsor_'
'spoken_'
'spit_'
'spingere_'
'spieghi_'
'spiegazione_'
'spiega_'
'spiacente_'
'spegnere_'
'specifico_'
'specialmente_'
'spaventati_'
'sparito_'
'spada_'
'sotterraneo_'
'sostiene_'
'sostegno_'
'sostanze_'
'sospettati_'
'sopportare_'
'somewhat_'
'solved_'
'solution_'
'soldo_'
'soffrire_'
'socks_'
'soccorso_'
'snow_'
'smetti_'
'smells_'
'skip_'
'sito_'
'site_'
'sindacato_'
'sincero_'
'silver_'
'signs_'
'sight_'
'shoulders_'
'shopping_'
'shock_'
'shields_'
'sheets_'
'severe_'
'settled_'
'sete_'
'servo_'
'servant_'
'sentiamo_'
'sentence_'
'sends_'
'senator_'
'sembro_'
'sembrato_'
'selvaggia_'
'segreteria_'
'seek_'
'sedile_'
'secretary_'
'sec_'
'season_'
'scrivania_'
'scrittore_'
'screwing_'
'screen_'
'score_'
'scoprirlo_'
'scopri_'
'scommetto_'
'sciocco_'
'sciocchezze_'
'scimmia_'
'scherzi_'
'scatole_'
'scarico_'
'scappata_'
'scappando_'
'scan_'
'scaduto_'
'sbattuto_'
'sbarre_'
'sbagliate_'
'sarebbero_'
'sapessi_'
'sample_'
'salvarla_'
'salva_'
'saluto_'
'salutarti_'
'salutare_'
'salto_'
'salsa_'
'rubber_'
'rubati_'
'rub_'
'rovinato_'
'rovinare_'
'rossa_'
'romanzo_'
'romantica_'
'roccia_'
'robot_'
'rivelare_'
'rivedere_'
'riuscivo_'
'riunioni_'
'ritrovo_'
'ritrovato_'
'ritiene_'
'ritengo_'
'ritardato_'
'risposte_'
'risponde_'
'risparmi_'
'rising_'
'riserva_'
'rise_'
'riprendendo_'
'riposo_'
'riposare_'
'riparo_'
'riot_'
'rinunciato_'
'rimasti_'
'rimani_'
'riconoscere_'
'ricompensa_'
'richiesto_'
'ricevuta_'
'riceve_'
'ricca_'
'retirement_'
'retard_'
'responsabilita_'
'respiro_'
'respirare_'
'resa_'
'required_'
'reporter_'
'reported_'
'reparto_'
'renda_'
'remove_'
'reminds_'
'remains_'
'rely_'
'relief_'
'relax_'
'relate_'
'regular_'
'regola_'
'regione_'
'refuse_'
'recentemente_'
'recent_'
'realm_'
'realizing_'
'reaction_'
'ray_'
'rate_'
'rare_'
'rapidamente_'
'rame_'
'raggiunto_'
'radici_'
'racconti_'
'raccolto_'
'raccogliere_'
'quote_'
'queer_'
'quassù_'
'quant_'
'quand_'
'quali_'
'puts_'
'puppet_'
'punishment_'
'punch_'
'pulizie_'
'pulito_'
'prurito_'
'provino_'
'provarci_'
'proteggerti_'
'protection_'
'prostituta_'
'prossimi_'
'propri_'
'properly_'
'pronte_'
'promotion_'
'promessa_'
'programmato_'
'profondamente_'
'profession_'
'product_'
'producer_'
'prodotto_'
'prodotti_'
'principle_'
'principessa_'
'primavera_'
'primario_'
'previsto_'
'previous_'
'prestito_'
'prestato_'
'preoccupatevi_'
'prenderci_'
'premio_'
'preferisco_'
'preferisce_'
'prefer_'
'precise_'
'pre_'
'povero_'
'poveri_'
'potrò_'
'potenziale_'
'possibility_'
'possibili_'
'pose_'
'pos_'
'porterò_'
'portarti_'
'portar_'
'pork_'
'porco_'
'poppa_'
'politico_'
'policy_'
'pointing_'
'pleased_'
'placed_'
'pity_'
'pitch_'
'pistole_'
'pipi_'
'pioggia_'
'pin_'
'pillow_'
'pietra_'
'pieni_'
'piccole_'
'piazza_'
'piatto_'
'pianto_'
'piante_'
'pianoforte_'
'piaciuto_'
'phones_'
'phase_'
'petto_'
'petition_'
'peter_'
'pesce_'
'pesca_'
'periodo_'
'period_'
'performance_'
'perform_'
'perfino_'
'perfetti_'
'perduto_'
'perdonarmi_'
'percio_'
'pensiamo_'
'pensero_'
'pensavamo_'
'peli_'
'peggiorare_'
'peanut_'
'peaceful_'
'pazzi_'
'pazze_'
'pays_'
'passerai_'
'passeggiata_'
'passate_'
'passaporto_'
'particolarmente_'
'parking_'
'parent_'
'parecchio_'
'parecchi_'
'parade_'
'papino_'
'paparino_'
'panino_'
'panic_'
'pane_'
'pal_'
'paghi_'
'packing_'
'packed_'
'package_'
'pacchetto_'
'organi_'
'ordinary_'
'ordered_'
'orchestra_'
'options_'
'opposto_'
'opposite_'
'opportunità_'
'operating_'
'opens_'
'omicidi_'
'ombrello_'
'olive_'
'oggetti_'
'offense_'
'odiare_'
'odia_'
'odds_'
'oceano_'
'occuperemo_'
'occuparsi_'
'occasion_'
'oath_'
'nurse_'
'nudo_'
'notiziario_'
'notes_'
'normalmente_'
'normali_'
'nonostante_'
'nobile_'
'niece_'
'net_'
'nerve_'
'nerd_'
'neppure_'
'neighbors_'
'negativa_'
'necessary_'
'nazionali_'
'navi_'
'national_'
'nation_'
'nastri_'
'nanny_'
'na_'
'mutande_'
'muovi_'
'muoverti_'
'muovere_'
'multe_'
'mulo_'
'mucchio_'
'movement_'
'motive_'
'mostri_'
'mostrarti_'
'morso_'
'mood_'
'moneta_'
'mogli_'
'modern_'
'mode_'
'moda_'
'misura_'
'mister_'
'minor_'
'minaccia_'
'militari_'
'militare_'
'miliardi_'
'mice_'
'mettono_'
'mettiti_'
'metta_'
'metodo_'
'messy_'
'meriti_'
'merely_'
'meraviglia_'
'menu_'
'medici_'
'mechanism_'
'maximum_'
'mature_'
'mattino_'
'matta_'
'materiali_'
'materiale_'
'matematica_'
'maschi_'
'marketing_'
'mark_'
'mappa_'
'maniac_'
'mangiano_'
'mangiando_'
'mangi_'
'mandi_'
'management_'
'maledetto_'
'malati_'
'maiali_'
'mago_'
'magnifico_'
'magazzino_'
'machines_'
'lupo_'
'lupi_'
'loving_'
'louder_'
'logs_'
'logica_'
'load_'
'literally_'
'lira_'
'lips_'
'lined_'
'lies_'
'liberato_'
'lentamente_'
'lend_'
'legno_'
'leggo_'
'leggenda_'
'learnt_'
'league_'
'laying_'
'lawyer_'
'launch_'
'laughs_'
'laughing_'
'latest_'
'lasted_'
'lassù_'
'lasciarla_'
'lasciar_'
'lasciano_'
'lane_'
'landed_'
'lancio_'
'labirinto_'
'knots_'
'kissing_'
'kidnapped_'
'ketchup_'
'jurisdiction_'
'junk_'
'junior_'
'joy_'
'journey_'
'joint_'
'john_'
'ispettore_'
'isolato_'
'investitori_'
'investito_'
'investigating_'
'invest_'
'invecchiamento_'
'intervista_'
'interview_'
'insetti_'
'innocuo_'
'innamorati_'
'innamorata_'
'ingiusto_'
'influenza_'
'infinite_'
'infermiera_'
'infanzia_'
'indovina_'
'indossare_'
'independent_'
'include_'
'incazzare_'
'incarico_'
'incapable_'
'improbabile_'
'impressive_'
'impressed_'
'importava_'
'imperatore_'
'impegnato_'
'impazzito_'
'ill_'
'ignorare_'
'ie_'
'ideale_'
'hundreds_'
'humanity_'
'honour_'
'homicide_'
'homes_'
'holy_'
'hills_'
'highly_'
'hers_'
'heal_'
'handsome_'
'handled_'
'guts_'
'guidando_'
'guests_'
'guessing_'
'guarire_'
'guardiamo_'
'grossi_'
'gross_'
'grilletto_'
'greater_'
'grass_'
'grant_'
'governor_'
'goccia_'
'goal_'
'gnam_'
'gloria_'
'giornali_'
'gioca_'
'gifted_'
'ghosts_'
'gesture_'
'genius_'
'geloso_'
'garbage_'
'gara_'
'gangster_'
'furono_'
'funzioni_'
'fund_'
'fumare_'
'fuggire_'
'fuga_'
'frutti_'
'frutta_'
'friendship_'
'fridge_'
'fregato_'
'freaking_'
'frase_'
'franchi_'
'fottere_'
'forno_'
'formed_'
'fondamentale_'
'flower_'
'flow_'
'flies_'
'fleet_'
'flatter_'
'flames_'
'flag_'
'fissato_'
'firmato_'
'firm_'
'firing_'
'finisca_'
'fingers_'
'filmato_'
'fidi_'
'fidati_'
'fidarti_'
'fidare_'
'fida_'
'fiato_'
'festeggiare_'
'fermarci_'
'ferite_'
'fellow_'
'febbre_'
'favour_'
'fashion_'
'fart_'
'farmelo_'
'fancy_'
'fallito_'
'fallen_'
'facilmente_'
'facevo_'
'facessi_'
'faces_'
'fabbrica_'
'eyebrows_'
'extremely_'
'exit_'
'existed_'
'execution_'
'excellent_'
'eterno_'
'estremamente_'
'esso_'
'essa_'
'espresso_'
'espressione_'
'esplosivi_'
'esco_'
'escaped_'
'esatto_'
'esaminato_'
'esame_'
'eroina_'
'erede_'
'eravate_'
'equipaggio_'
'episodio_'
'entusiasta_'
'entered_'
'enjoyed_'
'engine_'
'emozione_'
'emotions_'
'emotional_'
'emorragia_'
'elsewhere_'
'elettrica_'
'elegant_'
'egli_'
'egg_'
'effettivamente_'
'educato_'
'education_'
'editor_'
'duck_'
'drove_'
'dreamed_'
'draw_'
'dovra_'
'dont_'
'divorzio_'
'divorced_'
'divorce_'
'divine_'
'divertirsi_'
'diventi_'
'diventati_'
'dive_'
'disturbed_'
'distrutti_'
'distrutta_'
'disponibile_'
'disordine_'
'disgustoso_'
'disease_'
'discussione_'
'disappointed_'
'dirtelo_'
'dirmelo_'
'direbbe_'
'dir_'
'dimostrarlo_'
'dimmelo_'
'dimenticati_'
'difficili_'
'difendere_'
'diciamo_'
'dichiarazione_'
'dicevi_'
'dicevano_'
'diamonds_'
'dial_'
'details_'
'dessert_'
'desires_'
'desideri_'
'deserved_'
'deposito_'
'demonio_'
'demon_'
'deeper_'
'debiti_'
'dawn_'
'dates_'
'database_'
'darò_'
'darà_'
'danni_'
'damaged_'
'curse_'
'curious_'
'curioso_'
'cugina_'
'cucciolo_'
'crowd_'
'crossed_'
'critici_'
'crisis_'
'crimes_'
'cresciuta_'
'creatures_'
'cravatta_'
'crappy_'
'cranio_'
'coso_'
'corte_'
'corna_'
'corn_'
'coraggioso_'
'copertina_'
'coperta_'
'convinto_'
'convincermi_'
'conviene_'
'contribuito_'
'continuato_'
'contanti_'
'consumare_'
'consigliere_'
'considering_'
'considerazione_'
'consent_'
'consciousness_'
'conscience_'
'conoscono_'
'conoscerla_'
'confident_'
'condom_'
'condividere_'
'conclusione_'
'concerto_'
'concert_'
'complete_'
'complesso_'
'complaining_'
'compare_'
'committing_'
'commit_'
'commettere_'
'commander_'
'comitato_'
'comforting_'
'colui_'
'colori_'
'colonnello_'
'colleghi_'
'collaborazione_'
'coke_'
'coinvolti_'
'coglione_'
'co_'
'clown_'
'closing_'
'closet_'
'clip_'
'clinica_'
'climbing_'
'clients_'
'clearly_'
'classified_'
'claim_'
'civil_'
'citizen_'
'cimitero_'
'cima_'
'cieca_'
'choices_'
'chill_'
'chiediamo_'
'chiederle_'
'chiamerò_'
'chiamarla_'
'cheating_'
'cheated_'
'chat_'
'chasing_'
'chased_'
'championship_'
'chain_'
'cerimonia_'
'cerco_'
'cerchio_'
'cercano_'
'centri_'
'cemetery_'
'celebrating_'
'cazzata_'
'causing_'
'catturato_'
'catturare_'
'categoria_'
'cast_'
'cassetto_'
'cassa_'
'carries_'
'carried_'
'carrello_'
'cargo_'
'cared_'
'capanna_'
'cap_'
'candidato_'
'cancel_'
'campi_'
'campeggio_'
'campana_'
'cammina_'
'camere_'
'cambiata_'
'caduti_'
'cacciatore_'
'bust_'
'burnt_'
'bullshit_'
'bull_'
'budget_'
'brush_'
'brown_'
'bride_'
'bread_'
'breach_'
'brave_'
'brains_'
'boundaries_'
'bound_'
'botto_'
'botte_'
'bothered_'
'bored_'
'bore_'
'bordo_'
'bond_'
'bombe_'
'bollente_'
'blocco_'
'blacks_'
'blackout_'
'biscotti_'
'biopsia_'
'bimbo_'
'bimba_'
'bikini_'
'bevi_'
'beve_'
'bets_'
'betrayed_'
'below_'
'belongs_'
'believes_'
'behavior_'
'behave_'
'begins_'
'beard_'
'beans_'
'bastarda_'
'bare_'
'barba_'
'bambine_'
'backwards_'
'babe_'
'azienda_'
'aye_'
'avvicina_'
'avreste_'
'aveste_'
'averli_'
'averle_'
'autorizzato_'
'autorita_'
'attrice_'
'attrezzi_'
'attractive_'
'attesa_'
'atterraggio_'
'attentamente_'
'atteggiamento_'
'attaccato_'
'atmosphere_'
'atmosfera_'
'assunto_'
'assumere_'
'associazione_'
'associated_'
'assassina_'
'aspettarmi_'
'ascolto_'
'arts_'
'artificiale_'
'arrangement_'
'arrange_'
'armadio_'
'armadietto_'
'argue_'
'argento_'
'areas_'
'archivi_'
'apre_'
'appunti_'
'antincendio_'
'anniversary_'
'ankle_'
'animals_'
'angle_'
'andrebbe_'
'andarcene_'
'analysis_'
'analisi_'
'ammo_'
'amiamo_'
'americana_'
'ambasciatore_'
'alzato_'
'alti_'
'alternativa_'
'altare_'
'alleanza_'
'alike_'
'aliens_'
'alien_'
'aiutarci_'
'aiutando_'
'airport_'
'agio_'
'ages_'
'agents_'
'agency_'
'affairs_'
'adult_'
'adrenalina_'
'adopted_'
'addirittura_'
'adatta_'
'actress_'
'active_'
'accuse_'
'accetto_'
'acceso_'
'accesa_'
'abuse_'
'abitudine_'
'abbracciare_'
']: _'
'Zero_'
'Z_'
'Yup_'
'Yesterday_'
'Yellow_'
'YOUR_'
'YEARS_'
'X_'
'Wyatt_'
'Wolf_'
'Wizard_'
'Winston_'
'Wilson_'
'Wilhelmina_'
'Went_'
'Weird_'
'Week_'
'Waldorf_'
'WITH_'
'WHEN_'
'Vita_'
'Virgil_'
'Vincenzo_'
'Vienna_'
'Verrai_'
'Vaughn_'
'Valentine_'
'V_'
'VE_'
'Unfortunately_'
'Understood_'
'Uhm_'
'Ugh_'
'Uccidilo_'
'True_'
'Trovati_'
'Town_'
'Totò_'
'Tienilo_'
'Through_'
'Tesla_'
'Tara_'
'Tanaka_'
'Taking_'
'THEY_'
'Sybil_'
'Surrender_'
'Super_'
'Summer_'
'Sulla_'
'Stuart_'
'Stone_'
'Stia_'
'Stessa_'
'Stato_'
'Start_'
'Star_'
'Stacy_'
'Spiacente_'
'Spencer_'
'Speed_'
'Specialmente_'
'Spanish_'
'Space_'
'South_'
'Sofia_'
'Smetti_'
'Sleep_'
'Simpson_'
'Sign_'
'Sid_'
'Sicura_'
'Shot_'
'Shaw_'
'Sharon_'
'Seung_'
'Sentito_'
'Semplicemente_'
'Sembrano_'
'Security_'
'Scherzo_'
'Sceriffo_'
'Save_'
'Satana_'
'Saro_'
'Samantha_'
'Salt_'
'Sal_'
'Russi_'
'Ruby_'
'Roxy_'
'Rosa_'
'Room_'
'Rock_'
'River_'
'Rita_'
'Rispondimi_'
'Ring_'
'Reynolds_'
'Rex_'
'Regina_'
'Real_'
'Ramona_'
'Raj_'
'Radio_'
'Quite_'
'Quasi_'
'Quark_'
'Qualcun_'
'Qua_'
'Principe_'
'Prendila_'
'Prenda_'
'Precisely_'
'Powell_'
'Poteva_'
'Possa_'
'Portatelo_'
'Pig_'
'Piero_'
'Piccola_'
'Piano_'
'Petey_'
'Permesso_'
'Pensava_'
'Penny_'
'Peccato_'
'Patty_'
'Parliamo_'
'Pantera_'
'Pan_'
'Palmer_'
'Paese_'
'Pablo_'
'PER_'
'Oz_'
'Ormai_'
'Oregon_'
'Onestamente_'
'Obama_'
'ONE_'
'Nope_'
'Nonna_'
'Nicholas_'
'Nelle_'
'Naturalmente_'
'Napoleone_'
'Nah_'
'NEED_'
'Murray_'
'Murphy_'
'Muoviti_'
'Much_'
'Mosca_'
'Monty_'
'Montgomery_'
'Monroe_'
'Money_'
'Mo_'
'Miriam_'
'Mimi_'
'Miles_'
'Mickey_'
'Mexican_'
'Mettete_'
'Metro_'
'Merry_'
'Meno_'
'Maya_'
'Matthew_'
'Mason_'
'Martinez_'
'Marshal_'
'Many_'
'Malcolm_'
'Mal_'
'Magnus_'
'Magnifico_'
'Maesta_'
'Lynette_'
'Lydia_'
'Louise_'
'Live_'
'Liv_'
'Lindsay_'
'Lemon_'
'Left_'
'Learn_'
'Lawrence_'
'Lasciatemi_'
'Lasci_'
'Lake_'
'LOOK_'
'LA_'
'Knights_'
'Katherine_'
'Karma_'
'Jules_'
'Joy_'
'Josie_'
'Jonathan_'
'Jin_'
'Jeffrey_'
'Jeanne_'
'Jamie_'
'JUST_'
'Irish_'
'Interessante_'
'Indietro_'
'India_'
'Ian_'
'IL_'
'Honour_'
'Holiday_'
'Hm_'
'Heh_'
'Hayes_'
'Harris_'
'Harold_'
'Harder_'
'Hard_'
'Hand_'
'HOW_'
'HIM_'
'HERE_'
'Guard_'
'Griffin_'
'Greene_'
'Greek_'
'Grady_'
'Gotta_'
'Goes_'
'Goddamn_'
'Global_'
'Gliel_'
'Giuro_'
'Giulia_'
'Giu_'
'Giochiamo_'
'Giappone_'
'Ghost_'
'Gentlemen_'
'Gemma_'
'Gates_'
'Gail_'
'Gabrielle_'
'Gabe_'
'GPS_'
'GONNA_'
'Funny_'
'Fresh_'
'Found_'
'Foster_'
'Forgive_'
'Flynn_'
'Finché_'
'Finche_'
'Fifty_'
'Fi_'
'Felice_'
'Faro_'
'Fanculo_'
'Family_'
'Fall_'
'Faccia_'
'Evil_'
'Eun_'
'Eugene_'
'Entrambe_'
'End_'
'Ella_'
'Either_'
'Eduardo_'
'Edgar_'
'Eden_'
'Eccellente_'
'Ebbene_'
'Dwight_'
'Duke_'
'Drive_'
'Douglas_'
'Done_'
'Dog_'
'Dodge_'
'Disse_'
'Dipende_'
'Dinner_'
'Dimmelo_'
'Dietro_'
'Dick_'
'Diana_'
'Diamo_'
'Dexter_'
'Derek_'
'Depends_'
'Definitely_'
'Deal_'
'Dax_'
'Date_'
'Darryl_'
'Danielle_'
'Dale_'
'Dakota_'
'Daisy_'
'Dacci_'
'Cyrus_'
'Cut_'
'Craig_'
'Court_'
'County_'
'Council_'
'Cops_'
'Continuate_'
'Command_'
'Cole_'
'Coast_'
'Cleveland_'
'Claude_'
'Chow_'
'Cho_'
'Chiunque_'
'Chiudete_'
'China_'
'Chin_'
'Chiedi_'
'Chiamate_'
'Chase_'
'Charming_'
'Channel_'
'Chandler_'
'Certamente_'
'Cerchiamo_'
'Cavolo_'
'Catherine_'
'Catch_'
'Cassie_'
'Casa_'
'Carson_'
'Cara_'
'Cao_'
'Candy_'
'Camp_'
'Cameron_'
'Calmo_'
'Calma_'
'Caesar_'
'Bè_'
'Business_'
'Bush_'
'Bunny_'
'Bullock_'
'Buddha_'
'Bud_'
'Bryce_'
'Brutto_'
'Brother_'
'Brooke_'
'Britain_'
'Bridge_'
'Brenda_'
'Break_'
'Brazil_'
'Both_'
'Booth_'
'Blood_'
'Beverly_'
'Bet_'
'Berlin_'
'Benton_'
'Bennett_'
'Belle_'
'Becky_'
'Beautiful_'
'Bam_'
'Bailey_'
'BEEN_'
'Attenti_'
'Army_'
'Apparently_'
'Anyone_'
'Another_'
'Angelina_'
'Andrews_'
'Andare_'
'Ana_'
'Amo_'
'Amici_'
'Amber_'
'Altri_'
'Although_'
'Alejandro_'
'Alaska_'
'Ahh_'
'Agli_'
'Adams_'
'Accomodati_'
'Aaah_'
'AT_'
'AS_'
'AII_'
'? "_'
'? ! _'
'72_'
'62_'
'250_'
'2011_'
'2000_'
'1990_'
'120_'
'1200_'
'...? _'
'.... _'
'... .. _'
'... - ..._'
'.)_'
'.!_'
'. [_'
'. '_'
'--?_'
'- '_'
'- # _'
',"_'
', ..._'
', #_'
', # # _'
') "_'
''... - _'
'" ._'
'! ?_'
' [_'
' .._'
' ) _'
'_'
'zone_'
'zitti_'
'zecca_'
'yo_'
'yer_'
'yelling_'
'yada_'
'wounded_'
'worthy_'
'worm_'
'workout_'
'wore_'
'witnesses_'
'wishes_'
'wires_'
'wing_'
'willingly_'
'widow_'
'wicked_'
'whisky_'
'whiskey_'
'wherever_'
'wheels_'
'weigh_'
'web_'
'weary_'
'wears_'
'wealth_'
'wave_'
'watched_'
'wash_'
'warrant_'
'warp_'
'warned_'
'ward_'
'wanting_'
'walks_'
'waffle_'
'vuoti_'
'vous_'
'voti_'
'vorremmo_'
'voodoo_'
'vomito_'
'vomitare_'
'voluti_'
'volontà_'
'volato_'
'voci_'
'vivrà_'
'vivete_'
'viventi_'
'vitale_'
'visited_'
'visite_'
'visioni_'
'vision_'
'virgin_'
'violenta_'
'vincendo_'
'vicinato_'
'vicenda_'
'vetro_'
'vermi_'
'verme_'
'verdure_'
'verdoni_'
'verdi_'
'venivano_'
'vendicarsi_'
'veloci_'
'veicoli_'
'vegetables_'
'vedro_'
'vedevo_'
'vedete_'
'vedessi_'
'vedervi_'
'vault_'
'vasca_'
'vari_'
'vampiro_'
'vampire_'
'valvola_'
'valsa_'
'valle_'
'valid_'
'vadano_'
'v_'
'userai_'
'usando_'
'usa_'
'urlato_'
'urgent_'
'unsub_'
'unspeakable_'
'unlike_'
'united_'
'ungrateful_'
'uncomfortable_'
'umanità_'
'umanita_'
'ugualmente_'
'ugly_'
'uccisi_'
'uccise_'
'uccidi_'
'ucciderà_'
'ubriachi_'
'ubriaca_'
'twenty_'
'tuttora_'
'tuck_'
'tubo_'
'trunk_'
'truly_'
'trucks_'
'trucchi_'
'troveranno_'
'trovera_'
'trovava_'
'trovarsi_'
'trovarlo_'
'trovano_'
'troubles_'
'tristezza_'
'triplo_'
'trigger_'
'tries_'
'tricks_'
'tribù_'
'trenta_'
'treating_'
'tray_'
'tratti_'
'trattare_'
'trasportato_'
'trasportando_'
'trasformato_'
'trasformare_'
'trasferito_'
'trascinato_'
'transportation_'
'tranquilla_'
'tramonto_'
'tramite_'
'trail_'
'traduzione_'
'tracking_'
'traccia_'
'toy_'
'towers_'
'tournament_'
'tourists_'
'tossica_'
'torture_'
'tornero_'
'tornerai_'
'tornano_'
'tools_'
'tommy_'
'togliermi_'
'toccato_'
'tit_'
'tire_'
'tira_'
'tipa_'
'timone_'
'tigre_'
'tied_'
'throws_'
'throughout_'
'threats_'
'threatened_'
'thou_'
'thoroughly_'
'thomas_'
'theories_'
'thee_'
'testimonianza_'
'testardo_'
'tessuto_'
'teso_'
'tesi_'
'terrorista_'
'terrific_'
'terrestre_'
'terms_'
'terme_'
'teppista_'
'tenuta_'
'tenti_'
'tentarmi_'
'tense_'
'tenerezza_'
'tenendo_'
'temporary_'
'temporale_'
'tempio_'
'tempesta_'
'temere_'
'telecamera_'
'teenager_'
'tecnica_'
'technology_'
'tazze_'
'tattoo_'
'tattica_'
'tariffa_'
'tapes_'
'talks_'
'talkin_'
'tali_'
'talented_'
'ta_'
'symbol_'
'swine_'
'swift_'
'swell_'
'sweep_'
'svizzero_'
'svelta_'
'sveglio_'
'svegliare_'
'suspended_'
'surviving_'
'survived_'
'surveillance_'
'surrounded_'
'surgeon_'
'supper_'
'supervisor_'
'supervision_'
'superiore_'
'superior_'
'superata_'
'suonato_'
'sunny_'
'sulking_'
'sudore_'
'sucker_'
'successful_'
'succeeded_'
'succederà_'
'substance_'
'sublime_'
'stupide_'
'stupenda_'
'stufo_'
'stuffed_'
'stronger_'
'stroke_'
'strip_'
'stretta_'
'strappato_'
'straordinari_'
'stranieri_'
'storici_'
'stones_'
'stone_'
'stir_'
'steroidi_'
'steps_'
'stellare_'
'steam_'
'steals_'
'stash_'
'starà_'
'starving_'
'stars_'
'staro_'
'stara_'
'stalla_'
'stalker_'
'stain_'
'stagione_'
'stadio_'
'stabbed_'
'squeeze_'
'square_'
'squallida_'
'squad_'
'spreading_'
'spread_'
'spostare_'
'sposarlo_'
'sportivi_'
'splendide_'
'spite_'
'spiriti_'
'spiego_'
'spiegato_'
'speso_'
'sperma_'
'sperm_'
'spera_'
'spenga_'
'spending_'
'spendere_'
'spedita_'
'specializzazione_'
'specchio_'
'sparita_'
'sparire_'
'sparate_'
'spaceship_'
'spacca_'
'souvenir_'
'souls_'
'sottufficiale_'
'sottomarino_'
'sostenere_'
'sostanza_'
'sospeso_'
'sorso_'
'sorridere_'
'sore_'
'sopravvivenza_'
'soprannome_'
'sonno_'
'sommato_'
'somiglia_'
'solid_'
'soggiorno_'
'soggetto_'
'soffro_'
'sofferenza_'
'sodium_'
'soaked_'
'snob_'
'sneaking_'
'snap_'
'snake_'
'smooth_'
'smiling_'
'smetterla_'
'smash_'
'slowly_'
'slips_'
'slippers_'
'slightly_'
'slight_'
'slaughter_'
'skull_'
'sistemo_'
'simpatica_'
'similar_'
'silently_'
'signing_'
'significhi_'
'significant_'
'sigarette_'
'siediti_'
'shy_'
'shipping_'
'shine_'
'shifts_'
'shield_'
'shepherd_'
'shelf_'
'shave_'
'sgualdrina_'
'sfuggire_'
'sfondo_'
'sfinito_'
'sfida_'
'sfera_'
'sew_'
'setting_'
'settembre_'
'sessione_'
'serving_'
'serva_'
'sergeant_'
'serena_'
'separated_'
'sentiti_'
'sentirai_'
'sentiero_'
'sensori_'
'sensi_'
'sensata_'
'seme_'
'sembravi_'
'sembravano_'
'selvaggio_'
'selfless_'
'seguiva_'
'seguente_'
'sedette_'
'secondary_'
'seats_'
'sealed_'
'scusate_'
'scusami_'
'scrivi_'
'scrivendo_'
'scrive_'
'scritta_'
'scream_'
'scout_'
'scossa_'
'scopre_'
'scoppiato_'
'scontato_'
'sconosciuto_'
'sconosciuta_'
'scomparsa_'
'scommessa_'
'sciopero_'
'scienziato_'
'schiavi_'
'schianto_'
'scherza_'
'scheda_'
'scenes_'
'scendi_'
'scenario_'
'scambiare_'
'scadenza_'
'sbirro_'
'sbirri_'
'sbattere_'
'sbaglia_'
'saves_'
'sausage_'
'saremmo_'
'sapresti_'
'sapore_'
'sang_'
'sandwiches_'
'sandwich_'
'salvi_'
'salvarti_'
'salvarmi_'
'sali_'
'salary_'
'salad_'
'sails_'
'saggezza_'
'safely_'
'sadness_'
'sacred_'
'sack_'
'ryo_'
'ruota_'
'ruoli_'
'runaway_'
'rubbish_'
'rubata_'
'royal_'
'rovinando_'
'route_'
'rottura_'
'rotten_'
'rospo_'
'romani_'
'role_'
'rognoso_'
'rocket_'
'robbed_'
'robaccia_'
'riviste_'
'rivederla_'
'riusciti_'
'riuscirò_'
'riuscirà_'
'riuscirai_'
'ritirato_'
'risultati_'
'risponda_'
'ripreso_'
'riprese_'
'riparare_'
'rip_'
'rintracciato_'
'rintracciare_'
'rinchiuso_'
'rimettere_'
'rimaste_'
'rimangono_'
'rights_'
'rifugio_'
'rifiuti_'
'riescono_'
'riempire_'
'riconosciuto_'
'richieste_'
'richiamo_'
'ricchi_'
'riavere_'
'rhe_'
'revolution_'
'review_'
'retreat_'
'retire_'
'results_'
'restless_'
'response_'
'respond_'
'resource_'
'resist_'
'residenza_'
'rescue_'
'requests_'
'reputazione_'
'representing_'
'reply_'
'remembered_'
'religious_'
'religion_'
'relieve_'
'regret_'
'regolare_'
'regno_'
'registri_'
'registrazione_'
'register_'
'regime_'
'reggiseno_'
'refusing_'
'reflect_'
'reckoned_'
'recipe_'
'recente_'
'rear_'
'realmente_'
'realizzare_'
'reali_'
'reaches_'
'raw_'
'rapire_'
'rap_'
'rampa_'
'ram_'
'rally_'
'raising_'
'rail_'
'raid_'
'raggiungo_'
'raggi_'
'ragae_'
'raccontando_'
'raccomando_'
'raccogli_'
'quì_'
'quiz_'
'quid_'
'questioned_'
'qualified_'
'qualifiche_'
'quaggiu_'
'puttanella_'
'purtroppo_'
'pursuit_'
'puro_'
'purity_'
'punteggio_'
'puntate_'
'puntata_'
'punish_'
'pumped_'
'pulling_'
'puliti_'
'pulita_'
'pubblicitari_'
'pubblicato_'
'pubblica_'
'pub_'
'psychic_'
'psicopatico_'
'prudente_'
'provocare_'
'provo_'
'protegge_'
'pros_'
'proposal_'
'promettere_'
'proibito_'
'progetti_'
'progettato_'
'profound_'
'profonda_'
'profitti_'
'profit_'
'profiling_'
'professione_'
'produttore_'
'producing_'
'produce_'
'procuratore_'
'procedura_'
'probabile_'
'pro_'
'privati_'
'privata_'
'prints_'
'printed_'
'print_'
'prince_'
'prigionieri_'
'prigioniera_'
'prezioso_'
'prevent_'
'prevedere_'
'prevede_'
'preside_'
'presents_'
'preparing_'
'prepararsi_'
'preparando_'
'preoccupazioni_'
'preoccupazione_'
'prenderà_'
'prendervi_'
'prenderai_'
'premuroso_'
'premere_'
'preghiera_'
'pregando_'
'preferisci_'
'preferirei_'
'precoce_'
'preciso_'
'precisione_'
'precious_'
'precedente_'
'preavviso_'
'praying_'
'pray_'
'pratico_'
'practicing_'
'powers_'
'povera_'
'pound_'
'potro_'
'potessero_'
'posters_'
'possession_'
'possesses_'
'portiere_'
'portera_'
'portava_'
'portafortuna_'
'porre_'
'porno_'
'popcorn_'
'political_'
'polie_'
'poker_'
'poisoned_'
'poetry_'
'pockets_'
'plead_'
'plays_'
'plastica_'
'plastic_'
'plaque_'
'plague_'
'pizze_'
'pissing_'
'piss_'
'piscio_'
'pink_'
'pilotare_'
'pigiama_'
'pietà_'
'pieta_'
'piene_'
'pickup_'
'pianta_'
'pianificato_'
'piange_'
'pianeti_'
'piaccio_'
'piaccia_'
'phrase_'
'pet_'
'pestato_'
'pessima_'
'pesci_'
'pescare_'
'pesanti_'
'pesante_'
'pervertito_'
'pervert_'
'personally_'
'personality_'
'perdonami_'
'perderlo_'
'pensieri_'
'pensata_'
'pencil_'
'pen_'
'peggiori_'
'peggior_'
'peek_'
'pedinamento_'
'peccati_'
'pazzia_'
'pazienza_'
'payment_'
'patrigno_'
'patria_'
'path_'
'patetico_'
'patch_'
'patatine_'
'patate_'
'passera_'
'passengers_'
'passeggero_'
'partorire_'
'partiamo_'
'partenza_'
'partendo_'
'parleremo_'
'parlamentare_'
'pareti_'
'parassita_'
'pappone_'
'panni_'
'panico_'
'pallottole_'
'pale_'
'painting_'
'painter_'
'painful_'
'paia_'
'pagine_'
'pagati_'
'pagata_'
'pagano_'
'pagamento_'
'padrone_'
'pad_'
'p_'
'ottimi_'
'ostaggio_'
'osso_'
'ossessionato_'
'oscura_'
'orto_'
'orphans_'
'orgogliosa_'
'organized_'
'opposed_'
'opportunities_'
'opere_'
'operatoria_'
'ooh_'
'onda_'
'omicida_'
'ometto_'
'oi_'
'offices_'
'offerto_'
'odori_'
'oculari_'
'occupazione_'
'occuparmi_'
'obsession_'
'object_'
'nut_'
'numeri_'
'nudi_'
'notturno_'
'noto_'
'nothin_'
'nightmares_'
'nigger_'
'nick_'
'nerves_'
'neighborhoods_'
'negozi_'
'needles_'
'needle_'
'necessita_'
'necessaria_'
'nazionale_'
'navigazione_'
'nascosti_'
'nascoste_'
'narrow_'
'nails_'
'murderer_'
'muoversi_'
'muoiono_'
'muoia_'
'munizioni_'
'multiply_'
'mule_'
'mucca_'
'movente_'
'mount_'
'motorcycle_'
'motor_'
'motivi_'
'mostrare_'
'morirò_'
'moriro_'
'morgue_'
'mop_'
'montagne_'
'mondiale_'
'mon_'
'mole_'
'modest_'
'modello_'
'mm_'
'mix_'
'misunderstood_'
'mistress_'
'mistero_'
'misterioso_'
'mistaken_'
'missile_'
'misses_'
'misery_'
'misericordioso_'
'miseria_'
'miserable_'
'mirror_'
'miracles_'
'minore_'
'ministro_'
'minister_'
'miniera_'
'minds_'
'millimetri_'
'mike_'
'mezzogiorno_'
'metterò_'
'metterà_'
'metterti_'
'mettero_'
'metterlo_'
'metterla_'
'method_'
'meter_'
'messi_'
'messaggi_'
'mercenario_'
'merce_'
'mentire_'
'mentioned_'
'mentale_'
'mens_'
'melt_'
'medica_'
'matti_'
'materials_'
'material_'
'matches_'
'massima_'
'massacro_'
'massa_'
'mask_'
'maschera_'
'marvellous_'
'marmellata_'
'market_'
'marked_'
'marinaio_'
'marijuana_'
'marching_'
'manual_'
'mangio_'
'mando_'
'mandano_'
'manda_'
'manco_'
'manciata_'
'mancava_'
'mammina_'
'mama_'
'malvagio_'
'malissimo_'
'maledetta_'
'majesty_'
'mailbox_'
'maid_'
'magnifica_'
'magici_'
'magica_'
'maggiori_'
'macchia_'
'lyrics_'
'lured_'
'ls_'
'lover_'
'loaded_'
'livelli_'
'lists_'
'liscio_'
'liquid_'
'lion_'
'linked_'
'linee_'
'limits_'
'limiti_'
'limitata_'
'limbs_'
'lightning_'
'lifted_'
'lifestyle_'
'licking_'
'licenziare_'
'license_'
'liberty_'
'libere_'
'lf_'
'letting_'
'legna_'
'legittima_'
'leggermente_'
'legare_'
'leale_'
'leak_'
'leading_'
'leaders_'
'lazy_'
'lawyers_'
'lawn_'
'lavoretti_'
'lavoratori_'
'laurea_'
'lassu_'
'lasciartelo_'
'lasciami_'
'lascero_'
'large_'
'larga_'
'lanciare_'
'lanci_'
'lampo_'
'lamb_'
'lads_'
'lad_'
'lack_'
'labor_'
'kitty_'
'kissed_'
'kindness_'
'kimono_'
'kevin_'
'karma_'
'judgment_'
'judged_'
'joys_'
'jerk_'
'jenny_'
'jamie_'
'isle_'
'ipocrita_'
'ioni_'
'involve_'
'invitati_'
'inviate_'
'investire_'
'invented_'
'invasion_'
'invaded_'
'inutili_'
'intuizione_'
'intervento_'
'interrogate_'
'internazionale_'
'interfering_'
'interfere_'
'interessano_'
'interessamento_'
'intentions_'
'intention_'
'intense_'
'intelligenza_'
'intelligence_'
'intel_'
'instrument_'
'instructions_'
'institution_'
'instinct_'
'instant_'
'instance_'
'installed_'
'inspired_'
'insomma_'
'insistito_'
'insensibile_'
'insegna_'
'inquietante_'
'inoltre_'
'innocenti_'
'inner_'
'injury_'
'injuries_'
'iniziano_'
'iniziamo_'
'iniezione_'
'inglesi_'
'ingegnere_'
'ing_'
'informato_'
'informarla_'
'inflict_'
'infine_'
'infection_'
'industry_'
'indovinare_'
'indizi_'
'individuo_'
'individual_'
'indirizzi_'
'indipendentemente_'
'indimenticabile_'
'indicazioni_'
'indicate_'
'indiano_'
'indagini_'
'incubo_'
'incrocio_'
'incontriamo_'
'including_'
'incaricato_'
'improvvisamente_'
'improve_'
'impronta_'
'impressionante_'
'impress_'
'impianto_'
'impedito_'
'imparando_'
'impact_'
'immortale_'
'immortal_'
'immaginato_'
'imbroglione_'
'illusion_'
'illegale_'
'ignored_'
'ignore_'
'identità_'
'identity_'
'identified_'
'identificato_'
'identico_'
'ideas_'
'husbands_'
'houses_'
'hospitality_'
'horses_'
'horizon_'
'hopes_'
'hoped_'
'hooking_'
'honored_'
'honeymoon_'
'honesty_'
'honestly_'
'holidays_'
'hire_'
'highest_'
'higher_'
'hidden_'
'hid_'
'hereby_'
'helicopter_'
'heel_'
'heavily_'
'hearse_'
'hears_'
'healthy_'
'hates_'
'happier_'
'hanged_'
'hamburger_'
'halves_'
'hallway_'
'halfway_'
'h_'
'guide_'
'guidato_'
'guest_'
'guarito_'
'guardata_'
'guardaroba_'
'guardarmi_'
'guardami_'
'guadagnare_'
'grounds_'
'grotta_'
'grief_'
'grid_'
'greet_'
'gratuito_'
'grata_'
'grandma_'
'graduated_'
'gradi_'
'grace_'
'governi_'
'gomma_'
'gods_'
'goddess_'
'glorious_'
'glimmer_'
'giunta_'
'giungla_'
'giudizio_'
'giudiziario_'
'giudizi_'
'gita_'
'giretto_'
'girando_'
'giovedi_'
'giornalisti_'
'gioielli_'
'giocava_'
'giocatore_'
'gigante_'
'gibberish_'
'giacca_'
'gestire_'
'gestione_'
'gentiluomo_'
'geniale_'
'genes_'
'genero_'
'generali_'
'genera_'
'gelato_'
'geez_'
'gearbox_'
'gatto_'
'gatti_'
'gare_'
'gabbia_'
'g_'
'furto_'
'funzionano_'
'fuggito_'
'fuggiti_'
'fuggita_'
'fritto_'
'friendly_'
'frego_'
'fregarmi_'
'fredda_'
'freccia_'
'freaks_'
'fratellino_'
'frankly_'
'franchise_'
'frame_'
'fragments_'
'fourth_'
'founded_'
'fotografica_'
'fotografia_'
'foste_'
'fossimo_'
'fortunati_'
'foro_'
'formula_'
'formazione_'
'fori_'
'forensic_'
'forehead_'
'forces_'
'fools_'
'fondi_'
'folle_'
'foglia_'
'focused_'
'floors_'
'fissando_'
'fisico_'
'fishing_'
'firma_'
'fiore_'
'finto_'
'finiti_'
'finirà_'
'finira_'
'fingere_'
'finestre_'
'finest_'
'finchè_'
'finals_'
'filo_'
'filmed_'
'figures_'
'figata_'
'fields_'
'fido_'
'fidarmi_'
'fidanzati_'
'fiction_'
'fiamme_'
'fermata_'
'fermarmi_'
'femmine_'
'fellas_'
'fegato_'
'fee_'
'feci_'
'featured_'
'fears_'
'fearless_'
'fearful_'
'fazzoletto_'
'favori_'
'faticoso_'
'fascinating_'
'fasciato_'
'farvi_'
'farm_'
'farli_'
'farina_'
'fareste_'
'fantasy_'
'fantastici_'
'fantasmi_'
'fallimento_'
'falla_'
'faked_'
'fairly_'
'failure_'
'faggot_'
'factory_'
'facing_'
'facevi_'
'facevano_'
'facesse_'
'facce_'
'extreme_'
'extension_'
'expression_'
'exposed_'
'expose_'
'exploring_'
'exploded_'
'expert_'
'expedition_'
'exhausted_'
'exercise_'
'executed_'
'excitement_'
'exchange_'
'excessive_'
'eviti_'
'evitando_'
'eventually_'
'euro_'
'eternity_'
'esserti_'
'esserne_'
'essenza_'
'esperti_'
'esperimento_'
'esperimenti_'
'esistito_'
'esercizio_'
'esci_'
'esce_'
'esca_'
'errands_'
'equipaggiamento_'
'equazione_'
'entry_'
'entrati_'
'entirely_'
'enlisted_'
'engagement_'
'engage_'
'enemies_'
'encourage_'
'employer_'
'emozioni_'
'emotion_'
'embarrassed_'
'elicottero_'
'elettroshock_'
'elephant_'
'elected_'
'ego_'
'efforts_'
'efficiente_'
'educazione_'
'editoriale_'
'economy_'
'eccome_'
'eccolo_'
'eccezione_'
'easier_'
'ease_'
'earrings_'
'dwell_'
'duties_'
'duramente_'
'dunno_'
'duel_'
'drown_'
'drops_'
'drone_'
'droghe_'
'drew_'
'dressing_'
'drank_'
'dragged_'
'dovessero_'
'dottori_'
'dott_'
'dormi_'
'dorme_'
'dorato_'
'donation_'
'domandare_'
'dodici_'
'document_'
'division_'
'divide_'
'divertimento_'
'diverti_'
'divertendo_'
'divers_'
'diventano_'
'divano_'
'disturbo_'
'disturbing_'
'disturbare_'
'distrutte_'
'distress_'
'dispiacerebbe_'
'disorder_'
'discussing_'
'discretion_'
'discendenza_'
'disagio_'
'dirt_'
'direttrice_'
'diresti_'
'direste_'
'directly_'
'diranno_'
'dipendenti_'
'dimostri_'
'dimora_'
'dimenticarmi_'
'dimenticarla_'
'dilemma_'
'digli_'
'differ_'
'difetto_'
'dichiarato_'
'diamond_'
'diamoci_'
'diamanti_'
'diamante_'
'devilish_'
'device_'
'detenuto_'
'dessi_'
'despite_'
'desire_'
'describe_'
'depression_'
'depressing_'
'demone_'
'delizioso_'
'delivered_'
'deliver_'
'delitto_'
'delight_'
'delicate_'
'definition_'
'defeat_'
'deer_'
'declare_'
'deck_'
'decisi_'
'decisa_'
'decine_'
'debate_'
'deaths_'
'dearest_'
'dealt_'
'dated_'
'dared_'
'daranno_'
'dannato_'
'dannata_'
'dances_'
'damned_'
'daily_'
'dadi_'
'custody_'
'curva_'
'cursed_'
'cuori_'
'crush_'
'cruelty_'
'cruel_'
'cronaca_'
'critica_'
'crisocione_'
'credermi_'
'crea_'
'crawling_'
'crabs_'
'cows_'
'counting_'
'council_'
'couch_'
'cotto_'
'costs_'
'costruire_'
'costruendo_'
'costretto_'
'costretta_'
'costi_'
'corta_'
'corsa_'
'corruzione_'
'corro_'
'corrisponde_'
'corridor_'
'corridoi_'
'corri_'
'correttamente_'
'corde_'
'cord_'
'coppie_'
'coordinate_'
'convinta_'
'convert_'
'controls_'
'controlli_'
'controllate_'
'contributo_'
'contrary_'
'continuiamo_'
'continued_'
'continuamente_'
'contesto_'
'contest_'
'consultant_'
'constant_'
'console_'
'conseguenze_'
'conseguenza_'
'consegne_'
'consapevole_'
'conosciuta_'
'conoscevo_'
'conoscerti_'
'congedo_'
'confusion_'
'confused_'
'confusa_'
'confronti_'
'confraternita_'
'conflict_'
'confirmation_'
'confini_'
'confession_'
'confermato_'
'confermare_'
'condurre_'
'condanna_'
'concorso_'
'concorrenza_'
'conclusion_'
'concetto_'
'concerti_'
'concentrazione_'
'concentrati_'
'concentrate_'
'conceda_'
'comunità_'
'comunicazioni_'
'compromise_'
'compri_'
'comprerò_'
'comprensione_'
'compra_'
'comportarsi_'
'componente_'
'complimenti_'
'complice_'
'complicato_'
'completed_'
'completato_'
'competitors_'
'compete_'
'compared_'
'compagna_'
'comodo_'
'community_'
'communication_'
'commosso_'
'committee_'
'comincio_'
'cominciamo_'
'comin_'
'combattuto_'
'comb_'
'coma_'
'column_'
'colto_'
'colpisci_'
'colpire_'
'colonia_'
'collina_'
'collegate_'
'collection_'
'colleague_'
'collar_'
'cognizione_'
'cock_'
'cocaine_'
'coast_'
'clouds_'
'clop_'
'clever_'
'cleared_'
'cleaning_'
'clax_'
'classica_'
'claims_'
'claimed_'
'clacson_'
'cittadini_'
'circumstances_'
'cinesi_'
'cifre_'
'cifra_'
'cicatrici_'
'chump_'
'chosen_'
'chop_'
'chiudono_'
'chitarra_'
'chimiche_'
'chiederò_'
'chiedermi_'
'chiederglielo_'
'chiare_'
'chiamero_'
'chiamarsi_'
'chiamarmi_'
'chiacchiere_'
'chewed_'
'cherry_'
'chemical_'
'cheese_'
'checca_'
'cheat_'
'channel_'
'chamber_'
'challenges_'
'cha_'
'cespugli_'
'cercata_'
'century_'
'central_'
'centinaia_'
'cellule_'
'celibato_'
'cavi_'
'caverna_'
'cavata_'
'cauzione_'
'causati_'
'causare_'
'cattle_'
'cattive_'
'castle_'
'cassaforte_'
'cartoon_'
'cartello_'
'cares_'
'carburante_'
'carbone_'
'carattere_'
'capitato_'
'capirlo_'
'caos_'
'canzoni_'
'canto_'
'cantina_'
'canister_'
'candy_'
'candele_'
'cancello_'
'cammino_'
'camminato_'
'cambierà_'
'cambiati_'
'cambiano_'
'cambiamento_'
'cambia_'
'calmati_'
'calma_'
'calcio_'
'cafe_'
'cae_'
'cadaveri_'
'buttare_'
'burst_'
'burro_'
'burrito_'
'buried_'
'burden_'
'buongiorno_'
'bump_'
'bullets_'
'bruciando_'
'broker_'
'brindisi_'
'breaks_'
'bravissimo_'
'brav_'
'brass_'
'braccialetto_'
'boxes_'
'bow_'
'bottiglie_'
'botta_'
'bothering_'
'bosses_'
'borrowed_'
'booze_'
'boots_'
'bob_'
'bloccati_'
'bloccata_'
'blessing_'
'blast_'
'blanket_'
'blank_'
'blacksmith_'
'bitches_'
'bistecca_'
'biological_'
'bici_'
'beyond_'
'betray_'
'beside_'
'benessere_'
'bench_'
'beds_'
'becoming_'
'beasts_'
'beast_'
'bay_'
'battuta_'
'bastone_'
'basi_'
'basement_'
'basata_'
'bark_'
'barche_'
'barbone_'
'barbecue_'
'banquet_'
'banditi_'
'banda_'
'balloon_'
'ballet_'
'ballerine_'
'bald_'
'bait_'
'bagnato_'
'bagnati_'
'badge_'
'badare_'
'bacon_'
'backyard_'
'baciarmi_'
'award_'
'avvocati_'
'avvertito_'
'avvertimento_'
'avventure_'
'avventura_'
'avoiding_'
'avessimo_'
'avermelo_'
'average_'
'automatico_'
'authority_'
'autentico_'
'auntie_'
'aunt_'
'audio_'
'audience_'
'attrezzatura_'
'attraente_'
'attracted_'
'attorno_'
'attori_'
'attività_'
'attenti_'
'attenta_'
'attending_'
'attendere_'
'attempt_'
'asthma_'
'assured_'
'assistere_'
'assigned_'
'assemblea_'
'assassinata_'
'assalto_'
'assai_'
'assaggio_'
'aspettavi_'
'aspettate_'
'aspettarti_'
'ascensore_'
'artisti_'
'artista_'
'article_'
'arse_'
'arrivera_'
'arrive_'
'arrivate_'
'arrivarci_'
'arranged_'
'armatura_'
'armati_'
'arena_'
'architetto_'
'arachidi_'
'aprirla_'
'approvo_'
'approvato_'
'approval_'
'appropriato_'
'approccio_'
'approach_'
'apprezzare_'
'apprendista_'
'appear_'
'apocalisse_'
'apertura_'
'anziano_'
'anytime_'
'antichi_'
'answering_'
'answered_'
'anonymous_'
'anniversario_'
'anime_'
'anger_'
'angels_'
'andò_'
'andranno_'
'andassi_'
'andarono_'
'ancient_'
'analizzare_'
'ammetti_'
'ammetterlo_'
'amigo_'
'amichevole_'
'ambasciata_'
'amante_'
'alzarsi_'
'altrove_'
'altezza_'
'alloggio_'
'allergies_'
'alcool_'
'alcolici_'
'alcohol_'
'alberi_'
'aiutarlo_'
'aiutami_'
'airplane_'
'aid_'
'agire_'
'aggiustare_'
'afterwards_'
'affrontare_'
'affascinato_'
'aerei_'
'advantages_'
'adulto_'
'adulta_'
'adozione_'
'adora_'
'adolescente_'
'addetti_'
'activities_'
'acquistare_'
'acid_'
'accurate_'
'accorti_'
'accidents_'
'accettato_'
'accepting_'
'accent_'
'absurd_'
'abitudini_'
'abituato_'
'abituata_'
'abitanti_'
'ability_'
'abbondante_'
'abbiate_'
'abbi_'
'abbattuto_'
'abbattere_'
'abbassi_'
'abbassato_'
'abbassare_'
'abandoned_'
'abandon_'
'Zulu_'
'Zitta_'
'Zhang_'
'Yves_'
'Yuri_'
'Yun_'
'Xiao_'
'Write_'
'Word_'
'Wing_'
'Willy_'
'Wi_'
'Whether_'
'Wherever_'
'Whenever_'
'Werner_'
'Watson_'
'Wasn_'
'Wally_'
'W_'
'WOULD_'
'WORK_'
'WOMAN_'
'WHY_'
'WHO_'
'WANT_'
'Volevi_'
'Voleva_'
'Vivo_'
'Vivian_'
'Vivi_'
'Vive_'
'Vinnie_'
'Viene_'
'Victoria_'
'Verso_'
'Vera_'
'Vengono_'
'Veloce_'
'Vedranno_'
'Vedrai_'
'Vedere_'
'Vede_'
'Valeria_'
'VIP_'
'Uther_'
'Us_'
'Under_'
'Umm_'
'Ufficio_'
'Uccidere_'
'UOMO_'
'Tuttavia_'
'Turns_'
'Turkey_'
'Trying_'
'Troveremo_'
'Tripp_'
'Trevor_'
'Tonight_'
'Ton_'
'Toglimi_'
'Togli_'
'Together_'
'Tocca_'
'Tira_'
'Tina_'
'Tiffany_'
'Tieniti_'
'Tienili_'
'Thursday_'
'Thor_'
'Them_'
'Tenente_'
'Team_'
'Tate_'
'Target_'
'Taco_'
'TI_'
'THROUGH_'
'THINGS_'
'TALK_'
'Switzerland_'
'Svegliati_'
'Surprise_'
'Suddenly_'
'Stu_'
'Stretch_'
'Stevie_'
'Stephanie_'
'Stella_'
'Stefan_'
'Stavi_'
'Stavamo_'
'Starò_'
'Stare_'
'Starai_'
'Standard_'
'Stamattina_'
'Spostatevi_'
'Splendido_'
'Spirit_'
'Speaking_'
'Sophia_'
'Soon_'
'Sonia_'
'Somewhere_'
'Solomon_'
'Soldato_'
'Sogno_'
'Smile_'
'Smettetela_'
'Small_'
'Sleeping_'
'Skipper_'
'Sissignore_'
'Sisko_'
'Sinclair_'
'Sii_'
'Siegfried_'
'Sidney_'
'Side_'
'Sicurezza_'
'Shouldn_'
'Shannon_'
'Shadow_'
'Sfortunatamente_'
'Set_'
'Sergio_'
'Seeing_'
'Second_'
'Scuola_'
'Screw_'
'Scofield_'
'Scegli_'
'Scappa_'
'Says_'
'Saturn_'
'Sasha_'
'Sarete_'
'Sapevi_'
'Santiago_'
'Saint_'
'SHOULD_'
'SEE_'
'Russa_'
'Round_'
'Rossa_'
'Romeo_'
'Roland_'
'Rodi_'
'Robinson_'
'Roberts_'
'Road_'
'Rivers_'
'Ripeto_'
'Rio_'
'Rim_'
'Riker_'
'Riguardo_'
'Riguarda_'
'Riesco_'
'Riding_'
'Richie_'
'Rice_'
'Rhys_'
'Revisione_'
'Reverse_'
'Resynch_'
'Republic_'
'Report_'
'Renault_'
'Reliant_'
'Regno_'
'Reggie_'
'Regan_'
'Rector_'
'Read_'
'Raymond_'
'Randall_'
'Raines_'
'RUN_'
'REMEMBER_'
'REASON_'
'Quit_'
'Quagmire_'
'Q_'
'Pyo_'
'Puttana_'
'Purtroppo_'
'Pure_'
'Provi_'
'Princess_'
'Previously_'
'Pretend_'
'Potreste_'
'Possono_'
'Porto_'
'Portala_'
'Police_'
'Poldark_'
'Po_'
'Plenty_'
'Pleasure_'
'Place_'
'Pizza_'
'Pierre_'
'Piantala_'
'Phoenix_'
'Petrelli_'
'Pero_'
'Perdonami_'
'Percy_'
'Pepper_'
'Pensavamo_'
'Pensate_'
'Pedro_'
'Pearl_'
'Peace_'
'Pazzo_'
'Paula_'
'Passo_'
'Pass_'
'Pasquale_'
'Parti_'
'Parli_'
'Papino_'
'Paolo_'
'Pam_'
'Oversight_'
'Outside_'
'Otto_'
'Other_'
'Original_'
'Ordine_'
'Olsen_'
'Odin_'
'October_'
'Occhi_'
'Obviously_'
'OUR_'
'OKAY_'
'Nuova_'
'Nostra_'
'Norris_'
'Nixon_'
'Newton_'
'Neill_'
'Need_'
'Nazionale_'
'Napoleon_'
'Na_'
'NSA_'
'NIGHT_'
'NCIS_'
'Mustang_'
'Musica_'
'Mumbai_'
'Mouth_'
'Mount_'
'Moss_'
'Morton_'
'Morris_'
'Morgana_'
'Moo_'
'Monaco_'
'Molte_'
'Minnie_'
'Ministro_'
'Milo_'
'Milady_'
'Midland_'
'Mick_'
'Michelle_'
'Michel_'
'Mica_'
'Mezzo_'
'Mettila_'
'Messaggio_'
'Merci_'
'Mercer_'
'Melanie_'
'Mel_'
'Medical_'
'Means_'
'Meaning_'
'McKay_'
'Matteo_'
'Marvin_'
'Marte_'
'Mars_'
'Marlo_'
'Marley_'
'Marisa_'
'Marilyn_'
'Marian_'
'March_'
'Marc_'
'Mao_'
'Manuel_'
'Mancano_'
'Manca_'
'Malone_'
'Malley_'
'Maledetta_'
'Mail_'
'Magazine_'
'Made_'
'Maddy_'
'Machiavelli_'
'MUST_'
'Là_'
'Lyla_'
'Luthor_'
'Lunga_'
'Lower_'
'Lock_'
'Lizzie_'
'Lilith_'
'Lie_'
'Libro_'
'Liam_'
'Leslie_'
'Leonard_'
'Leon_'
'Leg_'
'Leela_'
'Laurie_'
'Lascio_'
'Lasciatelo_'
'Lasciate_'
'Lambert_'
'Lahey_'
'Lafayette_'
'LORO_'
'LITTLE_'
'LE_'
'LET_'
'LAST_'
'Kurt_'
'Kung_'
'Krishna_'
'Knowing_'
'Knock_'
'Kit_'
'Kids_'
'Kelso_'
'Karl_'
'Kappa_'
'Kane_'
'Kamal_'
'K9_'
'Junior_'
'June_'
'Juliette_'
'Juliet_'
'Judith_'
'Judging_'
'Judah_'
'Juan_'
'Jr_'
'Jose_'
'Jessie_'
'Jefferson_'
'Jeez_'
'Jedi_'
'Jasper_'
'Jameson_'
'Ja_'
'Izzie_'
'Ivan_'
'Italy_'
'Istanbul_'
'Isaac_'
'Iris_'
'Iran_'
'Internet_'
'Interesting_'
'Intendi_'
'Instead_'
'Inspector_'
'Inglese_'
'Indians_'
'Indian_'
'Indeed_'
'Impossible_'
'Impossibile_'
'Imperial_'
'Idiot_'
'Ice_'
'IDEA_'
'Hung_'
'Human_'
'Hugh_'
'Hospital_'
'Horton_'
'Hoover_'
'Homer_'
'Home_'
'Holland_'
'Hit_'
'Herr_'
'Hero_'
'Hernandez_'
'Hell_'
'Heart_'
'Hear_'
'Having_'
'Hate_'
'Harrison_'
'Harmon_'
'Hare_'
'Harbor_'
'Hammer_'
'Ham_'
'Hail_'
'Hadji_'
'HO_'
'HEY_'
'Guido_'
'Guerra_'
'Guardati_'
'Gu_'
'Gretchen_'
'Grazia_'
'Grandioso_'
'Gran_'
'Governor_'
'Gore_'
'Goodness_'
'Gold_'
'Going_'
'Glory_'
'Glenn_'
'Giustizia_'
'Giuda_'
'Girls_'
'Gira_'
'Giovanni_'
'Giovanna_'
'Gilbert_'
'Gibson_'
'Giants_'
'Germany_'
'Gerard_'
'Gerald_'
'Georgia_'
'Geoff_'
'Gente_'
'Gene_'
'Gayle_'
'Gas_'
'Garrett_'
'Garden_'
'Gallagher_'
'Gaia_'
'GREAT_'
'GOT_'
'GIVE_'
'Funziona_'
'Fuckin_'
'Friend_'
'Frena_'
'Franz_'
'Frankie_'
'Francis_'
'Francamente_'
'Fourteen_'
'Foundation_'
'Fottiti_'
'Fore_'
'Florrick_'
'Flint_'
'Fix_'
'Fisher_'
'Firmato_'
'Finora_'
'Finch_'
'Filippine_'
'Fight_'
'Fiat_'
'Fernando_'
'Fermati_'
'Fermatevi_'
'Ferengi_'
'Felicia_'
'Fatto_'
'Farai_'
'Far_'
'Fantasia_'
'Fanno_'
'Falls_'
'Facebook_'
'Facciamolo_'
'Ezra_'
'Eye_'
'Explain_'
'Ex_'
'Evan_'
'Essere_'
'Esattamente_'
'Erica_'
'Eppure_'
'Enter_'
'Enrico_'
'England_'
'Emperor_'
'Ellis_'
'Elaine_'
'Ehila_'
'Edo_'
'Edie_'
'Eccoti_'
'Eccole_'
'EVER_'
'ENOUGH_'
'Dì_'
'Dutch_'
'During_'
'Dunn_'
'Dunham_'
'Ducky_'
'Drew_'
'Doyle_'
'Double_'
'Dorothy_'
'Dorme_'
'Dopotutto_'
'Donner_'
'Dong_'
'Donald_'
'Domenica_'
'Dolce_'
'Dipartimento_'
'Difesa_'
'Dicono_'
'Dica_'
'Diaz_'
'Devon_'
'Destroy_'
'Desperate_'
'Department_'
'Denise_'
'Delta_'
'Delle_'
'Dell_'
'Defiant_'
'Defense_'
'Dee_'
'Dec_'
'Deb_'
'Death_'
'Datemi_'
'Darren_'
'Darcy_'
'Dani_'
'Dance_'
'Damien_'
'Dame_'
'DEL_'
'Cylon_'
'Cup_'
'Crosby_'
'Crichton_'
'Crediamo_'
'Credete_'
'Counselor_'
'Cosette_'
'Corporal_'
'Corleone_'
'Continuo_'
'Continui_'
'Conrad_'
'Congress_'
'Concordo_'
'Concentrati_'
'Compagnia_'
'Cominciamo_'
'Combatti_'
'Comando_'
'Columbia_'
'Colombia_'
'Coffee_'
'Clooney_'
'Clive_'
'Cliff_'
'Cindy_'
'Cigarettes_'
'Chocolate_'
'Chissà_'
'Chiedo_'
'Chester_'
'Chef_'
'Cheese_'
'Cheers_'
'Change_'
'Chang_'
'Champagne_'
'Certe_'
'Cerco_'
'Cercherò_'
'Cerchero_'
'Cercavo_'
'Celine_'
'Cate_'
'Catalina_'
'Cat_'
'Caro_'
'Carmela_'
'Carlton_'
'Carlotta_'
'Carla_'
'Care_'
'Cancro_'
'Camerah_'
'Calvin_'
'CARE_'
'CALL_'
'Busy_'
'Burton_'
'Buono_'
'Bugiardo_'
'Buffy_'
'Buenos_'
'Buck_'
'Brooklyn_'
'Brent_'
'Brendan_'
'Breathe_'
'Breakfast_'
'Bread_'
'Box_'
'Boom_'
'Bon_'
'Bloom_'
'Bitch_'
'Birthday_'
'Bianca_'
'Betsy_'
'Bert_'
'Bentornato_'
'Bennet_'
'Benedict_'
'Being_'
'Bei_'
'Behind_'
'Beatrix_'
'Beatrice_'
'Bau_'
'Basterà_'
'Bastardo_'
'Basil_'
'Based_'
'Bartowski_'
'Bart_'
'Baltimora_'
'Baltar_'
'Baker_'
'BUT_'
'BARNES_'
'BACK_'
'Axel_'
'Awesome_'
'Avro_'
'Avrebbe_'
'Ave_'
'Australian_'
'Australia_'
'Austen_'
'Auntie_'
'August_'
'Attraverso_'
'Attention_'
'Attenta_'
'Assuming_'
'Aspettami_'
'Asian_'
'Ascoltate_'
'Artie_'
'Arriviamo_'
'Arlington_'
'Ariel_'
'Argentina_'
'Apra_'
'Apprezzo_'
'Apollo_'
'Apache_'
'Antonio_'
'Angry_'
'Angel_'
'Andro_'
'Andremo_'
'Andrea_'
'Andatevene_'
'Ancient_'
'Amsterdam_'
'Amelia_'
'Amaar_'
'Alto_'
'Allontanati_'
'Allo_'
'Allie_'
'Allah_'
'Alison_'
'Alicia_'
'Alfredo_'
'Alfred_'
'Alfa_'
'Alexander_'
'Akira_'
'Aiutatemi_'
'Ahmad_'
'Age_'
'Afterwards_'
'Afghanistan_'
'Affascinante_'
'Adriana_'
'Admiral_'
'Accendi_'
'Abigail_'
'Abbassa_'
'AN_'
'ABOUT_'
': '_'
'99_'
'98_'
'95_'
'88_'
'73_'
'720p_'
'700_'
'5000_'
'42_'
'33_'
'32_'
'27_'
'18th_'
'13th_'
'110_'
'01_'
'... .. ._'
'... #_'
'.. ._'
'." "_'
'. ~_'
'. " _'
'-..._'
'- ... _'
',... _'
', ... _'
'**_'
'( _'
''? - _'
''. "_'
'',_'
'' "_'
'# - _'
'"? _'
'". - _'
'", "_'
'!" _'
' /_'
' ...._'
' .. _'
' *_'
' * _'
' " _'
'♫ _'
'—_'
'ì_'
'Ànd_'
'¶¶ _'
' !_'
'zoo_'
'younger_'
'yelled_'
'yap_'
'yacht_'
'writes_'
'writer_'
'wrist_'
'wrench_'
'wrapped_'
'worrying_'
'wormhole_'
'workin_'
'woodland_'
'wonders_'
'witnessed_'
'wit_'
'wished_'
'wired_'
'wiping_'
'wiped_'
'wig_'
'whores_'
'whispering_'
'whisper_'
'whirl_'
'whereabouts_'
'whacked_'
'western_'
'werewolf_'
'weekly_'
'weed_'
'weddings_'
'waving_'
'waterfall_'
'washed_'
'warriors_'
'wardrobe_'
'wandering_'
'wan_'
'wallet_'
'wakes_'
'wade_'
'vuota_'
'vulnerabile_'
'votato_'
'vortice_'
'vorreste_'
'von_'
'vomitato_'
'volunteer_'
'voltare_'
'vogliate_'
'vogliano_'
'vodka_'
'vocale_'
'viziato_'
'vivevano_'
'vivente_'
'vivendo_'
'vitali_'
'viste_'
'vissuta_'
'visitors_'
'visitare_'
'visions_'
'viscido_'
'virginity_'
'virgil_'
'violato_'
'vincero_'
'villagers_'
'vile_'
'vigile_'
'vidi_'
'videocamera_'
'victor_'
'vicinity_'
'vicinanze_'
'vertebrae_'
'versus_'
'versione_'
'versi_'
'versato_'
'verginita_'
'verdura_'
'verbale_'
'vent_'
'vene_'
'venduta_'
'vendono_'
'vendo_'
'vendite_'
'veglia_'
'veggy_'
'vedrete_'
'vedranno_'
'vedova_'
'vedessimo_'
'vast_'
'vassoio_'
'vaso_'
'vase_'
'varsity_'
'various_'
'vantaggi_'
'vanished_'
'vanish_'
'valzer_'
'valve_'
'valour_'
'valido_'
'validity_'
'valga_'
'valeva_'
'vacuum_'
'vacca_'
'utilizzata_'
'usiamo_'
'usi_'
'usero_'
'usciti_'
'uscisse_'
'usc_'
'usavi_'
'usate_'
'urlo_'
'urge_'
'uranium_'
'uranio_'
'upward_'
'upside_'
'upbringing_'
'unreliable_'
'unprecedented_'
'unpleasantness_'
'unmoved_'
'unlucky_'
'unlock_'
'università_'
'university_'
'universale_'
'unito_'
'unisci_'
'uniforme_'
'unhappy_'
'unghia_'
'unfortunately_'
'unfortunate_'
'unemployed_'
'uneasy_'
'underwear_'
'underwater_'
'undertaking_'
'understanding_'
'unbelievably_'
'unbelievable_'
'unarmed_'
'unanswered_'
'ultimatum_'
'ulteriori_'
'uguale_'
'uffici_'
'udito_'
'uccidesse_'
'uccide_'
'uccida_'
'tying_'
'twisting_'
'twisted_'
'twirl_'
'twins_'
'twin_'
'twilight_'
'twelve_'
'twat_'
'tuttofare_'
'tutt_'
'tutorial_'
'tutor_'
'turista_'
'turf_'
'turco_'
'turbato_'
'turbata_'
'tuning_'
'tumori_'
'tumore_'
'truccato_'
'troverò_'
'troverà_'
'troveresti_'
'trovate_'
'trovarvi_'
'trovarla_'
'trovai_'
'trotto_'
'troop_'
'tromba_'
'trips_'
'tricky_'
'tribute_'
'triangolo_'
'travels_'
'travel_'
'trattiene_'
'tratterà_'
'trattenersi_'
'trattenerla_'
'trattenendo_'
'trattato_'
'trasporteremo_'
'trasportare_'
'trasmissione_'
'trash_'
'trasforma_'
'trasferite_'
'trasferisce_'
'trasferimento_'
'trascorsi_'
'trascinare_'
'transport_'
'transmitter_'
'transmit_'
'translate_'
'trans_'
'tralasciato_'
'tralasciare_'
'trajectory_'
'traitor_'
'trainer_'
'trained_'
'trafficking_'
'trafficanti_'
'trafficante_'
'tradizionale_'
'traditions_'
'trading_'
'traded_'
'tractor_'
'traced_'
'towns_'
'towel_'
'tourist_'
'tossine_'
'toss_'
'tortura_'
'tortine_'
'torso_'
'torre_'
'torpedoes_'
'tornerà_'
'tornera_'
'tornado_'
'tormenti_'
'tormentato_'
'topo_'
'tool_'
'tonno_'
'tonic_'
'ton_'
'tom_'
'tollererò_'
'togliti_'
'toglieranno_'
'tocchiamo_'
'toccava_'
'toaster_'
'tiri_'
'tiratori_'
'tiratore_'
'tirata_'
'tirarti_'
'tips_'
'tipped_'
'timidi_'
'timer_'
'tiles_'
'tigri_'
'tights_'
'tiger_'
'tienitelo_'
'tienilo_'
'tick_'
'threatening_'
'thrashing_'
'thorn_'
'thirds_'
'thieving_'
'thieves_'
'thesis_'
'therefore_'
'therapist_'
'theme_'
'theatre_'
'thankful_'
'tettone_'
'tete_'
'testo_'
'terrorizzati_'
'terrorists_'
'terrore_'
'terro_'
'terrified_'
'terribili_'
'terreno_'
'terrain_'
'termometro_'
'termini_'
'terminal_'
'terapista_'
'tequilita_'
'teoria_'
'tenute_'
'tensione_'
'tenore_'
'tengono_'
'tenga_'
'tenete_'
'tended_'
'tend_'
'temporanea_'
'temperatura_'
'temete_'
'teletrasporto_'
'telephoning_'
'telegramma_'
'telegrafo_'
'telefonato_'
'teen_'
'tecnicismo_'
'tecnicamente_'
'techniques_'
'technique_'
'technically_'
'teatrale_'
'teams_'
'teaches_'
'taxes_'
'tax_'
'tavore_'
'tattooed_'
'tasto_'
'tastes_'
'tart_'
'targhe_'
'targets_'
'tare_'
'tanner_'
'tan_'
'talpa_'
'tales_'
'talents_'
'talent_'
'talco_'
'takin_'
'takeout_'
'tailing_'
'tags_'
'tagliato_'
'tagliano_'
'taglia_'
'tagli_'
'taci_'
'tabella_'
'tabacco_'
'sí_'
'sworn_'
'sword_'
'swoop_'
'switched_'
'swimming_'
'swelling_'
'sweaty_'
'swap_'
'swamp_'
'swallow_'
'swabbing_'
'svolta_'
'svolgendo_'
'sviluppo_'
'sviluppato_'
'sviluppare_'
'svignata_'
'svenuto_'
'sventola_'
'svegliati_'
'svegliatevi_'
'svegliarti_'
'svegliarsi_'
'svegliarlo_'
'suture_'
'suspension_'
'suspending_'
'suspected_'
'sushi_'
'susan_'
'survivor_'
'survival_'
'surname_'
'supporre_'
'supply_'
'supplies_'
'supervisore_'
'superstitious_'
'superstition_'
'supernatural_'
'supermercato_'
'superiority_'
'superficie_'
'supereroe_'
'suona_'
'suocera_'
'sunset_'
'sunrise_'
'sunflower_'
'sum_'
'sullo_'
'suite_'
'suicides_'
'suicidarti_'
'suggestion_'
'suggested_'
'suggerito_'
'suggerisco_'
'suggerisce_'
'sufficient_'
'sudditi_'
'sucked_'
'successone_'
'successivo_'
'successiva_'
'subspace_'
'submarine_'
'subjects_'
'subconscious_'
'stà_'
'stufi_'
'stufa_'
'studying_'
'stubborn_'
'struggling_'
'struggle_'
'structure_'
'stronzata_'
'strongly_'
'stronghold_'
'strongest_'
'strips_'
'stringere_'
'stretto_'
'stretch_'
'streams_'
'straw_'
'strato_'
'strategy_'
'straordinaria_'
'straniera_'
'strani_'
'straightened_'
'straccio_'
'stove_'
'storto_'
'stores_'
'stored_'
'stopping_'
'stocks_'
'stitches_'
'stink_'
'stings_'
'stime_'
'stiff_'
'sticking_'
'stessimo_'
'stessero_'
'stereo_'
'status_'
'stature_'
'statua_'
'statistiche_'
'stations_'
'stateside_'
'statale_'
'stashed_'
'starle_'
'starebbe_'
'standby_'
'stancato_'
'stall_'
'stake_'
'stairwell_'
'stagista_'
'stack_'
'staccato_'
'stabilita_'
'stabile_'
'st_'
'squirrel_'
'squilibrato_'
'spur_'
'spuntare_'
'spunta_'
'spostarti_'
'spontanea_'
'sponge_'
'spoil_'
'splendore_'
'splendido_'
'splendid_'
'spiritoso_'
'spinta_'
'spieghero_'
'spiegazioni_'
'spiegate_'
'spiders_'
'spiacevole_'
'spetta_'
'spessi_'
'sperimentale_'
'speravo_'
'spento_'
'spencer_'
'spells_'
'spelling_'
'spegnerlo_'
'spedizione_'
'spedisce_'
'spectacle_'
'specifica_'
'species_'
'speaker_'
'spaziale_'
'spazi_'
'spaventosa_'
'spaventa_'
'spatter_'
'sparisci_'
'spare_'
'sparano_'
'spagnolo_'
'spaces_'
'spacciatori_'
'spacciatore_'
'spa_'
'southwest_'
'sour_'
'sought_'
'sottovoce_'
'sottoterra_'
'sottile_'
'sostituito_'
'sostituire_'
'sostituendo_'
'sospetti_'
'sorvegliato_'
'sorted_'
'sorrow_'
'sorprese_'
'sorprende_'
'sorellina_'
'soprawivere_'
'sopravvissuto_'
'sopporto_'
'sophisticated_'
'soo_'
'sollevato_'
'sollevata_'
'sollevare_'
'solletico_'
'solitary_'
'solitario_'
'solitamente_'
'solita_'
'solida_'
'solenne_'
'soia_'
'sognando_'
'soglia_'
'soggetti_'
'soffra_'
'soffocata_'
'soffio_'
'soffiare_'
'soffia_'
'sofferto_'
'soddisfatto_'
'soddisfacente_'
'socket_'
'sock_'
'sociali_'
'soccer_'
'sneak_'
'sms_'
'smokescreen_'
'smetterai_'
'smelled_'
'smashed_'
'smartest_'
'smarter_'
'smarrito_'
'smallest_'
'slut_'
'slower_'
'slice_'
'sleepy_'
'sleeps_'
'sled_'
'slaves_'
'skinny_'
'skills_'
'skill_'
'skies_'
'sketch_'
'sixth_'
'situazioni_'
'sitter_'
'sites_'
'sistemati_'
'sistemarlo_'
'sire_'
'sip_'
'sintomo_'
'sintomi_'
'sino_'
'sink_'
'sinis_'
'simmer_'
'silk_'
'silent_'
'silence_'
'sii_'
'signorine_'
'signatures_'
'signals_'
'sigaro_'
'siedi_'
'sidro_'
'sidewalk_'
'sides_'
'shotgun_'
'shorts_'
'shortly_'
'shorter_'
'shoots_'
'shooter_'
'shook_'
'shockata_'
'shitty_'
'shithole_'
'shines_'
'sheriff_'
'sheep_'
'shed_'
'shaving_'
'sharp_'
'sharon_'
'sharks_'
'shares_'
'shared_'
'shaft_'
'shadows_'
'shade_'
'sgombra_'
'sgarbato_'
'sfumature_'
'sforzo_'
'sfogo_'
'sfigato_'
'sfavore_'
'severo_'
'sever_'
'seventeen_'
'settore_'
'settle_'
'sets_'
'sesto_'
'sesta_'
'servito_'
'servirebbe_'
'servira_'
'serves_'
'serrande_'
'serbo_'
'serate_'
'seppelliti_'
'sepoltura_'
'sepolto_'
'separation_'
'sentirti_'
'sentirtelo_'
'sentirebbe_'
'sentii_'
'sentenza_'
'senta_'
'sensazionale_'
'senatore_'
'semplici_'
'seminterrato_'
'seminario_'
'semi_'
'sembrera_'
'sembrate_'
'sella_'
'seguono_'
'seguo_'
'seguiti_'
'seguite_'
'seguirmi_'
'seguirli_'
'segui_'
'segue_'
'segua_'
'segretaria_'
'segnato_'
'seggi_'
'seepage_'
'seed_'
'sedute_'
'sedotta_'
'sediamoci_'
'sedersi_'
'sede_'
'sector_'
'section_'
'secchio_'
'secca_'
'sebbene_'
'seas_'
'searching_'
'sdraiata_'
'sdrai_'
'scuso_'
'scusiamo_'
'scudo_'
'scruples_'
'scrivete_'
'scrittura_'
'scritte_'
'scratched_'
'scovare_'
'scortese_'
'scores_'
'scoreggia_'
'scordato_'
'scordata_'
'scordare_'
'scopro_'
'scoprirai_'
'scopra_'
'scoperti_'
'scopato_'
'scopata_'
'scopa_'
'scoop_'
'sconvolto_'
'sconvolgente_'
'scontro_'
'scontata_'
'sconosciuti_'
'sconfitta_'
'scommesse_'
'scoiattolo_'
'sciolta_'
'sciocchi_'
'sciocca_'
'scimmietta_'
'scienziati_'
'scienziata_'
'scienza_'
'scientifico_'
'scientifica_'
'sciamano_'
'scia_'
'schools_'
'scholarship_'
'schmuck_'
'schizzi_'
'schizofrenica_'
'schiantata_'
'schiaffeggiato_'
'schermo_'
'schemes_'
'schegge_'
'scenery_'
'scenda_'
'scenate_'
'scellino_'
'scellini_'
'scava_'
'scarso_'
'scaricare_'
'scare_'
'scappiamo_'
'scappi_'
'scapperà_'
'scappati_'
'scappa_'
'scanner_'
'scandal_'
'scambiarci_'
'scambi_'
'scaldato_'
'sbrighi_'
'sbrigatevi_'
'sbrigarsi_'
'sbavando_'
'sbarazzarti_'
'sbagliavo_'
'sbagliando_'
'satisfied_'
'satelliti_'
'sat_'
'sareste_'
'saprò_'
'sapro_'
'sapranno_'
'saprai_'
'sappiate_'
'sapevano_'
'sapevamo_'
'sapessero_'
'sapendo_'
'santi_'
'sano_'
'sank_'
'sanguinando_'
'sand_'
'samurai_'
'sam_'
'salvatore_'
'salvadoregni_'
'saluti_'
'saltiamo_'
'salta_'
'salotto_'
'salmone_'
'salina_'
'salesman_'
'salame_'
'sakes_'
'sailor_'
'sailing_'
'sail_'
'saggi_'
'saga_'
'safer_'
'sadistic_'
'saddle_'
'sacrificed_'
'sacrificato_'
'sacca_'
'sabbia_'
'ruthless_'
'rumor_'
'ruled_'
'rubinetto_'
'rubando_'
'rovinate_'
'rovinata_'
'rovina_'
'rovescia_'
'rounds_'
'rotte_'
'rottame_'
'rotella_'
'rot_'
'rosse_'
'rosebud_'
'rope_'
'roommates_'
'roommate_'
'rookie_'
'rompermi_'
'rompano_'
'romanzi_'
'romance_'
'romana_'
'rolling_'
'rogue_'
'roger_'
'rodeo_'
'rode_'
'rocker_'
'robes_'
'robbing_'
'robbery_'
'robbers_'
'robber_'
'roast_'
'roared_'
'roar_'
'rivoluzione_'
'rivolto_'
'rivisto_'
'rivista_'
'rivendicando_'
'rivelera_'
'rivedro_'
'rivederti_'
'rivederlo_'
'riusciva_'
'riuscira_'
'riunita_'
'ritrovi_'
'ritratto_'
'ritornò_'
'ritorni_'
'ritornato_'
'ritornano_'
'ritmo_'
'ritiro_'
'ritirata_'
'rite_'
'risulta_'
'ristabiliti_'
'rispondo_'
'rispettare_'
'rispettabile_'
'risorse_'
'riserve_'
'riservati_'
'riscuotere_'
'riscontri_'
'rischioso_'
'rischiato_'
'riscatto_'
'risalire_'
'ripulito_'
'riprova_'
'ripristinare_'
'riprendo_'
'riprenderti_'
'riprendere_'
'riposa_'
'riporta_'
'ripeto_'
'ripeti_'
'ripetere_'
'ripercussione_'
'ripensato_'
'ripensarci_'
'riparato_'
'rinunciare_'
'rinuncia_'
'rinnovo_'
'rings_'
'ringraziarti_'
'ringraziarmi_'
'ringraziare_'
'ringing_'
'rimpatriata_'
'rimettersi_'
'rimedio_'
'rimediare_'
'rimasi_'
'rimangio_'
'rimanga_'
'rilevato_'
'rilassati_'
'rilassarsi_'
'rigirare_'
'rigido_'
'rigidi_'
'rigida_'
'riga_'
'riflettuto_'
'riflettendo_'
'riflesso_'
'riflessi_'
'rifiuto_'
'rifiutata_'
'riferito_'
'riferisci_'
'riferiro_'
'rifarsi_'
'rifare_'
'riesca_'
'rientra_'
'ridurre_'
'ridono_'
'rido_'
'ridicole_'
'ridicola_'
'ridden_'
'ricotta_'
'ricostruire_'
'ricordava_'
'ricordati_'
'ricordarmi_'
'ricordano_'
'ricopre_'
'riconoscimento_'
'riconosce_'
'richiesti_'
'richiede_'
'richiami_'
'richiamarmi_'
'richiamare_'
'richiama_'
'richer_'
'ricevo_'
'ricevimento_'
'ricchezze_'
'ribelli_'
'ribelle_'
'riaprire_'
'riaccompagnare_'
'ri_'
'rewind_'
'revisione_'
'reviews_'
'reverses_'
'revenge_'
'revelation_'
'reunion_'
'retribuito_'
'retina_'
'rests_'
'restricted_'
'restiamo_'
'resterà_'
'restero_'
'resterai_'
'restano_'
'responsabilità_'
'responds_'
'responders_'
'respira_'
'resort_'
'resistito_'
'resisti_'
'resistente_'
'resisted_'
'resign_'
'residenti_'
'resident_'
'resi_'
'reservation_'
'rescuing_'
'republic_'
'repressed_'
'representative_'
'replace_'
'repay_'
'repair_'
'rented_'
'rental_'
'rendo_'
'rendiamo_'
'renderti_'
'rendering_'
'rendere_'
'removal_'
'remote_'
'reminding_'
'remembering_'
'remarkable_'
'remainder_'
'religions_'
'relieved_'
'reletiviti_'
'relatives_'
'relation_'
'rejected_'
'reindeer_'
'reign_'
'rehearse_'
'rehearsal_'
'regrets_'
'regolamento_'
'registrazioni_'
'registrato_'
'registrarsi_'
'regista_'
'regions_'
'region_'
'reginetta_'
'regiments_'
'regardless_'
'regalato_'
'regalata_'
'regalare_'
'refuses_'
'refusal_'
'refuge_'
'refrigerators_'
'reference_'
'reevaluate_'
'recuperare_'
'recovered_'
'recognized_'
'recognise_'
'reclamo_'
'reckon_'
'recitare_'
'reception_'
'receives_'
'recall_'
'rebels_'
'rebel_'
'reazioni_'
'reato_'
'realizzato_'
'realistico_'
'reagito_'
'reagiscono_'
'react_'
'razzista_'
'raven_'
'ratto_'
'rats_'
'rash_'
'rarely_'
'rappresenta_'
'rapitore_'
'rapito_'
'raping_'
'rapinatori_'
'rank_'
'rang_'
'rane_'
'random_'
'rallentatore_'
'rallenta_'
'raised_'
'rainy_'
'rains_'
'ragionevole_'
'ragionamento_'
'raggiunta_'
'raggiunga_'
'ragazzini_'
'raffinato_'
'radios_'
'radioattiva_'
'racing_'
'raccontava_'
'raccontarla_'
'raccontare_'
'racconta_'
'raccolgono_'
'quinte_'
'questioning_'
'quesito_'
'quassu_'
'quarters_'
'quarantacinque_'
'quantities_'
'quanta_'
'qualità_'
'qualita_'
'qualifications_'
'quaggiù_'
'quadrant_'
'quaderno_'
'q_'
'puzzo_'
'puzzle_'
'puttin_'
'puttane_'
'pussy_'
'pushing_'
'pursue_'
'purse_'
'purposely_'
'purificazione_'
'pura_'
'puppy_'
'pupo_'
'punteggi_'
'punizioni_'
'puniti_'
'pumpkin_'
'pump_'
'pulsar_'
'pulls_'
'pulizia_'
'pulire_'
'pulendo_'
'pulci_'
'pugni_'
'pubblicita_'
'pubblici_'
'pubblicare_'
'psychiatric_'
'psichiatrico_'
'psichiatra_'
'prudent_'
'provvedimenti_'
'provisions_'
'provide_'
'proviamo_'
'proverò_'
'provera_'
'provenire_'
'proveniente_'
'proved_'
'provava_'
'protocollo_'
'protocol_'
'protetto_'
'protetta_'
'proteggerla_'
'protected_'
'prostitute_'
'prossime_'
'prospettive_'
'prospect_'
'prosecutor_'
'prosciutto_'
'proprietà_'
'proprieta_'
'proprie_'
'proposing_'
'proporre_'
'propaganda_'
'prop_'
'pronounce_'
'promozione_'
'proiezione_'
'progressista_'
'progressing_'
'programmi_'
'programmed_'
'programmare_'
'progettando_'
'profoundly_'
'profondi_'
'profilo_'
'profile_'
'professionisti_'
'professionista_'
'professionalmente_'
'produttrice_'
'production_'
'producono_'
'producers_'
'procurarci_'
'proceed_'
'procedure_'
'procedere_'
'probabilità_'
'probabilita_'
'priva_'
'priorità_'
'priority_'
'principio_'
'principali_'
'primogenito_'
'primitiva_'
'prigionia_'
'prezzi_'
'preziosa_'
'presunto_'
'presti_'
'presso_'
'pressioni_'
'pressed_'
'presidenza_'
'presero_'
'presenterà_'
'presenteremo_'
'presentata_'
'presentarvi_'
'prescribed_'
'presbiterio_'
'preparo_'
'preparata_'
'prepararti_'
'preoccupo_'
'preoccuperei_'
'preoccupati_'
'preoccuparsi_'
'prenotato_'
'prenotare_'
'prendine_'
'prendila_'
'prendetelo_'
'prenderò_'
'prendero_'
'prenderanno_'
'prematrimoniale_'
'preliminari_'
'prejudiced_'
'pregiudizi_'
'preferita_'
'preferirebbe_'
'predict_'
'preda_'
'precisamente_'
'precipice_'
'precedenza_'
'precauzione_'
'prayers_'
'prayer_'
'pratici_'
'pratiche_'
'pranzare_'
'pozzanghera_'
'powered_'
'povertà_'
'pouring_'
'potreste_'
'potion_'
'poterti_'
'potermi_'
'potenzialmente_'
'potential_'
'pot_'
'posted_'
'possibilities_'
'possesso_'
'possessed_'
'possess_'
'possano_'
'positions_'
'posa_'
'portico_'
'porterà_'
'portati_'
'portatelo_'
'portate_'
'portarvi_'
'portarmi_'
'portarli_'
'portafoglio_'
'portabagagli_'
'porn_'
'porcheria_'
'popularity_'
'popping_'
'popoli_'
'popolazione_'
'pope_'
'poorer_'
'ponti_'
'pompiere_'
'poltiglia_'
'polmone_'
'politics_'
'politicians_'
'politician_'
'politiche_'
'polio_'
'policemen_'
'polacco_'
'poke_'
'poisonous_'
'poisoning_'
'pointed_'
'poeta_'
'poems_'
'poem_'
'plus_'
'plunge_'
'plume_'
'plotone_'
'plot_'
'plentiful_'
'pleasing_'
'pleasant_'
'plaza_'
'players_'
'platoon_'
'plants_'
'planes_'
'plain_'
'placing_'
'pittura_'
'pittore_'
'pissed_'
'pisolino_'
'pisello_'
'piscina_'
'pisciare_'
'pipsqueak_'
'pipe_'
'piovere_'
'pinned_'
'pinch_'
'pimps_'
'pimp_'
'piloti_'
'pilot_'
'pillola_'
'pill_'
'pilgrim_'
'piles_'
'pigra_'
'pigeon_'
'piega_'
'piccolina_'
'picchiato_'
'picchiata_'
'piccante_'
'piattaforma_'
'pianist_'
'pianificando_'
'piangendo_'
'piacerà_'
'pi_'
'physics_'
'physician_'
'photon_'
'photographs_'
'photograph_'
'phony_'
'phenomena_'
'pharmacist_'
'pezzente_'
'pesi_'
'pesa_'
'pervertiti_'
'persuasive_'
'persuade_'
'perspective_'
'persons_'
'personnel_'
'personalmente_'
'personaggi_'
'perse_'
'persa_'
'perquisendo_'
'perpetual_'
'permetto_'
'permettero_'
'permettermi_'
'permettera_'
'permessi_'
'permessa_'
'permanente_'
'permanent_'
'perle_'
'perimeter_'
'periferia_'
'peri_'
'pergamena_'
'perfume_'
'performing_'
'performed_'
'perfette_'
'perfection_'
'perdo_'
'perdite_'
'perdiamo_'
'perdi_'
'perderò_'
'perderti_'
'perde_'
'percy_'
'percorso_'
'pentola_'
'pensioni_'
'pensione_'
'pensionati_'
'pension_'
'pensavi_'
'pensateci_'
'pensaci_'
'penny_'
'penetrata_'
'pene_'
'penalty_'
'penale_'
'pelo_'
'pegno_'
'pedoni_'
'pazientemente_'
'payments_'
'pause_'
'pattuglia_'
'pattinare_'
'pattern_'
'patteggiare_'
'patrols_'
'patrol_'
'paths_'
'pathetic_'
'patetica_'
'patente_'
'patched_'
'patatina_'
'pasta_'
'passport_'
'passing_'
'passes_'
'passenger_'
'passaporti_'
'passano_'
'partiti_'
'partite_'
'particular_'
'particles_'
'partial_'
'partecipare_'
'parlerò_'
'parlero_'
'parlavi_'
'parlavamo_'
'parlarvi_'
'parlano_'
'parked_'
'parete_'
'parente_'
'parallel_'
'paraculo_'
'paracadute_'
'pappagallo_'
'pappa_'
'papi_'
'panini_'
'pandemonio_'
'panda_'
'pancakes_'
'paludi_'
'palude_'
'palloncino_'
'palline_'
'palermitani_'
'palazzo_'
'palazzi_'
'paintball_'
'painless_'
'painkillers_'
'pah_'
'pago_'
'pagliaccio_'
'paghino_'
'pagherò_'
'paghero_'
'paghera_'
'pagando_'
'paga_'
'padroni_'
'packages_'
'pacchi_'
'oxygen_'
'owners_'
'owned_'
'overseas_'
'overheard_'
'oven_'
'outstanding_'
'outsider_'
'outfit_'
'outer_'
'oui_'
'oughta_'
'ottobre_'
'ottime_'
'otra_'
'ostili_'
'ostile_'
'ossessione_'
'osservato_'
'oscuro_'
'oscurità_'
'osanna_'
'osa_'
'ortopedia_'
'orso_'
'orphanage_'
'orientale_'
'orgy_'
'orgoglio_'
'orgia_'
'organizzando_'
'organization_'
'organismi_'
'orfana_'
'orecchio_'
'ordiniamo_'
'orchidee_'
'orbit_'
'orari_'
'optic_'
'operative_'
'operations_'
'operation_'
'operate_'
'operai_'
'openings_'
'op_'
'onorato_'
'onesti_'
'onestamente_'
'omelette_'
'omaggio_'
'oltretutto_'
'oltrepassare_'
'oldest_'
'oggigiorno_'
'ofthe_'
'offshore_'
'offrì_'
'offro_'
'offrirvi_'
'offrirti_'
'offrirmi_'
'offrire_'
'offre_'
'officials_'
'offering_'
'offerente_'
'offended_'
'odiava_'
'oceani_'
'occurred_'
'occur_'
'occupy_'
'occupied_'
'occupation_'
'occupati_'
'occupata_'
'occuparsene_'
'occupare_'
'obsolete_'
'observation_'
'obeys_'
'obey_'
'obbligo_'
'nè_'
'nuziale_'
'nuotare_'
'nuota_'
'nuns_'
'nun_'
'numb_'
'novita_'
'novel_'
'novanta_'
'nottata_'
'nota_'
'normalita_'
'nordest_'
'nord_'
'noodles_'
'nomini_'
'nominata_'
'noioso_'
'noia_'
'nodi_'
'nobili_'
'nipotino_'
'ninth_'
'ninja_'
'nightclub_'
'niggers_'
'nigga_'
'nient_'
'nickname_'
'nicer_'
'nicely_'
'ng_'
'newspapers_'
'nest_'
'nervi_'
'nerdy_'
'neonato_'
'neighbourhood_'
'neglected_'
'needing_'
'necklace_'
'necessity_'
'necessarily_'
'necessariamente_'
'nearing_'
'nazioni_'
'navigato_'
'naturally_'
'native_'
'nations_'
'nate_'
'nasconderti_'
'nascere_'
'narrativa_'
'napalm_'
'nano_'
'nani_'
'nail_'
'mutuo_'
'mutual_'
'mutilato_'
'mutation_'
'mutandine_'
'mustache_'
'musicisti_'
'musician_'
'musicali_'
'muscle_'
'murdering_'
'mura_'
'muovono_'
'muovetevi_'
'muovendo_'
'muova_'
'multiple_'
'multipla_'
'multa_'
'mugging_'
'muffin_'
'mucho_'
'mucche_'
'movements_'
'motion_'
'mostreremo_'
'mosso_'
'mosse_'
'morons_'
'moriva_'
'morisse_'
'morirà_'
'moriremo_'
'moriranno_'
'morira_'
'mordono_'
'morde_'
'morali_'
'monstrous_'
'monkeys_'
'monitors_'
'monastero_'
'monarch_'
'moms_'
'mollare_'
'molestata_'
'modificata_'
'modificare_'
'moderno_'
'moderna_'
'mmm_'
'mixer_'
'mittente_'
'mistrial_'
'missus_'
'misero_'
'misantropo_'
'mirino_'
'miraculous_'
'minus_'
'mint_'
'minima_'
'mines_'
'millionaire_'
'millimeter_'
'miliardo_'
'milady_'
'migrate_'
'migliorando_'
'migliaio_'
'mighty_'
'midollo_'
'mid_'
'microscope_'
'microfono_'
'microfilm_'
'mezzi_'
'metterli_'
'metterle_'
'metterebbe_'
'mettano_'
'metodi_'
'meteo_'
'mestiere_'
'messicana_'
'messages_'
'mescolati_'
'merged_'
'mercanzia_'
'mentore_'
'mento_'
'mentali_'
'menta_'
'memo_'
'meloni_'
'mele_'
'mee_'
'meds_'
'medieval_'
'medicinali_'
'mediche_'
'medals_'
'mechanic_'
'measures_'
'meager_'
'mazzo_'
'mayor_'
'mayday_'
'maudlin_'
'maturità_'
'mattress_'
'mattinata_'
'mates_'
'matematico_'
'masters_'
'massive_'
'massage_'
'massacrato_'
'mascalzone_'
'martial_'
'marrying_'
'marks_'
'mariti_'
'marcire_'
'marcia_'
'marchio_'
'marathon_'
'manutenzione_'
'manufacturer_'
'manually_'
'manto_'
'mantenerla_'
'mansion_'
'manomesso_'
'manoeuvres_'
'manners_'
'manner_'
'manifesto_'
'mangiavo_'
'mangiateli_'
'mangiarla_'
'mangero_'
'manette_'
'mandò_'
'manderanno_'
'mandarli_'
'mandando_'
'mancherai_'
'mancano_'
'managed_'
'manage_'
'mall_'
'malinteso_'
'maligno_'
'malfunction_'
'males_'
'maleducato_'
'maintain_'
'mailed_'
'maiden_'
'magro_'
'magnitude_'
'magicamente_'
'magazines_'
'mafia_'
'maestra_'
'madman_'
'machinery_'
'macellaio_'
'luxury_'
'lust_'
'lunghezza_'
'lunghe_'
'lunacy_'
'luminoso_'
'luglio_'
'lucida_'
'lucertola_'
'loyalty_'
'loyal_'
'lower_'
'lovers_'
'lousy_'
'lotto_'
'lottery_'
'lottare_'
'lottando_'
'lords_'
'loop_'
'lontanamente_'
'logico_'
'logical_'
'log_'
'lodato_'
'locks_'
'locker_'
'located_'
'locanda_'
'localizzare_'
'lobby_'
'loan_'
'lnsieme_'
'lmmagino_'
'lll_'
'litter_'
'litighiamo_'
'literature_'
'lite_'
'listens_'
'listed_'
'liquori_'
'liquor_'
'lining_'
'linguaggio_'
'linens_'
'limousine_'
'limone_'
'limitato_'
'limit_'
'likeness_'
'lightly_'
'lighting_'
'lieve_'
'lieta_'
'lice_'
'liberta_'
'liberata_'
'lettiera_'
'lets_'
'letali_'
'lessons_'
'lesbica_'
'lesbian_'
'leone_'
'lent_'
'lending_'
'legitimate_'
'leghe_'
'leggerlo_'
'legend_'
'legame_'
'leaning_'
'lealtà_'
'lealta_'
'leaks_'
'lawsuit_'
'lavoriamo_'
'lavoravi_'
'lavorava_'
'lavato_'
'lavatevi_'
'lavanderia_'
'laughed_'
'latter_'
'latino_'
'lati_'
'laser_'
'lasciarsi_'
'lasciarlo_'
'lasciarci_'
'lasciando_'
'lascerai_'
'las_'
'larger_'
'largely_'
'lands_'
'landlord_'
'landing_'
'lanciarmi_'
'lana_'
'lamp_'
'lamenti_'
'lamentata_'
'lamentarsi_'
'lamentando_'
'lame_'
'lambs_'
'lama_'
'lake_'
'ladri_'
'label_'
'knot_'
'knocking_'
'knives_'
'knitting_'
'kite_'
'kit_'
'kings_'
'kindly_'
'kilo_'
'kills_'
'kidnap_'
'kicks_'
'kicking_'
'kendrick_'
'keeper_'
'keen_'
'julie_'
'juice_'
'judgmental_'
'judges_'
'joyous_'
'journalist_'
'jonathan_'
'jokes_'
'joe_'
'jin_'
'jewelry_'
'jets_'
'jet_'
'jelly_'
'jeez_'
'jeep_'
'jeans_'
'jazz_'
'jaw_'
'jar_'
'james_'
'jacked_'
'jack_'
'items_'
'itching_'
'italiano_'
'istinto_'
'issues_'
'ispirazione_'
'isole_'
'isolation_'
'isolati_'
'isolata_'
'isolamento_'
'iscrizione_'
'irresponsible_'
'iron_'
'ipotesi_'
'involucro_'
'invitata_'
'invita_'
'invisible_'
'invisibility_'
'invisibile_'
'investors_'
'investment_'
'investiti_'
'investigator_'
'investigated_'
'invertito_'
'inversione_'
'invecchiato_'
'invade_'
'intrusione_'
'introduced_'
'intrigued_'
'intraprendere_'
'intrappolato_'
'intrappolate_'
'intontito_'
'intimi_'
'intima_'
'intesa_'
'intervallo_'
'interstatale_'
'interrupting_'
'interrotto_'
'interrompere_'
'interrogatorio_'
'interrogando_'
'interpretazioni_'
'interpretato_'
'interni_'
'intern_'
'interi_'
'interessati_'
'interessata_'
'interessanti_'
'interdentale_'
'intenso_'
'intensive_'
'intends_'
'intendevi_'
'intenda_'
'intelligenti_'
'intelligent_'
'intelletto_'
'intellectual_'
'integrale_'
'insulting_'
'insulted_'
'insult_'
'instantly_'
'instabile_'
'inspire_'
'inspection_'
'inspect_'
'insolito_'
'insolite_'
'insisto_'
'insistere_'
'insisted_'
'insist_'
'inserito_'
'inseguendo_'
'insanguinati_'
'insabbiare_'
'inopportuno_'
'innocence_'
'innit_'
'innaturale_'
'innamorarmi_'
'ink_'
'inizierebbero_'
'iniziativa_'
'iniziata_'
'iniziando_'
'iniziali_'
'initial_'
'iniettato_'
'inherit_'
'ingroppi_'
'ingrediente_'
'ingoiato_'
'ingiunzioni_'
'ingelosire_'
'inganni_'
'infuria_'
'infrangere_'
'informed_'
'informazione_'
'info_'
'influence_'
'infilarti_'
'infernale_'
'infermiere_'
'infelici_'
'infedele_'
'infected_'
'infastidito_'
'inevitable_'
'indossi_'
'individuare_'
'indispensabile_'
'indipendente_'
'indicator_'
'indicano_'
'indica_'
'indagando_'
'incuriosito_'
'incredibly_'
'incredibili_'
'increase_'
'incontrata_'
'incontrarmi_'
'incontrarlo_'
'incontrarci_'
'included_'
'inciso_'
'incidenti_'
'inchiostro_'
'inches_'
'inch_'
'incazzato_'
'incastrata_'
'incasinato_'
'incantevole_'
'incantesimo_'
'inappropriato_'
'inalazione_'
'imputato_'
'imputata_'
'impulso_'
'improvise_'
'improved_'
'imprevisto_'
'impressionare_'
'impression_'
'impostore_'
'implacabile_'
'impero_'
'impegnata_'
'impazzita_'
'impazzendo_'
'impaurito_'
'impatient_'
'imparano_'
'immunity_'
'immediato_'
'immediata_'
'immaginavo_'
'immacolata_'
'imitazione_'
'imagined_'
'imaginary_'
'illnesses_'
'ignoring_'
'ignorato_'
'ignorante_'
'igienica_'
'igiene_'
'ight_'
'idolo_'
'idiots_'
'identiche_'
'identical_'
'ideals_'
'ideal_'
'ictus_'
'ia_'
'hysterical_'
'hypoglycaemic_'
'hydraulic_'
'hussy_'
'hurrying_'
'hunter_'
'hung_'
'humankind_'
'hug_'
'hsmd_'
'household_'
'hourglass_'
'hotels_'
'hostile_'
'hostess_'
'host_'
'horror_'
'hopeless_'
'hop_'
'hooked_'
'honorable_'
'homie_'
'homework_'
'homemade_'
'holes_'
'hm_'
'hives_'
'hiker_'
'hideous_'
'heroin_'
'heroes_'
'henchman_'
'helpless_'
'helicopters_'
'heir_'
'heh_'
'heels_'
'heed_'
'heating_'
'heated_'
'heartburn_'
'healed_'
'headline_'
'hatch_'
'hassle_'
'harvest_'
'harry_'
'harper_'
'harmony_'
'hardest_'
'handy_'
'handling_'
'handles_'
'handed_'
'handbag_'
'hamster_'
'hallelujah_'
'hairs_'
'hacked_'
'gutters_'
'guru_'
'gunshot_'
'gum_'
'guidi_'
'guerriero_'
'guards_'
'guardavamo_'
'guardano_'
'guarantee_'
'guaio_'
'guadagno_'
'guadagni_'
'guadagnato_'
'gruppi_'
'grunting_'
'gru_'
'growth_'
'grill_'
'gridato_'
'gridare_'
'grey_'
'grenade_'
'greedy_'
'grazioso_'
'graziosa_'
'grazia_'
'gray_'
'gravity_'
'gravita_'
'gravidanza_'
'gravi_'
'graveyard_'
'gratitude_'
'grati_'
'grassa_'
'grape_'
'granted_'
'grano_'
'grandpa_'
'grandkids_'
'granate_'
'granata_'
'grammofono_'
'gradirebbe_'
'grades_'
'grad_'
'gracious_'
'grabs_'
'gown_'
'governments_'
'gossip_'
'gorilla_'
'gorgeous_'
'goosey_'
'goose_'
'gomito_'
'golfista_'
'goldfish_'
'goddesses_'
'goddamned_'
'goats_'
'goat_'
'glory_'
'glorioso_'
'globale_'
'glio_'
'gliela_'
'giustifica_'
'giuria_'
'giuramento_'
'giunto_'
'giudicarlo_'
'girato_'
'girati_'
'girate_'
'gioventù_'
'giostra_'
'giochetti_'
'giocattolo_'
'giocatori_'
'gifts_'
'giardini_'
'gialli_'
'ghinee_'
'ghiacciato_'
'getto_'
'gettin_'
'gettato_'
'gestisce_'
'gestendo_'
'geografia_'
'genuine_'
'gentle_'
'gennaio_'
'genetico_'
'generations_'
'generation_'
'generally_'
'gelosi_'
'gelatina_'
'gear_'
'gatta_'
'gathering_'
'garantire_'
'gamble_'
'gallina_'
'galante_'
'gains_'
'gaining_'
'gain_'
'gIi_'
'furbo_'
'furbi_'
'furba_'
'funghi_'
'funebre_'
'functioning_'
'function_'
'fumi_'
'fulmini_'
'fuegini_'
'fucks_'
'fuckers_'
'fucili_'
'fsp_'
'fry_'
'fruttare_'
'fruit_'
'frugando_'
'frozen_'
'froze_'
'frog_'
'frittata_'
'frightened_'
'frequenze_'
'frequenti_'
'frequentare_'
'frenesia_'
'frena_'
'fregare_'
'freezing_'
'freed_'
'fraud_'
'fratture_'
'fratellone_'
'frank_'
'frangente_'
'franca_'
'fragola_'
'fragile_'
'fox_'
'foundation_'
'foul_'
'fotografo_'
'fotografie_'
'fossa_'
'forzato_'
'forty_'
'forti_'
'fornello_'
'formidabile_'
'formale_'
'fork_'
'forgets_'
'forgave_'
'forfeited_'
'forecast_'
'ford_'
'forbid_'
'footing_'
'fonti_'
'fond_'
'folklore_'
'folk_'
'fogna_'
'foglio_'
'fogli_'
'focusing_'
'fluidi_'
'fluid_'
'fluffy_'
'flown_'
'flotta_'
'flirting_'
'flew_'
'fleeing_'
'flee_'
'fled_'
'flaws_'
'flattering_'
'flattered_'
'flame_'
'flags_'
'fissarmi_'
'fissa_'
'fisica_'
'fischio_'
'fischiavano_'
'firmi_'
'fireworks_'
'firewall_'
'fireman_'
'firefighter_'
'finì_'
'finocchi_'
'finishing_'
'finiscono_'
'finisci_'
'finiamo_'
'fingerprints_'
'fingendo_'
'finendo_'
'finanziario_'
'filmati_'
'figurati_'
'figliola_'
'figlie_'
'fights_'
'figa_'
'fifty_'
'fidava_'
'fidato_'
'fidarsi_'
'fidanzamento_'
'fico_'
'fiancée_'
'fi_'
'fetta_'
'festeggiata_'
'ferroviario_'
'fermeremo_'
'fermatevi_'
'fermarti_'
'fermarla_'
'fermano_'
'ferire_'
'fence_'
'femore_'
'fellows_'
'fees_'
'federal_'
'febbraio_'
'feast_'
'feared_'
'fbi_'
'fatty_'
'fattoria_'
'fato_'
'fathers_'
'fatal_'
'fashioned_'
'fascista_'
'fascino_'
'fascicolo_'
'farther_'
'fartelo_'
'faremmo_'
'farebbero_'
'fangs_'
'fango_'
'fanculo_'
'familiari_'
'familiare_'
'fama_'
'falsi_'
'falsa_'
'fallo_'
'fallita_'
'fallire_'
'faking_'
'fainted_'
'faint_'
'failing_'
'fagioli_'
'facolta_'
'facilita_'
'facial_'
'facessimo_'
'facemmo_'
'facciata_'
'facciale_'
'faccende_'
'eyed_'
'eyeball_'
'extortion_'
'exterior_'
'extended_'
'expressions_'
'explosives_'
'explore_'
'exploration_'
'explode_'
'expire_'
'experiments_'
'experiences_'
'expelled_'
'exorcist_'
'exits_'
'excursion_'
'exclusively_'
'excluded_'
'exciting_'
'excites_'
'exceptional_'
'exception_'
'examined_'
'examine_'
'exact_'
'evidentemente_'
'everyday_'
'events_'
'eventi_'
'evaluate_'
'evadere_'
'evacuazione_'
'evacuate_'
'eternal_'
'etched_'
'estivo_'
'esterni_'
'esterna_'
'estendere_'
'esteem_'
'established_'
'essi_'
'essersi_'
'esser_'
'essenziale_'
'essential_'
'esistesse_'
'eserciti_'
'esecuzione_'
'esecutivo_'
'escono_'
'esclusivo_'
'escalating_'
'esaurite_'
'esaurimento_'
'esaminate_'
'errate_'
'ergastolo_'
'erezione_'
'erection_'
'epoca_'
'episodi_'
'envy_'
'entrerò_'
'entrava_'
'entrate_'
'entrarci_'
'entrando_'
'enthusiasm_'
'entertainment_'
'enters_'
'ensure_'
'enlist_'
'engorged_'
'engineer_'
'encrypted_'
'emptied_'
'employers_'
'employees_'
'empire_'
'emotivo_'
'emotiva_'
'emissioni_'
'emerges_'
'embrace_'
'embarrass_'
'ellipsis_'
'ella_'
'elf_'
'elezioni_'
'elettori_'
'elettorale_'
'elemento_'
'eleggere_'
'eleganza_'
'elastico_'
'egoisti_'
'egoista_'
'efficient_'
'effective_'
'educata_'
'edifici_'
'edges_'
'edema_'
'eddie_'
'ecosystem_'
'eco_'
'eccola_'
'eccita_'
'eccezionale_'
'eccetto_'
'eccetera_'
'eccesso_'
'eccellente_'
'ebreo_'
'ebrei_'
'eats_'
'easiest_'
'earring_'
'dí_'
'durare_'
'durano_'
'dunque_'
'duellare_'
'ducks_'
'drugged_'
'driveway_'
'drivers_'
'drill_'
'dresses_'
'dreamt_'
'dreadful_'
'drawing_'
'dramma_'
'dramatically_'
'dramatic_'
'drama_'
'dragging_'
'downtown_'
'downside_'
'downs_'
'dovrete_'
'dovreste_'
'dovranno_'
'dovessimo_'
'doveri_'
'doughnuts_'
'douche_'
'dotto_'
'doti_'
'dormo_'
'dormiva_'
'doom_'
'doobi_'
'doo_'
'donuts_'
'donor_'
'dong_'
'donatore_'
'dominare_'
'domicilio_'
'domestico_'
'domestica_'
'domenica_'
'dome_'
'domando_'
'domandi_'
'doloroso_'
'doll_'
'dolcezza_'
'dolcemente_'
'dodgy_'
'documento_'
'docking_'
'dna_'
'divorziato_'
'divisione_'
'divisa_'
'divino_'
'dividere_'
'divertirti_'
'divertirmi_'
'diverting_'
'diventerò_'
'diventate_'
'divenne_'
'ditelo_'
'ditched_'
'disturba_'
'distruzione_'
'distruggerlo_'
'distrugge_'
'distributore_'
'distretto_'
'distinct_'
'dissero_'
'disposta_'
'display_'
'displaced_'
'dispiacerà_'
'disperazione_'
'disperato_'
'dispense_'
'disobey_'
'dislike_'
'disk_'
'dish_'
'disgrazia_'
'disgrace_'
'disegni_'
'disegnatore_'
'disegnato_'
'disegnare_'
'discussion_'
'disciplinary_'
'disciplinare_'
'disciplina_'
'disaster_'
'disarmato_'
'disappointments_'
'disappears_'
'disappearing_'
'disagree_'
'dircelo_'
'dipinti_'
'dipingere_'
'ding_'
'dimostrato_'
'dimostrati_'
'dimentichi_'
'dimenticate_'
'dimenticarlo_'
'dimentica_'
'dimensione_'
'dimagrire_'
'diligence_'
'dilettanti_'
'digs_'
'dignity_'
'dignita_'
'diglielo_'
'digital_'
'digging_'
'dig_'
'difficulty_'
'differenti_'
'differente_'
'differences_'
'difendo_'
'difendersi_'
'dieta_'
'dicembre_'
'diate_'
'diario_'
'dials_'
'diagramma_'
'devoting_'
'devils_'
'devastated_'
'dette_'
'detriti_'
'determinato_'
'determinare_'
'detergente_'
'detenzione_'
'detenuti_'
'detectors_'
'detector_'
'detailed_'
'det_'
'destruction_'
'destiny_'
'destination_'
'despair_'
'desiderato_'
'desidera_'
'describing_'
'describes_'
'descent_'
'dere_'
'depth_'
'deprimente_'
'depressed_'
'depositato_'
'deposit_'
'deplorevole_'
'depending_'
'departing_'
'dentist_'
'dentali_'
'demonstration_'
'demoni_'
'democracy_'
'demo_'
'demerito_'
'delusion_'
'deluge_'
'delude_'
'deliziosa_'
'delivery_'
'delivering_'
'deliveries_'
'delitti_'
'delighted_'
'delfini_'
'delay_'
'degenerati_'
'deformi_'
'deforme_'
'definite_'
'definire_'
'defence_'
'defective_'
'deeds_'
'deduzioni_'
'dedicated_'
'dedicarsi_'
'decrepit_'
'decree_'
'decontaminazione_'
'decomposizione_'
'decollare_'
'declared_'
'decisions_'
'decina_'
'decidiamo_'
'deciderai_'
'decente_'
'deceased_'
'decaf_'
'decades_'
'debolezze_'
'debito_'
'debbano_'
'dean_'
'daytime_'
'david_'
'davano_'
'dava_'
'datti_'
'datare_'
'darvi_'
'darsi_'
'darn_'
'dar_'
'dangerously_'
'dancer_'
'dan_'
'damigella_'
'dam_'
'dah_'
'cutting_'
'cutest_'
'customs_'
'custom_'
'curtains_'
'curtain_'
'curriculum_'
'curiosità_'
'curiosity_'
'curiosita_'
'curiosare_'
'curfew_'
'cupcake_'
'cupboard_'
'cunt_'
'cultura_'
'cugini_'
'cuciture_'
'cucino_'
'cucinato_'
'crystal_'
'crushing_'
'crushed_'
'crusade_'
'cruise_'
'crude_'
'crowns_'
'criticize_'
'cristallo_'
'criptata_'
'cripta_'
'crimini_'
'cricca_'
'crescita_'
'cresce_'
'crepe_'
'crepa_'
'crema_'
'creepy_'
'creep_'
'creduto_'
'credulona_'
'credimi_'
'crediamo_'
'credevi_'
'credevate_'
'credessi_'
'crederti_'
'credera_'
'creativo_'
'creating_'
'crawl_'
'crates_'
'crackers_'
'coverage_'
'courtroom_'
'couples_'
'counts_'
'costumi_'
'costruzione_'
'costruito_'
'costringerti_'
'costringere_'
'coscienza_'
'corsi_'
'corruption_'
'corrotto_'
'corrispondono_'
'corrispondenza_'
'corretto_'
'corretta_'
'correctly_'
'corre_'
'corporate_'
'coroner_'
'corona_'
'corno_'
'cordiali_'
'corda_'
'coprire_'
'copper_'
'copies_'
'copie_'
'copiato_'
'copiare_'
'copia_'
'coperto_'
'coperti_'
'cooties_'
'cooler_'
'cookie_'
'cooked_'
'convinzioni_'
'convincing_'
'convincerlo_'
'conviction_'
'convento_'
'convenevoli_'
'controllati_'
'controllando_'
'contribuire_'
'contratti_'
'contraddizioni_'
'contractor_'
'continuerà_'
'continueremo_'
'continuava_'
'continuano_'
'continuando_'
'continente_'
'contents_'
'contenti_'
'content_'
'contenitore_'
'contattato_'
'contato_'
'contarli_'
'contando_'
'contadini_'
'contacts_'
'contacted_'
'consumato_'
'consulto_'
'construct_'
'considerato_'
'consideration_'
'considerati_'
'considera_'
'conservato_'
'conservata_'
'consequences_'
'consequence_'
'consente_'
'consenso_'
'consegno_'
'consegnato_'
'consegnarli_'
'consegnare_'
'consegnando_'
'consegna_'
'conscious_'
'cons_'
'conquistato_'
'conosceva_'
'conoscervi_'
'conoscermi_'
'conoscerlo_'
'conoscenze_'
'conned_'
'coniglio_'
'congregation_'
'congratulations_'
'congratulate_'
'congelando_'
'congegno_'
'confusione_'
'confusing_'
'confronto_'
'confrontational_'
'confraternite_'
'confortevole_'
'confondere_'
'confondendo_'
'confidence_'
'confezione_'
'confessione_'
'confess_'
'confermarlo_'
'conducting_'
'conduct_'
'condolences_'
'condo_'
'condizione_'
'condizionale_'
'condannato_'
'concreta_'
'conclusa_'
'concesso_'
'concessione_'
'concerns_'
'concept_'
'concepito_'
'concentrato_'
'concentrarmi_'
'comunista_'
'comunicato_'
'comuni_'
'comrades_'
'compromesso_'
'compro_'
'compressa_'
'comprata_'
'comprarsi_'
'composta_'
'compositore_'
'composition_'
'composer_'
'comporto_'
'comportava_'
'comportata_'
'comportando_'
'component_'
'complicazioni_'
'complicazione_'
'complessi_'
'complaints_'
'compiuto_'
'compiere_'
'compie_'
'compi_'
'competizione_'
'competitive_'
'competenze_'
'compassionevole_'
'compassionate_'
'compass_'
'comparirà_'
'companionship_'
'comms_'
'commission_'
'commercial_'
'comment_'
'cominciando_'
'comic_'
'comforts_'
'comfort_'
'comedian_'
'combriccola_'
'combinazione_'
'combination_'
'combattuta_'
'combattono_'
'combattiamo_'
'combattendo_'
'combatte_'
'comandare_'
'comanda_'
'columns_'
'coltelli_'
'colpita_'
'colpirti_'
'colours_'
'colossale_'
'colonna_'
'colloqui_'
'collisione_'
'colletto_'
'collegio_'
'collegato_'
'collegano_'
'collegamento_'
'colleagues_'
'collassando_'
'collaboratori_'
'collaborare_'
'cole_'
'coins_'
'coils_'
'codependent_'
'codardo_'
'coda_'
'coccole_'
'coccodrillo_'
'cocco_'
'coca_'
'clues_'
'clueless_'
'cloudy_'
'clothing_'
'closes_'
'closely_'
'clinical_'
'clerk_'
'clearing_'
'clavicola_'
'classroom_'
'classes_'
'clan_'
'clad_'
'civilization_'
'cittadina_'
'circondato_'
'circondata_'
'circolo_'
'circles_'
'cinquecento_'
'cinese_'
'ciliegio_'
'ciglio_'
'ciglia_'
'cigarettes_'
'ciclo_'
'cicciona_'
'cicatrice_'
'ciascuno_'
'chuff_'
'chuck_'
'christmas_'
'chris_'
'chore_'
'choppers_'
'choosing_'
'choo_'
'chocolates_'
'chiusura_'
'chiudo_'
'chissà_'
'chirurgo_'
'chirurgia_'
'chinese_'
'chin_'
'chimney_'
'chilli_'
'chili_'
'childish_'
'childhood_'
'chihuahua_'
'chiesta_'
'chiedete_'
'chiedervi_'
'chiederlo_'
'chiederei_'
'chicks_'
'chicago_'
'chiasso_'
'chiara_'
'chiamami_'
'chewing_'
'chess_'
'chemist_'
'chemio_'
'cheerleader_'
'cheerful_'
'cheeks_'
'cheek_'
'checks_'
'cheaper_'
'charts_'
'charitable_'
'charging_'
'charged_'
'characters_'
'chapel_'
'chap_'
'champion_'
'chairs_'
'chairman_'
'ch_'
'cesto_'
'certificate_'
'ceremony_'
'cercavo_'
'cercavi_'
'cercatori_'
'cercarlo_'
'cercarla_'
'cercarci_'
'cera_'
'centuries_'
'cents_'
'centinaio_'
'centesimi_'
'cenno_'
'cenare_'
'cellulari_'
'celia_'
'celestiali_'
'celebrities_'
'ceiling_'
'cecchino_'
'cdove_'
'cc_'
'cazzi_'
'cave_'
'cavalry_'
'cavalieri_'
'cavalcare_'
'causate_'
'causando_'
'catturati_'
'catturata_'
'cattura_'
'cathedral_'
'catena_'
'category_'
'casualties_'
'casual_'
'casting_'
'casta_'
'casseforti_'
'casse_'
'casini_'
'cartella_'
'cart_'
'carrozza_'
'carro_'
'carriage_'
'caring_'
'carine_'
'carica_'
'cardiaco_'
'carcerati_'
'captured_'
'captivating_'
'cappuccino_'
'cappotta_'
'capivo_'
'capitale_'
'capital_'
'capisca_'
'capiro_'
'capii_'
'capezzolo_'
'cape_'
'capanno_'
'capacity_'
'canvas_'
'cantavi_'
'cantando_'
'canta_'
'cannons_'
'cannone_'
'candles_'
'candidati_'
'candidate_'
'candid_'
'cancro_'
'cancer_'
'cancellato_'
'canale_'
'canaglia_'
'cams_'
'camping_'
'campanile_'
'campaign_'
'camioncino_'
'cameriere_'
'cameretta_'
'cambiarlo_'
'cambiando_'
'cambi_'
'cam_'
'calomel_'
'calmed_'
'calmata_'
'calligrafia_'
'california_'
'caldi_'
'calcoli_'
'calcium_'
'calcagna_'
'cakes_'
'cagnetta_'
'cagato_'
'cagare_'
'café_'
'caffettiera_'
'caffetteria_'
'cacciatori_'
'cacciato_'
'cacca_'
'cable_'
'cHFFFFFF_'
'buzzed_'
'buzz_'
'buttons_'
'butto_'
'butti_'
'buttati_'
'busta_'
'bussola_'
'bussato_'
'busiest_'
'buses_'
'burke_'
'burgled_'
'burglary_'
'burgers_'
'bureau_'
'buonasera_'
'bunker_'
'bums_'
'bumps_'
'bulls_'
'buggy_'
'bug_'
'buds_'
'buddies_'
'buckle_'
'bucket_'
'buck_'
'buchi_'
'brute_'
'brutal_'
'brunch_'
'bruciato_'
'bruciare_'
'brucia_'
'brooke_'
'broham_'
'brodo_'
'broad_'
'brividi_'
'briefed_'
'brick_'
'brevemente_'
'breasts_'
'branco_'
'brakes_'
'brake_'
'bra_'
'bottles_'
'bottino_'
'botola_'
'bossing_'
'bosco_'
'boschi_'
'borse_'
'borne_'
'borghese_'
'boost_'
'boom_'
'booked_'
'boobs_'
'boob_'
'bone_'
'bombs_'
'bollitore_'
'bold_'
'boats_'
'bmw_'
'blunt_'
'bluff_'
'blows_'
'blown_'
'blorg_'
'blond_'
'bloke_'
'blocked_'
'bling_'
'bleed_'
'blankets_'
'blaming_'
'blamed_'
'blade_'
'blackmailed_'
'blabbering_'
'bizzarro_'
'bitter_'
'bitchy_'
'bisogni_'
'biscuit_'
'birre_'
'biopsy_'
'biondo_'
'bionda_'
'biology_'
'biografie_'
'binari_'
'bimbi_'
'bilancio_'
'bicycle_'
'bicchieri_'
'bicarbonate_'
'bibita_'
'bevuta_'
'beva_'
'betraying_'
'beta_'
'bestie_'
'berries_'
'berretto_'
'benvenuto_'
'bent_'
'benone_'
'benefits_'
'benefici_'
'beneficenza_'
'benedice_'
'beloved_'
'belonging_'
'belonged_'
'belly_'
'bellissimi_'
'belli_'
'believing_'
'believable_'
'behaviour_'
'begging_'
'beers_'
'beeping_'
'beef_'
'beccare_'
'beats_'
'beak_'
'battute_'
'batting_'
'battello_'
'battaglie_'
'batch_'
'basterebbe_'
'bastava_'
'bastare_'
'bassi_'
'basse_'
'bassa_'
'basket_'
'basically_'
'based_'
'barzelletta_'
'bart_'
'barren_'
'barrel_'
'barista_'
'barella_'
'barbiere_'
'barber_'
'barattato_'
'baracca_'
'banner_'
'banned_'
'bang_'
'bandits_'
'bandiera_'
'banconote_'
'bancone_'
'banco_'
'banana_'
'bambola_'
'baloney_'
'balliamo_'
'ballerina_'
'balla_'
'bakery_'
'baked_'
'bah_'
'bagni_'
'backup_'
'backpack_'
'background_'
'backed_'
'baciata_'
'baciare_'
'bacia_'
'bacchetta_'
'babes_'
'azzardo_'
'azzardare_'
'axe_'
'awhile_'
'awfully_'
'awe_'
'awaits_'
'avvoltoi_'
'avvisato_'
'avviciniamo_'
'avvicinarsi_'
'avvicinando_'
'avvertire_'
'avverti_'
'avversario_'
'avvenimenti_'
'avi_'
'avevate_'
'averne_'
'averci_'
'avanzato_'
'autunno_'
'autopsy_'
'autopsia_'
'automobile_'
'autograph_'
'autografare_'
'author_'
'auricolare_'
'aura_'
'aumento_'
'audizioni_'
'attuali_'
'attraversato_'
'attratto_'
'attivita_'
'attivare_'
'attitudine_'
'attic_'
'attacking_'
'attached_'
'attaccare_'
'attaccano_'
'attacca_'
'atroce_'
'atleta_'
'athletic_'
'astronave_'
'astronauti_'
'astronauta_'
'asta_'
'assure_'
'assurda_'
'assunta_'
'assume_'
'assorbire_'
'assomiglia_'
'assoluto_'
'assoluta_'
'assoldato_'
'assistito_'
'assisting_'
'assistenza_'
'assistenti_'
'assist_'
'assicurato_'
'assicurarti_'
'assicurarci_'
'asset_'
'assessing_'
'assenza_'
'assembling_'
'assegnati_'
'assault_'
'assassinio_'
'assassinato_'
'aspettero_'
'aspettavano_'
'aspettava_'
'aspettative_'
'aspettatemi_'
'aspettai_'
'asma_'
'asks_'
'asino_'
'ash_'
'ascoltavo_'
'asciugamani_'
'artiglieria_'
'artifact_'
'articoli_'
'arrogante_'
'arrogant_'
'arrivino_'
'arrives_'
'arriveremo_'
'arriveranno_'
'arriverai_'
'arrivederci_'
'arrivaste_'
'arrivasse_'
'arrests_'
'arrestarlo_'
'arrestano_'
'arrendiamo_'
'arrendermi_'
'arrabbiarsi_'
'arrabbiare_'
'aroused_'
'arie_'
'argument_'
'argued_'
'archivio_'
'architecture_'
'arachide_'
'arabo_'
'aprono_'
'approvazione_'
'appropriate_'
'approfittato_'
'approfittarne_'
'approfittando_'
'apprezzi_'
'apprezza_'
'apposta_'
'applying_'
'apply_'
'application_'
'appiattirlo_'
'appetito_'
'appeso_'
'appello_'
'appeared_'
'appearance_'
'appealing_'
'appartamenti_'
'apparso_'
'apparire_'
'appare_'
'apologise_'
'api_'
'ape_'
'apartments_'
'ants_'
'antidepressants_'
'anticipato_'
'anthropologist_'
'anteriore_'
'antenna_'
'antenati_'
'annuncio_'
'annunciato_'
'annunciare_'
'annunci_'
'annullato_'
'annullare_'
'annoying_'
'annoyed_'
'announcing_'
'announcement_'
'annoio_'
'annegato_'
'animo_'
'angoscia_'
'angeli_'
'anelli_'
'andy_'
'andrete_'
'ando_'
'andiamocene_'
'andassimo_'
'anchor_'
'analista_'
'amongst_'
'amnesia_'
'ammissione_'
'ammissibile_'
'ammiratori_'
'ammiraglio_'
'ammira_'
'amministratori_'
'ammesso_'
'ammazzi_'
'ammanettato_'
'ammalato_'
'ammalare_'
'amir_'
'amen_'
'ambitious_'
'ambientali_'
'amavo_'
'amava_'
'alzi_'
'alzare_'
'alza_'
'altrettanto_'
'although_'
'alterato_'
'alter_'
'alongside_'
'allungato_'
'allucinazioni_'
'allucinazione_'
'allontanato_'
'allontana_'
'allevare_'
'allerta_'
'allergico_'
'allergica_'
'allenamento_'
'allegra_'
'alleati_'
'alimenti_'
'alimentazione_'
'alimentare_'
'ali_'
'alert_'
'alcolico_'
'album_'
'ala_'
'aiuterò_'
'aiuterà_'
'aiuterebbe_'
'aiutatemi_'
'aisle_'
'aisha_'
'agrees_'
'agnello_'
'aglio_'
'agito_'
'aging_'
'aggressione_'
'aggiunto_'
'aggiornare_'
'aggiornando_'
'agganciato_'
'agencies_'
'afghani_'
'affondo_'
'affollato_'
'affinché_'
'affianco_'
'afferrato_'
'afferma_'
'affected_'
'affect_'
'affascinante_'
'aerea_'
'advocate_'
'advised_'
'advanced_'
'adults_'
'adorano_'
'adorable_'
'adorabili_'
'adoption_'
'admitting_'
'admire_'
'admiral_'
'adjust_'
'adeguatamente_'
'addresses_'
'addormento_'
'additional_'
'addition_'
'addicts_'
'addiction_'
'added_'
'adaptor_'
'acts_'
'acquistato_'
'accusing_'
'accusata_'
'accountable_'
'accorto_'
'accorsi_'
'accorga_'
'accordingly_'
'according_'
'accordi_'
'accomplished_'
'accomplices_'
'accompany_'
'accompagno_'
'accompagnarmi_'
'accidentalmente_'
'accettabili_'
'accettabile_'
'accetta_'
'accese_'
'accertarsi_'
'acceptance_'
'accennato_'
'accadrà_'
'accadde_'
'abuso_'
'absorb_'
'absolute_'
'aborto_'
'abode_'
'abitui_'
'abituarmi_'
'abitua_'
'abita_'
'abilities_'
'abilita_'
'abbracciata_'
'abbandoneremo_'
'abbandonate_'
'aI_'
'] - _'
'\u _'
'[.._'
'Zuko_'
'Zia_'
'Zhen_'
'Zeus_'
'Zaius_'
'ZPM_'
'ZBZ_'
'Yoshiko_'
'Yoon_'
'Yentl_'
'YOUNG_'
'Xi_'
'Xavier_'
'Wu_'
'Wrong_'
'Worth_'
'Worst_'
'Working_'
'Worf_'
'Wordy_'
'Woody_'
'Woodcomb_'
'Woe_'
'Wise_'
'Wisconsin_'
'Wipe_'
'Winter_'
'Windsor_'
'Win_'
'Wimbledon_'
'Wilshire_'
'Wilkes_'
'Wild_'
'Whiskey_'
'Westminster_'
'Western_'
'Westen_'
'Wes_'
'Wen_'
'Wells_'
'Weaver_'
'Weather_'
'War_'
'Wang_'
'Wanda_'
'Walsh_'
'Walden_'
'Waiting_'
'Wah_'
'WORKED_'
'WON_'
'WILL_'
'WELCOME_'
'WAY_'
'WAS_'
'WANTED_'
'WAIT_'
'Và_'
'Vyse_'
'Voss_'
'Vorremmo_'
'Vizier_'
'Vivien_'
'Viv_'
'Vito_'
'Visiontext_'
'Virus_'
'Viola_'
'Villaggio_'
'Villa_'
'Vicki_'
'Vicini_'
'Vic_'
'Vestito_'
'Versailles_'
'Vern_'
'Verell_'
'Venice_'
'Veniamo_'
'Venere_'
'Venduto_'
'Vendi_'
'Velocita_'
'Vediamoci_'
'Veda_'
'Vasia_'
'Vargas_'
'Vanessa_'
'Vance_'
'Valerie_'
'Valencia_'
'Vacanza_'
'VOICE_'
'Utako_'
'Usually_'
'Used_'
'Usa_'
'Upstairs_'
'Update_'
'Uomini_'
'Unlike_'
'Università_'
'University_'
'Unit_'
'Understand_'
'Ultimamente_'
'Uhh_'
'Ugly_'
'Ufficialmente_'
'Ufficiale_'
'US_'
'USA_'
'UNIT_'
'Typical_'
'Turkish_'
'Tulsa_'
'Truth_'
'Trunks_'
'Troy_'
'Troviamo_'
'Troverò_'
'Trovero_'
'Trovato_'
'Troppe_'
'Trojan_'
'Trish_'
'Tribune_'
'Trenta_'
'Trench_'
'Tree_'
'Trecento_'
'Treacher_'
'Tranquilli_'
'Tranquilla_'
'Tranne_'
'Train_'
'Toxie_'
'Tough_'
'Totally_'
'Torres_'
'Torrente_'
'Torre_'
'Toro_'
'Torneremo_'
'Tornare_'
'Topper_'
'Toorop_'
'Toomy_'
'Took_'
'Toni_'
'Toki_'
'Toglilo_'
'Toglie_'
'Titans_'
'Tiro_'
'Tirare_'
'Tiny_'
'Tin_'
'Timmy_'
'Tijuana_'
'Tight_'
'Thunderbolt_'
'Thumper_'
'Thorpe_'
'Thorne_'
'Thompson_'
'Thing_'
'Thierry_'
'Theresa_'
'Therefore_'
'Theater_'
'Teyla_'
'Texaco_'
'Testa_'
'Terrore_'
'Terribly_'
'Terrence_'
'Terranova_'
'Temple_'
'Television_'
'Telefono_'
'Teddy_'
'Tau_'
'Tatiana_'
'Tang_'
'Tancredi_'
'Tammy_'
'Tamara_'
'Talking_'
'Takeshi_'
'Takayama_'
'Tak_'
'Tai_'
'Taglieremo_'
'Tac_'
'TS_'
'TRYING_'
'TOMORROW_'
'TOLD_'
'TIME_'
'THREE_'
'THOSE_'
'THAN_'
'THANKS_'
'TARDIS_'
'TAKE_'
'Sí_'
'System_'
'Sylvia_'
'Sydnor_'
'Switch_'
'Sweetie_'
'Sweetheart_'
'Sweden_'
'Sweat_'
'Swallow_'
'Surrey_'
'Superman_'
'Suoi_'
'Sung_'
'Suede_'
'Sudbury_'
'Subtitles_'
'Styles_'
'Stupido_'
'Stuff_'
'Studio_'
'Strip_'
'Strauss_'
'Strange_'
'Story_'
'Stories_'
'Stewie_'
'Stern_'
'Starà_'
'Starring_'
'Starfleet_'
'Staremo_'
'Standing_'
'Stamper_'
'Stalin_'
'Staff_'
'Stackhouse_'
'Stacey_'
'Springs_'
'Spring_'
'Sporco_'
'Spit_'
'Spirito_'
'Spike_'
'Spesso_'
'Spera_'
'Spegni_'
'Sparks_'
'Sparisci_'
'Spagna_'
'Sottotitoli_'
'Sort_'
'Sorridi_'
'Sorpresa_'
'Sopravviveremo_'
'Sopravvivera_'
'Soprano_'
'Sopra_'
'Song_'
'Soltanto_'
'Sold_'
'Solar_'
'Society_'
'Snick_'
'Smoking_'
'Smart_'
'Sloane_'
'Sloan_'
'Slater_'
'Skinner_'
'Sisters_'
'Sister_'
'Sistema_'
'Sinistra_'
'Sinceramente_'
'Sin_'
'Silenzio_'
'Signorine_'
'Sicuramente_'
'Siam_'
'Shue_'
'Shiva_'
'Shiring_'
'Shin_'
'Sherlock_'
'Sheppard_'
'Shepherd_'
'Shep_'
'Shelley_'
'Sharp_'
'Shanghai_'
'Shangai_'
'Shake_'
'Seymour_'
'Sex_'
'Seul_'
'Seta_'
'Servono_'
'Servizio_'
'Serve_'
'Sergei_'
'September_'
'Sentivo_'
'Sensei_'
'Senatore_'
'Senato_'
'Sembravi_'
'Selma_'
'Sell_'
'Seiji_'
'Seguiremo_'
'Seduti_'
'Sebastian_'
'Seamus_'
'Scozia_'
'Scout_'
'Scomparso_'
'Schneider_'
'Schmidt_'
'Scherzi_'
'Scherzavo_'
'Scarlett_'
'Scarface_'
'Scarabeo_'
'Sbrigatevi_'
'Sbaglio_'
'Saxon_'
'Saw_'
'Satellite_'
'Saresti_'
'Sarei_'
'Sarebbero_'
'Saracen_'
'Sangue_'
'Sandra_'
'Sanchez_'
'Samuel_'
'Salvatore_'
'Salvation_'
'Salga_'
'Safety_'
'Sad_'
'Sachiko_'
'SUV_'
'STOP_'
'STILL_'
'START_'
'SONO_'
'SEAL_'
'SAID_'
'Rygel_'
'Ruxin_'
'Russ_'
'Rufus_'
'Rue_'
'Ruba_'
'Row_'
'Rosario_'
'Roosevelt_'
'Ronald_'
'Román_'
'Romero_'
'Romans_'
'Roman_'
'Rolls_'
'Robie_'
'Robbie_'
'Ritorno_'
'Rispondi_'
'Rise_'
'Ripley_'
'Rinuncia_'
'Rino_'
'Ringraziamento_'
'Ringrazia_'
'Rimettilo_'
'Rimani_'
'Rimane_'
'Riempi_'
'Ricordati_'
'Ricordate_'
'Ricomincio_'
'Rickie_'
'Rickard_'
'Riccardo_'
'Rhonda_'
'Rhodes_'
'Rho_'
'Reverendo_'
'Reverend_'
'Revenge_'
'Respira_'
'Resisti_'
'Resistenza_'
'Reservation_'
'Requisizione_'
'Republican_'
'Repeat_'
'Reno_'
'Remind_'
'Reilly_'
'Refresh_'
'Reeves_'
'Reed_'
'Rawls_'
'Ravi_'
'Rats_'
'Rat_'
'Raph_'
'Raoul_'
'Rangers_'
'Ramsey_'
'Rama_'
'Rain_'
'Rahl_'
'Ragazze_'
'Rae_'
'Rachid_'
'RJ_'
'RIGGS_'
'R2_'
'Quote_'
'Quinta_'
'Quickly_'
'Quentin_'
'Queens_'
'Quanta_'
'Quand_'
'Quadrante_'
'Qaeda_'
'Push_'
'Prudence_'
'Proviamo_'
'Proteggimi_'
'Proteggere_'
'Prosegui_'
'Prophets_'
'Promises_'
'Progetto_'
'Procuratore_'
'Proceed_'
'Proceda_'
'Problems_'
'Problemi_'
'Principessa_'
'Press_'
'Presa_'
'Prepara_'
'Preoccuparti_'
'Prendiamo_'
'Prendeteli_'
'Prenderemo_'
'Preghiamo_'
'Preferiresti_'
'Precisamente_'
'Pre_'
'Pray_'
'Praga_'
'Powers_'
'Povera_'
'Potts_'
'Potevi_'
'Possiede_'
'Portia_'
'Porterò_'
'Porte_'
'Portato_'
'Portami_'
'Portali_'
'Pops_'
'Poppy_'
'Popcorn_'
'Pop_'
'Pontefract_'
'Polo_'
'Poe_'
'Poco_'
'Plan_'
'Piuttosto_'
'Pity_'
'Pittsburgh_'
'Piselli_'
'Pip_'
'Piove_'
'Pink_'
'Pilot_'
'Pilgrims_'
'Photo_'
'Phillips_'
'Phillip_'
'Philips_'
'Phew_'
'Peterson_'
'Persone_'
'Personalmente_'
'Personally_'
'Personal_'
'Persino_'
'Perry_'
'Permettimi_'
'Perdy_'
'Perdonatemi_'
'Perciò_'
'PerchÃ_'
'Pepe_'
'Pensavi_'
'Pensai_'
'Pensaci_'
'Pennsylvania_'
'Penicillina_'
'Pen_'
'Peg_'
'Peel_'
'Pee_'
'Pechino_'
'Pazienza_'
'Pax_'
'Paulene_'
'Pat_'
'Past_'
'Passato_'
'Passami_'
'Passa_'
'Parte_'
'Part_'
'Parsons_'
'Parrish_'
'Parlo_'
'Parliament_'
'Parleremo_'
'Parlate_'
'Parlamento_'
'Papi_'
'Pamela_'
'Palm_'
'Paige_'
'Pages_'
'Padrone_'
'Padrino_'
'Paddy_'
'Pack_'
'PUT_'
'PS_'
'PROBLEM_'
'PRIMA_'
'PRETTY_'
'PG_'
'PEOPLE_'
'PASS_'
'Ozarks_'
'Ottaviano_'
'Otis_'
'Otherwise_'
'Oskar_'
'Osanna_'
'Orton_'
'Orpheus_'
'Organizzare_'
'Orders_'
'Orchestra_'
'Orb_'
'Orange_'
'Ops_'
'Operation_'
'Onward_'
'Omicidio_'
'Ombra_'
'Omaha_'
'Oleg_'
'Okey_'
'Oil_'
'Oi_'
'Ognuno_'
'Odora_'
'Occupato_'
'Occupati_'
'Obelix_'
'OVER_'
'OO_'
'OOO_'
'ONLY_'
'Nugent_'
'Nub_'
'Nowhere_'
'Nossignora_'
'Norvegese_'
'Nor_'
'Nonostante_'
'Nonno_'
'Noche_'
'Nobel_'
'Noah_'
'Ning_'
'Niles_'
'Nikki_'
'Niki_'
'Nient_'
'Nicola_'
'Nicholson_'
'Nichols_'
'Newport_'
'Newman_'
'Nera_'
'Neppure_'
'Nelson_'
'Nello_'
'Negozio_'
'Negativo_'
'Nearly_'
'Near_'
'Neanch_'
'Nazi_'
'Nature_'
'National_'
'Naruto_'
'Narrator_'
'Napoli_'
'Naomi_'
'Name_'
'Naina_'
'Nails_'
'Nagel_'
'NORMAN_'
'NON_'
'NONE_'
'NFL_'
'NE_'
'NEVER_'
'NBA_'
'NASA_'
'Muslim_'
'Murderer_'
'Muoversi_'
'Mummy_'
'Mulholland_'
'Muir_'
'Muhammad_'
'Mugging_'
'Mpudi_'
'Mozzie_'
'Mozart_'
'Moya_'
'Moving_'
'Movin_'
'Movie_'
'Mouse_'
'Moses_'
'Mose_'
'Morto_'
'Morrow_'
'Moran_'
'Moose_'
'Montparnasse_'
'Month_'
'Monte_'
'Montana_'
'Monta_'
'Mondiali_'
'Momma_'
'Miyuki_'
'Mitsuko_'
'Mitch_'
'Minnesota_'
'Minchia_'
'Mimura_'
'Milord_'
'Milan_'
'Mikhail_'
'Miei_'
'Michio_'
'Michele_'
'Michaela_'
'Metto_'
'Mettilo_'
'Mettile_'
'Mettetelo_'
'Mettero_'
'Mettere_'
'Metta_'
'Metropolis_'
'Melrose_'
'Meiji_'
'Media_'
'Medal_'
'McVeigh_'
'McLaren_'
'McCullough_'
'McCormack_'
'Mayor_'
'Maurice_'
'Matty_'
'Math_'
'Mate_'
'Matador_'
'Maschera_'
'Masako_'
'Marta_'
'Mart_'
'Marquis_'
'Marlboro_'
'Marks_'
'Marissa_'
'Mariposa_'
'Marion_'
'Marianne_'
'Marge_'
'Mare_'
'Marcos_'
'Mantide_'
'Mantere_'
'Mano_'
'Manny_'
'Maniaco_'
'Manhattan_'
'Mangiare_'
'Mangialo_'
'Mandi_'
'Manchester_'
'Manager_'
'Malloy_'
'Malibu_'
'Maledetti_'
'Mala_'
'Maj_'
'Main_'
'Mahjong_'
'Magico_'
'Magazzino_'
'Mae_'
'Madison_'
'Macy_'
'Machine_'
'Mace_'
'Mabel_'
'MURDER_'
'MI_'
'MINUTE_'
'MIA_'
'MI6_'
'MA_'
'MASUDA_'
'MARK_'
'Léon_'
'Lux_'
'Lupo_'
'Lupita_'
'Lupin_'
'Luoyang_'
'Lunedì_'
'Lundy_'
'Luisa_'
'Luigi_'
'Lucio_'
'Lucia_'
'Luce_'
'Luann_'
'Lu_'
'Lt_'
'Lowell_'
'Loving_'
'Lovin_'
'Lousy_'
'Louder_'
'Lotte_'
'Lots_'
'Lost_'
'Lorraine_'
'Lori_'
'Lords_'
'Lopez_'
'Lontano_'
'Loki_'
'Lockwood_'
'Living_'
'Liu_'
'Lisbeth_'
'Ling_'
'Lina_'
'Limited_'
'Lima_'
'Lilly_'
'Lighting_'
'Liddy_'
'Lf_'
'Levatevi_'
'Lester_'
'Lejeune_'
'Leggi_'
'Leary_'
'Leader_'
'Layton_'
'Lay_'
'Lawson_'
'Law_'
'Lavoriamo_'
'Lavorava_'
'Laugh_'
'Late_'
'Lassiter_'
'Lasciati_'
'Largo_'
'Large_'
'Lara_'
'Landry_'
'Land_'
'Lancia_'
'Lancelot_'
'Lance_'
'Lana_'
'Laggiù_'
'Lacy_'
'Lacey_'
'LSD_'
'LOT_'
'LOOKS_'
'LONG_'
'LIKE_'
'LAUGHS_'
'Kyung_'
'Kurdistan_'
'Krypton_'
'Krum_'
'Kringelein_'
'Kowalski_'
'Korean_'
'Korea_'
'Kono_'
'Koba_'
'Ko_'
'Knocking_'
'Knight_'
'Knew_'
'Kirsten_'
'Kirk_'
'Kiriko_'
'Kirby_'
'Kira_'
'Kingo_'
'Kingdom_'
'Kinda_'
'Killing_'
'Killer_'
'Killed_'
'Kev_'
'Kenya_'
'Kenji_'
'Kendra_'
'Kemp_'
'Kelvin_'
'Keeps_'
'Keeping_'
'Keeley_'
'Keeler_'
'Kaylie_'
'Kawada_'
'Katya_'
'Kat_'
'Karev_'
'Kang_'
'Kale_'
'Kahlan_'
'KING_'
'KILL_'
'KGB_'
'Jupiter_'
'Judy_'
'Judge_'
'Jude_'
'Josef_'
'Jorge_'
'Jordy_'
'Jong_'
'Jonah_'
'Jon_'
'Jolie_'
'Joaquin_'
'Joanna_'
'Jmo_'
'Jingle_'
'Jing_'
'Ji_'
'Jewish_'
'Jet_'
'Jerk_'
'Jer_'
'Jeong_'
'Jenn_'
'Jem_'
'Jekyll_'
'Jeffersonian_'
'Jed_'
'Je_'
'Jax_'
'Janice_'
'Janet_'
'Janeiro_'
'Jaguar_'
'Jaffe_'
'Jacks_'
'JOHN_'
'JOE_'
'JJ_'
'Ivy_'
'Its_'
'Italia_'
'Ispettore_'
'Isabelle_'
'Irina_'
'Irene_'
'Iranian_'
'Inutile_'
'Intendevo_'
'Intende_'
'Insalata_'
'Iniziamo_'
'Inizi_'
'Inhale_'
'Inghilterra_'
'Ines_'
'Indovina_'
'Incredible_'
'Including_'
'Improvvisamente_'
'Immaginate_'
'Imlay_'
'Illinois_'
'Ike_'
'Iike_'
'Ii_'
'Idiota_'
'Iddio_'
'Ichi_'
'Iced_'
'ISIS_'
'IF_'
'Hundreds_'
'Humphrey_'
'Hughes_'
'Huge_'
'Hudson_'
'Huddle_'
'Huang_'
'Hoyt_'
'Howdy_'
'Hoskins_'
'Hopkins_'
'Hopefully_'
'Hop_'
'Hook_'
'Hood_'
'Honolulu_'
'Holmes_'
'Hollis_'
'Hoffman_'
'Hodgins_'
'Hodes_'
'Hmmm_'
'Hiro_'
'Hire_'
'Hip_'
'Hills_'
'Highness_'
'Higgins_'
'Hide_'
'Hidden_'
'Henrik_'
'Helene_'
'Helena_'
'Heights_'
'Hector_'
'Heaven_'
'Heather_'
'Heath_'
'Hearst_'
'Hawaii_'
'Haru_'
'Hart_'
'Hardy_'
'Hardly_'
'Hara_'
'Hao_'
'Hans_'
'Hanna_'
'Hammond_'
'Hale_'
'Hair_'
'Hagrid_'
'Hadar_'
'HELP_'
'HARD_'
'Gοοd_'
'Gwen_'
'Gunderson_'
'Guinea_'
'Guillermo_'
'Guards_'
'Guardian_'
'Guardia_'
'Guardatevi_'
'Grover_'
'Groovy_'
'Gregor_'
'Greetings_'
'Greenwich_'
'Greatest_'
'Grayson_'
'Grandi_'
'Grandfather_'
'Graham_'
'Grae_'
'Gracie_'
'Gotham_'
'Gossip_'
'Goodwin_'
'Gong_'
'Gomez_'
'Golden_'
'Gogh_'
'Goditi_'
'Gob_'
'Goa_'
'Glock_'
'Glasses_'
'Given_'
'Giulietta_'
'Giuliana_'
'Giudice_'
'Gisborne_'
'Giravamo_'
'Girati_'
'Giove_'
'Giornata_'
'Giorgio_'
'Ginny_'
'Gin_'
'Gibbons_'
'Giapponese_'
'Gerry_'
'Geordi_'
'Geoffrey_'
'Gate_'
'Gasps_'
'Gansu_'
'Gandalf_'
'Game_'
'Gambrelli_'
'Gam_'
'Galoop_'
'Galen_'
'Galactica_'
'Gaius_'
'Gae_'
'Gadge_'
'Gaby_'
'GIRL_'
'Führer_'
'Fuochino_'
'Fuma_'
'Fuller_'
'Frutto_'
'Frost_'
'Frodo_'
'Frobisher_'
'Friends_'
'Freedom_'
'Freddy_'
'Freddie_'
'Franny_'
'Frankly_'
'Franklin_'
'Frankenstein_'
'Franca_'
'Fra_'
'Forty_'
'Fortunatamente_'
'Forte_'
'Forma_'
'Forge_'
'Forever_'
'Football_'
'Fool_'
'Food_'
'Fong_'
'Foley_'
'Flower_'
'Flip_'
'Fletcher_'
'Fitzpatrick_'
'Fitz_'
'Fiori_'
'Finish_'
'Finiscila_'
'Finirò_'
'Film_'
'Fill_'
'Filadelfia_'
'Figurati_'
'Figo_'
'Fidel_'
'Fico_'
'Fermala_'
'Felix_'
'Feels_'
'Feel_'
'Federation_'
'February_'
'Fear_'
'Faye_'
'Fatevi_'
'Fatemi_'
'Fast_'
'Farà_'
'Farr_'
'Farnsworth_'
'Fargo_'
'Farewell_'
'Farei_'
'Farebbe_'
'Faranno_'
'Fanny_'
'Fancher_'
'Fammici_'
'Fammelo_'
'Falling_'
'Falco_'
'Fae_'
'Facevo_'
'Facemmo_'
'Face_'
'Facciamoci_'
'Facci_'
'FOUND_'
'FINE_'
'FEELING_'
'Express_'
'Evidentemente_'
'Eureka_'
'Eunsik_'
'Eugenio_'
'Ethan_'
'Esther_'
'Essendo_'
'Escluso_'
'Esamina_'
'Ernie_'
'Eravate_'
'Er_'
'Episodio_'
'Entro_'
'Entriamo_'
'Entri_'
'Entrambi_'
'Enjoying_'
'Emmy_'
'Emerson_'
'Elyse_'
'Elvis_'
'Elton_'
'Elsa_'
'Elka_'
'Eliza_'
'Eleven_'
'Egli_'
'Egg_'
'Edison_'
'Echo_'
'Eccone_'
'Eccellenza_'
'Ebrei_'
'Eating_'
'Eastern_'
'Eagle_'
'ELIZABETH_'
'Dustin_'
'Dunno_'
'Dumbo_'
'Duecentomila_'
'Duck_'
'Dry_'
'Drugs_'
'Drecker_'
'Dream_'
'Dracula_'
'Dovrà_'
'Dovro_'
'Dovreste_'
'Dovrai_'
'Dovevamo_'
'Dorthe_'
'Dormi_'
'Dora_'
'Dopodiche_'
'Door_'
'Dominic_'
'Doing_'
'Doe_'
'Dodgy_'
'Dj_'
'Diwali_'
'Divertiti_'
'Divertitevi_'
'Dite_'
'Disciplinare_'
'Diro_'
'Diretto_'
'Directed_'
'Dire_'
'Dion_'
'Dino_'
'Dinky_'
'Dinah_'
'Din_'
'Dimitri_'
'Dillo_'
'Dietrich_'
'Didi_'
'Dickie_'
'Dicevano_'
'Diavolo_'
'Diamine_'
'Derrick_'
'Deputy_'
'Democracy_'
'Demetrius_'
'Della_'
'Delhi_'
'Deep_'
'Debbie_'
'Dayton_'
'Dawn_'
'Davey_'
'Data_'
'Darò_'
'Daryl_'
'Darnell_'
'Darlene_'
'Dark_'
'Daremo_'
'Daphne_'
'Dante_'
'Daniels_'
'Dane_'
'Dammelo_'
'Dallas_'
'Dall_'
'Daleks_'
'Daily_'
'DOES_'
'DIDN_'
'DA_'
'DATE_'
'DARCY_'
'Cyril_'
'Cuori_'
'Cruz_'
'Crown_'
'Crostata_'
'Cristina_'
'Crimes_'
'Crewe_'
'Credono_'
'Credevi_'
'Credeva_'
'Credetti_'
'Crawley_'
'Crack_'
'Cox_'
'Course_'
'Couple_'
'Costruire_'
'Cossack_'
'Cose_'
'Corona_'
'Copenhagen_'
'Cook_'
'Controllo_'
'Controllate_'
'Controlla_'
'Conte_'
'Contanti_'
'Contact_'
'Consiglio_'
'Connery_'
'Connecticut_'
'Connect_'
'Conlon_'
'Congresso_'
'Congressional_'
'Confess_'
'Conan_'
'Computer_'
'Comportati_'
'Compagno_'
'Committee_'
'Commissione_'
'Commissario_'
'Comincia_'
'Colt_'
'Colpiscilo_'
'Colpisci_'
'Colpa_'
'Colonial_'
'Colombo_'
'College_'
'Colleen_'
'Colbert_'
'Cola_'
'Cohen_'
'Coco_'
'Clinton_'
'Cleo_'
'Clean_'
'Class_'
'Città_'
'Cittadella_'
'Circa_'
'Cinquemila_'
'Cinquanta_'
'Cile_'
'Cigarette_'
'Cielo_'
'Churchill_'
'Church_'
'Chung_'
'Chuckles_'
'Chu_'
'Christina_'
'Christie_'
'Christa_'
'Choco_'
'Chiudere_'
'Chino_'
'Ching_'
'Childs_'
'Child_'
'Chiesa_'
'Chiediglielo_'
'Chiediamo_'
'Chiederò_'
'Chicken_'
'Chiarissimo_'
'Chevy_'
'Chevron_'
'Chevrolet_'
'Chet_'
'Cheri_'
'Chemistry_'
'Checkmate_'
'Chatter_'
'Charley_'
'Changing_'
'Chance_'
'Chalky_'
'Chae_'
'Cha_'
'Cesare_'
'Cesar_'
'Cerchi_'
'Cercava_'
'Cercatore_'
'Central_'
'Centinaia_'
'Center_'
'Cena_'
'Celia_'
'Celeste_'
'Cavoli_'
'Cavaliere_'
'Cattivo_'
'Catholic_'
'Castello_'
'Cassius_'
'Cass_'
'Casper_'
'Carrot_'
'Carolyn_'
'Carolina_'
'Carne_'
'Carmichael_'
'Carmen_'
'Carluccio_'
'Carlisle_'
'Carey_'
'Cardassiani_'
'Cardassian_'
'Cardassia_'
'Caramelle_'
'Car_'
'Caporale_'
'Capirai_'
'Cap_'
'Canyon_'
'Cane_'
'Candleford_'
'Cancellato_'
'Canadian_'
'Campbell_'
'Cammina_'
'Cammie_'
'Camilo_'
'Camille_'
'Camilla_'
'Camelot_'
'Came_'
'Cam_'
'Callisto_'
'Callie_'
'Caleb_'
'Caffè_'
'Cafe_'
'Caddy_'
'CRU_'
'COULD_'
'COSI_'
'COOKS_'
'COOKIES_'
'COMES_'
'CJ_'
'CHE_'
'CHEERING_'
'CAT_'
'CAA_'
'Buzz_'
'Buy_'
'Butter_'
'Buttate_'
'Butt_'
'Burt_'
'Burrows_'
'Burning_'
'Burn_'
'Burmese_'
'Bunker_'
'Bunch_'
'Bullit_'
'Bug_'
'Buffo_'
'Bubbles_'
'Brutus_'
'Brutta_'
'Brothers_'
'Brooks_'
'Broadway_'
'Brinkmann_'
'Brilliant_'
'Briggs_'
'Bridgette_'
'Brick_'
'Bret_'
'Bree_'
'Braun_'
'Brasile_'
'Brandt_'
'Brandi_'
'Braddock_'
'Boyle_'
'Bowman_'
'Bowen_'
'Bournemouth_'
'Bosco_'
'Boris_'
'Borgman_'
'Borg_'
'Boone_'
'Book_'
'Bond_'
'Bombs_'
'Bo_'
'Bloody_'
'Blessed_'
'Bless_'
'Bismarck_'
'Birds_'
'Bird_'
'Binky_'
'Bingo_'
'Bingley_'
'Billie_'
'Biggie_'
'Bierko_'
'Bianco_'
'Beware_'
'Between_'
'Beto_'
'Bessie_'
'Bertie_'
'Bernard_'
'Bering_'
'Bergen_'
'Berg_'
'Beragon_'
'Benvenuti_'
'Benvenuta_'
'Bentornata_'
'Benson_'
'Benji_'
'Bellissimo_'
'Belgio_'
'Belgian_'
'Become_'
'Beatles_'
'Beat_'
'Bear_'
'Bay_'
'Bawan_'
'Battaglia_'
'Batman_'
'Bass_'
'Basically_'
'Base_'
'Barrett_'
'Barranca_'
'Baron_'
'Barca_'
'Barbie_'
'Barber_'
'Barbara_'
'Barb_'
'Bar_'
'Bannister_'
'Banner_'
'Balliamo_'
'Ballant_'
'Balcani_'
'Bajoran_'
'Bajor_'
'Baciami_'
'BUSSANO_'
'BOTH_'
'BIG_'
'BEING_'
'BBC_'
'Azione_'
'Ayrs_'
'Axl_'
'Ax_'
'Awful_'
'Away_'
'Avremmo_'
'Avery_'
'Average_'
'Aver_'
'Ava_'
'Autistico_'
'Aurore_'
'Aurora_'
'Aunt_'
'Augusto_'
'Augusta_'
'Audi_'
'Attivare_'
'Attacca_'
'Atlantico_'
'Atlantic_'
'Athens_'
'Athena_'
'Asuna_'
'Asta_'
'Assurdo_'
'Assomiglia_'
'Assistant_'
'Assassino_'
'Aspetto_'
'Aspetterò_'
'Ash_'
'Art_'
'Arrogante_'
'Arrivero_'
'Arriveremo_'
'Arrested_'
'Arrenditi_'
'Around_'
'Armi_'
'Armenians_'
'Armando_'
'Arm_'
'Arizona_'
'Aria_'
'Ari_'
'Argo_'
'Archie_'
'Arcade_'
'Arabic_'
'Arabia_'
'Arab_'
'Approach_'
'Anywhere_'
'Antoine_'
'Ant_'
'Annabelle_'
'Angus_'
'Angels_'
'Andrò_'
'Andre_'
'Andie_'
'Andai_'
'Anakin_'
'Ammetto_'
'Americans_'
'Americano_'
'Americani_'
'Ambition_'
'Ambassador_'
'Amazon_'
'Amazing_'
'Amava_'
'Alzheimer_'
'Alzatevi_'
'Altezza_'
'Alsi_'
'Alps_'
'Almost_'
'Almighty_'
'Ally_'
'Alive_'
'Alfie_'
'Alesha_'
'Alert_'
'Alec_'
'Albuquerque_'
'Akbar_'
'Aires_'
'Aiko_'
'Ahm_'
'Ahhh_'
'Agenti_'
'Agency_'
'Against_'
'Afternoon_'
'Adoha_'
'Adele_'
'Addirittura_'
'Add_'
'Activate_'
'Across_'
'Ace_'
'Accosta_'
'Abel_'
'Abed_'
'Abbandono_'
'ASAP_'
'APPLAUSE_'
'ANYTHING_'
'AM_'
'ALLA_'
'AIfie_'
'AIDS_'
'?"._'
'90s_'
'900_'
'85_'
'84_'
'80s_'
'800_'
'68_'
'65_'
'63_'
'600_'
'59_'
'57_'
'56_'
'55_'
'53_'
'520_'
'505_'
'49_'
'44_'
'43_'
'41_'
'37_'
'350_'
'34_'
'325_'
'31_'
'30s_'
'270_'
'260_'
'220_'
'20s_'
'2008_'
'1st_'
'19th_'
'1994_'
'1980_'
'1955_'
'180_'
'170_'
'15th_'
'1500_'
'1350_'
'130_'
'10000_'
'07_'
'..." _'
'... ♪_'
'... ._'
'... - ... _'
'... '_'
'... # _'
'... "..._'
'.. . - _'
'.. - _'
'.- _'
'.,_'
'.#_'
'. ._'
'. .._'
'. - ..._'
'. (*_'
'--- _'
'- ♪ _'
'- [_'
'- ( _'
',..._'
',... .. _'
',.. .._'
', " _'
'***_'
'*****_'
'):_'
'), _'
'':_'
'': _'
''.._'
''"?_'
''! _'
'# "_'
'".._'
'"'_'
'""_'
'!", _'
'! "_'
' ♪ - _'
' ¶¶_'
' ¶¶ ¶¶ _'
' ~_'
' }_'
' :_'
' : "_'
' / _'
' - - _'
' ,_'
' * * _'
' $ _'
' # # - _'
' ! - _'
'밢ften_'
'♪_'
'♪ - ♪ _'
'♪ "_'
'€, _'
'ى_'
'ё_'
'οut_'
'Υοu_'
'Υeah_'
'Κick_'
'Βecause_'
'Αnd_'
'în_'
'ínízío_'
'íl_'
'ìo_'
'ìl_'
'ë_'
'ê_'
'ètuopadre_'
'Ýrfan_'
'Öztürk_'
'Ömer_'
'Ãˆ_'
'¿_'
'¶ _'
'³_'
'©, _'
'© _'
'¤ _'
'£_'
'¡¯_'
' ? _'
' ._'
' ! _'
' _'
'}# _'
'} _'
'zuccherose_'
'zuccherino_'
'zucca_'
'zotico_'
'zoppo_'
'zoommato_'
'zooma_'
'zoom_'
'zookeeper_'
'zoobi_'
'zombies_'
'zoe_'
'zoccolo_'
'zoccoli_'
'zoccoletti_'
'zoccola_'
'zizzania_'
'zitelle_'
'zippity_'
'zipping_'
'zippers_'
'zipped_'
'zingaro_'
'zingara_'
'zeri_'
'zeppelin_'
'zenzero_'
'zen_'
'zeal_'
'zavorra_'
'zattera_'
'zanzara_'
'zanna_'
'zampone_'
'zampillando_'
'zampa_'
'zaino_'
'zabaglione_'
'z0_'
'yοur_'
'yöu_'
'yzma_'
'yummy_'
'youth_'
'youse_'
'yourtongue_'
'yourmessage_'
'yourdad_'
'youngest_'
'youhadherkilled_'
'youexpect_'
'york_'
'yonder_'
'yokels_'
'yogurt_'
'yob_'
'yin_'
'yikes_'
'yield_'
'yeti_'
'yeshiva_'
'yep_'
'yella_'
'yell_'
'yeast_'
'yatzee_'
'yarrow_'
'yards_'
'yard_'
'yanks_'
'yankee_'
'yank_'
'yan_'
'yakuza_'
'yah_'
'y2k_'
'xvi_'
'x_'
'wurstel_'
'wrought_'
'wrongs_'
'wristbands_'
'wrinkles_'
'wrinkle_'
'wretched_'
'wreck_'
'wraths_'
'wrath_'
'wrappers_'
'worthwhile_'
'worshipping_'
'worship_'
'worsened_'
'worn_'
'worms_'
'wormholes_'
'worldtreader_'
'worlds_'
'workaholic_'
'woong_'
'woodwinds_'
'woodshed_'
'woodsen_'
'woodhouse_'
'wood_'
'wondered_'
'womb_'
'womars_'
'woe_'
'wobbles_'
'wobbler_'
'wizz_'
'wizard_'
'wiz_'
'wives_'
'wits_'
'withheld_'
'withdrew_'
'withdrawal_'
'wishy_'
'wishing_'
'wisely_'
'wiring_'
'wipe_'
'winsome_'
'wings_'
'wingman_'
'winged_'
'windshield_'
'winds_'
'windowsill_'
'windmill_'
'winding_'
'wimpy_'
'willy_'
'willingness_'
'willies_'
'willfully_'
'wildest_'
'wilderness_'
'wildcat_'
'wienie_'
'widespread_'
'widen_'
'whupping_'
'whupped_'
'whittle_'
'whitelilac_'
'whit_'
'whistle_'
'whispered_'
'whip_'
'whinnying_'
'whimsical_'
'whetheryou_'
'whenyouspendmostofyourlife_'
'wheeler_'
'wheelchair_'
'wheat_'
'whats_'
'whateverfit_'
'whatchamacallit_'
'whataboutall_'
'wharf_'
'whale_'
'wesley_'
'werert_'
'wentown_'
'wench_'
'welcoming_'
'welcomed_'
'weirding_'
'weirdest_'
'weighing_'
'weighed_'
'weeps_'
'weekends_'
'weedsticker_'
'wee_'
'wediscover_'
'wedged_'
'wedded_'
'website_'
'weave_'
'weathered_'
'wearin_'
'wealthy_'
'weakling_'
'watts_'
'watery_'
'waters_'
'waterfront_'
'waterfalls_'
'watercolored_'
'watchtower_'
'watches_'
'wasteful_'
'wastebasket_'
'washy_'
'washing_'
'warship_'
'warrior_'
'warrington_'
'warred_'
'warrants_'
'warnings_'
'warmth_'
'warms_'
'warmest_'
'warmer_'
'warmed_'
'warehoused_'
'warehouse_'
'wanker_'
'wank_'
'wanes_'
'wanders_'
'wandered_'
'wander_'
'walter_'
'walt_'
'wallpaper_'
'walkie_'
'walker_'
'wales_'
'waking_'
'waitresses_'
'waistcoat_'
'wail_'
'wagons_'
'wagon_'
'wage_'
'wads_'
'vvrath_'
'vuote_'
'vuotate_'
'vulnerabilità_'
'vulnerability_'
'vulcano_'
'voyeurs_'
'voyages_'
'vows_'
'vowel_'
'vowed_'
'votive_'
'voted_'
'votare_'
'vorrete_'
'vorremo_'
'vongola_'
'vomitero_'
'vomitarli_'
'vomit_'
'vom_'
'volutamente_'
'voluntary_'
'volts_'
'volti_'
'volteggio_'
'volteal_'
'voltato_'
'voltasse_'
'voltarti_'
'voltarmi_'
'voltage_'
'volontario_'
'volontariato_'
'volontaria_'
'volontari_'
'volle_'
'voli_'
'volgeva_'
'volgari_'
'volgare_'
'volessero_'
'voles_'
'volerti_'
'volertene_'
'volero_'
'volendo_'
'volatile_'
'volati_'
'volassi_'
'vola_'
'vol_'
'voices_'
'voialtre_'
'voglie_'
'vocina_'
'vocali_'
'viziosi_'
'viziati_'
'viziata_'
'viziare_'
'vizi_'
'vivrete_'
'vivono_'
'vivido_'
'vividi_'
'vivici_'
'viviamo_'
'vivevo_'
'vivevate_'
'viveva_'
'viverla_'
'viverequi_'
'vivaio_'
'vivace_'
'vittoriosa_'
'vittimologia_'
'vitrify_'
'vitello_'
'vitamine_'
'vitally_'
'vitalizio_'
'vital_'
'visuale_'
'visual_'
'visone_'
'visive_'
'visits_'
'visitatori_'
'visitando_'
'visitabile_'
'visionato_'
'visible_'
'visibile_'
'visas_'
'virtù_'
'virtuous_'
'virtuosissima_'
'virtue_'
'virtually_'
'virtualizzati_'
'virologi_'
'virili_'
'virile_'
'virgolette_'
'viren_'
'virato_'
'virali_'
'viral_'
'vira_'
'vip_'
'viottolo_'
'violoncello_'
'violoncellista_'
'violins_'
'violino_'
'violet_'
'violenze_'
'violently_'
'violations_'
'violation_'
'violate_'
'viola_'
'vintage_'
'vinta_'
'vini_'
'vine_'
'vincono_'
'vincolata_'
'vinco_'
'vinci_'
'vincerla_'
'vinceremo_'
'vinceranno_'
'vincerai_'
'vincera_'
'vincente_'
'villino_'
'villico_'
'ville_'
'villain_'
'vikings_'
'vigore_'
'vigna_'
'vigliacchi_'
'vigilanti_'
'vigilante_'
'views_'
'viewing_'
'viewer_'
'vietnamita_'
'viendrai_'
'videotape_'
'videos_'
'videoregistratore_'
'videoing_'
'videoclip_'
'videocassetta_'
'videocamere_'
'viddy_'
'vida_'
'victorious_'
'victimology_'
'vicolo_'
'vicki_'
'viciously_'
'vicious_'
'vicinissima_'
'vichinghi_'
'vicesceriffo_'
'vicedirettore_'
'vice_'
'vic_'
'vibrazioni_'
'vibratore_'
'vibe_'
'vials_'
'viali_'
'viale_'
'viaggiato_'
'viaggiano_'
'viaggiando_'
'viaggia_'
'viaggerete_'
'viaaaaaa_'
'vezzeggiano_'
'vetture_'
'vetta_'
'vetrine_'
'veti_'
'veterinary_'
'veterinario_'
'veterani_'
'vet_'
'vesto_'
'vestirti_'
'vestirsi_'
'veste_'
'vessillo_'
'vessels_'
'vescica_'
'vertito_'
'vertigini_'
'vertice_'
'verticale_'
'vertebrale_'
'versioni_'
'verses_'
'versatile_'
'versata_'
'versarlo_'
'verruca_'
'verrete_'
'verremo_'
'verrei_'
'verrebbe_'
'vernice_'
'vermin_'
'verificheranno_'
'verificato_'
'verificare_'
'verificando_'
'vergognosa_'
'vergogno_'
'vergognavo_'
'vergognato_'
'vergognarti_'
'vergognarsi_'
'vergognare_'
'vergognarci_'
'vergine_'
'verge_'
'verdes_'
'verbi_'
'verbal_'
'verande_'
'venute_'
'ventures_'
'ventunesimo_'
'ventricolare_'
'ventricle_'
'ventola_'
'ventisettesimo_'
'ventiquattro_'
'venting_'
'ventilazione_'
'ventilation_'
'ventidue_'
'venticinquesimo_'
'venticinque_'
'venni_'
'venivo_'
'venivi_'
'venissero_'
'venirmi_'
'venirli_'
'venirci_'
'venir_'
'vengeful_'
'venerdì_'
'venerato_'
'vener_'
'venefico_'
'vendichero_'
'vendicata_'
'vendicarti_'
'vendicare_'
'vendica_'
'vendevi_'
'vendeva_'
'venderla_'
'vendendo_'
'venal_'
'velvet_'
'velocità_'
'velocity_'
'velo_'
'velenosi_'
'vele_'
'veins_'
'vein_'
'vehicles_'
'veglierà_'
'veggenza_'
'veggente_'
'vegetazione_'
'vegetativi_'
'vegetarians_'
'vegetariano_'
'vegetali_'
'vegetable_'
'vegemite_'
'vegas_'
'vegani_'
'vega_'
'vedrò_'
'vedrà_'
'vedremmo_'
'vedra_'
'vedevi_'
'vedesse_'
'vedertela_'
'vederne_'
'vedermelo_'
'vederli_'
'vederle_'
'veder_'
'vedele_'
'vector_'
'vecchietto_'
'vecchiaia_'
'vecchiaccio_'
'vaì_'
'vaulted_'
'vastly_'
'vasoconstriction_'
'vasi_'
'vascolare_'
'vaschette_'
'vasche_'
'varies_'
'varie_'
'variabili_'
'variabile_'
'varcai_'
'vapore_'
'vano_'
'vanity_'
'vanita_'
'vanishes_'
'vangare_'
'vanessa_'
'vanesio_'
'vamps_'
'vampiri_'
'vampata_'
'valves_'
'valutazione_'
'valuta_'
'valued_'
'valorously_'
'valori_'
'valmid_'
'valley_'
'valletti_'
'valium_'
'valiantly_'
'valgono_'
'valesse_'
'valere_'
'valenza_'
'vain_'
'vaiindietro_'
'vaguely_'
'vague_'
'vagone_'
'vaginas_'
'vagina_'
'vagabonda_'
'vaga_'
'vag_'
'vaffanculo_'
'vacillare_'
'vaccinazioni_'
'vaccinato_'
'vabbè_'
'uva_'
'uum_'
'utima_'
'utilità_'
'utilita_'
'utili_'
'utan_'
'ustioni_'
'ustione_'
'ustionare_'
'usine_'
'userò_'
'useresti_'
'uscivo_'
'uscivi_'
'uscissimo_'
'uscirne_'
'uscirei_'
'uscirai_'
'uscimmo_'
'usciere_'
'usatí_'
'usassimo_'
'usassi_'
'usassero_'
'usarli_'
'usanza_'
'usandolo_'
'urtava_'
'urologia_'
'urns_'
'urna_'
'urn_'
'urli_'
'urleranno_'
'urlerai_'
'urlavano_'
'urlando_'
'urina_'
'urgenza_'
'ureto_'
'urbanistica_'
'urbana_'
'uptown_'
'upstate_'
'upsetting_'
'upscale_'
'uproar_'
'uprising_'
'uploaded_'
'upload_'
'upholstered_'
'upgrade_'
'uolo_'
'unzione_'
'unwrapping_'
'unwind_'
'unwilling_'
'unwell_'
'unusal_'
'untidy_'
'unthinkable_'
'untangle_'
'unsettling_'
'unseal_'
'unsafe_'
'unrequited_'
'unrelated_'
'unpunished_'
'unprotected_'
'unprepared_'
'unplug_'
'unpleasant_'
'unpaid_'
'unofficially_'
'unnecessary_'
'unlimited_'
'unkindness_'
'unjustly_'
'universitari_'
'universal_'
'units_'
'unisce_'
'unisca_'
'unirsi_'
'unire_'
'unira_'
'uninvited_'
'uninterrupted_'
'unintentionally_'
'unintended_'
'uninspired_'
'unidentified_'
'unicorno_'
'unici_'
'uniche_'
'unicamente_'
'uni_'
'unhappiness_'
'unh_'
'unghie_'
'unfriendly_'
'unfortunates_'
'unforgettable_'
'unflattering_'
'unfit_'
'unfair_'
'unexplainable_'
'unexpected_'
'unenlightened_'
'unemployment_'
'undressed_'
'undress_'
'undoubted_'
'undoing_'
'undo_'
'undiscovered_'
'undetermined_'
'underworld_'
'underused_'
'undertaker_'
'understandable_'
'undersanding_'
'underpants_'
'undermined_'
'underlying_'
'underestimate_'
'underappreciated_'
'undecided_'
'uncoupling_'
'uncool_'
'uncontested_'
'unconscious_'
'unconscionably_'
'unconscionable_'
'unconfirmed_'
'uncles_'
'unclear_'
'unclassifiable_'
'uncertainty_'
'unceasingly_'
'unbiased_'
'unbeatable_'
'unauthorized_'
'unanimita_'
'umorismo_'
'umiltà_'
'umilmente_'
'umilierebbe_'
'umiliazioni_'
'umiliata_'
'umiliare_'
'umiliante_'
'umili_'
'umile_'
'umido_'
'umidita_'
'umidificatore_'
'umidi_'
'umida_'
'ultrasound_'
'ultra_'
'ultimately_'
'ulteriormente_'
'ulna_'
'uld_'
'ulcera_'
'ukelele_'
'uid_'
'uicevuto_'
'uguaglianza_'
'ugliness_'
'uglier_'
'uffi_'
'uferta_'
'uesto_'
'uella_'
'udu_'
'udienza_'
'udibile_'
'uccisione_'
'uccidono_'
'uccidiamo_'
'uccidevamo_'
'uccideva_'
'uccidete_'
'ucciderò_'
'uccidervi_'
'ucciderli_'
'ucciderei_'
'ucciderebbe_'
'ucciderci_'
'uccideranno_'
'ucciderai_'
'ucchina_'
'uccellino_'
'ubriacona_'
'ubriacato_'
'ubriacarmi_'
'ubriacare_'
'uber_'
'ubbidire_'
'uN_'
'tí_'
'tzar_'
'tyre_'
'tyranny_'
'typeof_'
'tyler_'
'twos_'
'twists_'
'twist_'
'tweezer_'
'tuttobene_'
'tuttavia_'
'tutoraggio_'
'tusker_'
'turnout_'
'turni_'
'turkey_'
'turistico_'
'turisti_'
'turche_'
'turbine_'
'turbando_'
'tuono_'
'tunt_'
'tunnels_'
'tundra_'
'tumour_'
'tuffi_'
'tuffati_'
'tuesday_'
'tucked_'
'tubing_'
'tubes_'
'tube_'
'tub_'
'tthinkit_'
'tshirts_'
'trusts_'
'trumps_'
'trumpet_'
'truffando_'
'truer_'
'truce_'
'trucchetto_'
'truccando_'
'trucca_'
'truancy_'
'trovò_'
'troviate_'
'troverete_'
'trovavi_'
'trovavamo_'
'trovasse_'
'trovarono_'
'trovargli_'
'trovarci_'
'trovar_'
'trovami_'
'trout_'
'trouper_'
'troupe_'
'trough_'
'trotter_'
'trotted_'
'troth_'
'trota_'
'trot_'
'troppa_'
'trophy_'
'trophies_'
'trombone_'
'trombati_'
'troll_'
'troietta_'
'trofeí_'
'trofeo_'
'trodden_'
'triumphant_'
'trite_'
'tritato_'
'triptychs_'
'trippin_'
'tripped_'
'trippa_'
'triplicate_'
'triple_'
'trionfo_'
'trionfale_'
'trimmed_'
'trimestre_'
'trim_'
'trillions_'
'triggered_'
'tricked_'
'tribunal_'
'tribu_'
'tribe_'
'trials_'
'trespassing_'
'trentatre_'
'trentadue_'
'treni_'
'trends_'
'trend_'
'tremore_'
'tremola_'
'tremendously_'
'tremendous_'
'tremendo_'
'tremendamente_'
'tremenda_'
'tremble_'
'tremava_'
'trek_'
'tregua_'
'trega_'
'tredo_'
'tredici_'
'treccine_'
'treaty_'
'treatment_'
'treasurer_'
'treads_'
'tread_'
'trce_'
'trays_'
'travolto_'
'travolgente_'
'travisando_'
'travestito_'
'travelling_'
'trave_'
'travasato_'
'traumi_'
'traumatico_'
'traumatica_'
'trattieni_'
'tratteremo_'
'trattenuto_'
'trattenuti_'
'trattenuta_'
'trattenga_'
'trattenermi_'
'trattenere_'
'trattava_'
'trattata_'
'trattasse_'
'trattarsi_'
'trattando_'
'trattamenti_'
'trasporti_'
'trasportasse_'
'trasportai_'
'trasparenza_'
'trasparente_'
'trasmissioni_'
'trasmise_'
'trasmettitore_'
'trasmettere_'
'trasmettendo_'
'trasmetta_'
'traslocheremo_'
'traslocato_'
'trashy_'
'trashed_'
'trasgredito_'
'trasfusione_'
'trasformata_'
'trasformarti_'
'trasformarmi_'
'trasformarlo_'
'trasferiti_'
'trasferisse_'
'trasferisci_'
'trasferirà_'
'trasferirvi_'
'trasferirsi_'
'trasferirlo_'
'trasferimenti_'
'trascurate_'
'trascrizione_'
'trascorso_'
'trascorse_'
'trascinò_'
'trascinata_'
'trascinarmi_'
'trascina_'
'trascendenza_'
'trarre_'
'traps_'
'trapianto_'
'trapianti_'
'trapeze_'
'trapanati_'
'transvestite_'
'transports_'
'transporter_'
'transmitting_'
'transmission_'
'translating_'
'translated_'
'transizione_'
'transitabile_'
'transfusion_'
'transform_'
'transfers_'
'transferring_'
'transessuale_'
'transcurvatura_'
'transcripts_'
'transcript_'
'transcribed_'
'transactions_'
'transact_'
'tranquillita_'
'tranquillanti_'
'tranello_'
'tranci_'
'trance_'
'tramps_'
'trampolining_'
'trampled_'
'tramp_'
'tramonti_'
'tramontera_'
'trambusto_'
'tramare_'
'tramandato_'
'traits_'
'traitors_'
'trailer_'
'traiettorie_'
'traiettoria_'
'traiamo_'
'traguardo_'
'traguardi_'
'tragitto_'
'tragica_'
'tragedy_'
'trafficone_'
'traffichino_'
'traduzida_'
'traduttore_'
'tradizioni_'
'tradizione_'
'traditori_'
'traditore_'
'traditi_'
'tradirlo_'
'trader_'
'traction_'
'trackers_'
'tracked_'
'tracheal_'
'traces_'
'tr_'
'toyou_'
'toxins_'
'toxin_'
'townspeople_'
'townhouse_'
'towels_'
'tow_'
'tovaglia_'
'tov_'
'touchy_'
'touchies_'
'touches_'
'toubray_'
'totalmente_'
'totalizzatore_'
'tostapane_'
'tossito_'
'tossicologico_'
'tossicodipendente_'
'tossico_'
'tossed_'
'toscani_'
'torturing_'
'torturati_'
'torturata_'
'tortuosa_'
'tortino_'
'torrione_'
'torri_'
'toro_'
'tornerete_'
'torneremo_'
'torneranno_'
'tornavo_'
'tornava_'
'tornassi_'
'torn_'
'tormento_'
'tormenting_'
'tormentata_'
'tormalina_'
'tore_'
'torcia_'
'torchio_'
'torches_'
'torchbearer_'
'torch_'
'torce_'
'toracico_'
'tops_'
'topple_'
'toppings_'
'toppa_'
'topico_'
'toothbrushes_'
'tonto_'
'tonti_'
'tons_'
'tonnellate_'
'tonnara_'
'tonicità_'
'toni_'
'tombstone_'
'tombe_'
'tomatosoup_'
'tomatoes_'
'tomato_'
'tollerero_'
'tolleranza_'
'tolga_'
'tolerate_'
'tolerant_'
'toilets_'
'tohe_'
'toglitela_'
'toglile_'
'toglierà_'
'toglierti_'
'togliero_'
'togliermelo_'
'togliermela_'
'toglierlo_'
'toglierle_'
'togliendo_'
'toglie_'
'toga_'
'tofu_'
'tofind_'
'toes_'
'toenails_'
'toeing_'
'toddler_'
'toddle_'
'todd_'
'tocchi_'
'toccherà_'
'toccarti_'
'toccarsi_'
'toccante_'
'tobio_'
'tobacconist_'
'toConfirmation_'
'tlon_'
'tiziano_'
'titubante_'
'titles_'
'titans_'
'titanio_'
'titan_'
'tirocinante_'
'tirerà_'
'tiratelo_'
'tirate_'
'tirartene_'
'tirarono_'
'tirarmi_'
'tirarlo_'
'tirarli_'
'tirarla_'
'tiranno_'
'tirala_'
'tiquitiquiti_'
'tipsy_'
'tipping_'
'tipis_'
'tipina_'
'tipico_'
'tipetto_'
'tipaccio_'
'tinto_'
'tintinnio_'
'tinti_'
'tinkering_'
'tingling_'
'tingle_'
'ting_'
'tine_'
'timore_'
'timings_'
'timido_'
'timida_'
'timeframe_'
'timed_'
'timbri_'
'timbra_'
'timber_'
'tilt_'
'tilda_'
'til_'
'tigers_'
'tifosi_'
'tifo_'
'tiffany_'
'tifa_'
'tieniti_'
'tidied_'
'tickled_'
'tickle_'
'tickened_'
'thè_'
'thwarted_'
'thursty_'
'thumb_'
'thug_'
'thruster_'
'throught_'
'thrive_'
'thristina_'
'threshold_'
'threatens_'
'threaten_'
'threads_'
'thread_'
'thoughtful_'
'thorough_'
'thorium_'
'thoracotomy_'
'thnk_'
'thirty_'
'thirsty_'
'thinkyouare_'
'thinkshe_'
'thinkin_'
'thinkhe_'
'thinkabout_'
'thingslikegolfand_'
'thigh_'
'thicker_'
'thesebells_'
'thereto_'
'theresa_'
'thereof_'
'thereby_'
'therapy_'
'theonesIwore_'
'thenwehavetogetthesupplies_'
'theirs_'
'thefts_'
'theft_'
'theEast_'
'thatwe_'
'thats_'
'thatjumping_'
'thanking_'
'thalamic_'
'thailandese_'
'th_'
'tgo_'
'texts_'
'textbooks_'
'texana_'
'testosterone_'
'testing_'
'testimonio_'
'testimonierà_'
'testimoniato_'
'testicoli_'
'testicle_'
'testi_'
'tested_'
'testati_'
'testando_'
'tessuti_'
'tessitura_'
'tesserino_'
'tessere_'
'tesorino_'
'tesla_'
'tesina_'
'teschi_'
'tesa_'
'terzomondista_'
'terze_'
'terrò_'
'terrorizzato_'
'terrorizzata_'
'terrorist_'
'terrorism_'
'terrorised_'
'terror_'
'territorio_'
'terrificante_'
'terriero_'
'terribilmente_'
'terreni_'
'terrence_'
'terremoto_'
'terremo_'
'terre_'
'terrai_'
'termoforo_'
'terminazioni_'
'terminato_'
'terminated_'
'termina_'
'termico_'
'terapeuta_'
'tequila_'
'teppisti_'
'teorie_'
'teorica_'
'teologia_'
'tenuti_'
'tentano_'
'tent_'
'tension_'
'tenkas_'
'tenevo_'
'tenevi_'
'tenevano_'
'tenevamo_'
'tenetemi_'
'tenesse_'
'tenerti_'
'tenero_'
'tenerle_'
'tenerla_'
'tenera_'
'tenebre_'
'tendono_'
'tenderly_'
'tendenza_'
'tenants_'
'tenaci_'
'tenace_'
'temptations_'
'temptation_'
'tempt_'
'temporaneamente_'
'templi_'
'tempia_'
'temperatures_'
'temper_'
'temp_'
'temiamo_'
'temevo_'
'temevano_'
'teme_'
'telo_'
'tellings_'
'tellin_'
'tellers_'
'televisiva_'
'televisione_'
'telescopio_'
'telescope_'
'teleport_'
'telekinetic_'
'telegrafato_'
'telegiornale_'
'telefoniche_'
'telefoni_'
'telefonerò_'
'telefonate_'
'telefonarsi_'
'telecomando_'
'telecam_'
'telaio_'
'teglie_'
'teenybopper_'
'tee_'
'tediato_'
'tedeschi_'
'tedesca_'
'tecnologici_'
'tecnico_'
'tecnici_'
'tech_'
'teatrino_'
'teatri_'
'teasing_'
'teaser_'
'tease_'
'tearthis_'
'tearing_'
'teahouses_'
'taylor_'
'taxista_'
'taxis_'
'taxing_'
'taxicab_'
'tavole_'
'taverna_'
'tavern_'
'taut_'
'tattoos_'
'tatto_'
'tatta_'
'tatem_'
'tata_'
'tat_'
'tasty_'
'tastiera_'
'tastic_'
'tastefully_'
'tastati_'
'tasso_'
'tassisti_'
'tarts_'
'tartarughe_'
'tartaruga_'
'tarp_'
'tariffe_'
'targa_'
'tardissimo_'
'tarderanno_'
'tarda_'
'tappo_'
'tappi_'
'tappezziere_'
'tapped_'
'tappa_'
'tapered_'
'taped_'
'tao_'
'tantric_'
'tantissime_'
'tantino_'
'tantastica_'
'tantalising_'
'tannino_'
'tanks_'
'tanker_'
'tandem_'
'tampone_'
'tamponato_'
'tampinarmi_'
'tampered_'
'tamia_'
'tame_'
'tambourine_'
'tamarri_'
'talìa_'
'talvolta_'
'tallest_'
'taller_'
'talkie_'
'talker_'
'talkedtosomedealers_'
'talentuosa_'
'talebane_'
'talassiana_'
'takeover_'
'tak_'
'tails_'
'tailpipes_'
'tailor_'
'tail_'
'taglierò_'
'taglierà_'
'taglie_'
'tagliategli_'
'tagliata_'
'tagliando_'
'tag_'
'taffeta_'
'tad_'
'tactics_'
'tactfully_'
'tacos_'
'tackled_'
'tack_'
'taciturni_'
'tacchino_'
'taccheggiando_'
'tabulati_'
'tabs_'
'tabloids_'
'tablet_'
'tables_'
'tablelands_'
'tabelloni_'
'tabacchiera_'
'tab_'
'tO_'
'sè_'
'syringe_'
'syphilis_'
'syndrome_'
'syncing_'
'synch_'
'sync_'
'symptom_'
'symphoraphiliac_'
'sympathies_'
'sympathetic_'
'symbols_'
'symbolises_'
'swordsmanship_'
'swords_'
'swoops_'
'swinton_'
'swing_'
'swindles_'
'swimsuit_'
'swig_'
'swiftly_'
'swept_'
'sweets_'
'sweetness_'
'sweetbreads_'
'sweats_'
'sweatpants_'
'sweating_'
'sweaters_'
'sweater_'
'swears_'
'swash_'
'swarm_'
'swapped_'
'swans_'
'swallows_'
'swallowing_'
'swag_'
'svuotare_'
'svolto_'
'svoltare_'
'svolgimento_'
'svoIazzando_'
'svizzeri_'
'sviluppando_'
'sviluppa_'
'svignarsela_'
'sventurate_'
'sventolavano_'
'sventolare_'
'svenire_'
'svendita_'
'sveltina_'
'svelano_'
'sveglieremo_'
'svegliassi_'
'svegliarmi_'
'svegliarla_'
'svegliamo_'
'svegliai_'
'svastiche_'
'svaniva_'
'svanito_'
'svanisce_'
'svanirebbe_'
'svanendo_'
'svalutate_'
'svalutata_'
'sustaining_'
'sustained_'
'sustainable_'
'sussurreranno_'
'suspicion_'
'suspense_'
'suscitare_'
'susa_'
'survivors_'
'surrendering_'
'surprisingly_'
'surprises_'
'surplus_'
'surpasses_'
'surmise_'
'surgeries_'
'surgeons_'
'surest_'
'suresh_'
'sur_'
'supremo_'
'supremacy_'
'suprema_'
'suppressants_'
'supposedly_'
'supportive_'
'supportarti_'
'supportare_'
'supporta_'
'supplied_'
'supplico_'
'supplicare_'
'supplica_'
'supplente_'
'supplementari_'
'suplhur_'
'superstores_'
'superstite_'
'supersimo_'
'supernino_'
'supermuscolosi_'
'supermercati_'
'superman_'
'superluminosa_'
'superlatrato_'
'superiors_'
'superiorità_'
'superiamo_'
'superi_'
'superglued_'
'superfluous_'
'superficiale_'
'superficial_'
'superbo_'
'superbiagi_'
'superbamente_'
'superbagi_'
'superba_'
'superavano_'
'superava_'
'superassimo_'
'superano_'
'supera_'
'suora_'
'suoniamo_'
'suoni_'
'suonerò_'
'suonerà_'
'suoneria_'
'suonavano_'
'suonavamo_'
'suonarlo_'
'suonarla_'
'suntan_'
'sunshine_'
'suns_'
'sunglasses_'
'sung_'
'sunday_'
'sums_'
'summoned_'
'summon_'
'summers_'
'summat_'
'sulphide_'
'sullaTallowtree_'
'sulked_'
'sulk_'
'sulfurea_'
'sulfur_'
'suitors_'
'suites_'
'suitable_'
'suicido_'
'suicidi_'
'suicidata_'
'suh_'
'suggests_'
'suggerirò_'
'suggerimento_'
'suggerimenti_'
'suffocating_'
'suffocate_'
'suede_'
'sued_'
'sudoku_'
'sudicia_'
'suderai_'
'suddivisione_'
'sudata_'
'sudare_'
'sucka_'
'succulenti_'
'succulent_'
'succo_'
'succhiasangue_'
'succhiarti_'
'succhi_'
'successore_'
'successor_'
'successión_'
'successivamente_'
'successione_'
'successfully_'
'successe_'
'succedesse_'
'succederebbe_'
'succeda_'
'subversive_'
'suburbs_'
'subspaziali_'
'subsidized_'
'subsidiary_'
'subsection_'
'subprime_'
'subpoenaed_'
'subordinate_'
'subisse_'
'subirle_'
'subdolo_'
'subdivision_'
'subcutaneous_'
'subconsciously_'
'subatomico_'
'sub_'
'suadente_'
'stylist_'
'stuzzichini_'
'stuzzicadenti_'
'stutter_'
'sturdy_'
'stuprata_'
'stupito_'
'stupita_'
'stupisce_'
'stupidity_'
'stupidaggine_'
'stupefacenti_'
'stunt_'
'stunning_'
'stunned_'
'stumbling_'
'stuffy_'
'stuffs_'
'stuffing_'
'stufato_'
'stufano_'
'studiarle_'
'studia_'
'studentessa_'
'studentesco_'
'stud_'
'stucco_'
'stubbornly_'
'struggles_'
'structured_'
'strozzino_'
'strozzate_'
'stronzette_'
'strongbox_'
'stronco_'
'stromal_'
'stroll_'
'strofini_'
'strofinaccio_'
'stritolano_'
'striscio_'
'strisciare_'
'strisciando_'
'striscia_'
'strisce_'
'stripping_'
'stripper_'
'stripes_'
'stringhe_'
'stringevo_'
'stringa_'
'striker_'
'strictly_'
'strict_'
'stretti_'
'strette_'
'strettamente_'
'stretching_'
'stretchers_'
'stretched_'
'stressing_'
'stressful_'
'stressata_'
'stressando_'
'strepitosa_'
'strengthens_'
'strengthen_'
'stregone_'
'stregata_'
'strega_'
'streaming_'
'stream_'
'strawberry_'
'strawberries_'
'stravaganze_'
'stravagante_'
'strattonare_'
'strati_'
'strategic_'
'strass_'
'straps_'
'strappi_'
'strappati_'
'strappata_'
'strapiombo_'
'strapazzate_'
'straníerí_'
'straniero_'
'strangulation_'
'strangolavo_'
'strangolarmi_'
'strangling_'
'strangled_'
'strangle_'
'strangers_'
'strangely_'
'strands_'
'stranamente_'
'stramaledetta_'
'straits_'
'strained_'
'straightforwardness_'
'straighter_'
'strafed_'
'strafatti_'
'stradina_'
'stradale_'
'straccione_'
'stracciato_'
'straccetto_'
'stoviglia_'
'stout_'
'storpio_'
'stormed_'
'storielle_'
'storicamente_'
'storey_'
'stordita_'
'stordisco_'
'stonewalling_'
'stonewalled_'
'stoneman_'
'stola_'
'stoico_'
'stoggy_'
'stoffa_'
'stockroom_'
'stockholders_'
'stivali_'
'stivale_'
'stitch_'
'stirs_'
'stirring_'
'stirpe_'
'stirargli_'
'stinkin_'
'sting_'
'stimulus_'
'stimulating_'
'stimulated_'
'stimoli_'
'stimolato_'
'stimato_'
'stima_'
'stills_'
'stille_'
'stilizzata_'
'stigmatizzato_'
'sticks_'
'sticker_'
'stiate_'
'stesura_'
'steso_'
'sterzo_'
'sterrato_'
'steroid_'
'sternum_'
'sterno_'
'sterner_'
'sternal_'
'sterminio_'
'sterminato_'
'sterlina_'
'sterili_'
'sterile_'
'stereotypes_'
'steppa_'
'stepladders_'
'stephen_'
'stepdad_'
'stento_'
'stenographer_'
'stendardi_'
'stempiato_'
'stemi_'
'stellari_'
'steering_'
'steered_'
'stecco_'
'stecchiti_'
'stecca_'
'steakhouse_'
'steady_'
'stazioni_'
'stazionato_'
'stayy_'
'statutory_'
'statuetta_'
'statistico_'
'statistically_'
'statements_'
'stasi_'
'startling_'
'startle_'
'startene_'
'starmene_'
'stark_'
'stargli_'
'stargate_'
'staremo_'
'starei_'
'starebbero_'
'starch_'
'starboard_'
'staranno_'
'staple_'
'stanzetta_'
'stanra_'
'stane_'
'stando_'
'standards_'
'standardizzati_'
'stanchi_'
'stancherà_'
'stancata_'
'stancando_'
'stanare_'
'stampare_'
'stampante_'
'stamina_'
'stamane_'
'stallone_'
'stalle_'
'stalking_'
'stalk_'
'stale_'
'stalactites_'
'stakeout_'
'staircase_'
'stags_'
'stagnini_'
'stagne_'
'stagisti_'
'staged_'
'stag_'
'staffed_'
'staffa_'
'stae_'
'stacking_'
'stace_'
'stacchi_'
'staccarlo_'
'staccare_'
'staccapiedi_'
'stabilizzatrice_'
'stabilizing_'
'stabilità_'
'stabilisers_'
'stabilise_'
'stabiliamo_'
'stabilendo_'
'stab_'
'ssuspicious_'
'ssa_'
'sradichi_'
'squished_'
'squirted_'
'squillo_'
'squillanti_'
'squeezing_'
'squeegee_'
'squealed_'
'squeaking_'
'squat_'
'squashes_'
'squash_'
'squarciata_'
'squarci_'
'squander_'
'squalificati_'
'squadron_'
'squadravano_'
'sputera_'
'sputare_'
'sputa_'
'spurns_'
'spupazzato_'
'spuntino_'
'spunterà_'
'spuntato_'
'spuntati_'
'spuntarono_'
'spuntano_'
'spugna_'
'spudorato_'
'spruzzare_'
'spruce_'
'spronarli_'
'spritz_'
'sprint_'
'sprezzanti_'
'spremici_'
'spregevoli_'
'spregevole_'
'spreg_'
'spreco_'
'sprechiamo_'
'sprechi_'
'sprecato_'
'sprecate_'
'sprecata_'
'sprecare_'
'spreadsheets_'
'spreader_'
'spray_'
'sprang_'
'spotty_'
'spots_'
'sposò_'
'sposti_'
'sposi_'
'sposerò_'
'sposeranno_'
'sposate_'
'sposarvi_'
'sposarti_'
'sposarla_'
'sposarci_'
'sposando_'
'sporty_'
'sportiva_'
'sporting_'
'sportello_'
'sporky_'
'sporchi_'
'sporcaccioni_'
'spora_'
'spooksters_'
'spook_'
'spontaneo_'
'sponsoring_'
'sponda_'
'spokesman_'
'spoiling_'
'spoiler_'
'spoglie_'
'spogliarsi_'
'spogliarmi_'
'spogliarelliste_'
'spogliando_'
'splitting_'
'splinter_'
'spliff_'
'splendiferous_'
'splendidi_'
'splendidamente_'
'splat_'
'splash_'
'spiumare_'
'spitting_'
'spits_'
'spiritualita_'
'spirituale_'
'spirare_'
'spiraglio_'
'spionaggio_'
'spintonando_'
'spinse_'
'spins_'
'spinning_'
'spingo_'
'spingimi_'
'spingete_'
'spingero_'
'spingerlo_'
'spingemmo_'
'spinge_'
'spinga_'
'spine_'
'spinale_'
'spilt_'
'spillone_'
'spikes_'
'spiked_'
'spike_'
'spigolosa_'
'spigole_'
'spietato_'
'spies_'
'spiegò_'
'spiegherò_'
'spiegherà_'
'spiegherebbe_'
'spiegatemi_'
'spiegassi_'
'spiegarti_'
'spiegartelo_'
'spiegarmi_'
'spiegarle_'
'spiegarglielo_'
'spiegami_'
'spieg_'
'spidernik84_'
'spice_'
'spicci_'
'spiavi_'
'spiava_'
'spiare_'
'spiano_'
'spiando_'
'spianate_'
'spiacevoli_'
'spiacerebbe_'
'spezzo_'
'spezzi_'
'spezzato_'
'spezzarci_'
'spezzandoti_'
'speziato_'
'spezia_'
'spettera_'
'spettano_'
'spettacoli_'
'spettacolarità_'
'spettacolare_'
'spesi_'
'spese_'
'sperimentazione_'
'sperimentali_'
'speriamo_'
'sperato_'
'sperare_'
'speranze_'
'spente_'
'spends_'
'spendili_'
'spenderli_'
'spelled_'
'spegni_'
'spegnete_'
'speedwagon_'
'speedo_'
'spee_'
'spedito_'
'speculato_'
'speculation_'
'spectra_'
'spectacular_'
'specs_'
'speck_'
'specimen_'
'specify_'
'specifics_'
'specificatamente_'
'specifically_'
'specific_'
'specializzato_'
'specializzate_'
'specializzarmi_'
'specializzando_'
'specialità_'
'specialita_'
'specialistiche_'
'specialisti_'
'specialista_'
'specialist_'
'specchietto_'
'spec_'
'spearfishing_'
'speaks_'
'speakers_'
'spazzolino_'
'spazzola_'
'spazzare_'
'spazzaneve_'
'spazza_'
'spavento_'
'spaventi_'
'spaventerai_'
'spaventarono_'
'spaventarmi_'
'spaventare_'
'spaventando_'
'spattered_'
'spatial_'
'spat_'
'spasso_'
'spassiamo_'
'spasms_'
'spasimante_'
'sparrow_'
'sparring_'
'sparky_'
'sparkly_'
'sparkle_'
'sparizione_'
'spariti_'
'sparite_'
'spargere_'
'sparerei_'
'spareranno_'
'sparavano_'
'sparatorie_'
'sparatoria_'
'sparati_'
'spararono_'
'sparami_'
'spanx_'
'spanna_'
'spanish_'
'spaniel_'
'spalti_'
'spalmare_'
'spallucce_'
'spalancata_'
'spago_'
'spagnola_'
'spaghetti_'
'spaceman_'
'spacedock_'
'spacciata_'
'spacciare_'
'spacci_'
'spacchiamo_'
'spacchettare_'
'spaccerò_'
'spaccassi_'
'spaccando_'
'sp_'
'sovrumano_'
'sovrano_'
'sovranita_'
'sovraccarico_'
'sovietiche_'
'sovereign_'
'souvenirs_'
'southern_'
'southbound_'
'sous_'
'sources_'
'sounded_'
'soufflé_'
'sottovuoto_'
'sottovalutato_'
'sottovalutarlo_'
'sottovaluta_'
'sottotrama_'
'sottotitolare_'
'sottotenente_'
'sottostima_'
'sottosterzo_'
'sottorpormi_'
'sottoposti_'
'sottoponiamo_'
'sottomissione_'
'sottomesse_'
'sottomarine_'
'sottocutanee_'
'sottindende_'
'sottigliezze_'
'sotterrato_'
'sotterfugi_'
'sostituita_'
'sostituiscono_'
'sostituisco_'
'sostituirmi_'
'sosterrò_'
'sostenuto_'
'sostengono_'
'sostengo_'
'sosteneva_'
'sostanzialmente_'
'sosta_'
'sospiro_'
'sospiri_'
'sospira_'
'sospettata_'
'sospettarmi_'
'sospese_'
'sospensione_'
'sorvegliante_'
'sorvegliando_'
'sorte_'
'sorridono_'
'sorridiamo_'
'sorride_'
'sorprenderò_'
'sorprenderà_'
'sorprenderebbe_'
'sorprendenti_'
'sorprendente_'
'sorgere_'
'sorgera_'
'sorelle_'
'sorellastra_'
'sorellanza_'
'sordo_'
'sorda_'
'sorceress_'
'sopravvivera_'
'sopravvento_'
'sopraffatti_'
'sopraffatta_'
'sopraffarci_'
'sopraelevata_'
'sopporti_'
'sopportazione_'
'sopportavo_'
'sopportarlo_'
'sopportarla_'
'sopporta_'
'soppalco_'
'sonogram_'
'sonny_'
'sonnolenza_'
'sonnellino_'
'sonnambulo_'
'sonda_'
'sommosse_'
'somministrato_'
'sommers_'
'sommario_'
'somethin_'
'someday_'
'somaro_'
'sollievo_'
'sollevarmi_'
'sollevarlo_'
'solleticami_'
'sollecito_'
'sollecitiamo_'
'solitudine_'
'solitude_'
'solite_'
'solitaria_'
'solista_'
'solido_'
'solide_'
'solidarity_'
'solicitor_'
'solicitation_'
'solevi_'
'solennemente_'
'soldatesse_'
'solchi_'
'solare_'
'soggiogare_'
'sofisticato_'
'soffrir_'
'soffriamo_'
'soffrendo_'
'soffochi_'
'soffocando_'
'soffitta_'
'sofferente_'
'sofferene_'
'sofa_'
'sodomia_'
'sodo_'
'soddisfiamo_'
'soddisfazione_'
'soddisfatta_'
'soddisfare_'
'soddisfacenti_'
'sod_'
'sociopaths_'
'sociologia_'
'socialmente_'
'socialize_'
'socialisti_'
'socialist_'
'socialism_'
'soci_'
'soccorsi_'
'soccorrere_'
'socchiusa_'
'sobrio_'
'sobriety_'
'sobria_'
'sober_'
'sobborghi_'
'soaps_'
'soaking_'
'snuggling_'
'snowstorm_'
'snows_'
'snowboarder_'
'snot_'
'snosmallthing_'
'snort_'
'snorkeling_'
'snitch_'
'snipped_'
'sniffles_'
'sniffing_'
'sneezed_'
'sneeze_'
'sneered_'
'sneakers_'
'sneaker_'
'snatched_'
'snare_'
'snapper_'
'snakes_'
'snag_'
'snacks_'
'smut_'
'smuoveranno_'
'smugglersside_'
'smuggle_'
'smug_'
'smudges_'
'smothered_'
'smoother_'
'smoky_'
'smokers_'
'smokehouse_'
'smoked_'
'smithy_'
'smite_'
'smise_'
'smiles_'
'smiled_'
'smetteste_'
'smettesse_'
'smetterebbero_'
'smette_'
'smentire_'
'smembrata_'
'smelt_'
'smelling_'
'smearing_'
'smear_'
'smarrita_'
'smalto_'
'smaltirete_'
'smaller_'
'smagliatura_'
'smack_'
'slush_'
'slung_'
'slumber_'
'slum_'
'sluggard_'
'slug_'
'slowpokes_'
'slowpoke_'
'slowed_'
'sloppy_'
'sloppier_'
'slopes_'
'slope_'
'slop_'
'slogato_'
'slogans_'
'sloe_'
'slobbering_'
'slivovitz_'
'slitta_'
'slit_'
'slipping_'
'slipper_'
'slime_'
'slim_'
'slightest_'
'slideshow_'
'slick_'
'slicing_'
'sliced_'
'slew_'
'sleight_'
'sleepless_'
'sleazy_'
[...]
