'<pad>_'
'<EOS>_'
'่_'
'ั_'
'._'
'้_'
''_'
', _'
'I_'
'ิ_'
'?_'
'ี_'
'ี่_'
'you_'
'ุ_'
'น_'
'็_'
'_'
's_'
'the_'
'to_'
'- _'
'ม_'
'a_'
'ค_'
'. _'
'ว_'
'ื_'
'ฉ_'
'ู_'
't_'
'ท_'
'!_'
'ั้_'
'์_'
'it_'
'ื่_'
'ก_'
'ด_'
'that_'
'ร_'
'of_'
'ไม_'
'You_'
'ย_'
'me_'
'is_'
'า_'
'ู้_'
'and_'
'in_'
'-_'
'ต_'
'ได_'
'ส_'
'อ_'
'ี้_'
'..._'
'ู่_'
'm_'
'ง_'
'ึ_'
'on_'
'ล_'
'บ_'
're_'
'อย_'
'ะ_'
'this_'
'แล_'
'for_'
'have_'
'What_'
'your_'
'know_'
'be_'
'ช_'
'my_'
'ั่_'
'we_'
'ใช_'
'was_'
'It_'
'not_'
'are_'
'do_'
',_'
'ถ_'
'can_'
'แต_'
'don_'
'เป_'
'พ_'
'what_'
'ิ่_'
'with_'
'he_'
'just_'
'ข_'
'... _'
'We_'
'like_'
'here_'
'No_'
'right_'
'And_'
'จ_'
'all_'
'นไม_'
'll_'
'out_'
'about_'
'get_'
'go_'
'up_'
'้ _'
'him_'
'่ _'
'เร_'
'ณ_'
'ป_'
'That_'
've_'
'her_'
'ให_'
'The_'
'd_'
'there_'
'one_'
'at_'
'He_'
'Oh_'
'? _'
'so_'
'Yeah_'
'got_'
'หน_'
'ซ_'
'want_'
'ึ้_'
'no_'
'์ _'
'ห_'
'นน_'
'they_'
'นก_'
'But_'
'นะ_'
'think_'
'but_'
'if_'
'ดว_'
'ผ_'
'าน_'
'ี่ _'
'งท_'
'So_'
'now_'
'นเป_'
'going_'
'อน_'
'นท_'
'us_'
'นค_'
'เพ_'
'will_'
'back_'
'she_'
'time_'
'เด_'
'คร_'
'his_'
'gonna_'
'see_'
'an_'
'เก_'
'นต_'
'ing_'
'This_'
'! _'
'ี _'
'from_'
'Well_'
'ed_'
'วย_'
'them_'
'as_'
'need_'
'She_'
'y_'
'did_'
'"_'
'ี้ _'
'been_'
'would_'
'กล_'
'good_'
'ฟ_'
'were_'
'Hey_'
'าง_'
'หร_'
'ึ่_'
'e_'
'แม_'
'าค_'
'How_'
'They_'
'Come_'
'โอ_'
'or_'
'ๆ_'
'man_'
'นม_'
'our_'
'นร_'
'could_'
'๊_'
'way_'
'how_'
'เธ_'
'แค_'
'really_'
'Why_'
'เจ_'
'tell_'
'If_'
'Okay_'
'who_'
'come_'
'Yes_'
'. - _'
'ุ่_'
'นด_'
'when_'
'some_'
'make_'
'didn_'
'by_'
'าม_'
'take_'
'นส_'
'something_'
'A_'
'จร_'
'ื้_'
'เหม_'
'อง_'
'i_'
'had_'
'too_'
'เน_'
'There_'
'าท_'
'งน_'
'ิ้_'
'ยวก_'
'ไหม_'
'All_'
'look_'
'more_'
'Let_'
'หล_'
'กว_'
'เข_'
'let_'
'down_'
'say_'
'นได_'
'little_'
'never_'
'doing_'
'okay_'
'Don_'
'เม_'
'has_'
'เลย_'
'เล_'
'mean_'
'โอเค_'
'ยว_'
'why_'
'นอย_'
'then_'
'should_'
'เห_'
'างน_'
'นว_'
'over_'
'าย_'
' "_'
'องน_'
'thing_'
'แน_'
'people_'
'Do_'
'.._'
'เอ_'
'off_'
'Now_'
'Are_'
'เฮ_'
'said_'
'only_'
'My_'
'am_'
'กอย_'
'love_'
'ธ_'
'ี๋_'
'าฉ_'
'find_'
'(_'
'นย_'
'Is_'
'ิ _'
'sorry_'
'งไม_'
'very_'
'าร_'
'Your_'
'Just_'
'ณไม_'
'day_'
'Who_'
'into_'
'Where_'
'เปล_'
'ตอนน_'
'อนก_'
'ขอบค_'
'เช_'
'n_'
'life_'
'two_'
'sure_'
'any_'
'still_'
'ไหน_'
'where_'
'Look_'
'help_'
'even_'
'งม_'
'ever_'
'Thank_'
'r_'
'ผมไม_'
'Go_'
'งไง_'
'thought_'
'เหรอ_'
'บค_'
'give_'
'งส_'
'much_'
'other_'
'God_'
'because_'
'again_'
'มาก_'
'well_'
'งๆ_'
'told_'
'2_'
'night_'
'home_'
'นเร_'
'นอ_'
'งค_'
'อม_'
'these_'
')_'
'เส_'
'work_'
'first_'
'o_'
'before_'
'Good_'
'วก_'
'es_'
'ณต_'
'guys_'
'better_'
'away_'
'Not_'
'าต_'
'ฮ_'
'anything_'
'ปล_'
'ณร_'
'Get_'
'ยก_'
'than_'
'guy_'
' ?_'
'าก_'
'talk_'
'must_'
'Please_'
':_'
'--_'
'To_'
'Did_'
'าว_'
'ฆ_'
'won_'
'long_'
'เราต_'
'สำหร_'
'ณค_'
'er_'
'call_'
'อค_'
'through_'
'เท_'
'กต_'
'feel_'
'#_'
'หย_'
'believe_'
'In_'
'Then_'
'ไป_'
'าไม_'
'อร_'
'ณก_'
'งก_'
'_'
'อก_'
'อะไร_'
'ดท_'
'l_'
'keep_'
'หม_'
'place_'
'? - _'
'กำล_'
'their_'
'doesn_'
'นช_'
'ฝ_'
'please_'
'kind_'
'around_'
'always_'
'_'
'บร_'
'ดถ_'
'When_'
'เค_'
'นพ_'
'Mr_'
'กท_'
'wanted_'
'name_'
'หญ_'
'ยน_'
'" _'
'ู้ _'
'stop_'
'uh_'
'son_'
'lot_'
'Maybe_'
'ดก_'
'nothing_'
'girl_'
'ไอ_'
'ดข_'
'enough_'
'บฉ_'
'นเพ_'
'ng_'
'hear_'
'dead_'
'๋_'
'างท_'
'อว_'
'พร_'
'กร_'
'put_'
'made_'
'happened_'
'great_'
'ไว_'
'things_'
'another_'
'[_'
'last_'
'hell_'
'สด_'
'พระเจ_'
'นเหรอ_'
'ของค_'
'own_'
'done_'
'."_'
'' _'
'วน_'
'บท_'
'father_'
'everything_'
'งนะ_'
'กส_'
'years_'
'those_'
'coming_'
'Can_'
'นหน_'
'ดอะไรข_'
'กซ_'
'กก_'
'sir_'
'.. _'
'# _'
'นข_'
'wrong_'
'Hello_'
'หรอก_'
'fine_'
'does_'
'looking_'
'isn_'
'Uh_'
' '_'
'นแล_'
'ดส_'
'world_'
'talking_'
'kill_'
'อส_'
'k_'
'1_'
'อท_'
'หรอ_'
'สว_'
'งต_'
'seen_'
'found_'
'being_'
'Because_'
' - _'
'yourself_'
'left_'
'bad_'
'Thanks_'
'5_'
'ไง_'
'อนท_'
'หว_'
'นเด_'
'ดด_'
'yeah_'
'money_'
'al_'
'นเก_'
'นนะ_'
'ทำให_'
'wanna_'
'someone_'
'เย_'
'เธอไม_'
'บม_'
'new_'
'may_'
'ly_'
'knew_'
'came_'
'กน_'
'getting_'
'care_'
'big_'
'after_'
'Here_'
'นผ_'
'wasn_'
'might_'
'gotta_'
'boy_'
': _'
'-- _'
'องท_'
'นแค_'
'meet_'
'3_'
'าเป_'
'มา_'
'ผมร_'
'งว_'
'next_'
'course_'
'already_'
'S_'
'ศ_'
'head_'
'friend_'
'วค_'
'บางท_'
'hard_'
'อไม_'
'ณเป_'
'งด_'
'old_'
'leave_'
'Right_'
'เง_'
'_'
'h_'
'days_'
'เอาล_'
'นล_'
'woman_'
'trying_'
'job_'
'พวกน_'
'งอย_'
'killed_'
'ask_'
'นอน_'
'นถ_'
'three_'
'shit_'
'heard_'
']_'
'Wait_'
'D_'
'ู่ _'
'understand_'
'mind_'
'house_'
'Sorry_'
'สต_'
'ผม_'
'ณม_'
'ของฉ_'
'wait_'
'baby_'
'าส_'
'มน_'
'ดต_'
'กคร_'
'room_'
'pretty_'
'maybe_'
'g_'
'family_'
'else_'
'ั๊_'
'นไร_'
'_'
'_'
'gone_'
'Of_'
'For_'
'เต_'
'เขาไม_'
'นไป_'
'saying_'
'Stop_'
'ณได_'
'yet_'
'worry_'
'today_'
'same_'
'mother_'
'car_'
'best_'
'ุ้_'
'ลล_'
'บล_'
'บบ_'
'_'
'try_'
'happy_'
') _'
'พวกม_'
'คนท_'
'wouldn_'
'together_'
'stay_'
'idea_'
'\\ _'
'แก_'
'เหล_'
'องก_'
'um_'
'nice_'
'move_'
'most_'
'matter_'
' #_'
'แบบน_'
'ำ_'
'มม_'
'นห_'
'กหน_'
'remember_'
'many_'
'die_'
'Have_'
'เราไม_'
'อต_'
'อด_'
'องม_'
'ผมก_'
'เขาเป_'
'วยก_'
'กแล_'
'กค_'
'start_'
'ready_'
'friends_'
'dad_'
'ยม_'
'ผมต_'
'คล_'
'กด_'
'once_'
'live_'
'guess_'
'every_'
'Or_'
'าหน_'
'าด_'
'วเอง_'
'และฉ_'
'เราม_'
'อฉ_'
'สร_'
'บางอย_'
'นบ_'
'ion_'
'ู _'
'าพ_'
'ผมค_'
'phone_'
'ago_'
'Take_'
'One_'
'OK_'
'As_'
'อเปล_'
'วว_'
'นเลย_'
'นกำล_'
'ตอนท_'
'งข_'
'went_'
'morning_'
'c_'
'Dad_'
'/_'
'ลย_'
'ตร_'
'กคน_'
'use_'
'until_'
'took_'
'mom_'
'haven_'
'exactly_'
'able_'
'10_'
'และ_'
'used_'
'real_'
'problem_'
'men_'
'hurt_'
'huh_'
'end_'
'N_'
'Dr_'
'บส_'
'นจ_'
'ญ_'
'งแต_'
'saw_'
'inside_'
'เธอ_'
'าล_'
'องร_'
'องการ_'
'ษย_'
'นให_'
'นเล_'
'ณอย_'
'กข_'
'tonight_'
'6_'
'ไปก_'
'องค_'
'วฉ_'
'ยวน_'
'มพ_'
'นฉ_'
'show_'
'fucking_'
'called_'
'T_'
'Hi_'
'4_'
'าอย_'
'วล_'
'นไว_'
'นซ_'
'ts_'
'says_'
'run_'
'minutes_'
'listen_'
'Like_'
'เบ_'
'อให_'
'อะไรนะ_'
'wife_'
'which_'
'true_'
'st_'
'few_'
'ใส_'
'พท_'
'นเส_'
'ทำไม_'
'ทธ_'
'งร_'
'_'
'part_'
'late_'
'everyone_'
'door_'
'actually_'
'Really_'
' !_'
'ออะไร_'
'อล_'
'นกล_'
'คะ_'
'face_'
'chance_'
'anyone_'
'าเร_'
'ยร_'
'บอกว_'
'นมา_'
'ดอย_'
'ดม_'
'ดน_'
'ณพ_'
'งฉ_'
'while_'
'though_'
'school_'
'person_'
'mine_'
'fuck_'
'asked_'
'Listen_'
'องการให_'
'นจร_'
'ตรงน_'
'ดหน_'
'ณกำล_'
'ความส_'
'hold_'
'heart_'
'easy_'
'crazy_'
'couldn_'
'Excuse_'
'าใจ_'
'องด_'
'ษ_'
'งเด_'
'without_'
'hope_'
'hand_'
'bring_'
'alone_'
'Mom_'
' ..._'
'็ _'
'แย_'
'เธอเป_'
'ดร_'
'กๆ_'
'yes_'
'whole_'
'turn_'
'thinking_'
'side_'
'knows_'
'important_'
'happen_'
'cause_'
'brother_'
'โปรด_'
'เขา_'
'าให_'
'วม_'
'บว_'
'บผ_'
'บก_'
'ดค_'
'under_'
'stuff_'
'reason_'
'ers_'
'bit_'
'. -_'
' _'
' / _'
'แจ_'
'เธอร_'
'อยากให_'
'พล_'
'งเร_'
'myself_'
'lost_'
'looks_'
'kids_'
'husband_'
'gets_'
'far_'
'death_'
'ass_'
'Tell_'
'และค_'
'เตอร_'
'าไหร_'
'อไป_'
'อนร_'
'บต_'
'นเข_'
'นาท_'
'ตย_'
'ณด_'
'งหน_'
'working_'
'wants_'
'ry_'
'rest_'
'See_'
'างก_'
'ละ_'
'พวกค_'
'ตาย_'
'ณน_'
'จะได_'
'จะเป_'
'งช_'
'คน_'
'wish_'
'thank_'
'question_'
'p_'
'having_'
'gave_'
'eyes_'
'blood_'
'เพราะว_'
'วนะ_'
'มาร_'
'มท_'
'นเถอะ_'
'ดเร_'
'งแล_'
'งเป_'
'water_'
'supposed_'
'soon_'
'since_'
'open_'
'number_'
'body_'
'anymore_'
'E_'
'่!_'
'เหต_'
'วท_'
'ยง_'
'ภ_'
'บเธอ_'
'นาย_'
'งได_'
'rs_'
'means_'
'making_'
'le_'
'hit_'
'em_'
'case_'
'behind_'
'] _'
'With_'
'At_'
'ใหญ_'
'อยให_'
'สำค_'
'บมา_'
'นเหม_'
'งหมด_'
'ty_'
'play_'
'kid_'
'hours_'
'eat_'
'change_'
'business_'
'Nothing_'
'7_'
'! - _'
'♪ _'
'ไปท_'
'เรา_'
'ยบร_'
'บน_'
'นเจ_'
'นหล_'
'ณท_'
'ซะ_'
'จะไม_'
'such_'
'sit_'
'save_'
'probably_'
'minute_'
'least_'
'full_'
'ahead_'
'00_'
'ใหม_'
'เธอก_'
'อเล_'
'นธ_'
'งพ_'
'กจ_'
'year_'
'taking_'
'power_'
'front_'
'fight_'
'deal_'
'Sure_'
'Huh_'
'Give_'
'20_'
'ในท_'
'ใจ_'
'เธอม_'
'าได_'
'าช_'
'ยวท_'
'นแน_'
'นหร_'
'ความร_'
'tomorrow_'
'police_'
'nt_'
'lose_'
'game_'
'ce_'
'ain_'
'O_'
'Miss_'
'Ah_'
'* _'
'เว_'
'ิ์_'
'าห_'
'อหน_'
'องเป_'
'สน_'
'วส_'
'นใคร_'
'นคร_'
'กม_'
'word_'
'truth_'
'telling_'
'te_'
'shot_'
'second_'
'safe_'
'its_'
'four_'
'daughter_'
'also_'
'Which_'
'Sam_'
'้!_'
'่..._'
'มากกว_'
'มต_'
'young_'
'walk_'
'plan_'
'later_'
'ies_'
'five_'
'both_'
'ไปแล_'
'แห_'
'และม_'
'เอาน_'
'เอง_'
'เรากำล_'
'ากล_'
'มาน_'
'ผมม_'
'นใช_'
'นเอง_'
'นป_'
'ณย_'
'story_'
'sleep_'
'ring_'
'hate_'
'each_'
'couple_'
'comes_'
'beautiful_'
'alive_'
'Even_'
'Chuck_'
'เซ_'
'าถ_'
'อนว_'
'ยล_'
'ผมเป_'
'บเร_'
'นเช_'
'นายไม_'
'กย_'
'x_'
'trouble_'
'started_'
'read_'
'pay_'
'married_'
'leaving_'
'forget_'
'fire_'
'fact_'
'cut_'
'control_'
'Sir_'
'Our_'
'His_'
'ในน_'
'เราก_'
'เธอต_'
'องต_'
'วร_'
'ผมได_'
'บข_'
'นเน_'
'ทำ_'
'งให_'
'กพ_'
'กผ_'
'week_'
'trust_'
'promise_'
'party_'
'met_'
'ment_'
'makes_'
'ma_'
'brought_'
'b_'
'YOU_'
'Will_'
'Fuck_'
'C_'
'าอ_'
'างหน_'
'างม_'
'อไหร_'
'วหน_'
'รก_'
'นคนท_'
'จะต_'
'yours_'
'whatever_'
'town_'
'times_'
'stupid_'
'king_'
'ie_'
'human_'
'hey_'
'fun_'
'different_'
'ch_'
'break_'
'book_'
'ation_'
'answer_'
'On_'
'E'
'000_'
'และน_'
'เราได_'
'เคร_'
'ุ _'
'าไป_'
'อแม_'
'นหมายถ_'
'นจะไม_'
'ทำไมค_'
'งเลย_'
'_'
'works_'
'watch_'
'waiting_'
'ted_'
'shouldn_'
'line_'
'light_'
'goes_'
'funny_'
'close_'
'bitch_'
'afraid_'
'Something_'
'Jesus_'
'Hold_'
'Great_'
'From_'
'30_'
' \\ _'
'ำล_'
'าเช_'
'าข_'
'อเร_'
'อะไรก_'
'อพ_'
'วเข_'
'รอ_'
'บหน_'
'ตว_'
'set_'
'se_'
'less_'
'felt_'
'f_'
'died_'
'child_'
'\u_'
'\\_'
'Was_'
'These_'
'M_'
'12_'
'าไง_'
'าเก_'
'าผ_'
'อผ_'
'อบ_'
'องให_'
'องใช_'
'ระว_'
'มข_'
'บาร_'
'บพ_'
'นไงบ_'
'นแหละ_'
'นเห_'
'ณว_'
'ชาร_'
'ขอให_'
'กไม_'
'tried_'
'th_'
'stand_'
'past_'
'needs_'
'miss_'
'himself_'
'hands_'
'god_'
'class_'
'along_'
'Y_'
'Very_'
'THE_'
'Keep_'
'่?_'
'เธฒเธ_'
'าบ_'
'างไร_'
'สม_'
'สก_'
'ยด_'
'พวก_'
'ปร_'
'บเด_'
'นไปได_'
'ตต_'
'งไว_'
'ครอบคร_'
'กเร_'
'weeks_'
'tion_'
'sent_'
'secret_'
'point_'
'oh_'
'news_'
'moment_'
'lie_'
'gun_'
'en_'
'either_'
'choice_'
'aren_'
'Isn_'
'Bye_'
'Be_'
';_'
'์?_'
'ใกล_'
'เราย_'
'เขาก_'
'านะ_'
'ออก_'
'องส_'
'อข_'
'วด_'
'ระหว_'
'บอกฉ_'
'นๆ_'
'นไหม_'
'จำเป_'
'จอห_'
'งอ_'
'ความค_'
'คนเด_'
'คนน_'
'u_'
'speak_'
'somebody_'
'sister_'
'shoot_'
'picture_'
'ne_'
'music_'
'lady_'
'high_'
'half_'
'free_'
'doctor_'
'check_'
'become_'
'ate_'
'Put_'
'Man_'
'Everything_'
'8_'
'อา'
'วยนะ_'
'วก'
'รา_'
'ผล_'
'บผม_'
'บช_'
'นเต_'
'นอะไร_'
'ญหา_'
'จากน_'
'กนะ_'
'somewhere_'
'serious_'
'possible_'
'perfect_'
'outside_'
'girls_'
'feeling_'
'drink_'
'between_'
'against_'
'Shut_'
'50_'
'0_'
'ในห_'
'ใจท_'
'เสร_'
'เขาม_'
'อนข_'
'อช_'
'วโมง_'
'วอย_'
'มาท_'
'มาก'
'มก_'
'ปาร_'
'นแบบน_'
'นทำให_'
'ธอ_'
'ถอะ_'
'ณถ_'
'งป_'
'คด_'
'การณ_'
'การ_'
'_'
'words_'
'thanks_'
'ter_'
'special_'
'running_'
'pick_'
'parents_'
'ous_'
'luck_'
'lives_'
'learn_'
'ic_'
'fault_'
'dog_'
'clear_'
'ble_'
'bed_'
'age_'
'[ _'
'Wow_'
'May_'
'Jack_'
', "_'
' '
'ใคร_'
'เราค_'
'เธออย_'
'เธญเธ_'
'ุ๊_'
'าเพ_'
'ามา_'
'ามา'
'อาท_'
'ออ_'
'องไม_'
'องบ_'
'รณ_'
'ปดาห_'
'บไปท_'
'ต'
'ดอ_'
'จน_'
'งเก_'
'งย_'
'งจ_'
'คนอ_'
'ของเรา_'
'ของเธอ_'
'ของ_'
'order_'
'longer_'
'land_'
'known_'
'hot_'
'food_'
'de_'
'ck_'
'TO_'
'O'
'Michael_'
'15_'
'ใจว_'
'เบอร_'
'เถอะ_'
'ิ๊_'
'าผม'
'ออย_'
'อนนะ_'
'สาม_'
'วง_'
'มาส_'
'มาด_'
'บได_'
'นไป'
'นายก_'
'ณคร_'
'ชาย_'
'จะร_'
'งง_'
'กอ_'
'กถ_'
'_'
'touch_'
'sick_'
'sense_'
'seems_'
'seeing_'
'scared_'
'living_'
'hair_'
'eye_'
'date_'
'cannot_'
'bye_'
'asking_'
'Would_'
'Ok_'
'New_'
'Mrs_'
'John_'
'Got_'
'? !_'
'ไป'
'ในช_'
'ใน_'
'ใต_'
'ใจ'
'โรงเร_'
'และก_'
'แข_'
'เพราะฉ_'
'ายท_'
'างหาก_'
'างด_'
'าคน'
'ะค_'
'อะไรท_'
'อบ'
'องผ_'
'องการท_'
'อก'
'หมายความว_'
'ยวข_'
'ผมว_'
'ผมกำล_'
'ปฏ_'
'นไง_'
'นจะเป_'
'ธ'
'ฏ_'
'งเหรอ_'
'งเข_'
'คง'
'ขา_'
'worried_'
'six_'
'return_'
'red_'
'na_'
'months_'
'ls_'
'kept_'
'hour_'
'follow_'
'anybody_'
'almost_'
'Whoa_'
'Um_'
'Stay_'
'Shit_'
'Nice_'
'N'
'Me_'
'Cause_'
'Agent_'
' ♪_'
'เลยนะ_'
'เธอน_'
'เธอค_'
'เขาอย_'
'เขาร_'
'เขาจะ'
'าเธอ'
'าเ'
'าจะม_'
'ะท_'
'ฮะ_'
'อยาก'
'อมก_'
'อป_'
'อด'
'องจ_'
'วยเหล_'
'วคร_'
'วข_'
'ลด_'
'มอ_'
'บบน_'
'บน'
'นแม_'
'นมาก_'
'ทางน_'
'ตอย_'
'ดๆ_'
'ดแล_'
'ชายคนน_'
'จะม_'
'จะ'
'จนกว_'
'งกล_'
'ความจร_'
'ขอร_'
'กป_'
'worth_'
'w_'
'team_'
'sounds_'
'send_'
'quite_'
'patient_'
'ok_'
'ns_'
'given_'
'finally_'
'fast_'
'et_'
'dream_'
'ar_'
'Two_'
'Someone_'
'P_'
'Never_'
'Move_'
'Every_'
'Damn_'
'Daddy_'
'After_'
'9_'
' -_'
'เศษ_'
'เวลา'
'เธตเน_'
'เขาต_'
'าแล_'
'านน_'
'อเ'
'องเร_'
'สาว'
'สอง_'
'ละ'
'ยกว_'
'พยายาม'
'ป'
'บางคร_'
'ทำงาน_'
'ตามท_'
'งแม_'
'คาร_'
'ความผ_'
'กเ'
'กษ_'
'women_'
'ss_'
'shall_'
'sex_'
'security_'
'piece_'
'office_'
'locked_'
'hospital_'
'glad_'
'future_'
'figure_'
'country_'
'changed_'
'bg_'
'amazing_'
'Watch_'
'Those_'
'Tae_'
'Some_'
'Mm_'
'L_'
'IT_'
'I'
'Help_'
'Everyone_'
'Does_'
'Actually_'
'...._'
'. "_'
' ... _'
' *_'
'ใคร'
'โร_'
'โทรศ_'
'โต_'
'และเ'
'ำม_'
'าแ'
'ายน_'
'อาว_'
'อยๆ_'
'อนเด_'
'อนม_'
'อถ_'
'วยด_'
'วน'
'รถ'
'ยว'
'มาแล_'
'มร_'
'พวกเรา_'
'พวก'
'บแม_'
'บาย'
'บ'
'นใน'
'นายต_'
'นาย'
'นหรอ_'
'ทาง_'
'ตาม_'
'ญเส_'
'ชอบ'
'งไงก_'
'งแ'
'งล_'
'งบ_'
'กได_'
'กบ_'
'}_'
'taken_'
'sort_'
'seem_'
'quiet_'
'pain_'
'million_'
'lying_'
'ke_'
'ice_'
'finish_'
'dinner_'
'damn_'
'calling_'
'brain_'
'Since_'
'Sarah_'
'Make_'
'Looks_'
'ING_'
'Her_'
'Dean_'
'Call_'
'; _'
'่, _'
'ไปด_'
'และถ_'
'เหย_'
'เราจะ'
'เธอได_'
'เธอย_'
'เธอจะ'
'เจอ'
'เคยเห_'
'าไป'
'าร'
'านท_'
'าซ_'
'ะส_'
'ะคร_'
'อไง_'
'อาย_'
'องถ_'
'อของฉ_'
'วไป_'
'วเ'
'วยซ_'
'วนต_'
'วง'
'ยอมร_'
'ยท_'
'มด_'
'พวกเขา_'
'พ'
'ประต_'
'บอ_'
'นอร_'
'ทาง'
'ทร_'
'งโ'
'งาน_'
'งถ_'
'ควบค_'
'คงไม_'
'ขอโทษ_'
'ของเขา_'
'กลายเป_'
'{\\_'
'win_'
'weird_'
'ton_'
'tired_'
'nobody_'
'murder_'
'moving_'
'mad_'
'law_'
'kidding_'
'ity_'
'ine_'
'ge_'
'fighting_'
'evidence_'
'ding_'
'cold_'
'clothes_'
'city_'
'cell_'
'buy_'
'black_'
'ball_'
'act_'
'Young_'
'Whatever_'
'Only_'
'By_'
'100_'
'/ _'
'ในส_'
'โก_'
'แล'
'เออ_'
'เวอร_'
'เราอย_'
'เผ_'
'เจอก_'
'ี่?_'
'าเม_'
'าเขา'
'าป_'
'าทำไม_'
'าด'
'าจะเป_'
'าจ_'
'างเ'
'างอย_'
'างอ_'
'าก'
'อได_'
'อาจ'
'อยได_'
'อยนะ_'
'อนน_'
'อนต_'
'องเล_'
'องล_'
'องมา'
'องช_'
'องกล_'
'อง'
'หมายถ_'
'สอง'
'วแ'
'วม'
'ลาย'
'ลง_'
'รา'
'รอก_'
'รง'
'ยนะ_'
'ยนร_'
'ยน'
'ยต_'
'ยด'
'พบ'
'ปลอดภ_'
'บไป'
'บเขา_'
'บาย_'
'นแ'
'นอาจจะ'
'นหรอก_'
'นทร_'
'นคน'
'นของค_'
'ธอ'
'ทำได_'
'ทย_'
'ตา'
'ตกลง_'
'ดได_'
'จากท_'
'งาน'
'ของ'
'_'
'voice_'
'turned_'
'talked_'
'rather_'
'pull_'
'press_'
'normal_'
'lucky_'
'key_'
'gentlemen_'
'drive_'
'dance_'
'club_'
'careful_'
'card_'
'Welcome_'
'President_'
'Open_'
'More_'
'J_'
'G_'
'Fine_'
'D'
'Christmas_'
'Aren_'
'Alex_'
'... ._'
'*_'
'์!_'
'ไหมว_'
'ไล_'
'ไปได_'
'ใน'
'โง_'
'และไม_'
'แมน_'
'เวลา_'
'เราร_'
'เคย'
'าอะไร_'
'าง'
'ะก_'
'อเช_'
'ออกมา'
'องโ'
'องเก_'
'องพ_'
'องจร_'
'หมด_'
'ลอง'
'ยเร_'
'ยม'
'ยก'
'มด'
'ฟ'
'ผมแค_'
'บอกให_'
'บอก'
'บซ_'
'บการ'
'นเธอ'
'นายค_'
'นะคะ_'
'นะ'
'นทาง'
'นจะต_'
'นจะ'
'ทำแบบน_'
'ทางเล_'
'ดให_'
'ดน'
'ณเห_'
'ณล_'
'ณทำ'
'ณกล_'
'ขอโทษคร_'
'ขอบใจ_'
'กร'
'กฉ_'
'กคน'
'whoa_'
'wear_'
'test_'
'ten_'
'suspect_'
'space_'
'song_'
'sing_'
'sign_'
'sh_'
'realize_'
'ons_'
'needed_'
'happens_'
'ground_'
'field_'
'fair_'
'ey_'
'explain_'
'dreams_'
'decided_'
'certain_'
'cHFFFFFF_'
'Peter_'
'First_'
'Anything_'
'17_'
'...?_'
'- - _'
'"?_'
'ๆ'
'ไหน'
'ไร_'
'โดย'
'แบบ'
'เลย'
'เราท_'
'เธอกำล_'
'เธฑเธ_'
'ึ?_'
'ำหร_'
'าใจ'
'าเจ_'
'ะเหรอ_'
'ฮาร_'
'อไป'
'อาร_'
'อล'
'อยด_'
'อย'
'อนอย_'
'อจะ'
'องไป'
'องเข_'
'องอย_'
'องการ'
'อความ'
'อการ'
'สาม'
'วเหรอ_'
'วยต_'
'วยค_'
'ระ'
'รอ'
'ยอย_'
'ยส_'
'มา'
'พา'
'ผมช_'
'ผมจะ'
'ผม'
'บางส_'
'นแต_'
'นเม_'
'นอน'
'ทำไม'
'ทำร_'
'ทำ'
'ตำรวจ'
'ตอน'
'ณไป'
'ณช_'
'ณจะไม_'
'ณ'
'ฐ'
'ญญาณ'
'ชายท_'
'ช'
'จาก'
'งไป_'
'งมาก_'
'งจะ'
'ของผม_'
'กา'
'ก'
'´_'
'_'
'_'
'weren_'
'welcome_'
'v_'
'using_'
'system_'
'straight_'
'smell_'
'se'
'road_'
'president_'
'present_'
'ness_'
'loved_'
'les_'
'kiss_'
'fly_'
'fear_'
'favor_'
'everybody_'
'el_'
'drop_'
'difference_'
'cover_'
'cool_'
'company_'
'buddy_'
'boys_'
'box_'
'boat_'
'bag_'
'angry_'
'air_'
'To'
'Three_'
'T'
'People_'
'General_'
'Everybody_'
'Could_'
'Back_'
'B_'
'Any_'
'ในต_'
'ใจเย_'
'โดน'
'โชคด_'
'แหละ_'
'และท_'
'เอา'
'เหน_'
'เรา'
'เคล_'
'เขาย_'
'เขา'
'ี้?_'
'าเอ_'
'าเล_'
'าเด_'
'าเค_'
'าว'
'างเป_'
'า'
'ะน_'
'อแ'
'อาหาร'
'อะไร'
'อน'
'องได_'
'องเ'
'องอ_'
'องห_'
'องฉ_'
'อคร_'
'หา_'
'ศาสตร_'
'วไม_'
'วไป'
'ลก'
'รอบคร_'
'ยใจ_'
'ยบ_'
'ยช_'
'มห_'
'พวกเรา'
'พวกเขาไม_'
'พวกนาย'
'ผล'
'ผมอย_'
'ผมพ_'
'บไป_'
'บแ'
'บท'
'นเคย'
'นำ'
'นบอกว_'
'นทำ'
'นกว_'
'ทำไมล_'
'ท'
'ดนะ_'
'ณเ'
'ณส_'
'ณจะ'
'ชาย'
'จแล_'
'จำได_'
'จะมา'
'จะ_'
'จอ'
'งไป'
'งอะไร_'
'งหมดน_'
'งห_'
'งซ_'
'งจาก'
'คอ'
'คว_'
'คน'
'กเล_'
'การท_'
'กสาว'
'กช_'
'ya_'
'white_'
'wearing_'
'war_'
'totally_'
'top_'
'ting_'
'till_'
'takes_'
'step_'
'star_'
'sta'
'shut_'
'ship_'
'questions_'
'protect_'
'none_'
'moved_'
'mouth_'
'mistake_'
'mess_'
'hungry_'
'happening_'
'giving_'
'fish_'
'feels_'
'er'
'dangerous_'
'catch_'
'birthday_'
'anyway_'
'Turn_'
'Try_'
'Still_'
'M'
'Father_'
'An_'
' ._'
'่.._'
'ไมเค_'
'ในว_'
'แก'
'เธอพ_'
'เธธเธ_'
'เตร_'
'เจอ_'
'เขาพ_'
'ี๊_'
'ี้!_'
'ี่..._'
'ำ'
'าเส_'
'าม'
'างส_'
'าของ'
'าการ'
'อะไรน_'
'อะ'
'อนบ_'
'อนฉ_'
'องไปแล_'
'องย_'
'องของ'
'อคน'
'สซ_'
'วเล_'
'วยอร_'
'ลเ'
'ลา'
'ลส_'
'ยเ'
'ยา'
'มเ'
'มอร_'
'มล_'
'พวกเค_'
'ปต_'
'ปกป_'
'บเพ_'
'บเจ_'
'บเ'
'บสน_'
'บบ'
'บด_'
'บคน'
'นเ'
'นายเป_'
'นายจะ'
'นา_'
'นหย_'
'นหมายความว_'
'นว'
'นนาย'
'ถาม'
'ตาม'
'ตรง'
'ดแ'
'ณให_'
'ณเคย'
'ณบอกว_'
'จะไป'
'จอร_'
'จน'
'งๆแล_'
'งใน'
'งเ'
'งงาน_'
'ของเรา'
'การต_'
'กษา'
'กคนท_'
'wonder_'
'wedding_'
'walking_'
'su'
'stuck_'
'sleeping_'
'single_'
'saved_'
'position_'
'ping_'
'pi'
'pass_'
'la_'
'ive_'
'information_'
'ful_'
'forward_'
'excuse_'
'ent_'
'der_'
'contact_'
'building_'
'area_'
'York_'
'U'
'Think_'
'Say_'
'Ra'
'Na'
'King_'
'Jimmy_'
'Hong_'
'Hmm_'
'Forget_'
'FBI_'
'Dude_'
'Doesn_'
'Didn_'
'B'
'... ..._'
'... - _'
'... '
'- [_'
'% _'
' ]_'
' (_'
'้?_'
'ไหนก_'
'ไปส_'
'ในอ_'
'ในการ'
'โอ'
'โว_'
'โน_'
'และส_'
'แท_'
'แกน_'
'เอาไว_'
'เราเป_'
'เราทำ'
'เราจ_'
'เม'
'เพราะม_'
'เพราะ'
'เขากำล_'
'ิ์ _'
'าใคร'
'าแม_'
'าเรา'
'าย'
'ามเ'
'านเ'
'าจะ'
'าคร_'
'ฮ'
'อบบ_'
'อนหน_'
'อของ'
'หมอน_'
'สอน'
'สท_'
'ศ'
'วยช_'
'วยฉ_'
'วยความ'
'วถ_'
'วด'
'ลท_'
'ยแล_'
'ยวนะ_'
'ยญ_'
'ยงแค_'
'มาเร_'
'มอง'
'พอ_'
'พวกเขาเ'
'พวกเขาต_'
'พวกเขาจะ'
'ปกต_'
'บเง_'
'บเข_'
'นใหม_'
'นใจ'
'นา'
'นอะไร'
'นอยาก'
'นหา'
'นพวก'
'นพร_'
'นจาก'
'นขอโทษ_'
'น'
'ทำม_'
'ตรวจ'
'ดเลย_'
'ดล_'
'ดประต_'
'ดฉ_'
'ณเร_'
'ณนะ_'
'ญญา_'
'ญช_'
'จากเ'
'จาก_'
'จะให_'
'งไงบ_'
'งใหญ_'
'งวล'
'งผ_'
'งทำ'
'งคง'
'คำ'
'ความ'
'คก_'
'ของพ_'
'ขนาดน_'
'กแ'
'กเข_'
'กา_'
'_'
'ying_'
'worked_'
'vampire_'
'type_'
'throw_'
'teacher_'
'strong_'
'street_'
'store_'
'standing_'
'small_'
'service_'
'report_'
'proud_'
'pen'
'lt_'
'losing_'
'looked_'
'ley_'
'ler_'
'l'
'ks_'
'killing_'
'ia_'
'honey_'
'hole_'
'gs_'
'fit_'
'figured_'
'feet_'
'ds_'
'doubt_'
'deep_'
'dear_'
'busy_'
'born_'
'beat_'
'attack_'
'apartment_'
'ant_'
'ad'
'Tom_'
'Son_'
'Seong_'
'Rachel_'
'Pro'
'Once_'
'ON_'
'Majesty_'
'Le'
'Hurry_'
'Colonel_'
'Captain_'
'? -_'
'3'
' /_'
' -- _'
' $_'
'ํ_'
'์, _'
'์'
'ไอ'
'โอล_'
'โอกาส'
'โร'
'แฮร_'
'แฟน'
'แพ_'
'แซม_'
'เอาเ'
'เอม_'
'เราจะไม_'
'เมอร_'
'เธอด_'
'เขาบอกว_'
'ู'
'ี่!_'
'ิ!_'
'ำเ'
'าใจม_'
'าเธอ_'
'าเขา_'
'าอะไร'
'านาย'
'านพ_'
'าทำไม'
'างล_'
'ะไร_'
'ะเ'
'ะนะ_'
'ะ'
'อเส_'
'อะไรเก_'
'อยม_'
'อมา'
'อม'
'อนเ'
'อธ_'
'องข_'
'อค'
'หาร'
'หมอ'
'สาย'
'สามารถ'
'สนใจ'
'ศร_'
'วไง_'
'วใจ'
'วอ_'
'วยล_'
'วนหน_'
'ลโหล_'
'ลย'
'ล'
'รก'
'ยาก'
'ยอม'
'ยง'
'ย'
'มาเ'
'มส_'
'ภาพบ_'
'ฟอร_'
'ผมเข_'
'ผมส_'
'ปป_'
'บใช_'
'บเรา_'
'บมา'
'นไปไม_'
'นเรา'
'นอยากให_'
'นหว_'
'นทาง_'
'นตร_'
'นจะไป'
'นคนเด_'
'นการ'
'ทา'
'ตำรวจ_'
'ดแบบน_'
'ดเด_'
'ดเก_'
'ดก'
'ณแ'
'ณา'
'ณอ_'
'ณมา'
'ญญาณ_'
'ญ'
'ชนะ'
'จะเอา'
'จะเ'
'จะกล_'
'งเอ_'
'งผม'
'งจากน_'
'งจากท_'
'งคร_'
'ง'
'คส_'
'ควรจะ'
'ควร'
'คร'
'ข'
'กไว_'
'กเหม_'
'กเป_'
'กเธอ_'
'กเด_'
'กเก_'
'การเ'
'กจะ'
'กฆ_'
'กของ'
'â_'
'z_'
'watching_'
'wake_'
'truck_'
'station_'
'spent_'
'sitting_'
'seven_'
'sad_'
'relationship_'
'ra_'
'ones_'
'nervous_'
'ms_'
'mission_'
'middle_'
'meant_'
'mail_'
'lo'
'listening_'
'led_'
'killer_'
'ions_'
'il_'
'ian_'
'hi_'
'handle_'
'guard_'
'gi'
'forever_'
'expect_'
'est_'
'es'
'energy_'
'drunk_'
'da_'
'completely_'
'ck'
'charge_'
'carry_'
'Walter_'
'Mommy_'
'Ma_'
'Harry_'
'G'
'Claire_'
'Bring_'
'Better_'
'Ba'
'Am_'
'25_'
'24_'
'!"_'
' , _'
'ไมค_'
'ไปเร_'
'ในเ'
'โปรด'
'โทษท_'
'โทรหา'
'โ_'
'แรง'
'แปลก'
'แบบว_'
'เเล_'
'เศษ'
'เธกเน_'
'เธ'
'เคยได_'
'เคยเ'
'เคยม_'
'ี._'
'าใจผ_'
'าโ'
'าเลย_'
'าผม_'
'านของ'
'านก_'
'าน'
'างง_'
'างค_'
'างของ'
'ะไร'
'ฮอ'
'อเลย_'
'อเป_'
'อเธอ'
'อเก_'
'อะไรค_'
'อะ_'
'ออกมา_'
'อยากได_'
'อยากจะ'
'อยน_'
'อยก_'
'อนของ'
'องอะไร_'
'องว_'
'องทำ_'
'องความ'
'หอ'
'หลาย'
'สเตอร_'
'ษ'
'วให_'
'วะ_'
'วยให_'
'วต_'
'ลน'
'ลง'
'ลก_'
'ยาย'
'ยอ_'
'ยบ'
'ยนม_'
'ฟร_'
'พวกเธอ'
'ผลท_'
'ผมขอโทษ_'
'ปท_'
'บเอ'
'บเขา'
'บมาแล_'
'บป_'
'บของ'
'นายร_'
'นาน'
'นาง'
'นมาจาก'
'นฟ_'
'นทำไม_'
'นของ'
'ทำไมไม_'
'ทำอะไร'
'ทำต_'
'ทางเ'
'ตำแหน_'
'ตาย'
'ตอบ'
'ตก'
'ดย_'
'ดการ'
'ณเข_'
'ณหน_'
'ณพระเจ_'
'ณควรจะ'
'ญหา'
'ซะ'
'ชม_'
'จะทำให_'
'จะค_'
'จบ'
'งๆ'
'งไปท_'
'งส'
'งมา'
'งงานก_'
'งงาน'
'ขอโทษนะ_'
'ของท_'
'กให_'
'กใน'
'การ'
'กระ'
'กมาก_'
'within_'
'thinks_'
'strange_'
'state_'
'situation_'
'signal_'
'seconds_'
'seat_'
'sake_'
'sa'
'respect_'
'ra'
'prove_'
'problems_'
'practice_'
'partner_'
'p'
'message_'
'lunch_'
'letter_'
'hmm_'
'hello_'
'hasn_'
'h'
'guns_'
'girlfriend_'
'forgive_'
'force_'
'fake_'
'ex_'
'ess_'
'enjoy_'
'eating_'
'difficult_'
'de'
'd'
'cross_'
'crap_'
'conversation_'
'clean_'
'caught_'
'brothers_'
'bite_'
'bet_'
'bastard_'
'address_'
'W_'
'Too_'
'Today_'
'TV_'
'Sometimes_'
'S'
'Mother_'
'Me'
'Lee_'
'Leave_'
'Lady_'
'James_'
'IS_'
'II_'
'Happy_'
'Five_'
'Find_'
'Fi'
'Ellie_'
'Du'
'Detective_'
'David_'
'Dan_'
'Casey_'
'Bill_'
'Absolutely_'
'About_'
'A'
'?"_'
'13_'
'11_'
''._'
'"._'
'ไล'
'ไฟ'
'ไปเลย_'
'ใบ'
'ในส'
'ในม_'
'ใครก_'
'โชว_'
'แอ_'
'และพ_'
'และตอนน_'
'แบบ_'
'แคร_'
'เอ'
'เหร_'
'เสธ'
'เพราะง_'
'เน'
'เธอกล_'
'ี, _'
'าไปแล_'
'าแก'
'าเธอจะ'
'าหล_'
'าระ'
'านมา_'
'านต_'
'าจะไม_'
'างใน_'
'างใน'
'างแล_'
'างแ'
'างเร_'
'อเขา'
'อาจจะ'
'อะไรเหรอ_'
'อะไรอย_'
'ออกไป_'
'ออก'
'อส'
'อภ_'
'อนส_'
'อนค_'
'องการอะไร_'
'อคะ_'
'อของค_'
'หละ_'
'สำเร_'
'สามารถ_'
'สมบ_'
'สถานท_'
'วโ'
'วเธอ'
'วยว_'
'ลอร_'
'รอย'
'ยะ'
'ยรต_'
'มาเถอะ_'
'มาถ_'
'มค_'
'มของ'
'พอ'
'พวกเขากำล_'
'พน_'
'ผมด_'
'บใน'
'บโ'
'บเรา'
'บอก_'
'บนาย_'
'นใจ_'
'นเหต_'
'นเลย'
'นเท_'
'นายอย_'
'นายน_'
'นสามารถ'
'นมน_'
'นม'
'นตราย_'
'นจะได_'
'นง_'
'ทำไมถ_'
'ทยาล_'
'ถนน_'
'ตะ'
'ตรา'
'ตร'
'ดไป'
'ดเหต_'
'ดำ'
'ดอร_'
'ดการเร_'
'ณแน_'
'ณะ'
'ณผ_'
'ณบ_'
'ณจะร_'
'ญญาก_'
'ซา'
'ซซ_'
'ซ'
'จำ'
'จะเก_'
'จะพ_'
'จนกระท_'
'จ'
'งไง'
'งใจ'
'งเม_'
'งของ'
'คา'
'คอน'
'ความเป_'
'คนร_'
'ขอโทษค_'
'ของเธอ'
'กโ'
'กเฉ_'
'กเกอร_'
'การส_'
'กล'
'กด'
'กฐาน'
'กคนน_'
'~_'
'yesterday_'
'wood_'
'wonderful_'
'ves_'
'truly_'
'trip_'
'transparent_'
'tor_'
'third_'
'tape_'
'sweet_'
'sound_'
'sometimes_'
'short_'
'shop_'
'rules_'
'rich_'
'record_'
'recognize_'
'reading_'
'public_'
'playing_'
'plane_'
'per_'
'others_'
'missed_'
'ments_'
'memory_'
'meeting_'
'matters_'
'marry_'
'lu'
'loves_'
'loose_'
'ling_'
'likes_'
'lied_'
'lead_'
'keys_'
'keeps_'
'join_'
'instead_'
'imagine_'
'hi'
'herself_'
'gives_'
'fool_'
'fo'
'ff_'
'fell_'
'favorite_'
'fall_'
'fa'
'et'
'entire_'
'ence_'
'early_'
'during_'
'daddy_'
'cy_'
'count_'
'cash_'
'calm_'
'broken_'
'boss_'
'board_'
'be'
'bar_'
'bank_'
'awesome_'
'arm_'
'apart_'
'agent_'
'advice_'
'across_'
'V'
'Until_'
'U_'
'Time_'
'Somebody_'
'R_'
'Ooh_'
'OF_'
'Nobody_'
'NOT_'
'Morgan_'
'ME_'
'Li'
'Last_'
'K_'
'Jo'
'Honey_'
'Frank_'
'Do'
'Che'
'Car'
'Big_'
'Alright_'
'AND_'
'... . _'
'. '
' ] _'
'— _'
'์ '
'้..._'
'่... _'
'่'
'ไมล_'
'ไปให_'
'ไข_'
'ในแ'
'ในเม_'
'ในป_'
'ในขณะท_'
'ใครส_'
'ใครร_'
'โฮ_'
'โม'
'โกหก'
'แฮ'
'และ'
'เวลาท_'
'เปอร_'
'เธอมา'
'เธดเธ_'
'เธฃเธ'
'เท'
'เขาได_'
'เขาเร_'
'เกล_'
'ี่._'
'ี'
'าๆ_'
'าไปใน'
'าแต_'
'าแก_'
'าส'
'ายๆ_'
'ายเ'
'ายค_'
'ายก_'
'าผมจะ'
'าบาท_'
'างไม_'
'างโ'
'ั'
'ะว_'
'ะต_'
'ะคะ_'
'ฮา'
'อใจ'
'อโ'
'อะไรให_'
'อซ_'
'องแ'
'องเด_'
'อกเ'
'หา'
'หน'
'สำน_'
'สาวๆ_'
'สาร'
'วเป_'
'วาม'
'วาด'
'วลา'
'วยหน_'
'วจร_'
'วของ'
'ลาก_'
'ลบ_'
'ระบบ'
'ระด_'
'รอง'
'รม'
'ยาน'
'ยนเ'
'ยนท_'
'ยงเ'
'ยคะ_'
'มาให_'
'มนต_'
'มน'
'ภาพ'
'พราะ'
'พย_'
'พบก_'
'ฝน'
'ผมเห_'
'ผมหมายถ_'
'ผมย_'
'ผมน_'
'ผมกล_'
'ปเ'
'บให_'
'บอร_'
'บห_'
'บความ'
'บคนท_'
'นไปท_'
'นไ'
'นโ'
'นายเ'
'นะคร_'
'นศ_'
'นลง'
'นมาแล_'
'นมาเ'
'นฝ_'
'นประ'
'นบอก'
'นความ'
'นคนด_'
'ทน_'
'ถ'
'ตส_'
'ตท_'
'ดไม_'
'ดใน'
'ดเป_'
'ดเ'
'ดส'
'ดพลาด'
'ดพ_'
'ดปกต_'
'ดบ_'
'ดชอบ'
'ดช_'
'ดจ_'
'ณโ'
'ณชอบ'
'ณจะได_'
'ณคง'
'ญาต_'
'ชาว'
'จะอย_'
'จะถ_'
'งแรก_'
'งเส_'
'งหล_'
'งคนน_'
'งคน'
'คเ'
'ครบ'
'คนเ'
'ขา'
'ของเขา'
'ของเ'
'กไป'
'กใช_'
'กะ'
'กห_'
'กการ'
'ª_'
'_'
'_'
'zed_'
'yo_'
'yo'
'x'
'wrote_'
'writing_'
'worse_'
'wi'
'whether_'
'victims_'
've'
'tro'
'training_'
'train_'
'tic_'
'th'
'table_'
't'
'sur'
'stopped_'
'sky_'
'share_'
'sell_'
'self_'
'scene_'
'reach_'
'race_'
'qua'
'push_'
'program_'
'prison_'
'powerful_'
'pictures_'
'ong_'
'offer_'
'obviously_'
'ny_'
'ni'
'near_'
'movie_'
'missing_'
'military_'
'mi'
'lived_'
'letting_'
'ko_'
'keeping_'
'jo'
'ish_'
'interesting_'
'idiot_'
'hurry_'
'hero_'
'hang_'
'gotten_'
'glass_'
'fix_'
'fat_'
'faster_'
'except_'
'ele'
'dying_'
'drugs_'
'decision_'
'da'
'cry_'
'col'
'ch'
'ce'
'blue_'
'battle_'
'base_'
'art_'
'apologize_'
'anywhere_'
'allow_'
'ah_'
'accident_'
'X_'
'Were_'
'Want_'
'V_'
'Tu'
'Tommy_'
'Talk_'
'Su'
'Ro'
'Remember_'
'R'
'Prince_'
'Per'
'Next_'
'Ms_'
'Master_'
'Little_'
'Jeff_'
'Har'
'H_'
'Gra'
'FOR_'
'Except_'
'Exactly_'
'En'
'Director_'
'Chi'
'Bo'
'Besides_'
'Al'
'8'
'6'
'40_'
'200_'
'., _'
'ไว'
'ไม'
'ไปย_'
'ไปถ_'
'ไง'
'ในค_'
'โบสถ_'
'โต'
'และผม'
'แรก'
'แดง'
'แค'
'เอาเลย_'
'เอาละ_'
'เอาม_'
'เส'
'เลยเ'
'เลยว_'
'เราไป'
'เราแค_'
'เราน_'
'เร'
'เฟอร_'
'เพลง'
'เพราะเ'
'เพราะค_'
'เพ'
'เธอเ'
'เธอช_'
'เธงเน_'
'เซอร_'
'เซ'
'เคยค_'
'เขาแ'
'เขามา'
'ี่'
'ำท_'
'าไงนะ_'
'าเห_'
'าเน_'
'าเท_'
'าเข_'
'าหาร'
'าหร_'
'ายแ'
'ายร_'
'ามาเ'
'าพวกเขา'
'านายเ'
'านหล_'
'าจะเ'
'าจะต_'
'าจะด_'
'างเด_'
'างเก_'
'างนอกน_'
'างนอก'
'อเธอ_'
'อะไรบางอย_'
'อหา'
'อยากร_'
'อยส_'
'อยค_'
'อมแล_'
'อมา_'
'อบเ'
'อนไม_'
'องแล_'
'องหา'
'องฟ_'
'องทำ'
'องการเ'
'องการจะ'
'อกจาก'
'หาเ'
'หนาว'
'สมอง'
'สตาร_'
'วเอง'
'วร'
'วยได_'
'วยการ'
'วย'
'วมา'
'วพ_'
'วนาย'
'วจะ'
'ลน_'
'รน'
'ร'
'ยอดเย_'
'ยมต_'
'ยนแปลง'
'ยคร_'
'ยกม_'
'มไปด_'
'มแล_'
'มแ'
'มาจาก'
'มบ_'
'มค'
'ภายใน'
'ฟาร_'
'พวกเขา'
'ผมไป'
'ผมแ'
'ผมเ'
'ผมขอ'
'ประเด_'
'บไว_'
'บางคน'
'บอกค_'
'บอ'
'บสาย'
'บมาท_'
'บก'
'นใจว_'
'นและ'
'นแบบ'
'นแก_'
'นเวลา'
'นเจอ'
'นส'
'นผม'
'นตอน'
'นชอบ'
'นจะเ'
'นความผ_'
'นคงไม_'
'นค'
'นของฉ_'
'นขอ'
'ทำอย_'
'ทำก_'
'ตลอด_'
'ตน_'
'ดอะไร_'
'ดอกไม_'
'ดหว_'
'ดหล_'
'ดมา'
'ดของ'
'ณมาก_'
'ณป_'
'ณนาย'
'ณฑ_'
'ญเ'
'ซาร_'
'ชา'
'จากการ'
'จะทำ'
'จะช_'
'จะฆ_'
'จนท_'
'จจ_'
'งใช_'
'งเล_'
'งเธอ'
'งการ'
'คนพวกน_'
'ค'
'ขอโทษท_'
'ขอฉ_'
'ขว_'
'ขย_'
'ขน'
'กๆ'
'กไหม_'
'กหล_'
'กษณ_'
'กตา'
'write_'
'wondering_'
'ways_'
'w'
'view_'
'video_'
'victim_'
'van_'
'v'
'ur_'
'unsub_'
'universe_'
'trick_'
'treat_'
'track_'
'tra'
'to'
'tea_'
'te'
'ta_'
'ta'
'support_'
'suggest_'
'strength_'
'steal_'
'spend_'
'speed_'
'speaking_'
'sha'
'safety_'
'ro'
'quickly_'
'pro'
'pressure_'
'poor_'
'po'
'played_'
'perhaps_'
'ped_'
'peace_'
'pa'
'ors_'
'officer_'
'nu'
'no'
'neck_'
'nd_'
'month_'
'monster_'
'mis'
'market_'
'machine_'
'location_'
'list_'
'ku'
'knowing_'
'kick_'
'ki_'
'ki'
'ke'
'ja'
'interested_'
'ings_'
'ical_'
'hotel_'
'hip_'
'heads_'
'har'
'gy_'
'government_'
'goddamn_'
'ging_'
'finished_'
'fallen_'
'evening_'
'ends_'
'definitely_'
'crying_'
'cream_'
'confused_'
'common_'
'comfortable_'
'clock_'
'chest_'
'calls_'
'bunch_'
'broke_'
'bringing_'
'boyfriend_'
'bought_'
'band_'
'b'
'asshole_'
'army_'
'arms_'
'ance_'
'al'
'admit_'
'ad_'
'absolutely_'
'Wook_'
'Won_'
'Without_'
'W'
'Trust_'
'Ta'
'So'
'Si'
'Serena_'
'RE_'
'RE'
'RA'
'Paul_'
'Out_'
'Mo'
'Mmm_'
'Matt_'
'Jedi_'
'Je'
'IN_'
'Eric_'
'Close_'
'Christ_'
'Charlie_'
'Bad_'
'BA'
'Ar'
'? '
'5'
'18_'
'( _'
'! '
'๊?_'
'้, _'
'่._'
'ไร'
'ไปเ'
'ในบ_'
'ใ'
'โอกาส_'
'โลก'
'โน'
'โก'
'แอบ'
'แสดง'
'และใน'
'และแ'
'และด_'
'และช_'
'แดน_'
'เอา_'
'เวลาเ'
'เรามา'
'เราจะได_'
'เมา'
'เพราะเขา'
'เธอทำ'
'เธอ'
'เธฒเน_'
'เดว_'
'เคยเป_'
'เคยร_'
'เค'
'เขาทำ'
'เขาด_'
'เขาช_'
'ี้._'
'ี้..._'
'ี!_'
'าไว_'
'าไปท_'
'าไ'
'าใน'
'าเราต_'
'าเรา_'
'าเธอเป_'
'าเขาไม_'
'าหมาย'
'าหญ_'
'าวว_'
'าวน_'
'าวด_'
'าพวกม_'
'าบอก'
'านายจะ'
'านหน_'
'านผ_'
'านค_'
'าทาง'
'าต'
'าจร_'
'างร_'
'างนอก_'
'าความ'
'ั_'
'ะต'
'อไ'
'อเด_'
'อเขา_'
'อาจจะ_'
'ออ'
'อยแล_'
'อมเ'
'อนเป_'
'อนล_'
'องอะไรก_'
'องขอ'
'อกไป'
'อกเตอร_'
'หรอกนะ_'
'หมาป_'
'สวย'
'สล_'
'สม'
'ศาจ'
'ศพ'
'วแล_'
'วแต_'
'วเด_'
'วเก_'
'วา_'
'วอ'
'วส'
'วยเหรอ_'
'วยเ'
'วยคร_'
'วช_'
'วจ_'
'วงเ'
'ลว'
'ลนด_'
'ลงไป'
'ฤด_'
'ราก'
'ระบ_'
'รร'
'รบ_'
'รถ_'
'ยา_'
'ยมท_'
'ยนเป_'
'ยงด_'
'ยกเว_'
'มได_'
'มให_'
'มาช_'
'มองเห_'
'มหน_'
'มผ_'
'ม'
'ภรรยา'
'พอเ'
'พอด_'
'พวกเราต_'
'พวกเขาก_'
'พวกเ'
'ผมเคย'
'ผมอยากให_'
'ผมจะไป'
'ปา'
'ปส_'
'ประโยชน_'
'ประกาศ'
'ประ'
'ปกรณ_'
'บเล_'
'บเธอ'
'บรถ'
'บมาเ'
'บนาย'
'บนะ_'
'บจ_'
'นไรนะ_'
'นไปเ'
'นแย_'
'นแฟน'
'นายม_'
'นพบ'
'นงาน'
'นความค_'
'นของเ'
'นก'
'ตายส_'
'ตอ'
'ดเจ_'
'ดำเน_'
'ดอะไร'
'ดพลาด_'
'ดผ_'
'ดจะ'
'ด'
'ณอยากจะ'
'ณห'
'ณจะทำ'
'ณควร'
'ฐ_'
'ฎ_'
'ฎ'
'ญญา'
'ซอ'
'ฉ'
'จะแ'
'จะเร_'
'จะส_'
'งๆนะ_'
'งใจ_'
'งเหล_'
'งเรา'
'งเพ_'
'งเน_'
'งเขา'
'งหมดท_'
'งหมด'
'งมาก'
'งความ'
'งกว_'
'คเกอร_'
'คอร_'
'คอย'
'ขาย'
'ของอ'
'กเลย_'
'กระส_'
'กงาน'
'กกว_'
'zo'
'zi'
'wine_'
'weapon_'
'ven_'
'va'
'upon_'
'uni'
'una'
'twice_'
'transparent'
'total_'
'ties_'
'theory_'
'the'
'teach_'
'taught_'
'surprise_'
'sun_'
'starting_'
'so'
'smart_'
'sla'
'skin_'
'simple_'
'sight_'
'si'
'shape_'
'ses_'
'sea_'
'row_'
'rid_'
'research_'
'relax_'
'rate_'
'r'
'quit_'
'que'
'private_'
'pleasure_'
'per'
'operation_'
'on'
'ob'
'nt'
'notice_'
'ning_'
'ng'
'nes_'
'ner_'
'na'
'moon_'
'meat_'
'master_'
'marriage_'
'magic_'
'local_'
'lawyer_'
'lately_'
'ker_'
'ju'
'joke_'
'jail_'
'ize_'
'ir'
'i'
'hurts_'
'humans_'
'hoping_'
'hing_'
'group_'
'gro'
'gift_'
'gate_'
'g'
'fi'
'feelings_'
'excited_'
'everywhere_'
'empty_'
'eight_'
'ears_'
'dy_'
'dumb_'
'dude_'
'dry_'
'drug_'
'dress_'
'do'
'detective_'
'dating_'
'created_'
'cra'
'connection_'
'co'
'closed_'
'cla'
'children_'
'che'
'bus_'
'bri'
'bomb_'
'blow_'
'barely_'
'ba'
'avoid_'
'ated_'
'appreciate_'
'ally_'
'allowed_'
'accept_'
'Yu'
'Yo_'
'White_'
'We'
'Walker_'
'TO'
'THAT_'
'Sweet_'
'Susan_'
'Sit_'
'Sho'
'Sha'
'Seriously_'
'SI'
'Run_'
'Professor_'
'Mike_'
'Merlin_'
'Mar'
'Lo'
'Ladies_'
'L'
'Ku'
'Kim_'
'Kill_'
'Joe_'
'Ji_'
'Jenny_'
'J'
'IN'
'Hu'
'Ho'
'Gun_'
'Gi'
'Fa'
'Eun_'
'De'
'Danny_'
'Da'
'DNA_'
'Congratulations_'
'C'
'Bu'
'Both_'
'Blair_'
'Bea'
'Aah_'
'AN'
'ALL_'
'9'
'7'
'14_'
'0'
' )_'
'์._'
'่,_'
'ไปอย_'
'ใจเ'
'ใครท_'
'โล_'
'โรง'
'โธ_'
'โทร'
'โดยไม_'
'โ'
'แสง'
'แวมไพร_'
'และเม_'
'และเขา'
'และต_'
'และข_'
'แพ'
'แผนก'
'แผน'
'แปลว_'
'แบ_'
'แทนท_'
'แกเป_'
'แกน'
'เเม_'
'เเ'
'เฮ'
'เศษเ'
'เว'
'เฝ_'
'เธอไป'
'เธอบอกว_'
'เด'
'เซร_'
'เขาจ_'
'เขาค_'
'เก'
'ำค_'
'าไร_'
'าใช_'
'าใจแล_'
'าเธอไม_'
'าเขาเป_'
'าหาก'
'าวของ'
'ามารถ'
'าพวก'
'าผมไม_'
'านส'
'านม_'
'านด_'
'าช'
'าจะไป'
'าจะร_'
'างนะ_'
'างจะ'
'างกาย'
'ะม_'
'ะด_'
'ฯ_'
'อใน'
'อเมร_'
'อเค'
'อาจจะเป_'
'อะไรไหม_'
'อะไรอ_'
'อะไรผ_'
'ออา'
'ออะไร'
'ออกไป'
'ออกจาก'
'อยากเช_'
'อยต_'
'อยฉ_'
'อมท_'
'อฟ_'
'อบจะ'
'อนเจ_'
'อนผม'
'อท'
'อต'
'อจาก'
'อจร_'
'องไห_'
'องเพลง'
'องสาว'
'องส'
'องชาย'
'องจาก'
'อคนท_'
'อของเขา_'
'หาร_'
'หาก'
'หมด'
'สแ'
'สเตฟาน_'
'สเ'
'สนใจ_'
'สน'
'สดง'
'วใช_'
'วา'
'วยอะไร'
'วยม_'
'วมเพศ'
'วมม_'
'วมก_'
'วนใหญ_'
'วนท_'
'วทำไม'
'วจ'
'วงเวลาท_'
'วกน_'
'ลเลอร_'
'ลาน'
'ลยนะ_'
'ลบ'
'ลต_'
'ลงเ'
'รายงาน'
'ราตร_'
'รอเด_'
'รอบ'
'รรม'
'ยใจ'
'ยแ'
'ยล'
'มๆ_'
'มาส'
'มาย_'
'มาค_'
'มากเลย_'
'มอย_'
'มส'
'มป_'
'มจาก'
'มจ_'
'ภายใน_'
'ภาพ_'
'ฟา'
'พวกเราไม_'
'พบ_'
'ผมทำ'
'ปรา'
'ปก_'
'บไม_'
'บไ'
'บใคร'
'บเป_'
'บา'
'บอน_'
'บอกเธอ'
'บอกเ'
'บหล_'
'บส'
'บรา'
'บยา'
'บย_'
'บพวก'
'บนเ'
'บคนอ_'
'บกล_'
'นใครก_'
'นใคร'
'นเอา'
'นเสมอ_'
'นายไป'
'นายกำล_'
'นออก'
'นอนว_'
'นอ'
'นสำค_'
'นสน_'
'นมาก'
'นภ_'
'นบน'
'นนะ'
'นจะให_'
'นจะทำให_'
'นความล_'
'นคนเ'
'นคง'
'ธรรมชาต_'
'ทเ'
'ทำไมเราไม_'
'ทางเด_'
'ทางท_'
'ทษ'
'ตเ'
'ตอนเ'
'ตลอดเวลา_'
'ตฉ_'
'ตกลง'
'ตก_'
'ดไว_'
'ดเล_'
'ดอน_'
'ดอ'
'ดวง'
'ดมา_'
'ดจาก'
'ดจร_'
'ดการก_'
'ณอยากให_'
'ณซ_'
'ณจ_'
'ญล_'
'ญญาว_'
'ซอร_'
'ชอบเ'
'จา'
'จะด_'
'จะจ_'
'งเจ_'
'งเกต_'
'งานเ'
'งอ'
'งหา'
'งพ'
'งบอก'
'ความฝ_'
'คนต_'
'ของล_'
'ของม_'
'กๆอย_'
'กไ'
'กเท_'
'กอง'
'กสอง'
'กษาความปลอดภ_'
'กระเป_'
'กพาต_'
'กฐาน_'
'กของฉ_'
'กกล_'
'กก'
'¶ _'
'zz'
'ze_'
'z'
'y'
'wo'
'whi'
'war'
'visit_'
'ver_'
'usually_'
'ure_'
'ur'
'upset_'
'ult'
'turning_'
'tower_'
'ti'
'thoughts_'
'text_'
'ter'
'sword_'
'surprised_'
'surface_'
'suddenly_'
'stick_'
'ster_'
'stage_'
'ss'
'spy_'
'somehow_'
'smile_'
'slow_'
'sion_'
'showed_'
'shooting_'
'shoes_'
'shift_'
'seemed_'
'river_'
'risk_'
'ride_'
'regret_'
'ran_'
'quick_'
'putting_'
'pregnant_'
'possibly_'
'plenty_'
'plans_'
'picked_'
'personal_'
'pants_'
'paint_'
'paid_'
'os_'
'ordinary_'
'or'
'noticed_'
'nose_'
'necessary_'
'names_'
'named_'
'n'
'murderer_'
'murdered_'
'mor'
'mo'
'medical_'
'mate_'
'mar'
'map_'
'manager_'
'main_'
'lovely_'
'lic'
'level_'
'legs_'
'laugh_'
'lab_'
'ky_'
'kitchen_'
'ked_'
'ka'
'ip'
'inter'
'honest_'
'ho'
'hiding_'
'hide_'
'helping_'
'helped_'
'held_'
'harder_'
'hand'
'ham_'
'guest_'
'goodbye_'
'ght_'
'ger_'
'fully_'
'fucked_'
'ford_'
'folks_'
'floor_'
'fla'
'fired_'
'finds_'
'experience_'
'exact_'
'escape_'
'ery_'
'ec'
'earth_'
'ear'
'due_'
'dick_'
'destiny_'
'ded_'
'dealing_'
'dan'
'computer_'
'college_'
'coffee_'
'clo'
'chief_'
'can'
'bull'
'bs_'
'breath_'
'breaking_'
'bottle_'
'block_'
'bi'
'assume_'
'asleep_'
'ary_'
'arrived_'
'animals_'
'animal_'
'alright_'
'agree_'
'agents_'
'action_'
'ab'
'Ya'
'X'
'Wake_'
'Wa'
'WE_'
'Vi'
'Uncle_'
'THIS_'
'Show_'
'Should_'
'Se'
'Ru'
'Pull_'
'Pu'
'Pri'
'P'
'Over_'
'No'
'Ne'
'Nah_'
'NG_'
'Mi_'
'Maria_'
'LI'
'Ki'
'Kate_'
'Johnny_'
'Ja'
'Honestly_'
'High_'
'Hell_'
'Ha'
'Girl_'
'DE'
'Con'
'Cha'
'Booth_'
'Bobby_'
'BE_'
'Anyway_'
'Another_'
'Again_'
'Ad'
'Ac'
'45_'
'4'
'2'
'19_'
'16_'
' .._'
'์..._'
'้่_'
'้._'
'้,_'
'้ '
'่.. _'
'ไหมล_'
'ไปเอา'
'ไซ'
'ไข'
'ไกล'
'ในเวลา'
'ใครเ'
'ใครอย_'
'โรงพยาบาล_'
'โดย_'
'โจ_'
'โกหก_'
'แอ'
'แหม_'
'แลเ'
'และโ'
'และเรา'
'และค'
'แลนด_'
'แลต_'
'แมน'
'แม'
'แผ_'
'แป_'
'แบลร_'
'แตกต_'
'เฮนร_'
'เอเ'
'เอกสาร'
'เหรอ'
'เสมอ_'
'เราเ'
'เราสามารถ'
'เราจะทำ'
'เราจะต_'
'เราควร'
'เมล_'
'เธอเข_'
'เธฒเธ'
'เทอร_'
'เจนน_'
'เคราะห_'
'เคย_'
'เขาอาจจะ'
'เกร'
'ู้'
'ู่'
'ี้... _'
'ี้ '
'ี้'
'ำร_'
'าๆ'
'าไหม_'
'าไง'
'าใจไหม_'
'าเธอต_'
'าเขาเ'
'าะ'
'าอยาก'
'าอ'
'ายส_'
'ายของ'
'าฝ_'
'าผมเ'
'านไป'
'านแล_'
'านาย_'
'านจะ'
'าทำ'
'าตอนน_'
'างๆ'
'างให_'
'างเปล_'
'างหล_'
'างย_'
'างข_'
'าขอ'
'ากำล_'
'อและ'
'อแก_'
'อเพ_'
'อารมณ_'
'อาการ'
'อะไรบ_'
'อสร_'
'อยเ'
'อยากเ'
'อปกป_'
'อป'
'อนได_'
'อนแอ'
'อนแล_'
'อนย_'
'อนจะ'
'อนของฉ_'
'อทำให_'
'อทำ'
'องเส_'
'องหล_'
'องหน_'
'องสงส_'
'องราว'
'องป_'
'องบอก'
'องของเ'
'องการม_'
'องการค_'
'หายไป'
'หายใจ'
'หลบ'
'หมาย'
'สามารถเ'
'สา'
'สมควร'
'สงส_'
'ส'
'วๆ_'
'วใน'
'วโมง'
'วเองเ'
'วเหม_'
'วเรา'
'วเร_'
'วหล_'
'วยแ'
'วยส_'
'วมไพร_'
'วนเ'
'วตอนน_'
'ลเล_'
'ละเ'
'ลด'
'ราชา'
'ระเบ_'
'ระ_'
'รอด'
'รย_'
'รมณ_'
'รน_'
'ยใจด_'
'ยาน_'
'ยอะ'
'ยอมแพ_'
'ยหาย'
'ยบเ'
'ยงก_'
'ยค_'
'มไ'
'มเต_'
'มเด_'
'มาเป_'
'มะ'
'มอน'
'มอ'
'มว_'
'มจะ'
'ฟท_'
'พอแล_'
'พวกเราม_'
'พระ'
'ฝร_'
'ผมให_'
'ผมเจอ'
'ผมหว_'
'ผมจะไม_'
'ปลา'
'ประมาณ'
'บแล_'
'บเก_'
'บาล_'
'บาง'
'บอา'
'บอกมา'
'บรร'
'บพวกเขา_'
'บผม'
'บปาก_'
'บถ_'
'นๆ'
'นไรหรอก_'
'นไร'
'นโอเค_'
'นโดน'
'นแหล_'
'นแรง'
'นเง_'
'นเกล_'
'นายได_'
'นายเคย'
'นายกล_'
'นฮ_'
'นอะไรก_'
'นอยากจะ'
'นลอง'
'นยา'
'นมาส_'
'นมากกว_'
'นมา'
'นตาม'
'นตอนท_'
'นซะ_'
'นจำเป_'
'นจะบอก'
'นจบแล_'
'นฆ_'
'ทไ'
'ทำไมต_'
'ทำไมฉ_'
'ทำส_'
'ทอ'
'ทหาร'
'ทส_'
'ทร'
'ทยาศาสตร_'
'ทบ'
'ทน'
'ถว'
'ตใน'
'ตใจ'
'ตายเถอะ_'
'ตรง_'
'ตค_'
'ดา_'
'ดยา'
'ดยอด'
'ดมาก_'
'ดตาม'
'ดง'
'ดค'
'ณไป_'
'ณใช_'
'ณแม_'
'ณเพ_'
'ณเช_'
'ณสามารถ'
'ณสว_'
'ฒ_'
'ฐบาล'
'ญหาน_'
'ญท_'
'ชคด_'
'จากร_'
'จะเข_'
'จง'
'จก_'
'งไงล_'
'งไ'
'งเลย'
'งหวะ'
'งหลาย'
'งหรอ_'
'งหมดเ'
'งสอง'
'งวล_'
'งทำให_'
'งตา'
'งจะได_'
'ฆาตกรรม'
'ฆาตกร'
'คำพ_'
'ความหมาย'
'ครา'
'คงจะ'
'ขโมย'
'ขอเ'
'ขนาด'
'ขณะท_'
'กไล_'
'กโทษ'
'กเหรอ_'
'กเธอ'
'กเธ'
'กเขา_'
'กษา_'
'กษณะ'
'กมาก'
'กฝ_'
'กทำ'
'กชาย'
'·_'
'_'
'ye'
'ws_'
'worst_'
'woods_'
'window_'
'wind_'
'willing_'
'west_'
'vy_'
'ving_'
'uses_'
'unless_'
'un'
'ue_'
'u'
'tt_'
'tri'
'tit'
'thousand_'
'teeth_'
'sy_'
'sweetie_'
'swear_'
'sung_'
'sun'
'summer_'
'subject_'
'student_'
'ste'
'starts_'
'spot_'
'spoke_'
'split_'
'spi'
'spending_'
'site_'
'sit'
'sh'
'serve_'
's'
'revenge_'
'realized_'
'raised_'
'proof_'
'promised_'
'professional_'
'prepared_'
'pray_'
'pot_'
'por'
'planning_'
'pic'
'photo_'
'pho'
'para'
'paper_'
'ow_'
'over'
'orders_'
'often_'
'non_'
'neither_'
'ne'
'mp'
'mon'
'messed_'
'mer_'
'mention_'
'me'
'mama_'
'major_'
'lt'
'lonely_'
'lock_'
'li'
'lay_'
'ladies_'
'ka_'
'k'
'jump_'
'judge_'
'je'
'involved_'
'interest_'
'ina'
'immediately_'
'ill_'
'ig'
'honor_'
'honestly_'
'ho_'
'history_'
'ha_'
'green_'
'gre'
'grade_'
'gold_'
'ga_'
'ga'
'further_'
'ft_'
'free'
'fre'
'form_'
'forgot_'
'fore'
'for'
'foot_'
'finger_'
'facility_'
'extremely_'
'ew'
'ered_'
'enemies_'
'ended_'
'ee'
'ed'
'ea'
'du'
'dr_'
'disgusting_'
'discuss_'
'disc'
'di'
'dge_'
'devil_'
'des'
'department_'
'dark_'
'cute_'
'cur'
'crime_'
'cre'
'court_'
'cops_'
'continue_'
'comp'
'code_'
'closer_'
'ches_'
'chair_'
'cha'
'camera_'
'brilliant_'
'books_'
'bone_'
'blo'
'blame_'
'biggest_'
'bigger_'
'believed_'
'beer_'
'bathroom_'
'balls_'
'babe_'
'aware_'
'attention_'
'arrested_'
'arrest_'
'ar'
'appropriate_'
'apparently_'
'answers_'
'ag'
'above_'
'ability_'
'a'
'Y'
'Wi'
'WAS_'
'Unless_'
'Un'
'US_'
'Ti'
'Things_'
'Te'
'Ste'
'School_'
'Same_'
'SE'
'Rush_'
'Ray_'
'Probably_'
'Pretty_'
'Pre'
'Pen'
'Nate_'
'Must_'
'Mu'
'Mor'
'Miami_'
'Mat'
'Ma'
'MY_'
'Love_'
'Lord_'
'Lieutenant_'
'La'
'Know_'
'Ke'
'Katherine_'
'K'
'Japanese_'
'Jan_'
'Hit_'
'Henry_'
'Ha_'
'Guys_'
'Gu'
'Go'
'George_'
'Fucking_'
'Fire_'
'F'
'English_'
'Doug_'
'Di'
'Del'
'Death_'
'Check_'
'Carlos_'
'Ca'
'CIA_'
'CE_'
'CA'
'Buy_'
'Ben_'
'Bar'
'BUT_'
'Au'
'80_'
'500_'
'23_'
'10'
', '_'
' ¶_'
'่ '
'ๆเ'
'ไฮ_'
'ไหมคะ_'
'ไหมคร_'
'ไหม'
'ไหนล_'
'ไฟ_'
'ไปไหน_'
'ไปไหน'
'ไปใน'
'ไปหา'
'ไปส'
'ไปจาก'
'ไทเลอร_'
'ในโ'
'ในหน_'
'ในสถานการณ_'
'ในความ'
'ใด_'
'ใจก_'
'ใครบางคน'
'ใครทำ'
'โอเค'
'โห_'
'โย'
'โทรมา'
'โทน_'
'โท'
'แอนด_'
'และอย_'
'และอ_'
'และส'
'และผ_'
'และการ'
'แมร_'
'แผล'
'แนว'
'แตก'
'แดง_'
'แคลร_'
'แกทำ'
'แ'
'เอาไป'
'เอาต_'
'เอาจร_'
'เอง'
'เหรอคะ_'
'เวลาน_'
'เลยคร_'
'เราแ'
'เราจะไป'
'เรย_'
'เมร_'
'เพราะผม'
'เนอร_'
'เธอเห_'
'เธออาจจะ'
'เธอว_'
'เธอทำอะไร'
'เธฅเน_'
'เทร'
'เถ_'
'เชอร_'
'เจอร_'
'เจมส_'
'เจ'
'เคยพ_'
'เคยทำ'
'เคซ_'
'เขาไป'
'เขาเลย'
'เขาเข_'
'เขาถ_'
'เขาจะไม_'
'เขาจะทำ'
'ุ'
'ึ _'
'ี่, _'
'ี..._'
'ี '
'ำให_'
'ำแ'
'ำหน_'
'าใจว_'
'าเราไม_'
'าเราเ'
'าเบ_'
'าเธอร_'
'าเขาทำ'
'าเขาจะ'
'าหา'
'าห'
'าวเ'
'าวล_'
'ายไป'
'ายแล_'
'าบอกว_'
'าบ'
'านได_'
'านใน'
'านายไม_'
'านมา'
'านของเ'
'านข_'
'าทำให_'
'าจะได_'
'าจะทำ'
'าจะค_'
'างเพ_'
'างว_'
'างต_'
'างฉ_'
'างจาก'
'างคน'
'าขย_'
'ั๋_'
'ะไม_'
'ะเป_'
'ะอ'
'ะล_'
'อแล_'
'อเจ_'
'อเข_'
'อำนาจ'
'อาศ_'
'อา_'
'ออร_'
'อห_'
'อว'
'อยากเห_'
'อยากจะเช_'
'อยของ'
'อมร_'
'อมฉ_'
'อผมเ'
'อผม_'
'อผม'
'อนไป'
'อนเถอะ_'
'อนอ_'
'อนห_'
'อนมา'
'อนพวก'
'อนนาย'
'องใหญ_'
'องแบบน_'
'องเลย_'
'องหย_'
'องพวกน_'
'องทำอย_'
'องชาย_'
'องฆ_'
'องก'
'อการร_'
'อกล_'
'อกท_'
'อ'
'หรอ'
'หมวก'
'หมดแล_'
'หต_'
'หก'
'สาน'
'สระ'
'สนาม'
'สถาน_'
'สงคราม'
'วได_'
'วใจ_'
'วเราก_'
'วเม_'
'วเตอร_'
'วเจอก_'
'วเขา_'
'วะ'
'วยเร_'
'วมาก_'
'วผ_'
'วท'
'วงเวลาน_'
'วงน_'
'วของฉ_'
'ว'
'ลาก'
'ละก_'
'ลอด'
'ลงม_'
'รเ'
'ราช_'
'รห_'
'รบกวน'
'ยเวลา'
'ยเป_'
'ยเด_'
'ยอมให_'
'ยมมาก_'
'ยมพร_'
'ยนไป'
'ยนว_'
'ยต'
'ยจ_'
'ยงใ'
'ยงแ'
'ยงล_'
'ยงม_'
'ยงของ'
'ยกเ'
'ยกร_'
'มใน'
'มาเพ_'
'มาอย_'
'มาต_'
'มครอง'
'ภาค'
'ฟเ'
'ฟฟ_'
'พอได_'
'พวกเราท_'
'พวกเขาม_'
'พยายามท_'
'ผลเ'
'ผมเอง_'
'ผมเพ_'
'ผมเช_'
'ผมอยาก'
'ผมมา'
'ผมป'
'ผมบอก'
'ผมจะทำ'
'ปลก'
'ปน_'
'บเคร_'
'บเค_'
'บอย_'
'บหาย'
'บสวน'
'บปวด_'
'บการเ'
'นไง'
'นแรง_'
'นแรก'
'นแดน'
'นเปล_'
'นเตอร_'
'นเจ'
'นเคร_'
'นเขา_'
'นาฬ_'
'นายโ'
'นายอยาก'
'นายย_'
'นายทำ'
'นายช_'
'นาม'
'นอยากได_'
'นสบายด_'
'นรอ'
'นพ'
'นบอกให_'
'นธ'
'นทำงาน'
'นตาย'
'นตรงน_'
'นจะเอา'
'นจะเก_'
'นจะด_'
'นจะช_'
'นคงจะ'
'ธา'
'ทำอะไรก_'
'ทาน'
'ทางร_'
'ทะเล'
'ทอม_'
'ทท_'
'ทก_'
'ตามเ'
'ตอร_'
'ตลอดไป_'
'ตรวจสอบ'
'ตข_'
'ดไป_'
'ดเท_'
'ดาว'
'ดออก'
'ดห_'
'ดง_'
'ดของฉ_'
'ดของค_'
'ณแล_'
'ณเอา'
'ณเล_'
'ณหมายความว_'
'ณทำให_'
'ณจะเ'
'ณจะทำอะไร'
'ฒนา'
'ญค_'
'ญของ'
'ญก_'
'ซาเ'
'ซะหน_'
'ซะท_'
'ชน_'
'ชน'
'จำไว_'
'จากแ'
'จะไปเ'
'จะใช_'
'จะย_'
'จจะ'
'งไหนแล_'
'งใจจะ'
'งเธอ_'
'งเคร_'
'งาม'
'งานน_'
'งอา'
'งหาร'
'งลง'
'งนะ'
'คำส_'
'คำว_'
'คำถาม_'
'คำตอบ'
'คาล'
'ความเ'
'ความหว_'
'ความล_'
'ความช_'
'คบ'
'คนใหม_'
'คนด_'
'คงต_'
'ขอโทษด_'
'ขอเวลา'
'ของเจ_'
'ของพวกเขา_'
'ของนาย_'
'ของขว_'
'ของข_'
'ของการ'
'ขท_'
'กแห_'
'กแน_'
'กเขา'
'กาแฟ'
'กาศ'
'การร_'
'การทำ'
'กาย'
'กาน_'
'กอะไร'
'กอร_'
'กอบ'
'กอ'
'กระด_'
'กจ'
'กของค_'
'_'
'_'
'xi'
'woke_'
'win'
'wet_'
'weekend_'
'we'
'walked_'
'wa'
'ven'
'ured_'
'upstairs_'
'unit_'
'un_'
'uc'
'tu'
'trigger_'
'treatment_'
'trap_'
'tough_'
'tions_'
'tin'
'tight_'
'tes_'
'terrible_'
'suppose_'
'students_'
'sts_'
'storm_'
'stolen_'
'sto'
'spell_'
'soul_'
'social_'
'sma'
'size_'
'shock_'
'sexual_'
'settle_'
'season_'
'search_'
'ru'
'rope_'
'rm'
'ris'
'ril'
'ridiculous_'
'ren'
'remains_'
'rea'
'rat_'
'raise_'
'rain_'
'radio_'
'que_'
'punch_'
'pulled_'
'pop_'
'pocket_'
'planet_'
'pissed_'
'pe_'
'path_'
'papers_'
'pan'
'owe_'
'out'
'ourselves_'
'op'
'o'
'nine_'
'ney_'
'ned_'
'nar'
'mu'
'min'
'mal'
'mag'
'ma'
'lle'
'liked_'
'lights_'
'lies_'
'liar_'
'len'
'leaves_'
'learned_'
'leads_'
'le'
'laughs_'
'lar'
'ko'
'knife_'
'kin_'
'justice_'
'ji'
'jerk_'
'investigation_'
'inf'
'in'
'imp'
'image_'
'ight_'
'ier_'
'hundreds_'
'hundred_'
'hu'
'hor'
'her'
'hearing_'
'hardly_'
'hanging_'
'handled_'
'hadn_'
'ha'
'growing_'
'goo'
'ght'
'general_'
'ged_'
'fro'
'fresh_'
'fort'
'flying_'
'flu'
'flower_'
'finding_'
'fill_'
'files_'
'fe'
'fan_'
'familiar_'
'extra_'
'exist_'
'exciting_'
'ex'
'enemy_'
'ene'
'en'
'embarrassing_'
'eli'
'ee_'
'easier_'
'earlier_'
'dropped_'
'dri'
'draw_'
'doors_'
'doctors_'
'discovered_'
'dic'
'destroy_'
'deserve_'
'delivered_'
'defense_'
'cri'
'covered_'
'cou'
'copy_'
'cooking_'
'condition_'
'complete_'
'color_'
'chose_'
'chi'
'ces_'
'cer'
'ca_'
'burn_'
'bridge_'
'breathing_'
'breathe_'
'breakfast_'
'bra'
'bottom_'
'bloody_'
'ber'
'based_'
'at'
'art'
'arrive_'
'ard_'
'ani'
'ang'
'aki_'
'air'
'afternoon_'
'ac'
'] [_'
'Way_'
'WO'
'VE_'
'Up_'
'UN'
'Sue_'
'Star'
'Speaking_'
'Shi'
'Shh_'
'Scylla_'
'Sat'
'SA'
'Ri'
'Res'
'Ready_'
'Re'
'Queen_'
'Perhaps_'
'Pa'
'PH'
'Ow_'
'Or'
'Nu'
'Nathan_'
'Mon'
'Mo_'
'Min_'
'Mi'
'Mary_'
'Mark_'
'Man'
'MO'
'LL_'
'LA'
'Kang_'
'In'
'Hi'
'He'
'Hang_'
'Han_'
'HOW_'
'HAVE_'
'H'
'Getting_'
'Ge'
'Ga'
'Follow_'
'Fl'
'Elizabeth_'
'Double_'
'Destiny_'
'DO_'
'Co'
'CO'
'Bur'
'Bro'
'Bob_'
'Baby_'
'BE'
'Aye_'
'Aw_'
'Arthur_'
'Anna_'
'An'
'Ami'
'Ahh_'
'300_'
'..."_'
'." _'
'.'
'," _'
','
' --_'
' * * _'
'♪_'
'–_'
'่่_'
'ไหนท_'
'ไฟฟ_'
'ไปไม_'
'ไปอ_'
'ไปข_'
'ไท'
'ไงล_'
'ไก'
'ในอ'
'ในร_'
'ใครเป_'
'ใครจะ'
'โฮ'
'โอเคม_'
'โอกาสท_'
'โลก_'
'โรงพยาบาล'
'โมย'
'โป_'
'โทษ'
'โทรมา_'
'โดยท_'
'โจมต_'
'โจ'
'โค_'
'โค'
'โกรธ'
'แอล'
'และเขาก_'
'และร_'
'และย_'
'และทำ'
'แยก'
'แฟรงค_'
'แบบเ'
'แทน'
'แถม'
'แขก'
'เอเลน_'
'เอาแ'
'เอาหล_'
'เอามา'
'เสธ_'
'เวลานาน'
'เลวร_'
'เลยเหรอ_'
'เลยล_'
'เล'
'เราเร_'
'เราเจอ'
'เราอยาก'
'เราทำได_'
'เราจะเ'
'เราควรจะ'
'เย'
'เฟ'
'เพราะเรา'
'เพราะนาย'
'เพราะ_'
'เป'
'เบา'
'เธอแค_'
'เธอเล_'
'เธอล_'
'เธอมาทำอะไรท_'
'เธอบอก'
'เธอทำให_'
'เธอจ_'
'เธฒ_'
'เธฑเน_'
'เธงเธ_'
'เธงเธ'
'เดฟ_'
'เจอเ'
'เจค'
'เคน'
'เขาเ'
'เขาน_'
'เขากล_'
'เกม'
'ู๊_'
'ู..._'
'ี้, _'
'ี?_'
'ี... _'
'ิ?_'
'ิ '
'ำได_'
'ำแหน_'
'ำส_'
'าเหรอ_'
'าเม'
'าเธอได_'
'าเธออยาก'
'าอยากจะ'
'าวร_'
'าล'
'ายๆ'
'ายอย_'
'ายมา'
'ามาร_'
'ามาก_'
'ามอ'
'าพวกเรา'
'าพวกเค_'
'าพ'
'าผมร_'
'าประต_'
'าป'
'านไม_'
'านแ'
'านร_'
'านจ_'
'านก'
'าท'
'าตาย_'
'าตา'
'าชาย'
'าจะเก_'
'าจะ_'
'าจ'
'างไหม_'
'างไร'
'างได_'
'างแค_'
'างก'
'าคะ_'
'าคนท_'
'ฮโ'
'ฮาน'
'อเสนอ'
'อเวลา'
'อเท_'
'อาเ'
'อาร'
'อะไรเน_'
'อะไรม_'
'ออะไรก_'
'ออกแ'
'ออกมาจาก'
'อหร_'
'อหม'
'อยากทำ'
'อยากจะ_'
'อยาก_'
'อยท_'
'อมอ'
'อพวกเขา'
'อบส'
'อนๆ_'
'อนไข'
'อนให_'
'อนเลย_'
'อนเธอ'
'อนเขา'
'อนเก_'
'อนด_'
'อนคร_'
'อตกลง'
'อดเ'
'อจ_'
'องไปเ'
'องไป_'
'องอะไร'
'องล'
'องท'
'องตาย'
'อกอ_'
'อกว_'
'หาย'
'หลาน'
'สโ'
'สาวน_'
'สะ'
'สองคน'
'สหาย'
'สวรรค_'
'สระ_'
'สมา'
'สถาน'
'สตร_'
'สต'
'ศาล'
'ศจรรย_'
'วแม_'
'วเองได_'
'วเลข'
'วเธอก_'
'วเธอ_'
'วเขา'
'วาน'
'วอล'
'วอร_'
'วละ_'
'วยร_'
'วยบอก'
'วผม'
'วประก_'
'วนของ'
'วซ_'
'วงก'
'วคน'
'วของค_'
'วกว_'
'ลไป'
'ลไ'
'ลแ'
'ลำ'
'ลาเ'
'ลายเป_'
'ลอดภ_'
'ลอ'
'ลร_'
'ลม'
'ลปะ'
'ลของ'
'รายช_'
'รางว_'
'ระเจ_'
'รอด_'
'ยไป'
'ยใน'
'ยโ'
'ยอง'
'ยวฉ_'
'ยนช_'
'ยนค'
'ยดท_'
'ยญ'
'ยจ'
'ยงเด_'
'ยงคนเด_'
'ยงค_'
'ยของ'
'มเร_'
'มาได_'
'มาใน'
'มาแ'
'มาเลย_'
'มาเย_'
'มาหา'
'มาณ'
'มากข_'
'มอบ'
'มอน_'
'มหา'
'มล'
'มมา'
'มนตร_'
'มซ_'
'ฟอ'
'ฟล_'
'พวกแก'
'พวกเขาได_'
'พวกเขาอย_'
'พวกเขาท_'
'พของ'
'ผมเส_'
'ผมเร_'
'ผมพยายาม'
'ผมทำงาน'
'ผมถ_'
'ปแล_'
'ปแบบ'
'ปลอม'
'ประเทศ'
'ประว_'
'ประช_'
'ปด_'
'บโทรศ_'
'บเห'
'บเท_'
'บาก'
'บอะไร_'
'บอกผม'
'บล'
'บปาก'
'บปวด'
'บตาด_'
'บครอบคร_'
'นไปตาม'
'นโรค'
'นโก'
'นแหละ'
'นแสดง'
'นและก_'
'นเลยนะ_'
'นเราก_'
'นเพราะ'
'นเนอร_'
'นเธอ_'
'นเค_'
'นเขา'
'นายอำเภอ_'
'นายห'
'นายมา'
'นายจะไม_'
'นอาจจะเป_'
'นอาจ'
'นอกจาก'
'นสะ'
'นสอ'
'นรางว_'
'นยอม'
'นมาน_'
'นภาพ'
'นพวกเขา'
'นพยายาม'
'นปล_'
'นป'
'นทำได_'
'นตาย_'
'นตอนน_'
'นตลอด'
'นตราย'
'นฐาน'
'นช'
'นจำ'
'นจะร_'
'นจน'
'นของผม_'
'นของขว_'
'นการเ'
'ธอเ'
'ธรรมดา_'
'ธน_'
'ทำอะไร_'
'ทาน_'
'ทหาร_'
'ทรศ_'
'ถาม_'
'ถอยไป_'
'ถอด'
'ตแบบ'
'ตเตอร_'
'ตายไปแล_'
'ตายแล_'
'ตายเ'
'ตามน_'
'ตะว_'
'ตอนฉ_'
'ตลอด'
'ตล_'
'ตรงก_'
'ตถ_'
'ตด_'
'ตช_'
'ตของ'
'ตกต_'
'ดๆ'
'ดไฟ'
'ดไ'
'ดเส_'
'ดเพ_'
'ดเผย_'
'ดเช_'
'ดำ_'
'ดา'
'ดหมาย'
'ดสอบ'
'ดลง'
'ดร'
'ดยอด_'
'ดผม'
'ดชอบ_'
'ดความ'
'ดการเ'
'ณใน'
'ณอยาก'
'ณหมายถ_'
'ณหมอ_'
'ณสำหร_'
'ณจะไป'
'ณจะ_'
'ณข_'
'ฑเธ_'
'ญแจ'
'ญหาอะไร'
'ญหาของ'
'ญมาก'
'ซวย'
'ชอว_'
'ชอบ_'
'ชอ'
'ชล'
'ชนะ_'
'ชค'
'จเ'
'จารณา'
'จะส'
'จะบอก'
'จอม'
'จอง'
'จร'
'งใหม_'
'งแรง'
'งเห_'
'งเวลา'
'งหรอก_'
'งศพ'
'งวลเร_'
'งรอ'
'งผล'
'งประ'
'งป'
'งนา'
'งจะไม_'
'งจะไป'
'งจะเ'
'งจะตาย_'
'งจร_'
'งขา'
'งของค_'
'งกร_'
'งก'
'ความว_'
'ความม_'
'ความกล_'
'คล'
'คนใน'
'คนเป_'
'คนหน_'
'คนมา'
'คท_'
'ขาไป'
'ขาเ'
'ขาด'
'ขอแ'
'ขอบ'
'ของแม_'
'ของแ'
'ของว_'
'ของพวก'
'ของผม'
'ขอ'
'ขต'
'ขณะน_'
'การค_'
'กหรอก_'
'กส'
'กษาเ'
'กรรม'
'กมา'
'กชาย_'
'กคนไ'
'ä'
'_'
'_'
'zing_'
'ys_'
'yn'
'whoever_'
'wave_'
'waste_'
'virus_'
'ver'
'van'
'uniform_'
'under'
'und'
'ud'
'ty'
'ture_'
'tt'
'traffic_'
'threw_'
'taste_'
'target_'
'tal'
'swing_'
'surveillance_'
'surgery_'
'suck'
'sub'
'stopping_'
'stood_'
'stole_'
'staying_'
'stars_'
'sse'
'specific_'
'south_'
'sons_'
'smoke_'
'skull_'
'silly_'
'sighs_'
'shing_'
'shi'
'session_'
'seriously_'
'ser'
'sending_'
'sees_'
'sea'
'sco'
'scary_'
'rush_'
'runs_'
'rs'
'round_'
'rough_'
'rock_'
'rma'
'ries_'
'returned_'
'restaurant_'
'rest'
'ress_'
'responsible_'
'repeat_'
'rep'
'ref'
'qui'
'queen_'
'protecting_'
'proper_'
'process_'
'pretend_'
'prepare_'
'pre'
'poo'
'pieces_'
'piano_'
'pet_'
'personally_'
'passed_'
'park_'
'par'
'pack_'
'ov'
'ot_'
'ory_'
'original_'
'ora'
'opened_'
'om_'
'og'
'offered_'
'nowhere_'
'ngs_'
'nge_'
'net'
'nce_'
'natural_'
'mr_'
'mp_'
'mon_'
'miracle_'
'ming_'
'miles_'
'messing_'
'mb'
'marine_'
'man'
'm'
'ly'
'low_'
'lover_'
'load_'
'lly_'
'lips_'
'lin_'
'lin'
'likely_'
'lift_'
'leg_'
'laws_'
'large_'
'la'
'ite_'
'interview_'
'int'
'insist_'
'ins_'
'innocent_'
'inc'
'ied_'
'id_'
'ible_'
'ial_'
'hunt_'
'huge_'
'hon'
'headed_'
'he'
'grow_'
'gra'
'goin_'
'go'
'glo'
'gas_'
'games_'
'fur'
'foreign_'
'followed_'
'flight_'
'flies_'
'finest_'
'final_'
'file_'
'fet'
'feed_'
'fate_'
'famous_'
'falling_'
'explosion_'
'eve'
'ets_'
'ern_'
'ents_'
'entrance_'
'emp'
'emergency_'
'elevator_'
'eg'
'ect'
'easily_'
'duty_'
'drove_'
'driver_'
'doin_'
'dogs_'
'disappeared_'
'dirty_'
'dia'
'ders_'
'dep'
'deny_'
'decide_'
'ddy_'
'darling_'
'dam'
'customer_'
'ction_'
'ct_'
'ct'
'corner_'
'consider_'
'cons'
'con'
'command_'
'coincidence_'
'chu'
'choose_'
'ching_'
'checked_'
'center_'
'caused_'
'cat_'
'cat'
'cases_'
'cap'
'cameras_'
'ca'
'but'
'bullet_'
'brings_'
'bright_'
'bound_'
'bones_'
'bodies_'
'bo_'
'blu'
'blind_'
'bleeding_'
'birth_'
'ber_'
'beginning_'
'became_'
'bear_'
'bat'
'ban'
'ay_'
'awful_'
'ative_'
'ations_'
'assure_'
'ari'
'ards_'
'ap'
'ans_'
'angel_'
'affair_'
'acting_'
'ably_'
'\\"_'
'Zi'
'Yep_'
'Ye'
'YOUR_'
'West_'
'US'
'Tyler_'
'Tomorrow_'
'Ten_'
'Sy'
'Sunday_'
'Stu'
'Six_'
'She'
'Seung_'
'Seo_'
'Scott_'
'Sal'
'ST_'
'ST'
'SO_'
'Roger_'
'Ra_'
'Pi'
'Perfect_'
'OU'
'None_'
'NI'
'NA'
'Might_'
'Mc'
'Mac'
'ME'
'MAN_'
'Lucy_'
'Long_'
'Leonard_'
'Lea'
'Later_'
'Larry_'
'LY_'
'Ko'
'Ken'
'Jones_'
'Head_'
'Ham'
'HE_'
'HER_'
'HA'
'Guess_'
'Goodbye_'
'Gar'
'Fu'
'French_'
'Frankie_'
'F_'
'Eve'
'Eli_'
'Eat_'
'Earth_'
'ES_'
'Dong_'
'Doc_'
'Di_'
'Dead_'
'Dal'
'Cu'
'Couldn_'
'Coo'
'Club_'
'Clark_'
'City_'
'Chief_'
'Careful_'
'CH_'
'CAR'
'Bri'
'Bree_'
'Bones_'
'Black_'
'Bi'
'Be'
'Apparently_'
'Annie_'
'Andy_'
'American_'
'Am'
'Almost_'
'Abby_'
'AS'
'90_'
'60_'
'35_'
'26_'
'22_'
'14'
'... .._'
'. (_'
'$_'
'# #_'
'# # _'
' .. _'
'้.._'
'้... _'
'้.. _'
'้'
'็..._'
'ๆแ'
'ๆอย_'
'ๆก_'
'ไหล'
'ไหนได_'
'ไหนเน_'
'ไรล_'
'ไปเถอะ_'
'ไปหมด_'
'ไปหน_'
'ไปบ_'
'ไปซ_'
'ในรถ_'
'ใจในต_'
'ใจนะว_'
'ใครเห_'
'ใครบอก'
'โอเ'
'โรค'
'โย_'
'โพ'
'โปร'
'โบ'
'โทรกล_'
'โทร_'
'โดยเฉพาะ'
'โด'
'โซ_'
'โคร'
'แหวน'
'แห'
'แส'
'แว'
'และแม_'
'และอา'
'และผมก_'
'และบ_'
'และจ_'
'และความ'
'แลน_'
'แลค'
'แรก_'
'แฟ'
'แผน_'
'แปลกๆ_'
'แบล_'
'แบบท_'
'แบ'
'แน'
'แทน_'
'แถวน_'
'แถว'
'แช'
'แกไม_'
'แกล_'
'แกร_'
'แกต_'
'เเต_'
'เฮาส_'
'เอาแต_'
'เออ'
'เอฟบ_'
'เหอะ_'
'เสมอ'
'เวลาแ'
'เวร_'
'เวณ'
'เลอร_'
'เราเห_'
'เราอาจจะ'
'เราส_'
'เราส'
'เฟ_'
'เผา'
'เบค'
'เธอส_'
'เธอส'
'เธอจะได_'
'เธฐ_'
'เธญเน_'
'เธซเธ_'
'เธฅเธ'
'เทพ'
'เต'
'เซน'
'เช'
'เจส_'
'เจน_'
'เขาอยาก'
'เขาล'
'เขาท_'
'เ_'
'ู่?_'
'ู!_'
'ี่... _'
'ี่ '
'ิ..._'
'ิ'
'ำไ'
'ำห'
'ำว_'
'ำรวจ'
'ำร'
'ำพ_'
'ำผ_'
'ำนาจ'
'ำน_'
'ำตอบ'
'ำด_'
'าเอา'
'าเหม_'
'าเลย'
'าเธอเ'
'าเซ'
'าอะไรท_'
'าหรอ_'
'าสาว'
'าสา'
'าวท_'
'ารอ'
'ายมาก_'
'ายม_'
'ายต_'
'ามาส_'
'าพร_'
'าพบ'
'าผมเป_'
'าประท_'
'าประ'
'านไ'
'านเร_'
'านอ'
'านส_'
'านทำ'
'านฉ_'
'าธ_'
'าตาม'
'าณ'
'าจะส'
'าจะย'
'าจะฆ_'
'าจจะ'
'างๆ_'
'างเม_'
'างห_'
'างห'
'างผ_'
'างปลอดภ_'
'างประเทศ'
'างช_'
'างความ'
'างค'
'างการ'
'ากเ'
'ะแม_'
'ะเบ_'
'ะเน_'
'ะหน_'
'ะห'
'ะด'
'ะค'
'อใคร_'
'อโร'
'อแค_'
'อเอา'
'อเม_'
'อเน_'
'อเค_'
'อาล_'
'อาจเป_'
'อาจารย_'
'อะไรได_'
'อะไรเ'
'อะไรล_'
'อะไรด_'
'ออกไปจาก'
'อหล_'
'อวานน_'
'อยา'
'อยล_'
'อยข_'
'อพวกน_'
'อประ'
'อบาง'
'อนไหว'
'อนไว_'
'อนใน'
'อนโ'
'อนแ'
'อนาคต_'
'อนผ_'
'อนต'
'อนคน'
'อนกล_'
'อตต_'
'อดแ'
'องใน'
'องและ'
'องแก_'
'องเอา'
'องเช_'
'องเขา'
'องาน'
'องอา'
'องระ'
'องรอย'
'องตาย_'
'องตาม'
'องซ_'
'องงาน'
'องค'
'องขอโทษ'
'องขอบค_'
'องการต_'
'อความ_'
'อกอ'
'ฬ_'
'หายต_'
'หาฉ_'
'หลอน'
'หลอก'
'หลง'
'หมอ_'
'หมดเ'
'หก_'
'สแตน'
'สาระ_'
'สายล_'
'สาย_'
'สวย_'
'สมาช_'
'สภาพ'
'สพ'
'สง'
'ษฐาน'
'ศพของ'
'ศพ_'
'ศน_'
'วไ'
'วใคร'
'วเอา'
'วเองไม_'
'วเองให_'
'วเราะ'
'วาง_'
'วาง'
'วอลเตอร_'
'วหร_'
'วล'
'วยน_'
'วยท_'
'วป_'
'วนน_'
'วงอ'
'วงหน_'
'วค'
'วกเรา'
'ลายม_'
'ลายค'
'ลาด'
'ลาง'
'ลองด_'
'ลลา'
'ลท'
'ลงไป_'
'ราเ'
'ราว'
'ราง'
'ระต_'
'ระก_'
'รอน'
'รอค'
'รวมถ_'
'รวม'
'รวจสอบ'
'รด'
'ยให_'
'ยาว'
'ยายาม'
'ยาม'
'ยะ_'
'ยห'
'ยวผมจะ'
'ยวของ'
'ยมเ'
'ยนใจ'
'ยนหน_'
'ยนห'
'ยนมา'
'ยนต_'
'ยนของ'
'ยงฉ_'
'ยคน'
'ยกเล_'
'ยการ'
'มโ'
'มแข_'
'มเห'
'มเมอร_'
'มเช_'
'มาย'
'มาซ_'
'มากไป'
'มากท_'
'มองหา'
'มรส'
'มร'
'มม'
'มฟ_'
'มทำ'
'มตอนท_'
'มการ'
'ภายใต_'
'ภาพสตร_'
'พเ'
'พาเ'
'พาร_'
'พอใจ'
'พอจะ'
'พวกเราเ'
'พวกเจ_'
'พวกเขาเป_'
'พวกท_'
'พลาด'
'พร'
'พยายามจะ'
'พบค_'
'ฝาก'
'ผอ_'
'ผมเกรงว_'
'ผมอยากจะ'
'ผมห'
'ผมสามารถ'
'ผมล_'
'ผมรอ'
'ผมชอบ'
'ผมจ_'
'ผมคง'
'ปไ'
'ปาก'
'ปอ'
'ปวด'
'ประหลาด'
'ประมาณ_'
'ประจำ'
'ปรด'
'ปร'
'ปถ_'
'ปของ'
'บใคร_'
'บเธอเ'
'บายเ'
'บาน'
'บอะไร'
'บสน'
'บพวกเรา'
'บทราบ_'
'บตา'
'บต'
'บด'
'บชาย'
'บงาน'
'บคอ'
'บค'
'นไปไหน'
'นไปแล_'
'นไปด_'
'นในว_'
'นใครน_'
'นเเ'
'นเอง'
'นเอ_'
'นเอ'
'นเหน_'
'นเวลาท_'
'นเบ_'
'นเท'
'นเขาก_'
'นเกม'
'นายแ'
'นายพ_'
'นายป'
'นาม_'
'นาน_'
'นาด'
'นะเน_'
'นะว_'
'นฮา'
'นอะไรท_'
'นออกไป_'
'นออก_'
'นอนคร_'
'นอนก_'
'นหรอก'
'นรถ'
'นมาให_'
'นมาทำ'
'นพา'
'นพล_'
'นปร_'
'นบอกค_'
'นน'
'นทำ_'
'นถาม'
'นตา'
'นตรง'
'นชม'
'นจะห'
'นจะย_'
'นจะม_'
'นจ'
'นคำ'
'นความเ'
'นคนแ'
'นกระ'
'ธนาคาร'
'ทำไมเธอถ_'
'ทำเ'
'ทำลาย'
'ทำย_'
'ทำงานท_'
'ทะ'
'ทอร_'
'ทว_'
'ทรา'
'ทนาย'
'ทค'
'ถา'
'ถอย'
'ถนน'
'ตามหา'
'ตามล_'
'ตา_'
'ตอบ_'
'ตส'
'ตยสาร'
'ดโ'
'ดเหม_'
'ดเน_'
'ดเธอ'
'ดเจน'
'ดาร_'
'ดออกมา'
'ดอน'
'ดย'
'ดซ_'
'ดความจร_'
'ดคน'
'ดการ_'
'ณไ'
'ณเปล_'
'ณเก_'
'ณอาจจะ'
'ณอาจ'
'ณห_'
'ณสองคน'
'ณล'
'ณมอง'
'ณจร_'
'ฒเธ_'
'ฏ'
'ญหาอะไร_'
'ญต_'
'ญกว_'
'ซะอ_'
'ซม_'
'ชเ'
'ชายคน'
'ชะตา'
'ชม'
'ฉลอง'
'จำเ'
'จากอ'
'จะอ'
'จะหา'
'จะห'
'จะบ_'
'จะทำอะไร'
'จฉร_'
'จก'
'งๆเลย'
'งๆท_'
'งใส_'
'งแรกใน'
'งแกร_'
'งเศส_'
'งเกต'
'งานเล_'
'งอาหาร'
'งหมดอย_'
'งมา_'
'งบางอย_'
'งบา'
'งบ'
'งทำเป_'
'งทำอะไร_'
'งทาง'
'งท'
'งตาย'
'งตาม'
'งจะเป_'
'งจะมา'
'งความร_'
'งข'
'งกระ'
'คาเ'
'คะ'
'คอมพ_'
'ความแ'
'ความเด_'
'คลาร_'
'ครเ'
'คราวน_'
'คม'
'คนโ'
'คนอย_'
'คนของ'
'คท'
'คต_'
'คงไป'
'คคล'
'ขามา'
'ขออ'
'ขอบใจมาก_'
'ขอน'
'ของใ'
'ของโ'
'ของนาย'
'ของน_'
'ของต_'
'ของช_'
'ของค'
'ขส_'
'ขวาท_'
'ขวบ_'
'ขวด'
'ขก_'
'กๆน_'
'กๆคน_'
'กแย_'
'กแท_'
'กแค_'
'กเว'
'กเลย'
'กเม_'
'กเค'
'กำแพง'
'กำเน_'
'กำหนด'
'กาล_'
'การอ'
'การป'
'กออก'
'กห'
'กสาวของ'
'กสาม'
'กสะ'
'กว'
'กลง'
'กระต_'
'กรวาล'
'กรรมการ'
'กรรม_'
'กรม'
'กประ'
'กฎหมาย'
'กชายฉ_'
'กช'
'กคนใน'
'กค'
'กของเ'
'กกระ'
' _'
'~~ _'
'zu'
'zero_'
'za_'
'yan'
'ya'
'wolf_'
'witness_'
'witch_'
'wing_'
'wild_'
'wheel_'
'weak_'
'wea'
'watched_'
'warn_'
'wan'
'wall_'
'wal'
'wai'
'vin_'
'vic'
'version_'
'vent'
'ved_'
'var'
'val'
'vacation_'
'va_'
'ut_'
'usual_'
'us'
'up'
'unt'
'uns'
'um'
'ul_'
'ul'
'ug'
'ub'
'tur'
'ttle_'
'tter_'
'trial_'
'tre'
'travel_'
'trapped_'
'trail_'
'tor'
'toilet_'
'tle_'
'tive_'
'tings_'
'ti_'
'throat_'
'thro'
'threatened_'
'thin_'
'tears_'
'tch_'
'tam'
'tall_'
'tag'
'switch_'
'suits_'
'suck_'
'subs'
'stre'
'stra'
'stories_'
'storage_'
'stomach_'
'stable_'
'ssi'
'speech_'
'spa'
'source_'
'son'
'snow_'
'sna'
'slept_'
'sive_'
'singing_'
'sin'
'simply_'
'shirt_'
'shake_'
'scream_'
'scare_'
'sc'
'san_'
'sal'
'ry'
'rt_'
'ros'
'rooms_'
'ron'
'romantic_'
'ro_'
'rit'
'rings_'
'ringing_'
'ric_'
'res'
'released_'
'recently_'
'rec'
'reasons_'
'ran'
'rain'
'py_'
'pulling_'
'pt_'
'ps_'
'prop'
'preparing_'
'pre_'
'powers_'
'powder_'
'port_'
'poisoned_'
'points_'
'player_'
'pla'
'pin'
'pig_'
'picking_'
'photos_'
'phones_'
'pha'
'ph'
'pet'
'permission_'
'pathetic_'
'pat'
'parts_'
'parking_'
'ours_'
'ot'
'ort'
'ori'
'ord'
'option_'
'onto_'
'omi'
'om'
'ok'
'og_'
'odd_'
'od'
'ocean_'
'nts_'
'nti'
'nta'
'normally_'
'nk_'
'nights_'
'net_'
'nes'
'neighborhood_'
'needle_'
'necklace_'
'moments_'
'mo_'
'mentioned_'
'memories_'
'medic'
'med_'
'meantime_'
'match_'
'mat'
'marks_'
'mad'
'lus'
'lots_'
'lock'
'lit'
'listed_'
'link_'
'letters_'
'let'
'lesson_'
'legal_'
'laughing_'
'lake_'
'lac'
'kr'
'kn'
'kinda_'
'kills_'
'kicked_'
'ket'
'ken_'
'jealous_'
'jack'
'itself_'
'ition_'
'ities_'
'it'
'ist_'
'ise_'
'ire_'
'io'
'invited_'
'intel_'
'insane_'
'individual_'
'ila'
'if'
'id'
'ib'
'ia'
'hunting_'
'hum'
'horse_'
'hoo'
'homework_'
'hm_'
'hl'
'hired_'
'highly_'
'hei'
'heavy_'
'heaven_'
'hat'
'han_'
'hall_'
'gym_'
'greatest_'
'grand_'
'grab_'
'gn'
'gli'
'gay_'
'fuckin_'
'fu_'
'freedom_'
'football_'
'following_'
'flowers_'
'flo'
'film_'
'ff'
'faith_'
'failed_'
'fail_'
'expensive_'
'existence_'
'evil_'
'event_'
'eu'
'ert'
'erson_'
'equipment_'
'eo'
'ens'
'ely_'
'egg_'
'eaten_'
'eat'
'eas'
'dro'
'drinking_'
'dre'
'dra'
'dou'
'document'
'disease_'
'directly_'
'differently_'
'dies_'
'device_'
'detect'
'destroyed_'
'del'
'decisions_'
'dean_'
'deaf_'
'dea'
'dare_'
'danger_'
'damage_'
'cy'
'cup_'
'cul'
'cu'
'cti'
'cs_'
'cru'
'crew_'
'cracked_'
'convinced_'
'contract_'
'com'
'closing_'
'clever_'
'citizens_'
'chuckles_'
'cheese_'
'ched_'
'checking_'
'chasing_'
'changes_'
'chances_'
'cha_'
'certainly_'
'castle_'
'cas'
'carefully_'
'cancer_'
'camp_'
'cal_'
'cake_'
'buying_'
'bury_'
'buried_'
'bur'
'built_'
'build_'
'bro_'
'boxes_'
'bother_'
'bored_'
'bor'
'bo'
'ble'
'bla'
'birds_'
'bio'
'ben'
'belong_'
'begging_'
'beard_'
'beach_'
'bea'
'bath_'
'bang_'
'badly_'
'awa'
'aunt_'
'ator_'
'ato'
'ath'
'assistant_'
'asse'
'as'
'armed_'
'app'
'ant'
'ama'
'agreed_'
'ace_'
'account_'
'Ze'
'You'
'Woo_'
'Woman_'
'Win'
'Wil'
'Water_'
'War'
'WITH_'
'WHAT_'
'WE'
'WA'
'Victoria_'
'Ver'
'Val'
'Va'
'Uther_'
'Use_'
'Us'
'Tru'
'Trans'
'Tra'
'Tony_'
'Till_'
'Ter'
'Ted_'
'Target_'
'Stupid_'
'Stefan_'
'Sta'
'Sounds_'
'Soo_'
'Sol'
'Shin_'
'Shall_'
'Seven_'
'Sea'
'Sca'
'Sand'
'Sa'
'SU'
'SM'
'SH'
'Ron_'
'Rid'
'RI'
'Pos'
'Ph'
'Pe'
'Olivia_'
'Ohh_'
'OVER_'
'OS'
'ONE_'
'OL'
'Number_'
'Nope_'
'Nick_'
'NE'
'My'
'Morning_'
'Monday_'
'Molly_'
'Mir'
'Min'
'Mas'
'Mari'
'Making_'
'Major_'
'Madam_'
'Mad'
'MA'
'Lynette_'
'Luke_'
'Lu'
'LE'
'Kyung_'
'Kan'
'Ka'
'KE'
'Jun_'
'Ju'
'Jesse_'
'Jeremy_'
'Jason_'
'Jackson_'
'Is'
'Inter'
'Inc'
'Im_'
'IL'
'Hyung_'
'Hyun_'
'Hye_'
'Hiro_'
'Her'
'Has_'
'Harold_'
'Hands_'
'Halloween_'
'HI'
'Gonna_'
'Going_'
'Gil_'
'GHT_'
'Fe'
'Far'
'Es'
'Er'
'Em'
'Easy_'
'ES'
'EN_'
'ED_'
'Drop_'
'Dis'
'Derek_'
'Dar'
'Damon_'
'Dae_'
'DI'
'DA'
'Cut_'
'Cri'
'Cra'
'Cor'
'Cool_'
'Com'
'Chris_'
'Chloe_'
'Charles_'
'Cas'
'Cal'
'CK_'
'Brother_'
'Brad_'
'Boy_'
'Bla'
'Before_'
'Bee'
'Ass'
'As'
'Arm'
'April_'
'Answer_'
'Angel_'
'And'
'AL'
'='
'48_'
'1st_'
'198'
'19'
'/~ _'
'.... _'
'. [_'
'. # # _'
'- '
'-'
', '
'**'
' ? _'
' : _'
' ,_'
'์... _'
'ๆๆ_'
'ๆเลย_'
'ๆน_'
'ๆจะ'
'ไอเ'
'ไอร_'
'ไหวแล_'
'ไหนส_'
'ไพรส_'
'ไปไ'
'ไปน_'
'ไปตายซะ_'
'ไปซะ_'
'ไบ'
'ไต'
'ไช'
'ไกล_'
'ในใจ'
'ในโลก'
'ในโรง'
'ในห'
'ในสภาพ'
'ในรถ'
'ในจ_'
'ในกระ'
'ใด'
'ใจได_'
'ใจน_'
'ใจด_'
'ใจฉ_'
'ใครล_'
'ใครมา'
'ใครบางคน_'
'ใครค_'
'โหวต'
'โรเบ_'
'โรงแรม'
'โรคจ_'
'โยน'
'โมโ'
'โป'
'โดยสาร'
'โดน_'
'โดด'
'โซ'
'โคล_'
'โกะ_'
'แอนน_'
'แอนดร_'
'แสดงให_'
'และได_'
'และแน_'
'และเป_'
'และเธอ'
'และห_'
'และห'
'และนาย'
'และจะ'
'และกล_'
'แร'
'แมค'
'แฟร_'
'แทบ'
'แทก'
'แท'
'แถมย_'
'แดนน_'
'แจ'
'แคทเธอร_'
'แกม_'
'แกจะ'
'เอาเป_'
'เอล'
'เอก'
'เหมาะสม_'
'เศร_'
'เวส'
'เวลาอ'
'เวลาม_'
'เลยค_'
'เลน'
'เรเ'
'เราเพ_'
'เราเคย'
'เราอาจ'
'เราพ'
'เราบอก'
'เราถ_'
'เราด_'
'เราจะส'
'เรด'
'เมน_'
'เพศส_'
'เพล_'
'เพราะป'
'เพราะถ_'
'เบ'
'เนท'
'เธอเลย'
'เธอท_'
'เธอชอบ'
'เธอจะไม_'
'เธอจะเป_'
'เธอจะต_'
'เธอคง'
'เธทเน_'
'เธญเธ'
'เธซเน_'
'เธฅเธ_'
'เธขเธ'
'เดอร_'
'เดน_'
'เซล'
'เฉพาะ'
'เคยบอก'
'เขาให_'
'เขาเพ_'
'เขาเคย'
'เขาห'
'เขาบอก'
'เขาทำให_'
'เขาตายแล_'
'เขาค'
'เกอร_'
'เ'
'ุ์_'
'ิ๋_'
'ำใ'
'ำเน_'
'ำอะไร'
'ำล'
'ำนวน'
'ำถาม'
'ำจ_'
'ำงาน'
'าไร'
'าใกล_'
'าโบ'
'าโก'
'าแฟ'
'าแน_'
'าเว'
'าเต_'
'าเขาไป'
'าเขาอย_'
'าอาย_'
'าอาจจะ'
'าออก'
'าหมายถ_'
'าหม_'
'าสเ'
'าสนใจ_'
'าสงส_'
'าศ_'
'าวๆ'
'าวหน_'
'าลง_'
'าลง'
'ารา'
'ายได_'
'ายใ'
'ายแรง_'
'ายเง_'
'ายาม'
'ายา'
'ายหน_'
'ายว_'
'ายพ'
'ายจ_'
'ามใ'
'ามาย_'
'ามอง'
'ามน_'
'าพา'
'าพวกค_'
'าปล_'
'าบอ'
'านายต_'
'านะ'
'านอาหาร_'
'านอย_'
'านอ_'
'านบ'
'านความ'
'านของฉ_'
'าถาม'
'าชอบ'
'าจะอย_'
'างเช_'
'างาน'
'างสม'
'างส'
'างล'
'างมาก'
'างพวก'
'าคล_'
'าค'
'าของเธอ'
'าของฉ_'
'ากอ'
'ากห'
'ากล'
'ากระ'
'ั_'
'ะไป'
'ะแ'
'ะร_'
'ะพ_'
'ะพ'
'ะฐ'
'ฮย_'
'อไว_'
'อไปแล_'
'อใช_'
'อแต_'
'อแก'
'อเอ'
'อเหต_'
'อเลยว_'
'อเรา'
'อาย'
'อาม_'
'อาจม_'
'อาจจะไม_'
'อะไรแ'
'อะไรเลย_'
'อะไรจะพ_'
'อะไรจะ'
'อฮ_'
'ออาช_'
'ออส'
'ออฟฟ_'
'ออกเ'
'อสาย'
'อสอง'
'อวาน_'
'อลาร_'
'อลอ'
'อรา'
'อระ'
'อรอ'
'อยๆ'
'อยเหรอ_'
'อยเป_'
'อยากพ_'
'อยว_'
'อยพวก'
'อยคร_'
'อมแ'
'อมหร_'
'อมม_'
'อมนะ_'
'อฟ'
'อปป_'
'อบแ'
'อบค'
'อนๆ'
'อนเรา'
'อนาย_'
'อนาย'
'อนา'
'อนห'
'อนส'
'อนระ'
'อนพ_'
'อนถ_'
'อดา'
'อดท_'
'อชา'
'อจากน_'
'อจะได_'
'องไ'
'องใ'
'องแม_'
'องเห_'
'องเจอ'
'องอ'
'องหาเ'
'องรอ'
'องป'
'องนอน'
'องทำให_'
'องทำงาน'
'องต'
'องชอบ'
'องช'
'องคร_'
'องของค_'
'องข'
'องการแ'
'องการความช_'
'องการก'
'อคเ'
'อความเ'
'อกไม_'
'อกแ'
'อกำล_'
'อกห'
'อกร'
'อกมา'
'อกซ_'
'อกฉ_'
'อกก_'
'หาว_'
'หารเ'
'หายไป_'
'หวน'
'หลายป_'
'หลวงพ_'
'หล'
'หรอก'
'หมายเลข'
'หมายความ'
'สไ'
'สโก_'
'สเต'
'สเซ_'
'สาว_'
'สามารถเป_'
'สองสาม'
'สองคน_'
'สวยเ'
'สย'
'สบายด_'
'สบาย_'
'สบอ'
'สนอ'
'สด'
'ษา'
'ษฐ_'
'ษของ'
'ศาล_'
'วโลก'
'วแบบน_'
'วแทน'
'วเองด_'
'วเราจะ'
'วเพ_'
'วเท_'
'วาน_'
'วหา'
'วหรอ_'
'วห_'
'วรรค_'
'วยใช_'
'วยนาย'
'วยงาน'
'วมาก'
'วมห_'
'วมงาน'
'วพวก'
'วพ'
'วผมจะ'
'วบค_'
'วนใ'
'วนะคะ_'
'วนส'
'วตาย_'
'วตน'
'วต'
'วซ'
'วจสอบ'
'วงเวลา'
'ลเล'
'ลาด_'
'ละเอ_'
'ละว_'
'ลอส'
'ลอม'
'ลห'
'ลว_'
'ลฟ_'
'ลงเร_'
'ลค'
'ราส'
'รายละเอ_'
'ราม_'
'ราบ'
'ราช'
'ราคา'
'ระยะ'
'รอเ'
'รออย_'
'รอบ_'
'รอน_'
'รองเท_'
'รส'
'รวย_'
'รถไฟ'
'รถนา'
'รด_'
'รง_'
'ยได_'
'ยโน'
'ยเก_'
'ยอมเ'
'ยส'
'ยวเ'
'ยวส_'
'ยมก_'
'ยนให_'
'ยนแ'
'ยนอย_'
'ยนก'
'ยดฉ_'
'ยฉ_'
'ยจร_'
'ยงแต_'
'ยงเพราะ'
'ยงอ'
'ยงห'
'ยงส'
'ยงน_'
'ยงท_'
'ยงข_'
'ยกช_'
'ยกฉ_'
'มไม_'
'มเป_'
'มเขา'
'มาเล_'
'มาหลาย'
'มายถ_'
'มาน'
'มาตลอด'
'มาจาก_'
'มะ_'
'มอนโร'
'มองด_'
'มมม_'
'มภาษณ_'
'มภ_'
'มถ_'
'มดแล_'
'มชา'
'มความ'
'มของค_'
'ภาระ'
'ภาพท_'
'ภา'
'ภ'
'ฟบ_'
'พอล_'
'พส'
'พวกเราจะไ'
'พวกเราจะ'
'พวกเรากำล_'
'พวกเราก_'
'พวกเด_'
'พวกเขาร_'
'พวกเขาทำ'
'พวกนาย_'
'พวกคน'
'พล'
'พยาบาล_'
'พยาบาล'
'พยาน'
'พบว_'
'พก'
'ฝากข_'
'ผา'
'ผลอ'
'ผมเลย'
'ผมเล_'
'ผมบอกค_'
'ผมทำให_'
'ผมจะให_'
'ผมจะเ'
'ผมจะพ'
'ผมขอโทษจร_'
'ผมขอโทษ'
'ปเปอร_'
'ปว_'
'ปลดปล_'
'ประมาณน_'
'ประท_'
'บใจ'
'บโอ'
'บโลก'
'บโต'
'บเม'
'บเท'
'บเช_'
'บเขาแล_'
'บาดเจ_'
'บออกมา'
'บอล_'
'บอกได_'
'บอกแล_'
'บอกท_'
'บอกช_'
'บหมอ'
'บวน'
'บรรยาย'
'บมาจาก'
'บภาพ'
'บพวกม_'
'บป'
'บบเ'
'บดอ'
'บจาก'
'บคำ'
'บคด_'
'บข'
'บการอ'
'บกว'
'บกระ'
'นไหว'
'นไฟ'
'นไปอย_'
'นไข_'
'นใหญ_'
'นในการ'
'นใจเ'
'นโอ'
'นโค'
'นแห_'
'นเสาร_'
'นเว_'
'นเย_'
'นเทอร_'
'นเดอร_'
'นาโ'
'นาว_'
'นายเข_'
'นายบอกว_'
'นายจำ'
'นายคง'
'นานแล_'
'นอาท_'
'นอา'
'นออกมา'
'นอยากร_'
'นอนท_'
'นอก'
'นหมา'
'นหมด_'
'นสาย'
'นสวย'
'นสม_'
'นล'
'นรก'
'นมาเป_'
'นมาห'
'นมาว_'
'นมาท_'
'นมาต'
'นพยายามจะ'
'นปลอดภ_'
'นประโยชน_'
'นบท'
'นบ'
'นนา'
'นทำอะไร'
'นทำม_'
'นทางการ_'
'นทน'
'นตลก'
'นตก_'
'นดา'
'นซะ'
'นชาย'
'นชา'
'นชอบเ'
'นจะทำ'
'นจะกล_'
'นจะ_'
'นจบ'
'นฆาตกร'
'นควรจะ'
'นควร'
'นคนใ'
'นคนทำ'
'นคงเป_'
'นคงต_'
'นคง_'
'นของล_'
'นของ_'
'ธรรม_'
'ธรรม'
'ธยม'
'ทำไมเธอ'
'ทำไมเ'
'ทำไมห'
'ทำไมท_'
'ทำไป'
'ทำไง'
'ทำอะไรเ'
'ทำด_'
'ทำงาน'
'ทำการ'
'ทางตะว_'
'ทศ'
'ทราบ_'
'ทรมาน_'
'ทยา_'
'ถามเ'
'ตแ'
'ตาเ'
'ตามลำพ_'
'ตอนอย_'
'ตลก'
'ตระหน_'
'ตรภาพ'
'ตบอล_'
'ตของเ'
'ตกใจ'
'ดใจ'
'ดใ'
'ดแค_'
'ดเหรอ_'
'ดเลย'
'ดาว_'
'ดอะไรก_'
'ดม'
'ดป'
'ดบา'
'ดนะ'
'ดนตร_'
'ดท'
'ดตาย'
'ดด'
'ดช'
'ดจบ'
'ดของเ'
'ดการได_'
'ณไว_'
'ณและ'
'ณแค_'
'ณเอง'
'ณเหรอ_'
'ณอยากเ'
'ณหรอก_'
'ณส'
'ณพอ'
'ณพระช_'
'ณพ'
'ณบอก'
'ณทำ_'
'ณตาย'
'ณจะพ'
'ณจะต_'
'ณคงไม_'
'ณกร_'
'ฐาน'
'ฐบาล_'
'ญาต'
'ญา'
'ญหาก_'
'ญหน_'
'ญญาณท_'
'ซเธ'
'ซเ'
'ซาน_'
'ซล_'
'ซบ'
'ชเชอร_'
'ชาต_'
'ชวน'
'ฉาย'
'ฉลาด'
'จากส'
'จากค'
'จะโ'
'จะออก'
'จะล_'
'จะผ_'
'จะน_'
'จะจบ'
'จะก_'
'จม_'
'จนถ_'
'จท_'
'จฉ_'
'จจร_'
'จของ'
'งๆเหรอ_'
'งไหน'
'งไปแล_'
'งไงต_'
'งแรกท_'
'งแบบน_'
'งเหม_'
'งเยอะ'
'งเปล_'
'งเช_'
'งเง_'
'งานให_'
'งานท_'
'งหาร_'
'งสาว'
'งสาร'
'งลง_'
'งร'
'งพวก'
'งตามหา'
'งตรงน_'
'งด'
'งชาต_'
'งจากเ'
'งจะส'
'งคำ'
'งความเ'
'งคม'
'งคน_'
'งค'
'งของเ'
'งของฉ_'
'งของค'
'คเล'
'คำถาม'
'คส'
'ความท_'
'ความตาย'
'คย'
'คนไหน'
'คนแ'
'คนเก_'
'คนส'
'คนข_'
'คนก'
'คช_'
'คงใช_'
'คงม_'
'คงทำ'
'คค'
'ขเ'
'ขอโทษ'
'ขอท'
'ขอต_'
'ของไ'
'ของเอ'
'ของเธอเ'
'ของเค_'
'ของผ_'
'ของต'
'ของความ'
'ของก'
'ขวา_'
'ขวา'
'ขน_'
'กไป_'
'กแก_'
'กเต_'
'กเซ'
'กเจ_'
'กำ'
'กาส'
'การใช_'
'การแ'
'การว_'
'การพ_'
'การบ_'
'การทำงาน'
'การต'
'การช_'
'การก_'
'การก'
'กหมา'
'กสาว_'
'กศ_'
'กวน'
'กลางค_'
'กลาง'
'กรา'
'กระโดด'
'กระทำ'
'กระท_'
'กรธ'
'กยา'
'กมาย'
'กพ'
'กป'
'กบ'
'กนานแค_'
'กทาง'
'กจะเ'
'กจร_'
'กคำ'
'กคนเ'
'กคนห'
'é_'
'¶_'
''
'_'
'zar'
'yu'
'yourselves_'
'yl'
'wow_'
'wounded_'
'wound_'
'worthless_'
'wor'
'wn_'
'wl'
'wishes_'
'wise_'
'whom_'
'wel'
'weight_'
'weather_'
'water'
'warned_'
'warehouse_'
'visions_'
'vis_'
'vie'
'victory_'
'vel'
'vampires_'
'ups'
'ung_'
'unc'
'ule'
'uin'
'ugly_'
'uce'
'ually_'
'turns_'
'tting_'
'tte_'
'trusted_'
'troops_'
'troll_'
'trans'
'touched_'
'tos'
'tongue_'
'tom_'
'tl'
'ticket_'
'thor'
'ters_'
'terrorist_'
'terr'
'tely_'
'teachers_'
'tastes_'
'tan'
'super_'
'suit_'
'suicide_'
'suffering_'
'successful_'
'studied_'
'stu'
'stronger_'
'strip'
'stranger_'
'stin'
'sticking_'
'ster'
'steps_'
'stealing_'
'stal'
'sses_'
'square_'
'spoken_'
'spo'
'spirit_'
'spec'
'speaks_'
'spe'
'soldiers_'
'sniff'
'sm_'
'ske'
'sing'
'sim'
'signs_'
'shoulders_'
'shipment_'
'shining_'
'shield_'
'shel'
'shed_'
'sey_'
'series_'
'sensitive_'
'sed_'
'secrets_'
'secretary_'
'screw_'
'science_'
'sch'
'scen'
'sand_'
'san'
'sam'
'salt_'
'sa_'
'ruined_'
'ruin_'
'rude_'
'route_'
'rou'
'rose_'
'roof_'
'rod'
'risk'
'rig'
'riding_'
'ria'
'rg'
'reward_'
'rev'
'retr'
'ret'
'response_'
'resources_'
'rese'
'res_'
'request_'
'repu'
'remain_'
'release_'
'reg'
'redi'
'recommend'
'reception_'
're'
'rd'
'ral_'
'rage_'
'race'
'rab'
'q'
'pur'
'pump'
'profile_'
'prize_'
'prisoner_'
'pride_'
'price_'
'pri'
'post'
'pon'
'ple'
'plant'
'places_'
'pill'
'phi'
'pers_'
'pen_'
'pe'
'pattern_'
'passing_'
'panic_'
'pal_'
'pal'
'pair_'
'pain'
'outs'
'ound_'
'otherwise_'
'organ'
'ore_'
'ordered_'
'options_'
'opportunity_'
'opinion_'
'opening_'
'ooh_'
'ood_'
'oni'
'ome_'
'ole'
'nter'
'north_'
'nna_'
'nn'
'nie_'
'nie'
'nia_'
'new'
'nephew_'
'nec'
'nder_'
'nd'
'nch_'
'mum_'
'motherfucker_'
'mot'
'mommy_'
'mode'
'mistakes_'
'miss'
'mirror_'
'milk_'
'mil'
'mid'
'mic'
'mi_'
'merc'
'mer'
'mental_'
'ment'
'member_'
'melt'
'melon_'
'medicine_'
'meaning_'
'mea'
'matt'
'marr'
'management_'
'male_'
'loud_'
'loser_'
'log'
'lli'
'lla'
'ling'
'lily_'
'lifetime_'
'life'
'levels_'
'lets_'
'les'
'lecture_'
'leader_'
'lea'
'ld_'
'lazy_'
'lane_'
'land'
'lad'
'killers_'
'kidnapped_'
'kh'
'ken'
'joy'
'john_'
'jenny_'
'jee'
'jam'
'jacket_'
'j'
'ized_'
'ive'
'iti'
'ita'
'ists_'
'ish'
'io_'
'involve'
'ingly_'
'ing'
'ine'
'incredible_'
'impression_'
'impressed_'
'impossible_'
'ils_'
'iling_'
'ik'
'ie'
'idiots_'
'ideas_'
'ics_'
'ick_'
'iat'
'hy_'
'hus'
'house'
'hou'
'horn_'
'holiday_'
'holes_'
'hire_'
'hin'
'hid_'
'hem'
'health_'
'hat_'
'happiness_'
'handed_'
'halfway_'
'guin'
'guilt_'
'gue_'
'guards_'
'grown_'
'grandmother_'
'grand'
'grad'
'gods_'
'gla'
'gig'
'ghost_'
'gh'
'ger'
'generation_'
'gen'
'ge'
'gang_'
'gan'
'fuel_'
'ft'
'friendship_'
'fried_'
'freak_'
'fra'
'found'
'fought_'
'forces_'
'flash_'
'fire'
'fingers_'
'filled_'
'fied_'
'fellas_'
'federal_'
'fat'
'fan'
'families_'
'failure_'
'factory_'
'faci'
'faces_'
'f'
'explo'
'expecting_'
'expected_'
'exit_'
'example_'
'ew_'
'eto'
'est'
'especially_'
'escaped_'
'enti'
'enter_'
'ent'
'ens_'
'eni'
'eng'
'ear_'
'dumped_'
'dump_'
'dru'
'droids_'
'drama_'
'downstairs_'
'dos'
'dollars_'
'divorce_'
'division_'
'disappointed_'
'disappear_'
'disa'
'direct_'
'dio'
'dial'
'details_'
'desperate_'
'des_'
'demon_'
'defend_'
'dancing_'
'dal'
'cut'
'currently_'
'current_'
'cure_'
'create_'
'crawl'
'crash_'
'correct_'
'corr'
'cop_'
'cop'
'cook_'
'cook'
'coo'
'convict'
'conve'
'concerns_'
'complain'
'clue_'
'clu'
'cloud'
'closet_'
'client_'
'cking_'
'citizen_'
'cit'
'cin'
'ci'
'chosen_'
'choices_'
'cho'
'chi_'
'cher'
'cheer_'
'cheated_'
'cheat_'
'chase_'
'charges_'
'character_'
'char'
'changing_'
'cent'
'cell'
'cars_'
'cares_'
'car'
'capable_'
'candles_'
'cam'
'cage_'
'cab'
'burned_'
'burg'
'burden_'
'bun'
'bru'
'bro'
'bride_'
'bree'
'breaks_'
'brea'
'brave_'
'brat'
'brand_'
'bos'
'bon'
'bol'
'black'
'bl'
'bitches_'
'below_'
'belongs_'
'bell_'
'beg_'
'bedroom_'
'bby_'
'ball'
'bait_'
'background_'
'back'
'ay'
'aw'
'au'
'attitude_'
'ast'
'ashamed_'
'aro'
'ara'
'appears_'
'appear_'
'anti'
'ano'
'anger_'
'anc'
'amount_'
'among_'
'am'
'ain'
'agency_'
'afford_'
'affect'
'aff'
'ack'
'account'
'access_'
'Zu'
'Yo'
'Yi'
'Yeon_'
'Whi'
'Wat'
'Wasn_'
'WOMAN_'
'Vo'
'VI'
'VA'
'Understand_'
'Tre'
'Thomas_'
'Their_'
'The'
'Than_'
'Tel'
'Tal'
'TA'
'Such_'
'Sub'
'Su_'
'Sto'
'Step_'
'St_'
'Spanish_'
'Soon_'
'Sookie_'
'Song_'
'Sing'
'Simon_'
'Shu'
'See'
'Screw_'
'Sara_'
'Sammy_'
'STR'
'SE_'
'Rus'
'Rob'
'Rick_'
'Relax_'
'Reco'
'Ran'
'RO'
'RIGHT_'
'Quick_'
'Princess_'
'Pres'
'Prepare_'
'Pl'
'Phil'
'Penny_'
'Park_'
'PO'
'PE'
'Oz'
'Otherwise_'
'Oska_'
'OH_'
'Nเ'
'Nob'
'Ni'
'Ne_'
'ND_'
'Monk_'
'Merry_'
'Meet_'
'Maggie_'
'Looking_'
'Lon'
'Lisa_'
'Lily_'
'Life_'
'Left_'
'Lat'
'Lar'
'Ky'
'Kiss_'
'Ki_'
'Kar'
'June_'
'Joseph_'
'Joo_'
'Jon'
'Jerry_'
'Japan_'
'Jae_'
'Jack'
'JUST_'
'Its_'
'Island_'
'Into_'
'Ins'
'Ind'
'Ian_'
'IT'
'IR'
'Howard_'
'House_'
'Hor'
'Holy_'
'Hm_'
'Hil'
'Hen'
'Heh_'
'Hear_'
'Hae_'
'Had'
'HE'
'Gwen_'
'Group_'
'Gri'
'Grey_'
'Gentlemen_'
'Garcia_'
'Gaby_'
'GO'
'Friday_'
'Free'
'Four_'
'Found_'
'For'
'Foo'
'Fight_'
'Feel_'
'Fat'
'FA'
'Evan_'
'Erik'
'Elena_'
'East_'
'EX'
'ENT'
'EA'
'Down_'
'Dir'
'Dexter_'
'Des'
'Den'
'Dear_'
'Day_'
'Cont'
'Ci'
'Chu'
'Chicago_'
'Carl_'
'Care_'
'Camp'
'CL'
'CH'
'Brown_'
'Brian_'
'Brennan_'
'Bow'
'Bon'
'Between_'
'Bauer_'
'Barry_'
'Ban'
'Av'
'Ask_'
'Art'
'Anyone_'
'Angela_'
'Amy_'
'Amanda_'
'Always_'
'Although_'
'Ali'
'Ala'
'Ah'
'Ab'
'AU'
'ARE_'
'AR'
'AL_'
'ACT'
'9834_'
'911_'
'50'
'37_'
'32_'
'27'
'25'
'200'
'18'
'01_'
'/'
'.. .._'
'- # _'
'''
'%_'
'"'_'
'!" _'
' ! _'
'ๆนะ_'
'ๆท_'
'ไฮ'
'ไหนแล_'
'ไส_'
'ไวร_'
'ไวน_'
'ไฟล_'
'ไปโ'
'ไปแ'
'ไปเลย'
'ไปเด_'
'ไปร_'
'ไปบอก'
'ไปทำงาน'
'ไปทาง'
'ไน'
'ไดร_'
'ไงว_'
'ไขม_'
'ไก_'
'ในเร_'
'ในสถาน'
'ในระหว_'
'ในตอน'
'ในคร_'
'ในค'
'ในข_'
'ในการเ'
'ในการส'
'ในก'
'ใจจร_'
'ใจจ_'
'ใครๆก_'
'ใครส'
'ใครมาช_'
'โอเคไหม_'
'โอว_'
'โอน_'
'โอกาสได_'
'โหดร_'
'โหด'
'โห'
'โลเ'
'โล'
'โรเ'
'โรธ'
'โรงงาน'
'โมเ'
'โมน_'
'โมง_'
'โฟ'
'โทรหาเ'
'โถ_'
'โด_'
'โซเ'
'โจร'
'โคโ'
'แอน'
'แหล_'
'แหน_'
'แสน'
'แสงส'
'แวว'
'และใช_'
'และเพ_'
'และเธอก_'
'และเด_'
'และหล_'
'และหน_'
'และล_'
'และม'
'และพวกเขา'
'และพ'
'และบ'
'และทำให_'
'และต'
'แลน'
'แพทย_'
'แผนการ'
'แนน'
'แดเน_'
'แดนเ'
'แดน'
'แซลล_'
'แซม'
'แคล_'
'แคร'
'แคน'
'แกไป'
'แกก_'
'แกก'
'เเค'
'เฮเ'
'เอาเถอะ_'
'เอาเง_'
'เอาอ_'
'เอาห'
'เอามาให_'
'เอมม_'
'เอพร_'
'เหมาะ'
'เศษมาก_'
'เวลาแล_'
'เวลาอ_'
'เวลามา'
'เวล'
'เวทย_'
'เลยใช_'
'เราไ'
'เราเส_'
'เราเล_'
'เราห'
'เราสามารถเ'
'เรามาถ_'
'เราป'
'เราจะเร_'
'เราจะหา'
'เราคงต_'
'เยอะ_'
'เมส_'
'เมต'
'เพลง_'
'เพราะไม_'
'เพราะเธอ'
'เพราะอ'
'เพราะห'
'เพราะบาง'
'เพราะฉะน_'
'เพนน_'
'เพชร'
'เปร_'
'เบน_'
'เบน'
'เนท_'
'เธอแ'
'เธอเร_'
'เธอเคย'
'เธออาจ'
'เธออ_'
'เธอห'
'เธอมาท_'
'เธอป'
'เธอถ_'
'เธอตาย_'
'เธอจะเ'
'เธอควรจะ'
'เธอค'
'เธฐเน_'
'เธญเธขเน_'
'เทอ'
'เทว'
'เดเ'
'เดาว_'
'เดา'
'เดอะ'
'เดม_'
'เดท'
'เจอแล_'
'เจอแ'
'เจอนาย'
'เจอค_'
'เคอร_'
'เคยไป'
'เคยโ'
'เคยส_'
'เคยส'
'เคท_'
'เขาไ'
'เขาโ'
'เขาแค_'
'เขาเห'
'เขาเล_'
'เขาสามารถ'
'เขาส_'
'เขาส'
'เขาป'
'เขาทำงาน'
'เขาทำ_'
'เขาซ_'
'เกาะ'
'เกาหล_'
'ู '
'ึ'
'ิ._'
'ิ, _'
'ำๆ'
'ำแข_'
'ำเร_'
'ำอย_'
'ำอ_'
'ำมา_'
'ำบ_'
'ำตา'
'ำก_'
'ำก'
'าไปได_'
'าไปเ'
'าไปข_'
'าใส_'
'าโท'
'าโจ'
'าและ'
'าแค_'
'าเอง_'
'าเส'
'าเราม_'
'าเราน_'
'าเราจะเ'
'าเราจะ'
'าเบ'
'าเธอย_'
'าเธอม_'
'าเธอทำ'
'าเธอค_'
'าเด'
'าเจ'
'าเค'
'าเขาร_'
'าอาย'
'าอา'
'าอะไรนะ_'
'าอะไรข_'
'าอก'
'าหล'
'าสามารถ'
'าสม'
'าสนใจ'
'าสน_'
'าสงสาร_'
'าศ'
'าวส_'
'าวก_'
'ารย_'
'ายไม_'
'ายแรง'
'ายเป_'
'ายอ'
'ายข_'
'ายก'
'ามไป'
'ามาใน'
'ามาด_'
'ามจ'
'าพวกเขา_'
'าพวกน_'
'าปก'
'าบา'
'าบน'
'านไป_'
'านให_'
'านใ'
'านโ'
'านเพ_'
'านร'
'านพ'
'านผ'
'านป_'
'านบน_'
'านถ_'
'านช'
'านคร_'
'านคน'
'าทำอย_'
'าทาย'
'าทางเ'
'าตอน'
'าซ'
'าจาก'
'าจะโ'
'าจะหา'
'าจะลอง'
'าจะบอก'
'าจะกล_'
'างไหม'
'างไว_'
'างไรก_'
'างไป'
'างไกล_'
'างไ'
'างใต_'
'างโอเค'
'างแน_'
'างเหม_'
'างเลย_'
'างเขา'
'างอา'
'างมาก_'
'างบน'
'างทาง'
'างท'
'างต'
'างจร_'
'างกายของ'
'างกล_'
'าคำ'
'าคา'
'าควรจะ'
'าครอบคร_'
'าคนของ'
'าคงไม_'
'าคง'
'าของเรา'
'าของร_'
'ากไป'
'ากร_'
'ากน_'
'ากก'
'ัั_'
'ะๆ_'
'ะไ'
'ะให_'
'ะเล'
'ะอาด'
'ะย'
'ะบ'
'ะช_'
'ะจะ'
'ะของ'
'อใจ_'
'อใคร'
'อแสดง'
'อแบบ'
'อเหรอ_'
'อเห'
'อเล'
'อเราไ'
'อเพราะ'
'อเถอะ_'
'อเต'
'อาน'
'อาคาร'
'อากาศ'
'อะไรเหม_'
'อะไรหรอ_'
'อะไรส_'
'อะไรน'
'อะแ'
'อออก'
'ออกไปจากท_'
'ออกจากค'
'อห'
'อสาร'
'อสา'
'อราย'
'อร'
'อยไหม_'
'อยไ'
'อยใ'
'อยแ'
'อยากไป'
'อยากจะบอก'
'อยหน_'
'อยห'
'อยส'
'อยต'
'อยซ_'
'อยจะ'
'อยจ_'
'อมใ'
'อมต_'
'อมด'
'อพวก'
'อพร'
'อปเ'
'อบท'
'อนและ'
'อนแม_'
'อนเวลา'
'อนเลย'
'อนเล_'
'อนาคต'
'อนอา'
'อนออก'
'อนสน_'
'อนมาก'
'อนป'
'อนบ'
'อนด'
'อนช_'
'อนค'
'อนกำล_'
'อดร_'
'อดร'
'อดน_'
'อดทน'
'อจ'
'องโทรหา'
'องแพ'
'องเอ'
'องเรา'
'องเพ'
'องเธอ'
'องเท_'
'องเจ_'
'องเจ'
'องสำค_'
'องสาว_'
'องสาม'
'องสม_'
'องสน'
'องราวของ'
'องพวกเ'
'องพบ'
'องประ'
'องปกป_'
'องบอกว_'
'องตลก'
'องจะ'
'องจ'
'องคน'
'องการเง_'
'องการอะไร'
'องการมาก'
'องการพบ'
'องการทำ'
'อคอ'
'อความไว_'
'อความให_'
'อของเธอ'
'อของล_'
'อขอ'
'อกล'
'อกน_'
'อกต_'
'หาเขา_'
'หอะ_'
'หวาน'
'หว'
'หลายๆ'
'หลายเร_'
'หลาด'
'หรอคะ_'
'หย'
'หมา'
'หมอบ'
'หง_'
'ห'
'สได_'
'สเป_'
'สาวเ'
'สารเลว'
'สารภาพ'
'สายเ'
'สามเ'
'สามารถทำ'
'สาบาน'
'สาท'
'สหร_'
'สวด'
'สลาย'
'สรภาพ'
'สร'
'สบายใจ'
'สบาย'
'สบ_'
'สบ'
'สถานการณ_'
'สจ'
'ศาจ_'
'ศว_'
'วๆ'
'วไห'
'วไง'
'วใจของ'
'วโลก_'
'วโมงเ'
'วโมงน_'
'วแน_'
'วแก'
'วเองอย_'
'วเองม'
'วเองก'
'วเส_'
'วเราะ_'
'วเจ_'
'วเจ'
'วเขาเ'
'วาย'
'วาท'
'วางไว_'
'วางป_'
'วอะไร'
'วออกไป'
'วอล_'
'วสำหร_'
'วว'
'วลา_'
'วรอด'
'วยไ'
'วยเด_'
'วยเขา'
'วยห'
'วยส'
'วยร'
'วยพ'
'วยป'
'วยจ_'
'วยความเคารพ'
'วมเ'
'วพวกเ'
'วประหลาด_'
'วประ'
'วนผสม'
'วนก'
'วของเขา'
'วของเ'
'วกเขา_'
'วกเขา'
'วกล_'
'ลใ'
'ลโล'
'ลโ'
'ลเบ_'
'ลเก'
'ลาย_'
'ละส'
'ละคน'
'ลองค_'
'ลอก'
'ลส'
'ลม_'
'ลป_'
'ลงไ'
'ลงแ'
'ลงท_'
'ลค_'
'ลข'
'ฤทธ_'
'ฤ'
'ราะ'
'รายการ'
'ราบ_'
'ราน'
'ราท_'
'ราด'
'ระองค_'
'ระท_'
'ระจ'
'รอส'
'รอยเ'
'รอบๆ'
'รอดช_'
'รษ'
'รวม_'
'รวจ'
'รร_'
'รมา'
'รม_'
'รพ_'
'รธ'
'รถเ'
'รถต_'
'รณ'
'รงเร_'
'รค'
'ยไป_'
'ยไ'
'ยใจท_'
'ยใ'
'ยและ'
'ยเง_'
'ยำ'
'ยาวนาน_'
'ยาว_'
'ยาง'
'ยากจะ'
'ยาก_'
'ยะเ'
'ยอะไร'
'ยอะ_'
'ยอรม_'
'ยอน'
'ยอด'
'ยหล_'
'ยวแ'
'ยวเรา'
'ยวผม'
'ยวชาญ'
'ยวจ'
'ยวค_'
'ยร'
'ยย_'
'ยมไปเลย_'
'ยมาก'
'ยมจ'
'ยพ_'
'ยบข'
'ยนไป_'
'ยนโ'
'ยนน_'
'ยนจะ'
'ยนจบ'
'ยนข_'
'ยถ_'
'ยตอ'
'ยซ_'
'ยงพอ_'
'ยงน'
'ยความ'
'ยของเ'
'ยของค_'
'ยกให_'
'ยกโทษให_'
'ยกแ'
'ยกห'
'ยกผม'
'ยกต_'
'มไหม_'
'มไว_'
'มไปเ'
'มเอ'
'มเก_'
'มาแทน'
'มาห'
'มาว_'
'มานานแล_'
'มานะ_'
'มาทำ'
'มาตร'
'มาจากไหน_'
'มากแค_'
'มากเลย'
'มากเท_'
'มากพอ'
'มอา'
'มอส'
'มอล'
'มองไปท_'
'มองอ'
'มหาว_'
'มลง'
'มมาก'
'มฟร_'
'มพ'
'มตา'
'มดเ'
'มฉ_'
'มจะเ'
'มข'
'มก'
'ภาษา'
'ภาพอ'
'ภรรยาผม'
'ภรรยาของ'
'ฟแ'
'ฟลอร_'
'ฟน'
'พะ'
'พอล'
'พอร_'
'พอก_'
'พวกเราเข_'
'พวกเราอย_'
'พวกเขาไป'
'พวกเขาอ'
'พวกเขาถ_'
'พวกเขาจะไม_'
'พวกเขาจะทำ'
'พวกเขาจะต_'
'พวกเขาค_'
'พวกเขาค'
'พวกทหาร'
'พลง'
'พระองค_'
'พรสวรรค_'
'พยายาม_'
'พยพ'
'พบเ'
'พน'
'พทย_'
'พง'
'ฝ'
'ผลไ'
'ผลงาน'
'ผลการ'
'ผมใช_'
'ผมโ'
'ผมเดาว_'
'ผมเก_'
'ผมหน_'
'ผมล'
'ผมพบ'
'ผมทำไม_'
'ผมท'
'ผมจำ'
'ผมจะได_'
'ผมจะล'
'ผมจะม_'
'ผมค'
'ผนก'
'ผ'
'ปอร_'
'ปอนด_'
'ปลาย'
'ปลอ'
'ปรแกรม'
'ปราสาท'
'ประเภท'
'ประหลาด_'
'ประชา'
'ปรบม_'
'ปน'
'ปค'
'บๆ_'
'บไปหา'
'บไปก_'
'บไซต_'
'บแรก'
'บแน_'
'บแค'
'บแก_'
'บเฮ'
'บเหรอ_'
'บเพ'
'บเบ_'
'บเจ'
'บเขาไ'
'บายด_'
'บาท'
'บาดแผล'
'บางคน_'
'บอาช'
'บอสต_'
'บอย'
'บอน'
'บอกพวกเขา'
'บอกผมว_'
'บอกค'
'บอกข_'
'บหร_'
'บสาว'
'บสอง'
'บศ'
'บว'
'บรอง'
'บมาได_'
'บมาอ_'
'บมาก'
'บภรรยา'
'บฟ_'
'บผล'
'บผมเ'
'บประ'
'บบาดเจ_'
'บนโต_'
'บนน_'
'บนถนน'
'บตา_'
'บจะ'
'บคำส_'
'บความเ'
'บคร_'
'บของ_'
'นไอ_'
'นไหม'
'นไปหน_'
'นไปก_'
'นได'
'นใจท_'
'นใครเ'
'นโดย'
'นโด'
'นโง_'
'นแวมไพร_'
'นแนะนำ'
'นเหล_'
'นเหรอ'
'นเม'
'นเบอร_'
'นเธอก_'
'นเจอเ'
'นเจอ_'
'นเคยเป_'
'นเคยก_'
'นเค'
'นเก'
'นำค'
'นำ_'
'นายเห_'
'นายอำเภอ'
'นายอ'
'นายจะเ'
'นามบ_'
'นานมา'
'นาคต'
'นาค'
'นะเ'
'นะนำ'
'นะจ_'
'นอาหาร'
'นอะไรเ'
'นอะไรน_'
'นออกมา_'
'นอยากทำ'
'นอนเ'
'นอนน'
'นอนค_'
'นอกเ'
'นอก_'
'นหายไป'
'นหาย'
'นหล'
'นหน'
'นสำหร_'
'นสามารถทำ'
'นสร_'
'นสก'
'นวาย_'
'นวาง'
'นวน'
'นลง_'
'นราย'
'นระเบ_'
'นระ'
'นยาก'
'นมาได_'
'นมาใ'
'นมาช_'
'นพอ'
'นพวกน_'
'นพลาด'
'นพร'
'นพน_'
'นผล'
'นบา'
'นนาง'
'นธนาคาร'
'นทำเ'
'นทำอะไร_'
'นทางเด_'
'นทางการ'
'นทหาร'
'นท'
'นตำรวจ_'
'นตำนาน'
'นตอ'
'นตร'
'นตนาการ'
'นตก'
'นดาลใจ'
'นดา_'
'นญาต_'
'นซะเ'
'นจากค'
'นจะไปหา'
'นจะไป_'
'นจะใช_'
'นจะแ'
'นจะเล_'
'นจะเร_'
'นจะส_'
'นจะถ_'
'นจะฆ_'
'นคะ_'
'นคอ'
'นคล_'
'นคนพ_'
'นคนทำ_'
'นคนค'
'นขา'
'นขอร_'
'นขอบค_'
'นการแ'
'นการส_'
'นการล'
'นการต_'
'นกลายเป_'
'นกร'
'ธออ'
'ธภ_'
'ทแ'
'ทเลอร_'
'ทำไมเธอไม_'
'ทำไมนายไม_'
'ทำแ'
'ทำเพ_'
'ทำอ'
'ทาส'
'ทาร_'
'ทางเข_'
'ทางออก'
'ทางซ_'
'ทางจ'
'ทะเลาะก_'
'ทอง'
'ทรยศ_'
'ทรง'
'ทม'
'ทซ_'
'ทของ'
'ถอะน_'
'ถวน_'
'ถล'
'ถม'
'ถน_'
'ตไ'
'ตใหม_'
'ตเรา'
'ตาร_'
'ตายได_'
'ตามร'
'ตามพ'
'ตามต'
'ตามความ'
'ตาของ'
'ตะโกน'
'ตอบแทน'
'ตอบคำถาม'
'ตอนแรก'
'ตอน_'
'ตอ_'
'ตลาด'
'ตลอดทาง'
'ตรเ'
'ตรวจค'
'ตบอล'
'ตบ'
'ตน'
'ดไปแล_'
'ดใหม_'
'ดใช_'
'ดแย_'
'ดแบบ'
'ดเอง'
'ดเห'
'ดเว_'
'ดเร'
'ดาน'
'ดอา'
'ดหายใจ'
'ดหา'
'ดวงตา'
'ดว'
'ดรอ'
'ดมาได_'
'ดฟ_'
'ดพบ'
'ดพ'
'ดฝ_'
'ดปาร_'
'ดป_'
'ดนาย'
'ดทก_'
'ดซะ'
'ดงาน'
'ดคำ'
'ดของแ'
'ดของผม'
'ดการเอง_'
'ดกระ'
'ดกฎหมาย'
'ณไปท_'
'ณแต_'
'ณเอง_'
'ณเหม_'
'ณเลย_'
'ณเคยเห_'
'ณเค'
'ณออก'
'ณอยากได_'
'ณหา'
'ณยาย'
'ณมาทำอะไรท_'
'ณมาท_'
'ณฟ_'
'ณพบ'
'ณบอกฉ_'
'ณทำไม_'
'ณทำแบบน_'
'ณทำเ'
'ณทำอะไร'
'ณท'
'ณถาม'
'ณตก'
'ณจำได_'
'ณจะเป_'
'ณคา'
'ณคงจะ'
'ณก'
'ฐเน_'
'ฐานะ'
'ฐานข_'
'ฐมนตร_'
'ญไป'
'ญเธ_'
'ญาตให_'
'ญากร'
'ญหาเร_'
'ญว_'
'ญพ'
'ญน'
'ญชาการ'
'ซแ'
'ซาน'
'ซะเ'
'ซอง'
'ชไ'
'ชายแ'
'ชายเ'
'ชายหาด'
'ชอป'
'ชอบห'
'ชอบม_'
'ชอบท_'
'ฉาก'
'ฉลาด_'
'ฉบ_'
'จำลอง'
'จาง'
'จากไหน'
'จากหน_'
'จากห_'
'จากบ_'
'จากต'
'จากค_'
'จะเห_'
'จะเปล_'
'จะเช_'
'จะล'
'จะพยายาม'
'จะทำเ'
'จะตาย'
'จะตาม'
'จะข_'
'จอแ'
'จอดรถ_'
'จอก_'
'จอ_'
'จว'
'จม'
'จบลง_'
'จบลง'
'จบ_'
'จนเ'
'จดหมาย'
'จด_'
'งๆหร_'
'งไฟ'
'งไงน'
'งในเ'
'งในน_'
'งใน_'
'งใ'
'งและ'
'งแรก'
'งแบบ'
'งแน_'
'งแค_'
'งแก_'
'งเอา'
'งเอ'
'งเสร_'
'งเล'
'งเรา_'
'งเท_'
'งเต_'
'งเค_'
'งเขา_'
'งเกอร_'
'งาม_'
'งานไ'
'งออก'
'งอยาก'
'งหร_'
'งหมาย'
'งหม_'
'งห'
'งสามารถ'
'งสว'
'งว'
'งรออย_'
'งรถ'
'งยาก'
'งยา'
'งย'
'งมองหา'
'งมอง'
'งฟ_'
'งพอ'
'งพวกเขา_'
'งพร'
'งนาย'
'งน'
'งทำอะไรอย_'
'งทำอะไร'
'งถ'
'งตำรวจ_'
'งตรวจสอบ'
'งฉ'
'งจะไป_'
'งจะเข_'
'งจะบอกว_'
'งจะทำ'
'งจอ'
'งจน'
'งงานแล_'
'งคร'
'งคนเ'
'งของ_'
'งขนาดน_'
'งกะ'
'งกฤษ'
'งกร'
'ฆาตรกร'
'ฆาตกรรม_'
'คไ'
'คแล_'
'คำเต_'
'คำสาป'
'คอม'
'ความใ'
'ความห'
'ความสำเร_'
'ความสนใจ'
'ความด_'
'ควอ'
'ควรจะอย_'
'คนไข_'
'คนแล_'
'คนอ'
'คนตาย'
'คนจ'
'คนค'
'คต'
'คณบด_'
'คงจะไม_'
'คก'
'ฃเธ'
'ขโมย_'
'ขเธ'
'ขาว'
'ขาฉ_'
'ขอโทษเ'
'ขอโทษนะ'
'ขออภ_'
'ขอผม'
'ของห'
'ของส'
'ของร_'
'ของพวกเรา_'
'ของพวกน_'
'ของพ'
'ของคน'
'ขอขอบค_'
'ขอ_'
'ขลาด'
'ขยะ'
'ขภาพ'
'ขนม'
'กใหม_'
'กใหญ_'
'กแป'
'กแบบ'
'กเห'
'กเส_'
'กเตอร_'
'กำแพง_'
'กำจ_'
'กำก_'
'กาแ'
'การโ'
'การแข_'
'การห'
'การล_'
'การด_'
'การซ_'
'การจ_'
'กางเกง'
'กออกมา'
'กอยาก'
'กอด'
'กองท_'
'กอง_'
'กหร_'
'กหก_'
'กษะ'
'กวาง'
'กลา'
'กละ'
'กระแส'
'กระทรวง'
'กระทบ'
'กระดาษ'
'กระจาย'
'กระจ'
'กรวาล_'
'กรย_'
'กฟ_'
'กฝน_'
'กปล_'
'กปรก'
'กนา'
'กนะ'
'กทำลาย_'
'กท'
'กฎ'
'กจาก'
'กจะไป'
'กคำ_'
'กคว'
'กคนแ'
'กคนเลย_'
'กคนอ_'
'กคนถ_'
'กคนต_'
'กคนจะ'
'กของเรา_'
'กของต_'
'กกำจ_'
'ä_'
'à_'
'¶¶_'
'¶ ¶'
'_'
' _'
'_'
'za'
'yt'
'yi'
'yer_'
'yard_'
'xious_'
'xe'
'wre'
'worries_'
'worm'
'work'
'wle'
'with'
'wire_'
'wings_'
'windows_'
'wig'
'whose_'
'wes'
'weirde'
'weapons_'
'warm_'
'walls_'
'vor'
'volunteer'
'vol'
'vo'
'visual'
'violence_'
'vi'
'vers'
'value_'
'vain_'
'ut'
'ura'
'unknown_'
'une_'
'une'
'understood_'
'understanding_'
'undercover_'
'uli'
'ula'
'uk'
'ugh'
'ual_'
'ua'
'turn'
'tunnel_'
'tumor_'
'tta_'
'ts'
'tru'
'trip'
'tries_'
'tric'
'tree_'
'treat'
'trained_'
'tracking_'
'trace_'
'touching_'
'tom'
'toes_'
'toe_'
'tissue_'
'tir'
'timing_'
'tied_'
'tick_'
'thrown_'
'throwing_'
'theater_'
'tha'
'term_'
'tent_'
'tells_'
'teen'
'tched_'
'tate_'
'tat'
'tast'
'tanks_'
'tain'
'syn'
'swim_'
'sweetheart_'
'swa'
'suspicious_'
'survive_'
'surrounded_'
'super'
'suffer_'
'sudden_'
'su_'
'study_'
'stru'
'stream_'
'str'
'sting_'
'stick'
'sti'
'standard_'
'stalking_'
'stake_'
'stairs_'
'staff_'
'species_'
'spare_'
'spar'
'spanish_'
'sou'
'sor'
'sooner_'
'someplace_'
'someday_'
'sold_'
'sol'
'snap'
'smo'
'slip_'
'skills_'
'sk'
'sites_'
'sis_'
'sil'
'signed_'
'side'
'sibl'
'shows_'
'showing_'
'show'
'shoulder_'
'shopping_'
'shoo'
'sho'
'shi_'
'shell_'
'serving_'
'servant_'
'sergeant_'
'sen'
'selfish_'
'sel_'
'seizure_'
'section_'
'score_'
'scar_'
'scan'
'scal'
'sca'
'sar'
'sample_'
'sale_'
'safely_'
'sab'
'rush'
'rus_'
'run'
'rumors_'
'rule_'
'ruin'
'rubb'
'rti'
'roy_'
'rocks_'
'robot'
'rn_'
'rip'
'rin'
'rice_'
'ric'
'ri'
'rh'
'returning_'
'results_'
'ressed_'
'ress'
'responsibility_'
'respond_'
'respect'
'resi'
'require'
'represent'
'repo'
'remote_'
'remind_'
'relative'
'rel'
'rei'
'regular_'
'regard'
'ree'
'rect'
'recruit'
'recover_'
'records_'
'recording_'
'received_'
'receive_'
'reas'
'rd_'
'rb'
'ray_'
'ration_'
'rapi'
'range_'
'raining_'
'rai'
'racti'
'quant'
'qualified_'
'qu'
'py'
'purpose_'
'pun'
'pul'
'pu'
'pti'
'progress_'
'profit'
'prob'
'pro_'
'pris'
'priest_'
'prefer_'
'precious_'
'pra'
'pping_'
'ppe'
'pour_'
'pounds_'
'possession_'
'popular_'
'pool_'
'pol'
'poison_'
'plu'
'play'
'plate_'
'plant_'
'planets_'
'pizza_'
'pit_'
'pipe_'
'pin_'
'pie'
'physical_'
'physic'
'peaceful_'
'pea'
'paying_'
'patch_'
'partners_'
'pap'
'pack'
'pa_'
'ows_'
'overd'
'oven_'
'ought_'
'ou'
'ota'
'os'
'orm'
'organization_'
'oppo'
'onal'
'ologi'
'oli'
'ol'
'oke'
'of'
'oc'
'obsessed_'
'nuts_'
'numbers_'
'num'
'nth_'
'ns'
'note_'
'nor_'
'noon_'
'non'
'noise_'
'nni'
'nic'
'neighbor_'
'nature_'
'nan'
'naked_'
'murders_'
'mountain_'
'motive_'
'motion_'
'mort'
'morgan_'
'monkey_'
'monitor_'
'mom'
'model_'
'mmm_'
'mm_'
'mistaken_'
'miser'
'mini'
'meters_'
'mes_'
'menu_'
'meds_'
'meal_'
'mble'
'matic_'
'material_'
'matches_'
'mass_'
'mask_'
'mark_'
'managed_'
'manage_'
'maker_'
'mai'
'mac'
'lungs_'
'lun'
'ls'
'lower_'
'lovers_'
'louder_'
'lou'
'los'
'lord_'
'lon'
'logy_'
'logical_'
'logi'
'll'
'line'
'lim'
'license_'
'lia'
'lect'
'lde'
'ld'
'lati'
'latest_'
'las'
'lar_'
'lap'
'lan_'
'lam'
'laid_'
'lai'
'lab'
'kur'
'knock_'
'kle'
'kim'
'kes_'
'kee'
'junior_'
'jumped_'
'jokes_'
'joint_'
'joining_'
'jin_'
'jet'
'jer'
'ject'
'j_'
'iv'
'ium_'
'ith_'
'ite'
'isti'
'ist'
'issue_'
'iss'
'ism'
'ise'
'is'
'ire'
'invest'
'invention_'
'inva'
'insurance_'
'instinct'
'inspir'
'injuries_'
'ini'
'infi'
'indi'
'ind'
'including_'
'incident_'
'imm'
'ime'
'ima'
'im_'
'illi'
'ill'
'ile_'
'ignoring_'
'ific'
'ider'
'identify_'
'identified_'
'ida'
'icu'
'ically_'
'hur'
'hung_'
'hun'
'hump'
'hs_'
'hr'
'however_'
'hostage_'
'hos'
'horrible_'
'hoped_'
'hooked_'
'hoo_'
'homo'
'holy_'
'hol'
'hits_'
'hidden_'
'helps_'
'helpful_'
'heading_'
'hea'
'hates_'
'hatche'
'harm_'
'happily_'
'hang'
'han'
'gul'
'guilty_'
'guests_'
'grunting_'
'gri'
'gree'
'grave_'
'grateful_'
'grass_'
'gosh_'
'gos'
'goodness_'
'gle'
'giant_'
'gg'
'genetic_'
'gener'
'gene'
'gas'
'garden_'
'gar_'
'gar'
'gall'
'gai'
'gab'
'fus'
'funeral_'
'fu'
'friendly_'
'fri'
'former_'
'forgotten_'
'forced_'
'flow_'
'fle'
'flat_'
'flash'
'fix'
'financial_'
'figur'
'fic'
'fianc'
'female_'
'fellows_'
'fee'
'fed_'
'favor'
'fashion_'
'fas'
'farm_'
'fansub'
'faint_'
'fact'
'extreme_'
'extent_'
'express_'
'expert_'
'experiment_'
'experienced_'
'expe'
'exp'
'exo'
'exchange_'
'examine_'
'eva'
'err'
'eon_'
'entry_'
'entered_'
'enter'
'engine_'
'enc'
'ena'
'embe'
'emba'
'ell_'
'ell'
'electron'
'ek_'
'eh_'
'effort_'
'ease_'
'earn_'
'earn'
'duc'
'driving_'
'drinks_'
'drag_'
'dozens_'
'dozen_'
'dor'
'dom'
'doc'
'disp'
'dis'
'dil'
'diff'
'die'
'det'
'dessert_'
'desk_'
'desire_'
'demons_'
'demo'
'dem'
'deliver_'
'delicious_'
'deli'
'delay'
'degrees_'
'defi'
'def'
'dates_'
'data_'
'custody_'
'cus'
'curious_'
'culture_'
'cts_'
'crowd_'
'cred'
'crack_'
'counter'
'count'
'cot'
'cost_'
'cos'
'cor'
'convince_'
'conta'
'conse'
'confi'
'conf'
'conditions_'
'concert_'
'concerned_'
'compliment_'
'complex_'
'competition_'
'commit_'
'comm'
'comb'
'collar_'
'cock_'
'cock'
'coat_'
'coach_'
'coa'
'clues_'
'closure_'
'closest_'
'climb_'
'cli'
'clearly_'
'clear'
'claire_'
'cket'
'cia'
'ci_'
'church_'
'chocolate_'
'chicken_'
'cheating_'
'chap'
'chan'
'century_'
'celebrate_'
'cel'
'cc'
'cate'
'carrying_'
'career_'
'care'
'camp'
'cal'
'bust'
'bus'
'burning_'
'bullshit_'
'bul'
'bucks_'
'brown_'
'bread_'
'bre'
'brain'
'box'
'bowl_'
'bout_'
'boun'
'boring_'
'book'
'boo'
'bond'
'blocks_'
'blew_'
'blah_'
'bit'
'bird_'
'billion_'
'bill_'
'bend_'
'believing_'
'begin_'
'beg'
'beep'
'becoming_'
'becomes_'
'beating_'
'bbl'
'bbing_'
'bb'
'battery_'
'batt'
'bastards_'
'basement_'
'barr'
'band'
'awake_'
'auto'
'authority_'
'attacking_'
'ating_'
'ati'
'arrange'
'are'
'approaching_'
'appro'
'appre'
'anytime_'
'antic'
'anna'
'ancient_'
'ami'
'ame'
'alo'
'allerg'
'ale_'
'ak'
'airport_'
'aid_'
'add_'
'acted_'
'according_'
'accord'
'abilities_'
'aba'
'aa'
'\\\\'
'\\ '
'Zobelle_'
'Za'
'Z_'
'Z'
'Yang_'
'Wr'
'Wouldn_'
'Work'
'Wood'
'Wit'
'William_'
'Whoo_'
'While_'
'Whe'
'Wha_'
'War_'
'Wanna_'
'WASN_'
'Van'
'Val_'
'VE'
'Uni'
'Unfortunately_'
'Ty'
'Tsu'
'Trying_'
'Troy_'
'Town_'
'Th_'
'Th'
'Texas_'
'Technically_'
'Taylor_'
'Tan'
'Taka'
'TU'
'TT'
'TR'
'THEY_'
'TED_'
'Super'
'Sun'
'Str'
'Station_'
'Start_'
'Star_'
'Stand_'
'Stan_'
'Stan'
'Spl'
'Speak_'
'Sor'
'Somehow_'
'Sk'
'Sim'
'Shrek_'
'Shang'
'Shan'
'Sh'
'Sergeant_'
'Security_'
'Second_'
'Sean_'
'Sco'
'Saw'
'Santa_'
'San'
'Said_'
'Sad'
'SPA'
'SOMETHING_'
'SO'
'SHE_'
'Ry'
'Round_'
'Rose_'
'Rita_'
'Ring'
'Rex_'
'Rebecca_'
'Real_'
'RT'
'RS'
'REC'
'Quickly_'
'Que'
'Prosecutor_'
'Promise_'
'Poor_'
'Poo'
'Pol'
'Play'
'Pick_'
'Pho'
'Peace_'
'Pat'
'Pass'
'Paris_'
'Papa_'
'Pack'
'PA'
'Other_'
'Orson_'
'October_'
'Oc'
'Ob'
'OKAY_'
'Nor'
'Ner'
'NO_'
'NG'
'Mus'
'Murder'
'Mum_'
'Mul'
'Most_'
'Moon_'
'Mine_'
'Mind_'
'Mill'
'Mil'
'Miguel_'
'Metro_'
'Mercedes_'
'Meg'
'McC'
'Max_'
'Many_'
'Mah'
'Made_'
'MUCH_'
'MI'
'Ly'
'Lun'
'Los_'
'Lock'
'Live_'
'Lincoln_'
'Linc_'
'Lin'
'Let'
'Laur'
'Lake_'
'La_'
'LO'
'LL'
'Kyle_'
'Kra'
'Kl'
'Kira_'
'KS_'
'KI'
'Junuh_'
'Jun'
'Jin_'
'Jer'
'Jax_'
'Jake_'
'Ir'
'Io'
'Ie'
'IS'
'II'
'IF_'
'IC'
'Hus'
'Human_'
'Hudson_'
'How'
'Hot_'
'Hope_'
'Hoo_'
'Hoo'
'Home_'
'Holmes_'
'Holl'
'Him_'
'Highness_'
'Heads_'
'Hea'
'Hat'
'Hannah_'
'Han'
'HR'
'HEY_'
'HERE_'
'Guy_'
'Grie'
'Greg'
'Grandma_'
'Gotta_'
'Got'
'Gosh_'
'Gold'
'Girls_'
'Gaius_'
'Freeze_'
'Fre'
'Fiona_'
'Finn_'
'Fer'
'Fen'
'Face'
'FR'
'FO'
'FL'
'FI'
'Exp'
'Excellent_'
'Every'
'Ever_'
'Enjoy_'
'Emma_'
'Ella_'
'Ele'
'El'
'Either_'
'Einstein_'
'Each_'
'EVE'
'EN'
'EM'
'EE'
'Doctor_'
'Die'
'Det'
'Department_'
'Dep'
'Dee'
'Dec'
'Dawn_'
'Dat'
'Das'
'Dan'
'Cry'
'Crow_'
'Creat'
'Cre'
'Count_'
'Cos'
'Comp'
'Coc'
'Clean_'
'Chuckles_'
'Christian_'
'Christ'
'Chicken_'
'Chelsea_'
'Cheers_'
'Charming_'
'Charl'
'Chairman_'
'Carol'
'Cameron_'
'Calm_'
'California_'
'CHE'
'Bryce_'
'Brick_'
'Break'
'Bre'
'Boys_'
'Bos'
'Bor'
'Blue_'
'Blu'
'Blood_'
'Bir'
'Best_'
'Bernie_'
'Ben'
'Bel'
'Beckman_'
'Bat'
'Bas'
'BLA'
'BAR_'
'Att'
'Ashley_'
'Ap'
'Angeles_'
'Andrew_'
'Anakin_'
'Amen_'
'Alpha_'
'Aki'
'Air_'
'Ain_'
'Ai'
'Age'
'Adrian_'
'Add'
'Acc'
'Aaron_'
'Aaa'
'AT_'
'AG'
': "_'
'99_'
'66_'
'400_'
'36_'
'35'
'34_'
'32'
'30'
'2nd_'
'29_'
'28_'
'21_'
'2010_'
'199'
'13'
'12'
'11'
'...'
'.'_'
'.!_'
'. - [_'
'. #_'
'-- '
'--'
'-"_'
'- (_'
',"_'
'* '
')'
''?_'
'" "_'
' ¶¶_'
' # # _'
'์.. _'
'์)_'
'์"_'
'์" _'
'์ ..._'
'๋ _'
'๊ ?_'
'๊'
'้-'
'้#'
'้ !_'
'็..'
'็ '
'็'
'ๆไ'
'ๆเลย'
'ๆบ_'
'ๆค'
'ไอเอ_'
'ไหว_'
'ไหว'
'ไหล_'
'ไหมเก_'
'ไหนมา'
'ไลน_'
'ไฟไหม_'
'ไฟเ'
'ไพร'
'ไปเป'
'ไปอ'
'ไปหาค'
'ไปว_'
'ไปพ_'
'ไปพ'
'ไปน'
'ไปทำ'
'ไปต_'
'ไปช_'
'ไปจ'
'ไปงาน'
'ไปค_'
'ไดอาน_'
'ได'
'ไซเ'
'ไงคะ_'
'ไ'
'ใบน_'
'ในไ'
'ในฮ'
'ในสาย'
'ในรายช_'
'ในระ'
'ในย_'
'ในพ'
'ในประว_'
'ในป'
'ในบาง'
'ในทาง'
'ในทะเล'
'ในถ_'
'ในฐานะ'
'ในช'
'ในความเป_'
'ในการแ'
'ใจเหรอ_'
'ใจเร_'
'ใจหรอ'
'ใจหร_'
'ใจมาก'
'ใจนะ_'
'ใจค'
'ใจของ'
'ใครไป'
'ใครได_'
'ใครเอ'
'ใครออก'
'ใครอ_'
'ใครห'
'ใครสน'
'ใครว'
'ใครจะเ'
'โอะ'
'โอพระเจ_'
'โอนาร_'
'โอน'
'โอกาสน_'
'โหล'
'โสด'
'โว'
'โลห'
'โลม'
'โลกน_'
'โลกของ'
'โรลด_'
'โรม_'
'โรป_'
'โรบ'
'โยค'
'โมเน_'
'โมง'
'โม_'
'โปรดเถอะ_'
'โปรดอย_'
'โบน'
'โบ_'
'โนอา'
'โทษ_'
'โทม_'
'โตเก_'
'โดยเฉพาะอย_'
'โดยเ'
'โชคชะตา'
'โชค'
'โคเ'
'โคลอ_'
'โคม'
'โกล'
'แฮะ_'
'แอส'
'แอร_'
'แอนนา_'
'แอต'
'แอช'
'แองเจล_'
'แหละท_'
'แหละ'
'แหงล_'
'แสดงออก'
'แวน_'
'แว_'
'และไป'
'และไ'
'และใ'
'และเอ_'
'และเส_'
'และเราจะ'
'และเร_'
'และเปล_'
'และเค'
'และหา'
'และสา'
'และว_'
'และล'
'และพวกเรา'
'และผมไม_'
'และปร'
'และป_'
'และนา'
'และท'
'และตา'
'และจร'
'และคน'
'และกำล_'
'และก'
'แลก'
'แรม'
'แรนด_'
'แรน'
'แมนด_'
'แมดด_'
'แมคคอ'
'แมกซ_'
'แฟนเ'
'แฟน_'
'แพร_'
'แพท'
'แพง'
'แผนเ'
'แปลกใจ'
'แปล'
'แป'
'แบรด'
'แบบไ'
'แบบส_'
'แนะนำ'
'แทร'
'แทบจะ'
'แต'
'แด'
'แซง'
'แชมเปญ'
'แคโรไลน_'
'แคล'
'แคท'
'แขน'
'แขก_'
'แกเ'
'แกะ'
'แกห'
'แกรม_'
'เเละ'
'เเจ_'
'เฮอ'
'เฮล_'
'เอเดน_'
'เอาไ'
'เอาให_'
'เอาแล_'
'เอาอะไร'
'เอาส_'
'เอาละ'
'เอาช'
'เอาง_'
'เอส'
'เอลล_'
'เอล_'
'เอช_'
'เหรอท_'
'เห'
'เศษมาก'
'เศษของ'
'เวลาส_'
'เวลาส'
'เวลาผ'
'เวร'
'เวน'
'เวทมนตร_'
'เลส'
'เลว'
'เลยไ'
'เลยส_'
'เลยต_'
'เลข'
'เราไปเ'
'เราใกล_'
'เราเข_'
'เราเก_'
'เราออกไป'
'เราหย_'
'เราสองคน'
'เรามาเ'
'เราพ_'
'เราตา'
'เราตร'
'เราตกลงก_'
'เราช_'
'เราจะให_'
'เราจะเป_'
'เราจะล'
'เราจะต'
'เราจะช_'
'เราจะค_'
'เราควรเ'
'เราขาย'
'เรากล_'
'เรส_'
'เรน_'
'เรน'
'เมด'
'เฟล_'
'เพลงน_'
'เพราะตอนน_'
'เพราะด_'
'เพราะความ'
'เพราะค'
'เพร'
'เบล_'
'เบรน'
'เบด'
'เนส'
'เนต'
'เธอไ'
'เธอให_'
'เธอใส_'
'เธอใช_'
'เธอโอเค'
'เธอโ'
'เธอแน_'
'เธอเอา'
'เธอเส_'
'เธอเพ_'
'เธอเคยเ'
'เธออา'
'เธออยาก'
'เธอหาย'
'เธอหย_'
'เธอหมาย'
'เธอหน_'
'เธอสวย'
'เธอล'
'เธอพยายาม'
'เธอทำงาน'
'เธอจ'
'เธฑเธ'
'เธฐเธ_'
'เธฐเธ'
'เธซเธฒเ'
'เธซเธกเธ'
'เธซเธก'
'เธซเธ'
'เธชเน_'
'เธฃเธทเน_'
'เธฃเธฒเธ'
'เธกเธตเธ_'
'เธกเธฑเธ_'
'เธกเธ_'
'เทศ'
'เทค'
'เถอะน_'
'เดอะ_'
'เดน'
'เดท_'
'เซเ'
'เชล_'
'เชล'
'เชย'
'เจอเรม_'
'เจอเธอ_'
'เจออ'
'เจย_'
'เจม_'
'เจฟ_'
'เจน'
'เจค_'
'เคารพ'
'เคล'
'เคยแ'
'เคยอยาก'
'เคยน'
'เคยจ'
'เขาใส_'
'เขาใช_'
'เขาโก'
'เขาแล_'
'เขาเก_'
'เขาออกไป'
'เขาอ_'
'เขาหน_'
'เขาห_'
'เขาว_'
'เขาล_'
'เขานำ'
'เขาทำไ'
'เขาทำอะไร'
'เขาท'
'เขาถ'
'เขาตาย'
'เขาจะเ'
'เขาควร'
'เขาคงจะ'
'เขาข_'
'เขต'
'เกล'
'เกรย_'
'ู้ '
'ู._'
'ึ๊_'
'ีี'
'ี,_'
'ำไม_'
'ำเส_'
'ำเล'
'ำเง_'
'ำออก'
'ำอ'
'ำรวจ_'
'ำม'
'ำบาก'
'ำบ'
'ำตาล_'
'ำช'
'ำค'
'ำของ'
'าๆน_'
'าไอ_'
'าไหม'
'าไม'
'าไปให'
'าไปหน_'
'าไปด_'
'าไปค'
'าใจไ'
'าใจเ'
'าใจอ'
'าใจล'
'าใจค_'
'าใจค'
'าใคร_'
'าใ'
'าโม'
'าโดย'
'าโด'
'าแว'
'าแฟน'
'าแปลก'
'าแบบน_'
'าเหต_'
'าเห'
'าเศร_'
'าเราได_'
'าเราอาจจะ'
'าเราจะไ'
'าเราจะทำ'
'าเราควร'
'าเรากำล_'
'าเธอโ'
'าเธออยากจะ'
'าเธอส'
'าเธอบอก'
'าเธอถ_'
'าเธอตาย'
'าเธอด_'
'าเธอก'
'าเถ'
'าเจอ'
'าเง_'
'าเขาม_'
'าเขาจะเ'
'าเขากำล_'
'าะ_'
'าอะไรเน_'
'าอะไรก_'
'าหาญ_'
'าสำหร_'
'าสอ'
'าสร_'
'าสมเพช'
'าศา'
'าวโพด'
'าวาง'
'าวอย_'
'าวอ'
'าวหา'
'าวม'
'าวค'
'าวก'
'ารถ'
'ายแค_'
'ายเลย_'
'ายเร'
'ายเพ'
'ายเธอ_'
'ายเธอ'
'ายห'
'ายละ'
'ายย_'
'ายท'
'ายด_'
'ายงาน'
'ายคล_'
'ายคนน_'
'ามไ'
'ามแ'
'ามาได_'
'ามาในบ_'
'ามาแล_'
'ามารถ_'
'ามาน_'
'ามาทำ'
'ามาต'
'ามากกว_'
'ามหา'
'ามม'
'ามพ'
'ามท'
'ามตา'
'ามกลาง'
'าภา'
'าฟ'
'าพวกเรา_'
'าพวกเขาเป_'
'าพระ'
'าพย'
'าผล'
'าผมก'
'าผ'
'าปาก'
'าบางท_'
'านไปแล_'
'านเหร_'
'านเส'
'านเลย'
'านเล'
'านเรา_'
'านเม_'
'านเท'
'านเด_'
'านายอย_'
'านายห'
'านายพ'
'านอาหาร'
'านหญ_'
'านห'
'านย_'
'านผม_'
'านประธาน'
'านนอก_'
'านทาง'
'านด'
'านข'
'าทำไมค_'
'าทำได_'
'าทำแบบน_'
'าทำเ'
'าทำอะไร'
'าทำน'
'าทำงาน'
'าทำ_'
'าตาย'
'าตกร'
'าดไ'
'าชา'
'าจำเป_'
'าจะห'
'าจะมา'
'าจะพ_'
'าจะป'
'าจะตาย'
'าจะช'
'าจะจ'
'าจอ'
'างๆเ'
'างไป_'
'างแรก_'
'างแปลก'
'างแท_'
'างเห'
'างเส'
'างเล_'
'างเรา_'
'างเธอ'
'างเถอะ_'
'างหากล_'
'างหา'
'างระ'
'างรอบ'
'างรวดเร_'
'างมา'
'างประ'
'างบ_'
'างนาย_'
'างทำให_'
'างจากเ'
'างจ'
'างของเ'
'าฆ_'
'าของเ'
'าของอ'
'าขน'
'าข'
'ากาศ'
'ากา'
'ากท_'
'ากข'
'ากกว_'
'ัั_'
'ั '
'ะไรก_'
'ะใ'
'ะโ'
'ะแหละ_'
'ะแนน_'
'ะเจ_'
'ะสา'
'ะร'
'ะย_'
'ะมา'
'ะทำ'
'ะตา'
'ะฐ_'
'ะจ_'
'ะจ'
'ะกล_'
'ฮเ'
'ฮอล'
'ฮน_'
'อไห'
'อไร_'
'อไปเ'
'อไปของ'
'อใน_'
'อใ'
'อโท'
'อโค'
'อแล'
'อแมนด_'
'อแน_'
'อเหล_'
'อเลย'
'อเพล'
'อเธอไม_'
'อเธอเ'
'อำ'
'อาไว_'
'อาไป'
'อาโ'
'อาเธอร_'
'อาหาร_'
'อาห'
'อาบน_'
'อาจไ'
'อาจเ'
'อาจห'
'อาจต_'
'อาจจะทำ'
'อากาศ_'
'อะไรไป'
'อะไรใน'
'อะไรเปล_'
'อะไรเป_'
'อะไรอยาก'
'อะไรห'
'อะไรส'
'อะไรว'
'อะไรมา'
'อะไรจ'
'อะไรคะ_'
'อะเ'
'อะนะ_'
'อะน_'
'ออาจจะ'
'ออะไรน'
'ออะไรท_'
'ออกไปไ'
'ออกไปข_'
'ออกมาด_'
'ออกก'
'อสเ'
'อสาเหต_'
'อสอง_'
'อยแน_'
'อยเห'
'อยเร'
'อยเธอ'
'อยเจอก_'
'อยากเข_'
'อยากอ'
'อยากส_'
'อยากม'
'อยากจะทำ'
'อยากค_'
'อยากก'
'อยละก_'
'อยม'
'อยพ'
'อยจ'
'อยคอ'
'อยคน'
'อยกว_'
'อมได_'
'อมโยง'
'อมโ'
'อมาเ'
'อมาร_'
'อมส_'
'อมร'
'อมพ'
'อมด_'
'อมจะ'
'อภาพ'
'อพบ'
'อพ'
'อผมได_'
'อบแทน'
'อบส_'
'อบล'
'อบร'
'อบพ'
'อบน'
'อบตาย'
'อบกพร_'
'อนใ'
'อนแรง'
'อนเอ'
'อนเม_'
'อนเท_'
'อนะ_'
'อนอก'
'อนอ'
'อนหล_'
'อนหร'
'อนพ'
'อนนะ'
'อนทำ'
'อนตอน'
'อนซ'
'อนจะไ'
'อนจะเ'
'อนความ'
'อนคนอ_'
'อนคนท_'
'อนของเ'
'อนการ'
'อธ'
'อทำส_'
'อตาย'
'อตอนท_'
'อตร'
'อดส_'
'อดวง'
'อดต'
'อดของค'
'อดก'
'อชะ'
'อช'
'อจะไ'
'อจะให_'
'องไว_'
'องไปร'
'องไปทำ'
'องไปท_'
'องแบบ'
'องเห'
'องเม_'
'องเปล_'
'องเธอ_'
'องอะไรเ'
'องออกไปจาก'
'องออกไป'
'องห'
'องสาวฉ_'
'องสาวของฉ_'
'องว'
'องลง'
'องรถ'
'องยอมร_'
'องยก'
'องย'
'องมาท'
'องมา_'
'องพา'
'องพ'
'องผม'
'องปล'
'องนะ'
'องทำไ'
'องทำเ'
'องทำอะไร'
'องทำย_'
'องทำค'
'องทดลอง'
'องถาม'
'องถ'
'องตร'
'องด'
'องซะ'
'องของเรา_'
'องของฉ_'
'องของ_'
'องการไ'
'องการเป_'
'องการเช_'
'องการหล_'
'องการส'
'องการล'
'องการร_'
'องการร'
'องการป'
'องการบ'
'องการฉ_'
'องการจะเ'
'องการความ'
'องการคนท_'
'องการค'
'อคำข'
'อคา'
'อความส'
'อคว'
'อคล_'
'อขาย'
'อขา'
'อของเขา'
'อของนาย'
'อของข'
'อข'
'อกใช_'
'อกใ'
'อกาส'
'อกสาร'
'อกระ'
'อกตา'
'อกคน'
'อกค'
'ฬา'
'หาไ'
'หาแ'
'หายใจ_'
'หายเ'
'หาย_'
'หาทาง'
'หาต_'
'หาข_'
'หะ_'
'หลายอย_'
'หลา'
'หลวง'
'หลบหน_'
'หรอกน_'
'หมาก'
'หมา_'
'หม'
'หนไ'
'หนอ'
'หด'
'สเว'
'สเปนเซอร_'
'สเปน'
'สาเหต_'
'สายไป'
'สามารถใ'
'สามารถพ'
'สามารถทำอ'
'สามารถท_'
'สามารถช_'
'สามารถจ'
'สามค'
'สาบานได_'
'สาธารณะ'
'สะใ'
'สะอาด'
'สะส'
'สอบสวน'
'สอดคล_'
'สอด'
'สองเ'
'สองคนน_'
'สอ_'
'สส_'
'สวยงาม_'
'สวม'
'สวน'
'สละ'
'สมองเ'
'สมอ'
'สภา'
'สดใส'
'สดงให_'
'สงบ'
'สงคราม_'
'สค_'
'สข'
'สกายวอล_'
'สกาย'
'สกปรก'
'ษอ'
'ษยชาต_'
'ษก'
'ศรษฐก_'
'ศนา_'
'ศน'
'ศตวรรษ'
'ศก'
'วๆเข_'
'วไว_'
'วไปไ'
'วไปท_'
'วใหญ_'
'วโมงแ'
'วโมงท_'
'วและ'
'วเองแ'
'วเองว_'
'วเองท_'
'วเองต_'
'วเอ'
'วเห'
'วเลย'
'วเราะเยาะ'
'วเขาก_'
'วามส_'
'วามร_'
'วามต'
'วามค_'
'วางใจ'
'วางแผน'
'วางห'
'วางยา'
'วางม_'
'วอเ'
'วอะไร_'
'วหม'
'ววว'
'วยใน'
'วยโ'
'วยแก'
'วยเหม_'
'วยเรา_'
'วยเธอไ'
'วยเธอ_'
'วยเธอ'
'วยเจ_'
'วยเค'
'วยอะไร_'
'วยอย_'
'วยอ'
'วยหล_'
'วยหร'
'วยล'
'วยย'
'วยพ_'
'วยผ_'
'วยบ'
'วยท'
'วยต'
'วยความย_'
'วยคน'
'วยของ'
'วมค_'
'วฟ'
'วผมก_'
'วผม_'
'วบ_'
'วบ'
'วนเลย_'
'วนเด'
'วนำ'
'วนายเ'
'วนาน'
'วนา'
'วนร_'
'วนมาก'
'วทำ'
'วทย_'
'วทมนตร_'
'วตา'
'วตนของ'
'วดห_'
'วดล_'
'วช'
'วจะเ'
'วงส'
'วงว_'
'วคว'
'วคราว'
'วข'
'วกา'
'วกระ'
'ลแล_'
'ลแล'
'ลแมน_'
'ลเว'
'ลเพ_'
'ลเด_'
'ลำไส_'
'ลายช_'
'ลาม'
'ลางว_'
'ลางด_'
'ละคร'
'ละคน_'
'ลอย_'
'ลอย'
'ลอต'
'ลอด_'
'ลองเ'
'ลยแ'
'ลยล_'
'ลยค_'
'ลมอ'
'ลซ_'
'ลงมา_'
'ลงมา'
'รไ'
'รโ'
'ราไ'
'ราะห'
'ราอ'
'ราย_'
'ราย'
'รามา'
'ราบเ'
'ราก_'
'ระเ'
'ระห'
'ระบาย'
'รอแ'
'รอะ_'
'รอว'
'รอยส_'
'รอม_'
'รอท_'
'รอก'
'รสชาต_'
'รวย'
'รวมก_'
'รว'
'รล'
'รรยา'
'รภาพ'
'รภ_'
'รปภ_'
'รบกวน_'
'รนเ'
'รท_'
'รถแ'
'รถส'
'รถบรรท_'
'รถค'
'รถของ'
'รต_'
'รต'
'รงก_'
'รคจ_'
'รข'
'ยไม_'
'ยไปเ'
'ยใจนะ_'
'ยเลย'
'ยเธอ'
'ยาเ'
'ยาล'
'ยามค'
'ยาบา'
'ยออก'
'ยอร_'
'ยอม_'
'ยอง_'
'ยสละ_'
'ยสต_'
'ยวได_'
'ยวใน'
'ยวเล'
'ยวเท_'
'ยวเด'
'ยวห'
'ยวส'
'ยวพ'
'ยวบ_'
'ยละ'
'ยมเลย_'
'ยมา'
'ยภาพ'
'ยบไ'
'ยบเท_'
'ยนไว_'
'ยนใจ_'
'ยนแล'
'ยนแปลง_'
'ยนแบบ'
'ยนเห'
'ยนเลย'
'ยนอะไร'
'ยนศ_'
'ยนด'
'ยนจดหมาย'
'ยนค_'
'ยนก_'
'ยธ'
'ยตา'
'ยดเ'
'ยดาย'
'ยดข'
'ยชนะ'
'ยจาก'
'ยงแล'
'ยงเขา'
'ยงเก_'
'ยงห_'
'ยงร'
'ยงพอ'
'ยงนะ_'
'ยงด'
'ยงจ'
'ยข_'
'ยกเขา'
'ยกล_'
'ยกรถ'
'มๆ'
'มไปหมด_'
'มไป'
'มใหม_'
'มใ'
'มและ'
'มแร'
'มแม_'
'มเหลว_'
'มเหรอ_'
'มเส_'
'มเล_'
'มเบ'
'มเท_'
'มาไ'
'มาโ'
'มาอ_'
'มารถ'
'มาร'
'มายเลข'
'มาม_'
'มาปร'
'มาบอก'
'มาบ_'
'มานาน_'
'มาตลอดช_'
'มาตลอด_'
'มาคร_'
'มาข'
'มากๆ_'
'มากแล'
'มากว_'
'มากมาย_'
'มากมาย'
'มากน_'
'มอะไร'
'มองไม_'
'มองต'
'มหล_'
'มหล'
'มหร_'
'มศพ'
'มย_'
'มมอนส_'
'มภา'
'มฝ_'
'มป'
'มตร'
'มดำ'
'มชน'
'มช_'
'มจ'
'มคร_'
'มคนน_'
'มกาแฟ'
'ภารก_'
'ภาพแ'
'ภาพเ'
'ภาพของ'
'ฟเฟ_'
'ฟอง'
'ฟส'
'ฟรานซ_'
'ฟรอ'
'ฟร'
'พแ'
'พาไป'
'พาแ'
'พาล_'
'พาย'
'พาน'
'พาต_'
'พากษา'
'พออ'
'พอส'
'พอท_'
'พอค'
'พวกแ'
'พวกเราไป'
'พวกเราได_'
'พวกเราแ'
'พวกเราร_'
'พวกเราค_'
'พวกเธอ_'
'พวกเขาโ'
'พวกเขาว'
'พวกเขามา'
'พวกเขาพ_'
'พวกล_'
'พวกผ_'
'พวกช'
'พวกข'
'พลา'
'พลง_'
'พฤต_'
'พระเยซ_'
'พระราชา'
'พยายามเ'
'พบอ'
'ผสม'
'ผลใ'
'ผลอะไร'
'ผลว_'
'ผลประโยชน_'
'ผลของ'
'ผลกระทบ'
'ผมเอา'
'ผมเห'
'ผมเปล_'
'ผมเคยเ'
'ผมอาจจะ'
'ผมอยากร_'
'ผมสาบาน'
'ผมสงส_'
'ผมส'
'ผมมาท_'
'ผมมาก'
'ผมพา'
'ผมบอกว_'
'ผมน'
'ผมท_'
'ผมตร'
'ผมซ_'
'ผมชอบเ'
'ผมจำเป_'
'ผมจะอ'
'ผมจะหา'
'ผมจะร_'
'ผมจะข'
'ผมจะก'
'ผมจ'
'ผมควรจะ'
'ผมขอค_'
'ผช_'
'ปได_'
'ปใน'
'ปเลย'
'ปากเ'
'ปากกา'
'ปา_'
'ปะต_'
'ปะ'
'ปลว'
'ปลด'
'ปลง'
'ปรากฏ'
'ประเม_'
'ประเทศ_'
'ประหลาดใจ'
'ประสบการณ_'
'ประธาน'
'ประก_'
'ปพ'
'ปธน_'
'บๆ'
'บไอ_'
'บไห'
'บไปได_'
'บไปย_'
'บไปทำ'
'บใบ'
'บใจจร_'
'บใ'
'บโรค'
'บโป'
'บแวมไพร_'
'บแบ'
'บแจ_'
'บเหล_'
'บเส_'
'บเวลา'
'บเลย_'
'บเราเ'
'บเน'
'บเธอไ'
'บเธอมา'
'บเด'
'บเค'
'บเขาเ'
'บำบ_'
'บาล'
'บาท_'
'บางเ'
'บางคนท_'
'บอาหาร'
'บออก'
'บอส'
'บอกแ'
'บอกเพ_'
'บอกเธอ_'
'บอกเขา'
'บอกอะไร'
'บอกลา'
'บอกพ_'
'บหม'
'บห'
'บศ_'
'บระบบ'
'บระด_'
'บรถไป'
'บรถ_'
'บร'
'บมาอย_'
'บมาหา'
'บมาบ_'
'บมาน_'
'บมน_'
'บพวกน'
'บพล'
'บพร'
'บผมใช_'
'บผมม'
'บผมนะ'
'บบา'
'บนโลก'
'บนห'
'บนผ'
'บนกระ'
'บทำ'
'บตำรวจ'
'บชา'
'บช'
'บจร_'
'บจ'
'บความล_'
'บความจร_'
'บการแ'
'บการส_'
'บการพ_'
'บการบ'
'บการต'
'บการก'
'บกา'
'นไส_'
'นไว'
'นไรเ'
'นไรจ_'
'นไปใน'
'นไปเห'
'นไปล_'
'นไปร_'
'นไปทำ'
'นไปถ_'
'นไปต'
'นไปซ'
'นไงม_'
'นใส_'
'นในห'
'นในส_'
'นในน_'
'นในต'
'นในช_'
'นใจไ'
'นโอเค'
'นโอกาส'
'นโล'
'นโรง'
'นโปร'
'นโทร'
'นโด_'
'นโช'
'นแฮ'
'นแหละท_'
'นแสน'
'นแท'
'นแค'
'นแข'
'นแก'
'นเอาเ'
'นเหรอค'
'นเวลา_'
'นเลวร_'
'นเลยไ'
'นเลยเ'
'นเลยห'
'นเลยว_'
'นเยอะ'
'นเพลง'
'นเพราะว_'
'นเบาะแส'
'นเธ'
'นเถ'
'นเดาว_'
'นเดา'
'นเซอร_'
'นเซ_'
'นเซ'
'นเชสเตอร_'
'นเฉย'
'นเคยได_'
'นเคยเ'
'นเคยอย_'
'นเคยม_'
'นเขาม'
'นเกย_'
'นเกมส_'
'นำเขา'
'นาเ'
'นายใช_'
'นายโอเค'
'นายมาก'
'นายพล'
'นายทำเ'
'นายทำอะไร'
'นายท_'
'นายด_'
'นายจะห'
'นายจ'
'นายขอ'
'นานพอ'
'นาดน_'
'นาง_'
'นะเหรอ_'
'นะท_'
'นอาหาร_'
'นอาว_'
'นอาช'
'นอาจไม_'
'นอะไรไหม'
'นอะไรหรอ_'
'นออกไป'
'นออกมาจาก'
'นอยากเ'
'นอยากจะเ'
'นอนไม_'
'นอนอย_'
'นอนส_'
'นอนต'
'นอธ_'
'นอกจากเ'
'นอกจากน_'
'นหายไป_'
'นหมอ_'
'นหมดแ'
'นหมด'
'นหม_'
'นสาร'
'นสาม'
'นสาบาน'
'นสมควร'
'นสม'
'นสน'
'นสถานท_'
'นสต_'
'นศาล'
'นลำ'
'นละ'
'นลงไป'
'นรำ'
'นรา'
'นรอย'
'นรอบ'
'นร'
'นยนต_'
'นย'
'นมาเพ_'
'นมาอ'
'นมาล'
'นมาร_'
'นมานาน'
'นมานะ_'
'นมาถ_'
'นมาค'
'นภา'
'นพวก_'
'นพระเจ_'
'นพยายามท_'
'นฝาก'
'นผมม_'
'นผมจะ'
'นผมก_'
'นผม_'
'นปาร_'
'นปลา'
'นปกต_'
'นบอกแ'
'นบอกนาย'
'นนานมา'
'นนอน'
'นนก'
'นทำไ'
'นทำร_'
'นทางไป'
'นทางท_'
'นทางต'
'นทะเล'
'นทร'
'นทนาย'
'นทนา'
'นตำรวจ'
'นตรงก_'
'นดอ'
'นดร'
'นซา'
'นชนะ'
'นฉ'
'นจะไปเ'
'นจะเส'
'นจะอย_'
'นจะหา'
'นจะลอง'
'นจะลง'
'นจะรอ'
'นจะมา'
'นจะบ_'
'นจะจ_'
'นจะจ'
'นจะค_'
'นจะขอ'
'นงานของ'
'นคำส_'
'นคา'
'นความร_'
'นความจร_'
'นควรจะไ'
'นคว_'
'นครบ'
'นคนเลว'
'นคนอ_'
'นคนอ'
'นคนส_'
'นคนร'
'นคนม_'
'นคนป'
'นคนต_'
'นคงทำ'
'นขโมย'
'นขาย'
'นขอให_'
'นขอโทษนะ'
'นขอโทษจร_'
'นขอเวลา'
'นของเขา_'
'นของพ'
'นของท_'
'นของค'
'นขน'
'นข'
'นกเ'
'นการผ'
'นการข_'
'นการ_'
'นกระท_'
'ธเ'
'ธาน_'
'ธาต_'
'ธอไม_'
'ธอไ'
'ธอใ'
'ธอห'
'ธอมา'
'ธอน_'
'ธอต_'
'ธอด_'
'ธอจะ'
'ธอก_'
'ธรรมดา'
'ธท_'
'ทแมน_'
'ทเร'
'ทเธ'
'ทเท'
'ทเต'
'ทำไมแม_'
'ทำไมม_'
'ทำไมพวกเขา'
'ทำไมพ_'
'ทำไมพ'
'ทำไมผม'
'ทำไมนา'
'ทำใม'
'ทำเหม_'
'ทำเร_'
'ทำเน_'
'ทำอะไรน_'
'ทำหน_'
'ทำผ_'
'ทำน'
'ทำท_'
'ทำตามท_'
'ทำตาม'
'ทำจาก'
'ทำงานใ'
'ทำงานอ'
'ทำงานด_'
'ทำงานของ'
'ทานอ'
'ทางไหน'
'ทางเหน_'
'ทางอ_'
'ทางห'
'ทางว_'
'ทางข'
'ทางการ'
'ทอย_'
'ทอมม_'
'ทส'
'ทล_'
'ทรไป'
'ทรเ'
'ทราบว_'
'ทรอย_'
'ทรหา'
'ทรมาน'
'ทรงจำ'
'ทยาน'
'ทยา'
'ทม_'
'ทดสอบ_'
'ทดสอบ'
'ทดลอง'
'ทช_'
'ถเ'
'ถามว_'
'ถาบ_'
'ถานการณ_'
'ถอะ'
'ถอนหายใจ_'
'ถอดร'
'ตไป'
'ตโนม_'
'ตแลนด_'
'ตแล_'
'ตเร_'
'ตเพ'
'ตเน_'
'ตเธอ'
'ตเธ'
'ตเขา'
'ตำรวจไ'
'ตำรวจส'
'ตำนาน'
'ตาเธอ'
'ตาส'
'ตายไ'
'ตายห'
'ตายซะ'
'ตายก_'
'ตามใจ'
'ตามส'
'ตามฉ_'
'ตาน_'
'ตอนเก_'
'ตอนค_'
'ตหน_'
'ตลอดเลย_'
'ตลอดเ'
'ตรแ'
'ตราบใดท_'
'ตรอ'
'ตรวจเ'
'ตรจ'
'ตรงไหน_'
'ตรงไหน'
'ตรของ'
'ตมาก'
'ตพ'
'ตผม'
'ตป'
'ตบ_'
'ตนาย'
'ตจาก'
'ตของผม'
'ตกอย_'
'ตกลงก_'
'ดไหม_'
'ดไหม'
'ดใส_'
'ดในโลก_'
'ดในโลก'
'ดในช_'
'ดใจ_'
'ดแหง_'
'ดและ'
'ดแล'
'ดแร'
'ดแม'
'ดแผน'
'ดแน_'
'ดเหรอ'
'ดเห_'
'ดเวลา'
'ดเผย'
'ดเบ_'
'ดเถอะ_'
'ดเต'
'ดเจ'
'ดเคร_'
'ดเก'
'ดาษ'
'ดาบ'
'ดฮ_'
'ดอาร_'
'ดอากาศ'
'ดอะไรบ'
'ดออก_'
'ดอลล_'
'ดอนน_'
'ดอง'
'ดหรอ'
'ดหร_'
'ดหง_'
'ดสาย'
'ดศ_'
'ดล'
'ดระ'
'ดรอยด_'
'ดมาก'
'ดภา'
'ดภ_'
'ดปาก'
'ดประสงค_'
'ดประ'
'ดบ'
'ดนอ'
'ดทำ'
'ดทอ'
'ดตามข'
'ดตา'
'ดตอน'
'ดดเ'
'ดซบ_'
'ดชนวน'
'ดฉาก'
'ดจำ'
'ดคด_'
'ดของพ'
'ดข'
'ดกำล_'
'ดการพ'
'ดการท'
'ดกล_'
'ณไปเ'
'ณไปพ'
'ณไง_'
'ณโอเคม_'
'ณโอเค'
'ณโดน'
'ณโกหก'
'ณเส_'
'ณเส'
'ณเลย'
'ณเม'
'ณเต_'
'ณเจอ'
'ณอยากทำ'
'ณอ'
'ณหล'
'ณสมบ_'
'ณสม'
'ณวา'
'ณร'
'ณมาเ'
'ณมาทำ'
'ณมากท_'
'ณมา_'
'ณพยายาม'
'ณฝ_'
'ณป'
'ณบอกผม'
'ณทำอย_'
'ณทำงาน'
'ณจำ'
'ณจะไปไหน_'
'ณจะใ'
'ณจะโ'
'ณจะเข_'
'ณจะย'
'ณจะมา_'
'ณจะม_'
'ณจะค_'
'ณคะ_'
'ณควรไป'
'ณควรจะทำ'
'ณคงต_'
'ฑ'
'ฐn'
'ฎหมาย'
'ญแจ_'
'ญาณ'
'ญหาเห'
'ญหาท'
'ญหาค_'
'ญญาอ_'
'ญญานะ_'
'ญญาน'
'ญญาณอ'
'ญจาก'
'ญคร_'
'ซาราห_'
'ซานต_'
'ซา_'
'ซะนะ_'
'ซอล_'
'ซร_'
'ซม'
'ซน'
'ซง'
'ชำระ'
'ชายใน'
'ชายคนหน_'
'ชายของฉ_'
'ชายของ'
'ชาก'
'ชะม_'
'ชอบอ'
'ชอบข_'
'ชอน'
'ชว'
'ชร_'
'ชร'
'ชนแ'
'ชนเ'
'ชด'
'ชก'
'ฉะน_'
'ฉลองก_'
'ฉล_'
'ฉยๆ'
'ฉพาะ'
'จใส_'
'จแ'
'จำไม_'
'จำนวน'
'จำท_'
'จาะ'
'จาร_'
'จากไป'
'จากโรง'
'จากเคร'
'จากเขา_'
'จากห'
'จากป'
'จากฉ_'
'จากก'
'จะไปไหน'
'จะไปได_'
'จะไปแ'
'จะไปท_'
'จะใ'
'จะออกไป'
'จะสามารถ'
'จะมาท'
'จะพบ'
'จะพ'
'จะปลอดภ_'
'จะบอกให_'
'จะบอกว_'
'จะน'
'จะท_'
'จะถาม'
'จะข'
'จะกลายเป_'
'จอเธอ'
'จอเขา'
'จอย_'
'จอช_'
'จล'
'จมต_'
'จพ_'
'จบแล_'
'จนแ'
'จนส'
'จฉา'
'จงร_'
'งๆเ'
'งไหม_'
'งไปเลย_'
'งไปหา'
'งไปห'
'งไงเหรอ'
'งไงซะ_'
'งไงฉ_'
'งใบ'
'งในพวก'
'งในก'
'งใด'
'งใจเ'
'งใจทำ'
'งโลก'
'งโท'
'งโด'
'งแห_'
'งแย_'
'งแพ'
'งแบก'
'งแตก'
'งเหย_'
'งเวลา_'
'งเม'
'งเพ'
'งเบ'
'งเธอไ'
'งเจ'
'งเค'
'งเขาไ'
'งเกง'
'งำ'
'งานใน'
'งานแต_'
'งานแ'
'งานเห'
'งานว_'
'งา'
'งหาย'
'งหาทาง'
'งหว'
'งหรณ_'
'งหมดใช_'
'งหมดของ'
'งหม'
'งสำหร_'
'งสาย'
'งสองอย_'
'งสร_'
'งสน_'
'งสต_'
'งศ_'
'งวลเก_'
'งละ'
'งล'
'งระเบ_'
'งรอเ'
'งรอ_'
'งรว'
'งมาให_'
'งมาถ_'
'งมาจาก'
'งมองหา_'
'งม'
'งพวกม_'
'งพวกน_'
'งพล_'
'งพยายาม'
'งผมนะ_'
'งผมก_'
'งปลอ'
'งประเ'
'งบน'
'งนะคะ_'
'งทำ_'
'งตำ'
'งตายไ'
'งตรง'
'งต'
'งซะ_'
'งจำ'
'งจะแต_'
'งจะออก'
'งจะห'
'งจะร_'
'งจะบอก'
'งจะทำให_'
'งจะ_'
'งงานเ'
'งงานของ'
'งฆ_'
'งฆ'
'งคำถาม'
'งคา'
'งคะ_'
'งคอ'
'งความส_'
'งครอบคร_'
'งคมท_'
'งคงเ'
'งคงม_'
'งของเธอ'
'งของพวกเ'
'งของบ'
'งขยะ'
'งกำล_'
'งกา'
'งกล'
'ฆาตรกรรม'
'ฆาตกร_'
'ฆษณา'
'ฆ'
'คไม_'
'คโ'
'คแล'
'คแมน'
'คเหรอ_'
'คเตอร_'
'คำเ'
'คำน_'
'คาส'
'คาดไ'
'คาด'
'คะแนน'
'คอล'
'คอยด_'
'คอย_'
'คอ_'
'ความโ'
'ความอ'
'ความหมาย_'
'ความสำค_'
'ความสามารถ_'
'ความส'
'ความย'
'ความพยายาม'
'ความปลอดภ_'
'ความปรารถนา'
'ความก'
'ความ_'
'ควรท'
'ควรจะเป_'
'คลา'
'ครเล_'
'คราะห_'
'ครอบ'
'คม_'
'คนไป'
'คนไ'
'คนใ'
'คนแรก'
'คนเหล_'
'คนเล'
'คนเร'
'คนหาย'
'คนส_'
'คนละ'
'คนร'
'คนม_'
'คนบอก'
'คนจะ'
'คนของเ'
'คตร'
'คงเป_'
'คงส'
'คงง_'
'คงก'
'คง_'
'คคลท_'
'คค_'
'ฃเน_'
'ขใน'
'ขำ'
'ขาไ'
'ขาน'
'ขาด_'
'ขอโทษนะคร_'
'ขอล'
'ขอบใจ'
'ขอทางหน_'
'ของแก'
'ของเราม'
'ของเม_'
'ของเธออ'
'ของเด'
'ของย'
'ของมา'
'ของพระ'
'ของประ'
'ของป_'
'ของซ_'
'ของชา'
'ของความเ'
'ขส'
'ขยาย'
'ขมาก'
'ขม_'
'ขนมป_'
'ขค'
'กๆเ'
'กๆว_'
'กๆของ'
'กในเ'
'กใจ'
'กใ'
'กโค'
'กแสดง'
'กแร'
'กแต_'
'กเอง_'
'กเรา'
'กเผา'
'กเปล_'
'กเท'
'กเก'
'กำไร'
'กาเ'
'กาศ_'
'กาล'
'การไป'
'การแพ'
'การแต_'
'การเร_'
'การเป_'
'การเข_'
'การส'
'การม'
'การฝ_'
'การผ'
'การปล_'
'การประ'
'การทดลอง'
'การจ'
'การฆ_'
'การค'
'การขา'
'การข_'
'การกระทำ'
'กาก'
'กะ_'
'กอะไรเ'
'กอส'
'กอยากจะ'
'กหลายอ'
'กหล'
'กหนา'
'กหกเ'
'กสำ'
'กสาวคน'
'กสาวค_'
'กสองสาม'
'กษาไ'
'กษาม'
'กษาค'
'กลเ'
'กลาง_'
'กลอ'
'กระโปรง'
'กระเ'
'กรอ'
'กรด'
'กรง'
'กรของ'
'กมาเ'
'กภา'
'กพวกเขา'
'กพวกน_'
'กพร'
'กผม_'
'กผม'
'กบา'
'กนาท_'
'กธน_'
'กธ'
'กทาย'
'กทร'
'กฏหมาย'
'กฏ'
'กชายเ'
'กชายของ'
'กงานใ'
'กงานก'
'กงาน_'
'กความ'
'กคล_'
'กคนเห'
'กคนเด_'
'กคนค'
'กคนก'
'กขา'
'กของเธอ_'
'กของเขา_'
'กขอ'
'กกำ'
'กกา'
'ţ'
'í'
'è'
'ã_'
'· _'
'¶¶ _'
'¡'
'zy_'
'zombie_'
'zer_'
'ze'
'ypt'
'yp'
'younger_'
'york_'
'yg'
'yellow_'
'yelled_'
'ych'
'yards_'
'xim'
'written_'
'writer_'
'wr'
'wounds_'
'worthy_'
'workin_'
'witnesses_'
'wished_'
'winner_'
'wind'
'wild'
'wide_'
'whore_'
'whisper'
'whining_'
'where'
'wh'
'were'
'web'
'wav'
'watches_'
'was'
'warm'
'ware_'
'ward_'
'wang_'
'wallet_'
'waited_'
'wa_'
'vous_'
'voca'
'vity_'
'visitors_'
'visit'
'vision_'
'vis'
'virtue_'
'virgin'
'viol'
'village_'
'villa'
'vil'
'vet_'
'vering_'
'velo'
'vel_'
'vehicle_'
'vat'
'various_'
'vari'
'vanish'
'val_'
'uty_'
'uti'
'uth'
'ute_'
'ute'
'usi'
'usa'
'uri'
'urgent_'
'urge'
'ures_'
'ure'
'upload'
'unw'
'unlock'
'unite'
'unfo'
'unfair_'
'unexpected_'
'underground_'
'uncomfortable_'
'uncle_'
'unce'
'unb'
'ully_'
'uit'
'ui'
'ught_'
'ued_'
'ue'
'ud_'
'tz_'
'twins_'
'twi'
'twenty_'
'twelve_'
'tuck'
'trop'
'travelling_'
'trauma_'
'traitors_'
'trait'
'trag'
'trace'
'tr'
'tow'
'tour_'
'torture_'
'tors_'
'topic_'
'tooth'
'tool'
'too'
'toni'
'tone_'
'ton'
'tol'
'toast_'
'toa'
'tne'
'tm'
'tle'
'tip'
'tin_'
'time'
'tight'
'tie_'
'tically_'
'thะต_'
'thumb_'
'ths_'
'thrill'
'threes'
'thre'
'thou'
'thin'
'thieves_'
'thick_'
'thi'
'therm'
'therapist_'
'ther'
'themselves_'
'thee_'
'terrorists_'
'tent'
'tens'
'tender'
'tend'
'temporary_'
'tem'
'tell'
'telep'
'tele'
'teenager_'
'tear_'
'teaching_'
'teach'
'tea'
'tch'
'tari'
'tar_'
'tank_'
'tan_'
'talkin_'
'talent_'
'tale_'
'tails_'
'tage_'
'symbol'
'sy'
'swor'
'swi'
'sweat_'
'sweat'
'sus'
'survived_'
'surge'
'superior'
'summ'
'sum_'
'suke_'
'suggest'
'sue_'
'succeed'
'subt'
'subm'
'subject'
'style_'
'stunt'
'stuff'
'studying_'
'studies_'
'struggle'
'structur'
'struc'
'strippe'
'strike_'
'stress_'
'streets_'
'store'
'stone_'
'stock_'
'stepp'
'stee'
'stayed_'
'status_'
'statu'
'stations_'
'static_'
'stash'
'starv'
'stand'
'stamp'
'stair'
'stac'
'stab_'
'st'
'ssy_'
'ssor'
'ssing_'
'squir'
'sprin'
'spr'
'sports_'
'spon'
'spinning_'
'sph'
'speciali'
'spaces'
'sp'
'soup_'
'souls_'
'solving_'
'solve_'
'solid_'
'soldier_'
'soft_'
'soda_'
'sod'
'societ'
'soc'
'sober_'
'soap_'
'snor'
'sno'
'sneak_'
'sne'
'snakes_'
'snake_'
'smooth_'
'smoking_'
'smile'
'smells_'
'sm'
'slut'
'slo'
'slightly_'
'sle'
'slave'
'slaughter_'
'ski_'
'sition_'
'sist'
'sion'
'sins_'
'sink_'
'sin_'
'similar_'
'silen'
'sign'
'sie'
'sidewalk_'
'sides_'
'si_'
'shrink_'
'shower_'
'shortly_'
'shir'
'ships_'
'shine_'
'sher'
'sharp_'
'sharing_'
'share'
'shar'
'shaking_'
'shadow_'
'several_'
'settled_'
'set'
'serial_'
'separate_'
'sentence'
'sensi'
'sel'
'seek_'
'sed'
'seats_'
'searching_'
'searched_'
'screwing_'
'screwed_'
'screen_'
'scor'
'scientist'
'scientific_'
'sci'
'saving_'
'savi'
'sat'
'samples_'
'sam_'
'salmon_'
'sail'
'safer_'
'sacrifice'
'sack_'
'rumbl'
'ruf'
'rted_'
'rt'
'rse_'
'rro'
'rre'
'royal_'
'row'
'round'
'rot'
'ror'
'rop'
'roommate_'
'roo'
'roll_'
'role_'
'roi'
'roger_'
'robber'
'roads_'
'roa'
'rl'
'rk_'
'rist_'
'rison'
'rip_'
'rin_'
'rim'
'rifle'
'rifi'
'ried_'
'rie'
'rid'
'rican'
'rib'
'ri_'
'rew'
'reuni'
'result'
'repr'
'reporters_'
'replaced_'
'rent_'
'rence_'
'ren_'
'remove_'
'remo'
'reminds_'
'remember'
'relief_'
'reli'
'relations_'
'register_'
'region_'
'refuse'
'refresh'
'refer'
'redhead'
'red'
'recovered_'
'recipe_'
'rebel'
'reb'
'reali'
'reached_'
'rcis'
'rational'
'rati'
'rat'
'rar'
'raped_'
'ramp'
'raising_'
'raid_'
'rag'
'radi'
'rad'
'rac'
'rabbit_'
'quitt'
'quently_'
'puts_'
'pus'
'purp'
'pure'
'pupp'
'punishment_'
'punched_'
'punch'
'publish'
'psycho_'
'psycho'
'psychic_'
'pse'
'ps'
'prov'
'protocol_'
'protection_'
'prote'
'prospect_'
'propos'
'properly_'
'promotion_'
'promote'
'prom_'
'projection'
'project_'
'professor_'
'produce'
'procedure_'
'proc'
'priorit'
'princess_'
'prince'
'prin'
'pretended_'
'present'
'prem'
'precise_'
'prec'
'prayers_'
'practic'
'pper_'
'pped_'
'pou'
'pota'
'positions_'
'population_'
'pop'
'pons'
'poll'
'policeman_'
'polic'
'plo'
'plays_'
'plates_'
'plan'
'plac'
'pity_'
'pis'
'pilot_'
'pile_'
'pig'
'pie_'
'physician_'
'photograph'
'persua'
'personality_'
'pers'
'perp'
'peri'
'performance_'
'perform'
'percent_'
'penny_'
'pee'
'peanut_'
'payment_'
'patients_'
'paths_'
'parties_'
'particularly_'
'particular_'
'partic'
'parti'
'parole_'
'pari'
'panting_'
'panc'
'pages_'
'packing_'
'oy_'
'oxygen_'
'owe'
'ow'
'overr'
'overnight_'
'outta_'
'outer_'
'our'
'oun'
'ou_'
'otte_'
'ott_'
'oti'
'ose'
'ories_'
'organism'
'ore'
'ordina'
'orc'
'opposite_'
'oper'
'oo'
'oner'
'oma'
'older_'
'ola'
'ol_'
'oint'
'ogre_'
'ogi'
'offs'
'official_'
'offense_'
'odo'
'occur'
'obvious_'
'obse'
'obliged_'
'obi_'
'oa'
'nut_'
'nsi'
'nse'
'nothin'
'noodles_'
'noble_'
'nks_'
'nk'
'nightmare_'
'night'
'nicer_'
'ni_'
'nger_'
'never'
'neighbors_'
'negotiate_'
'nearly_'
'nds_'
'nding_'
'nded_'
'nda_'
'nci'
'nch'
'nasty_'
'nam_'
'nal_'
'nai'
'mะ'
'myth'
'mystery_'
'must'
'mus'
'mun'
'mpt'
'mper'
'moves_'
'mount'
'mou'
'mos'
'mole'
'mol'
'mn'
'mmer'
'mm'
'mixed_'
'mit_'
'misunderstanding_'
'minded_'
'mina'
'min_'
'million'
'mill'
'mike'
'mig'
'midnight_'
'methods_'
'meth'
'met'
'messages_'
'mes'
'merit_'
'merger_'
'mere'
'mem'
'mel'
'mature_'
'mates_'
'mate'
'mast'
'mass'
'mari'
'marc'
'manual_'
'mani'
'make'
'maintain_'
'lะ'
'lud'
'lp'
'loyalty_'
'loy'
'loss_'
'lor'
'look'
'loo'
'lobby_'
'loaded_'
'lo_'
'lm'
'lling_'
'lis'
'lion_'
'lingeri'
'lines_'
'lil'
'like'
'light'
'lig'
'liberty_'
'lia_'
'lf_'
'lex'
'ler'
'learn'
'lead'
'lb'
'lay'
'launch_'
'laun'
'late'
'lands_'
'lade'
'knight_'
'kl'
'kitt'
'kissed_'
'kingdom_'
'kilometers_'
'kie_'
'kidney_'
'kers_'
'katherine_'
'kar'
'kan'
'judg'
'juan'
'joking_'
'joined_'
'jobs_'
'jo_'
'jaw'
'jar_'
'jammed_'
'jae_'
'iy'
'itt'
'ito'
'ister'
'istan'
'issues_'
'ison_'
'island_'
'irre'
'ipa'
'ious_'
'ior_'
'ione'
'ional'
'ion'
'invisib'
'invent'
'introduce_'
'introduc'
'interv'
'internal_'
'interfer'
'intention'
'inte'
'insu'
'instan'
'inst'
'inse'
'inqui'
'injur'
'inject'
'infect'
'iness'
'independen'
'increase_'
'incon'
'inco'
'include'
'inch_'
'inal_'
'impro'
'impos'
'imper'
'impact_'
'imag'
'im'
'illness_'
'ili'
'ile'
'igne'
'ign'
'ight'
'igen'
'iga'
'iew'
'ient_'
'ident'
'ico'
'ich'
'ica'
'ian'
'iage'
'hyu'
'hyp'
'hydra'
'hyd'
'hunter_'
'hug_'
'hte'
'hot'
'horses_'
'horizon'
'hopeless_'
'hoop'
'honored_'
'honor'
'hone_'
'holding_'
'hold'
'hoi_'
'hiro_'
'higher_'
'hic'
'het'
'hers_'
'hel'
'heat_'
'hearts_'
'heal'
'haun'
'hated_'
'hatch_'
'has'
'happier_'
'hair'
'hai'
'hack_'
'habit'
'gut'
'gur'
'gun'
'gum_'
'guide_'
'guidance_'
'gui'
'guessing_'
'guardi'
'gu'
'grow'
'gratitude_'
'gram'
'grace_'
'grabbed_'
'got'
'gorgeous_'
'goods_'
'god'
'goa'
'gni'
'glow'
'gle_'
'glasses_'
'gious_'
'gin'
'gha'
'ggy_'
'gging_'
'gge'
'get'
'gesture_'
'ges_'
'gentleman_'
'gentle_'
'generat'
'gel'
'gear_'
'gau'
'gather_'
'gather'
'gate'
'gasps_'
'garage_'
'gam'
'gag'
'fy_'
'funds_'
'fun'
'freaking_'
'freak'
'franc'
'fract'
'fr'
'fourth_'
'fortune_'
'formula_'
'forma'
'form'
'forg'
'forensics_'
'footage_'
'foot'
'fond'
'focus_'
'float_'
'fli'
'flesh_'
'fles'
'fixed_'
'fitting_'
'fits_'
'fis'
'firm_'
'fing'
'filed_'
'fifth_'
'fica'
'ffi'
'ffe'
'festival_'
'fes'
'fer_'
'fer'
'fella_'
'feat'
'feared_'
'fascinating_'
'farm'
'fantastic_'
'fancy_'
'fairy_'
'faced_'
'fac'
'extra'
'expos'
'explain'
'exist'
'exercise_'
'executed_'
'exc'
'eventually_'
'etic'
'estimate'
'este'
'essi'
'essa'
'esp'
'ese_'
'erte'
'ering_'
'eri'
'erat'
'equa'
'ept'
'epi'
'ep'
'ento'
'enta'
'enr'
'enhance'
'engag'
'ener'
'ending_'
'endi'
'end'
'emy_'
'employe'
'emi'
'email'
'em'
'els'
'ellie_'
'elli_'
'ella_'
'elephant'
'element_'
'eld'
'elan'
'el'
'ek'
'eid'
'ei'
'eh'
'eff'
'ees_'
'een_'
'edy_'
'edi'
'edge_'
'ection_'
'ected'
'eco'
'east_'
'eager_'
'eac'
'ea_'
'dust_'
'dur'
'dumping_'
'dummy_'
'dum'
'duck'
'drown'
'drops_'
'droid_'
'dressed_'
'dread'
'draw'
'drank_'
'drain'
'drag'
'downtown_'
'dow'
'doom'
'dong'
'dom_'
'dolphin'
'doll'
'dm'
'dle_'
'divorced_'
'diver'
'dition'
'ditch'
'distracted_'
'distance_'
'dist'
'dish_'
'dise'
'discussi'
'discre'
'disappoint_'
'disapp'
'dirt'
'direction'
'directed_'
'dip'
'dimension'
'digit'
'dig_'
'diamonds_'
'di_'
'dh'
'dge'
'determined_'
'determine'
'designed_'
'deserve'
'deri'
'dera'
'der'
'deposit_'
'depo'
'depends_'
'den_'
'demand'
'declare'
'deck'
'deceiv'
'deb'
'dd'
'daylight_'
'dau'
'dan_'
'dam_'
'daily_'
'dagger_'
'customers_'
'custom'
'curse_'
'cup'
'cuff'
'ctu'
'ctor_'
'cted_'
'crystal_'
'crush_'
'crush'
'cruel_'
'crown'
'crossing_'
'critic'
'cript'
'criminal_'
'creepy_'
'credit_'
'creature_'
'creation'
'crapp'
'crane_'
'crack'
'counting_'
'counselor_'
'cosm'
'corn_'
'coordinat'
'controlled_'
'contest_'
'containe'
'conspiracy_'
'considered_'
'considerat'
'conscious_'
'conscience_'
'connected_'
'connect'
'confidence_'
'conference_'
'concern_'
'con_'
'complicated_'
'compar'
'companies_'
'community_'
'committed_'
'commercial_'
'comfort'
'colon'
'colli'
'co_'
'closely_'
'clip'
'clinic_'
'cleared_'
'cleaned_'
'cle'
'claw_'
'classroom_'
'cker_'
'cked_'
'civilization_'
'civil'
'circu'
'circles_'
'cip'
'cious'
'cigar'
'cie'
'ciate'
'chuck_'
'christmas_'
'choosing_'
'chit'
'chick_'
'chev'
'chess_'
'chemical_'
'chem'
'cheerleader_'
'checkpoint'
'charg'
'channel'
'champagne_'
'cham'
'challenges_'
'chain'
'cent_'
'cement'
'cells_'
'cello'
'ced'
'cation_'
'catching_'
'casino_'
'cargo_'
'cards_'
'cara'
'captain_'
'cap_'
'candy_'
'candidate_'
'cancel_'
'cally_'
'cali'
'calc'
'cakes_'
'cafe_'
'cab_'
'button_'
'butt_'
'busted_'
'burst'
'bug'
'buddies_'
'bubble'
'broth'
'broom'
'broad_'
'brighte'
'brief'
'breach_'
'bowl'
'bounce'
'bou'
'bothering_'
'boom_'
'bolt_'
'boil'
'blond_'
'bitter_'
'bis'
'bio_'
'bing_'
'bin_'
'bility_'
'bike_'
'bid_'
'bic'
'beyond_'
'bes_'
'belong'
'belly_'
'believe'
'beha'
'beauty_'
'beaten_'
'beans_'
'bean_'
'bassador_'
'basket'
'basically_'
'bas'
'bart'
'barb'
'bake'
'bags_'
'bad'
'backup_'
'backs_'
'babys'
'babies_'
'ba_'
'az'
'aye_'
'awkward_'
'autograph_'
'aus'
'audition_'
'ature'
'attractive_'
'attorney_'
'attempt_'
'atte'
'attacked_'
'attached_'
'atic_'
'ath_'
'ates_'
'assuming_'
'assistance_'
'assign'
'asses_'
'assemble_'
'assault_'
'assa'
'ass'
'ash'
'ase_'
'artist_'
'ars_'
'arrow'
'arm'
'argument_'
'aren'
'archi'
'arch'
'apply_'
'appeal'
'apocalypse_'
'apa'
'ants_'
'answering_'
'anni'
'angle_'
'angels_'
'ane'
'analys'
'ana'
'an'
'alter'
'alt'
'als_'
'aliz'
'ality_'
'alien_'
'alibi_'
'ali'
'alc'
'alarm_'
'ala'
'ais'
'aircraft_'
'ains_'
'aim'
'ai'
'agen'
'aged_'
'age'
'afterwards_'
'affairs_'
'ae'
'adult_'
'adrenaline_'
'adorable_'
'adi'
'ade'
'acu'
'activities_'
'activate'
'activ'
'acqu'
'achieve'
'ach'
'ace'
'accused_'
'accus'
'academic_'
'abuse_'
'absolute_'
'aboard_'
'abl'
'abell'
'abe'
'abduct'
'`_'
'] - [_'
'['
'Zh'
'Zero_'
'Yoon_'
'Year_'
'Yank'
'YEAR'
'YE'
'Wu'
'Wrong_'
'Written_'
'World_'
'Wor'
'Wonder'
'Wo'
'Wind'
'Will'
'Whisper'
'Whether_'
'Wes'
'Wendy_'
'Weather'
'Water'
'Washington_'
'Was'
'Wan'
'Walt_'
'Walk_'
'Wal'
'WOULDN_'
'Visi'
'Vince'
'Vern'
'Ven'
'Up'
'Unit'
'Unh_'
'Under'
'Uhh_'
'UR'
'UP_'
'UM'
'UH_'
'UG'
'Twice_'
'Trin'
'Translat'
'Trai'
'Track'
'Tob'
'Tim_'
'Tim'
'Thought_'
'Though_'
'Thou'
'Thir'
'Thanksgiving_'
'Terri'
'Temp'
'Tech'
'Teach'
'Tea'
'Tat'
'Tas'
'Tarek_'
'Tak'
'Table_'
'TING_'
'TI'
'THINK_'
'THIN'
'THERE_'
'THE'
'TER_'
'TE'
'Sydney_'
'Swa'
'Susie_'
'Surely_'
'Sul'
'Stri'
'Street_'
'Stra'
'Sti'
'Steve_'
'State'
'Stac'
'Squ'
'Spr'
'Spe'
'Spa'
'Sou'
'Son'
'Sna'
'Sm'
'Slow'
'Sla'
'Sl'
'Sky'
'Ski'
'Sixt'
'Sis'
'Sig'
'Shun'
'Shouldn_'
'Short_'
'Shim_'
'Shen_'
'Shel'
'Shay'
'Shawn_'
'Shaw_'
'Shaun_'
'Shar'
'Sex_'
'Set_'
'Seo'
'Send_'
'Seems_'
'Se_'
'Scofield_'
'Sci'
'Schi'
'Sch'
'Says_'
'Save_'
'Saturday_'
'Samantha_'
'Sac'
'SW'
'SS_'
'SOMEONE_'
'SEE_'
'Ryu_'
'Russian'
'Rufus_'
'Roy'
'Rou'
'Ronnie_'
'Rol'
'Rob_'
'Road_'
'Ris'
'Rider'
'Rich'
'Renee_'
'Ren'
'Red'
'Read_'
'Randy_'
'Ramon_'
'Rama_'
'Ram'
'Rain'
'RY_'
'RR'
'RINGING_'
'REALLY_'
'Quit'
'Qui'
'Q_'
'QU'
'Pyo_'
'Push_'
'Ps'
'Provide'
'Princ'
'Previously_'
'Pray'
'Power_'
'Potter_'
'Porter_'
'Pop'
'Police_'
'Poi'
'Po_'
'Po'
'Place_'
'Pla'
'Pierce_'
'Pic'
'Phillip'
'Phil_'
'Petr'
'Pete_'
'Pers'
'Percy_'
'Pearl'
'Pay_'
'Patt'
'Patrick_'
'Par'
'Pal'
'PU'
'PRO'
'POS'
'PAR'
'Owen_'
'Ouch_'
'Otto_'
'Os'
'Order'
'Ope'
'Oli'
'Officer_'
'OW'
'OUR_'
'ON'
'OM_'
'Nowhere_'
'Not'
'North'
'Nor_'
'Neil_'
'Neg'
'Need_'
'Nea'
'Natur'
'Nancy_'
'Nam'
'Na_'
'NT_'
'NS'
'NEVER_'
'NCE'
'NC'
'Mun'
'Much_'
'Mort'
'Money_'
'Mom'
'Mit'
'Mister_'
'Miss'
'Miller_'
'Mik'
'Michelle_'
'Meaning_'
'Mean'
'Mayor_'
'May'
'Mau'
'Mart'
'Marshall_'
'Marley_'
'Mark'
'Marines_'
'Marie_'
'Marcus_'
'March_'
'Marc'
'Mama_'
'Mal'
'Mach'
'MON'
'MAY'
'Lucky_'
'Lucifer_'
'Luci'
'Louisiana_'
'Lou'
'Lock_'
'Lin_'
'Lif'
'Lie'
'Lia'
'Less_'
'Lenn'
'Leader_'
'Law'
'Laura_'
'Laugh'
'Lau'
'Lang'
'Lan'
'LS'
'LIVE_'
'LEE_'
'LED_'
'LA_'
'Korean_'
'Knock_'
'Kings'
'Kind_'
'Kids_'
'Kid_'
'Kel'
'Kee'
'Kaz'
'Katie_'
'KNOW_'
'Junpyo_'
'Jung_'
'Ju_'
'Jos'
'Joon'
'Jonathan_'
'Jim_'
'Jim'
'Jill_'
'Jigsaw_'
'Ji'
'Jessie_'
'Jessica_'
'Jeju_'
'Jeff'
'Jane'
'JO'
'Islands_'
'Isaac_'
'Intr'
'Indian'
'Indeed_'
'Iike_'
'IVE'
'IO'
'INE_'
'IM'
'IA'
'Hung'
'Hum'
'However_'
'Hotel_'
'Hos'
'Hol'
'Hog'
'Hobb'
'Ho_'
'Hide'
'Herm'
'Hei'
'Hector_'
'Heart_'
'Heard_'
'Hawaii_'
'Having_'
'Have'
'Harris_'
'Hard'
'Hal'
'Haeshin_'
'HIS'
'Gui'
'Gu_'
'Groan'
'Greg_'
'Green_'
'Green'
'Gree'
'Grandfather_'
'Gran'
'Grab_'
'Goodn'
'Gold_'
'Glad_'
'Gin'
'Georgi'
'Geo'
'Genji_'
'Gee_'
'Gasp'
'Gary_'
'Gab'
'GUN'
'GRUNT'
'GRO'
'GPS_'
'GOOD_'
'GL'
'GIRL_'
'GI'
'GH'
'GET_'
'GE'
'Fun'
'Full_'
'Frost_'
'Fres'
'France_'
'Fr'
'Forward_'
'Fort'
'Flo'
'Fin'
'Fifth_'
'Ferris_'
'Fell'
'Fas'
'Fall'
'FU'
'FF'
'Eyes_'
'Ew_'
'Evan'
'Especially_'
'Epi'
'Enough_'
'England_'
'Eng'
'Emily_'
'Elli'
'Eight_'
'Ei'
'Eh_'
'Eg'
'Edward_'
'Editor_'
'Ed_'
'Ed'
'Earl'
'ET'
'ER_'
'ED'
'Dunn'
'Dunham_'
'Dum'
'Drive'
'Dream'
'Dre'
'Dragon'
'Dra'
'Dorothy_'
'Dooku_'
'Done_'
'Don'
'Dog_'
'Divi'
'Diet'
'Dem'
'Definitely_'
'Dave_'
'Dark_'
'Dance_'
'Da_'
'DR'
'DOWN_'
'DO'
'DIS'
'DAY_'
'Cy'
'Cut'
'Crow'
'Cr'
'Cour'
'Coug'
'Copy_'
'Continues_'
'Const'
'Cons'
'Connor_'
'Company_'
'Commander_'
'Comm'
'Coming_'
'Collin'
'Cold_'
'Coffee_'
'Cody_'
'Coach_'
'Clo'
'Cle'
'Clay_'
'Chow_'
'Cho'
'China'
'Check'
'Chap'
'Chae'
'Center_'
'Ce'
'Catch_'
'Cat'
'Carry_'
'Canada_'
'Can'
'Camelot_'
'CU'
'CR'
'CON'
'CK'
'CHUCKLES_'
'CHAN'
'Butter'
'Butler_'
'Bus'
'Burn_'
'Burn'
'Burge'
'Bun'
'Bull'
'Brought_'
'Brooklyn_'
'Brea'
'Brad'
'Boy'
'Bou'
'Boot'
'Boo'
'Bonnie_'
'Ble'
'Bitch_'
'Bible_'
'Beth_'
'Ber'
'Bennet_'
'Believe_'
'Been_'
'Becca_'
'Bass_'
'Bart'
'Bang'
'Bal'
'BU'
'BRE'
'BO'
'BL'
'BECAUSE_'
'Awesome_'
'Aust'
'Attorney_'
'Atlant'
'Astrid_'
'Anyways_'
'Anton_'
'Ann'
'Angel'
'Andr'
'America_'
'Ame'
'Alone_'
'Alm'
'Alli'
'Alice_'
'Albert_'
'Ahjussi_'
'Agasshi_'
'Af'
'Ae'
'Adam_'
'According_'
'AW'
'AT'
'AS_'
'AP'
'ANT'
'AM_'
'AK'
'AIN_'
'AI'
'AD'
'ACCOUNT_'
'@'
'? '_'
'? ! '
'95_'
'83'
'75'
'72_'
'70'
'600_'
'55'
'53_'
'53'
'52_'
'49_'
'4000_'
'40'
'33_'
'24'
'20'
'194'
'16'
'15'
'1000'
'1'
'........'
'.....'
'.... '
'... .'
'... (_'
'... #_'
'.. '
'. ?_'
'. ..._'
'. .'
'. '_'
'--?_'
'-- - _'
'- [ _'
'- "_'
') (_'
') '
'', _'
'' '_'
'# '
'"'
'! ?_'
' ♪ ♪ _'
' ั'
' ? '
' ... ... _'
' - '
' * _'
' # _'
' " _'
'—_'
'​​_'
'ᵽ'
'์:_'
'์/_'
'์.._'
'์ ?_'
'์ !_'
'๊ _'
'้้_'
'้\\'
'้/_'
'้.'
'้! _'
'้ ...'
'้ -'
'่... .'
'่--_'
'่-'
'่"_'
'่! _'
'่ ..._'
'่ - _'
'็... _'
'ๆๆๆ'
'ๆไป_'
'ๆใ'
'ๆมา'
'ๆน'
'ไฮโ'
'ไฮเ'
'ไอแซค_'
'ไอแซ'
'ไอเด_'
'ไออ'
'ไอข'
'ไหมเน_'
'ไหมท_'
'ไหมค'
'ไหนเหรอ_'
'ไหนหล_'
'ไหนนะ_'
'ไหนต'
'ไหนคะ_'
'ไหนขอ'
'ไวล_'
'ไวท_'
'ไลอ'
'ไลก'
'ไรเด'
'ไรน'
'ไมโคร'
'ไมลส_'
'ไฟแ'
'ไฟร_'
'ไฟร'
'ไพน'
'ไพ_'
'ไปไหนท_'
'ไปใ'
'ไปโด'
'ไปเอ'
'ไปเหอะ_'
'ไปเหรอ_'
'ไปเห'
'ไปเว'
'ไปเย'
'ไปเม_'
'ไปเต_'
'ไปเก_'
'ไปหมด'
'ไปล_'
'ไปบอกเ'
'ไปนะ_'
'ไปตาม'
'ไปต'
'ไปก'
'ไบรอ_'
'ไนท_'
'ไทย_'
'ไทน_'
'ไท_'
'ไดอ'
'ไดส_'
'ไซล_'
'ไซม'
'ไงเ'
'ไงก_'
'ไคล'
'ไค'
'ไขเร_'
'ไกลๆ'
'ไ_'
'ใหน'
'ใบหน_'
'ในไม'
'ในโอ'
'ในโลก_'
'ในโรงเร_'
'ในแบบท'
'ในแต_'
'ในเหต_'
'ในเปล'
'ในเซ'
'ในเขต'
'ในเกา'
'ในอพาร_'
'ในอนาคต_'
'ในหล_'
'ในหล'
'ในลาน'
'ในล_'
'ในรา'
'ในม'
'ในภา'
'ในพร'
'ในฝ'
'ในประเทศ'
'ในบ'
'ในตำ'
'ในตอนน_'
'ในตอนท_'
'ในต'
'ในด_'
'ในฐานะเ'
'ในฐานะท_'
'ในคล_'
'ในคด_'
'ในขณะน_'
'ในการท'
'ในกล_'
'ในกรณ_'
'ใดๆ_'
'ใจไม_'
'ใจใน'
'ใจใ'
'ใจแ'
'ใจส_'
'ใจนะ'
'ใจต_'
'ใครใ'
'ใครเลย_'
'ใครเช_'
'ใครรอด'
'ใครบางคนท_'
'ใครบ_'
'ใครน_'
'ใครต_'
'ใครซ_'
'ใครช_'
'ใครจะไ'
'ใครจะร_'
'ใครจ_'
'ใครข'
'โอโ'
'โอเว'
'โอเคเลย_'
'โอเคนะ_'
'โอเคค'
'โอย_'
'โอป_'
'โอคจา'
'โอค'
'โหมด'
'โส_'
'โส'
'โลแกน_'
'โลว_'
'โลน_'
'โลกใบน_'
'โลกเ'
'โลกม'
'โรแ'
'โรเจอร_'
'โรส_'
'โรส'
'โรว_'
'โรป'
'โรน_'
'โรงแรม_'
'โยน_'
'โยช'
'โมโหใ'
'โมท_'
'โมงเ'
'โมงค_'
'โฟรโด'
'โพส'
'โพง'
'โปรแกรม_'
'โปรแกรม'
'โปรดไ'
'โปรดท'
'โบล'
'โบราณ'
'โนวา'
'โธม_'
'โทษนะคร_'
'โทษนะ_'
'โทษค'
'โทรไ'
'โทรเร_'
'โทรเข_'
'โทรหาเรา'
'โทรหา_'
'โทรล_'
'โทรมาเ'
'โทบ_'
'โทด'
'โตเ'
'โดยเฉพาะ_'
'โดยย'
'โดยบ'
'โดยค_'
'โดยการ'
'โดม'
'โดนไ'
'โดนแ'
'โดนเ'
'โดนท'
'โดนจ_'
'โดดเด_'
'โซเฟ_'
'โซล_'
'โซฟ_'
'โจม'
'โจนาธาน_'
'โจนส_'
'โจช_'
'โคล'
'โครงสร_'
'โครง'
'โคตร'
'โข'
'โกเม'
'โกหกเ'
'โกรธเ'
'โกรธ_'
'แฮม_'
'แฮนน_'
'แฮน'
'แอรอน_'
'แอม'
'แอบไป'
'แอนโ'
'แอนเด'
'แอน_'
'แหว'
'แสนเ'
'แสนว_'
'แสดงความเ'
'แสงแดด'
'แวะมา'
'แลเธอ'
'และแก'
'และเวลา'
'และเราก'
'และเต'
'และเก_'
'และภ'
'และพวก'
'และพระ'
'และผมอ'
'และผมจะ'
'และผมค_'
'และผม_'
'และผ'
'และบาง'
'และบอกเ'
'และนำ'
'และนอ'
'และทา'
'และด'
'และจาก'
'และฆ'
'และความเ'
'และความร_'
'และขอบ'
'และข'
'และการไ'
'แลล_'
'แลป'
'แลบ'
'แร_'
'แย'
'แมว'
'แมนต'
'แมทธ_'
'แมตต_'
'แมงม_'
'แมคค'
'แมก'
'แฟล'
'แฟนสาว'
'แฟช_'
'แฟ_'
'แพง_'
'แฝด_'
'แฝง'
'แผลเ'
'แผนอะไร'
'แผนท_'
'แผนของ'
'แปลง'
'แปลก_'
'แปร'
'แบล'
'แบรน'
'แบร'
'แบบแล'
'แบน_'
'แนะนำให_'
'แนะ'
'แนวโน_'
'แทซอง_'
'แทซ_'
'แถวๆ'
'แถ'
'แตะต_'
'แตน_'
'แดว_'
'แด_'
'แซมม_'
'แซนดร'
'แซน'
'แซ'
'แชมป_'
'แช_'
'แฉ'
'แคสเซ_'
'แคส_'
'แครอท'
'แคมป_'
'แคม'
'แคท_'
'แกโ'
'แกแล'
'แกเอา'
'แกเส'
'แกเล'
'แกเข_'
'แกอย_'
'แกอ'
'แกว'
'แกร'
'แกย_'
'แกมา'
'แกพ'
'แกบ_'
'แกบ'
'แกทำอะไร'
'แกด_'
'แกช_'
'แกจะไ'
'แกจ'
'แกควร'
'แกค_'
'เเน_'
'เเก'
'เฮล'
'เอเยน'
'เอาไปเ'
'เอาใ'
'เอาเห'
'เอาเข'
'เอามาน_'
'เอาพวก'
'เอาผ_'
'เอาป_'
'เอานา'
'เอาซ'
'เอาฉ_'
'เอาก'
'เอสเอ'
'เอลเล_'
'เอร'
'เองเ'
'เหอ'
'เหรอว_'
'เหรอคร_'
'เหมาะสม'
'เหมาะก_'
'เหง'
'เสแสร_'
'เสา'
'เสพย'
'เสพต_'
'เสนอให_'
'เสนอ'
'เสน_'
'เศษก'
'เวลาไม_'
'เวลาได_'
'เวลาให_'
'เวลาเห'
'เวลาเด_'
'เวลาสำหร_'
'เวลาพอ'
'เวลาประ'
'เวลาค'
'เวลาก_'
'เวรเอ_'
'เวทมนต_'
'เวช'
'เลเ'
'เละ'
'เลว_'
'เลยแ'
'เลยอ'
'เลยหล'
'เลยห'
'เลยนะ'
'เลยน_'
'เลยจ_'
'เลบ'
'เลน_'
'เลค'
'เลข_'
'เรเชล_'
'เราไปล'
'เราให_'
'เราใ'
'เราโ'
'เราแยก'
'เราเอ'
'เราเช_'
'เราอ_'
'เราอ'
'เราหา'
'เราว_'
'เราลอง'
'เราล_'
'เรามาเพ_'
'เรามาจ'
'เรามาก'
'เราฟ'
'เราพอ'
'เราพลาด'
'เราพร'
'เราผ'
'เราป_'
'เราทำใ'
'เราตามหา'
'เราซ'
'เราชนะ'
'เราจะเข_'
'เราจะมา'
'เราจะม_'
'เราจะพ_'
'เราจะพ'
'เราจะทำย_'
'เราจะด_'
'เราจะชนะ'
'เราจะจ_'
'เราจะกล'
'เราจะ_'
'เราคาด'
'เราคงจ'
'เราขอให_'
'เราขอ'
'เราข_'
'เรอ'
'เรศ'
'เรลล_'
'เรล'
'เรม_'
'เรซ_'
'เรจ_'
'เยอะเลย_'
'เยอะ'
'เมอเ'
'เมลล_'
'เมน'
'เมท_'
'เภ'
'เฟล'
'เฟรด'
'เฟร_'
'เฟย_'
'เฟน'
'เฟด'
'เพอร_'
'เพลงร_'
'เพลงท_'
'เพราะแม_'
'เพราะแ'
'เพราะเป_'
'เพราะเจ_'
'เพราะเขาไม_'
'เพราะอย'
'เพราะส'
'เพราะล_'
'เพราะย'
'เพราะพวกเขา'
'เพราะพวกเ'
'เพราะพ'
'เพราะท_'
'เพราะต'
'เพราะข'
'เพณ_'
'เพค'
'เผย'
'เผช_'
'เบเ'
'เบาะแส'
'เบา_'
'เบลล'
'เบล'
'เบรนแนน_'
'เบร_'
'เบร'
'เบนเน'
'เบต'
'เนอะ_'
'เนลล_'
'เนธาน_'
'เนซ_'
'เธอไปไห'
'เธอไปเ'
'เธอโทร'
'เธอและ'
'เธอแล_'
'เธอเห'
'เธอเด_'
'เธอเก_'
'เธออาจจะไม_'
'เธอออกไป'
'เธอออก'
'เธออยากได_'
'เธออยากจะ'
'เธอหา'
'เธอสองคน'
'เธอสบายด_'
'เธอสนใจ'
'เธอรอ'
'เธอย'
'เธอมาเ'
'เธอมา_'
'เธอมอง'
'เธอพ'
'เธอผ_'
'เธอบ'
'เธอนอน'
'เธอน'
'เธอทำอะไรก_'
'เธอตาย'
'เธอต'
'เธอซ_'
'เธอจะไปไหน'
'เธอจะไป'
'เธอจะเร_'
'เธอจะหาย'
'เธอจะย_'
'เธอจะมา'
'เธอฆ_'
'เธอคว'
'เธอข_'
'เธนเธ_'
'เธถเธ'
'เธตเธงเธดเธ_'
'เธตเธ_'
'เธต'
'เธดเธ'
'เธณเธญเธ'
'เธฒเธฃเธ'
'เธฒเธขเธ'
'เธญเธฐเ'
'เธญเธฃเน_'
'เธญเธขเธนเน_'
'เธญเธขเธ'
'เธญเธก'
'เธซเธฅเ'
'เธชเธดเน_'
'เธชเธ'
'เธงเธข'
'เธง_'
'เธฅเธนเธ_'
'เธฅเธฐเธ_'
'เธฅเธฐ'
'เธฅเธญเธ'
'เธฃเธฑเธ_'
'เธฃเธฐเธ_'
'เธฃเธ_'
'เธกเธตเ'
'เธกเธฒเ'
'เธก_'
'เทปน_'
'เทนเ'
'เถอะนะ_'
'เถอะ'
'เตา'
'เดเร_'
'เดอเ'
'เดส'
'เดล_'
'เดร_'
'เดย_'
'เดนน_'
'เซลล_'
'เชอ'
'เชลดอน_'
'เชน_'
'เฉยๆ_'
'เฉย'
'เฉ_'
'เฉ'
'เจเรม_'
'เจเน'
'เจเ'
'เจาะ'
'เจอใ'
'เจอส'
'เจอป_'
'เจอคน'
'เจส'
'เจล'
'เจฟฟร_'
'เงา'
'เคาะ'
'เคลย_'
'เครด_'
'เคยเจอ'
'เคยอย_'
'เคยอ'
'เคยห_'
'เคยล_'
'เคยพลาด'
'เคยป'
'เคยบอกเ'
'เคยบอกค'
'เคยถ_'
'เคยต_'
'เคยต'
'เคยช'
'เคยคาด'
'เคยข'
'เคยก_'
'เคม'
'เคนดร_'
'เคนซ_'
'เคน_'
'เคท'
'เขาไว_'
'เขาไปไ'
'เขาไปแ'
'เขาเอา'
'เขาเลย_'
'เขาเปล_'
'เขาเด_'
'เขาเจ'
'เขาเคยเ'
'เขาเคยทำ'
'เขาอาจ'
'เขาอา'
'เขาอ'
'เขาหล_'
'เขาหล'
'เขาร'
'เขามาท_'
'เขามาก_'
'เขาพบ'
'เขานะ_'
'เขาทำม'
'เขาทำท_'
'เขาช'
'เขาจาก'
'เขาจะไป'
'เขาจะเป_'
'เขาจะมา'
'เขาจะพ'
'เขาจะป'
'เขาจ'
'เขาคงไม_'
'เขาข'
'เขลา'
'เข'
'เกาะไว_'
'เกะ'
'เกวน_'
'เกรซ'
'เกรง'
'เกย_'
'เกมส_'
'เกท'
'ู้?_'
'ู้._'
'ู้...'
'ู้,'
'ู้!_'
'ู่._'
'ู่...'
'ุุ_'
'ี๊'
'ี้\\'
'ี้...'
'ี้-'
'ี้"_'
'ี้ -'
'ี่\\ _'
'ี่... .'
'ี่.. _'
'ี่.'
'ี่ ..'
'ีิ_'
'ี.'
'ี-'
'ี)_'
'ี - _'
'ิ์'
'ิ... .'
'ิ,_'
'ิ! _'
'ิ #'
'ำไป'
'ำแห'
'ำหนด'
'ำมาก'
'ำผลไม_'
'ำป'
'ำนาญ'
'ำนะ_'
'ำน'
'ำต_'
'าไปไ'
'าไปในเม_'
'าไปในห_'
'าไปในรถ'
'าไปเลย_'
'าไปเถอะ_'
'าไปอ'
'าไปส'
'าไปพ_'
'าไปผ'
'าไปน'
'าไปทำ'
'าไปต'
'าไปกล_'
'าไปก_'
'าไงล_'
'าไงน_'
'าไงค'
'าไข_'
'าใหม_'
'าให'
'าในร'
'าใจใ'
'าใจเห'
'าใจเลยว'
'าใจเร_'
'าใจความร_'
'าใจก_'
'าใครเป_'
'าใครจะ'
'าโล'
'าโรง'
'าโร'
'าโปร'
'าโทรศ_'
'าโชค'
'าแผน'
'าแป'
'าแบ'
'าแทน'
'าแตะ'
'าแจ_'
'าเอาไ'
'าเอง'
'าเหวอ'
'าเหล_'
'าเหร'
'าเสน'
'าเราไ'
'าเราโ'
'าเราอย_'
'าเราหา'
'าเราสามารถ'
'าเราร'
'าเราทำอะไร'
'าเราทำ'
'าเราจะร_'
'าเราจะม_'
'าเราจ_'
'าเราค_'
'าเยอะ'
'าเย'
'าเมาแล_'
'าเพราะ'
'าเบน'
'าเธอเอ'
'าเธอน_'
'าเธอจะก'
'าเธอค'
'าเธอกำล_'
'าเทอ'
'าเคร_'
'าเคยไ'
'าเคยเ'
'าเขาโ'
'าเขาเหม_'
'าเขาอ_'
'าเขาอ'
'าเขาสามารถ'
'าเขามา'
'าเขาถ_'
'าเขาต_'
'าเขาจะไม_'
'าเขาจะม'
'าเขาจะทำ'
'าเขาค'
'าเขากล_'
'าเกรง'
'าา_'
'าา'
'าะเ'
'าะน'
'าฮ_'
'าฮ'
'าอายจ'
'าอาการ'
'าอะไรอย_'
'าออกไป'
'าออกมา_'
'าออกจาก'
'าออ'
'าอว'
'าอง_'
'าอก_'
'าหาเ'
'าหารเ'
'าหาญ'
'าหากว_'
'าหว'
'าหลาย'
'าหย'
'าหมาย_'
'าหมา'
'าหมอ'
'าสะ'
'าสองคน'
'าสถ'
'าสตร'
'าวไ'
'าวใน'
'าวใ'
'าวโ'
'าวเท_'
'าวเข'
'าวห'
'าวว'
'าวถ_'
'าวจาก'
'าวค_'
'าวกรอง'
'าลอ'
'าลงไป'
'ารส_'
'ารร_'
'ารมณ_'
'ารก_'
'ายๆอย_'
'ายๆน'
'ายไปอ'
'ายไป_'
'ายแบ'
'ายเห'
'ายเต_'
'ายเด_'
'ายเขา_'
'ายเขา'
'ายเก'
'ายาเ'
'ายออกไป'
'ายออก'
'ายอ_'
'ายส'
'ายร'
'ายย'
'ายมาอย_'
'ายม'
'ายภา'
'ายผม'
'ายบา'
'ายนะ_'
'ายน'
'ายถ_'
'ายต'
'ายดาย'
'ายช_'
'ายฉ_'
'ายจาก'
'ายจะ'
'ายจ'
'ายความ'
'ายคร_'
'ายคน'
'ายค'
'ายของฉ_'
'ายกา'
'ามเวลา'
'ามเล'
'ามาให_'
'ามาห'
'ามาพ_'
'ามานะ_'
'ามาทำง'
'ามาท_'
'ามาถ_'
'ามาข'
'ามากๆ_'
'ามองไ'
'ามส'
'ามล_'
'ามร'
'ามค_'
'ามของ'
'ามข'
'ามก_'
'าภาพ'
'าพอท_'
'าพวกแก'
'าพวกเราไ'
'าพวกเราจ'
'าพวกเขาจะ'
'าพวกน'
'าผมไป'
'าผมม'
'าผมบ_'
'าผมท'
'าผมต_'
'าผมจะไม_'
'าผมจะบ'
'าปลอ'
'าประโยชน_'
'าประจำ'
'าบอกให_'
'าบร_'
'านไปเ'
'านใจ'
'านเอ'
'านเหรอ'
'านเห'
'านเสน_'
'านเป_'
'านเจ'
'านเข_'
'านำ'
'านายแ'
'านายร'
'านายม_'
'านาน'
'านาง'
'านา'
'านอะไร'
'านอน'
'านหรอก'
'านห_'
'านสา'
'านว'
'านลอร_'
'านล_'
'านล'
'านมาน_'
'านป'
'านนายพล'
'านนาย'
'านนะ_'
'านน'
'านตา'
'านตอน'
'านดอลล'
'านซ_'
'านจะเ'
'านค'
'านขายข'
'านของเรา_'
'านการ'
'าธา'
'าธรรม'
'าทไ'
'าทำไมเขาถ_'
'าทำไมถ_'
'าทำร_'
'าทำต_'
'าทาน'
'าทน'
'าถา'
'าตลอด'
'าตร_'
'าดวง'
'าดการ'
'าดก'
'าซาร_'
'าซะ'
'าชมรม'
'าชน'
'าฉลา'
'าจำ'
'าจะไปไ'
'าจะให_'
'าจะโทร'
'าจะเอา'
'าจะเร_'
'าจะเพ'
'าจะเข_'
'าจะสน_'
'าจะว'
'าจะล'
'าจะพ'
'าจะน_'
'าจะทำไ'
'าจะทำอะไ'
'าจะทำอ'
'าจะถ_'
'าจะถ'
'าจะซ_'
'าจะขอ'
'าจบ'
'างไรบ_'
'างไปท_'
'างใหม_'
'างใหญ_'
'างในแล_'
'างในเ'
'างในห'
'างในน'
'างในต'
'างใจ'
'างแรง'
'างแรกเลย_'
'างแม_'
'างแก'
'างเหอะ_'
'างเธอเ'
'างเต_'
'างเจ_'
'างอะไร'
'างออก'
'างหากท_'
'างหร_'
'างสำหร_'
'างสรรค_'
'างพร'
'างฝ'
'างผม'
'างปา'
'างป_'
'างป'
'างนอกเ'
'างน'
'างทาง_'
'างถ_'
'างตรง'
'างด'
'างซ_'
'างจาน'
'างจากท_'
'างจะเร_'
'างจะเป'
'างคา'
'างคร_'
'างกายฉ_'
'าความร_'
'าคว'
'าคร'
'าคนเ'
'าคนน_'
'าขำ'
'าขาย'
'าขอร_'
'าของแ'
'าของเขา'
'าของผม'
'าของน'
'าของช_'
'าของค_'
'าของข'
'าของ_'
'าขว'
'ากให_'
'ากาศ_'
'าการท_'
'ากากเ'
'ากะ'
'ากส'
'ากว_'
'ากลาง'
'ากม'
'ากพ'
'ัี_'
'ั'
'ั_'
'ะไรได_'
'ะไรเ'
'ะไรอ'
'ะไรส_'
'ะไรม'
'ะไรน'
'ะไปเ'
'ะได_'
'ะโหลก'
'ะโกน'
'ะแล_'
'ะแนน'
'ะเอ_'
'ะเว'
'ะเลาะก_'
'ะเลย'
'ะเร_'
'ะเม'
'ะเพ'
'ะเค'
'ะเข'
'ะฮ'
'ะอาย'
'ะหา'
'ะหรอ_'
'ะหร_'
'ะหม_'
'ะหม'
'ะราช'
'ะพu'
'ะพn_'
'ะผ'
'ะประ'
'ะป_'
'ะบอ'
'ะบบ'
'ะถ'
'ะฐt_'
'ะข'
'ะการ'
'ะก'
'ฯ'
'ฮาวา'
'ฮาล_'
'ฮอป'
'ฮสต_'
'ฮว'
'ฮร_'
'ฮงซวย'
'ฮง'
'อๆ'
'อไอ_'
'อไรท_'
'อไฟของ'
'อไปได_'
'อไปอ'
'อไปท_'
'อได'
'อไง'
'อใหม_'
'อในการ'
'อใจค_'
'อโอ'
'อโลก'
'อโรค'
'อโดย'
'อแห'
'อแรก'
'อแม'
'อเฮ'
'อเหม_'
'อเห_'
'อเวลาท_'
'อเราเ'
'อเราม'
'อเราจะ'
'อเรา_'
'อเย_'
'อเฟ'
'อเบ_'
'อเบ'
'อเซ'
'อเจอ'
'อเง_'
'อเกม'
'อาใ'
'อาเบ'
'อาฮะ_'
'อาหารเช_'
'อาหารเ'
'อาหารก'
'อายา'
'อาด'
'อาณา'
'อาซะเลย_'
'อาชนะ'
'อาชญากรรม_'
'อาช_'
'อาจจะเ'
'อาจจะส'
'อาจจะม_'
'อาจจะช_'
'อากาศด_'
'อะไรไ'
'อะไรเห'
'อะไรเลย'
'อะไรเท_'
'อะไรหลายอย_'
'อะไรหรอก_'
'อะไรหร_'
'อะไรสำค_'
'อะไรวะ_'
'อะไรมากไป'
'อะไรมากกว_'
'อะไรมาก_'
'อะไรนะคะ_'
'อะไรทำ'
'อะไรต_'
'อะไรซ_'
'อะไรจะเก_'
'อะไรของแก'
'ออเดร'
'ออาร_'
'ออาท_'
'ออาจ'
'ออะไรอ'
'ออะไรค'
'อออกไป'
'ออยาก'
'ออกไปให_'
'ออกไปแล_'
'ออกไปเ'
'ออกไปซะ_'
'ออกห'
'ออกล_'
'ออกมาไม_'
'ออกนอก'
'ออกจากโ'
'ออกจากท_'
'อหาย'
'อหาค'
'อหาขอ'
'อหลายป_'
'อหลา'
'อหรอก_'
'อหย_'
'อหมาย'
'อสำหร_'
'อสาร_'
'อสว'
'อสม_'
'อศ'
'อวาน'
'อวกาศ_'
'อลำ'
'อลา'
'อรอง_'
'อรอง'
'อรห_'
'อรบ'
'อยๆเ'
'อยๆนะ_'
'อยไม'
'อยใช_'
'อยโท'
'อยโ'
'อยแค'
'อยเลย_'
'อยเล'
'อยเพ_'
'อยเธอไ'
'อยเท_'
'อยเจ_'
'อยเขาไป_'
'อยเขา'
'อยเก_'
'อยากโ'
'อยากแ'
'อยากพ'
'อยากบอก'
'อยากทำให_'
'อยากทำอะไร'
'อยากตา'
'อยากต_'
'อยากด_'
'อยากจะใ'
'อยากจะเห_'
'อยากจะเ'
'อยากจะม_'
'อยากขอ'
'อยออก'
'อยหล'
'อยหม'
'อยสำหร_'
'อยละ_'
'อยลง'
'อยมาก_'
'อยมาก'
'อยพ_'
'อยผ'
'อยนะค'
'อยช_'
'อมๆก_'
'อมไม_'
'อมไ'
'อมเธอ'
'อมากกว_'
'อมาก_'
'อมาก'
'อมห'
'อมสำหร_'
'อมว'
'อมล_'
'อมย_'
'อมมาน'
'อมม'
'อมพ_'
'อมป'
'อมบ_'
'อมบ'
'อมน_'
'อมน'
'อมค'
'อมกอ'
'อภา'
'อพาเ'
'อพอ'
'อพวกเรา_'
'อพย'
'อผมอ'
'อผมห'
'อผ'
'อปล_'
'อปล'
'อปรา'
'อประเ'
'อบไ'
'อบอกว_'
'อบอก'
'อบอ_'
'อบม_'
'อบถ'
'อบคร_'
'อบข_'
'อนไหวของ'
'อนไหม_'
'อนไล'
'อนไง_'
'อนใหม_'
'อนใช_'
'อนใจ'
'อนโต'
'อนแบบน_'
'อนแก'
'อนเรา_'
'อนเพ_'
'อนเธอไ'
'อนเจ'
'อนเง_'
'อนเค'
'อนเขาจะ'
'อนำ'
'อนายเ'
'อนาน'
'อนสาย'
'อนลง'
'อนรก'
'อนย'
'อนพวกเ'
'อนพร'
'อนบอ'
'อนนา'
'อนตาย'
'อนซอมบ_'
'อนจากน'
'อนจะเป_'
'อนจะม_'
'อนจะจ_'
'อนจ_'
'อนจ'
'อนคลายบ'
'อนคลาย'
'อนของเรา_'
'อนของเขา_'
'อนของพ'
'อนข'
'อนกรว'
'อนกร'
'อทำไ'
'อทำอ'
'อทำก_'
'อทา'
'อตแ'
'อตา'
'อตอน'
'อตล'
'อตกลง_'
'อดไหล'
'อดได_'
'อดเย_'
'อดออก'
'อดอย'
'อดอ'
'อดห'
'อดด_'
'อดของเ'
'อดของ'
'อดก_'
'อซ'
'อฉ'
'อจำ'
'อจะเ'
'องไปไ'
'องไปอย_'
'องไปถ'
'องไปค_'
'องไปข'
'องใส_'
'องใต_'
'องโช'
'องโกหก_'
'องโกหก'
'องแร'
'องแย_'
'องแป'
'องแน'
'องแต_'
'องเหล'
'องเหรอ'
'องเล'
'องเพ_'
'องเผช_'
'องเตร_'
'องเต_'
'องเด'
'องเคล_'
'องเคร_'
'องเขา_'
'องเก'
'องานของ'
'องออกมา'
'องออก'
'องออ'
'องอด'
'องหาท_'
'องหล'
'องหร'
'องหมาย'
'องสถา'
'องสงบ'
'องศา'
'องศ'
'องวอ'
'องลอง'
'องรอน'
'องรอด_'
'องยาก'
'องมาเ'
'องมาก'
'องมอง'
'องพาเ'
'องพวกเขา'
'องพยา'
'องผม_'
'องปกต_'
'องบาง'
'องบอกค_'
'องบอก_'
'องนาย_'
'องนา'
'องทำแ'
'องทำอะไรเ'
'องทำอะไรซ_'
'องทำอะไร_'
'องทำอ_'
'องทำน_'
'องทำก_'
'องทา'
'องดำ'
'องชายผม_'
'องชายค_'
'องจด'
'องคา'
'องคอย'
'องควบ'
'องครอบคร_'
'องคนท_'
'องคนต'
'องคน_'
'องของเรา'
'องของพวกเ'
'องของผม_'
'องของต'
'องกำจ_'
'องการใช_'
'องการใครส_'
'องการแบบน_'
'องการแค_'
'องการเวลา'
'องการเธอ_'
'องการเขา'
'องการอะไรก_'
'องการออ'
'องการอ'
'องการส_'
'องการยา'
'องการพ'
'องการผ'
'องการน'
'องการตา'
'องการจ'
'องการคำ'
'องการคร'
'องกด'
'อฆ_'
'อคโกแลต'
'อคแล_'
'อความร_'
'อความม'
'อความจาก'
'อความของ'
'อครอบคร'
'อคณ'
'อคค'
'อคก_'
'อของไ'
'อของแ'
'อของเรา'
'อของเธอ_'
'อของเจ_'
'อของเ'
'อของม_'
'อของพวกเขา'
'อของพ'
'อกไปไ'
'อกไป_'
'อกไ'
'อกโ'
'อกเอง_'
'อกเดท'
'อกเข'
'อกำ'
'อกาสให_'
'อการเป'
'อการส'
'อการล'
'อการท'
'อกสำ'
'อกส_'
'อกลวง'
'อกระหว_'
'อกระส_'
'อกม'
'อกน'
'อกทาง'
'อกท'
'อกฎ'
'อกข_'
'อกกำล_'
'ฬา_'
'หาใคร'
'หาโ'
'หาอะไร'
'หาอ'
'หาห'
'หาล_'
'หายาก'
'หาม'
'หาพ'
'หาผ'
'หาน'
'หาท_'
'หาด'
'หาง'
'หาค_'
'หาค'
'หากแ'
'หากเ'
'หากม'
'หวาด'
'หลายส_'
'หลายว_'
'หลายร_'
'หลอด'
'หลอกลวง'
'หลอ'
'หลบไป_'
'หลงใหล'
'หลงทาง_'
'หรอเน_'
'หรอกว_'
'หมาะ'
'หมอบลง'
'หมวด'
'หมว_'
'หมล_'
'หมดห'
'หมก'
'หนะ_'
'หนว'
'หนม'
'หนก_'
'หดเห_'
'หกเด_'
'สไม_'
'สไตล_'
'สไซด_'
'สใ'
'สโนว_'
'สโต'
'สแล'
'สเล'
'สเภณ_'
'สเป'
'สเตฟาน'
'สเซอ'
'สเค'
'สำเน'
'สำรวจ'
'สำ'
'สาวเธอ'
'สาวห'
'สาวของ'
'สารว_'
'สายเล_'
'สายฟ_'
'สายน_'
'สายท_'
'สามเหล_'
'สามารถเข_'
'สามารถอย_'
'สามารถหย_'
'สามารถห'
'สามารถร_'
'สามารถย'
'สามารถม_'
'สามารถป'
'สามารถต'
'สามป'
'สาป'
'สาธารณ'
'สะพาน'
'สะดวก'
'สะกด'
'สอย'
'สอบ'
'สองแ'
'สองป'
'สองข'
'สอ'
'สห'
'สส'
'สวยๆ'
'สวยหร_'
'สวยง'
'สวมเ'
'สวนเ'
'สว'
'สลบ'
'สระท_'
'สมเหต_'
'สมาธ_'
'สมองของ'
'สมอ_'
'สมร_'
'สมม'
'สมผล'
'สภา_'
'สพ_'
'สปา'
'สป_'
'สนใจใน'
'สนใจว_'
'สนามบ_'
'สนอ_'
'สนหรอก_'
'สตอร_'
'สดา'
'สดงความย_'
'สดงความ'
'สซา'
'สงเคราะห_'
'สงครามก'
'สง_'
'สคอ'
'สข_'
'สกา'
'สกอฟ_'
'สกอ'
'สก'
'ษเ'
'ษน'
'ษท_'
'ษฎ_'
'ษจ'
'ศไป'
'ศใ'
'ศาสนา'
'ศาสตราจารย_'
'ศา'
'ศอ'
'ศส_'
'ศษ'
'ศวง'
'ศว'
'ศล'
'ศม_'
'ศพให_'
'ศพน'
'ศนา'
'ศทาง'
'ศต'
'ศด_'
'ศจ'
'ศก_'
'วๆไป_'
'วๆไ'
'วๆน_'
'วไหล_'
'วไหม'
'วไงเ'
'วใน_'
'วใจเธอ'
'วใจวาย_'
'วใจนาย'
'วใจของเขา'
'วใจของเ'
'วใ'
'วโว_'
'วแอน'
'วแส'
'วแบ'
'วแดง'
'วแค_'
'วแก_'
'วเอาไ'
'วเองไ'
'วเองห'
'วเองนะ'
'วเองซะ'
'วเองจ'
'วเอ_'
'วเหล_'
'วเว_'
'วเราจะเ'
'วเราค'
'วเรา_'
'วเย_'
'วเพ'
'วเปล_'
'วเธอไ'
'วเธอเอง_'
'วเธอเป_'
'วเธอเ'
'วเธออย'
'วเธอร_'
'วเธอจ'
'วเง_'
'วเคล_'
'วเค_'
'วเค'
'วเขาไ'
'วเขาอย_'
'วเกล'
'วาล'
'วามเร_'
'วามอ'
'วามห'
'วามสะอาด'
'วามม_'
'วามป'
'วางแผนอ'
'วางแผน_'
'วางเ'
'วางบน'
'วางท'
'วะท_'
'วอา'
'วอลเ'
'วอน_'
'วอน'
'วหล'
'วหรอ'
'วหมอ'
'วสอ'
'ววา'
'วลาเ'
'วลาม'
'วละ'
'วลง_'
'วระ'
'วรรษ'
'วรท'
'วรถ'
'วยๆ_'
'วยไว_'
'วยแล_'
'วยแพทย_'
'วยเอา'
'วยเหต_'
'วยเห'
'วยเลย_'
'วยเล'
'วยเราได_'
'วยเรา'
'วยเพ'
'วยเธอแล'
'วยเท'
'วยเง_'
'วยเขาไ'
'วยเก'
'วยอะไรไม_'
'วยอะไรไ'
'วยหรอ_'
'วยสา'
'วยสอ'
'วยม'
'วยพา'
'วยพวกเรา'
'วยพวกเ'
'วยผมไ'
'วยผมห'
'วยผมด_'
'วยผ'
'วยปร'
'วยป_'
'วยนะเ'
'วยนะค'
'วยน'
'วยซ'
'วยง_'
'วยค'
'วยกล'
'วยก'
'วมใ'
'วมแ'
'วมาแ'
'วมากเ'
'วมากข_'
'วมผ'
'วมท'
'วมงานแ'
'วมก'
'วพวกเขา'
'วพวกน'
'วผมเป_'
'วปล'
'วป'
'วบอย'
'วบอกว_'
'วบอก'
'วบร'
'วนๆ'
'วนไ'
'วนเจ'
'วนเก_'
'วนายก_'
'วนาย_'
'วนะเ'
'วนะคร_'
'วนอ_'
'วนอ'
'วนสำค_'
'วนม_'
'วนพ'
'วนนา'
'วนจ'
'วนค'
'วธ_'
'วทำไมค_'
'วตาย'
'วตน_'
'วซะอ_'
'วจา'
'วจะไ'
'วจะให_'
'วจะเก_'
'วงให'
'วงแห'
'วงแ'
'วงเวลาต_'
'วงเลย_'
'วงเร_'
'วงห'
'วงล'
'วงมาก'
'วงม_'
'วงม'
'วงพ_'
'วงบ_'
'วงท_'
'วงช_'
'วงจ'
'วงความ'
'วงค_'
'วงค'
'วงข'
'วงกลา'
'วงก_'
'วคะ_'
'วคนเด_'
'วขาว_'
'วของเธอ'
'วของม_'
'วขนาด'
'วกเรา_'
'วกำ'
'วกาศ'
'วกค_'
'ลโก_'
'ลเลน_'
'ลเน'
'ลเด'
'ลำพ_'
'ลำบาก_'
'ลำ_'
'ลาแ'
'ลาเต_'
'ลาออก'
'ลาส_'
'ลาส'
'ลาร_'
'ลายล'
'ลายป_'
'ลาท_'
'ลางๆ'
'ลาข'
'ลา_'
'ละเลย_'
'ละอายใ'
'ละอ'
'ละส_'
'ละลา'
'ละนะ'
'ละท_'
'ละคร_'
'ละข_'
'ลอเรล'
'ลอเรน'
'ลอส_'
'ลอยนวล'
'ลอน'
'ลอดเวลา'
'ลอดเ'
'ลองไป'
'ลองม'
'ลองท'
'ลสต'
'ลลาร_'
'ลล'
'ลยไ'
'ลยใ'
'ลยเหรอ_'
'ลยหรอ_'
'ลยส_'
'ลยท'
'ลภา'
'ลพ'
'ลผ'
'ลปะท_'
'ลบห'
'ลบค'
'ลนา'
'ลนะ_'
'ลนซ_'
'ลธรรม'
'ลจา'
'ลจ'
'ลงไปเ'
'ลงใ'
'ลงโ'
'ลงส'
'ลงน'
'ลงทะเบ_'
'ลงค'
'ลคา'
'ลคอล_'
'ลคร_'
'ฤษฎ_'
'ฤต'
'รแ'
'ราไม_'
'ราได_'
'ราเชล_'
'ราวๆ'
'รารถนา'
'รายได_'
'ราจะ'
'ราจ'
'ระโ'
'ระแ'
'ระเป_'
'ระหา'
'ระสบ'
'ระล_'
'ระยำ'
'ระบาด'
'ระบบร_'
'ระทำ'
'ระช_'
'รอไ'
'รอใ'
'รอแป_'
'รออะไร'
'รอร'
'รอยตาม'
'รอยก_'
'รอย_'
'รอบน_'
'รอดไปได_'
'รอดไ'
'รอซ'
'รองประธาน'
'รอคะ_'
'รอคอย'
'รส_'
'รวบรวม'
'รรค_'
'รยา'
'รยศ'
'รบกวนค_'
'รบ'
'รถไ'
'รถบ'
'รถก'
'รจ'
'รงแ'
'รงน_'
'รงจำ_'
'รงข'
'รคร'
'รกาย'
'รกร'
'รกน_'
'ยๆ'
'ยใจอ'
'ยแหล'
'ยแม'
'ยแบบ'
'ยเหรอ_'
'ยเห'
'ยเวลาเ'
'ยเม_'
'ยเน_'
'ยเท'
'ยเข'
'ยาแ'
'ยาเสพต_'
'ยาอ'
'ยาหย_'
'ยาส_'
'ยายามท'
'ยายามจะ'
'ยาย_'
'ยามเ'
'ยาท'
'ยากแ'
'ยากมาก'
'ยากจ'
'ยากข_'
'ยะแ'
'ยอ'
'ยหาย_'
'ยหน_'
'ยสำหร_'
'ยศ_'
'ยวไม_'
'ยวแล'
'ยวเอง'
'ยวเหรอ_'
'ยวะ_'
'ยวอะไรก_'
'ยวอย_'
'ยวอ'
'ยวหร'
'ยวล'
'ยวร_'
'ยวย'
'ยวมา'
'ยวท'
'ยวด'
'ยวซ_'
'ยมไว_'
'ยมไ'
'ยมเข'
'ยมอ'
'ยมส_'
'ยมยอด_'
'ยมมากเลย'
'ยมมา'
'ยมท'
'ยมช'
'ยมข'
'ยพร_'
'ยพ'
'ยผม'
'ยผ'
'ยประ'
'ยป'
'ยบๆ_'
'ยบน'
'ยบท_'
'ยบง_'
'ยบก_'
'ยนไปเ'
'ยนไปนะ_'
'ยนไ'
'ยนใ'
'ยนแพท'
'ยนแปลงได_'
'ยนเพ'
'ยนะ'
'ยนอน_'
'ยนอ'
'ยนส_'
'ยนล'
'ยนราย'
'ยนบท'
'ยนบ'
'ยนนา'
'ยนตร_'
'ยนจ'
'ยทำ'
'ยดเพ'
'ยดอ'
'ยดช_'
'ยดค'
'ยซะ'
'ยงไม_'
'ยงไป'
'ยงไ'
'ยงโทรศ_'
'ยงแห_'
'ยงเหม_'
'ยงเร'
'ยงเพ_'
'ยงเธอ'
'ยงาน_'
'ยงอะไร'
'ยงหม'
'ยงหน_'
'ยงสา_'
'ยงว_'
'ยงลำ'
'ยงมาก_'
'ยงมา'
'ยงพ'
'ยงต_'
'ยงต'
'ยงช_'
'ยงค'
'ยงของค_'
'ยงกา'
'ยงกระ'
'ยงกร_'
'ยค'
'ยข'
'ยกส'
'ยกรรม_'
'ยกร'
'ยกพ'
'ยกป'
'ยกค_'
'ยกก_'
'ยกก'
'มไพร_'
'มไปแล_'
'มไป_'
'มใส'
'มใช_'
'มใจท_'
'มโห'
'มโร'
'มโจมต_'
'มแบบ'
'มเหลว'
'มเลย_'
'มเยอะ'
'มเมล_'
'มเพ_'
'มเท'
'มเจ_'
'มเง'
'มเค'
'มเข_'
'มเกร'
'มาใช_'
'มาโดย'
'มาโกะ'
'มาและ'
'มาแบบ'
'มาเอ'
'มาเหรอ_'
'มาเพ'
'มาเท'
'มาเถอะ'
'มาเข_'
'มาหาฉ_'
'มาสาย'
'มาสอ'
'มารา'
'มาม'
'มาพร_'
'มาพบ'
'มาพ_'
'มาป'
'มานานเ'
'มานาน'
'มานอน'
'มาทำอะไรท_'
'มาทำงาน'
'มาทางน_'
'มาท'
'มาต'
'มาด'
'มาณ_'
'มาจากไหน'
'มาจากเ'
'มาจากท_'
'มาจ_'
'มาจ'
'มางาน'
'มาของ'
'มากเก_'
'มากนะ'
'มากด_'
'มากจร_'
'มะต'
'มะก'
'มฮ'
'มอไ'
'มออก'
'มอว'
'มอบห'
'มองใ'
'มองฉ_'
'มหาล_'
'มหาย'
'มหม'
'มห'
'มสเตอร_'
'มสา'
'มสอ'
'มสก_'
'มวล'
'มวง'
'มว'
'มลง_'
'มรอยเ'
'มรดก'
'มย'
'มมาก_'
'มมมม'
'มพำ'
'มพวกน_'
'มพวก'
'มพล_'
'มพร'
'มผ'
'มปรา'
'มบอก'
'มบ'
'มนาย'
'มทร_'
'มท'
'มถนน'
'มต'
'มดไ'
'มดส'
'มช'
'มฉล'
'มจากตรงน_'
'มงาน'
'มงวด'
'มงก'
'มง'
'มของเธอ'
'มกลา'
'มกล'
'ภาษาอ_'
'ภาษ_'
'ภาวะโลกร_'
'ภาวนา'
'ภายในห'
'ภาย'
'ภาพไ'
'ภาพน'
'ภาพถ_'
'ภาพจ'
'ภท'
'ฟไหม_'
'ฟเวอร_'
'ฟาเ'
'ฟาส_'
'ฟา_'
'ฟอน'
'ฟอกซ_'
'ฟฟร_'
'ฟนค'
'ฟด'
'ฟก_'
'ฟก'
'พให_'
'พเดท'
'พาเรา'
'พาล'
'พาย_'
'พาพวกเ'
'พาผม'
'พาฉ_'
'พากษาเ'
'พากษา_'
'พา_'
'พะย_'
'พอๆ'
'พอใจ_'
'พอโ'
'พอเลย_'
'พอม_'
'พอต'
'พวกโ'
'พวกแกท'
'พวกเราใ'
'พวกเราเห_'
'พวกเราเป_'
'พวกเราห'
'พวกเราส'
'พวกเรามา'
'พวกเราทำ'
'พวกเธอเ'
'พวกเธออย'
'พวกเขาให_'
'พวกเขาแ'
'พวกเขาเก'
'พวกเขาห'
'พวกเขาส_'
'พวกเขาส'
'พวกเขาย_'
'พวกเขาผ'
'พวกเขาป'
'พวกเขาทำได_'
'พวกเขาต'
'พวกเขาด_'
'พวกเขาจะเ'
'พวกเขาจ'
'พวกเขาข_'
'พวกเขากล_'
'พวกอ'
'พวกร'
'พวกมา'
'พวกพ_'
'พวกบ_'
'พวกคนเ'
'พลโ'
'พลาดค'
'พลาด_'
'พระเอก'
'พระส'
'พระม'
'พระจ_'
'พระ_'
'พรรคพวก_'
'พรรค'
'พยายามแ'
'พยายามอย'
'พยายามอ'
'พยายามทำให_'
'พยายามจะป'
'พยาน_'
'พยากร'
'พยา'
'พพ_'
'พบเธอ'
'พบเขา'
'พบพ'
'พบต'
'พทา'
'พท'
'พต_'
'พด'
'พจ'
'พคน'
'ฝา'
'ฝนตก'
'ผา_'
'ผลอะไร_'
'ผลหรอก_'
'ผลม_'
'ผลกระทบอะไร'
'ผลก_'
'ผยแพร_'
'ผมไว_'
'ผมไ'
'ผมใส_'
'ผมโทร'
'ผมแทบ'
'ผมเหรอ_'
'ผมเฝ_'
'ผมเคยเห_'
'ผมอาจ'
'ผมออกมา_'
'ผมออก'
'ผมอยากเป_'
'ผมอยากท'
'ผมอยากค_'
'ผมอ'
'ผมหร'
'ผมหมายความ'
'ผมสบายด_'
'ผมสน'
'ผมพร_'
'ผมพยายามจะ'
'ผมพบว_'
'ผมพ'
'ผมผ_'
'ผมบอก_'
'ผมนำพา'
'ผมนะ_'
'ผมทำไป'
'ผมทำไ'
'ผมทำอ'
'ผมทำ_'
'ผมตา'
'ผมซ'
'ผมชอบค_'
'ผมจะไปร_'
'ผมจะเอา'
'ผมจะบอก'
'ผมจะตาม'
'ผมจะต_'
'ผมควร'
'ผมคงต_'
'ผมคงจะ'
'ผมขา'
'ผมขอแนะนำ'
'ผมขอพ_'
'ผมขอก'
'ผมก'
'ผน_'
'ผน'
'ผจญภ_'
'ปให_'
'ปแบบ_'
'ปแ'
'ปเป_'
'ปเด_'
'ปอย_'
'ปอดข'
'ปอ_'
'ปหา'
'ปหร'
'ปห'
'ปสรรค'
'ปส'
'ปลาย_'
'ปลาด'
'ปลกใจ'
'ปราศจากการ'
'ปราศ'
'ปรากฎ'
'ประเพณ_'
'ประเทศของ'
'ประหลาดใจเ'
'ประสาน'
'ประสาท'
'ประสบความสำเร_'
'ประส_'
'ประส'
'ประม'
'ประจำ_'
'ประกา'
'ปย_'
'ปมา'
'ปม_'
'ปนะ'
'ปด'
'ปซ'
'ปช'
'ปง_'
'ปข'
'ปการ'
'ปกครอง'
'บไอ'
'บไว'
'บไม'
'บไปไ'
'บไปใ'
'บไปแ'
'บไปเลย_'
'บไปเร_'
'บไปเ'
'บไปอ_'
'บไปส_'
'บไปบ_'
'บไปซะ'
'บในข'
'บใจน'
'บใจ_'
'บใครส_'
'บโทษ'
'บโตข'
'บโซ'
'บแอนน_'
'บแอน'
'บแอ'
'บแร'
'บแฟน'
'บแด'
'บแค_'
'บแก'
'บเอกสาร'
'บเหย_'
'บเพร'
'บเปล_'
'บเบน'
'บเธอแ'
'บเขาอย_'
'บเขาม'
'บเขาท'
'บเก'
'บาะแส'
'บาวเ'
'บายได_'
'บายให'
'บายใจ'
'บายอ'
'บาป_'
'บาป'
'บาทาว'
'บาต'
'บาด_'
'บาง_'
'บะ'
'บอาย'
'บออกจากท_'
'บอล'
'บอนา'
'บอนน_'
'บอด_'
'บอด'
'บอกไว_'
'บอกไ'
'บอกใคร_'
'บอกแม_'
'บอกเราว_'
'บอกเรา'
'บอกเธอว_'
'บอกเขาว_'
'บอกส_'
'บอกพวกเ'
'บอกพวกค_'
'บอกผม_'
'บอกนาย'
'บอกตำรวจ'
'บอกความจร_'
'บอกก_'
'บหา'
'บหรอ'
'บสาม_'
'บสา'
'บสถ_'
'บวก'
'บลา_'
'บลา'
'บลอนด_'
'บลง_'
'บลง'
'บราย'
'บราณ'
'บรางว_'
'บระ'
'บรอย'
'บรอ'
'บรรเ'
'บรรษ_'
'บรรยายไทยโดย'
'บรถเ'
'บรถมา'
'บรด_'
'บมาให_'
'บมาใ'
'บมาเล_'
'บมาเถอ'
'บมาอ'
'บมาหาฉ_'
'บมาส'
'บมาย_'
'บมาทำ'
'บมาด_'
'บมาค'
'บมาก_'
'บมอ'
'บภ'
'บพา'
'บพวกเรา_'
'บพวกเขา'
'บพวกเ'
'บพวกค'
'บพระเจ_'
'บฝ_'
'บผมไ'
'บผมหร'
'บผมท_'
'บปากไ'
'บปากเ'
'บปล_'
'บประทาน'
'บประก_'
'บปร_'
'บบร'
'บบทเร_'
'บนโ'
'บนเกาะน'
'บนายไ'
'บนาท_'
'บนะค'
'บนอ'
'บนรถ'
'บนร_'
'บนพ_'
'บนป'
'บนท_'
'บนต'
'บนชาย'
'บธ'
'บทแ'
'บทอ'
'บทรา'
'บทร_'
'บถอ'
'บตาม'
'บตอน'
'บซะ'
'บชาว'
'บชาต_'
'บฉ'
'บจอ'
'บงานน_'
'บง'
'บคาร_'
'บความร_'
'บความน_'
'บความช_'
'บคล'
'บคนแปลกหน_'
'บคนเ'
'บคนของ'
'บของเรา_'
'บของเรา'
'บของเธอ_'
'บของเ'
'บของข'
'บขยะ_'
'บขน'
'บการห'
'บการร'
'บการย'
'บการม_'
'บการป'
'บการทำงาน'
'บการท'
'บการตาย'
'บการฆ'
'บการกล_'
'บการก_'
'นๆท'
'นๆก'
'นไหน'
'นไรไ'
'นไรหรอก'
'นไรค_'
'นไม'
'นไพ'
'นไปไ'
'นไปเลย_'
'นไปเร_'
'นไปหาเ'
'นไปห'
'นไปรอบๆ'
'นไปนอน'
'นไปน'
'นไปทา'
'นไปค'
'นไปข'
'นไท'
'นไงล_'
'นไกล'
'นใย'
'นในท_'
'นในข'
'นใด'
'นใจได_'
'นใจใ'
'นใจแ'
'นใจเล'
'นใจม'
'นใจข'
'นใ'
'นโลกใ'
'นโย'
'นโม'
'นโปรด'
'นโป'
'นโน'
'นโทษ_'
'นโทรหา'
'นโซ'
'นโชคด_'
'นแฮม_'
'นแอน'
'นแหละค_'
'นแส'
'นและเ'
'นและบ'
'นและค'
'นและ_'
'นแฟร'
'นแฟนเ'
'นแพ'
'นแผล'
'นแผ'
'นแปลกม'
'นแปลกนะ_'
'นแปลก'
'นแบบ_'
'นแท_'
'นแตก_'
'นแต'
'นแกะ'
'นแกล'
'นเอเ'
'นเอาไว_'
'นเอาไป'
'นเอาไ'
'นเอาด_'
'นเองน'
'นเองท_'
'นเองก_'
'นเอกสาร'
'นเหอะ_'
'นเหร_'
'นเหย_'
'นเหมาะสม'
'นเหมาะ'
'นเห'
'นเส'
'นเศร'
'นเว'
'นเลยค_'
'นเล'
'นเราท_'
'นเราจะ'
'นเยอะแยะ'
'นเฟ'
'นเพราะค_'
'นเผา'
'นเบล'
'นเน'
'นเธอเ'
'นเทพ'
'นเถอะค'
'นเต'
'นเดล_'
'นเจออ'
'นเคยเห_'
'นเคยเล_'
'นเคยส'
'นเคยพ_'
'นเคยทำ'
'นเคย_'
'นเขาไ'
'นเขาเป'
'นเขาอ'
'นเกา'
'นำไป'
'นำเสนอ'
'นำเข_'
'นำมา'
'นำท_'
'นาร_'
'นายให_'
'นายโกหก'
'นายแล'
'นายแน_'
'นายแค_'
'นายเอ'
'นายเห'
'นายเสมอ'
'นายเลย'
'นายเก'
'นายอาจจะ'
'นายอา'
'นายหา'
'นายสามารถ'
'นายส_'
'นายส'
'นายล'
'นายมาทำอะไรท_'
'นายบอก'
'นายนะ'
'นายทำไ'
'นายทำให_'
'นายถ_'
'นายตาย'
'นายจะไปไหน'
'นายจะได_'
'นายจะม'
'นายจะทำ'
'นายฆ_'
'นายควรจะ'
'นานเท_'
'นานหรอก'
'นาธา'
'นางไ'
'นางเ'
'นางส'
'นางฟ_'
'นางท'
'นางจ'
'นะนำว_'
'นะน'
'นะถ_'
'นะค_'
'นะค'
'นฮ'
'นอเ'
'นอาย_'
'นอาจเ'
'นอาจจะไม_'
'นอากา'
'นอะไรไป'
'นอะไรเลย_'
'นอะไรหร_'
'นอะไรม_'
'นอะไรบ'
'นอะไรนะ_'
'นอะไรของ'
'นอะ_'
'นออกไปจาก'
'นออกแ'
'นออ'
'นอยากไป'
'นอยากด_'
'นอยากค_'
'นอมตะ'
'นอนเล'
'นอง'
'นอกโ'
'นอกเหน_'
'นอกเคร_'
'นอกห'
'นอกน_'
'นอกจากไ'
'นอกจากค_'
'นหาแ'
'นหาก'
'นหลาย'
'นหลง'
'นหมอ'
'นห'
'นสไ'
'นสำ'
'นสาว'
'นสายไป'
'นสายแล_'
'นสามารถเ'
'นสองเท_'
'นสอง'
'นสวยงาม'
'นสว'
'นสมาช_'
'นสด'
'นสงส_'
'นสงคราม'
'นศตวรรษท_'
'นศ'
'นวาเ'
'นวางแผน'
'นลา'
'นละล'
'นรำก_'
'นราช'
'นระร_'
'นระบ'
'นระด_'
'นรอน'
'นรอง'
'นรว'
'นรก_'
'นยาวน'
'นยาว_'
'นยาท_'
'นยากท_'
'นยอด'
'นยอง'
'นยก'
'นมาแ'
'นมาเลย'
'นมามาก'
'นมาพบ'
'นมาบ'
'นมาด_'
'นมาซ'
'นมาจากไหน_'
'นมาจาก_'
'นมากแค_'
'นมากเลย'
'นมากเ'
'นมอง'
'นมหา'
'นมร'
'นภาพหลอน'
'นฟ'
'นพโย_'
'นพอ_'
'นพวกแ'
'นพวกเรา'
'นพวกม_'
'นพระ'
'นพยายามแล_'
'นพยาน'
'นพบ_'
'นฝร_'
'นผล_'
'นผมไ'
'นผมห'
'นปราก'
'นปฏ_'
'นบางอย_'
'นบางค'
'นบอกเธอ'
'นบอกเขา'
'นบอกฉ_'
'นบร'
'นบนทาง'
'นบน_'
'นบทเร_'
'นนำ'
'นนาเ'
'นนาน'
'นนะคร_'
'นนอก'
'นธรรมชาต_'
'นทำแบบน_'
'นทำอ'
'นทำส_'
'นทำส'
'นทำลาย'
'นทำผ'
'นทำก_'
'นทายาท'
'นทางโดย'
'นทางเ'
'นทางมา'
'นทางด_'
'นทา'
'นทหาร_'
'นทรมาน'
'นทนาย_'
'นถามเ'
'นถอ'
'นตำแหน_'
'นตายแ'
'นตามส'
'นตะ'
'นตอนเ'
'นตอนอ'
'นตลอด_'
'นตรายมาก_'
'นตรายท_'
'นตนาการไ'
'นตนาการถ_'
'นตนาการ_'
'นต'
'นดาวเ'
'นดาร'
'นด'
'นซาบซ_'
'นซะหน_'
'นซอ'
'นชอบม'
'นชอบท_'
'นชอบ_'
'นชน'
'นฉลา'
'นจำไม_'
'นจำอะไร'
'นจำนวนมาก'
'นจากม'
'นจะไปแ'
'นจะไปด_'
'นจะเจอค_'
'นจะเจอ'
'นจะเข_'
'นจะออกไป'
'นจะออก'
'นจะสา'
'นจะร'
'นจะพาพวก'
'นจะพา'
'นจะพ_'
'นจะป'
'นจะน_'
'นจะทำอะไร'
'นจะทำย_'
'นจะทำม_'
'นจะทำ_'
'นจะท'
'นจะถ'
'นจะตา'
'นจะซ_'
'นจะช'
'นจะจบ'
'นจะก'
'นจบ_'
'นจนก'
'นงานท_'
'นคำถาม'
'นคาดเดา'
'นคาด'
'นคอล_'
'นความห'
'นความส_'
'นความฝ_'
'นความต'
'นควรเป_'
'นควรทำ'
'นควรจะเ'
'นคล'
'นครอบคร_'
'นคนไข_'
'นคนไ'
'นคนโ'
'นคนแรกท_'
'นคนแปล'
'นคนเห_'
'นคนล'
'นคนบอก'
'นคนจ_'
'นคนขอ'
'นคนข'
'นคงแ'
'นคงเ'
'นคงม'
'นคงพ'
'นคงด_'
'นคงช_'
'นคงจะไม_'
'นคงจะเ'
'นขอโทษท_'
'นขอโทษด_'
'นขอโทษ'
'นขอแ'
'นขอบ'
'นของโ'
'นของแก_'
'นของเล_'
'นของเรา_'
'นของเรา'
'นของเธอ_'
'นของเจ_'
'นของเขา'
'นของส'
'นของพวกเ'
'นของผ'
'นของนาย_'
'นของนาย'
'นของต_'
'นของการ'
'นขอ_'
'นขย'
'นกำ'
'นการแสดง'
'นการอ'
'นการพ'
'นการป'
'นการทำ'
'นการตาย'
'นการก'
'นกา'
'นกอง'
'นกหว_'
'นกว'
'นกระบ'
'นกร_'
'นกด'
'นกฏ'
'ธารณ'
'ธอไป_'
'ธอแล_'
'ธอน'
'ธอจ'
'ธรรมดาแ'
'ธม_'
'ธนาคาร_'
'ธน'
'ทโ'
'ทแล'
'ทแมน'
'ทเมนท_'
'ทเม'
'ทเน_'
'ทเธญเธ'
'ทำไมแ'
'ทำไมเหรอ_'
'ทำไมเรา'
'ทำไมเขาถ_'
'ทำไมละ_'
'ทำไมพวกเธอ'
'ทำไมผมต_'
'ทำในส_'
'ทำแล_'
'ทำแบบ'
'ทำเป_'
'ทำเช_'
'ทำเค'
'ทำอะไรใ'
'ทำอะไรอย_'
'ทำห'
'ทำว'
'ทำลายค'
'ทำลาย_'
'ทำลงไป_'
'ทำมา'
'ทำพ'
'ทำบ_'
'ทำนองน_'
'ทำตามค'
'ทำงานไ'
'ทำงานห'
'ทำงานส'
'ทำงานน'
'ทำงานต'
'ทำความสะอาด'
'ทำความ'
'ทำค_'
'ทำค'
'ทาวน_'
'ทาว'
'ทารก_'
'ทาย'
'ทานข_'
'ทางเทคน_'
'ทางออกท_'
'ทางอ'
'ทางหน_'
'ทางส_'
'ทางล'
'ทางด_'
'ทางช'
'ทางคร'
'ทางของเรา'
'ทางของเ'
'ทางกายภาพ'
'ทางก_'
'ทะเลสาบ'
'ทะเบ_'
'ทอล'
'ทอดท_'
'ทอง_'
'ทอ_'
'ทหลวง'
'ทสน'
'ทว'
'ทฤษฎ_'
'ทราย'
'ทราบแ'
'ทรอย'
'ทรยศ'
'ทรมา'
'ทรก'
'ทพเจ_'
'ทพ_'
'ทพ'
'ทบจะไม_'
'ทบ_'
'ทนา'
'ทนท'
'ทนก'
'ทธาในต_'
'ทธา_'
'ทธา'
'ทธ'
'ทดสอบเ'
'ถามไ'
'ถามเร_'
'ถามอะไรค_'
'ถามอะไร'
'ถามผม'
'ถามจร_'
'ถามค_'
'ถาน'
'ถอยไป'
'ถอยก'
'ถอนคำ'
'ถอ'
'ถม_'
'ถนา'
'ถนนเ'
'ถง'
'ถค_'
'ตได_'
'ตให_'
'ตใจ_'
'ตใ'
'ตโ'
'ตและ'
'ตแพทย_'
'ตเซ'
'ตเจ'
'ตำรวจและ'
'ตำรวจพ'
'ตำรวจน_'
'ตำ'
'ตาล_'
'ตายไป_'
'ตายใน'
'ตายแน_'
'ตายแ'
'ตายท'
'ตายจาก'
'ตามใจน'
'ตามแ'
'ตามหาเ'
'ตามห'
'ตามสบาย_'
'ตามมา_'
'ตามปกต_'
'ตามทาง'
'ตามค'
'ตามกฎหมาย'
'ตามก'
'ตาก_'
'ตอบด_'
'ตอนไหน'
'ตอนเช_'
'ตอนเข'
'ตอนอ'
'ตอนส'
'ตอนพ'
'ตอนผม'
'ตอนประ'
'ตอนบ_'
'ตอนต_'
'ตอนจ'
'ตอนกลาง'
'ตสำ'
'ตศาสตร_'
'ตว'
'ตลอดไ'
'ตลอดเวลาท_'
'ตลอดห'
'ตลอดช_'
'ตลอดกาล'
'ตลกเลยนะ_'
'ตลกเ'
'ตลกน'
'ตรเครด_'
'ตรา_'
'ตระก'
'ตรอด'
'ตรหน_'
'ตรศ'
'ตรวจพ'
'ตรวจด_'
'ตรมา'
'ตรงโน_'
'ตรงม_'
'ตรงข'
'ตรงกลาง'
'ตม'
'ตภ_'
'ตป_'
'ตนา'
'ตท'
'ตซ'
'ตของเขา_'
'ตของนาย'
'ตของฉ_'
'ตของค_'
'ตกเ'
'ตกหล_'
'ตกสวรรค_'
'ตกลงไหม'
'ตกลงไ'
'ตกลงม'
'ตกลงต'
'ตกน_'
'ดไปเ'
'ดไปห'
'ดไดรฟ_'
'ดในเ'
'ดโปร'
'ดโปง'
'ดโทร'
'ดโต_'
'ดโก'
'ดและความ'
'ดแบบเ'
'ดแต_'
'ดเอา'
'ดเวลา_'
'ดเวย_'
'ดเลยนะ'
'ดเราไม_'
'ดเพ'
'ดเน'
'ดเท'
'ดเตร_'
'ดเด'
'ดเซ'
'ดเชย'
'ดเจอ'
'ดเจน_'
'ดเง_'
'ดเขาไ'
'ดเขา_'
'ดเขา'
'ดเข_'
'ดเกม_'
'ดาโ'
'ดาวเ'
'ดาวดวง'
'ดาร'
'ดาม'
'ดาน_'
'ดาด'
'ดาของ'
'ดะ_'
'ดอะไรเลย_'
'ดอะไรเ'
'ดอะไรออก'
'ดอะไรอย_'
'ดอะไรส_'
'ดอะไรท_'
'ดอะไรของ'
'ดอะ'
'ดอลลาร_'
'ดอล'
'ดอยาก'
'ดอกเ'
'ดอก'
'ดหาท'
'ดหล'
'ดหรอก_'
'ดหม_'
'ดหม'
'ดสน'
'ดสง'
'ดลอง'
'ดลอก'
'ดลง_'
'ดระเบ_'
'ดยไม_'
'ดยอดเ'
'ดมาแล_'
'ดมาเ'
'ดมาท_'
'ดมาต'
'ดมาจาก'
'ดมน'
'ดพวกเ'
'ดพวกน_'
'ดพร_'
'ดผมเ'
'ดผม_'
'ดผ'
'ดปล_'
'ดบอ'
'ดนด_'
'ดทำไม'
'ดทำค'
'ดทาง'
'ดถนน'
'ดถ'
'ดตามเ'
'ดตามตรง'
'ดตร'
'ดต'
'ดซะ_'
'ดชา'
'ดฉากใ'
'ดจำก_'
'ดจา'
'ดจะแ'
'ดจน'
'ดคำว_'
'ดความส'
'ดคร_'
'ดขาด_'
'ดขา'
'ดของโ'
'ดของเธอ_'
'ดของเค'
'ดของเขา'
'ดของนาย'
'ดของก'
'ดขวา'
'ดการให'
'ดการแ'
'ดการเอง'
'ดการม_'
'ดการต'
'ดการจ'
'ดการค'
'ดกฏหมาย'
'ณไปท'
'ณใส_'
'ณโอ'
'ณโทรมา'
'ณโชคด_'
'ณโกรธ_'
'ณแพ'
'ณแก'
'ณเลยนะ'
'ณเบ'
'ณเน_'
'ณเธ'
'ณเท'
'ณเด'
'ณเจ'
'ณาธ_'
'ณาจ_'
'ณฮ_'
'ณอาย_'
'ณอาจจะไ'
'ณออกไป'
'ณอยากร_'
'ณหล_'
'ณหร_'
'ณหมอ'
'ณสามารถห'
'ณสามารถ_'
'ณสอ'
'ณสวย'
'ณสว'
'ณสน'
'ณย'
'ณมาค'
'ณมากเ'
'ณมากคร_'
'ณมากค_'
'ณมาก'
'ณมองหา'
'ณฟ'
'ณพอจะ'
'ณบา'
'ณบร'
'ณนายเ'
'ณนะคะ_'
'ณนอ'
'ณน'
'ณทำได_'
'ณทำอะไรน_'
'ณทำอะไรก_'
'ณทำอะไร_'
'ณทำม_'
'ณทำค'
'ณตา'
'ณตอน'
'ณตลอด'
'ณด'
'ณซะ_'
'ณชนะ'
'ณช'
'ณจำเ'
'ณจำช'
'ณจาก'
'ณจะแ'
'ณจะเส_'
'ณจะเล_'
'ณจะออก'
'ณจะอย_'
'ณจะห'
'ณจะส'
'ณจะว_'
'ณจะม'
'ณจะพบว_'
'ณจะบอก'
'ณจะบ_'
'ณจะถ_'
'ณจะถ'
'ณจะจ'
'ณจะกล_'
'ณจ'
'ณฆ_'
'ณควรร_'
'ณควรท'
'ณคว_'
'ณคน'
'ณคงร_'
'ณค'
'ณข'
'ฒเน_'
'ฒเธ'
'ฐานส'
'ฐาน_'
'ฐอ'
'ฐม'
'ฏหมาย_'
'ญให_'
'ญใ'
'ญแจไ'
'ญแ'
'ญเปล_'
'ญเธขเ'
'ญอะไร'
'ญอ'
'ญหาได_'
'ญหาให'
'ญหาเ'
'ญหาอะไรไหม'
'ญหาห'
'ญหาส_'
'ญหาของค_'
'ญหรอก_'
'ญห'
'ญส'
'ญมา'
'ญญาแ'
'ญญาม'
'ญญาณเ'
'ญญาณร'
'ญญาณของ'
'ญญาของ'
'ญญากา'
'ญชาตญาณ'
'ญชา_'
'ญช'
'ญฉ'
'ญของเรา'
'ญก'
'ฌอน'
'ฌ'
'ซโล'
'ซเธฃเธ'
'ซาโ'
'ซาแ'
'ซาเบล'
'ซาเบ_'
'ซาล'
'ซาตาน'
'ซาช'
'ซาก_'
'ซอน_'
'ซอน'
'ซวย_'
'ซมม'
'ซมก_'
'ซนด_'
'ซน_'
'ซต_'
'ซซา'
'ซก_'
'ชแ'
'ชเน_'
'ชาแ'
'ชาวไ'
'ชายไ'
'ชายอ'
'ชายส'
'ชายร_'
'ชายมา'
'ชายผ_'
'ชายน_'
'ชายต'
'ชายก_'
'ชาม'
'ชาน_'
'ชาน'
'ชาชน'
'ชา_'
'ชะล'
'ชอย'
'ชอบส'
'ชอบคำ'
'ชรา'
'ชมรม'
'ชมพ_'
'ชนไม_'
'ชนะเ'
'ชท_'
'ชญากรรม'
'ชช_'
'ชง'
'ชกร'
'ฉายา'
'ฉา'
'ฉลาดเ'
'ฉลาดมาก_'
'ฉลาดท_'
'ฉพาะก'
'จให_'
'จใ'
'จเห'
'จเร_'
'จำนวนม'
'จำน'
'จำค'
'จำ_'
'จาเร_'
'จารณาคด_'
'จารณ_'
'จาร'
'จากโ'
'จากแม_'
'จากเว'
'จากเค'
'จากส_'
'จากรถ'
'จากร'
'จากม_'
'จากม'
'จากพวก'
'จากน'
'จากท'
'จากต_'
'จากด'
'จากจ_'
'จากคำ'
'จากคน'
'จากข_'
'จากการเ'
'จะโทร'
'จะแสดง'
'จะแต'
'จะเอาชนะ'
'จะเหม'
'จะเส_'
'จะเส'
'จะเล_'
'จะอ_'
'จะหาย'
'จะหย_'
'จะหน_'
'จะสร_'
'จะลองด_'
'จะระ'
'จะย'
'จะมาเ'
'จะมาถ_'
'จะมอบ'
'จะฟ_'
'จะพา'
'จะบอกอะไร'
'จะบอกฉ_'
'จะทำได_'
'จะทำอะไร_'
'จะทำอย_'
'จะทำลาย'
'จะทำย_'
'จะทำม_'
'จะทำง'
'จะตก'
'จะซ_'
'จะชอบ'
'จะจ'
'จอเ'
'จออะไร_'
'จอพ_'
'จอด'
'จอค'
'จห'
'จส'
'จล_'
'จรา'
'จรรย_'
'จรจา'
'จบเร_'
'จบก_'
'จนได_'
'จนห'
'จนม_'
'จต'
'จด'
'จซ'
'จการ'
'งๆใช_'
'งๆหรอ'
'งๆน'
'งๆก'
'งไห'
'งไม'
'งไปไห'
'งไปก_'
'งไงเ'
'งไงว'
'งไงม'
'งไงผมก_'
'งไงด_'
'งในส_'
'งในส'
'งใดท_'
'งใจมา'
'งใจฟ_'
'งใจข'
'งใครท_'
'งโลก_'
'งโร'
'งโต_'
'งโดย'
'งโก_'
'งแฮม'
'งแห'
'งแสน'
'งแรกของ'
'งแปล'
'งแท'
'งแดง'
'งเเ'
'งเหรอค'
'งเหต_'
'งเห'
'งเสมอ'
'งเวลาน'
'งเวลาท_'
'งเวท'
'งเว'
'งเลยนะ_'
'งเราก'
'งเถอะ'
'งเต'
'งเฉย'
'งเจออ'
'งเขาเ'
'งเกล'
'งเกตม'
'งเก'
'งานเป_'
'งานอ'
'งานห'
'งานศ'
'งานร_'
'งานมา'
'งานพ'
'งานป'
'งานทำ_'
'งานต_'
'งานฉ_'
'งานค_'
'งานของเ'
'งานของฉ_'
'งานของค_'
'งานของ'
'งานก_'
'งาของ'
'งฮอ'
'งอาบน_'
'งอะไร'
'งอะ_'
'งอยากร'
'งอยากจะ'
'งอก'
'งหาอ'
'งหวะ_'
'งหล'
'งหรอก'
'งหมดไ'
'งหมดใน'
'งหมดห'
'งหมดม'
'งหมดค'
'งหมดของเ'
'งหมดก_'
'งหก'
'งสำค_'
'งสามค'
'งสาม'
'งสองคน'
'งสอง_'
'งสมบ_'
'งสน'
'งสถาน'
'งสง'
'งวอน_'
'งวอ'
'งลา'
'งลงมา_'
'งราย'
'งระด_'
'งระ'
'งรอใ'
'งรวบรวม'
'งรถเข_'
'งรถ_'
'งยาก_'
'งมาเ'
'งมาร'
'งมาท_'
'งมากมาย_'
'งมากท_'
'งมอบ'
'งมอ'
'งมน_'
'งภ'
'งพอใ'
'งผา'
'งผม_'
'งปว'
'งปล_'
'งประม'
'งปฏ_'
'งปก'
'งบอกว_'
'งนะคร_'
'งทำไ'
'งทำเ'
'งทำม'
'งทำงานก_'
'งทำงาน'
'งทางอ'
'งทอ'
'งตอนน_'
'งตอน'
'งตร'
'งตก_'
'งตก'
'งดาบ'
'งดงาม_'
'งซะ'
'งซวย'
'งชน'
'งช'
'งจำได_'
'งจากเขา'
'งจากค'
'งจากการ'
'งจาก_'
'งจะไปไหน'
'งจะไปท'
'งจะไ'
'งจะเส'
'งจะม_'
'งจะตาย'
'งจะต_'
'งจะจ_'
'งจะฆ_'
'งจะข_'
'งจร'
'งจ'
'งงานแ'
'งงานเห'
'งงานส'
'งงานจ'
'งคาร_'
'งคาร'
'งความท'
'งความตาย_'
'งความจ'
'งควบค_'
'งคว'
'งคลา'
'งคราม_'
'งคมข'
'งคม_'
'งคนอ'
'งคนท_'
'งคงไ'
'งคงอย_'
'งของเรา'
'งของร_'
'งของนาย'
'งของต_'
'งของข'
'งขยะ_'
'งกำ'
'งการส'
'งการล'
'งการก'
'งกาย'
'งกดด_'
'ฆาตกรของเรา'
'ฆา'
'ฅเธ'
'คได_'
'คแฮ'
'คเวล'
'คเค_'
'คเค'
'คเก_'
'คเก'
'คำโ'
'คำแนะนำเ'
'คำสา'
'คำปร_'
'คำถามค_'
'คำตอบค_'
'คาโ'
'คาเรน'
'คาเม'
'คาลอส_'
'คาล_'
'คารพ_'
'คาร'
'คาย'
'คาป_'
'คาน'
'คาดหว_'
'คะแนนส'
'คะค_'
'คฮ'
'คอลล_'
'คอยก'
'คอนเน'
'ความโกรธ'
'ความแข_'
'ความเห_'
'ความเร_'
'ความเช_'
'ความเจ_'
'ความเค'
'ความเกล_'
'ความอดทน'
'ความหมายอะไร'
'ความสามารถ'
'ความสะอาด'
'ความสนใจของ'
'ความภาคภ_'
'ความพ'
'ความปรา'
'ความป'
'ความทรงจำ'
'ความต_'
'ความซ_'
'ความช'
'ควอน'
'ควรได_'
'ควรเ'
'ควรอย_'
'ควรจะทำ'
'ควร_'
'ควง'
'คลาย'
'คลอเด_'
'คฤหาสน_'
'ครไป'
'ครใจ'
'คราวหน_'
'คราม_'
'คราบ'
'ครอบคล_'
'ครอง'
'ครซ'
'ครงการ'
'คยเ'
'คยอง'
'คป'
'คบอ'
'คบ_'
'คนๆน_'
'คนๆ'
'คนได_'
'คนแปล'
'คนแค'
'คนแก_'
'คนเจ'
'คนเข_'
'คนห'
'คนล_'
'คนย'
'คนพ_'
'คนป_'
'คนป'
'คนบางคน'
'คนบน'
'คนท'
'คนตาย_'
'คนง'
'คนค_'
'คนขาย'
'คนของเรา'
'คนของค_'
'คนข'
'คนก_'
'คตอเร_'
'คณะ'
'คณ_'
'คซ_'
'คช'
'คจ'
'คงแ'
'คงเ'
'คงพ_'
'คงจะเ'
'คของ'
'คข'
'ฃเธ_'
'ฃ_'
'ขใ'
'ขาได_'
'ขาให_'
'ขาใ'
'ขาโ'
'ขาอย_'
'ขาหร_'
'ขาส_'
'ขาว_'
'ขายใ'
'ขายเ'
'ขายห'
'ขาท_'
'ขาจะ'
'ขาข'
'ขาก'
'ขอไ'
'ขอโทษเร_'
'ขอโทษนะคะ_'
'ขอโทษจ'
'ขอส'
'ขอรอ'
'ขอย_'
'ขอม'
'ขอพ'
'ขอประ'
'ขอบใจนะ_'
'ขอบใจท_'
'ขอบเ'
'ขอท_'
'ขอถ'
'ของโลก'
'ของโร'
'ของแก_'
'ของเหล'
'ของเล_'
'ของเราเ'
'ของเพ'
'ของเธอไม_'
'ของเท'
'ของเจ'
'ของสม'
'ของล'
'ของพวกเขา'
'ของพระเ'
'ของผมใ'
'ของประเทศ'
'ของบร_'
'ของบ'
'ของน'
'ของท'
'ของด_'
'ของช'
'ของจร_'
'ของจ_'
'ของคนท_'
'ของของ'
'ของการเ'
'ของกร'
'ขอค'
'ขอข'
'ขอก'
'ขวางทาง'
'ขยง_'
'ขนาน'
'ขตห'
'ขข'
'ขก'
'กๆไ'
'กๆท_'
'กไปแล'
'กใต_'
'กใครบ'
'กใคร'
'กโอ'
'กโทษ_'
'กโทร'
'กโจมต_'
'กโง_'
'กแหลม'
'กแล'
'กแม_'
'กแทง'
'กเอา'
'กเอ_'
'กเหล_'
'กเห_'
'กเสบ'
'กเยอะ_'
'กเพ_'
'กเบ_'
'กเธอใ'
'กเช_'
'กเง_'
'กำม'
'กาเบ'
'การได_'
'การไ'
'การให_'
'การเอา'
'การเส_'
'การเล_'
'การเปล_'
'การเด_'
'การเก_'
'การออก'
'การอย_'
'การหา'
'การสอ'
'การสม'
'การศ_'
'การล'
'การย_'
'การมา'
'การฟ'
'การพ'
'การประช_'
'การป_'
'การนอ'
'การทาง'
'การทดสอบ'
'การถ'
'การตา'
'การง'
'การคล'
'การของ'
'กาบ'
'กาจ'
'กางเกงใน'
'กาก_'
'กะจ'
'กอาย_'
'กออกแ'
'กองปราบ'
'กองก'
'กหวาน'
'กหลาย'
'กหรอ'
'กหก'
'กสาวเขา'
'กสาวของเ'
'กสาร'
'กสา'
'กสองเ'
'กสร_'
'กสน_'
'กสต'
'กสง'
'กษาใ'
'กษาห'
'กษาส_'
'กษาท_'
'กษาด_'
'กษาค_'
'กษาของ'
'กษาก_'
'กษร'
'กลแ'
'กลางเม_'
'กลางว_'
'กลจ'
'กราเซ_'
'กระเบ'
'กระเท_'
'กระหม_'
'กระพร_'
'กระบอ'
'กระบวนการ'
'กระจายไป'
'กระจาย_'
'กรอบ_'
'กรอบ'
'กรอก'
'กรวาลเ'
'กรรมท_'
'กรณ_'
'กยก'
'กย'
'กมาน_'
'กมากมาย'
'กมา_'
'กม'
'กภ'
'กพอ'
'กปล'
'กประห'
'กประก_'
'กบาง'
'กบอล'
'กบร_'
'กนำมา'
'กนอ'
'กน'
'กทำให_'
'กทาย_'
'กถ'
'กตอน'
'กต'
'กดอ'
'กฐานไม_'
'กฐานห'
'กฐานท_'
'กฎข_'
'กซานเดอร_'
'กซา'
'กซอว_'
'กซ'
'กชายเป_'
'กชายอ'
'กชายผม_'
'กชายคน'
'กชายของเ'
'กจะไ'
'กจะเก'
'กจะอย_'
'กจะทำ'
'กจอ'
'กงานค_'
'กงานของ'
'กงน'
'กง_'
'กง'
'กฆาตกรรม_'
'กคาม'
'กคร'
'กคนเย'
'กคนเข_'
'กคนอ'
'กคนล'
'กคนร'
'กคนม_'
'กคนพ'
'กคนนะ_'
'กคนท'
'กคนค_'
'กคนก_'
'กขโมย'
'กของพวกเ'
'กของผม'
'กของจ'
'กขน'
'กกำล_'
'กการ_'
'ก5'
'ê_'
'ê'
'é'
'ère_'
'ág_'
'á'
'´'
''
''
'~'
'zzle'
'zz_'
'zur'
'zin'
'zes_'
'zation_'
'yะพu_'
'yะ'
'yw'
'yu_'
'ythm'
'yth'
'yst'
'ysi'
'ys'
'yri'
'youth_'
'young'
'yne_'
'ymo'
'ym'
'yli'
'yle'
'yers_'
'yep_'
'yeo_'
'yell_'
'yea'
'ye_'
'ycle'
'yc'
'yak'
'xus_'
'xter_'
'xt'
'xp'
'xide_'
'xic'
'xia'
'xes_'
'xed'
'wะต'
'ws'
'wrist'
'wri'
'wrap_'
'wood'
'woo_'
'wonder'
'wond'
'wolves_'
'wns_'
'wn'
'witness'
'withdraw'
'wit'
'wis'
'wipe_'
'wipe'
'winter_'
'winn'
'wingman_'
'will'
'wil'
'wick'
'whoop'
'whol'
'whisk'
'whipped_'
'whip_'
'when'
'wheel'
'what'
'whacking_'
'werewolf_'
'wer_'
'wei'
'weekends_'
'weed_'
'wee_'
'wee'
'wed'
'wb'
'wasting_'
'wasteland_'
'washed_'
'wash_'
'warrior'
'warrant_'
'warp'
'warning_'
'wards_'
'want'
'wander'
'wan_'
'walks_'
'walki'
'walker'
'waking_'
'wakes_'
'waiter'
'wait'
'wage'
'wag'
'vulnerable_'
'vu'
'vow'
'vote_'
'vote'
'von_'
'volu'
'voice'
'viv'
'vit'
'virtu'
'vious_'
'violated_'
'violat'
'vio'
'vine'
'vin'
'ville_'
'villagers_'
'vig'
'view'
'video'
'vid'
'vice_'
'via_'
'via'
'vete'
'vest'
'versa'
'vers_'
'veri'
'veni'
'vende'
'vely_'
'vein'
'vegeta'
'vault_'
'vate_'
'vamp'
'valuable_'
'vag'
'vad'
'uza'
'utt'
'uts'
'uting_'
'utili'
'ustrati'
'ust'
'usion_'
'user'
'use'
'urs'
'urn'
'urb'
'ural_'
'ura_'
'upp'
'uphol'
'update'
'unusual_'
'unre'
'unr'
'unp'
'unm'
'university_'
'units_'
'unique_'
'unhappy_'
'unh'
'unds_'
'undo'
'undete'
'underwear_'
'underst'
'unde'
'uncon'
'unco'
'uncle'
'ume'
'umbrella'
'umb'
'uman'
'ulte'
'ulsi'
'ulle'
'ull'
'uld'
'ulc'
'ulations_'
'ulation_'
'ulat'
'ular_'
'uko'
'uka_'
'uh'
'ughter'
'uel_'
'ude_'
'ucta'
'uchi'
'uat'
'uard'
'uage'
'tะพ'
'typi'
'twisted_'
'twist_'
'tv'
'turtle'
'ture'
'tura_'
'tude_'
'tub'
'tty'
'ttering_'
'tter'
'tte'
'trusting_'
'trum'
'trucks_'
'truc'
'troubles'
'troubled_'
'tribe'
'trials_'
'tres'
'treated_'
'treasure_'
'trea'
'tray'
'traveling_'
'travel'
'trash'
'transport'
'transmission_'
'translat'
'transform'
'transfer_'
'tradition_'
'tradi'
'trade_'
'tracke'
'trac'
'toys_'
'toy_'
'toxic_'
'toxi'
'towns_'
'tow_'
'tour'
'tou'
'tosse'
'tory_'
'tort'
'tori'
'tops_'
'top'
'tons_'
'token_'
'tler_'
'tled'
'tiva'
'title'
'tis'
'tips_'
'tip_'
'tional_'
'tiny'
'tinent_'
'tine_'
'timel'
'til'
'tightly_'
'tiger'
'tif'
'tier'
'tickets_'
'tick'
'tic'
'tial'
'thะ'
'thy'
'thum'
'thu'
'threats_'
'threat_'
'thousands_'
'thirst'
'thinkin_'
'thie'
'therefore_'
'ther_'
'theor'
'them'
'thele'
'theatr'
'that'
'thanking_'
'thank'
'tfo'
'tex'
'teu'
'tests_'
'testimony_'
'testi'
'testament_'
'test'
'tern_'
'terms_'
'teri'
'ten'
'tempo'
'temple'
'temper'
'tee'
'technolog'
'technically_'
'technical_'
'techni'
'tech'
'teau_'
'tches_'
'tchen_'
'taxes_'
'tav'
'tattoo_'
'task_'
'targets_'
'tard_'
'tar'
'tape'
'tap_'
'tang'
'talks_'
'tal_'
'taker_'
'tak'
'tail_'
'tai'
'tack'
'tablet'
'tables_'
'tab'
'symp'
'symbols_'
'syl'
'swindle'
'swift_'
'swell_'
'sweep'
'swe'
'swamp'
'swallowed_'
'sustain'
'suspects_'
'suspe'
'survivors_'
'survivor_'
'survival_'
'surrender_'
'surpris'
'surp'
'surgeon'
'surely_'
'supporte'
'suppo'
'suppl'
'supers'
'superh'
'sup_'
'sunshine_'
'sund'
'suggestion'
'suggesting_'
'sugar_'
'suffocat'
'suffered_'
'suffer'
'sucker_'
'success_'
'succ'
'subse'
'subconscious_'
'sub_'
'sty'
'stupid'
'strong'
'stroke_'
'strings_'
'string_'
'striking_'
'stric'
'stretche'
'streaming_'
'strate'
'strangers_'
'stran'
'stori'
'stops_'
'stoo'
'ston_'
'stly_'
'stle'
'stitche'
'stir'
'stink'
'stimulat'
'stil'
'stic_'
'stew'
'stere'
'stems_'
'sted_'
'stead'
'stea'
'statistic'
'statement'
'start'
'starin'
'stare_'
'star'
'stabb'
'sson_'
'ssive_'
'sque'
'squat'
'squad_'
'spring_'
'spread'
'sport_'
'spoon'
'spoiled_'
'spli'
'spite'
'spit'
'spirit'
'spilled_'
'spill'
'speeding_'
'specifically_'
'spear'
'speaker'
'sour'
'sound'
'sort'
'sore_'
'sonogram_'
'song'
'sometime_'
'somethin_'
'some'
'sole'
'sock_'
'soak'
'snu'
'sneaky_'
'sneaking_'
'sneake'
'snag_'
'smu'
'sme'
'smashed_'
'smash_'
'smarter_'
'smart'
'smaller_'
'sly_'
'slu'
'slowly_'
'slow'
'slipp'
'slin'
'slim'
'slid'
'slic'
'sleeps_'
'sleeper_'
'sleep'
'sled_'
'slave_'
'slate'
'slap'
'slack'
'sl'
'skir'
'skip'
'skinne'
'skill'
'ski'
'siz'
'sixt'
'siren_'
'sire'
'sip_'
'sincere'
'silver_'
'silk'
'silence_'
'signature_'
'shuttle_'
'shri'
'shov'
'shout'
'shortcut_'
'short'
'shore_'
'shoots_'
'shooter_'
'shoe'
'shocking_'
'shma'
'shitt'
'shit'
'shin'
'shifter_'
'sheriff_'
'shelves_'
'sheer_'
'shee'
'shave'
'shark_'
'shan'
'sexy_'
'severe'
'settle'
'setting_'
'service'
'served_'
'seri'
'seque'
'separate'
'sent'
'senseless_'
'sense'
'sens'
'senior_'
'senator_'
'sen_'
'semester_'
'sem'
'sells_'
'selling_'
'select'
'seeking_'
'seducti'
'seduce'
'secure_'
'secu'
'sector_'
'sect'
'seburger'
'seat'
'seal_'
'scuba_'
'scu'
'scru'
'script'
'screen'
'screaming_'
'scream'
'scre'
'scratch'
'scrambl'
'scra'
'scout'
'scotch_'
'scope_'
'scoffs_'
'schools_'
'scheme_'
'scheduled_'
'schedule_'
'scav'
'scat'
'scaring_'
'scare'
'scape_'
'scan_'
'scale_'
'sb'
'sav'
'sauce_'
'satisfy'
'satisfied_'
'satisfaction_'
'satellite_'
'sat_'
'sanit'
'sang'
'sands_'
'sand'
'salva'
'sales'
'sala'
'sailor'
'sail_'
'sai'
'sadness_'
'sad'
'rะต'
'rv'
'rusty_'
'rus'
'rupt'
'rum'
'rud'
'rubbish_'
'rub_'
'rub'
'rtun'
'rts_'
'rte'
'rtain'
'rring_'
'rra'
'rr'
'rpo'
'rpi'
'rp'
'rows_'
'routine'
'rous_'
'rounds_'
'rose'
'ropho'
'room'
'ron_'
'romance_'
'rom'
'rolling_'
'roll'
'rog'
'roe_'
'rocket_'
'rock'
'robe'
'robbed_'
'roast'
'roar'
'road'
'rni'
'rn'
'rmin'
'rly_'
'rle'
'rix_'
'rive'
'rise_'
'riot'
'rior_'
'ringe'
'rights_'
'riel'
'ridd'
'rica'
'rian_'
'rgi'
'rge_'
'rga'
'rf'
'rey_'
'review_'
'rever'
'reveal'
'retired_'
'retaine'
'resu'
'restrict'
'resti'
'ression_'
'respons'
'resolut'
'resist_'
'resident_'
'reside'
'reserv'
'rescue_'
'requirement'
'request'
'reputation_'
'represent_'
'reports_'
'reporter_'
'replace_'
'repla'
'repay_'
'repair_'
'removed_'
'remiss'
'remind'
'remarkable_'
'remaining_'
'remain'
'rem'
'religion_'
'relie'
'rele'
'relaxed_'
'relation'
'related_'
'rela'
'rejected_'
'reject'
'reinvent_'
'reid_'
'reh'
'regist'
'refuse_'
'refugee'
'refle'
'reference_'
'rede'
'recurring_'
'recr'
'recovery_'
'recorde'
'recon'
'recognized_'
'recogni'
'reco'
'recit'
'recent_'
'receiving_'
'rece'
'recall_'
'reborn_'
'reat'
'reasonable_'
'realis'
'reaction_'
'react'
'reac'
'rds_'
'rdin'
'rda'
'rch'
'rce_'
'ravi'
'ratio_'
'rates_'
'rated_'
'ras'
'rape_'
'rant'
'rans'
'rank_'
'rank'
'random_'
'rami'
'ramen_'
'rama'
'ram_'
'rall'
'rali'
'rak'
'railroad_'
'radius_'
'radiation_'
'rade_'
'rack'
'rabbit'
'quot'
'quiz_'
'quis'
'quila_'
'ques'
'quarterback_'
'quarter'
'quarry_'
'quality_'
'q_'
'pussy_'
'pushing_'
'purse_'
'pup_'
'punk_'
'punished_'
'pulse'
'pula'
'puff'
'public'
'pub'
'pu_'
'pton_'
'ption_'
'psychiatri'
'psy_'
'pso'
'provision'
'provide_'
'provide'
'proved_'
'proto'
'protects_'
'prospe'
'pros'
'propose'
'prophecy_'
'property_'
'prone_'
'promises_'
'products_'
'production_'
'product_'
'produce_'
'privacy_'
'priv'
'print_'
'print'
'primary_'
'prim'
'prick_'
'pric'
'prev'
'prettier_'
'pretending_'
'pret'
'pressing_'
'presse'
'preserv'
'presence_'
'pres'
'prer'
'prepar'
'prep_'
'preliminar'
'pref'
'predict'
'pred'
'preceden'
'praye'
'ppr'
'ppo'
'pple_'
'pour'
'pound_'
'potent'
'poster'
'posted_'
'post_'
'possess_'
'poss'
'positive'
'pose'
'ports_'
'portra'
'portal'
'pork'
'populat'
'poof'
'pony_'
'pollut'
'politics_'
'political_'
'poli'
'pole_'
'poke'
'pointe'
'poi'
'poems_'
'poem_'
'pod_'
'plus_'
'plot'
'pled'
'pleased_'
'pleas'
'ple_'
'plast'
'planned_'
'plain'
'placed_'
'piti'
'pite'
'pitch'
'pit'
'piss_'
'pire'
'pirate_'
'pinn'
'pink_'
'pills_'
'phrase_'
'phne_'
'phili'
'phil'
'pher'
'phan'
'peter_'
'pest'
'pes_'
'perver'
'personnel_'
'permanent_'
'period_'
'perimeter_'
'perform_'
'perfectly_'
'peration_'
'pepper'
'penis_'
'penalty_'
'pel'
'pef'
'peer'
'peel'
'pedia'
'pect'
'pearl'
'pd'
'pawn'
'patterns_'
'patt'
'patron'
'patrol_'
'path'
'past'
'passport'
'passionate'
'passes_'
'passenger'
'passage_'
'pass'
'pardon_'
'parameters_'
'paradise_'
'pand'
'palace_'
'painting_'
'painte'
'painful_'
'page_'
'pad'
'packed_'
'pace_'
'pac'
'oy'
'ows'
'owner_'
'owl'
'overt'
'overs'
'ove_'
'outr'
'outli'
'outl'
'ous'
'oto'
'othe'
'oth'
'ost'
'osit'
'osi'
'ose_'
'orta'
'oro'
'orm_'
'orize'
'origin'
'ori_'
'organic_'
'orde'
'orchestra_'
'orb'
'oration_'
'ora_'
'optimistic_'
'ops'
'oppa_'
'opher_'
'operative'
'operati'
'operate'
'ope'
'ooo'
'oo_'
'ony_'
'onst'
'ono'
'onli'
'onis'
'onic'
'ones'
'one'
'ond'
'ona_'
'oming'
'omed'
'ome'
'olv'
'olut'
'oll'
'olive'
'olis_'
'olin'
'oles'
'olds'
'old'
'oko_'
'oki'
'ois'
'oil_'
'oho'
'oh'
'ogra'
'official'
'office'
'offer'
'offended_'
'offen'
'oe'
'odu'
'ock'
'ociat'
'oce'
'occo'
'occasion'
'oca'
'obsession_'
'obsc'
'obligat'
'obli'
'object'
'obe'
'oat'
'oa_'
'nz'
'nym'
'ny'
'nw'
'nurse_'
'nurs'
'numbn'
'ntly_'
'nting_'
'ntic'
'nte'
'nst'
'nr'
'nov'
'nous'
'noti'
'notes_'
'not'
'nost'
'northeast'
'north'
'nor'
'noo'
'noi'
'nod'
'noc'
'nny_'
'nner_'
'nment_'
'nking_'
'nke'
'nj'
'nity_'
'nitu'
'nipple'
'ning'
'nine'
'nies_'
'nick'
'nfor'
'newspaper_'
'neur'
'neu'
'network_'
'nerve_'
'nerd'
'ner'
'negative_'
'neg'
'necessarily_'
'neat'
'nearby_'
'ndo'
'ndel'
'ncy_'
'ncing_'
'nce'
'nc'
'navigat'
'nause'
'national_'
'nation_'
'nati'
'nathan'
'nate'
'nat'
'napkin'
'nando_'
'nam'
'nail_'
'nad'
'mâ_'
'mysteries_'
'myst'
'my'
'mute'
'mutat'
'mut'
'musician'
'mur'
'multiple_'
'mul'
'ms'
'mpy_'
'mpe'
'movies_'
'move'
'mouse_'
'mour'
'motorcycle'
'motor_'
'moti'
'motherfuckin'
'motel_'
'mostly_'
'moronic_'
'moron_'
'moon'
'mood_'
'moo'
'monsters_'
'mono'
'monitoring_'
'monit'
'moment'
'modern_'
'mock'
'mobil'
'mmy_'
'mmed_'
'mixe'
'mitt'
'mitri'
'misunderst'
'mister_'
'missions_'
'mish'
'misc'
'minist'
'minds_'
'minate'
'mily'
'mile_'
'might'
'michael_'
'miami_'
'metro_'
'metric'
'meth_'
'meter_'
'metal_'
'meta'
'messe'
'memorial_'
'members'
'mell'
'mee'
'media'
'med'
'mechanic'
'measure'
'meals_'
'md'
'mc'
'mbl'
'mayo'
'maximum_'
'math'
'master'
'massage_'
'mash_'
'mas'
'marti'
'marke'
'marina_'
'march_'
'mar_'
'manu'
'mann'
'manipulate'
'manifest'
'manh'
'mamma_'
'mam'
'mals_'
'mall'
'male'
'maki'
'maid_'
'magic'
'magazine_'
'mae'
'madam_'
'lyz'
'lyn_'
'luxur'
'lust'
'lti'
'lsa'
'loyal_'
'loves'
'losses_'
'lone'
'lon_'
'locat'
'loc'
'loan_'
'loa'
'ln_'
'ln'
'llows_'
'llow_'
'llo'
'llic_'
'llia'
'liver_'
'livel'
'liv'
'lity_'
'liti'
'literal'
'litera'
'list'
'lish_'
'liquor_'
'liqu'
'lio'
'link'
'limited_'
'limit_'
'limit'
'limb'
'lik'
'lightning_'
'lighter_'
'lift'
'lif'
'lieutenant'
'lica'
'library_'
'lian'
'li_'
'lg'
'lf'
'lev'
'lete_'
'lepr'
'lent_'
'lend_'
'lemo'
'lem'
'lei'
'lega'
'leg'
'lee'
'leas'
'lean'
'leak'
'laying_'
'lawsuit_'
'lawn_'
'laughter_'
'laughed_'
'lau'
'lat'
'laser_'
'las_'
'lap_'
'lang'
'lanc'
'lack_'
'ky'
'kw'
'kung_'
'ks'
'kok_'
'knowledge'
'know'
'knot'
'knock'
'knee_'
'knee'
'klin'
'kle_'
'kis'
'kins'
'kinds_'
'kinde'
'kin'
'kil'
'kidnap'
'kiddo_'
'khouse_'
'ker'
'keeper_'
'kad'
'jã_'
'juvenile_'
'justif'
'just'
'jur'
'junkie'
'jungle_'
'jung_'
'jun'
'jum'
'julie_'
'juice'
'judgment_'
'journey_'
'journali'
'jour_'
'jori'
'joo'
'jon'
'jim'
'jewel'
'jes'
'jeff_'
'janitor'
'jan'
'jack_'
'izing_'
'ization_'
'ivi'
'iver'
'itution'
'itl'
'itive_'
'itc'
'ista'
'isse'
'iso'
'ishe'
'irs_'
'irri'
'iron_'
'ipl'
'ipating_'
'invite_'
'invitation_'
'investigator'
'investigati'
'investigate'
'inv'
'intr'
'intimidated_'
'intima'
'inti'
'inters'
'interrupti'
'interrupt'
'international'
'intern_'
'intern'
'intended_'
'intell'
'insult_'
'instru'
'installed_'
'inspect'
'insisted_'
'insigni'
'insi'
'ins'
'inner_'
'inn'
'initiate'
'inin'
'inherit'
'inh'
'ingu'
'infus'
'informed_'
'informant'
'infinitely_'
'infection_'
'inevitabl'
'ines_'
'inel'
'ined_'
'industry_'
'indu'
'indeed_'
'inct'
'incred'
'include_'
'inciner'
'ination'
'ina_'
'improve'
'impressive_'
'impress_'
'impli'
'immor'
'iment'
'imagined_'
'imaginary_'
'illegal_'
'ille'
'illa_'
'ility_'
'ilia'
'ilat'
'il'
'igu'
'ignored_'
'ignor'
'igat'
'iest_'
'ient'
'ience_'
'iel'
'idol'
'idi'
'identity_'
'identif'
'ideal_'
'ide_'
'ici'
'ication_'
'icat'
'ica_'
'ic'
'ibility_'
'ians_'
'iam'
'iac_'
'hะ'
'hypoc'
'hypno'
'hwan_'
'hut'
'hurting_'
'hunte'
'humou'
'humanity_'
'hug'
'hua'
'ht_'
'ht'
'hro'
'hra'
'household_'
'hotte'
'hotch'
'hostages_'
'host'
'hospitali'
'horror_'
'hormones_'
'hopes_'
'hop_'
'hook_'
'hood_'
'hon_'
'homicide'
'homes_'
'homeless_'
'hom'
'hobby_'
'hn_'
'hn'
'hma'
'hm'
'hitt'
'hir'
'hips'
'hill_'
'hil'
'highest_'
'hie'
'hide'
'hib'
'hia_'
'hh_'
'hesitate_'
'hes_'
'hero'
'herin'
'here'
'hen'
'helm'
'helicopter_'
'heist'
'height_'
'heh_'
'heel'
'hed_'
'heck_'
'heavi'
'heartb'
'healthy_'
'heal_'
'headset_'
'headache'
'hav'
'haul_'
'harsh_'
'harmless_'
'hardw'
'hards'
'hard'
'harass'
'happ'
'handwriting_'
'handling_'
'handful_'
'hamm'
'hallway_'
'hall'
'hal_'
'hal'
'hail_'
'hah'
'hacked_'
'hack'
'gyu'
'gy'
'guts_'
'gus'
'guid'
'gues_'
'guard'
'guarantee_'
'gua'
'gu_'
'gs'
'grunts_'
'grudge'
'groom_'
'grip'
'grind'
'greatly_'
'grea'
'gray_'
'gravity_'
'gras'
'grant'
'grandpa_'
'grandma_'
'grandfather_'
'graduation_'
'grabb'
'govern'
'gor'
'gon'
'golden_'
'gnan'
'gma'
'glu'
'gloves_'
'glori'
'glob'
'gled_'
'glad'
'girlfriends_'
'gir'
'gil'
'gifts_'
'gic'
'ghter'
'ghosts_'
'ghe'
'gh_'
'ggling_'
'ggler'
'ggle'
'gger_'
'gged_'
'gettin_'
'geti'
'gers_'
'geo'
'gentl'
'geni'
'generals_'
'geek'
'gea'
'gaze'
'gates_'
'garbage_'
'gan_'
'gallery_'
'gal'
'gain_'
'gadget_'
'fะ'
'fuzz'
'funding_'
'function_'
'function'
'ful'
'fucker_'
'fty_'
'fto'
'fs'
'fruit'
'frozen_'
'frighten'
'freshman_'
'frequency_'
'freezing_'
'freakin_'
'frankly_'
'fran'
'frame'
'fountain_'
'foul_'
'foster_'
'forms_'
'forgettin'
'forest_'
'forc'
'forbidden_'
'foolish_'
'foo'
'font_'
'folk_'
'fold_'
'fog'
'fm'
'flyer_'
'fluid_'
'flow'
'flood'
'flipp'
'flee'
'fled_'
'flattering_'
'flag'
'fishing_'
'firsthand_'
'fireman_'
'finishing_'
'financ'
'final'
'fin'
'filt'
'filmi'
'fill'
'fil'
'fighters_'
'fighter_'
'fie'
'fication'
'fic_'
'fest_'
'fertili'
'fence_'
'fem'
'fellow'
'feeding_'
'fee_'
'feds_'
'fec'
'fears'
'fea'
'fe_'
'fbi_'
'favour'
'fart'
'fare_'
'fantasy_'
'fans_'
'falls_'
'faith'
'fair'
'faint'
'fagg'
'fad'
'fabric_'
'eze'
'ez_'
'eyewitness'
'eye'
'ey'
'extract'
'extinct'
'extensi'
'exte'
'explode_'
'explanation_'
'expertise_'
'experiences_'
'exper'
'expect'
'expand_'
'existed_'
'exhibit_'
'exhaust'
'exhale'
'execution_'
'exec'
'exe'
'exclu'
'exci'
'exception_'
'excepti'
'exce'
'exam_'
'exaggerat'
'events_'
'evacuate_'
'ety_'
'etti'
'ettes_'
'ette'
'ett_'
'etrat'
'eting_'
'eth'
'eternal_'
'eter'
'ete'
'ests_'
'estr'
'estate_'
'established_'
'essen'
'essed_'
'escort'
'esca'
'eru'
'errands_'
'ero_'
'ero'
'ermilk'
'erma'
'erio'
'erg'
'erent'
'erase'
'eral'
'equi'
'equals_'
'ep_'
'enz'
'environment'
'entirely_'
'entina_'
'entic'
'entering_'
'ente_'
'ensure_'
'eno'
'engineer'
'engaged_'
'endur'
'ender'
'endar'
'ency_'
'encou'
'ench'
'emptive_'
'employee_'
'emotional_'
'emotion'
'emma_'
'emia_'
'emen'
'embarrassed_'
'emb'
'ema'
'elo'
'ellite'
'ellen_'
'elf_'
'elevat'
'electromagnetic_'
'electro'
'electric_'
'electric'
'elder_'
'elb'
'ela'
'eighth_'
'ei_'
'ego'
'eggs_'
'efforts_'
'effective_'
'effect_'
'ef'
'eet_'
'education'
'editor_'
'edit'
'edin'
'edie_'
'edg'
'ede'
'ecut'
'ector_'
'ecc'
'ebo'
'eb'
'eau_'
'ean_'
'ean'
'e'
'dะ'
'dys'
'dynamic'
'dy'
'dunn'
'dul'
'duct_'
'dst'
'ds'
'dropping_'
'drives_'
'dreaming_'
'dream'
'drawn_'
'drawing_'
'drawer'
'dove'
'double_'
'doubl'
'dor_'
'doorman_'
'dont_'
'donor_'
'donat'
'domin'
'domestic_'
'dollar_'
'doe'
'dock'
'dna_'
'dly_'
'dl'
'divi'
'diversi'
'div'
'dit'
'disturb'
'distributor_'
'distri'
'distraction'
'distract_'
'distinct'
'distant_'
'diss'
'display'
'dispers'
'disorder_'
'disor'
'disobe'
'dism'
'disl'
'disi'
'dish'
'discover'
'discon'
'disco_'
'director_'
'dinosaur_'
'din'
'dim'
'digging_'
'dig'
'diet_'
'dict'
'diamond_'
'dg'
'developed_'
'develop'
'devastat'
'detonate'
'deteriorat'
'dete'
'detai'
'destructi'
'destination_'
'destin'
'dest_'
'despise_'
'desire'
'design'
'desert_'
'described_'
'describe_'
'desc'
'depriv'
'depend'
'dentifi'
'denti'
'dent'
'denia'
'deni'
'den'
'demonstrat'
'demi'
'demand_'
'delu'
'delivery_'
'delight'
'degr'
'definiti'
'defend'
'defeat'
'deeply_'
'deeper_'
'dee'
'deduc'
'decr'
'deco'
'deci'
'decent_'
'deca'
'dec'
'debt_'
'debris_'
'dealers_'
'dealer'
'dead'
'ddl'
'ddin'
'dden_'
'dde'
'dd_'
'dave_'
'database'
'darkness_'
'dar'
'dancer_'
'danced_'
'dame'
'dall'
'dah_'
'cycle'
'cuz'
'cutting_'
'cus_'
'cui'
'cue'
'cruiser_'
'cruis'
'crow_'
'crow'
'crosse'
'cross'
'crook'
'crisis_'
'crim'
'crib_'
'creeps_'
'creating_'
'creat'
'crat'
'crashed_'
'crab'
'cr'
'cowboy_'
'coward_'
'cow'
'cover'
'cousin_'
'cous'
'court'
'cour'
'couples_'
'counsel'
'cough'
'costume'
'cos_'
'corpse'
'corporation'
'corpora'
'corne'
'core_'
'cora'
'cooperate'
'cooling_'
'convenient_'
'conv'
'control'
'contri'
'contra'
'continues_'
'contin'
'content_'
'contain_'
'contain'
'contacted_'
'cont'
'consul'
'constructi'
'constan'
'consistent'
'considering_'
'cons_'
'connections_'
'congratulations_'
'confusi'
'confront'
'confirms_'
'confirmed_'
'confirm_'
'confident_'
'confessi'
'confess_'
'condu'
'concl'
'concentrate_'
'concentrat'
'conceived_'
'conc'
'compose'
'complic'
'competing_'
'competi'
'compensate_'
'compell'
'compe'
'compass_'
'compare_'
'communication'
'communicate_'
'commun'
'commi'
'commander_'
'command'
'comin'
'comed'
'come'
'combine'
'column'
'colour_'
'color'
'collecting_'
'collecti'
'collect_'
'colleague'
'collapse'
'coin'
'coff'
'codes_'
'clubs_'
'clown_'
'clomp_'
'cloak_'
'climb'
'clients_'
'click'
'cleaning_'
'cleaner_'
'cle_'
'claw'
'classic'
'classes_'
'class'
'claims_'
'claim_'
'cks_'
'ckling_'
'ckl'
'cker'
'circumstances_'
'circl'
'cing'
'cil_'
'cil'
'cigarette_'
'cient'
'chute'
'chop'
'choir_'
'chips_'
'chip_'
'chio_'
'chin_'
'childish_'
'chil'
'chicks_'
'chickens_'
'chic'
'chew_'
'chest'
'chel'
'cheering_'
'cheer'
'chee'
'cheap_'
'chat_'
'chas'
'charm_'
'charl'
'chari'
'character'
'chaos_'
'chan_'
'champion_'
'champ'
'challenge_'
'chairs_'
'cery_'
'cere'
'cer_'
'cepti'
'central_'
'celebr'
'cco'
'cca'
'cavi'
'cave_'
'cave'
'causes_'
'catastrophic_'
'casualt'
'casti'
'carve'
'cart_'
'carries_'
'carried_'
'carr'
'card'
'carbon'
'capture'
'capt'
'cano'
'canne'
'cana'
'campus_'
'calle'
'cabin_'
'buy'
'butter_'
'butt'
'burn'
'bump'
'bum'
'buildings_'
'buff'
'budget_'
'bud'
'buc'
'bub'
'bst'
'brush_'
'brun'
'broadcast_'
'broadcast'
'brief_'
'breakup'
'breakdown_'
'bravest_'
'brand'
'brake'
'brag'
'bow_'
'bour'
'both'
'bot'
'bor_'
'boots_'
'booth_'
'booster_'
'boob'
'bonded_'
'bon_'
'bombing_'
'bom'
'bolic'
'bod'
'boat'
'boa'
'blown_'
'blossom_'
'blood'
'blonde_'
'blog_'
'block'
'bliss'
'blin'
'blic'
'bless_'
'bless'
'bles_'
'bleach_'
'blast_'
'blanket'
'blan'
'blade'
'blackout_'
'blackmailing_'
'birth'
'bill'
'bien'
'bid'
'bia_'
'bi_'
'betray'
'beside'
'bert'
'bers'
'bera'
'benefi'
'bene'
'belo'
'bell'
'belief_'
'bel'
'bein'
'behavior_'
'behave_'
'begins_'
'begged_'
'began_'
'beet'
'beef_'
'beast'
'bear'
'beam_'
'bead_'
'bbs_'
'bbo'
'bbie'
'batteries_'
'batista_'
'bathtub_'
'bass_'
'basic'
'baseball_'
'bars_'
'barrier_'
'barren_'
'bark_'
'bargain'
'bare'
'barber'
'bar'
'banquet'
'banging_'
'bald'
'bal_'
'bal'
'baku_'
'badge_'
'badass_'
'backpack_'
'bach_'
'ax'
'avoiding_'
'avi'
'aver'
'avenge_'
'ave_'
'ave'
'available_'
'ava'
'auth'
'aur'
'audience_'
'aud'
'attracted_'
'attending_'
'attendant'
'attend_'
'attacks_'
'atta'
'ats_'
'ators'
'atom'
'atmosphere_'
'atio'
'athe'
'ater'
'ately_'
'ata_'
'ata'
'astr'
'ast_'
'assum'
'associate'
'assist_'
'assignment_'
'assholes_'
'asset_'
'assassins_'
'assassin'
'asph'
'asks_'
'asing_'
'aside_'
'asi'
'ash_'
'ase'
'article_'
'arti'
'arth'
'arse'
'arrogant_'
'arriving_'
'arrives_'
'arra'
'arr'
'armor_'
'ark'
'ariz'
'arious_'
'aril'
'ari_'
'argue_'
'ared_'
'ardi'
'approve'
'appointment_'
'appointed_'
'applied_'
'applica'
'apples_'
'apple_'
'appear'
'apologise_'
'apolog'
'any'
'anxiety_'
'ante_'
'ante'
'ans'
'ano_'
'announcement_'
'anno'
'annihilate'
'ann'
'ane_'
'ands_'
'ande'
'and'
'anci'
'anat'
'ams_'
'ample_'
'amp'
'amo'
'amine'
'ame_'
'ambu'
'amber_'
'alti'
'although_'
'alternative_'
'alter_'
'allo'
'alligator'
'alli'
'alle'
'alin'
'alike_'
'aliens_'
'alia'
'alex'
'alert_'
'aled_'
'ale'
'ald_'
'alcohol_'
'ako_'
'ake_'
'ake'
'ak_'
'aig'
'ahjussi_'
'aha'
'agreement_'
'agr'
'aging_'
'aggre'
'ages_'
'africa'
'af'
'advi'
'adventure'
'adve'
'advantage_'
'advanced_'
'advance_'
'adore'
'adopted_'
'adopt'
'ado_'
'admitted_'
'admire_'
'admir'
'adjust'
'ade_'
'addition_'
'addict_'
'addi'
'added_'
'ada_'
'actua'
'actor'
'actions_'
'act'
'acle'
'acid_'
'achment_'
'ached_'
'ache_'
'accomplish'
'accompan'
'accepted_'
'accept'
'accelera'
'acce'
'aca'
'absorb'
'absen'
'abs'
'abou'
'abor'
'abandoned_'
'] - _'
'] '
'\\\\\\"'
'Zo'
'Yuri_'
'Yoo_'
'Yong'
'Yesterday_'
'Yeo'
'Ye_'
'Yal'
'Yak'
'Yah_'
'YS'
'YING_'
'YER'
'Xan'
'Writer_'
'Wre'
'Working_'
'Work_'
'Woody_'
'Woods'
'Won'
'Wolf_'
'Wol'
'Within_'
'Wisteria_'
'Winston_'
'Winnie_'
'Whose_'
'Whoever_'
'Who'
'Wh_'
'Western_'
'Wel'
'Wed'
'Web'
'Weasley_'
'Wea'
'Wash'
'Warren_'
'Warning_'
'Warm'
'Ward_'
'Wan_'
'Wallace_'
'Walking_'
'Waldorf_'
'WORK'
'WN_'
'WITHOUT_'
'WILL_'
'WI'
'WHY_'
'WHO_'
'WHI'
'WHEN'
'WELL_'
'WD'
'WAY'
'WANT_'
'WAIT'
'WAILING_'
'Von_'
'Vol'
'Virgin'
'Viol'
'Vie'
'Vict'
'Vicki_'
'Vic'
'Vernon_'
'Vegas_'
'Ve'
'Vanessa_'
'Vamp'
'Vale_'
'VERY_'
'Uri'
'Upon_'
'Uploader_'
'Unn'
'United_'
'Union_'
'Unbelievable_'
'Umbr'
'Ugh_'
'UT'
'UP'
'ULD_'
'UGH'
'UALLY_'
'Twi'
'Twe'
'Turn'
'Tro'
'Tristan_'
'Trish_'
'Tripp_'
'Trick'
'Trea'
'Tracy_'
'Trace_'
'Tow'
'Tough_'
'Total'
'Tos'
'Torre'
'Took_'
'Tonight_'
'Toma'
'Tom'
'Todd_'
'Tired_'
'Tin'
'Tiger_'
'Tig'
'Tie_'
'Tie'
'Thursday_'
'Thu'
'Throw_'
'Through_'
'Thorn_'
'Tho'
'Thinking_'
'Ther'
'Theo'
'Thailand_'
'Tetsuo_'
'Tessa_'
'Tes'
'Terry_'
'Terrence_'
'Templ'
'Telly_'
'Taste'
'Tara_'
'Tanya_'
'Tall'
'Take'
'Tac'
'Tab'
'TY'
'TTE'
'TOG'
'TION_'
'TIE'
'THO'
'THER'
'THANK_'
'THAN'
'TE_'
'TER'
'TELL_'
'TC'
'TAN'
'Sylar_'
'Swit'
'Swi'
'Swee'
'Sven_'
'Suresh_'
'Sur'
'Support_'
'Sun_'
'Summer_'
'Sui'
'Suddenly_'
'Subbing_'
'Style_'
'Stuff_'
'Student'
'Stu_'
'Stick_'
'Stewart_'
'Stephen_'
'Stead'
'Stea'
'States_'
'Stat'
'Starting_'
'Stark_'
'Stanley_'
'Squad_'
'Spider_'
'Spi'
'Spencer_'
'Speed'
'Special_'
'Speci'
'Sparta'
'Space_'
'Soviet_'
'South_'
'Sook_'
'Soo'
'Sona'
'Somewhere_'
'Someday_'
'Soft'
'Soc'
'Snow_'
'Sniff'
'Smith_'
'Sma'
'Sli'
'Skywalker_'
'Sitt'
'Sister_'
'Silv'
'Sign_'
'Side_'
'Sid'
'Sick_'
'Shoot_'
'Shinhwa_'
'Shin'
'Sherlock_'
'Sheri'
'Shepherd_'
'Sharon'
'Seve'
'Servi'
'Serizawa_'
'Sep'
'Sent'
'Sens'
'Senator_'
'Sen'
'Self'
'Sect'
'Secretary_'
'Secret_'
'Search'
'Scra'
'Scout'
'Schu'
'Scarlet_'
'Sc'
'Say'
'Saving_'
'Sav'
'Sas'
'Sar'
'Santi'
'Sant'
'Sang_'
'Sandy_'
'Sam'
'Sala'
'Saku'
'Safe'
'Sae'
'Sadly_'
'Sab'
'SY_'
'SURE_'
'SUB_'
'STA'
'SSI'
'SPEAKING_'
'SPE'
'SP'
'SON_'
'SIREN_'
'SH_'
'SHOU'
'SER'
'SEA'
'SCR'
'SAM'
'SAL'
'S2_'
'Russia_'
'Ruby_'
'Rube'
'Roz_'
'Rot'
'Ross'
'Ros'
'Room_'
'Rome'
'Rollin'
'Roll'
'Rod'
'Rock'
'Robert_'
'Roar'
'River_'
'River'
'Rit'
'Rip'
'Ring_'
'Richard_'
'Rho'
'Reyn'
'Rever'
'Reve'
'Return_'
'Republic_'
'Rep'
'Rememb'
'Rem'
'Rel'
'Reid_'
'Rei'
'Regina_'
'Reg'
'Reed_'
'Rea'
'Rat'
'Raj'
'Rai'
'Radi'
'RUSS'
'RST'
'RON'
'RIS'
'RIN'
'REV'
'Quinn_'
'Qua'
'Q'
'Put'
'Pure_'
'Pun'
'Puc'
'Protect'
'Pra'
'Pot'
'Por'
'Pon'
'Plu'
'Plan'
'Piz'
'Pir'
'Pip'
'Pil'
'Pike_'
'Pierewiet_'
'Pie'
'Phone_'
'Personal'
'Pepper'
'Pel'
'Pei'
'Pea'
'Paul'
'Past'
'Part_'
'Part'
'Park'
'Para'
'Pap'
'Pant'
'Pan'
'Pam'
'Page_'
'Padm'
'Pac'
'PS_'
'PRE'
'PLE'
'PL'
'PIN'
'PI'
'PHONE_'
'PART'
'Ox'
'Out'
'Ot'
'Oscar_'
'Original_'
'Organic_'
'Ora'
'Opp'
'Oma'
'Ol'
'Ok'
'Office'
'Off_'
'Off'
'Odessa_'
'Obviously_'
'Objection_'
'OT'
'OR_'
'OR'
'OO'
'ONLY_'
'ONI'
'OL_'
'OFF_'
'OE'
'OCK'
'Nอ'
'Nพ'
'Nท_'
'Nut'
'Nowadays_'
'Nothin_'
'Noo'
'Noah_'
'Nine'
'Nikita_'
'Niki_'
'Night_'
'Nig'
'Nich'
'Nic'
'News_'
'Never'
'Neo_'
'Neither_'
'Ned_'
'Navy_'
'Nav'
'Nation'
'Natali'
'Nanny_'
'Nakamura_'
'NT'
'NSA_'
'NOW_'
'NNA'
'NN'
'NEXT_'
'NES'
'NEED_'
'NDA'
'NASA_'
'Myung_'
'Mustang'
'Mur'
'Mov'
'Mount_'
'Mot'
'Morr'
'Mori'
'Morgana_'
'Mooch'
'Monta'
'Mont'
'Mong_'
'Mississippi_'
'Mis'
'Minister_'
'Mini'
'Mind'
'Millman_'
'Military_'
'Miki'
'Michel'
'Mich'
'Micah_'
'Mic'
'Mia_'
'Mes'
'Merl'
'Meredith_'
'Mer'
'Men_'
'Mem'
'Medic'
'McH'
'Mayer'
'Mayan'
'Maya_'
'Matthew'
'Marti'
'Marsh'
'Mars'
'Marr'
'Marla_'
'Mann'
'Manhattan_'
'Manage'
'Mama'
'Makino_'
'Make'
'Mai'
'Magister_'
'Magic_'
'Magi'
'Mae'
'Macro'
'MU'
'MORE_'
'MONTHS_'
'MIS'
'MIN'
'MAT'
'MAKE_'
'Lydia_'
'Luna'
'Lum'
'Luk'
'Lucian_'
'Luca'
'Lowe'
'Louis_'
'Loud_'
'Loud'
'Lots_'
'Lor'
'Loo'
'Lok'
'Lois_'
'Logan_'
'Ll'
'Livi'
'Live'
'Lith'
'Linder'
'Lind'
'Lill'
'Light_'
'Lic'
'Lest'
'Leon'
'Len'
'Legal_'
'Lead'
'Laz'
'Land'
'LT_'
'LS_'
'LOVE'
'LLS_'
'LK'
'LING_'
'LIKE_'
'LE_'
'LD_'
'LAUGHING_'
'LATE'
'Kwon_'
'Kurt_'
'Kristen_'
'Kr'
'Korea_'
'Knowing_'
'Kni'
'Kn'
'Kitt'
'Kinda_'
'Kin'
'Kill'
'Kidnap_'
'Kh'
'Key_'
'Kevin_'
'Keu'
'Kerr'
'Kelly_'
'Keller'
'Kayla_'
'Karl_'
'Karen_'
'Kaoru_'
'Kang'
'Kana'
'Kal'
'Kaito_'
'KN'
'KING_'
'KIM_'
'KG'
'Justin_'
'Jump_'
'Julie'
'Jul'
'Jud'
'Juanita_'
'Joy'
'Josh_'
'Joh'
'Joe'
'Joa'
'Jew_'
'Jew'
'Jerusalem_'
'Jenni'
'Jell'
'Jean_'
'Jealous'
'Jar'
'Jan'
'Jade'
'Jacqu'
'Jacobs_'
'Jacob_'
'Jabb'
'Ja_'
'JAX_'
'JAC'
'JA'
'Izzy_'
'Isobel_'
'Iso'
'Iron_'
'Ira'
'Iow_'
'Interna'
'Interesting_'
'Intel'
'Instead_'
'Insp'
'Inside_'
'Initiat'
'Inf'
'Industr'
'India_'
'Impe'
'Imp'
'Imagine_'
'Il'
'Iin'
'Ign'
'Ig'
'Idiot'
'Id_'
'Ice_'
'IOU'
'ILL'
'IES_'
'ID_'
'Hyun'
'Hyp'
'Hya'
'Hy'
'Hwan_'
'Hwa'
'Hun'
'Humphrey_'
'Howl_'
'Hotch_'
'Hom'
'Hoi'
'Hof'
'Higher_'
'Hig'
'Hic'
'Helen'
'Hefner_'
'Hed'
'Heavens_'
'Hassan_'
'Hasn_'
'Harvey_'
'Harper_'
'Hap'
'Hand'
'Halt_'
'Half'
'Hale'
'Hak'
'Hah'
'Hag'
'HUSBAND_'
'HOO_'
'HO'
'HIM_'
'HEL'
'HEAR'
'HEAD_'
'HAV'
'HAR'
'HAPP'
'HAH_'
'Gyun_'
'Gusteau_'
'Gunshot'
'Guns'
'Guil'
'Gua'
'Gru'
'Grow'
'Grove'
'Gross'
'Gro'
'Gret'
'Greer_'
'Grand'
'Grace_'
'Governor_'
'Gover'
'Gossip_'
'Gordon_'
'Gong_'
'Goe'
'Goddamn'
'God'
'Glee_'
'Glass_'
'Gl'
'Giv'
'Gimme_'
'Geum_'
'Gerry_'
'Germany_'
'German'
'Georgie_'
'Gemma_'
'Geez_'
'Gavin_'
'Gate'
'Gat'
'Gandhi_'
'Gan'
'Game'
'Gabriel_'
'Ga_'
'GU'
'GR'
'GO_'
'GONNA_'
'Further_'
'Frodo_'
'Friend'
'Fri'
'Fred'
'Frankenstein_'
'Fran'
'Fox_'
'Founda'
'Fou'
'Forty_'
'Fortunat'
'Fortress_'
'Forgive_'
'Forg'
'Forever_'
'Fore'
'Fogg_'
'Fo'
'Flynn_'
'Florida_'
'Fir'
'Finish_'
'Find'
'Finally_'
'Fill'
'Figure_'
'Fighting_'
'Fig'
'Fifty_'
'Fifteen_'
'Feli'
'Fee'
'Faster_'
'Fascinating_'
'Farrell_'
'Farmer_'
'Fantas'
'Fairview_'
'Fair_'
'FT'
'FOR'
'FIRE'
'FEEL_'
'FAR'
'Extreme'
'Ext'
'Expl'
'Executi'
'Exc'
'Eve_'
'Evacuate_'
'Eva_'
'Europe'
'Eul_'
'Ethan_'
'Eri'
'Er_'
'Enter'
'End_'
'Elliot_'
'Ellen_'
'Elijah_'
'Eli'
'Element'
'Egyptian'
'Edit'
'Edie_'
'Edg'
'Eddie_'
'Echo_'
'East'
'Ear'
'Eag'
'Ea'
'EXC'
'EVERYTHING_'
'ERI'
'ER'
'EO_'
'ENG'
'ELL'
'ELF_'
'Dy'
'Dust'
'Dumbledore_'
'Duke_'
'Dru'
'Dro'
'Drink_'
'Dri'
'Drew_'
'Down'
'Doris_'
'Dor'
'Door_'
'Dominic'
'Dom'
'Dol'
'Doakes_'
'District_'
'Disc'
'Dinner_'
'Din'
'Dick'
'Dial'
'Dia'
'Devon_'
'Dev'
'Despite_'
'Derice_'
'Denn'
'Denise_'
'Deni'
'Defense_'
'Def'
'Deb_'
'Dea'
'Darren_'
'Darlin'
'Daniel_'
'Danger_'
'Damien_'
'Dam'
'DY_'
'DS_'
'DOOR_'
'DON_'
'DID'
'DER'
'DAD'
'Curt'
'Curley_'
'Cup'
'Cul'
'Cub'
'Crowley_'
'Crim'
'Crap'
'Cove'
'Courtney_'
'Couple_'
'County_'
'Coun'
'Corporal_'
'Corp'
'Cops_'
'Coordinator'
'Cooper_'
'Consider_'
'Conne'
'Congr'
'Confe'
'Command'
'Coll'
'Colin_'
'Cole_'
'Col'
'Coa'
'Clu'
'Cloud_'
'Close'
'Clearly_'
'Clear'
'Claw'
'Cla'
'Cin'
'Church'
'Chung'
'Chug_'
'Christina_'
'Christi'
'Choo'
'Choi_'
'Children_'
'Chic'
'Chewing_'
'Cheerio'
'Chee'
'Chatter'
'Channel_'
'Change_'
'Chang'
'Chance'
'Chan'
'Chaebol_'
'Chad_'
'Certainly_'
'Central_'
'Cel'
'Casti'
'Cass'
'Carrie_'
'Carl'
'Carina_'
'Care'
'Cap'
'Came'
'Cam_'
'Call'
'CT_'
'CTU_'
'CT'
'CRO'
'COR'
'COMP'
'COME_'
'CI'
'CHO'
'Busy_'
'Burro'
'Bug'
'Bryan'
'Bru'
'Brit'
'Bravo_'
'Brand'
'Brain'
'Bots'
'Bot'
'Boom_'
'Boo_'
'Bon_'
'Boa'
'Blum'
'Block'
'Blo'
'Black'
'Bit'
'Bis'
'Bird'
'Bio'
'Bing'
'Billy_'
'Bil'
'Bigweld_'
'Beyond_'
'Betty_'
'Bert'
'Benjamin_'
'Belle'
'Bell'
'Bei'
'Behave_'
'Begin'
'Beauti'
'Bear_'
'Bead'
'Batt'
'Basi'
'Bartowski_'
'Barr'
'Baro'
'Band_'
'Bana'
'Bailey_'
'Baggins'
'Bag_'
'Bag'
'Bac'
'Babe_'
'BR'
'BOY_'
'BOUT_'
'BOU'
'BOTH_'
'BI'
'BET'
'BEN'
'BEE'
'BAR'
'BABY_'
'Ay_'
'Ax'
'Awa'
'Attention_'
'Attach'
'At'
'Ass_'
'Asp'
'Ask'
'Ash'
'Arush_'
'Army_'
'Aria'
'Ari'
'Arg'
'Arc'
'Ara'
'Appre'
'Appl'
'Anybody_'
'Anto'
'Anti'
'Ant'
'Ani'
'Angie_'
'Amazing_'
'Already_'
'Albu'
'Alban'
'Alas'
'Alan'
'Al_'
'Air'
'Aigoo_'
'Ahsoka_'
'Ahe'
'Aha_'
'AhNiu_'
'Agree'
'Aga'
'Ag'
'After'
'Afghan'
'Acti'
'Above_'
'Abed_'
'Abe'
'Abb'
'AV'
'ATI'
'ASS'
'ANY_'
'ANS_'
'ALS'
'ALEX'
'AH_'
'?" '
'? .'
'? (_'
'=_'
': '
'98_'
'93'
'91_'
'89_'
'88_'
'86'
'85_'
'80s_'
'808080_'
'800_'
'80'
'734_'
'72'
'69_'
'65'
'61'
'5th_'
'54_'
'47_'
'46_'
'46'
'44'
'43'
'42'
'39_'
'38_'
'31_'
'31'
'2คน'
'29th_'
'26'
'24ช'
'23'
'20ป_'
'2000'
'1998_'
'196'
'172'
'17'
'150_'
'122_'
'111'
'110_'
'04'
'01'
'00'
'.]_'
'.?_'
'... ♪_'
'... ....'
'... ... _'
'... -_'
'... - '
'... "_'
'.. .'
'..'
'.,_'
'. - '
'-..._'
'- ... _'
'- '_'
',...'
', - _'
'****'
'('
''..'
''. _'
'%'
'"]_'
'"? '
'", '
'" (_'
'" '
'!"'
'! .'
'! - '
' ัั '
' ~~_'
' ~~ '
' ~'
' \\\\'
' [_'
' = "# _'
' :_'
' ... ._'
' ... '
' *'
' ) _'
' ''
' # - # _'
' # '
'♪'
'–'
'​'
'ํ'
'๋'
'ฺ'
'ื'
'ฒ'
'ś'
'ú'
'ó'
'ñ'
'â'
'º'
'¶'
'©'
''
''
''
''
''
''
'c'
'^'
'\'
';'
'+'
'$'
'ﬁ'
'镋'
'ṃ'
'ฅ'
'ฃ'
'А'
'Τ'
'Ν'
'Η'
'đ'
'ü'
'û'
'Ã'
'°'
' '
''
''
''
''
''
''
''
'{'
'`'
']'
'#'
'—'
'ฬ'
'ã'
'à'
'·'
'ª'
''
''
''
''
''
''
''
''
''
''
''
'}'
'?'
'>'
'<'
':'
'*'
'!'
