'<pad>_'
'<EOS>_'
'._'
', _'
''_'
'I_'
'_'
'you_'
'?_'
'the_'
's_'
'to_'
'- _'
'؟_'
'-_'
'a_'
'، _'
'لا_'
'. _'
'من_'
'!_'
't_'
'أن_'
'في_'
'it_'
'هذا_'
'ّ_'
'of_'
'that_'
'You_'
' (_'
'and_'
'in_'
'ً _'
'ي_'
'ا_'
'ما_'
'ة_'
'me_'
'على_'
'is_'
'..._'
'أنا_'
'و_'
' ؟_'
'ه_'
'َ_'
'ك_'
'ُ_'
'ً_'
'هل_'
'on_'
'm_'
'يا_'
'for_'
'لقد_'
'this_'
'have_'
'ذلك_'
're_'
') _'
'your_'
'was_'
'my_'
'What_'
'know_'
'... _'
'It_'
'لم_'
'ِ _'
'we_'
'be_'
'(_'
'أنت_'
'do_'
'ن_'
'حسنا_'
'"_'
'with_'
'not_'
'ماذا_'
'don_'
'ت_'
'م_'
'can_'
' ، _'
'كان_'
'هنا_'
'are_'
'ان_'
'he_'
' "_'
',_'
'what_'
'إلى_'
'هو_'
' , _'
'ُ _'
'here_'
'We_'
'ل_'
'just_'
'هذه_'
'like_'
'all_'
'No_'
'out_'
'ّ _'
'll_'
'عن_'
'ى_'
'ها_'
'َ _'
'كنت_'
'And_'
'كل_'
'right_'
'get_'
'up_'
'The_'
'هناك_'
'He_'
'ر_'
'about_'
'That_'
'him_'
'نعم_'
'there_'
'نا_'
')_'
'ِ_'
'ليس_'
'! _'
'لك_'
' ._'
'فقط_'
'd_'
'go_'
'got_'
've_'
'Oh_'
'one_'
'at_'
'الآن_'
'مع_'
'her_'
'want_'
'so_'
'لكن_'
'شيء_'
'no_'
'الذي_'
'Yeah_'
'أجل_'
'if_'
'د_'
'" _'
'think_'
'ين_'
'they_'
'يجب_'
'But_'
'ing_'
'أي_'
'لي_'
'لن_'
'إذا_'
'كيف_'
'but_'
'ب_'
'Well_'
'will_'
'see_'
'as_'
'ون_'
'going_'
'she_'
'So_'
'هي_'
'now_'
'us_'
'from_'
'gonna_'
'ات_'
'نحن_'
'e_'
'انا_'
'back_'
'time_'
'. - _'
' -_'
'his_'
'إن_'
'ني_'
'y_'
'This_'
'قد_'
'أ_'
'an_'
'س_'
'ْ_'
'ع_'
'أنه_'
'سوف_'
'did_'
'بعد_'
'been_'
'جدا_'
'إنه_'
'هم_'
'ed_'
'عندما_'
'would_'
'ً، _'
'were_'
'They_'
'فى_'
'them_'
'كانت_'
'come_'
'She_'
'ق_'
'need_'
'man_'
'الأمر_'
'good_'
'or_'
'Hey_'
'who_'
'didn_'
'لماذا_'
'could_'
' - _'
'take_'
'Come_'
'ـ_'
'How_'
'some_'
'.._'
'مرحبا_'
'had_'
'Yes_'
'شكرا_'
'حتى_'
'انه_'
' " _'
'down_'
'أين_'
'tell_'
'our_'
'هيا_'
'كذلك_'
'way_'
'عليك_'
'Why_'
'A_'
'how_'
'There_'
'? _'
'ولكن_'
'علي_'
'when_'
'little_'
'أو_'
')، _'
'by_'
'ْ _'
'ف_'
'أنك_'
'،_'
'ربما_'
'تلك_'
'أعتقد_'
'إنها_'
'لو_'
'قبل_'
'really_'
'If_'
'something_'
'كم_'
'أعرف_'
'mean_'
'به_'
'التي_'
'حقا_'
'وا_'
'more_'
'over_'
'off_'
'make_'
'يكون_'
'say_'
'ح_'
'too_'
'بعض_'
'Okay_'
'Let_'
'ية_'
'انت_'
'الى_'
'never_'
'أريد_'
'كلا_'
'has_'
'All_'
'My_'
'doing_'
'أكثر_'
'لدي_'
'Now_'
'ً._'
'people_'
'مثل_'
'n_'
'said_'
'am_'
' !_'
' ..._'
'يمكن_'
'Don_'
'أعلم_'
'Do_'
'لست_'
'صحيح_'
'يمكنك_'
'رجل_'
'thing_'
'let_'
'ً؟_'
'انها_'
'should_'
'بخير_'
'any_'
'شخص_'
'أيضا_'
'only_'
'يبدو_'
'كما_'
'جيد_'
'where_'
'Where_'
'Just_'
'love_'
'God_'
')؟_'
'بأن_'
'look_'
'es_'
'ز_'
'أحد_'
'الوقت_'
'منذ_'
'عليه_'
'تكون_'
'أستطيع_'
'.. _'
'then_'
'غير_'
'Is_'
'لديك_'
'اليوم_'
'لذا_'
'شيئا_'
'two_'
')._'
'ٌ _'
'أوه_'
'very_'
'than_'
'ج_'
'i_'
'still_'
'anything_'
'er_'
'into_'
'أليس_'
'sure_'
'day_'
':_'
'why_'
'even_'
'له_'
'أيها_'
'' _'
'talk_'
'Mr_'
'تي_'
'well_'
'thought_'
'Who_'
'أنها_'
'ء_'
'Thank_'
' .._'
'يكن_'
'won_'
'night_'
'guy_'
'معك_'
'أفضل_'
'these_'
'sorry_'
'first_'
'الرجل_'
'r_'
'help_'
'Are_'
'وقت_'
'بها_'
'Look_'
'okay_'
'much_'
'life_'
'Good_'
'بك_'
'Get_'
'ٍ _'
'بي_'
'اذا_'
'give_'
'يمكنني_'
'مرة_'
'آخر_'
'ثم_'
'call_'
'واحد_'
'ly_'
'l_'
'find_'
'تفعل_'
'تعرف_'
'work_'
'their_'
'must_'
'حدث_'
'ليست_'
'الكثير_'
'Your_'
'because_'
' ... _'
'تريد_'
'؟ _'
'told_'
'better_'
'."_'
'other_'
'keep_'
'again_'
'لدينا_'
'يوم_'
'أخرى_'
'o_'
'around_'
'ط_'
'home_'
'before_'
'رائع_'
' .. _'
'مكان_'
'guys_'
'away_'
'حسن_'
'sir_'
'please_'
'وأنا_'
'last_'
'قلت_'
'الناس_'
'ever_'
'great_'
'سيدي_'
'things_'
'long_'
'Not_'
'ض_'
'تم_'
'name_'
'ً, _'
'لها_'
'علينا_'
'Can_'
'everything_'
'doesn_'
'nothing_'
'بهذا_'
'بالطبع_'
'سيكون_'
'سي_'
'شئ_'
'through_'
'lot_'
'done_'
'Go_'
'ش_'
'بذلك_'
'old_'
'تك_'
'wrong_'
'girl_'
'believe_'
'رة_'
'أنني_'
'آسف_'
'Then_'
'ولا_'
'left_'
'دائما_'
'those_'
'does_'
'always_'
'بما_'
'money_'
'happened_'
'لنا_'
'كثيرا_'
'أمي_'
'put_'
'new_'
'found_'
'أبدا_'
'place_'
'house_'
'after_'
'Maybe_'
'Did_'
'kind_'
'لأن_'
'بين_'
'world_'
'uh_'
'made_'
'When_'
'يحدث_'
'حال_'
'أبي_'
'In_'
'قليلا_'
'تعلم_'
'else_'
'العمل_'
'إذن_'
'--_'
'منك_'
'اء_'
'years_'
'leave_'
'hell_'
'feel_'
'ِ._'
'لـ_'
'بل_'
'المكان_'
'wanted_'
'stop_'
'someone_'
'معي_'
'فعل_'
'إلهي_'
'ألا_'
'kill_'
'gotta_'
'لة_'
'أردت_'
'big_'
'واحدة_'
'came_'
'being_'
'الحقيقة_'
'son_'
'enough_'
'baby_'
': _'
' )_'
'يوجد_'
'مني_'
'تماما_'
'الليلة_'
'isn_'
'coming_'
'ث_'
'أم_'
'yourself_'
'might_'
'hear_'
' '_'
'ً ، _'
'عليها_'
'yeah_'
'together_'
'k_'
'Please_'
'بالتأكيد_'
'course_'
'Here_'
'ار_'
'bad_'
'Hi_'
'هكذا_'
'talking_'
'own_'
'لهذا_'
'فيه_'
'دي_'
'تها_'
'الذهاب_'
'ng_'
'heard_'
'Thanks_'
'فحسب_'
'حول_'
'ته_'
'show_'
'nice_'
'ask_'
'al_'
'"._'
'أحب_'
'بشكل_'
'car_'
'Right_'
'للغاية_'
'قال_'
'بحاجة_'
'الطريق_'
'الجميع_'
'wanna_'
'trying_'
'next_'
'friend_'
'? - _'
' . _'
'سيد_'
'أظن_'
'understand_'
'same_'
'room_'
'h_'
'father_'
'Hello_'
'For_'
'لذلك_'
'ستكون_'
'السيد_'
'أمر_'
'ً ؟_'
'خلال_'
'جيدة_'
'ال_'
'أقول_'
'getting_'
'best_'
'متى_'
'لديه_'
'انظر_'
'every_'
'See_'
'1_'
'يمكننا_'
'وهذا_'
'مجرد_'
'كي_'
'اي_'
'الم_'
'wait_'
'looking_'
'care_'
'Take_'
'يد_'
'عمل_'
'العالم_'
'woman_'
'wife_'
'wasn_'
'stay_'
'saw_'
'remember_'
'dead_'
'ور_'
'المال_'
'الان_'
'أكون_'
'real_'
'S_'
'Because_'
'3_'
'وأنت_'
'حق_'
'اللعنة_'
'الأشياء_'
'family_'
' _'
'يل_'
'فعلت_'
'رب_'
'تبدو_'
'بة_'
'أعني_'
'fine_'
'♪ _'
'دة_'
'جي_'
'بأنك_'
'المنزل_'
'went_'
'maybe_'
'job_'
'boy_'
'OK_'
'ً , _'
'ول_'
'مهلا_'
'، (_'
'wouldn_'
'head_'
'To_'
'منه_'
'لى_'
'بنا_'
'الشيء_'
'أني_'
'{\\_'
'men_'
'hand_'
'guess_'
'another_'
'يه_'
'رف_'
'جيدا_'
'الأمور_'
'أشعر_'
'today_'
'mind_'
'live_'
'idea_'
'g_'
'bit_'
'Dad_'
'َّ_'
'كنا_'
'yet_'
'knew_'
'called_'
'able_'
'Of_'
'يعني_'
'ير_'
'جميعا_'
'ثانية_'
'توقف_'
'بدون_'
'true_'
'says_'
'myself_'
'morning_'
'few_'
' ,_'
'هى_'
'هؤلاء_'
'فضلك_'
'try_'
'tonight_'
'huh_'
'عنه_'
'رأيت_'
'ذ_'
'تكن_'
'تعال_'
'بشأن_'
'yes_'
'start_'
'killed_'
'already_'
'ago_'
'10_'
'نفسك_'
'بالنسبة_'
'الشرطة_'
'الحياة_'
'اذهب_'
'أننا_'
'used_'
'use_'
'mother_'
'[_'
'Uh_'
'"؟_'
'يريد_'
'دون_'
'بأنه_'
'الحصول_'
'without_'
'whole_'
' ♪_'
'نفس_'
'غ_'
'انك_'
'أفعل_'
'saying_'
'p_'
'friends_'
'both_'
'Wait_'
'Listen_'
'2_'
'نى_'
'لكم_'
'بـ_'
'السيارة_'
'once_'
'most_'
'may_'
'deal_'
' ( _'
'لما_'
'للتو_'
'ص_'
'بأس_'
'إليك_'
'إلي_'
'which_'
'took_'
'pretty_'
'many_'
'fucking_'
'ain_'
'Tell_'
'-- _'
'فكرة_'
'الرجال_'
'الجحيم_'
'face_'
'Give_'
'لكي_'
'تعتقد_'
'بحق_'
'الذين_'
'اعتقد_'
'thinking_'
'actually_'
'With_'
'5_'
'000_'
'يعرف_'
'معه_'
'قمت_'
'عة_'
'سمعت_'
'ام_'
'أذهب_'
'ts_'
'seen_'
'pos_'
'play_'
'fuck_'
'days_'
'couldn_'
'alone_'
'Have_'
'مشكلة_'
'لابد_'
'تحت_'
'الامر_'
'إنهم_'
'أحتاج_'
'while_'
'shit_'
'school_'
'ion_'
'anyone_'
'20_'
'َ._'
'جد_'
'تعرفين_'
'تستطيع_'
'الخاص_'
'three_'
'part_'
'case_'
'Stop_'
'One_'
'As_'
'‫_'
'ِ؟_'
'مل_'
'فة_'
'دعنا_'
'بالفعل_'
'أرى_'
'late_'
'die_'
'T_'
'Sorry_'
'Really_'
'Or_'
'At_'
'# _'
' ؟ _'
'وهو_'
'مر_'
'مة_'
'كبير_'
'أنتم_'
'word_'
'meet_'
'kid_'
'hours_'
'haven_'
'D_'
'والآن_'
'نوع_'
'ليلة_'
'فيها_'
'غرفة_'
'عند_'
'سبب_'
'خذ_'
'خ_'
'حصلت_'
'تقول_'
'تذهب_'
'أنهم_'
'asked_'
'anymore_'
'معا_'
'كانوا_'
'قتل_'
'قة_'
'جميل_'
'بسبب_'
'minute_'
'matter_'
'le_'
'hope_'
'far_'
'change_'
'. -_'
'نذهب_'
'نة_'
'مجددا_'
'ري_'
'دا_'
'جميع_'
'او_'
'الباب_'
'الأرض_'
'أرجوك_'
'stuff_'
'happy_'
'gets_'
'five_'
'end_'
'business_'
'Excuse_'
'00_'
'( _'
'وجدت_'
'دعني_'
'انتظر_'
'الوحيد_'
'الواقع_'
'النار_'
'إليه_'
'problem_'
'move_'
'having_'
'each_'
'نت_'
'كبيرة_'
'عزيزتي_'
'رت_'
'بعيدا_'
'الفتاة_'
'السبب_'
'أنظر_'
'turn_'
'st_'
'soon_'
'second_'
'Mom_'
'Like_'
' ?_'
'لهم_'
'لكنني_'
'لت_'
'ـا_'
'عيد_'
'عد_'
'شيئ_'
'خارج_'
'year_'
'side_'
'reason_'
'minutes_'
'brother_'
'ass_'
'0_'
', "_'
'ُ._'
'مي_'
'غريب_'
'شىء_'
'رجاء_'
'بكل_'
'الـ_'
'الأن_'
'اس_'
'أهلا_'
'under_'
'ready_'
'means_'
'hard_'
'gone_'
'dad_'
'bed_'
'also_'
'6_'
'4_'
' ) _'
'وم_'
'هنالك_'
'مات_'
'كن_'
'قام_'
'فعلا_'
'فتاة_'
'عنك_'
'عم_'
'طريقة_'
'بهذه_'
'انهم_'
'آسفة_'
'um_'
'supposed_'
'somebody_'
'pay_'
'lost_'
'hold_'
'hands_'
'died_'
') ؟_'
'مما_'
'لأنه_'
'فعله_'
'رفاق_'
'حيث_'
'جديد_'
'ثلاثة_'
'تريدين_'
'اني_'
'الي_'
'أى_'
'أولا_'
'أكن_'
'story_'
'ne_'
'later_'
'bring_'
'body_'
'beautiful_'
'] _'
'30_'
'لدى_'
'ــ_'
'ـة_'
'طوال_'
'صل_'
'جميلة_'
'اين_'
'المرة_'
'اجل_'
'working_'
'rs_'
'police_'
'mom_'
'Will_'
'يقول_'
'معنا_'
'لكنه_'
'لأنك_'
'قل_'
'سنوات_'
'سعيدة_'
'ذا_'
'بد_'
'اوه_'
'المدينة_'
'الخير_'
'اكثر_'
'yours_'
'wants_'
'until_'
'point_'
'person_'
'married_'
'listen_'
'knows_'
'heart_'
'gave_'
'close_'
'break_'
'Miss_'
'يجري_'
'يت_'
'ومن_'
'نهاية_'
'متأكد_'
'لنذهب_'
'عل_'
'ست_'
'رك_'
'حياتي_'
'تعلمين_'
'القيام_'
'ئ_'
'times_'
'quite_'
'makes_'
'YOU_'
'Sure_'
'Dr_'
')!_'
'وهي_'
'لاحقا_'
'ساعة_'
'سأذهب_'
'ريد_'
'دولار_'
'جون_'
'بدأت_'
'اه_'
'انني_'
'الذى_'
'ألم_'
'worry_'
'such_'
'party_'
'less_'
'fire_'
'door_'
'death_'
'Nothing_'
'Jack_'
'نعرف_'
'دقيقة_'
'حالك_'
'تين_'
'ايضا_'
'الحب_'
'الأطفال_'
'اب_'
'إلا_'
'water_'
'watch_'
'probably_'
'moment_'
'eyes_'
'ers_'
'crazy_'
'blood_'
'afraid_'
'Ah_'
'! - _'
'ِ، _'
'نفعل_'
'نفسي_'
'منهم_'
'مالذي_'
'عنها_'
'عظيم_'
'عزيزي_'
'شي_'
'سام_'
'رقم_'
'رد_'
'ذات_'
'جو_'
'تعمل_'
'تتحدث_'
'الموت_'
'الخاصة_'
'استطيع_'
'اريد_'
'اد_'
'احد_'
'open_'
'office_'
'mine_'
'lady_'
'hit_'
'exactly_'
'eat_'
'daughter_'
'against_'
'*_'
' ،_'
'لديها_'
'غدا_'
'عبر_'
'صديق_'
'سيارة_'
'زال_'
'را_'
'حب_'
'بينما_'
'ايها_'
'المدرسة_'
'الطريقة_'
'الصباح_'
'التحدث_'
'اسمع_'
'أحبك_'
'أتعلم_'
'week_'
'truth_'
'taking_'
'set_'
'phone_'
'ie_'
'goes_'
'fun_'
'everyone_'
'em_'
'comes_'
'chance_'
'brought_'
'Even_'
'15_'
'وماذا_'
'ولم_'
'فرصة_'
'صباح_'
'سعيد_'
'رؤية_'
'ذهب_'
'دقائق_'
'تنا_'
'الله_'
'الأفضل_'
'اعرف_'
'إنك_'
'tomorrow_'
'sit_'
'sister_'
'since_'
'number_'
'making_'
'least_'
'kids_'
'important_'
'dinner_'
']_'
' '
'يكفي_'
'يقوم_'
'يس_'
'وه_'
'ونحن_'
'وقد_'
'وس_'
'رائعة_'
'رأيك_'
'الطفل_'
'البعض_'
'إنني_'
'أخذ_'
'women_'
'tion_'
'te_'
'ls_'
'looks_'
'light_'
'ies_'
'game_'
'fact_'
'drink_'
'de_'
'check_'
'book_'
'almost_'
'age_'
'New_'
'يتم_'
'ود_'
'عني_'
'سنة_'
'در_'
'حصل_'
'تقوم_'
'اعلم_'
'أقصد_'
'w_'
'trouble_'
'rest_'
'its_'
'couple_'
'cause_'
'cannot_'
'Mrs_'
'His_'
'100_'
'َّ _'
'يني_'
'يعمل_'
'يعلم_'
'وليس_'
'طفل_'
'ره_'
'رجال_'
'حالة_'
'تبا_'
'المفترض_'
'الماضي_'
'الطعام_'
'الشخص_'
'اك_'
'أفهم_'
'أريدك_'
'أخبرك_'
'walk_'
'ty_'
'though_'
'six_'
'safe_'
'run_'
'question_'
'lose_'
'line_'
'ce_'
'buy_'
'Um_'
'Two_'
'12_'
'يفعل_'
'نه_'
'نستطيع_'
'معها_'
'لحظة_'
'فهمت_'
'صغيرة_'
'خطأ_'
'حة_'
'جاك_'
'تكوني_'
'تأتي_'
'التى_'
'البيت_'
'الأقل_'
'أتمنى_'
'whatever_'
'trust_'
'thank_'
'read_'
'plan_'
'nt_'
'happens_'
'fight_'
'en_'
'c_'
'ation_'
'Sir_'
'Our_'
'8_'
'- - _'
'), _'
') ، _'
'ً ._'
'وداعا_'
'منها_'
'لين_'
'طريق_'
'حياتك_'
'جديدة_'
'بالضبط_'
'الس_'
'الأولى_'
'أول_'
'أود_'
'؟ -_'
'ya_'
'telling_'
'speak_'
'shut_'
'ry_'
'ns_'
'news_'
'inside_'
'husband_'
'hurt_'
'gun_'
'full_'
'Would_'
'On_'
'Me_'
'Everything_'
'7_'
'يوما_'
'يك_'
'يرام_'
'والدك_'
'نفسه_'
'منا_'
'لكنك_'
'كة_'
'قط_'
'قالت_'
'سيدة_'
'سأكون_'
'حين_'
'حقيقي_'
'الصغير_'
'أكبر_'
'u_'
'shot_'
'oh_'
'lie_'
'la_'
'hot_'
'happen_'
'four_'
'cut_'
'ble_'
'b_'
'aren_'
'along_'
'Some_'
'N_'
'Help_'
'Great_'
'وني_'
'وانا_'
'هلا_'
'مين_'
'لكني_'
'لأجل_'
'عرض_'
'عام_'
'طويلة_'
'ده_'
'بسرعة_'
'المزيد_'
'الساعة_'
'الجنس_'
'أصبح_'
'أخي_'
'آه_'
'town_'
'thanks_'
'sleep_'
'shoot_'
'red_'
'power_'
'ous_'
'met_'
'ment_'
'hate_'
'girls_'
'country_'
'cool_'
'clear_'
'city_'
'children_'
'Fuck_'
', (_'
'ً!_'
'ويل_'
'وحسب_'
'هما_'
'فوق_'
'علاقة_'
'ظننت_'
'طويل_'
'سون_'
'دين_'
'حياة_'
'حي_'
'حاول_'
'تقريبا_'
'تحب_'
'بر_'
'با_'
'بأنني_'
'المشكلة_'
'الماء_'
'العودة_'
'الا_'
'اع_'
'wish_'
'ted_'
'shall_'
'send_'
'pick_'
'king_'
'ic_'
'everybody_'
'ch_'
'boss_'
'bitch_'
'asking_'
'Which_'
'O_'
'9_'
'. "_'
')}_'
'يأتي_'
'نكون_'
'منزل_'
'لأنني_'
'طلب_'
'شكر_'
'سيء_'
'رى_'
'ذهبت_'
'دو_'
'تعالي_'
'بخصوص_'
'الليل_'
'السيدة_'
'الخارج_'
'أحاول_'
'z_'
'th_'
'started_'
'ons_'
'months_'
'living_'
'ke_'
'front_'
'free_'
'either_'
'drive_'
'different_'
'behind_'
'M_'
'Keep_'
'John_'
'E_'
'?"_'
'ّ، _'
'ً -_'
'يمكنه_'
'يم_'
'مهما_'
'مستعد_'
'متأكدة_'
'ضع_'
'صديقي_'
'تقلق_'
'تحتاج_'
'الوحيدة_'
'الماضية_'
'ارة_'
'إليها_'
'أيتها_'
'أفكر_'
'أشياء_'
'، "_'
'ton_'
'till_'
'stand_'
'running_'
'questions_'
'perfect_'
'needs_'
'himself_'
'f_'
'easy_'
'date_'
'control_'
'ck_'
'between_'
'Those_'
'THE_'
'يستطيع_'
'يذهب_'
'يات_'
'نريد_'
'معرفة_'
'كلمة_'
'فين_'
'عليهم_'
'عشر_'
'ضي_'
'سنا_'
'سأفعل_'
'تفعله_'
'تعني_'
'تظن_'
'ترى_'
'بطريقة_'
'اليس_'
'الفتى_'
'الطبيب_'
'الحقيقي_'
'الأول_'
'الأسبوع_'
'اذن_'
'ابن_'
'أيام_'
'أقوم_'
'أصبحت_'
'أسرع_'
'أراك_'
'war_'
'ten_'
'strong_'
'sick_'
'se_'
'scared_'
'ride_'
'promise_'
'na_'
'ma_'
'land_'
'hour_'
'high_'
'half_'
'future_'
'fault_'
'become_'
'alive_'
'Stay_'
'O'
'C_'
'Be_'
'50_'
'* _'
' )._'
'ھ_'
'يهم_'
'وسوف_'
'وجود_'
'والدي_'
'مكن_'
'مايك_'
'مان_'
'لكنها_'
'فك_'
'فقد_'
'عائلة_'
'سيدى_'
'حد_'
'تفكر_'
'تشعر_'
'بهم_'
'بت_'
'النوم_'
'الـ'
'العام_'
'البقاء_'
'الأشخاص_'
'أشهر_'
'young_'
'x_'
'team_'
'sweet_'
'spend_'
'plane_'
'murder_'
'l'
'known_'
'ge_'
'explain_'
'child_'
'ahead_'
'Very_'
'Something_'
'Shut_'
'By_'
'"، _'
'" "_'
' $_'
'ّ._'
'يحصل_'
'وي_'
'ولن_'
'وكان_'
'نحتاج_'
'ميت_'
'منكم_'
'مت_'
'لطيف_'
'لديهم_'
'قول_'
'قريب_'
'فرانك_'
'فر_'
'طلبت_'
'ذاك_'
'خمسة_'
'جيمي_'
'تني_'
'تحصل_'
'تحاول_'
'ببعض_'
'بالأمر_'
'امرأة_'
'الن_'
'الرب_'
'الخروج_'
'افعل_'
'إننا_'
'weeks_'
'taken_'
'seems_'
'return_'
'outside_'
'luck_'
'leaving_'
'ks_'
'forget_'
'food_'
'feeling_'
'ds_'
'dream_'
'doctor_'
'Sam_'
'R_'
'E'
'Daddy_'
'Actually_'
'192_'
' ! _'
'ٌ_'
'يع_'
'كله_'
'كثير_'
'صغير_'
'شخصا_'
'سن_'
'سر_'
'حت_'
'حان_'
'جر_'
'جاء_'
'ترك_'
'بيت_'
'بلا_'
'بدلا_'
'بإمكانك_'
'بأي_'
'انة_'
'النساء_'
'الرئيس_'
'الحق_'
'الجديد_'
'الجانب_'
'البلدة_'
'أطفال_'
'أحدهم_'
'â_'
'worked_'
'words_'
'welcome_'
'waiting_'
'ss_'
'sound_'
'sent_'
'ring_'
'playing_'
'parents_'
'miss_'
'finally_'
'est_'
'ate_'
'Whoa_'
'Nice_'
'Make_'
'Lord_'
'Bye_'
'Any_'
'After_'
'About_'
'... - _'
'"?_'
' *_'
' #_'
'ً (_'
'ولكنه_'
'وك_'
'وشك_'
'وجه_'
'نيويورك_'
'نقوم_'
'نظرة_'
'مهم_'
'مه_'
'مساعدة_'
'مثلك_'
'مايكل_'
'مال_'
'لان_'
'قريبا_'
'فيما_'
'فتى_'
'عه_'
'ظ_'
'سوى_'
'ساعات_'
'سابقا_'
'سؤال_'
'زلت_'
'رات_'
'بعدها_'
'بشيء_'
'اى_'
'الهاتف_'
'الكبير_'
'الصغيرة_'
'الجديدة_'
'اق_'
'اخر_'
'أية_'
'أقل_'
'أحيانا_'
'أتحدث_'
'test_'
'terrible_'
'sign_'
'shouldn_'
'others_'
'hey_'
'funny_'
'figure_'
'eye_'
'dear_'
'crap_'
'company_'
'calling_'
'bet_'
'anybody_'
'These_'
'Someone_'
'Remember_'
'Captain_'
'ينا_'
'وت_'
'واضح_'
'نوعا_'
'نك_'
'نتحدث_'
'ممكن_'
'مليون_'
'للمنزل_'
'قم_'
'قتلت_'
'عي_'
'عرفت_'
'طي'
'شرطة_'
'سيئة_'
'زي_'
'زوجتك_'
'رئيس_'
'جورج_'
'تفعلين_'
'بني_'
'بعضنا_'
'بأني_'
'بأنها_'
'الي'
'المعلومات_'
'المرأة_'
'الغرفة_'
'السجن_'
'أمام_'
'أصدقاء_'
'أصدق_'
'أخر_'
'أخبرتك_'
'أأنت_'
'آ_'
'worse_'
'win_'
'weren_'
'tried_'
'top_'
'talked_'
'serious_'
'security_'
'secret_'
'save_'
'possible_'
'missing_'
'meant_'
'ive_'
'ity_'
'human_'
'god_'
'fast_'
'fall_'
'damn_'
'broke_'
'anyway_'
'Put_'
'Never_'
'Move_'
'Does_'
'Could_'
'Cause_'
'B_'
'ينبغي_'
'يستحق_'
'وف_'
'وب_'
'وأن_'
'معنى_'
'مباشرة_'
'لعبة_'
'لب_'
'كو_'
'قصة_'
'قائمة_'
'فع_'
'علم_'
'صاح_'
'رأيته_'
'دكتور_'
'دع_'
'جل_'
'ثر_'
'تا_'
'بنفسك_'
'بدأ_'
'بالخارج_'
'الواضح_'
'النهاية_'
'الموضوع_'
'المحتمل_'
'الفتيات_'
'الداخل_'
'الآخر_'
'اسم_'
'أكره_'
'أقسم_'
'أعمل_'
'أعطني_'
'أثناء_'
'white_'
'takes_'
'seem_'
'road_'
'pull_'
'order_'
'ness_'
'moving_'
'loved_'
'looked_'
'les_'
'led_'
'killing_'
'hospital_'
'cold_'
'clean_'
'\u_'
'Y_'
'Wow_'
'Were_'
'Say_'
'Michael_'
'Jesus_'
'Huh_'
'Fine_'
') )_'
') (_'
'ً - _'
'يها_'
'يريدون_'
'يب_'
'وفي_'
'وضعت_'
'هن_'
'نية_'
'نعلم_'
'مك_'
'مجنون_'
'للأبد_'
'لق_'
'قسم_'
'فهم_'
'فقدت_'
'ـي_'
'عدد_'
'عدة_'
'طة_'
'شاهد_'
'زوجتي_'
'رائعا_'
'ذاهب_'
'دم_'
'دت_'
'خاص_'
'حقيقة_'
'حالا_'
'جريمة_'
'توجد_'
'بم'
'بكم_'
'انظروا_'
'انتهى_'
'انتظري_'
'الوصول_'
'الملك_'
'القصة_'
'القاتل_'
'الدخول_'
'الحال_'
'الثانية_'
'الثاني_'
'البشر_'
'الإطلاق_'
'الأخيرة_'
'افضل_'
'اخرى_'
'ئة_'
'أتيت_'
'أتعرف_'
'worth_'
'system_'
'stupid_'
'sense_'
'ny_'
'nobody_'
'kidding_'
'ice_'
'happening_'
'glad_'
'force_'
'ding_'
'choice_'
'boys_'
'attack_'
'amazing_'
'\\_'
'Whatever_'
'TO_'
'People_'
'Only_'
'Damn_'
'Am_'
'40_'
'11_'
' :_'
'‎_'
'ًّ_'
'َ، _'
'يعود_'
'يديك_'
'وما_'
'وضع_'
'وصلت_'
'ور'
'هر_'
'هذة_'
'هب_'
'نف'
'مساء_'
'مثير_'
'لكل_'
'لأني_'
'كامل_'
'قيد_'
'قدر_'
'قا_'
'فل_'
'فريق_'
'فإن_'
'فأنا_'
'صعب_'
'صر_'
'صة_'
'شعرت_'
'شر_'
'سة_'
'رون_'
'دعونا_'
'داخل_'
'خر_'
'حاولت_'
'جهاز_'
'جزء_'
'ثلاث_'
'تهم_'
'بات_'
'انظري_'
'الممكن_'
'المساعدة_'
'الصعب_'
'الشمس_'
'الزواج_'
'الدماء_'
'الحظ_'
'اسمك_'
'ابدا_'
'إعادة_'
'أيا_'
'أنتي_'
'أمك_'
'أدري_'
'أحمق_'
'أحضر_'
'write_'
'weird_'
'somewhere_'
'sometimes_'
'ship_'
'seconds_'
'piece_'
'normal_'
'mouth_'
'missed_'
'mad_'
'honey_'
'hair_'
'gs_'
'girlfriend_'
'ey_'
'dy_'
'dude_'
'coffee_'
'Shit_'
'Got_'
'Frank_'
') , _'
'!"_'
'ٍ_'
'يعتقد_'
'يست'
'يدي_'
'يحاول_'
'وهم_'
'وع_'
'نسيت_'
'ناك_'
'مهمة_'
'ماري_'
'لهذه_'
'لمدة_'
'لف'
'كرة_'
'كر_'
'فلا_'
'عذرا_'
'عادة_'
'عاد_'
'صورة_'
'سنت'
'ستة_'
'سارة_'
'ذي_'
'ذو_'
'حل_'
'حبيبتي_'
'جئت_'
'تل_'
'تعلمون_'
'تزال_'
'بيل_'
'بى_'
'بعمل_'
'بأننا_'
'اللعين_'
'القادمة_'
'العديد_'
'البداية_'
'البحر_'
'إذ_'
'أعد_'
'أشكرك_'
'أخبرني_'
'أخبر_'
'أحسنت_'
'آمل_'
'v_'
'touch_'
'sort_'
'small_'
'simple_'
'needed_'
'movie_'
'million_'
'lives_'
'key_'
'handle_'
'ground_'
'ful_'
'finished_'
'field_'
'ent_'
'drop_'
'dog_'
'dangerous_'
'careful_'
'blow_'
'ball_'
'ar_'
'answer_'
'ah_'
'`_'
'U'
'THAT_'
'P_'
'Next_'
'Mm_'
'Charlie_'
'Agent_'
'A'
'500_'
'190_'
'... ._'
'ٌ، _'
'يدك_'
'يجعل_'
'ى'
'ولكنك_'
'وقتا_'
'وانت_'
'والم'
'وإذا_'
'نصف_'
'نبدأ_'
'منا'
'مساعدتك_'
'كهذا_'
'قوة_'
'قت_'
'فترة_'
'غي_'
'علمت_'
'عر_'
'عدم_'
'عاما_'
'عالم_'
'ظهر_'
'صوت_'
'سيدتي_'
'سيحدث_'
'سان_'
'زم_'
'رسالة_'
'حفل_'
'حر_'
'تعيش_'
'تصبح_'
'تبقى_'
'تان_'
'بلى_'
'بر'
'بالت'
'اننا_'
'النوع_'
'المعذرة_'
'الصورة_'
'الشاب_'
'الشئ_'
'الدم_'
'الحرب_'
'الحديث_'
'الجريمة_'
'البحث_'
'الانتظار_'
'اف_'
'اسمه_'
'احب_'
'اح_'
'اتصل_'
'ابتعد_'
'ائ'
'أيمكنك_'
'أمس_'
'أسمع_'
'أربعة_'
'أراهن_'
'أحدا_'
'أتذكر_'
'أت_'
'straight_'
'special_'
'report_'
'ps_'
'picture_'
'past_'
'offer_'
'lt_'
'longer_'
'ine_'
'gu'
'giving_'
'finish_'
'der_'
'crime_'
'clothes_'
'black_'
'beat_'
'Tom_'
'Looks_'
'I'
'Hold_'
'From_'
'Father_'
'Anything_'
'American_'
'...._'
'ُّ_'
'َ؟_'
'ً،_'
'ينتهي_'
'يق_'
'يف_'
'يحب_'
'يتحدث_'
'وها_'
'ولكنها_'
'وكل_'
'وح'
'واحدا_'
'نيك_'
'ناء_'
'نا'
'موعد_'
'موجودة_'
'مدينة_'
'مدى_'
'ماي'
'لسنا_'
'كلما_'
'كس_'
'قوية_'
'قليل_'
'قدم_'
'قادم_'
'فال'
'عفوا_'
'سم_'
'سخيف_'
'سأقوم_'
'سأت'
'رجلا_'
'راء_'
'دث_'
'دان_'
'خلف_'
'حينها_'
'حينما_'
'حبيبي_'
'جع_'
'جزيلا_'
'جاهزة_'
'تون_'
'تفعلي_'
'تشارلي_'
'تستطيعين_'
'تبحث_'
'بيني_'
'بيننا_'
'برنامج_'
'بإ'
'اية_'
'النظر_'
'المكتب_'
'القلب_'
'القضية_'
'القادم_'
'القائد_'
'العميل_'
'العشاء_'
'العائلة_'
'الش'
'السيطرة_'
'الخلف_'
'الجيش_'
'الآ'
'ارجوك_'
'ابي_'
'ئي_'
'إن'
'إست'
'إذهب_'
'أهذا_'
'أننى_'
'أما_'
'أخذت_'
'worried_'
'weapons_'
'type_'
'street_'
'sing_'
'sex_'
'seat_'
'respect_'
'problems_'
'ping_'
'per_'
'pass_'
'mistake_'
'message_'
'lying_'
'ling_'
'killer_'
'ker_'
'kept_'
'gentlemen_'
'foot_'
'et_'
'during_'
'dark_'
'dance_'
'cup_'
'busy_'
'building_'
'bought_'
'birthday_'
'air_'
'across_'
'York_'
'U_'
'Peter_'
'Joe_'
'Ja'
'IT_'
'Her_'
'David_'
'Christmas_'
'C'
'24_'
'200_'
'18_'
'16_'
'. '
'- "_'
')؟ )_'
'! (_'
'ُّ _'
'يفعله_'
'وية_'
'ولقد_'
'وجهك_'
'والدتك_'
'والأ'
'وإلا_'
'نقطة_'
'ميلاد_'
'مكتب_'
'محق_'
'للت'
'لتو'
'لاي'
'لات_'
'لأي_'
'لأنها_'
'كلها_'
'قق_'
'قص_'
'فيك_'
'فكرت_'
'ـا'
'غبي_'
'عوا_'
'عندي_'
'عندها_'
'عملي_'
'عما_'
'عليكم_'
'عب_'
'طالما_'
'صور_'
'صديقك_'
'شعر_'
'شر'
'سى_'
'ساعدني_'
'سأعود_'
'زة_'
'رض_'
'حياته_'
'جعل_'
'توم_'
'توقفي_'
'تس'
'تجد_'
'تبدأ_'
'بوب_'
'بـ'
'بان_'
'بالق'
'بارك_'
'اي'
'او'
'النا'
'المن'
'المخدرات_'
'العيش_'
'العثور_'
'الطابق_'
'الخطة_'
'الخطأ_'
'الحالة_'
'الاشياء_'
'الأخرى_'
'اكون_'
'اعتقدت_'
'است'
'اته_'
'إني_'
'أعود_'
'أست'
'أر'
'أتريد_'
'آنسة_'
'wedding_'
'turned_'
'totally_'
'ting_'
'throw_'
'sta'
'sounds_'
'smart_'
'proud_'
'protect_'
'paper_'
'pain_'
'memory_'
'machine_'
'li'
'ley_'
'letter_'
'kiss_'
'hasn_'
'ha_'
'h'
'gold_'
'forgot_'
'el_'
'early_'
'difference_'
'cy_'
'count_'
'calls_'
'brain_'
'bigger_'
'bathroom_'
'ally_'
'agree_'
'Tony_'
'Three_'
'TV_'
'Sometimes_'
'S'
'May_'
'Man_'
'Leave_'
'King_'
'J_'
'Isn_'
'George_'
'Everyone_'
'Colonel_'
'Bobby_'
'Baby_'
'. (_'
', '_'
')، (_'
' ً _'
' " ؟_'
'ِّ_'
'ّ؟_'
'ً..._'
'يو_'
'يش'
'يد'
'يبدوا_'
'ياله_'
'يا'
'وهذه_'
'وقال_'
'وعندما_'
'وخ'
'وبعد_'
'وب'
'نفسها_'
'نحو_'
'نحاول_'
'مم_'
'مكانك_'
'معذرة_'
'مد_'
'مثيرة_'
'ماتت_'
'لطالما_'
'كون_'
'قي_'
'قطع_'
'فعلته_'
'فجأة_'
'عو'
'عشرة_'
'عدت_'
'طر_'
'طبعا_'
'صباحا_'
'شي'
'سيت'
'ستعمل_'
'سأتصل_'
'رج_'
'دى_'
'خمس_'
'خائف_'
'حفلة_'
'حتاج_'
'تفهم_'
'بيتر_'
'بواسطة_'
'به'
'بنفسي_'
'بن'
'بل'
'بال_'
'الهي_'
'المطبخ_'
'المح'
'اللقاء_'
'اللعبة_'
'القبض_'
'القا'
'الغ'
'الشركة_'
'الشا'
'السماء_'
'الرغم_'
'التالي_'
'الأمن_'
'اف'
'اة_'
'إي'
'إسمع_'
'أنتظر_'
'أل'
'أسف_'
'أخيرا_'
'أخرج_'
'أح'
'yesterday_'
'wonderful_'
'wearing_'
'using_'
'train_'
'tired_'
'teach_'
'swear_'
'surprise_'
'stopped_'
'soul_'
'single_'
'seeing_'
'rid_'
'record_'
'quick_'
'prove_'
'mess_'
'list_'
'lies_'
'ings_'
'ian_'
'hang_'
'fly_'
'figured_'
'fell_'
'expect_'
'ex_'
'evidence_'
'ear'
'doubt_'
'cute_'
'cop_'
'completely_'
'class_'
'changed_'
'caught_'
'bar_'
'ary_'
'act_'
'[ _'
'Was_'
'Sounds_'
'Since_'
'Mother_'
'More_'
'Max_'
'La'
'L'
'Honey_'
'Henry_'
'Ga'
'First_'
'Every_'
'Da'
'D'
'Bill_'
'AND_'
'60_'
'... '
'- (_'
')..._'
'", _'
' ، (_'
' -- _'
'يمكنها_'
'يعد_'
'يحتاج_'
'يح'
'وي'
'ولكني_'
'وق_'
'وسي'
'وست'
'وة_'
'وبين_'
'هنري_'
'هاري_'
'ني'
'ميل_'
'موجود_'
'منطقة_'
'مـا_'
'مضى_'
'مش'
'مستحيل_'
'مريض_'
'مركز_'
'مرا'
'مت'
'مات'
'لون_'
'لطيفة_'
'لات'
'كين_'
'قمنا_'
'قامت_'
'قاتل_'
'فون_'
'فت_'
'ـه_'
'ـر'
'عملية_'
'عمله_'
'عملك_'
'عك_'
'طع_'
'طر'
'طبيب_'
'صندوق_'
'صحيحا_'
'صاحب_'
'شرطي_'
'شا'
'سنفعل_'
'سل_'
'زوجك_'
'رين_'
'رق_'
'دور_'
'حي'
'حوالي_'
'حه_'
'حاليا_'
'جين_'
'جيمس_'
'جة_'
'ثمة_'
'تقل_'
'تقصد_'
'تفضل_'
'تعود_'
'تركت_'
'تذكر_'
'تحمل_'
'تبدين_'
'تأخذ_'
'بون_'
'بناء_'
'بعيد_'
'بش'
'بدا_'
'بالم'
'بأنهم_'
'اول_'
'اها_'
'المنطقة_'
'المفضل_'
'المطاف_'
'المستشفى_'
'المت'
'الل'
'الكلب_'
'الكفاية_'
'الكتاب_'
'القيادة_'
'القهوة_'
'القليل_'
'القديم_'
'العرض_'
'العاهرة_'
'الظلام_'
'السابق_'
'السؤال_'
'الز'
'الدكتور_'
'الحقيقية_'
'الحفلة_'
'الجيد_'
'الجميل_'
'الامور_'
'الأسلحة_'
'الأرجح_'
'الأخير_'
'الآخرين_'
'اذهبي_'
'اح'
'ئك_'
'إيجاد_'
'إر'
'أهتم_'
'أنظري_'
'أنا'
'ألن_'
'أقدر_'
'أخبريني_'
'أحضرت_'
'أجلي_'
'أتفهم_'
'أبحث_'
'¶ _'
'works_'
'window_'
'watching_'
'ure_'
'thinks_'
'ter_'
'store_'
'skin_'
'sh_'
'seven_'
'se'
'realize_'
'poor_'
'paid_'
'ors_'
'neck_'
'ments_'
'ma'
'lunch_'
'lucky_'
'lived_'
'leg_'
'ladies_'
'joke_'
'jail_'
'horse_'
'government_'
'follow_'
'feels_'
'fear_'
'excuse_'
'escape_'
'enjoy_'
'cops_'
'co'
'clo'
'catch_'
'camera_'
'buddy_'
'boyfriend_'
'box_'
'boat_'
'anywhere_'
'X_'
'Watch_'
'Too_'
'Ti'
'Think_'
'Sha'
'Run_'
'Red_'
'Re'
'Ray_'
'R'
'Nobody_'
'Le'
'G_'
'Coming_'
'Call_'
'230_'
'." _'
'.'
'- '
'♪_'
'™_'
'يون_'
'ينه_'
'ين'
'يع'
'يرة_'
'ير'
'يج'
'يت'
'وو'
'وم'
'وكانت_'
'وع'
'وز_'
'وراء_'
'وجهي_'
'وأ'
'هم'
'هر'
'هاه_'
'نرى_'
'مى_'
'موت_'
'مو'
'منتصف_'
'معا'
'مع'
'مسبقا_'
'مختلفة_'
'مختلف_'
'مح'
'مج'
'مثلما_'
'ماهي_'
'مالك_'
'لم'
'للم'
'للق'
'للر'
'لكننا_'
'لف_'
'لرؤية_'
'لديكم_'
'لأننا_'
'كوني_'
'كم'
'قه_'
'قلبي_'
'قضية_'
'قادرا_'
'فيلم_'
'فورا_'
'فهو_'
'فر'
'فأ'
'ـل_'
'ـك_'
'غو'
'عين_'
'عائلتي_'
'عا_'
'ظر_'
'طيع_'
'ضى_'
'شراب_'
'شديد_'
'شباب_'
'سين'
'سيتم_'
'ستت'
'ريك_'
'رحلة_'
'رؤيتك_'
'ذكر_'
'دك_'
'دعيني_'
'در'
'دأ_'
'ثمن_'
'تى_'
'تو_'
'تموت_'
'تل'
'تغيير_'
'تعد_'
'تصل_'
'تشعرين_'
'تري_'
'ترغب_'
'تر_'
'تخرج_'
'تحرك_'
'تجعل_'
'تتح'
'تة_'
'تب'
'بمجرد_'
'بشدة_'
'بس'
'بداية_'
'ببساطة_'
'بالكاد_'
'بالرغم_'
'بالإضافة_'
'باب_'
'انتي_'
'اليك_'
'المق'
'المشاكل_'
'اللحظة_'
'القول_'
'القتل_'
'القاعدة_'
'الف'
'الضابط_'
'الصندوق_'
'السي_'
'الثالث_'
'التفكير_'
'التعامل_'
'الة_'
'الأيام_'
'اك'
'أي'
'أنتما_'
'أنت'
'أمريكا_'
'أقرب_'
'أعرفه_'
'أطلق_'
'أسوأ_'
'أسابيع_'
'أخبرت_'
'أج'
'أثق_'
'أتى_'
'أب_'
'آن_'
'؟ '
'ze_'
'wrote_'
'wonder_'
'ways_'
'upset_'
'tu'
'ta_'
'stick_'
'step_'
'seemed_'
'sea_'
's'
'ra_'
'personal_'
'ones_'
'no'
'names_'
'mission_'
'meeting_'
'low_'
'lo'
'learn_'
'kin_'
'join_'
'hole_'
'hmm_'
'hello_'
'gift_'
'fish_'
'fi'
'felt_'
'favorite_'
'favor_'
'drunk_'
'decided_'
'closed_'
'ce'
'calm_'
'burn_'
'born_'
'begin_'
'bag_'
'area_'
'ant_'
'accident_'
'Unless_'
'Should_'
'Ri'
'Paul_'
'Pa'
'Ne'
'Mike_'
'M'
'Lo'
'K'
'ING_'
'Ha_'
'General_'
'Big_'
'Before_'
'Ba'
'Anyway_'
'Alright_'
'220_'
') -_'
')'
'ً !_'
'يين_'
'ينة_'
'يل'
'يك'
'يقومون_'
'يقولون_'
'يف'
'يش_'
'يس'
'يخ'
'ويت'
'ون'
'وكيف_'
'وس'
'وتح'
'والتي_'
'وا'
'وإن_'
'هـذا_'
'هراء_'
'هام_'
'نيل_'
'نها_'
'نق'
'نح'
'نجد_'
'نت'
'ناه_'
'منت'
'ممتاز_'
'ملك_'
'مقابل_'
'مفهوم_'
'مـن_'
'مست'
'مره_'
'مرحب_'
'مرات_'
'مر'
'مذهل_'
'متع'
'لوا_'
'لندن_'
'للعمل_'
'للع'
'للح'
'للإ'
'لل_'
'لكى_'
'لع'
'لاحق_'
'لإ'
'كى_'
'كن'
'كلنا_'
'كأ'
'قى_'
'قلته_'
'قف_'
'فه_'
'فمن_'
'فلت'
'فعلها_'
'ـن_'
'ـر_'
'عنا_'
'طي_'
'ضر_'
'شهر_'
'شركة_'
'شخصية_'
'ش'
'سو_'
'سنذهب_'
'سلاح_'
'سك_'
'سر'
'ستق'
'سأخبرك_'
'زوجي_'
'زوج_'
'رباه_'
'رائحة_'
'رأسك_'
'رأس_'
'دن'
'خرج_'
'حم_'
'حقيقية_'
'جيم_'
'جي'
'جاهز_'
'جار_'
'ثق_'
'تي'
'تهتم_'
'تق'
'تـ'
'تع_'
'تحدثت_'
'تج'
'تترك_'
'تتذكر_'
'تا'
'بول_'
'بن_'
'بكثير_'
'بقي_'
'بق'
'بعضهم_'
'بضعة_'
'بس_'
'بد'
'بخ'
'بح_'
'بجانب_'
'بالو'
'بالع'
'بالش'
'بالأ'
'امي_'
'الولايات_'
'الوغد_'
'الوضع_'
'الو'
'الهدف_'
'المياه_'
'الموسيقى_'
'الملابس_'
'المس'
'المحطة_'
'الما'
'الفيلم_'
'الغداء_'
'الطائرة_'
'الشراب_'
'السابقة_'
'الر'
'الخ'
'الجو_'
'الجميلة_'
'الإتصال_'
'الأن'
'الآنسة_'
'اقول_'
'اعطني_'
'اعت'
'اظن_'
'اط'
'اسمي_'
'اسمعي_'
'از'
'ارت'
'اثنان_'
'اتي_'
'اتصلت_'
'ابني_'
'ابة_'
'إنتظر_'
'إطلاق_'
'إد'
'أمور_'
'أملك_'
'ألف_'
'أعدك_'
'أطلب_'
'أش'
'أسبوع_'
'أذا_'
'أد'
'أجلك_'
'آ'
'}_'
'ya'
'wondering_'
'wear_'
'walking_'
'w'
'upon_'
'thousand_'
'themselves_'
'te'
'surgery_'
'stuck_'
'station_'
'state_'
'shop_'
'scene_'
'sa'
'relationship_'
're'
'rather_'
'push_'
'pro'
'present_'
'pre'
'planet_'
'over'
'ok_'
'nu'
'nose_'
'ned_'
'nce_'
'naked_'
'month_'
'middle_'
'medical_'
'marriage_'
'locked_'
'lly_'
'ions_'
'involved_'
'interested_'
'in'
'idiot_'
'id_'
'ia_'
'hungry_'
'ga'
'fuckin_'
'forced_'
'fool_'
'feet_'
'eating_'
'earlier_'
'dogs_'
'difficult_'
'cover_'
'court_'
'contact_'
'card_'
'bear_'
'as'
'art_'
'absolutely_'
'ab'
'W'
'Ta'
'Somebody_'
'Sit_'
'Ro'
'P'
'Once_'
'Mary_'
'Little_'
'Lieutenant_'
'Li'
'Last_'
'L_'
'Ko'
'Johnny_'
'Jim_'
'Hmm_'
'Harry_'
'Everybody_'
'En'
'Doctor_'
'B'
'Aren_'
'Arabic_'
'? !_'
'5'
'300_'
'2'
') ._'
') )._'
'$_'
' ؟ -_'
' . -_'
'ِ (_'
'ً .. _'
'يه'
'يصبح_'
'يال'
'يارجل_'
'وين_'
'وني'
'ونا_'
'ولهذا_'
'وقتك_'
'وربما_'
'وجهه_'
'وج_'
'وان_'
'وأح'
'هي'
'هاي_'
'هار'
'نعمل_'
'نص'
'نز_'
'نر'
'نخ'
'نات_'
'نأخذ_'
'مون_'
'موقع_'
'منزلك_'
'من'
'مـ'
'معى_'
'مشاكل_'
'مستعدة_'
'محاولة_'
'مثلي_'
'ماهو_'
'ماكس_'
'مازلت_'
'مازال_'
'مارك_'
'مار'
'ليو_'
'ليل_'
'لية_'
'له'
'لنفسك_'
'للو'
'للس'
'لط'
'لس'
'لربما_'
'لح'
'لبعض_'
'كلي'
'كري'
'كرا'
'كثيرة_'
'كت'
'كايل_'
'كان'
'كابتن_'
'كا_'
'قك_'
'قررت_'
'قر'
'قب'
'قابلت_'
'فو'
'فلن'
'فكر_'
'فأنت_'
'ـم_'
'ـ'
'غريبة_'
'عتقد_'
'عات_'
'عا'
'طويلا_'
'ضد_'
'صديقة_'
'شكل_'
'شرف_'
'شة_'
'سير'
'سوء_'
'سن'
'سماع_'
'سك'
'ستفعل_'
'ستع'
'ستر'
'سبق_'
'سابق_'
'سا_'
'زي'
'زر_'
'زا'
'ريتشارد_'
'رم'
'دين'
'دليل_'
'دا'
'خل_'
'خرجت_'
'خائفة_'
'حلم_'
'حق'
'حظ_'
'حادثة_'
'جيل_'
'جر'
'جامعة_'
'جا'
'تو'
'تناول_'
'تملك_'
'تف'
'تع'
'تسير_'
'ترا'
'تحدث_'
'تتكلم_'
'تب_'
'بيع_'
'بو_'
'بنفس_'
'برا'
'بجد_'
'بالن'
'بالله_'
'بالر'
'باريس_'
'با'
'اه'
'اننى_'
'انا'
'ان'
'امر_'
'ام'
'اليه_'
'الهواء_'
'الميلاد_'
'المهم_'
'المه'
'المدير_'
'المتحدة_'
'اللعب_'
'الل_'
'الكرة_'
'الك'
'القديمة_'
'الشعر_'
'الشخصية_'
'السا'
'الرئيسي_'
'الجن'
'الجلوس_'
'الجزء_'
'الت_'
'الان'
'الال'
'الإن'
'الإ'
'الأم_'
'الأحيان_'
'اعد_'
'اشعر_'
'استخدام_'
'ارى_'
'ارد_'
'اد'
'اخرج_'
'اتمنى_'
'اتك_'
'ابنتي_'
'إمرأة_'
'إعتقدت_'
'إس'
'أم'
'أستطع_'
'أري'
'أرأيت_'
'أخشى_'
'أت'
'؟ )_'
'ws_'
'worst_'
'wood_'
'voice_'
'ver'
'turns_'
'tree_'
'teacher_'
'tea_'
'table_'
'swim_'
'suppose_'
'suit_'
'ster_'
'staying_'
'so'
'sleeping_'
'size_'
'situation_'
'sitting_'
'si'
'sake_'
'ran_'
'quiet_'
'prison_'
'patient_'
'owe_'
'ou'
'os_'
'nervous_'
'na'
'music_'
'match_'
'marry_'
'loves_'
'lord_'
'law_'
'kitchen_'
'immediately_'
'holding_'
'ho'
'hip_'
'hide_'
'he'
'ham_'
'ha'
'guard_'
'glass_'
'gi'
'gate_'
'forward_'
'fla'
'fighting_'
'fair_'
'evening_'
'ence_'
'drugs_'
'dollars_'
'do'
'dis'
'destroy_'
'continue_'
'computer_'
'common_'
'ch'
'ces_'
'cash_'
'cars_'
'bra'
'board_'
'ban'
'ated_'
'ali'
']؛ _'
'Y'
'Welcome_'
'Time_'
'Still_'
'Son_'
'SA'
'Ru'
'Ra'
'President_'
'Po'
'Pete_'
'Lady_'
'Jo'
'Har'
'Ha'
'G'
'Five_'
'Fe'
'Dude_'
'Detective_'
'Cor'
'Car'
'23_'
'13_'
'..."_'
'... ... _'
'-'
')"_'
'"!_'
'" '
'"'
' ™ _'
' * _'
'ِ ؟_'
'ُ، _'
'ً، (_'
'ً .._'
'ً'
'يمكنهم_'
'يمكننى_'
'يعيش_'
'يده_'
'يدة_'
'يب'
'يان_'
'يؤ'
'ويل'
'ولي_'
'ولد_'
'وكذلك_'
'وف'
'وغ'
'وض'
'ورة_'
'وذلك_'
'وجدنا_'
'وج'
'وبي'
'والت'
'وإ'
'وأع'
'و'
'هه_'
'هد'
'نه'
'نـا_'
'نع_'
'نع'
'نس_'
'ند'
'نب'
'مه'
'منى_'
'منزلي_'
'ملة_'
'ملابس_'
'مكنك_'
'مف'
'معهم_'
'معركة_'
'مذ'
'مدير_'
'متأك_'
'مايرام_'
'ليسوا_'
'ليت'
'لويس_'
'لن'
'للك'
'للأ'
'لـ'
'لرؤيتك_'
'لر_'
'لتس'
'لان'
'لام_'
'لاشيء_'
'ل'
'كيفية_'
'كي'
'كون'
'كول_'
'كلارك_'
'كال'
'كات_'
'قية_'
'قوي_'
'قل'
'قريبة_'
'قدما_'
'قبل'
'فهي_'
'فلن_'
'فسوف_'
'فت'
'فان_'
'فان'
'فاء_'
'غل_'
'غبية_'
'عى_'
'عنوان_'
'عميل_'
'عملت_'
'عدا_'
'عت_'
'طبيعي_'
'ضي'
'ضح_'
'صي_'
'شم'
'شك_'
'شارع_'
'شاب_'
'سرقة_'
'ستيف_'
'ستطيع_'
'سب_'
'سب'
'ساي'
'رين'
'رع_'
'رجاءا_'
'رأسي_'
'ذب_'
'ذ'
'دو'
'دن_'
'درجة_'
'درا'
'داء_'
'خير_'
'خيار_'
'خطر_'
'خال'
'حو'
'حر'
'حال'
'جين'
'جه_'
'جنون_'
'جن'
'جلبت_'
'جان_'
'ثق'
'تيري_'
'تمزح_'
'تمام_'
'تكم_'
'تك'
'تقوله_'
'تقلقي_'
'تشي'
'تذهبي_'
'تخبرني_'
'تح'
'تتصل_'
'ة'
'بور'
'بوبي_'
'بو'
'بلدي_'
'بلا'
'بع'
'بشأنه_'
'بسيط_'
'برو'
'بداخل_'
'بج'
'بالكامل_'
'بالعمل_'
'بارد_'
'بار_'
'باء_'
'بإمكاني_'
'انت'
'الوا'
'المناسب_'
'المنا'
'المطعم_'
'المش'
'المستقبل_'
'المست'
'اللعنه_'
'اللحم_'
'القدم_'
'الفندق_'
'الفريق_'
'الض'
'الشيطان_'
'الشهر_'
'الشعور_'
'السرعة_'
'الحمام_'
'الحقيبة_'
'الحا'
'الح_'
'الجمعة_'
'الثالثة_'
'التو'
'التح'
'البيض_'
'البي'
'الافضل_'
'الاست'
'الاتصال_'
'الأم'
'الأعمال_'
'الأعلى_'
'الأبيض_'
'الأب_'
'الأب'
'اض'
'اش'
'استمع_'
'ارات_'
'ادة_'
'اج_'
'إخ'
'إثنان_'
'إت'
'إبن_'
'أيمكنني_'
'أولئك_'
'أنحاء_'
'أمل_'
'أمرا_'
'أقوله_'
'أفعله_'
'أعيش_'
'أعمال_'
'أشخاص_'
'أسألك_'
'أراد_'
'أخبار_'
'أحصل_'
'أحدكم_'
'أجد_'
'أتع'
'أتظن_'
'أتساءل_'
'أبقى_'
'آمن_'
'؟"_'
'؟ !_'
'، '
'wn_'
'wake_'
'wa'
'victim_'
'ves_'
'ven'
'value_'
'ue_'
'trip_'
'track_'
'tough_'
'the'
'suspect_'
'sun_'
'strange_'
'stole_'
'song_'
'short_'
'shoes_'
'share_'
'roll_'
'rock_'
'rate_'
'quickly_'
'private_'
'pressure_'
'plans_'
'ped_'
'pe'
'passed_'
'partner_'
'park_'
'out'
'or'
'often_'
'notice_'
'n'
'mentioned_'
'mate_'
'mark_'
'm'
'lovely_'
'listening_'
'lights_'
'legs_'
'leader_'
'ko_'
'ki'
'ju'
'itself_'
'ist_'
'ise_'
'interesting_'
'inter'
'hurry_'
'har'
'grand_'
'goddamn_'
'ger_'
'for'
'fnAdobe_'
'feelings_'
'emergency_'
'driving_'
'drinking_'
'dreams_'
'dra'
'dirty_'
'den_'
'de'
'dating_'
'criminal_'
'credit_'
'color_'
'co_'
'charge_'
'chair_'
'bus_'
'bo'
'bloody_'
'bank_'
'arm_'
'ard_'
'apartment_'
'ance_'
'among_'
'ak'
'afternoon_'
'advice_'
'acting_'
'account_'
'V'
'Te'
'THIS_'
'Se'
'Out_'
'Master_'
'Mac'
'London_'
'Lisa_'
'Ke'
'K_'
'Jimmy_'
'James_'
'Hurry_'
'Happy_'
'Forget_'
'F'
'Eric_'
'Doesn_'
'Do'
'Di'
'Co'
'City_'
'Christ_'
'Chief_'
'Ben_'
'Ar'
'An_'
'25_'
'.. '
')} _'
''._'
'" ؟_'
'! '
' ‫_'
' ¶_'
' --_'
'ِ!_'
'ً '
'يلة_'
'يقوله_'
'يق'
'يفعلون_'
'يفترض_'
'يص'
'يجدر_'
'يتوقف_'
'ياء_'
'يأخذ_'
'ىء_'
'وى_'
'وهناك_'
'وهل_'
'ولكنني_'
'ولة_'
'ول'
'وكأن_'
'وعا'
'وض_'
'وصلنا_'
'وسن'
'وسأ'
'وزارة_'
'وجي'
'وبعدها_'
'وان'
'والذي_'
'وأبوس_'
'هيئة_'
'هد_'
'هة_'
'هال'
'هات_'
'نيو_'
'نو'
'نني_'
'ننتظر_'
'نن'
'نغ_'
'نست'
'نس'
'نخرج_'
'نج_'
'نج'
'نبحث_'
'نار_'
'مية_'
'مور_'
'مناسب_'
'مل'
'مك'
'مقابلة_'
'مضحك_'
'مضت_'
'مض'
'مس'
'مد'
'مخدرات_'
'مجموعة_'
'مب'
'لين'
'ليلي_'
'ليا_'
'لوحدي_'
'لله_'
'للن'
'للخارج_'
'للج'
'للب'
'للا'
'لس_'
'لر'
'لد_'
'لتش'
'لب'
'لانه_'
'لاق_'
'لاأ'
'لأنهم_'
'لأع'
'كيت_'
'كوا'
'كنتم_'
'كلهم_'
'كلا'
'كفى_'
'كفاية_'
'كسر_'
'كاملة_'
'كار'
'قين_'
'قوله_'
'قادمة_'
'قابل_'
'قا'
'فق'
'فظ_'
'فار'
'فات_'
'فا'
'ـت_'
'غري'
'غاضبة_'
'عملنا_'
'علامات_'
'عقد_'
'عـ'
'عالية_'
'عائلتك_'
'طو'
'طريقي_'
'طائرة_'
'ض'
'صفقة_'
'صف_'
'صديقتي_'
'شير'
'شى_'
'شعور_'
'شرا'
'شخصي_'
'سيق'
'سيع'
'سية_'
'سيارتك_'
'سوا'
'سنكون_'
'سمحت_'
'سل'
'سقط_'
'سعيدا_'
'ستي'
'ستس'
'ستح'
'سبعة_'
'سا'
'سأقول_'
'زو'
'زم'
'ري'
'روي_'
'رو'
'رس_'
'ربة_'
'راض_'
'رؤيته_'
'رأيتها_'
'ذاهبة_'
'دوما_'
'دق_'
'دام_'
'دات_'
'خو'
'خطة_'
'خطب_'
'خبر_'
'خاطئ_'
'خاصة_'
'خارجا_'
'خا'
'حية_'
'حيال_'
'حقيبة_'
'حسنـا_'
'حسب_'
'حركة_'
'حج'
'حت'
'جوني_'
'جميعنا_'
'جرا'
'جانب_'
'جار'
'ثمانية_'
'ث'
'تنتهي_'
'تن'
'تقديم_'
'تقا'
'تغ'
'تعرف'
'تعتقدين_'
'تسمح_'
'تستحق_'
'تست'
'تجربة_'
'تأخرت_'
'تأ'
'بين'
'بيلي_'
'بوسعي_'
'بقية_'
'بف'
'بحر'
'بح'
'بتو'
'بتلك_'
'باي'
'بالمناسبة_'
'بالف'
'بالس'
'بالد'
'بالخ'
'بات'
'بأن'
'اهم_'
'انتهيت_'
'النقود_'
'المل'
'المعا'
'المسيح_'
'المرح_'
'المر'
'اللعينة_'
'القمر_'
'القطار_'
'القتال_'
'القاضي_'
'الفضاء_'
'العا'
'الع_'
'الضوء_'
'الصف_'
'الشر'
'السلاح_'
'السرير_'
'الزمن_'
'الرقيب_'
'الرقص_'
'الرسالة_'
'الرحلة_'
'الدفاع_'
'الحكومة_'
'التوقف_'
'التش'
'التخ'
'التا'
'البلاد_'
'البارحة_'
'الأمل_'
'الأكثر_'
'الأصدقاء_'
'افة_'
'اع'
'اث'
'اتهم_'
'اتفقنا_'
'ائك_'
'ئية_'
'إي_'
'إم'
'إلينا_'
'أهناك_'
'أنـا_'
'أن'
'أمن_'
'أكيد_'
'أقوى_'
'أغ'
'أضع_'
'أريده_'
'أرسل_'
'أربع_'
'أرا'
'أدخل_'
'أخبرتني_'
'أخ'
'أجلس_'
'أتعلمين_'
'أتريدين_'
'أبى_'
'أبت'
'؟ ؟_'
'war'
'visit_'
'ver_'
'up'
'under'
'uncle_'
'twice_'
'trial_'
'tra'
'tor_'
'to'
'sweetie_'
'ster'
'ste'
'star_'
'speaking_'
'space_'
'sold_'
'sky_'
'shirt_'
'shame_'
'serve_'
'ru'
'rich_'
'responsibility_'
'res_'
'reach_'
'r'
'putting_'
'prefer_'
'pleasure_'
'places_'
'peace_'
'ow_'
'officer_'
'nd_'
'mo'
'marks_'
'market_'
'ler_'
'learned_'
'le'
'lab_'
'knowing_'
'knock_'
'kes_'
'ked_'
'impossible_'
'imagine_'
'hurts_'
'history_'
'hiding_'
'hi'
'hanging_'
'gra'
'goodbye_'
'given_'
'g'
'forever_'
'floor_'
'fit_'
'fat_'
'experience_'
'expecting_'
'except_'
'evil_'
'ess_'
'entire_'
'enemy_'
'ends_'
'drug_'
'dress_'
'downstairs_'
'di'
'deli'
'da_'
'ct_'
'crew_'
'created_'
'cost_'
'command_'
'checked_'
'cat_'
'car'
'can'
'cal_'
'bye_'
'bullshit_'
'broken_'
'bi'
'became_'
'bastard_'
'ay_'
'au'
'arms_'
'angry_'
'an'
'ac'
'a'
'Ze'
'Yu'
'Yo'
'Want_'
'W_'
'Vi'
'United_'
'Try_'
'T'
'Sta'
'Same_'
'Richard_'
'Open_'
'OF_'
'No'
'Nick_'
'Most_'
'Mc'
'Mark_'
'Mar'
'Majesty_'
'Ma'
'Ka'
'Jane_'
'IN_'
'He'
'H_'
'French_'
'F_'
'Except_'
'El'
'Du'
'De'
'Clark_'
'Chi'
'Cha'
'Bro'
'Bri'
'Anyone_'
'Anna_'
'America_'
'? -_'
': "_'
'17_'
'0'
'...?_'
'.'_'
'. . _'
') - _'
'"..._'
'ّ (_'
'ّ'
'ً . _'
'ينظر_'
'يموت_'
'يعرفون_'
'يعجبني_'
'يض'
'يصل_'
'يدور_'
'يخرج_'
'يجعلك_'
'ياإلهي_'
'وه'
'وما'
'ولا'
'وكنت_'
'وقعت_'
'وقالت_'
'وق'
'وصل_'
'وتت'
'والع'
'والد_'
'والتر_'
'والان_'
'واع'
'وإن'
'وأم'
'وأعتقد_'
'هيه_'
'هـا_'
'هت'
'ها'
'نيت_'
'نم'
'نعود_'
'نظام_'
'نحصل_'
'ناس'
'نادي_'
'ميل'
'مير_'
'مكانها_'
'مقا'
'مق'
'معكم_'
'معظم_'
'مشغولة_'
'مساعدتي_'
'محقة_'
'محطة_'
'مجر_'
'متو'
'متأخر_'
'مان'
'مال'
'ماس'
'مازالت_'
'ماجي_'
'ما'
'مؤخرا_'
'مؤ'
'ليع'
'لير'
'ليح'
'لي'
'لوك_'
'لوس_'
'لوحدك_'
'لنقل_'
'لمعرفة_'
'للقيام_'
'للغايه_'
'للحصول_'
'للجميع_'
'لقتل_'
'لق'
'لفترة_'
'لعين_'
'لدرجة_'
'كين'
'كليا_'
'كلانا_'
'كاميرا_'
'ك'
'قوا'
'قليلة_'
'قـ'
'قرر_'
'قد'
'قتله_'
'قب_'
'قالوا_'
'قار'
'قاد_'
'فية_'
'فورد_'
'فهذا_'
'فن_'
'فلي'
'فلا'
'فـ'
'فخ_'
'فحص_'
'فتيات_'
'فاي'
'ــ'
'ـان_'
'غس'
'غرفتك_'
'غار'
'عون_'
'عها_'
'عنا'
'عشاء_'
'عش'
'عدا'
'عامل_'
'ظا'
'طفلا_'
'طبيعية_'
'طا'
'ضو'
'ضل'
'ضربة_'
'ضحية_'
'ضة_'
'ضاء_'
'صن'
'صلت_'
'سيف'
'سيد'
'سيح'
'سيئا_'
'سو'
'سهلا_'
'سنح'
'سفينة_'
'سريعا_'
'ستذهب_'
'ستأتي_'
'ست'
'سببا_'
'سبا'
'سأم'
'سأبقى_'
'زن_'
'زن'
'زل_'
'روز_'
'روبي_'
'رق'
'رج'
'رايان_'
'رار_'
'رأسه_'
'ديل_'
'ديفيد_'
'دوا'
'دني_'
'دل_'
'دفع_'
'دد_'
'دخل_'
'داني_'
'دار_'
'خي'
'خط_'
'خصوصا_'
'خص'
'حياتها_'
'حك_'
'حظ'
'حضرة_'
'حرا'
'حديث_'
'جوي_'
'جو'
'جن_'
'جل'
'جعلك_'
'جعلت_'
'جدي_'
'جاد_'
'ته'
'تنتظر_'
'تمر'
'تمت_'
'تمانع_'
'تما'
'تلعب_'
'تقولين_'
'تعجبني_'
'تضع_'
'تصديق_'
'تشا'
'تش'
'تز'
'ترو'
'ترم'
'ترت'
'تحضر_'
'تحت'
'تتصرف_'
'تتحرك_'
'تاريخ_'
'بيتي_'
'بية_'
'بي'
'بون'
'بول'
'بلي'
'بع_'
'بضع_'
'بسيطة_'
'براد_'
'بدا'
'بحقك_'
'بت'
'بالمنزل_'
'بالص'
'بالداخل_'
'بالح'
'بار'
'باد'
'بإن'
'بأمر_'
'بأمان_'
'اولا_'
'اهد'
'انى_'
'انتهت_'
'انتم_'
'الهراء_'
'المهمة_'
'الملفات_'
'الملا'
'المك'
'المعركة_'
'المع'
'المساء_'
'المذ'
'المحكمة_'
'المحا'
'المج'
'المؤ'
'الكلام_'
'الكبيرة_'
'القو'
'القبيل_'
'القب'
'الفور_'
'الفر'
'الفا'
'الغد_'
'الغابة_'
'العملية_'
'الع'
'الظهر_'
'الطيران_'
'الطا'
'الضحية_'
'الشارع_'
'الش_'
'السنة_'
'السل'
'السادة_'
'الرئيسية_'
'الر_'
'الخط_'
'الخر'
'الحقير_'
'الحالي_'
'الثلج_'
'الثانوية_'
'التك'
'التحكم_'
'الإنتظار_'
'الأو'
'الألعاب_'
'الأع'
'الأر'
'الأح'
'الأج'
'اصمت_'
'ارك_'
'اذ_'
'اختبار_'
'احت'
'احاول_'
'اثنين_'
'اب'
'اال'
'اء'
'ئي'
'إما_'
'إل_'
'إشارة_'
'إخباري_'
'إحت'
'ؤ'
'أيض_'
'أو'
'أه'
'أموت_'
'أل_'
'أكل_'
'أك'
'أقف_'
'أق'
'أف'
'أعتذر_'
'أطول_'
'أصبت_'
'أدفع_'
'أخبره_'
'أحب'
'أتكلم_'
'أبو'
'آخرى_'
'آتي_'
'´_'
'zed_'
'ye'
'weight_'
'weekend_'
'weapon_'
'walked_'
'vin_'
'village_'
'ved_'
'tiny_'
'tight_'
'tie_'
'teeth_'
'ta'
't'
'sy_'
'sub'
'strength_'
'stories_'
'sti'
'standing_'
'spent_'
'speed_'
'slow_'
'sha'
'seriously_'
'sell_'
'scr'
'science_'
'saved_'
'sad_'
'rt'
'roof_'
'ro'
'restaurant_'
'recognize_'
'rec'
'reality_'
'rea'
'raised_'
'que_'
'public_'
'princess_'
'pri'
'prepared_'
'planning_'
'pizza_'
'pink_'
'personally_'
'opened_'
'og'
'nowhere_'
'ner_'
'nature_'
'moved_'
'mor'
'monster_'
'mon_'
'miles_'
'mic'
'lin_'
'lead_'
'lay_'
'lawyer_'
'la'
'knife_'
'kicked_'
'keeping_'
'k'
'jacket_'
'island_'
'insane_'
'innocent_'
'ia'
'hotel_'
'herself_'
'helping_'
'hearing_'
'hat_'
'hand'
'grew_'
'grand'
'grab_'
'goin_'
'gay_'
'gas_'
'fully_'
'fo'
'fix_'
'fired_'
'fingers_'
'final_'
'feed_'
'fe'
'famous_'
'fa'
'f'
'everywhere_'
'ely_'
'ele'
'ee'
'dump_'
'dollar_'
'der'
'den'
'definitely_'
'deep_'
'decision_'
'darling_'
'ction_'
'cross_'
'cra'
'college_'
'col'
'code_'
'cheap_'
'certainly_'
'certain_'
'cell_'
'cancer_'
'burned_'
'bridge_'
'bomb_'
'bodies_'
'blue_'
'blame_'
'balls_'
'ator_'
'ashamed_'
'allowed_'
'al'
'airport_'
'\u _'
'Vo'
'Va'
'VE_'
'Turn_'
'To'
'Things_'
'Si'
'Sarah_'
'Ryan_'
'Pro'
'Pe'
'Ooh_'
'None_'
'Ni'
'Me'
'Ladies_'
'In'
'Hu'
'Ho'
'Hi'
'HA'
'Gu'
'Gi'
'Friday_'
'Four_'
'Easy_'
'Earth_'
'Doc_'
'Dis'
'Didn_'
'Check_'
'Che'
'Calm_'
'British_'
'Boss_'
'Bar'
'Alice_'
'? '
'- [_'
',"_'
'). _'
'% _'
' ؟ ؟_'
' {\\_'
' )'
'‬_'
'ِ..._'
'ِ '
'يهتم_'
'يمكنكم_'
'يم'
'يكا_'
'يشعر_'
'يرى_'
'يحمل_'
'يحت'
'يح_'
'يجعلني_'
'يتو'
'يتعلق_'
'يبقى_'
'ويس'
'ونه_'
'ومع_'
'ولد'
'وكأنه_'
'وك'
'وعلى_'
'وص'
'وسط_'
'ود'
'وحا'
'وبة_'
'والخ'
'والح'
'وال'
'واست'
'وات'
'وآ'
'هيل_'
'هول'
'هو'
'هــ'
'هرب_'
'هذ'
'هدية_'
'هانك_'
'ننظر_'
'نملك_'
'نكن_'
'نـ'
'نظرت_'
'مي'
'موضوع_'
'موسيقى_'
'موافق_'
'موا_'
'موا'
'منع'
'ممثل'
'مم'
'ملكة_'
'مكتبي_'
'مكان'
'مغ'
'معد'
'مشكلتك_'
'مسدس_'
'مسألة_'
'مزيد_'
'مدرسة_'
'مدة_'
'مخيف_'
'مخ'
'محل_'
'محا'
'مجنونة_'
'مجال_'
'متن_'
'متجر_'
'مايك'
'ماهذا_'
'ماء_'
'مأ'
'ليكون_'
'ليك'
'ليب'
'لو'
'للعيش_'
'للحظة_'
'للبحث_'
'لكن'
'لص_'
'لش'
'لسوء_'
'لج'
'لتلك_'
'لتق'
'لتت'
'لازلت_'
'لاحظت_'
'لاء_'
'لا'
'لأم'
'لأ'
'كه_'
'كلمات_'
'كل'
'كع'
'كر'
'كتبت_'
'كتب_'
'كت_'
'كب'
'كام_'
'كاليفورنيا_'
'كارل_'
'كارتر_'
'كات'
'كا'
'قيمة_'
'قي'
'قلق_'
'قطعة_'
'قط'
'قصيرة_'
'قديم_'
'قتلك_'
'قت'
'قادر_'
'قات_'
'قاء_'
'فير_'
'فيديو_'
'فوضى_'
'فن'
'فلم_'
'فق_'
'فعلتها_'
'فترض_'
'فإنه_'
'ـو'
'ــة_'
'ـد_'
'غيرت_'
'غضب'
'غادرت_'
'غا'
'عنهم_'
'عنده_'
'عندك_'
'عمرك_'
'عكس_'
'عقلك_'
'عجب_'
'عت'
'عب'
'ع'
'طيلة_'
'طيب_'
'طول_'
'طف_'
'صي'
'صلة_'
'صد_'
'صح_'
'صب'
'ص'
'شون_'
'شري'
'شرب_'
'شا_'
'سيه'
'سيم'
'سيل'
'سيئ_'
'سوي_'
'سكوت_'
'سجين_'
'سال'
'ساء_'
'سأص'
'سأست'
'سأحتاج_'
'سأب'
'زوجة_'
'زل'
'زان'
'ز'
'رود'
'روبرت_'
'رها_'
'رنا_'
'رف'
'رغم_'
'رع'
'رس'
'رخ'
'رح_'
'راي_'
'رأى_'
'ديف_'
'دير_'
'دوري_'
'ده'
'دما'
'دف'
'دعينا_'
'دتي_'
'داي'
'خي_'
'خذي_'
'خذ'
'خدمة_'
'خائفا_'
'حياتنا_'
'حيا_'
'حم'
'حقير_'
'حـ'
'حص_'
'حرف_'
'حب'
'حا'
'جيني_'
'جينا_'
'جيف_'
'جيسي_'
'جيري_'
'جولة_'
'جوا'
'جعلني_'
'جاي_'
'جان'
'ثي'
'ثل_'
'تومي_'
'توقفت_'
'توا'
'تنق'
'تنت'
'تم'
'تقد_'
'تفضلي_'
'تغادر_'
'تعل_'
'تعطيني_'
'تعالى_'
'تظنين_'
'تدخل_'
'تحديد_'
'تتغير_'
'تت'
'بيت'
'بنفسها_'
'بقدر_'
'بق_'
'بطاقة_'
'بض_'
'بص'
'بسهولة_'
'بالل'
'بالكثير_'
'بالك'
'بالج'
'بالب'
'بالإمكان_'
'باست'
'باتريك_'
'بإمكاننا_'
'اني'
'انه'
'الوقود_'
'الوجه_'
'النجوم_'
'الن'
'المو'
'المعد'
'المص'
'المشا'
'المسكين_'
'المسا'
'المز'
'المجتمع_'
'المجا'
'اللح'
'الكنيسة_'
'الكابتن_'
'الك_'
'القي'
'القوة_'
'القر'
'الفطور_'
'الفرق_'
'الغير_'
'العلوي_'
'العلاقة_'
'العجوز_'
'الصيف_'
'الشباب_'
'الشاي_'
'الشاطئ_'
'السرية_'
'السر_'
'الزفاف_'
'الرو'
'الرحيل_'
'الرحب_'
'الخي'
'الخبز_'
'الحفل_'
'الحائط_'
'الجيران_'
'الجنوب_'
'الثلاثة_'
'الث'
'التلفاز_'
'التقرير_'
'التفاصيل_'
'التس'
'التر'
'البو'
'البط'
'البشرية_'
'البرنامج_'
'البا'
'الب'
'الاطفال_'
'الاحت'
'الاثنين_'
'الأكبر_'
'الأسئلة_'
'الأخ'
'الأحمر_'
'الأبد_'
'اغ'
'اعني_'
'اطلاق_'
'اش_'
'اسمها_'
'اسم'
'اسف_'
'استخدم_'
'اس'
'اري'
'اراك_'
'احصل_'
'احة_'
'اتنا_'
'اتصال_'
'اتحدث_'
'ات'
'ابنك_'
'ابنتك_'
'ابقي_'
'ئه_'
'إيف'
'إم_'
'إص'
'إخت'
'إب'
'أهذه_'
'أليكس_'
'أفترض_'
'أعلى_'
'أعرفك_'
'أع'
'أط'
'أشك_'
'أسفل_'
'أس'
'أرجو_'
'أذن_'
'أخل'
'أختي_'
'أحت'
'أتوقع_'
'أتعرفين_'
'أتصل_'
'أبعد_'
'أب'
'آنا_'
'آرثر_'
'آدم_'
'آخرين_'
'ء'
'؛ _'
'ying_'
'xi'
'x'
'wing_'
'wine_'
'wind_'
'willing_'
'whether_'
'waste_'
'warm_'
'wall_'
'vampire_'
'va'
'ured_'
'ur'
'upstairs_'
'ul'
'truck_'
'tro'
'trap_'
'ticket_'
'tele'
'tch_'
'taste_'
'surprised_'
'suddenly_'
'steal_'
'starting_'
'soft_'
'sneak_'
'smoke_'
'smell_'
'silly_'
'signed_'
'sight_'
'shower_'
'shooting_'
'shh_'
'shape_'
'sen'
'saving_'
'sat_'
'safety_'
'ry'
'rt_'
'round_'
'responsible_'
'ras'
'raise_'
'ra'
'quit_'
'qui'
'prop'
'proof_'
'promised_'
'program_'
'price_'
'powerful_'
'pool_'
'po'
'plenty_'
'player_'
'pictures_'
'pe_'
'par'
'pants_'
'pal_'
'paint_'
'p'
'ot'
'os'
'original_'
'oo'
'onto_'
'nta'
'note_'
'necessary_'
'near_'
'ne'
'natural_'
'named_'
'min'
'matters_'
'mat'
'mar'
'magic_'
'loud_'
'location_'
'lines_'
'lia'
'large_'
'jump_'
'jo'
'jealous_'
'ja'
'ium_'
'iron_'
'interest_'
'il_'
'ide_'
'holes_'
'hol'
'ho_'
'hi_'
'helped_'
'heaven_'
'harder_'
'guest_'
'grow_'
'group_'
'gotten_'
'goo'
'gin_'
'genius_'
'further_'
'fresh_'
'form_'
'forgive_'
'fore'
'football_'
'fin'
'fan_'
'excited_'
'especially_'
'ero'
'en'
'empty_'
'ell_'
'el'
'eh_'
'egg_'
'ee_'
'e'
'due_'
'doin_'
'disgusting_'
'disappeared_'
'dig_'
'dge_'
'demon_'
'deliver_'
'ded_'
'decide_'
'dare_'
'dar'
'd'
'cul'
'consider_'
'concerned_'
'coat_'
'club_'
'clock_'
'client_'
'ck'
'chicken_'
'ches_'
'cha'
'cares_'
'career_'
'cap'
'cake_'
'ca'
'cH'
'bur'
'bunch_'
'breaking_'
'bre'
'bor'
'blo'
'blind_'
'ber'
'bell_'
'beginning_'
'barely_'
'babe_'
'ations_'
'army_'
'ard'
'ar'
'appreciate_'
'appear_'
'apart_'
'animal_'
'alright_'
'afford_'
'admit_'
'ad'
'action_'
'accept_'
'Yo_'
'Yep_'
'Until_'
'Uncle_'
'Trust_'
'Tra'
'Steve_'
'Start_'
'Sheriff_'
'Scott_'
'Sch'
'RE'
'Professor_'
'Pri'
'Pi'
'Over_'
'Ok_'
'Nor'
'Mo'
'Mmm_'
'Martin_'
'Man'
'Ma_'
'ME_'
'MAN_'
'Love_'
'Jerry_'
'Je'
'Indian_'
'Homer_'
'HE_'
'H'
'Guess_'
'Goodbye_'
'Fu'
'Fre'
'Don'
'Day_'
'Dar'
'Dam'
'Chris_'
'Ca'
'Brian_'
'Bra'
'Besides_'
'Aw_'
'An'
'Alex_'
'Again_'
'Ag'
'Absolutely_'
'AS'
'9'
'11'
'10'
'.... _'
'... ؟_'
'., _'
'," _'
''?_'
'#_'
'" -_'
' ؟ !_'
' - !_'
' ) ؟_'
' # # _'
'ُ (_'
'َ '
'ٍ._'
'يي'
'يو'
'يهمني_'
'ينجح_'
'ينت'
'يفكر_'
'يغير_'
'يغ'
'يعط'
'يعت'
'يط'
'يسي'
'يساعد_'
'يدفع_'
'يتك_'
'يار_'
'يأ'
'ويع'
'ويح'
'ويب'
'ولو_'
'ولدي_'
'ولدت_'
'وقف_'
'وقع_'
'وظيفة_'
'وط'
'وش'
'وز'
'ورب'
'ورا'
'وجهة_'
'وجد_'
'وتل'
'وتق'
'وتع'
'والس'
'والده_'
'والا'
'والإ'
'وال_'
'وار_'
'واحده_'
'واجب'
'وأت'
'هير'
'هور_'
'هوا'
'هل'
'هان_'
'هاتف_'
'ه'
'نيو'
'نينا_'
'نيكي_'
'نو_'
'نك'
'نقل_'
'نقاط_'
'نفعله_'
'نعيش_'
'نظر_'
'نظر'
'نش'
'نز'
'نر_'
'ند_'
'نال_'
'ناد'
'ميتا_'
'موقف_'
'مواجهة_'
'منح'
'مناسبة_'
'ممتع_'
'ملايين_'
'ملابسك_'
'مـا'
'معروف_'
'مط'
'مصاب_'
'مص'
'مشغول_'
'مسموح_'
'مسرح_'
'مستعدون_'
'مستشفى_'
'مسا'
'مريضة_'
'مرض_'
'مدين_'
'محظوظ_'
'مجلس_'
'مثل'
'متي_'
'مام'
'مارتن_'
'مئ'
'مؤسف_'
'لمن_'
'لمساعدتك_'
'للهول_'
'للمرة_'
'للمر'
'للش'
'لكنهم_'
'لك'
'لغ_'
'لطيفا_'
'لشخص_'
'لد'
'لحد_'
'لجعل_'
'لتناول_'
'لتن'
'لتر'
'لتح'
'لال'
'لاق'
'لأول_'
'لأن'
'لأر'
'لأح'
'كيل'
'كو'
'كلوي_'
'كلب_'
'كـان_'
'كـ_'
'كز_'
'كرو'
'كدت_'
'كتاب_'
'كبيرا_'
'كب_'
'كارين_'
'كار_'
'كأن_'
'قولي_'
'قو'
'قلق'
'قلب_'
'قر_'
'قتلي_'
'قاموا_'
'فير'
'في'
'فنحن_'
'فم'
'فصل'
'فس'
'فتح_'
'فا_'
'ـي'
'ــا_'
'ــا'
'ـع_'
'ـد'
'غي'
'غضون_'
'غب'
'غاية_'
'غالبا_'
'غاضب_'
'عودة_'
'عندنا_'
'عمي_'
'عمرها_'
'علامة_'
'عقد'
'عق'
'عثرت_'
'عبارة_'
'عاهرة_'
'عائلتها_'
'ظم'
'ظر'
'ظة_'
'طلق_'
'طلاق_'
'طرد'
'طال_'
'طار_'
'طابت_'
'ضوا_'
'صو'
'صنع'
'صم'
'صف'
'صدمة_'
'صد'
'صح'
'صار_'
'شو_'
'شو'
'شهور_'
'شه'
'شك'
'شت'
'شبكة_'
'شب'
'شابه_'
'سيو'
'سين_'
'سيس'
'سيارتي_'
'سنع'
'سنرى_'
'سنر'
'سميث_'
'سلاحك_'
'سق'
'سد_'
'سجل_'
'ستون_'
'سات_'
'ساب'
'سأعطيك_'
'سأج'
'سأ_'
'زين_'
'زوجته_'
'زه_'
'زا_'
'ريس'
'رية_'
'روح_'
'رني_'
'رن'
'رش'
'رسمي_'
'رت'
'ربي_'
'رام_'
'راقب_'
'راج_'
'را'
'رآ'
'ذى_'
'ذهبوا_'
'ذهبنا_'
'ذكرت_'
'ذا'
'ديد_'
'دي'
'دهم_'
'دم'
'دري'
'دانيال_'
'دان'
'دائم_'
'خلي'
'خلفك_'
'خطوة_'
'خطو'
'خطط_'
'خط'
'خدع'
'خار'
'حيوان_'
'حمل_'
'حمقاء_'
'حماية_'
'حمام_'
'حقيقيا_'
'حرب_'
'حذرا_'
'حد'
'حث_'
'حتي_'
'حامل_'
'حالما_'
'حاف'
'حاجة_'
'جيده_'
'جول'
'جميلا_'
'جلي'
'جلب_'
'جز_'
'جرى_'
'جدي'
'جدتي_'
'جثة_'
'جت'
'جب_'
'جات_'
'جا_'
'ثير_'
'ثي_'
'ثل'
'تيل'
'تون'
'توق_'
'تود_'
'تنظر_'
'تمن_'
'تلا'
'تقم_'
'تقف_'
'تقر'
'تقتل_'
'تعنيه_'
'تعلمت_'
'تعرضت_'
'تعتقد'
'تعب'
'تظهر_'
'تظ'
'تطلق_'
'تطلب_'
'تشغيل_'
'تشر'
'تش_'
'تسل'
'تسبب_'
'تريده_'
'تريد'
'ترك'
'تر'
'تد'
'تخ'
'تحا'
'تجري_'
'تتوقف_'
'تتو'
'تبع'
'تبر'
'تاي'
'تؤ'
'تأمين_'
'تأكيد_'
'ةال'
'بير_'
'بوضع_'
'بوجود_'
'بمع'
'بم_'
'بلو'
'بعدما_'
'بط_'
'بسرعه_'
'برم'
'برأيك_'
'بذ'
'بحلول_'
'بان'
'بام'
'بالمر'
'بالغ'
'بالط'
'بالتع'
'بالإ'
'بالأمس_'
'بالأسفل_'
'بإسم_'
'انف'
'اند'
'اما_'
'اليا'
'الهرب_'
'الهجوم_'
'النووي_'
'النق'
'النظرة_'
'النس'
'النجدة_'
'النبيذ_'
'المي'
'الموقف_'
'الموافقة_'
'الملكة_'
'المفتاح_'
'المف'
'المغ'
'المخابرات_'
'المخا'
'المحاولة_'
'المأ'
'اللا'
'الكو'
'الكعك_'
'الكرسي_'
'الكاميرا_'
'القط'
'القرف_'
'القدوم_'
'القانون_'
'القارب_'
'الق'
'الفوز_'
'الفو'
'الفكرة_'
'الفراش_'
'الفرا'
'الغاز_'
'العلاج_'
'العر'
'العدل_'
'العاشرة_'
'الطاقة_'
'الضغط_'
'الصور_'
'الصوت_'
'الصحيح_'
'الشكل_'
'الشر_'
'الشاحنة_'
'السيارات_'
'السوق_'
'السكر_'
'الرياضة_'
'الرسائل_'
'الراحة_'
'الرائع_'
'الرا'
'الذ'
'الدرجة_'
'الداخلية_'
'الخمر_'
'الحيوانات_'
'الحديد_'
'الجوا'
'التوا'
'التقا'
'التص'
'التحقيق_'
'التاريخ_'
'التأ'
'الت'
'البن'
'البل'
'البريد_'
'البرو'
'البر'
'الاولى_'
'الاق'
'الاعت'
'الاع'
'الاسم_'
'الإنت'
'الإست'
'الإس'
'الأمريكية_'
'الأمامي_'
'الأق'
'الأش'
'الأس'
'ال'
'اقوم_'
'افهم_'
'افكر_'
'اعمل_'
'اعة_'
'اشرب_'
'اسو'
'استمر_'
'استع'
'اسة_'
'اريدك_'
'اري_'
'ار'
'اذ'
'ادي'
'اخت'
'اخبرني_'
'احتاج_'
'اترك_'
'ابي'
'ابق_'
'ابت'
'ئل_'
'إيما_'
'إنس'
'إنتهى_'
'إنتظري_'
'إل'
'إسم_'
'أولاد_'
'أور'
'أه_'
'ألي'
'ألو'
'ألست_'
'ألديك_'
'أكس'
'أغنية_'
'أعضاء_'
'أظنني_'
'أصدقائي_'
'أشرب_'
'أسهل_'
'أستمع_'
'أسئلة_'
'أدرك_'
'أخمن_'
'أخ_'
'أجر'
'أثبت_'
'أتعتقد_'
'أترين_'
'أترك_'
'آلاف_'
'آل_'
'آل'
'آش'
'آخذ_'
'آب'
'zoo_'
'zer_'
'z'
'writer_'
'winner_'
'whoever_'
'west_'
'ving_'
'vic'
'use'
'um'
'ug'
'trick_'
'tri'
'trash_'
'trade_'
'total_'
'tor'
'tip_'
'ties_'
'tic_'
'ti'
'thy_'
'throat_'
'th'
'taught_'
'tall_'
'switch_'
'sweetheart_'
'survive_'
'summer_'
'success_'
'student_'
'stu'
'stone_'
'stic_'
'starts_'
'stage_'
'south_'
'society_'
'site_'
'sion_'
'shows_'
'shing_'
'shift_'
'shi'
'she'
'sh'
'ses_'
'ser'
'self_'
'sees_'
'search_'
'sa_'
'rules_'
'rope_'
'river_'
'ri'
'returned_'
'ren'
'refuse_'
'ref'
'realized_'
'reading_'
'rat_'
'rac'
'pu'
'pleased_'
'played_'
'plant_'
'pla'
'picked_'
'physical_'
'permission_'
'perhaps_'
'percent_'
'painting_'
'pack_'
'ow'
'ourselves_'
'ory_'
'orders_'
'op'
'one'
'ol_'
'oil_'
'of'
'oa'
'nt'
'noticed_'
'nor_'
'mu'
'ms_'
'mp'
'mirror_'
'ming_'
'mi'
'mer_'
'me'
'master_'
'man'
'losing_'
'loose_'
'lock_'
'lo_'
'lla_'
'lips_'
'lim'
'liked_'
'letters_'
'lesson_'
'ld_'
'ky_'
'kinds_'
'ki_'
'ka_'
'justice_'
'juice_'
'judge_'
'joking_'
'ji'
'iti'
'io_'
'ing'
'ig'
'ie'
'ical_'
'hundred_'
'hook_'
'honor_'
'honest_'
'holiday_'
'hire_'
'hin'
'hero_'
'her'
'health_'
'heads_'
'han_'
'han'
'hadn_'
'gro'
'go'
'ghost_'
'gar'
'ga_'
'fucked_'
'fu'
'frightened_'
'flight_'
'fill_'
'ff_'
'est'
'ep'
'energy_'
'ended_'
'enc'
'een_'
'ears_'
'dry_'
'dri'
'dressed_'
'double_'
'doors_'
'doctors_'
'dic'
'deserve_'
'department_'
'decent_'
'daddy_'
'cure_'
'cu'
'crying_'
'cru'
'crowd_'
'court'
'copy_'
'competition_'
'commercial_'
'closer_'
'church_'
'cho'
'cer'
'caused_'
'cards_'
'candy_'
'cal'
'c'
'breath_'
'bottle_'
'bother_'
'blew_'
'beast_'
'based_'
'band_'
'attention_'
'asshole_'
'arrived_'
'ani'
'als_'
'allow_'
'agreed_'
'Za'
'Ye'
'Wo'
'While_'
'War_'
'WE_'
'Victor_'
'Ver'
'US_'
'True_'
'Their_'
'Tea'
'Sy'
'Sur'
'Su'
'Ste'
'States_'
'Six_'
'Simon_'
'Shi'
'Search_'
'School_'
'San'
'Sa'
'SO'
'SE'
'Rome_'
'Roger_'
'Ready_'
'RE_'
'Probably_'
'Phil_'
'Paris_'
'North_'
'Mil'
'Laura_'
'Lana_'
'LL_'
'LIKE_'
'LI'
'Kill_'
'Ki'
'Kar'
'Joey_'
'Jake_'
'House_'
'Hell_'
'Has_'
'Hang_'
'Had_'
'Grandpa_'
'Grace_'
'Go'
'Gar'
'Fin'
'Exactly_'
'English_'
'Ed'
'DON_'
'Con'
'Comm'
'Col'
'Close_'
'Cla'
'Boy_'
'Both_'
'Better_'
'Believe_'
'Bat'
'Back_'
'BAR_'
'Army_'
'Apparently_'
'Anybody_'
'Another_'
'Andy_'
'Although_'
'800_'
'400_'
'4'
'210_'
'19'
'... .._'
'. ؟_'
') '
' ... ._'
' " '
' "'
'‫ - _'
'َّ'
'ُ '
'َ (_'
'ً.._'
'ً... _'
'ً. _'
'يير_'
'يومين_'
'ينس'
'يمة_'
'يلي'
'يله_'
'يلا_'
'يكونوا_'
'يقف_'
'يفي'
'يــ'
'يـ'
'يزال_'
'يز_'
'يرت'
'يرا'
'يدخل_'
'يحبون_'
'يحب'
'يحاولون_'
'يجد'
'يتي_'
'يتح'
'يال_'
'يأكل_'
'يء_'
'ي'
'وين'
'ويست'
'وود_'
'وو_'
'ونة_'
'ونا'
'ومن'
'ومر'
'ولي'
'وله_'
'ولكنى_'
'وكا'
'وكأنك_'
'وغد_'
'وسيكون_'
'وسا'
'ودي'
'وحدي_'
'وجودك_'
'وتو'
'وتم'
'وتر'
'وت'
'واو_'
'والن'
'والف'
'واح'
'واثق_'
'وأيضا_'
'وأب'
'هب'
'نين_'
'نوا_'
'نمط_'
'نغ'
'نظ'
'نسي'
'نزا'
'نجمة_'
'نث'
'نبي'
'ناها_'
'نان_'
'ناش'
'مين'
'ميك'
'مير'
'ميتة_'
'مول'
'مور'
'مو_'
'منكما_'
'منش'
'منزلنا_'
'ممتعا_'
'ممتازة_'
'مليئة_'
'ملابسي_'
'مكنني_'
'مكانه_'
'مكالمة_'
'مكا'
'مغادرة_'
'معلومات_'
'معجبة_'
'مضحكا_'
'مضا'
'مصابة_'
'مشاهدة_'
'مساعد_'
'مس_'
'مري'
'مذهلة_'
'مخت'
'محل'
'محت'
'مجاني_'
'متزوجة_'
'متأكده_'
'متأسف_'
'متأ'
'مبر'
'مام_'
'مالم_'
'ماريا_'
'ماركوس_'
'مارشال_'
'ماب'
'ليو'
'ليق'
'ليف'
'ليس'
'ليزا_'
'ليد'
'لوم'
'لنرى_'
'لمج'
'للي'
'للمشا'
'للص'
'للسي'
'للخروج_'
'للبيت_'
'للأسفل_'
'لكنت_'
'لـم_'
'لــ'
'لعل'
'لعا'
'لذيذ_'
'لذ'
'لتك'
'لتا'
'لاو'
'لام'
'لاك'
'لاف'
'لار'
'لاح_'
'لاتن'
'لاتف'
'لاتت'
'لأست'
'لأحد_'
'لأجله_'
'لأب'
'كيو_'
'كوب_'
'كهذه_'
'كلاكما_'
'كـ'
'كعكة_'
'كش'
'كس'
'كريم_'
'كريستين_'
'كريس_'
'كرت'
'كايت_'
'كافية_'
'كاس_'
'كاد'
'قوى_'
'قوم_'
'قهوة_'
'قن'
'قع_'
'قضاء_'
'قرب_'
'قرار_'
'قتل'
'قتال_'
'قانوني_'
'قانون_'
'قاعدة_'
'قادمون_'
'قادرة_'
'قائد_'
'فيبي_'
'فور'
'فو_'
'فما_'
'فلنذهب_'
'فك'
'فضلكم_'
'فض_'
'فص'
'فريق'
'فرقة_'
'فراش'
'فخور_'
'فح'
'فتا'
'ف'
'ـى_'
'ــــ'
'ـــ'
'غيل'
'غط'
'غريبا_'
'غد_'
'غادر_'
'عي'
'عودوا_'
'عنى_'
'عمره_'
'عله_'
'عظيمة_'
'عشا'
'عز'
'عرف_'
'عر'
'عد'
'عبقرية_'
'عبة_'
'عامين_'
'عائ'
'ظى_'
'ظن_'
'ظاهر_'
'طه_'
'طلب'
'طفلة_'
'طف'
'طعام_'
'طريقها_'
'طرق_'
'طبي'
'طاولة_'
'ط'
'ضوء_'
'ضعي_'
'ضعف'
'ضب_'
'ضا'
'صغيرتي_'
'صديقتك_'
'صا'
'شف_'
'شـ'
'شعب'
'شركاء_'
'شراء_'
'شار'
'سيموت_'
'سيك'
'سيفعل_'
'سيصبح_'
'سيست'
'سيخ'
'سي'
'سنن'
'سنقوم_'
'سنست'
'سنج'
'سمعتك_'
'سلو'
'سلا'
'سكو'
'سقطت_'
'سخيفة_'
'سجلات_'
'سج'
'ستر_'
'ستحتاج_'
'سال_'
'ساق'
'ساعديني_'
'ساع'
'سأن'
'سأس'
'سأر'
'سأخ'
'سأح'
'زين'
'زعيم_'
'زع'
'ريو_'
'رينا_'
'ريب_'
'ريا_'
'رون'
'روس_'
'روا'
'رو_'
'رن_'
'ركوب_'
'رك'
'رقم'
'رسم'
'رد'
'رح'
'رتك_'
'راي'
'رام'
'راف_'
'راشيل_'
'راحة_'
'رائعه_'
'رأيي_'
'رأيتك_'
'رأة_'
'ذي'
'ذكية_'
'ذكي_'
'ذب'
'دير'
'دية_'
'دون'
'دولارات_'
'دوغ_'
'دفعت_'
'دعها_'
'درو_'
'د'
'خن'
'خلف'
'خطأي_'
'خسرت_'
'خان_'
'خادم'
'خ'
'حياتى_'
'حوا_'
'حها_'
'حقق_'
'حصلنا_'
'حص'
'حساب_'
'جير'
'جونز_'
'جون'
'جوس'
'جميعكم_'
'جم'
'جعل'
'جعة_'
'جد'
'جب'
'جاين_'
'جام'
'جاع'
'جاز_'
'ثرو'
'ثة_'
'تول'
'توقفوا_'
'توقف'
'توف'
'توب'
'تهد'
'تنظيف_'
'تنس_'
'تمن'
'تمكنت_'
'تمزحين_'
'تمر_'
'تلو'
'تقل'
'تقصدين_'
'تفعلينه_'
'تغر'
'تعي'
'تعنين_'
'تعنى_'
'تعملين_'
'تعطي_'
'تعا'
'تصدق_'
'تشاك_'
'تسو'
'تستخدم_'
'تسأل_'
'تس_'
'تزو'
'ترين'
'تريدون_'
'تري'
'تذ'
'تحركوا_'
'تحدثي_'
'تجعلني_'
'تتمكن_'
'تتم_'
'تتم'
'تتحدثين_'
'تبادل_'
'تايلور_'
'تايلر_'
'ةب'
'بيل'
'بيك'
'بيس'
'بيرن'
'بير'
'بيته_'
'بوم'
'بوس'
'بوب'
'بنفسه_'
'بمن_'
'بماذا_'
'بك'
'بقيت_'
'بقوة_'
'بعمر_'
'بعدم_'
'بعت'
'بطل_'
'بطا'
'بصورة_'
'برين'
'بري'
'بدلة_'
'بدأنا_'
'بخط'
'بحث_'
'بحالة_'
'بحاجه_'
'بجر'
'بتع'
'بتح'
'بب_'
'بب'
'بالقرب_'
'بالز'
'بالتحديد_'
'بالا'
'باس'
'بارع_'
'بابا_'
'بأم'
'بأع'
'بأ'
'ايت'
'اوا'
'اهلا_'
'اهدأ_'
'انك'
'انتى_'
'انتظروا_'
'انات_'
'امي'
'املك_'
'اما'
'الولاية_'
'الوظيفة_'
'الهو'
'اله_'
'النهار_'
'النفسي_'
'النظام_'
'النافذة_'
'الموعد_'
'الملف_'
'المفضلة_'
'المشي_'
'المزا'
'المرا'
'المحقق_'
'المبنى_'
'اللي'
'اللوحة_'
'اللطيف_'
'اللذي_'
'الكر'
'الكتب_'
'القمامة_'
'الفض'
'الغبي_'
'العميلة_'
'العلاقات_'
'العب'
'الطبية_'
'الطاولة_'
'الط'
'الصي'
'الصفقة_'
'الصح'
'الص_'
'الشجاعة_'
'السهل_'
'السنوات_'
'السن_'
'السم'
'السلامة_'
'السفينة_'
'السطح_'
'السحر_'
'السابعة_'
'الزر_'
'الرقم_'
'الرف'
'الرابعة_'
'الرأس_'
'الذهب_'
'الدماغ_'
'الدا'
'الد'
'الخوف_'
'الحلوى_'
'الحلقة_'
'الحل_'
'الحقيقه_'
'الحرارة_'
'الحر'
'الحد'
'الجهاز_'
'الجم'
'الجلد_'
'الجرائم_'
'الجثث_'
'الجا'
'الثامنة_'
'الته'
'التن'
'التلفزيون_'
'التصوير_'
'التد'
'التحرك_'
'التب'
'التاسعة_'
'البري'
'البرا'
'البدء_'
'البحرية_'
'الامريكي'
'الاف'
'الاش'
'الاس'
'الاب'
'الإي'
'الإنسان_'
'الإشارة_'
'الإش'
'الأمريكي_'
'الأط'
'الأسنان_'
'الأسفل_'
'الأرضية_'
'الأد'
'الأخضر_'
'الأحذية_'
'الأحد_'
'اكره_'
'اقة_'
'اق'
'افي'
'اطفال_'
'اضغط_'
'اض_'
'اصبح_'
'اشت'
'استعداد_'
'استر'
'از_'
'ارسل_'
'ادخل_'
'اخبرتك_'
'اجر'
'اتها_'
'اتف'
'اتخاذ_'
'ابقى_'
'ائي_'
'ائر_'
'ا'
'ئو'
'ئها_'
'ئن_'
'ئ'
'إنه'
'إنظر_'
'إنت'
'إليهم_'
'إصلاح_'
'إستمع_'
'إس_'
'إرسال_'
'إدوارد_'
'إحدى_'
'إج'
'ؤك_'
'أوقف_'
'أهم_'
'أنه'
'أنفسهم_'
'أنف'
'أمير'
'أمريكي_'
'أكان_'
'أقر'
'أقت'
'أعنى_'
'أعطيك_'
'أعطيت'
'أعتقدت_'
'أظهر_'
'أظنه_'
'أظنك_'
'أصغر_'
'أص'
'أشبه_'
'أسم'
'أسفة_'
'أستر'
'أستخدم_'
'أدر'
'أخذها_'
'أخذ'
'أحقا_'
'أثر_'
'أث'
'أتل'
'أتخيل_'
'أتت_'
'أتت'
'أة_'
'أبق'
'أبا'
'أأ'
'آلي_'
'آلة_'
'آسفه_'
'آس'
'ءة_'
'؟ - _'
'،'
'é_'
' ?_'
'} _'
'}'
'writing_'
'witness_'
'within_'
'whoa_'
'water'
'wash_'
'wards_'
'wanting_'
'val'
'usual_'
'uni'
'ual'
'turning_'
'tur'
'tt'
'ts'
'trusted_'
'trigger_'
'treatment_'
'treat_'
'toilet_'
'tle_'
'tions_'
'third_'
'there'
'text'
'tells_'
'target_'
'tape_'
'suck_'
'students_'
'streets_'
'storm_'
'stolen_'
'ss'
'spirit_'
'spe'
'sons_'
'slowly_'
'sin_'
'showing_'
'showed_'
'shed_'
'settle_'
'service_'
'screw_'
'sco'
'sar'
'rough_'
'rou'
'risk_'
'rise_'
'ries_'
'result_'
'remembered_'
'remain_'
'red'
'recently_'
'receive_'
'rd_'
'radio_'
'py_'
'pulling_'
'prom_'
'process_'
'press_'
'president_'
'pregnant_'
'precious_'
'pot_'
'position_'
'port'
'points_'
'ple'
'pieces_'
'pi'
'perfectly_'
'pee'
'path_'
'pat'
'pass'
'parties_'
'para'
'papers_'
'pa'
'ought_'
'ori'
'ora'
'opportunity_'
'opinion_'
'oni'
'on'
'ome_'
'noon_'
'nonsense_'
'none_'
'nights_'
'ni'
'new'
'nes_'
'nd'
'murdered_'
'mon'
'model_'
'mmy_'
'mix_'
'mis'
'minds_'
'mil'
'mental_'
'mel'
'meal_'
'main_'
'ly'
'lve'
'lu'
'loss_'
'load_'
'literally_'
'lin'
'likes_'
'likely_'
'lied_'
'license_'
'laugh_'
'lately_'
'lap'
'lan_'
'kinda_'
'kar'
'joy_'
'is'
'ire_'
'ir_'
'ior_'
'instead_'
'information_'
'incredible_'
'ill'
'if'
'ica'
'ib'
'hy_'
'huge_'
'hoping_'
'home'
'held_'
'heat_'
'headed_'
'head'
'happiness_'
'handsome_'
'handed_'
'guilty_'
'grave_'
'grateful_'
'ght_'
'ger'
'ged_'
'ft_'
'friendship_'
'ford_'
'forces_'
'following_'
'folks_'
'flowers_'
'flo'
'fli'
'fleet_'
'fle'
'flat_'
'fire'
'fellow_'
'fate_'
'extra'
'exciting_'
'ex'
'ew'
'et'
'es'
'ery_'
'eri'
'ent'
'eng'
'embarrassing_'
'ema'
'em'
'eli'
'eight_'
'duc'
'du'
'dropped_'
'down'
'doo'
'discover_'
'di_'
'device_'
'ders_'
'dd'
'danger_'
'da'
'cycle_'
'cur'
'cream_'
'covered_'
'cons'
'complete_'
'comfortable_'
'clever_'
'clearly_'
'cleaning_'
'chocolate_'
'chi'
'cheese_'
'che'
'chan'
'center_'
'celebrating_'
'celebrate_'
'cat'
'camp_'
'ca_'
'bullet_'
'build_'
'bucks_'
'bs_'
'bru'
'brothers_'
'bringing_'
'breaks_'
'bit'
'bin_'
'beyond_'
'ber_'
'beg_'
'beach_'
'be'
'bar'
'ba'
'awkward_'
'awful_'
'aware_'
'avoid_'
'aunt_'
'attorney_'
'assistant_'
'asi'
'article_'
'arrest_'
'ap'
'ans_'
'alley_'
'all'
'agent_'
'af'
'access_'
'Z'
'Ya'
'Whoever_'
'WHAT_'
'WELL_'
'WA'
'Unfortunately_'
'Un'
'Ugh_'
'Tu'
'Totally_'
'Tim_'
'Thomas_'
'TO'
'Son'
'Show_'
'Seriously_'
'Sean_'
'Sea'
'SI'
'Ros'
'Pu'
'Perfect_'
'Pen'
'Pat'
'Nope_'
'Nathan_'
'NO_'
'N'
'Must_'
'Mulder_'
'Ms_'
'Monk_'
'Miller_'
'Mi'
'Matthew_'
'Matt_'
'Marge_'
'Mama_'
'Major_'
'Mai'
'MY_'
'MI'
'Kyle_'
'Kind_'
'Kelly_'
'KNOW_'
'Juli'
'Ju'
'Japanese_'
'Jackie_'
'Io'
'Inspector_'
'II_'
'Hong_'
'High_'
'Han'
'Guys_'
'Greg_'
'Green_'
'Gra'
'Goddamn_'
'German_'
'Gentlemen_'
'Gal'
'Frasier_'
'For'
'FBI_'
'Especially_'
'Either_'
'ED_'
'EA'
'Death_'
'Dave_'
'Danny_'
'DA'
'Cy'
'Cri'
'Cool_'
'Congratulations_'
'Commander_'
'Cole_'
'Cas'
'Carter_'
'CO'
'Bu'
'Bol'
'Bla'
'Be'
'Bad_'
'BO'
'Answer_'
'Al_'
'According_'
'Aah_'
'? ._'
'911_'
'600_'
'6'
'47_'
'37_'
'32_'
'30'
'260_'
'20'
'18'
'14_'
'/_'
'... . _'
'. '_'
')؟ _'
')}._'
') .._'
'"... _'
'""_'
'" , _'
'! -_'
'! "_'
' ] _'
' [_'
' - '
' -'
' , (_'
'–_'
'ّ ._'
'ِ ، _'
'ِ "_'
'ٍ'
'ٌ._'
'ً,_'
'ً "_'
'يي_'
'يوميا_'
'يومك_'
'ينى_'
'ينف'
'ينز_'
'ينج'
'يمتلك_'
'يمت'
'يلت'
'يكذب_'
'يقترب_'
'يقا'
'يفعلوا_'
'يفتح_'
'يـة_'
'يـ_'
'يغادر'
'يعتقدون_'
'يعتبر_'
'يعا'
'يظهر_'
'يشبه_'
'يسع'
'يسبق_'
'يسار_'
'يري_'
'يرو'
'يرغ'
'يديه_'
'يدير_'
'يدي'
'يدع'
'يخبرني_'
'يث_'
'يث'
'يتكلم_'
'يتع'
'يتطلب_'
'يتحدثون_'
'يبقي_'
'يبحثون_'
'يبة_'
'يبا'
'ياع'
'يأتون_'
'ىأ'
'ويلسون_'
'وير'
'وول'
'ووالد'
'ونك_'
'ونع'
'ونصف_'
'ونس'
'ومع'
'ومد'
'ومح'
'ولكننا_'
'ولاية_'
'وكما_'
'وكل'
'وكأنني_'
'وقف'
'وقت'
'وفا'
'وعدت_'
'وظيفت'
'وسيم_'
'وسأت'
'وزن'
'ودا'
'وحيدة_'
'وحي'
'وحو'
'وحتى_'
'وتي_'
'وتن'
'وتم_'
'وتف'
'وتب'
'وبو'
'وبر'
'وبال'
'واي'
'وانت'
'وام'
'والق'
'والدة_'
'والد'
'والب'
'واشنطن_'
'واثقا_'
'واب'
'واء_'
'وأنه_'
'وأنت'
'وأن'
'وأق'
'وأريد_'
'وأر'
'وأخذ'
'وء_'
'هية_'
'هون'
'هنـا_'
'هن'
'هـل_'
'هـ'
'هذا'
'هدف_'
'هدف'
'هان'
'هام'
'هارولد_'
'هاب_'
'نيه_'
'نون_'
'نوا'
'نهم_'
'ننهي_'
'نلعب_'
'نل'
'نفسى_'
'نفس'
'نعت'
'نطلب_'
'نشر'
'نسو'
'نسم'
'نساء_'
'نذ'
'نخبك_'
'نجاح_'
'نتائج_'
'نتا'
'نب_'
'نان'
'نام_'
'ميلادي_'
'ميا'
'مونت'
'موعة_'
'موت'
'مها_'
'منق'
'منف'
'منطقي_'
'مناسبا_'
'ممن_'
'ملف_'
'مكتب'
'مقابلتك_'
'مفقودة_'
'مـ_'
'مغلق_'
'معلم'
'مطلقا_'
'مطعم_'
'مضطر'
'مصدر_'
'مشكله_'
'مشروع_'
'مشترك'
'مسل_'
'مسابقة_'
'مسؤول_'
'مزعج_'
'مرر'
'مدرس'
'مخطئا_'
'محامي_'
'محامي'
'محاكمة_'
'مجدد_'
'مثلا_'
'مثالي_'
'متق'
'متزوج_'
'مبي'
'مبكر_'
'ماني'
'مالك'
'ماك_'
'ماغي_'
'مارى_'
'مؤخرتي_'
'مؤخرة_'
'لينا_'
'ليلا_'
'ليف_'
'ليست'
'ليديا_'
'لول'
'لوسي_'
'لوب'
'لنح'
'لمر'
'لمد'
'للمساعدة_'
'للف'
'للز'
'للذهاب_'
'للتحدث_'
'للاهتمام_'
'لكوني_'
'لكم'
'لكا'
'لقي_'
'لفا'
'لغا'
'لغ'
'لسان'
'لحم_'
'لجم'
'لجا'
'لتف'
'لتع'
'لتص'
'لإخ'
'لأي'
'لأس'
'لأجلك_'
'لآ'
'كونك_'
'كوكب_'
'كه'
'كنتي_'
'كما'
'كلير_'
'كلكم_'
'كـل_'
'كث'
'كتب'
'كال_'
'كاف'
'كاذب_'
'كاث'
'كأس_'
'قيل_'
'قومي_'
'قنا'
'قلقة_'
'قضيت_'
'قرأت_'
'قتلوا_'
'قتلنا_'
'قتك_'
'قاله_'
'قال'
'فيونا_'
'فيل_'
'فيكتوريا_'
'فور_'
'فوج'
'فهم'
'فمك_'
'فلنر'
'فل'
'فقد'
'فـي_'
'فعلت'
'فع'
'فظيع_'
'فضل_'
'فسي'
'فس_'
'فري'
'فرق_'
'فذ'
'فحص'
'فالي'
'فاج'
'ـن'
'ـل'
'ـف_'
'ــو'
'ـــــ'
'ـــا'
'غم'
'غلي'
'غلق_'
'غل'
'غر'
'غاي'
'عيني_'
'عينك_'
'عودي_'
'عوا'
'عمل'
'علاقتك_'
'عك'
'عشرون_'
'عرف'
'عج'
'عبو'
'عان'
'عالق_'
'عار'
'طيبة_'
'طوني_'
'طن_'
'طن'
'طم_'
'طلق'
'طفلي_'
'طعم_'
'طع'
'طاقة_'
'ضم_'
'ضرب_'
'ضرا'
'ضر'
'صق_'
'صق'
'صـ'
'صدق'
'صحيحة_'
'صبح_'
'صالح_'
'صالة_'
'صاحبة_'
'شيل'
'شيكاغو_'
'شيا_'
'شيء'
'شهود_'
'شكل'
'شف'
'شعري_'
'شريكي_'
'شريك_'
'شد_'
'شجار_'
'شاهد'
'شاء_'
'سيمون_'
'سيرا'
'سيداتي_'
'سيحصل_'
'سيارت'
'سيا_'
'سيا'
'سيأت'
'سوية_'
'سويا_'
'سول'
'سوزان_'
'سواء_'
'سه_'
'سنو'
'سند'
'سمعنا_'
'سمعته_'
'سم'
'سلاح'
'سكين'
'سـ'
'سع_'
'سد'
'سحقا_'
'ستو'
'ستك'
'ستقوم_'
'ستعود_'
'ستار'
'سبو'
'سان'
'ساس_'
'ساح'
'سئ_'
'سأل'
'سأق'
'سأع'
'سأش'
'سأتولى_'
'سآتي_'
'زير'
'زو_'
'زمن_'
'زك_'
'زفاف'
'زالت_'
'زاك_'
'زات_'
'ريك'
'ريد'
'ريخ_'
'ريح_'
'ريبيكا_'
'ريا'
'روجر_'
'روا_'
'رم_'
'رقة_'
'رفض_'
'رغبتي_'
'رصاصة_'
'رر'
'ردة_'
'رجالي_'
'رجال'
'ربي'
'ربا'
'رب'
'ران_'
'رال'
'راج'
'راب'
'رائ'
'رئيسك_'
'رئيس'
'رؤيتها_'
'رؤيت'
'رأت_'
'ذو'
'ذهاب'
'ذه_'
'ذر'
'ذة_'
'ذالك_'
'ذار_'
'ديل'
'ديك_'
'ديت'
'دوي'
'دورك_'
'دور'
'دوايت_'
'دها_'
'دنا_'
'دمو'
'دماء_'
'دل'
'دقيقتين_'
'دعي_'
'دعو'
'دعه_'
'دع'
'درج'
'دخلت_'
'دافع'
'داعي_'
'داع'
'داد_'
'خلفي_'
'خل'
'خف'
'خطير_'
'خطتك_'
'خطبك_'
'خري'
'خرا'
'خر'
'خت'
'خبر'
'خب'
'خاطئة_'
'حيل_'
'حيا'
'حن'
'حلق'
'حكم'
'حضور'
'حش'
'حساب'
'حري'
'حديقة_'
'حافظ'
'حارس_'
'حار_'
'حار'
'حا_'
'ح'
'جيب'
'جيء_'
'جميل'
'جمع'
'جف'
'جعلتك_'
'جزي'
'جري'
'جاهزون_'
'جاه'
'جانبا_'
'جاسوس'
'جائ'
'جاءت_'
'ج'
'ثبت_'
'ثا'
'تيه_'
'تين'
'توم'
'تولى_'
'توجيه_'
'تنه'
'تنس'
'تن_'
'تلمس_'
'تلقيت_'
'تلت'
'تكونين_'
'تكذب_'
'تقومين_'
'تقو'
'تفقد_'
'تفعلون_'
'تفت'
'تــ'
'تغير_'
'تعرفي_'
'تعت'
'تعامل_'
'تط'
'تضا'
'تصل'
'تصريح_'
'تص'
'تشو'
'تسعة_'
'تسجيل_'
'تستمع_'
'تستمر_'
'تسا'
'تريدني_'
'ترون_'
'تركتها_'
'تذهبين_'
'تذاكر_'
'تدمير_'
'تدعى_'
'تدع_'
'تدا'
'تخبريني_'
'تحول_'
'تحكم_'
'تحر_'
'تحر'
'تحديدا_'
'تحدثنا_'
'تحد'
'تحتاجه_'
'تحتاج'
'تحبين_'
'تجعل'
'تثق_'
'تتوق_'
'تتخلص_'
'تتبع'
'تبعد_'
'تاك'
'تافه_'
'تأكد_'
'ةأ'
'بينهم_'
'بينكما_'
'بيرة_'
'بيث_'
'بيب_'
'بيانات_'
'بوك_'
'بوك'
'بوث_'
'بمكان_'
'بمقا'
'بمثابة_'
'بلاي'
'بقر'
'بعضهما_'
'بعضكما_'
'بض'
'بسي'
'بسببي_'
'بز'
'بريد_'
'بريد'
'بري_'
'برك'
'بربك_'
'براي'
'بحيث_'
'بث_'
'بث'
'بتك_'
'بتر'
'بالواقع_'
'بالطريقة_'
'بالض'
'بالشرطة_'
'بالحقيقة_'
'بالحر'
'بالجوار_'
'بالبر'
'بالأعلى_'
'بالأس'
'باري_'
'باركر_'
'بارك'
'باح_'
'باب'
'بإح'
'بأك'
'بأسرع_'
'اول'
'انو_'
'انفصل'
'انسى_'
'امضي_'
'امت'
'الينا_'
'الولد_'
'الوكالة_'
'الوحش_'
'الواحد_'
'الهروب_'
'الهام'
'الني'
'النهر_'
'النهائي_'
'النص'
'النج'
'الموا'
'المنح'
'المم'
'الملكية_'
'المكالمة_'
'المـ'
'المطر_'
'المض'
'المشهد_'
'المشرو'
'المسؤول_'
'المسألة_'
'المرور_'
'المركز_'
'المحيط_'
'المحل_'
'المحرك_'
'المحت'
'المحادثة_'
'المجيء_'
'المجنونة_'
'المجر'
'المتع'
'المتخ'
'المتاعب_'
'المبار'
'المان'
'الليله_'
'اللو'
'الكوكب_'
'الكن'
'الكلمات_'
'الكل_'
'الكاملة_'
'الكاب'
'القومي_'
'القواعد_'
'القوات_'
'القنبلة_'
'القم'
'القل'
'القص'
'القدرة_'
'الفقر'
'الفعل_'
'الفصل_'
'الفخ'
'الف_'
'العل'
'العد'
'العامة_'
'الطي'
'الطوارئ_'
'الطلب_'
'الطرق_'
'الطبيعي_'
'الطب_'
'الصر'
'الصب'
'الشي'
'الشرف_'
'السيئة_'
'السي'
'السو'
'السن'
'السماح_'
'السفر_'
'السعادة_'
'السري_'
'السباحة_'
'الروس_'
'الره'
'الرق'
'الرصاص_'
'الرائعة_'
'الرأي_'
'الدب_'
'الدب'
'الخن'
'الخط'
'الخاطئ_'
'الحي'
'الحفاظ_'
'الحضور_'
'الحشد_'
'الحزب_'
'الحريق_'
'الحركة_'
'الحدود_'
'الحد_'
'الحجم_'
'الحبوب_'
'الحب'
'الحادثة_'
'الحاجة_'
'الح'
'الجرح_'
'الجر'
'التنظيف_'
'التق'
'التع'
'التدخين_'
'التج'
'البيانو_'
'البوابة_'
'البلد_'
'البق'
'الام'
'الاسبوع_'
'الار'
'الاج'
'الإعت'
'الإدارة_'
'الأولاد_'
'الأوقات_'
'الأوراق_'
'الأموال_'
'الألم_'
'الأل'
'الأف'
'الأغنية_'
'الأصلي_'
'الأص'
'الأشجار_'
'الأذ'
'الأخبار_'
'الأحمق_'
'الأحلام_'
'الأحداث_'
'اكن_'
'اقو'
'اقل_'
'اقدر_'
'افت'
'اعود_'
'اعل'
'اعطي'
'اعدك_'
'اط_'
'اص'
'اشهر_'
'اسمع'
'اسمح_'
'اسفه_'
'استيقظ_'
'ارو'
'ادو'
'اخذ_'
'اخذ'
'احضر_'
'اجد_'
'اتى_'
'اتح'
'اتج'
'اتا'
'ابتعدي_'
'اؤ'
'ئم_'
'ئف_'
'إلـ'
'إكت'
'إك'
'إف'
'إغلاق_'
'إع'
'إسمه_'
'إسمعي_'
'إذ'
'إبني_'
'إبقي_'
'ؤه_'
'ؤل'
'أيمكن_'
'أهمية_'
'أهل_'
'أهد'
'أنو'
'أنكم_'
'أنقذ'
'أنفسنا_'
'أنـت_'
'أمي'
'أموال_'
'أمزح_'
'ألقي_'
'ألف'
'ألعب_'
'ألا'
'أكتب_'
'أقصى_'
'أقد'
'أقبل_'
'أفكار_'
'أفض_'
'أفتح_'
'أغلق_'
'أغلق'
'أغادر_'
'أعط'
'أعز'
'أعرفها_'
'أعترف_'
'أعا'
'أصوات_'
'أصابع'
'أسلحة_'
'أز'
'أرو'
'أرغب_'
'أرضا_'
'أرسلت_'
'أردت'
'أرحل_'
'أرتدي_'
'أر_'
'أدنى_'
'أخو'
'أخط'
'أخبرهم_'
'أخبرها_'
'أخبرنا_'
'أخبار'
'أحسن_'
'أجمل_'
'أجـل_'
'أتوق_'
'أتو'
'أتم'
'أترى_'
'أتذك_'
'أبدأ_'
'أبد_'
'أؤمن_'
'آي'
'آو'
'آندي_'
'آن'
'آم'
'آذ'
'آت_'
'ءات_'
'é'
'zu'
'za_'
'ys_'
'yo'
'yn'
'yl'
'yer_'
'yard_'
'y'
'work'
'witnesses_'
'wire_'
'winning_'
'win'
'wide_'
'wi'
'whose_'
'wheel_'
'weather_'
'wave_'
'wasting_'
'warn_'
'vo'
'vision_'
'victims_'
've'
'ut_'
'usually_'
'us'
'ura'
'unt'
'uns'
'unique_'
'uniform_'
'understood_'
'und'
'un_'
'ua'
'u'
'tter_'
'trees_'
'treated_'
'trans'
'tle'
'tive_'
'tim'
'til'
'tied_'
'throwing_'
'thro'
'threw_'
'threat_'
'thou_'
'thief_'
'terr'
'terms_'
'television_'
'talks_'
'sword_'
'swing_'
'support_'
'super_'
'super'
'suffer_'
'sudden_'
'sucks_'
'successful_'
'su'
'style_'
'study_'
'sts_'
'stronger_'
'strike_'
'sted_'
'stealing_'
'stays_'
'staring_'
'stands_'
'ssing_'
'spread_'
'spot_'
'spoke_'
'split_'
'spit'
'spi'
'sor'
'some'
'social_'
'smile_'
'sma'
'slip_'
'sli'
'slept_'
'sla'
'sit'
'singing_'
'silver_'
'sil'
'shots_'
'shake_'
'sexy_'
'several_'
'ser_'
'sending_'
'seek_'
'sec'
'scar'
'sb'
'sal'
'run'
'route_'
'rooms_'
'ron_'
'rit'
'rig'
'riding_'
'ric'
'reporter_'
'repair'
'rent_'
'remove_'
'records_'
'reasons_'
'reaction_'
'ram'
'queen_'
'qua'
'pur'
'pul'
'prints_'
'pretending_'
'ppe'
'pounds_'
'post_'
'possibly_'
'poison'
'pissed_'
'pin_'
'pie_'
'phe'
'per'
'pardon_'
'pair_'
'outta_'
'oti'
'operation_'
'ola'
'odds_'
'od'
'obviously_'
'o'
'nuts_'
'nut_'
'numbers_'
'nte'
'ns'
'noise_'
'nn'
'nk'
'nie_'
'network_'
'nephew_'
'neighborhood_'
'neighbor_'
'negative_'
'nearly_'
'nding_'
'nder_'
'moves_'
'moon_'
'mood_'
'mode'
'mmm_'
'milk_'
'mid'
'men'
'mature_'
'mask_'
'mail_'
'lover_'
'lots_'
'loaded_'
'lie'
'lic'
'liar_'
'lets_'
'les'
'lea'
'lar'
'language_'
'ko'
'kin'
'keys_'
'kel'
'ke'
'joined_'
'ject'
'jack_'
'ized_'
'ition_'
'ite'
'it'
'ison_'
'ish_'
'io'
'invited_'
'investigation_'
'ins_'
'incomp'
'imm'
'image_'
'ima'
'ideas_'
'ial_'
'hy'
'ht'
'host'
'his'
'hired_'
'hips_'
'hers_'
'here'
'herd_'
'hen'
'hardly_'
'hall_'
'guns_'
'grade_'
'governor_'
'gobble_'
'goal_'
'ging_'
'ght'
'gh_'
'ges_'
'gen_'
'gat'
'gain_'
'fund'
'freak_'
'fre'
'frame_'
'foot'
'followed_'
'flu'
'flow_'
'flash'
'ff'
'federal_'
'falling_'
'fake_'
'facts_'
'exist_'
'events_'
'eva'
'ering_'
'era'
'er'
'entered_'
'enemies_'
'end'
'emp'
'emi'
'elevator_'
'eg'
'earth_'
'ea'
'dying_'
'dy'
'dr_'
'dle_'
'distance_'
'discuss_'
'disappear_'
'director_'
'direction_'
'dig'
'diamonds_'
'dia'
'design_'
'describe_'
'des_'
'des'
'dep'
'defense_'
'cry_'
'crack_'
'coward_'
'couch_'
'corner_'
'consequences_'
'connected_'
'con'
'comp'
'coincidence_'
'closet_'
'cli'
'cle'
'claim'
'cla'
'ci'
'chest_'
'castle_'
'captain_'
'bullets_'
'bu'
'broad'
'brings_'
'bri'
'breathe_'
'breakfast_'
'bread_'
'brace'
'bowl_'
'books_'
'boo'
'bone_'
'bol'
'bo_'
'bite_'
'bis'
'belong_'
'believed_'
'becoming_'
'beauty_'
'bath_'
'basically_'
'balance_'
'awake_'
'attend_'
'ato'
'ating_'
'assume_'
'asleep_'
'app'
'angel_'
'ang'
'ane'
'and'
'ana'
'amp'
'alert_'
'ala'
'air'
'aid_'
'ai'
'admitted_'
'admi'
'ade'
'ad_'
'Wor'
'Won_'
'Without_'
'Wednesday_'
'We'
'Way_'
'Water_'
'Wasn_'
'Washington_'
'War'
'V_'
'Up_'
'Under'
'UT'
'Twi'
'Tur'
'Trying_'
'Tonight_'
'Tomorrow_'
'Thought_'
'Test'
'Steven_'
'Stand_'
'South_'
'Soon_'
'Soo'
'So'
'Sn'
'Shh_'
'Shall_'
'Sergeant_'
'See'
'Sand'
'Sal'
'Said_'
'Russian_'
'Res'
'Rachel_'
'Ra_'
'RA'
'Pre'
'Plus_'
'Play'
'Ph'
'Per'
'Patty_'
'PO'
'Ow_'
'Ol'
'Officer_'
'Off_'
'ON_'
'New'
'Na'
'NO'
'NG_'
'NE'
'NA'
'Mommy_'
'Mitchell_'
'Min'
'Mid'
'Madam_'
'Lou'
'Los_'
'Lois_'
'Lin'
'Life_'
'Leo_'
'Lee_'
'Larry_'
'LE_'
'LE'
'LA'
'Ken'
'Kate_'
'Jews_'
'Jenny_'
'Jeff_'
'Jas'
'J'
'Its_'
'Israel_'
'India_'
'IS_'
'IN'
'ID_'
'Hor'
'Hoo'
'Honor_'
'Holy_'
'Hel'
'Hat'
'Hank_'
'Halloween_'
'Hal'
'Gre'
'Ger'
'Ge'
'Frankie_'
'Follow_'
'Fire_'
'Find_'
'Fi'
'FOR_'
'Ex'
'Er'
'Enough_'
'Emily_'
'Ed_'
'ER'
'Dennis_'
'Del'
'Dean_'
'Daniel_'
'Dan'
'Dallas_'
'Cra'
'Couldn_'
'College_'
'Coach_'
'Chuck_'
'China_'
'Chicago_'
'Charles_'
'Ce'
'Catherine_'
'Carl_'
'Careful_'
'Cab'
'CR'
'CIA_'
'CH_'
'Burke_'
'Bring_'
'Boy'
'Bor'
'Bob_'
'Bo'
'Black_'
'Bi'
'Ben'
'BI'
'Aunt_'
'At'
'Ask_'
'Arthur_'
'Amanda_'
'Ama'
'Am'
'All'
'Alan_'
'Al'
'Ak'
'Ain_'
'Ac'
'AT'
'ABOUT_'
'; _'
'80_'
'80'
'70_'
'49_'
'48_'
'45_'
'40'
'3cH'
'38_'
'34_'
'29_'
'28_'
'22_'
'197'
'... (_'
'... "_'
')،_'
')}'
'),_'
'''_'
'"؟"_'
'" ، _'
' ً_'
' ؟ - _'
' : _'
' ... '
' .. '
' .'
' - (_'
' "._'
'ْ'
'ِ , _'
'ِ'
'ُ؟_'
'ُ'
'َ'
'ً؟ _'
'ً ... _'
'يومان_'
'ينوي_'
'ينها_'
'ينه'
'ينني_'
'ينتظر'
'ينا'
'يمي'
'يملك_'
'يمر_'
'يلي_'
'يلو'
'يلق'
'يقرر_'
'يقتل_'
'يقال_'
'يفعلها_'
'يـا_'
'يعلمون_'
'يطلق_'
'يطلب_'
'يضحك_'
'يض_'
'يصدق_'
'يشا'
'يسير_'
'يسوع_'
'يسمى_'
'يستمع_'
'يستمر_'
'يستطع_'
'يست_'
'يساعدنا_'
'يز'
'يريد'
'يرك'
'يرتدي_'
'يذ'
'يدفع'
'يدعى_'
'يدا'
'يخشى_'
'يخبر'
'يحمي'
'يجعله_'
'يجدو'
'يجد_'
'يتق'
'يتف'
'يتش'
'يتس'
'يترك_'
'يتبع'
'يبيعون_'
'يبي'
'يبلغ_'
'يبدأ_'
'يالهي_'
'يالها_'
'يالك_'
'يار'
'ياد'
'ويق'
'وهكذا_'
'ونو'
'وننا_'
'ونف'
'ونرى_'
'ونت'
'ومت'
'ومة_'
'وليام_'
'ولماذا_'
'ولكنهم_'
'وكر'
'وقلت_'
'وفي'
'وفقا_'
'وعد_'
'وعد'
'وضعه_'
'وضع'
'وشكرا_'
'وشر'
'وشا'
'وسع'
'وري'
'ورق_'
'ورا_'
'ودع'
'ودة_'
'وحش'
'وحده_'
'وحدة_'
'وجود'
'وث_'
'وته'
'وتش'
'وبعض_'
'وبا'
'وانه_'
'والنصف_'
'والك'
'والش'
'والر'
'والدتي_'
'والداي_'
'والا_'
'واقع_'
'واق'
'واف'
'واض'
'وارد_'
'وارد'
'واخ'
'واثقة_'
'وات_'
'وأو'
'وأعط'
'وأس'
'وأبي_'
'هيو'
'هيل'
'هيا'
'هوي'
'هوب'
'همي'
'هلك_'
'هف'
'هرقل_'
'هرة_'
'هذهال'
'هدوء_'
'هجر'
'هاى_'
'هاوس_'
'هاو'
'هاك_'
'هاريس_'
'هار_'
'هاتفي_'
'هاتفك_'
'نيت'
'نون'
'نهر_'
'نمو'
'نقود'
'نقد'
'نقا'
'نفكر_'
'نفق'
'نفسي'
'نفت'
'نـا'
'نعي'
'نعتقد_'
'نظيفة_'
'نضع_'
'نصي'
'نصبح_'
'نسيان'
'نسخة_'
'ندر'
'ندا_'
'نجحت_'
'نجا'
'نتي_'
'نتو'
'نتم'
'نتس'
'نبت'
'ناس_'
'ميت'
'موهبة_'
'مون'
'موتى_'
'مهل_'
'مهتم_'
'منطق'
'منال'
'ممل'
'ممت'
'ملت'
'ملا'
'مكن'
'مقربة_'
'مقدم'
'مقارنة_'
'مفتاح_'
'مفاجئ_'
'مفاجأة_'
'مـاذا_'
'معل'
'معقول_'
'معرفته_'
'معت'
'مضحكة_'
'مشهور_'
'مشا'
'مسلسل_'
'مسرور_'
'مستقبل'
'مسافة_'
'مسؤول'
'مرو'
'مرض'
'مرح'
'مرتين_'
'مرت_'
'مدهش_'
'مخل'
'مختبر_'
'محم'
'محط'
'محتمل_'
'محب'
'مجهول_'
'مجلة_'
'مجا'
'مثله_'
'متوترة_'
'متوا'
'متف'
'متشابه'
'متحمس'
'مبكرا_'
'مبت'
'مبالغ_'
'مبا'
'مانع_'
'ماما_'
'مالا_'
'ماك'
'ماعدا_'
'مارين'
'مادي'
'مائة_'
'مؤلم_'
'مؤكد_'
'ليوم_'
'ليند'
'ليلتك_'
'ليأ'
'لوي'
'لونه'
'لوكاس_'
'لوقت_'
'لورا_'
'لنن'
'لنفسي_'
'لنع'
'لنص'
'لنج'
'لنا'
'لمو'
'لملا'
'لمست'
'لمساعدة_'
'لما'
'للوقت_'
'لله'
'للنظر_'
'للمب'
'للفر'
'للفت'
'للط'
'للض'
'للشفقة_'
'للشرطة_'
'للسيد_'
'للذ'
'للداخل_'
'للخ'
'للتن'
'للتح'
'للبيع_'
'للان'
'للآ'
'لكون'
'لكما_'
'لكـن_'
'لقا'
'لـد'
'لغي'
'لعينة_'
'لعنة_'
'لع_'
'لز_'
'لرو'
'لرؤيت'
'لحو'
'لحظه_'
'لتي'
'لتم'
'لتخ'
'لتب'
'لت'
'لبو'
'لايوجد_'
'لايهم_'
'لايمكنك_'
'لانها_'
'لانن'
'لاس_'
'لاح'
'لاج'
'لابأس_'
'لاأستطيع'
'لإن'
'لإص'
'لأو'
'لأمر_'
'لأش'
'لأرى_'
'لأد'
'لأخذ_'
'لأجلي_'
'لأت'
'كيلي_'
'كيف'
'كيس_'
'كيرت'
'كوين_'
'كونر_'
'كوم'
'كول'
'كوري'
'كور'
'كوب'
'كلية_'
'كلمت'
'كلة_'
'كلام_'
'كلام'
'كشف_'
'كرون_'
'كذبت_'
'كد_'
'كتور_'
'كانا_'
'كام'
'كاس'
'كارل'
'كارثة_'
'كارا_'
'كاذبة_'
'كاثرين_'
'كأنني_'
'قون_'
'قول'
'قو_'
'قه'
'قناع_'
'قم'
'قلبك_'
'قف'
'قطعا_'
'قراءة_'
'قرا'
'قديمة_'
'قدوم'
'قدمي_'
'قدمت_'
'قدا'
'قبو'
'قبلة_'
'قام'
'قاعة_'
'قاتل'
'قائد'
'قائ'
'فينس'
'فيل'
'فيكتور_'
'فيس_'
'فوا_'
'فها_'
'فنجان_'
'فليس_'
'فلقد_'
'فكره_'
'فكرتي_'
'فعلنا_'
'فعل'
'فضي'
'فست'
'فسا'
'فريد_'
'فرو'
'فرصتك_'
'فرد_'
'فرانك'
'فد'
'فخورة_'
'فجر_'
'فتر'
'فتاتي_'
'فب'
'فاو'
'فاس'
'فارق_'
'فارغ_'
'فائدة_'
'ـون_'
'ـوم_'
'ـف'
'ـز'
'ـب_'
'ـال'
'غير'
'غياب'
'غور'
'غوا'
'غن'
'غلوريا_'
'غلطة_'
'غلا'
'غف'
'غط_'
'غضب_'
'غريب'
'غت'
'غان_'
'غاء_'
'غ'
'عيه_'
'عيد'
'عن'
'عملا_'
'عما'
'عم'
'علين'
'عليكما_'
'على'
'علو'
'علم'
'علق'
'علـى_'
'عل'
'عقول'
'عقليا_'
'عقلي_'
'عق_'
'عف'
'عظم_'
'عطي'
'عط'
'عضو_'
'عض'
'عرو'
'عرفنا_'
'عرض'
'عربة_'
'عدو'
'عجوز_'
'عالم'
'عال_'
'عاطفي'
'عاش_'
'عاز'
'عادي_'
'عاد'
'عاجل'
'عائد_'
'ظيف'
'ظهري_'
'ظهرك_'
'ظننتك_'
'ظل_'
'طير_'
'طية_'
'طى_'
'طم'
'طلبته_'
'طلا'
'طل_'
'طعة_'
'طعام'
'طس_'
'طريقه_'
'طريقنا_'
'طرف_'
'طرة_'
'طت_'
'طت'
'طبيعة_'
'طبقا_'
'طبع_'
'طان_'
'طارد'
'طاب_'
'طائ'
'طاء_'
'طا_'
'ضيع'
'ضمن_'
'ضـ'
'ضغط_'
'ضعف_'
'ضع'
'ضد'
'ضخم_'
'ضبا'
'ضب'
'ضايق'
'ضار_'
'صوفي_'
'صوص'
'صوتي_'
'صه_'
'صنع_'
'صلا'
'صغيرا_'
'صع'
'صرا'
'صديق'
'صبي_'
'صام'
'صادقا_'
'صاد'
'صائ'
'شية_'
'شهرين_'
'شن'
'شل_'
'شـيء_'
'شغل_'
'شعرها_'
'شعرك_'
'شرعي_'
'شربت_'
'شرابا_'
'شديدة_'
'شخصيا_'
'شجرة_'
'شجاع_'
'شارلي_'
'شاذ'
'سينج'
'سيقتل'
'سيغ'
'سيض'
'سير_'
'سيأتي_'
'سون'
'سوق_'
'سنين_'
'سنق'
'سنجد_'
'سماع'
'سليم_'
'سلم'
'سكي_'
'سكر_'
'سكر'
'سكان_'
'سـا'
'سط_'
'سريعة_'
'سررت_'
'سجل'
'ستم'
'ستكونين_'
'ستقول'
'ستف'
'ستغ'
'ستط'
'ستص'
'ستج'
'ستبقى_'
'ستان'
'سبنسر_'
'ساو'
'ساف'
'ساعد_'
'سادتي_'
'ساد'
'ساخن_'
'سات'
'سألت_'
'سأراك_'
'سأخرج_'
'سأ'
'زيز'
'زيادة_'
'زوي_'
'زون_'
'زوج'
'زميل'
'زق_'
'زق'
'زع_'
'زرقاء_'
'زر'
'زال'
'زاد_'
'ريه_'
'ريج'
'ريتشل_'
'ريت_'
'روما_'
'روسي'
'روبن_'
'روب_'
'رهيبة_'
'رهم_'
'ره'
'رنا'
'رما'
'رل'
'ركة_'
'رقصة_'
'رفة_'
'رغ'
'رض'
'رسي'
'ردي'
'رتب'
'ربح'
'رايلي_'
'راد'
'رائع'
'رأي_'
'رأ'
'ذوي_'
'ذهب'
'ذل'
'ذراع'
'ذر_'
'ذائ'
'دينا_'
'ديك'
'ديف'
'ديب'
'دونا_'
'دولا'
'دوك_'
'دوري'
'دوا_'
'دمي'
'دمه_'
'دلا'
'دف_'
'دعى_'
'دعوت'
'دعا'
'دراست'
'دد'
'دخل'
'دته_'
'دب_'
'دار'
'دائ'
'خيص'
'خلق_'
'خلص_'
'خلا'
'خطوات_'
'خطب'
'خرجنا_'
'خدعة_'
'خاصتي_'
'حيوانات_'
'حون_'
'حوله_'
'حولك_'
'حوا'
'حني_'
'حن_'
'حمل'
'حما'
'حلوى_'
'حل'
'حكم_'
'حقيق'
'حقو'
'حصلوا_'
'حسابي_'
'حس'
'حزينة_'
'حرك'
'حذر'
'حذاء_'
'حديث'
'حدثت_'
'حبة_'
'حاول'
'حان'
'حام_'
'حاضر_'
'حاد'
'جيك_'
'جيفري_'
'جونسون_'
'جوناثان_'
'جولييت_'
'جولي_'
'جوزيف_'
'جوز'
'جودي_'
'جنوني_'
'جنون'
'جم_'
'جلسة_'
'جلب'
'جـ'
'جعله_'
'جعلتني_'
'جع'
'جسمك_'
'جسد'
'جس'
'جريم'
'جري_'
'جرد_'
'جرح_'
'جراح'
'جدد_'
'جاي'
'جانبك_'
'جائزة_'
'جئ'
'ثى_'
'ثون_'
'ثور_'
'ثنا'
'ثم'
'ثان_'
'تيد_'
'تيا'
'توني_'
'توماس_'
'تولي_'
'توبي_'
'تواجه_'
'تهانينا_'
'تنسى_'
'تنح'
'تنتمي_'
'تنا'
'تمو'
'تمك'
'تمسك_'
'تمسك'
'تلقي'
'تكونوا_'
'تقومون_'
'تقولي_'
'تقف'
'تقرير_'
'تقدم_'
'تقتل'
'تفهم'
'تفك_'
'تفعلها_'
'تفضلوا_'
'تفسير_'
'تفا'
'تـ_'
'تعليم'
'تعل'
'تعط'
'تعرض_'
'تعتني_'
'تعاني_'
'تعالوا_'
'تطر'
'تضيع_'
'تضي'
'تضر'
'تصرف_'
'تشوي_'
'تشكيل_'
'تشك'
'تشف_'
'تشرب_'
'تشارلز_'
'تسم'
'تستطع_'
'تساعد_'
'تركك_'
'ترغبين_'
'ترسل_'
'ترجمة_'
'ترج'
'ترتيب'
'ترب'
'تراني_'
'تدير_'
'تخرج'
'تحق'
'تحظى_'
'تحد_'
'تحتاجين_'
'تحبها_'
'تحاولين_'
'تجاوز'
'تجا'
'تتغ'
'تتعا'
'تتص'
'تتجا'
'تبقي_'
'تاريخ'
'تار'
'تاج_'
'تأكل_'
'تأخر_'
'تأت'
'بيو'
'بينكم_'
'بيج_'
'بيان'
'بويكت_'
'بوع_'
'بوضوح_'
'بوج'
'بنا'
'بمفرد'
'بمساعدت'
'بلغ'
'بقى_'
'بقص'
'بقتل'
'بفر'
'بــ'
'بغ'
'بعيدة_'
'بعده_'
'بعد'
'بصحة_'
'بشع'
'بشر'
'بسر'
'بست'
'بروفيسور_'
'برايس_'
'بذا'
'بدو'
'بحو'
'بحثت_'
'بجانب'
'بتن'
'بتك'
'بتق'
'بتج'
'باو'
'باني_'
'بانه_'
'بالناس_'
'بالمائة_'
'بالسيارة_'
'بالجلوس_'
'بالتو'
'بالتم'
'بالتاكيد_'
'بالاس'
'باعت'
'باع'
'باسم_'
'باس_'
'بئ'
'بإمكانه_'
'بإت'
'بأخت'
'بأخ'
'ب'
'ايجا'
'اوك'
'اهر_'
'انو'
'انهض_'
'انق'
'انزل_'
'انتهينا_'
'امى_'
'امك_'
'امر'
'اليسار_'
'اليد_'
'الوق'
'الوزن_'
'الوحدة_'
'الهى_'
'النفط_'
'النف'
'النح'
'النت'
'النائ'
'الموقع_'
'الموج'
'الموتى_'
'المنص'
'المناسبة_'
'الملازم_'
'المكا'
'المقا'
'المفروض_'
'المفاتيح_'
'المعل'
'المعتاد_'
'المصا'
'المشتبه_'
'المسرح_'
'المسدس_'
'المرو'
'المراقبة_'
'المدي'
'المدر'
'المد'
'المختبر_'
'المخ'
'المحب'
'المجموعة_'
'المجلس_'
'المثل_'
'المتح'
'المب'
'المال'
'الماضي'
'اللهي_'
'الله'
'اللع'
'اللاعبين_'
'الكون_'
'الكه'
'الكلاب_'
'الكرا'
'الكذب_'
'الكار'
'القوى_'
'القرن_'
'القذر_'
'القانونية_'
'الفيل'
'الفيديو_'
'الفيدرالية_'
'الفي'
'الفوضى_'
'الفهم_'
'الفنية_'
'الفن'
'الفط'
'الفرصة_'
'الفتيان_'
'الــ'
'الـ1'
'الغلاف_'
'الغريب_'
'الغا'
'العين_'
'العي'
'العنا'
'العمر_'
'العم_'
'العكس_'
'العظيم_'
'العط'
'العصب'
'العسل_'
'العريف_'
'العبث_'
'العالية_'
'العاصفة_'
'الطويلة_'
'الطريقه_'
'الضر'
'الصن'
'الصفحة_'
'الصدق_'
'الصد'
'الصا'
'الشو'
'الشم'
'الشق'
'الشعب_'
'الشركات_'
'الشرق_'
'الشخصي_'
'الشتاء_'
'الشأن_'
'السير_'
'السوداء_'
'السمك_'
'السم_'
'السلطات_'
'السلام_'
'السقوط_'
'السجائر_'
'الست'
'السبت_'
'السادسة_'
'الساحرة_'
'السابع_'
'الزم'
'الزجاج_'
'الري'
'الرم'
'الرغبة_'
'الرح'
'الرج'
'الذئب_'
'الدور_'
'الدفع_'
'الدف'
'الدعم_'
'الدراجة_'
'الدخ'
'الد_'
'الخيارات_'
'الخيار_'
'الخميس_'
'الخلي'
'الخص'
'الخبر_'
'الخامسة_'
'الخاطئة_'
'الحين_'
'الحماية_'
'الحم'
'الحليب_'
'الحق'
'الحصان_'
'الحشيش_'
'الحرية_'
'الحج'
'الحانة_'
'الحال'
'الحارس_'
'الحادث_'
'الجوي_'
'الجنسية_'
'الجنرال_'
'الجل'
'الجثة_'
'الجامعة_'
'الثو'
'الثق'
'التيار_'
'التهم_'
'التم'
'التفاح_'
'التعا'
'الترا'
'التالية_'
'البيرة_'
'البيتزا_'
'البنك_'
'البحيرة_'
'الاول_'
'الانترنت_'
'الاخ'
'الاحترام_'
'الاح'
'الات_'
'الات'
'الإع'
'الإخت'
'الإح'
'الإجابة_'
'الإبت'
'الأوان_'
'الأنا'
'الأماكن_'
'الأغ'
'الأضواء_'
'الأست'
'الأز'
'الأربع'
'الآلة_'
'اقترح'
'اقت'
'افتحي_'
'اغلق_'
'اعي'
'اعد'
'اعترف_'
'اصغ_'
'اصدق_'
'اصاب'
'اشتريت_'
'اشا'
'استخدمت_'
'اسبوع_'
'اسا'
'اره_'
'ارك'
'ارع_'
'ارض'
'ارس'
'اردت_'
'ارج'
'ارا'
'ادي_'
'ادر'
'ادث'
'اخرس_'
'اخبرها_'
'اخ'
'احضر'
'اجه'
'اجلس_'
'اجعل_'
'اجتماع_'
'اجا'
'اج'
'اثناء_'
'اثن'
'اتو'
'اتعلم_'
'اتضح_'
'اتصلي_'
'اتت'
'اتب'
'ابى_'
'ابه_'
'ابن'
'ابل'
'ابع'
'ابحث_'
'ابا'
'ائية_'
'ئين_'
'ئس'
'ئد_'
'ئب'
'إيقاف_'
'إيدي_'
'إياه_'
'إهتمام'
'إه'
'إننى_'
'إنسان_'
'إنتبه_'
'إلى'
'إلهى_'
'إقت'
'إق'
'إفتح_'
'إفت'
'إعتقد'
'إعت'
'إضافية_'
'إسم'
'إستم'
'إذهبي_'
'إذهب'
'إدارة_'
'إح'
'إجتماع_'
'إجت'
'إتفقنا_'
'إبنك_'
'إبقاء_'
'إبق_'
'إ'
'ؤون_'
'أيت'
'أوليفيا_'
'أولاد'
'أوك'
'أوقف'
'أوسكار_'
'أوافق_'
'أوا'
'أهل'
'أنى_'
'أنوي_'
'أنسى_'
'أندي_'
'أناس_'
'أمى_'
'أمه_'
'أمت'
'أمامي_'
'أماكن_'
'ألك'
'ألق'
'أكد_'
'أقل'
'أقدم_'
'أقتل'
'أقترح_'
'أفعلها_'
'أفراد_'
'أفر'
'أعيد'
'أعـ'
'أعط_'
'أعد'
'أعتبر_'
'أعت'
'أطلق'
'أطفالي_'
'أضع'
'أصلا_'
'أصدقائك_'
'أصاب_'
'أسوء_'
'أسمه_'
'أسرة_'
'أسر'
'أسبوعين_'
'أريك_'
'أرب'
'أراه_'
'أذ'
'أدلة_'
'أدع'
'أدركت_'
'أخذوا_'
'أخت'
'أخبريه_'
'أخا'
'أحظى_'
'أحضر'
'أحس'
'أحر'
'أحد'
'أجلنا_'
'أجريت_'
'أثر'
'أتي'
'أتص'
'أتب'
'أبوس_'
'أبدو_'
'أباك_'
'آيس'
'آني_'
'آمنة_'
'آر'
'ءا_'
'}._'
'zz'
'zon'
'ze'
'za'
'yöu_'
'ysi'
'ys'
'xe'
'workers_'
'wor'
'woods_'
'wo'
'witch_'
'wild_'
'wer_'
'wed_'
'wasted_'
'ward_'
'wan'
'wal'
'waitress_'
'vol'
'vi'
'vel'
'vas'
'van_'
'vacation_'
'v'
'uti'
'ut'
'ures_'
'ur_'
'ups'
'unless_'
'unh'
'une'
'una'
'un'
'ult'
'ugly_'
'twi'
'tum'
'tt_'
'truly_'
'tru'
'trea'
'tram'
'trace_'
'towards_'
'torture_'
'tori'
'too'
'ton'
'tom_'
'tom'
'toe_'
'tit'
'tis'
'thu'
'threatened_'
'thor'
'text_'
'testing_'
'tes_'
'ters_'
'tent'
'ten'
'temp'
'tea'
'task_'
'tan'
'tale'
'tactic'
'sy'
'sweep_'
'swe'
'sur'
'suggest_'
'struck_'
'stro'
'stre'
'sto'
'steel_'
'stayed_'
'stars_'
'ssion_'
'sse'
'spring_'
'spoken_'
'spo'
'specific_'
'speci'
'spa'
'soup_'
'sometime_'
'somehow_'
'solve_'
'soldiers_'
'socks_'
'sna'
'sm_'
'slo'
'slight'
'ski_'
'simply_'
'sim'
'sigh'
'shoulder_'
'sho'
'selling_'
'sel'
'see'
'sed_'
'section_'
'secretary_'
'screwed_'
'schedule_'
'scent_'
'scary_'
'sandwich_'
'sample_'
'rule_'
'ruining_'
'rs'
'rr'
'round'
'rot'
'role_'
'rod'
'robbed_'
'rl'
'ridiculous_'
'ret'
'results_'
'rest'
'reso'
'rese'
'res'
'repe'
'relax_'
'regular_'
'regret_'
'ree'
'received_'
'reaching_'
'rd'
'ration_'
'range_'
'rain_'
'quality_'
'puts_'
'purpose_'
'punch_'
'pt'
'propose_'
'project_'
'progress_'
'professional_'
'prisoners_'
'predict'
'pp'
'por'
'pop'
'poo'
'pon'
'pol'
'plant'
'placed_'
'pit'
'pipe_'
'pin'
'picking_'
'photo_'
'pha'
'peri'
'pen_'
'pen'
'patrol_'
'past'
'parent_'
'pan'
'palace_'
'pain'
'page_'
'package_'
'otherwise_'
'orphan'
'ore_'
'ops_'
'opening_'
'oli'
'oi'
'offering_'
'off'
'oe'
'oc'
'nuclear_'
'nti'
'nothin_'
'notes_'
'north_'
'nit'
'ning_'
'nine_'
'nigger_'
'nic_'
'nic'
'ng'
'neuro'
'neither_'
'neighbour'
'nasty_'
'nan'
'mustn_'
'mus'
'mp_'
'mountains_'
'motherfucker_'
'monkey_'
'moments_'
'minister_'
'metal_'
'mega'
'media_'
'med_'
'meaning_'
'mea'
'mbo'
'mb'
'material_'
'marrying_'
'managed_'
'mall_'
'mal'
'mail'
'ls'
'loving_'
'love'
'lou'
'locker_'
'lli'
'ling'
'lid_'
'li_'
'letting_'
'laws_'
'laughing_'
'lat'
'las'
'lame_'
'lake_'
'ku'
'kk'
'kills_'
'kie_'
'kidnapped_'
'kick_'
'ket_'
'ker'
'keeps_'
'keeper_'
'kan'
'ka'
'journey_'
'jobs_'
'jaw_'
'ja_'
'ive'
'ite_'
'introduce_'
'interview_'
'intel_'
'int'
'insurance_'
'indeed_'
'inde'
'ind'
'ina'
'ily_'
'ili'
'il'
'ik'
'igh_'
'ier_'
'ied_'
'identity_'
'ida'
'ice'
'i'
'hur'
'hum'
'hro'
'however_'
'hor'
'hood_'
'hoo_'
'honeymoon_'
'hitting_'
'heavy_'
'heal'
'harm_'
'hall'
'hair'
'gy_'
'green_'
'golf_'
'goat_'
'gives_'
'giant_'
'gg'
'gentleman_'
'general_'
'gar_'
'gang_'
'gan'
'gal'
'fy_'
'fur'
'fun'
'ft'
'friendly_'
'free'
'freaking_'
'fought_'
'foster_'
'fort'
'forgotten_'
'focused_'
'flying_'
'finding_'
'fil'
'fest'
'fella_'
'feeding_'
'fe_'
'faster_'
'fashion_'
'familiar_'
'false_'
'falls_'
'fail_'
'faci'
'ez_'
'extra_'
'exchange_'
'event_'
'estate_'
'esse'
'ere'
'entirely_'
'ening_'
'ena'
'elo'
'effect_'
'ef'
'easily_'
'easier_'
'ds'
'drives_'
'drivers_'
'driver_'
'dot_'
'dor'
'dope_'
'doll_'
'disp'
'discovered_'
'dirt_'
'directly_'
'dine'
'dime_'
'dick_'
'devi'
'develop'
'destroyed_'
'desperate_'
'designed_'
'desert_'
'demons_'
'delicious_'
'defeat_'
'debate_'
'data_'
'dan'
'damage_'
'cts_'
'cted_'
'cs_'
'crush_'
'cro'
'creature_'
'creati'
'count'
'cooking_'
'cook_'
'contain'
'contacted_'
'confirmed_'
'conf'
'compar'
'compa'
'committed_'
'combat_'
'class'
'cks_'
'cin'
'cigarette_'
'chose_'
'choose_'
'chin'
'chick_'
'chemical_'
'cheer'
'ched_'
'charges_'
'character_'
'champagne_'
'chain_'
'cc'
'cast_'
'cab_'
'cab'
'button_'
'but'
'bust_'
'built_'
'brush_'
'bro_'
'breathing_'
'brand_'
'bottom_'
'bones_'
'block_'
'bitches_'
'bill_'
'bil'
'bike_'
'biggest_'
'betray'
'ben'
'belongs_'
'beer_'
'bby_'
'battle_'
'bas'
'bars_'
'banks_'
'bags_'
'b'
'awesome_'
'audience_'
'attractive_'
'attacked_'
'ati'
'at'
'ass'
'art'
'ars_'
'arranged_'
'ari'
'are'
'ant'
'annual_'
'animals_'
'ale'
'aine_'
'agreement_'
'ages_'
'advantage_'
'address_'
'ace_'
'accus'
'acco'
'Zoe_'
'Year_'
'X'
'Wit'
'William_'
'Wil'
'Who'
'Wha'
'West_'
'Wei'
'Walter_'
'Wall'
'Val'
'Used_'
'Unit_'
'Uni'
'Tru'
'Tre'
'Tommy_'
'Thirty_'
'Thi'
'Teddy_'
'Ted_'
'Taxi_'
'Talk_'
'Tal'
'TE'
'TA'
'Sweet'
'Sunday_'
'Sti'
'Star_'
'Stan_'
'Spo'
'Special_'
'Speak_'
'Spe'
'Sli'
'Sk'
'Sing'
'Simpson_'
'Sil'
'Shan'
'Sco'
'Santa_'
'San_'
'ST_'
'SH'
'Rose_'
'Rock_'
'Robert_'
'Rob_'
'Relax_'
'Rei'
'Ree'
'Ran'
'Quick_'
'Q_'
'Push_'
'Poor_'
'Poirot_'
'Piper_'
'Phoebe_'
'Phil'
'Perhaps_'
'Pay'
'Pas'
'Pan'
'PE'
'Olivia_'
'Old_'
'OUT_'
'OH_'
'Nine_'
'Nina_'
'Nah_'
'NI'
'Mus'
'Mu'
'Mor'
'Mine_'
'Might_'
'Mari'
'Mann'
'Makes_'
'ME'
'Lu'
'Long_'
'Lily_'
'Lf_'
'Leon'
'Len'
'Laugh'
'Lau'
'Lar'
'LO'
'Ku'
'Kra'
'Know_'
'Knock_'
'Katie_'
'KI'
'Jona'
'Ji'
'Jess_'
'Jer'
'Jason_'
'Is'
'Into_'
'Hy'
'Howard_'
'Holmes_'
'Holl'
'Him_'
'High'
'Her'
'Hannah_'
'Hand_'
'Ham'
'Hall_'
'HER_'
'Grant_'
'Gibbs_'
'GOOD_'
'GO'
'Funny_'
'Fucking_'
'Fo'
'Fli'
'Fil'
'Fig'
'Feel_'
'Far'
'Fal'
'Fa'
'FF_'
'FFFF_'
'Ever_'
'Eddie_'
'East'
'EN'
'Dur'
'Drop_'
'Dr'
'Dev'
'Dec'
'Deb'
'Dear_'
'Dead_'
'Dan_'
'DO_'
'DOWN_'
'DI'
'Cove'
'Cons'
'Com'
'Clo'
'Chu'
'Chloe_'
'Carlos_'
'Cal'
'CE'
'Buck'
'Brad'
'Booth_'
'Bon'
'Billy_'
'Beth_'
'Bet'
'Ber'
'Ban'
'Bab'
'BUT_'
'BA'
'Av'
'Au'
'As'
'Any'
'Ang'
'Amy_'
'Amb'
'Alli'
'Africa_'
'Ad'
'Abby_'
'ARE_'
'AR'
'ALL_'
'=_'
';_'
'90_'
'88'
'8'
'75_'
'70'
'55'
'50'
'33_'
'31'
'2A'
'27'
'21_'
'200'
'198'
'13'
'01'
'00'
'..(_'
'.(_'
'. ‏_'
'- . _'
', '
')... _'
') ؟ '
') ، (_'
') ... _'
'" - _'
' ؟ '
' - . _'
' ) '
'‏_'
'‏ '
'ْ._'
'ّ '
'ِ... _'
'ِ ؟ '
'ِ ._'
'ِ ..'
'َ ._'
'ٌ ._'
'ٌ '
'ٌ'
'ً, (_'
'ً)'
'ً" _'
'ً ؟ '
'ً ..._'
'ييل_'
'يونغ_'
'يوك'
'يور_'
'يوج'
'يهودي_'
'يهاجم'
'ينم'
'ينقص'
'ينق'
'ينته'
'ينتق'
'ينبغى_'
'يناسب'
'يمين_'
'يملكون_'
'يمكني_'
'يمكنن'
'يمك'
'يلزم_'
'يلا'
'يكم_'
'يكل'
'يكت'
'يقي_'
'يقوموا_'
'يقود_'
'يقف'
'يقرب_'
'يقتل'
'يفو'
'يـا'
'يغطي_'
'يعيشون_'
'يعنى_'
'يعملون_'
'يعطيني_'
'يعرفه'
'يعجب'
'يظن_'
'يطر'
'يطابق_'
'يطا'
'يضع_'
'يضر'
'يضايق'
'يصيب'
'يسمع_'
'يسمع'
'يسم'
'يسعدني_'
'يستغرق_'
'يستطيعون_'
'يسبب_'
'يساعد'
'يسا'
'يريده_'
'يرو_'
'يره_'
'يرغب_'
'يرد_'
'يرتكب'
'يذكرني_'
'يدم'
'يدعون'
'يخف'
'يخت'
'يحل_'
'يحكم_'
'يحظ'
'يحر'
'يحترق_'
'يجيب_'
'يتوجب_'
'يتوا'
'يتعين_'
'يتعا'
'يتر'
'يتد'
'يتحد_'
'يتب'
'يتا_'
'يبقون_'
'يبدون_'
'يبت'
'يالل'
'ياط'
'ياصديقي_'
'ياسيد'
'يارفاق_'
'يادة_'
'ياب'
'يائسة_'
'يائ'
'ياأ'
'يئ_'
'يؤدي_'
'يأخذه'
'يأتى_'
'ويمكنك_'
'ويلي'
'ويش'
'ويد_'
'ووا'
'ونني_'
'ونقو'
'ونق'
'ونج'
'ومي_'
'ومي'
'ومو'
'ولين_'
'وليست_'
'ولون_'
'ولو'
'ولها_'
'ولك'
'ولست_'
'ولذلك_'
'ولت'
'ولادة_'
'ولأ'
'وكو'
'وكالة_'
'وقا'
'وفى_'
'وفق'
'وفاة_'
'وغير_'
'وغا'
'وعلي'
'وضعته_'
'وصل'
'وصفت'
'وشم_'
'وسبع'
'وسائل_'
'وزوجته_'
'ورس'
'ورج'
'وذ'
'وحم'
'وحدها_'
'وحدك_'
'وجو'
'وجدته_'
'وجد'
'وجا'
'وثائق_'
'وتك'
'وتص'
'وتس'
'وتد'
'وبين'
'وبم'
'وبط'
'وايت'
'والمر'
'والما'
'والدى_'
'والدته_'
'والج'
'واك'
'واضحة_'
'واصل'
'واري'
'وارت'
'واج_'
'وإي'
'وإلى_'
'وإح'
'وأود_'
'وأنها_'
'وأل'
'وأكثر_'
'وأقول_'
'وأ_'
'هيي_'
'هيوز_'
'هيم'
'هيـ_'
'هونج_'
'هوم'
'هولا'
'هوس'
'هور'
'هوت'
'هوا_'
'هنـاك_'
'هق'
'هـم_'
'هـذه_'
'هـا'
'هز'
'هذاال'
'هديت'
'هجوم_'
'هاي'
'هانا_'
'هاريسون_'
'هادئ'
'هاد'
'هاتفه_'
'هات'
'هاا'
'نيك'
'نيد'
'نيا_'
'نى'
'نوم'
'نوفمبر_'
'نود_'
'نوب'
'نهار_'
'نهار'
'نهائي'
'نها'
'ننسى_'
'ننت'
'نمت_'
'نكت'
'نقود_'
'نق_'
'نفهم_'
'نفعلها_'
'نفذ_'
'نغادر_'
'نظرية_'
'نظرك_'
'نط'
'نصل_'
'نص_'
'نشو'
'نشاهد_'
'نشاط_'
'نسا'
'نزو'
'نريده'
'نرك'
'نرت'
'ندي'
'ندع'
'ندخل_'
'نخت'
'نحظى_'
'نحضر_'
'نحتاجه_'
'نحت'
'نحب_'
'نجو'
'نجر_'
'نتيجة_'
'نته'
'نتعامل_'
'نتع'
'نتصل_'
'نبل'
'نبد'
'نبا'
'ناي'
'ناع'
'نادر'
'ناد_'
'ناتالي_'
'نات'
'ناب'
'نائمة_'
'نائب_'
'ميليسا_'
'ميلر_'
'ميلادك_'
'ميشيل_'
'ميش'
'ميس'
'ميز'
'ميد'
'ميامي_'
'ميا_'
'مولاي_'
'موكلي_'
'موك'
'موقع'
'موق'
'موظف'
'موس'
'موري'
'مورجان_'
'موج'
'موته_'
'مواق'
'مهن'
'مهتم'
'منطقيا_'
'منس'
'منزله'
'منتج'
'ممل_'
'ممتن'
'ممارسة_'
'مليء_'
'ملي_'
'ملي'
'ملهى_'
'ملم'
'ملكي_'
'ملح'
'ملاك_'
'ملاح'
'ملابس'
'ملائم_'
'مكننا_'
'مكسور_'
'مقو'
'مقنع_'
'مقرفة_'
'مقرف_'
'مقتل_'
'مقاوم'
'مقال'
'مفيدة_'
'مفلس'
'مفقود'
'مفت'
'مغا'
'معلقة_'
'معك'
'معرفت'
'معجزة_'
'معتاد'
'مظهر'
'مطل'
'مطا'
'مضطرة_'
'مصو'
'مصنوع'
'مصنع_'
'مصر'
'مصاصي_'
'مصاص'
'مصا'
'مص_'
'مشهد_'
'مشغولا_'
'مشتبه_'
'مشاعر_'
'مش_'
'مسل'
'مستعدين_'
'مستع'
'مستح'
'مساك'
'مسار_'
'مزي'
'مزع'
'مزحة_'
'مز_'
'مررت_'
'مرد'
'مرحلة_'
'مرارا_'
'مرأ'
'مذنب_'
'مذكرات_'
'مدين'
'مدمن'
'مدخل_'
'مدا'
'مخيف'
'مخلوق_'
'مخرج_'
'محمول'
'محكمة_'
'محظوظة_'
'محرك_'
'محدد_'
'محاول'
'محامية_'
'مجد_'
'مثير'
'متن'
'متعبة_'
'متعب_'
'متعا'
'متبا'
'متب'
'متاكد_'
'متأسفة_'
'متأخرا_'
'مباراة_'
'مايلز_'
'ماو'
'مانهاتن_'
'مالا'
'ماع_'
'ماس_'
'مارش'
'مارس_'
'مارثا_'
'مارتي_'
'ماتي_'
'ماال'
'مؤسسة_'
'مؤتمر'
'ليون'
'ليني_'
'ليم_'
'ليم'
'ليكس_'
'ليزر'
'ليز_'
'ليج'
'ليا'
'لى'
'لوما'
'لولا_'
'لورين_'
'لوحدها_'
'لوجود'
'لوج'
'لوت'
'لوا'
'لهنا'
'لنو'
'لنك'
'لنقم_'
'لنق'
'لنفعلها_'
'لنر'
'لنخرج_'
'لنت'
'لنبدأ_'
'لمي'
'لمم'
'لمك_'
'لمشاهدة_'
'لمساعدت'
'لمرة_'
'لمت'
'للوصول_'
'للنوم_'
'للمن'
'للمغ'
'للمس'
'للمدرسة_'
'للمحكمة_'
'للمحا'
'للمح'
'للمج'
'للمت'
'للمال_'
'للقتال_'
'للقائ'
'للعن'
'للعب_'
'للد'
'للحياة_'
'للحم'
'للجنون_'
'للتق'
'للاست'
'للاختباء_'
'للإهتمام_'
'للأعلى_'
'للأطفال_'
'للأخ'
'لكنى_'
'لكت'
'لقي'
'لقر'
'لقدومك_'
'لقد'
'لقاء_'
'لفعل_'
'لعب_'
'لصو'
'لشه'
'لشراء_'
'لست'
'لسبب_'
'لسا'
'لز'
'لديكما_'
'لدية_'
'لدقيقة_'
'لخط'
'لخ'
'لحماية_'
'لحة_'
'لح_'
'لج_'
'لتي_'
'لته'
'لتكون_'
'لتفعل_'
'لتز'
'لترك'
'لبه'
'لبنا'
'لبر'
'لبت_'
'لايمكنني_'
'لايمكن'
'لايست'
'لاند'
'لال_'
'لاف_'
'لاغ'
'لاعب_'
'لاعب'
'لاص'
'لاش'
'لازال_'
'لاخ'
'لاث'
'لاتقلق'
'لاتق'
'لاتع'
'لاتر'
'لاتخ'
'لاب'
'لاا'
'لإع'
'لإست'
'لإر'
'لإخبار'
'لأل'
'لأكون_'
'لأك'
'لأقوم_'
'لأخي'
'لأخذ'
'لأجل'
'كيند'
'كيم_'
'كيفن_'
'كيت'
'كوي'
'كونها_'
'كولا'
'كوك'
'كند'
'كنتما_'
'كنت'
'كلين'
'كلي_'
'كك'
'كف'
'كـــ'
'كسي'
'كسا'
'كرجل_'
'كذبة_'
'كذب'
'كذ'
'كح'
'كتابة_'
'كايل'
'كاي_'
'كاي'
'كانو_'
'كاميل'
'كامل'
'كالق'
'كالس'
'كاب'
'كإ'
'كأن'
'قيق'
'قيادة_'
'قوس_'
'قواعد_'
'قنا_'
'قلي'
'قلوب'
'قلقون_'
'قلقا_'
'قلبها_'
'قلا'
'قطعت_'
'قطعت'
'قطع'
'قضايا'
'قضائي'
'قض'
'قصير_'
'قصي'
'قصدي_'
'قصد'
'قصت'
'قص'
'قسط'
'قرارك_'
'قرار'
'قراء'
'قذر_'
'قذ'
'قدميك_'
'قتال'
'قاف'
'قاطع_'
'قاض'
'قادم'
'قاد'
'قابلن'
'قابلتك_'
'قابل'
'ق'
'فينا_'
'فين'
'فيليب_'
'فيلم'
'فيلد_'
'فيك'
'فيق_'
'فيف_'
'فيش'
'فيجب_'
'فيت_'
'فيت'
'فيا'
'فولك'
'فول'
'فني_'
'فنسنت_'
'فندق_'
'فماذا_'
'فلماذا_'
'فلة_'
'فقدنا_'
'فف'
'فعلو'
'فط'
'فصاعدا_'
'فشلت_'
'فز_'
'فز'
'فريقا_'
'فرنسا_'
'فرق'
'فرة_'
'فرايزر_'
'فرانسيسكو_'
'فج'
'فتاه_'
'فتات'
'فاق_'
'فاعل'
'فاظ_'
'فاز_'
'فارغة_'
'فائ'
'فئ'
'فإن'
'ـيـ'
'ـول_'
'ـور'
'ـه'
'ــن_'
'ــك_'
'ـــــــ'
'ــر'
'ــد_'
'ــت_'
'ـرف_'
'ـذ'
'ـت'
'ـأ'
'غين'
'غون'
'غول'
'غني_'
'غضبك_'
'غرض'
'غرا'
'غدا'
'غة_'
'غادر'
'غاب'
'عينيك_'
'عية_'
'عودت'
'عميلة_'
'عميل'
'عمليت'
'عملي'
'عملة_'
'عملائ'
'عمال_'
'علمت'
'علبة_'
'علاقات_'
'علاج'
'عقله_'
'عقل_'
'عف_'
'عـن_'
'عـل'
'عـا'
'عظيما_'
'عظم'
'عطلة_'
'عضو'
'عصير_'
'عص'
'عشي'
'عسكرية_'
'عس'
'عزيزتى_'
'عذ'
'عدين'
'عدوا_'
'عدنا_'
'عددهم_'
'عجلة_'
'عثر'
'عاقب'
'عادل_'
'عاب'
'عائلته_'
'ظو'
'ظهور'
'ظهر'
'ظل'
'ظت'
'ظام_'
'طيران_'
'طيار'
'طوع'
'طور'
'طوا'
'طنا_'
'طفول'
'طفلك_'
'طفل'
'طـ'
'طريقتي_'
'طريق'
'طرق'
'طراز_'
'طاقم_'
'طاقت'
'طاع'
'طارئ'
'طائر_'
'ضيف'
'ضعه_'
'ضري'
'ضحك_'
'ضحك'
'ضح'
'ضاع_'
'ضابط_'
'ضا_'
'صيل_'
'صيب_'
'صوفيا_'
'صورت'
'صنعت_'
'صنعا_'
'صل'
'صفحة_'
'صغيره_'
'صعبا_'
'صص'
'صرف'
'صراح'
'صديقى_'
'صديقا_'
'صحة_'
'صب_'
'صان_'
'صالح'
'صال_'
'صارم'
'صار'
'صادق_'
'صادف'
'صاب_'
'صا_'
'شيكا'
'شيك'
'شيا'
'شهادة_'
'شنق'
'شل'
'شقة_'
'شــ'
'شعر'
'شع'
'شريط_'
'شرير_'
'شركت'
'شرط'
'شبه_'
'شاي_'
'شاه_'
'شان'
'شاق_'
'شارك'
'شارة_'
'شاحنة_'
'شاب'
'شئت_'
'سيي'
'سينت'
'سيعجب'
'سيص'
'سيش'
'سيستغرق_'
'سيز'
'سيدتى_'
'سيتح'
'سيادتك_'
'سونا'
'سول_'
'سهم_'
'سهل_'
'سنه_'
'سنم'
'سنص'
'سنخرج'
'سنحتاج_'
'سنب'
'سنا'
'سمير_'
'سمي_'
'سمعتي'
'سمعتني_'
'سمعتم_'
'سما'
'سلم_'
'سلك'
'سلفا'
'سلطة_'
'سلسلة_'
'سكن'
'سكا'
'سف_'
'سف'
'ســ'
'سعيد'
'سعي'
'سعة_'
'سط'
'سس'
'سرير'
'سرية_'
'سري_'
'سري'
'سرقت'
'سرق'
'سرعت'
'سجن_'
'ستيك'
'ستير'
'ستنت'
'ستش'
'ستحصل_'
'ستحب'
'ستاي'
'ستا'
'ستؤ'
'ستأخذ'
'سبيل_'
'سبع_'
'سبر'
'ساند'
'سانتا_'
'سالة_'
'ساكون_'
'ساك_'
'ساك'
'ساعتين_'
'ساعت'
'سار_'
'سار'
'ساخر'
'ساحر'
'سألت'
'سأقتلك_'
'سأعي'
'سأعمل_'
'سأط'
'سأصبح_'
'سأرى_'
'سأد'
'سأخبر_'
'سأحضر_'
'سأجد_'
'سأترك'
'سآ'
'س'
'زيم'
'زيل'
'زيد_'
'زيارة_'
'زيا'
'زول_'
'زوجها_'
'زوجات_'
'زواج'
'زبون'
'زار'
'زابي'
'ريل'
'ريب'
'رياضية_'
'رياضي_'
'ريات_'
'روني_'
'رومانسي_'
'روك'
'روحي_'
'روايت'
'رهيب_'
'رمي'
'ركي'
'ركم'
'ركب'
'رقا'
'رفون_'
'رفق'
'رفضت_'
'رغبة_'
'رغ_'
'رعاية_'
'رطة_'
'رص'
'رش_'
'رز_'
'ردا'
'رحل_'
'رحل'
'رجلين_'
'رجلي_'
'رجلك_'
'رجل'
'رجالك_'
'رتي_'
'ربما'
'راين_'
'ران'
'رامي'
'راك_'
'راق'
'رافي'
'راتب'
'رئيسة_'
'رأيه_'
'رأيتيه_'
'ذية_'
'ذوق'
'ذل_'
'ذكر'
'ذك_'
'ذري'
'ذرات_'
'ذاء_'
'ديه_'
'ديني_'
'ديس'
'ديز'
'ديد'
'دوني_'
'دونه'
'دوم_'
'دولة_'
'دورة_'
'دود_'
'دمر'
'دك'
'دقيق'
'دفع'
'دغ'
'دعي'
'دعنى_'
'دعم'
'دعك_'
'دس_'
'درس_'
'دخول_'
'دخ'
'دج_'
'دث'
'دايف_'
'دامي'
'داف'
'خير'
'خيان'
'خيار'
'خنق'
'خمس'
'خلاص'
'خفي'
'خفض'
'خفت_'
'خطيب'
'خطي'
'خطر'
'خطاب_'
'خطا'
'خطأك_'
'خض'
'خش'
'خزان'
'خذت_'
'خدم'
'خة_'
'خبري'
'خبرة_'
'خالي_'
'خالد_'
'خاصته'
'خاص'
'خاتم_'
'حين'
'حيلة_'
'حوض_'
'حنا'
'حلق_'
'حقيبت'
'حقوق_'
'حقائبك_'
'حطام_'
'حش_'
'حسنآ_'
'حساس_'
'حزام_'
'حذ'
'حديثا_'
'حدد'
'حجزت_'
'حث'
'حتمل_'
'حتم'
'حبي_'
'حبا_'
'حاولي_'
'حانة_'
'حاله_'
'حاض'
'حاس'
'حارب_'
'حاج'
'حات_'
'جيل'
'جيـ'
'جير_'
'جيد'
'جيت_'
'جيب_'
'جيا'
'جوليا_'
'جوش_'
'جور_'
'جواب_'
'جهز'
'جنسية_'
'جنسي'
'جنس_'
'جندي_'
'جميله_'
'جميعهم_'
'جمة_'
'جمال_'
'جلوس'
'جلو'
'جلا'
'جـا'
'جسر_'
'جسده_'
'جرو'
'جرعة_'
'جرت_'
'جذاب'
'جايمس_'
'جاه_'
'جالس'
'جال_'
'جاكي_'
'جاكسون_'
'جاستن_'
'جاس'
'جادة_'
'جاد'
'جاج_'
'جائع_'
'ثمر'
'ثلاث'
'ثقي_'
'ثقته'
'ثري'
'ثدي'
'ثب'
'ثان'
'تيم_'
'تيم'
'تيدي_'
'تية_'
'توقع'
'توس'
'تور_'
'تور'
'تودين_'
'توج'
'توافق'
'تهي'
'تهم'
'تهاني_'
'تنم'
'تنفس_'
'تنظيم_'
'تنظ'
'تنش'
'تنزف_'
'تنجح_'
'تنته'
'تنب'
'تناول'
'تنام_'
'تمهل_'
'تمع'
'تمطر_'
'تمان_'
'تلو_'
'تلق'
'تكي'
'تكساس_'
'تكتب_'
'تكت'
'تقولينه_'
'تقع_'
'تقدير'
'تقدر_'
'تقد'
'تقال_'
'تقابلنا_'
'تقابل'
'تفي_'
'تفهمني_'
'تفكرين_'
'تفسد_'
'تفس'
'تفر'
'تفتح_'
'تـو'
'تغيرت_'
'تغي_'
'تغل'
'تعود'
'تعم'
'تعرفي'
'تعرفون_'
'تعذيب'
'تعترف_'
'تطور'
'تصيب'
'تصور'
'تصم'
'تصرخ_'
'تصر_'
'تصدق'
'تصد'
'تصاب_'
'تشير_'
'تشو_'
'تشت'
'تشب'
'تشان_'
'تسمع_'
'تسريح'
'تسرق_'
'تستطيعون_'
'تستحق'
'تسافر_'
'تساعدني_'
'تساعد'
'تسألين'
'تسأل'
'تزا'
'تز_'
'ترين_'
'تريديني_'
'تركي'
'تركنا_'
'تركن'
'تركت'
'تردد'
'ترحل_'
'تراي'
'تراها_'
'تراف'
'تراجع_'
'ترا_'
'تذكري_'
'تذكرة_'
'تذك_'
'تدور_'
'تدفع_'
'تدريب_'
'تدخن_'
'تدخل'
'تدب'
'تخيل'
'تخل'
'تخفي'
'تخسر_'
'تختفي_'
'تخبرهم_'
'تخبرنا_'
'تخبر'
'تحول'
'تحمل'
'تحم_'
'تحقيق_'
'تحقق_'
'تحطم_'
'تحط'
'تحذير'
'تحدي'
'تحبني_'
'تح_'
'تجهيز'
'تجمع'
'تجلب_'
'تجل'
'تجر'
'تجده'
'تجاهل'
'تتنا'
'تتعلم_'
'تتعرف_'
'تتس'
'تتزوج_'
'تتركين'
'تتركه'
'تتركني_'
'تتراجع_'
'تتد'
'تتحدثون_'
'تتحدث'
'تتب'
'تبي_'
'تبكين_'
'تبقي'
'تبد'
'تبت'
'تبا'
'تام_'
'تالي'
'تاكس'
'تارا_'
'تار_'
'تاح_'
'تاجر_'
'تات_'
'تؤكد_'
'تأخذي_'
'ةو'
'ةل'
'بيوت'
'بينيت_'
'بينى_'
'بينك_'
'بيكي_'
'بيس_'
'بيرك_'
'بيرك'
'بيد'
'بيب'
'بوقت_'
'بوسعنا_'
'بورت'
'بود'
'بوجود'
'بوت'
'بوا_'
'بوا'
'بهو'
'بهدوء_'
'بنيت_'
'بنسبة_'
'بندقية_'
'بنجا'
'بنت_'
'بناءا_'
'بموت_'
'بمقدور'
'بمعدل_'
'بمش'
'بمر'
'بمحا'
'بمجا'
'بلير_'
'بلي_'
'بلطف_'
'بكل'
'بقتل_'
'بفعل_'
'بـي'
'بــ_'
'بـا'
'بعيون_'
'بعين_'
'بعناية_'
'بعمل'
'بعل'
'بعضا_'
'بعا'
'بطولة_'
'بطر'
'بطب'
'بصوت_'
'بصراحة_'
'بصدق_'
'بشري'
'بسيار'
'بريت'
'بريا'
'برون'
'برت_'
'بدي'
'بدوني_'
'بدونك_'
'بدر'
'بداخلي_'
'بداخلك_'
'بحيات'
'بحفل'
'بحث'
'بجم'
'بته'
'بتقديم_'
'بتغ'
'بتش'
'ببي'
'ببناء_'
'ببر'
'باهر_'
'باه'
'بالي'
'باله'
'بالمو'
'بالمش'
'بالمدي'
'بالمال_'
'بالماء_'
'بالغثيان_'
'بالعن'
'بالطا'
'بالدو'
'بالحديث_'
'بالتوفيق_'
'بالتفكير_'
'بالتر'
'بالتب'
'بالت_'
'بالبيت_'
'بالبا'
'بالأم'
'باك'
'باق'
'باش'
'باستخدام_'
'باستثناء_'
'بارد'
'باربرا_'
'باح'
'بإعادة_'
'بإست'
'بؤ'
'بأق'
'بأس'
'ايي'
'ايمكن'
'ايم'
'ايفان_'
'ايف'
'ايتها_'
'اياه_'
'ايام_'
'اوي'
'اهد_'
'اهتم_'
'انية_'
'انـ'
'انطلق_'
'انط'
'انس_'
'انس'
'انزع'
'اندر'
'انتهاء_'
'انتبه_'
'امني'
'امل'
'امسك'
'امتل'
'امام_'
'اليابان_'
'الولاء_'
'الوقوف_'
'الوفاة_'
'الوص'
'الوسيم_'
'الوزراء_'
'الوداع_'
'الوثوق_'
'الهي'
'الهدوء_'
'الها'
'اله'
'النور_'
'النوافذ_'
'النو'
'النقطة_'
'النفسي'
'النسخة_'
'النزول_'
'النجاح_'
'النادي_'
'الناحية_'
'الموسيقي_'
'المهر'
'المنافس'
'الممر_'
'الملح'
'المكسيك_'
'المكتبة_'
'المكت'
'المقبلة_'
'المقاومة_'
'المقاطعة_'
'المقابلة_'
'المقابل_'
'المفتش_'
'المغادرة_'
'المعن'
'المعج'
'المعت'
'المعارك_'
'المظل'
'المطا'
'المشكل'
'المشروع_'
'المشر'
'المسكينة_'
'المستوى_'
'المستو'
'المسئول_'
'المره_'
'المرش'
'المرحلة_'
'المرج'
'المرت'
'المراهق'
'المرآة_'
'المر_'
'المدينه_'
'المدنية_'
'المدعي_'
'المدخل_'
'المخت'
'المحم'
'المحلية_'
'المحلفين_'
'المحقق'
'المحر'
'المحاكمة_'
'المجموع'
'المجرمين_'
'المجاور_'
'المتر'
'المالك_'
'الماضيه_'
'الليل'
'اللوم_'
'اللازم_'
'الكي'
'الكولونيل_'
'الكوكايين_'
'الكمبيوتر_'
'الكلمة_'
'الكل'
'الكشف_'
'الكريسم'
'الكتابة_'
'الكبري'
'القوانين_'
'القميص_'
'القليلة_'
'القلق_'
'القطع_'
'القرية_'
'القرد_'
'القذارة_'
'القدمين_'
'القبل'
'القبطان_'
'القائمة_'
'الفس'
'الفجر_'
'الفترة_'
'الغو'
'الغل'
'الغريبة_'
'الغرب_'
'الغبار_'
'الغاب'
'العيادة_'
'العوا'
'العنوان_'
'العنب_'
'العن'
'العمي'
'العمل'
'العلماء_'
'العقيد_'
'العقار'
'العفو_'
'العظيمة_'
'العظم'
'العض'
'العرا'
'العام'
'الطويل_'
'الطرف_'
'الطبيعة_'
'الطبيبة_'
'الطاقم_'
'الضروري_'
'الصناعي_'
'الصل'
'الصف'
'الصعود_'
'الصديق_'
'الصدر_'
'الصحيفة_'
'الصبي_'
'الص'
'الشوارع_'
'الشمال_'
'الشك'
'الشقة_'
'الشع'
'الشرطي_'
'الشرب_'
'الشخصي'
'الشابة_'
'السيدات_'
'السيئ'
'السوا'
'السنين_'
'السلوك_'
'السلط'
'السكين_'
'السفلي_'
'السع'
'السريع_'
'السر'
'السح'
'السجين'
'السج'
'الست_'
'السباق_'
'الزي_'
'الزرقاء_'
'الروح_'
'الرهان_'
'الرصاصة_'
'الرسمي_'
'الرسم_'
'الربيع_'
'الراب'
'الرائحة_'
'الرؤية_'
'الذه'
'الذكريات_'
'الذراع_'
'الدي'
'الدوري'
'الدليل_'
'الدكتورة_'
'الدق'
'الدعا'
'الخيري'
'الخنزير_'
'الخلفية_'
'الخلفي_'
'الخلا'
'الخفي'
'الخطو'
'الخطا'
'الخش'
'الخدمة_'
'الخامس_'
'الخال'
'الخا'
'الحيوان_'
'الحوض_'
'الحمدلله_'
'الحمد_'
'الحلم_'
'الحلق'
'الحكم_'
'الحقيق'
'الحص'
'الحساب_'
'الحس'
'الحراس_'
'الحر_'
'الحام'
'الحافلة_'
'الحاد'
'الجين'
'الجي'
'الجولة_'
'الجو'
'الجه'
'الجنون_'
'الجنوبي_'
'الجمهور_'
'الجروح_'
'الجذ'
'الجدة_'
'الجد_'
'الج_'
'الثمن_'
'الثمانينات_'
'الثما'
'الثلاجة_'
'الثلاث_'
'الثل'
'الثقة_'
'الثانى_'
'التي'
'التهديد_'
'التنين_'
'التمثيل_'
'التلا'
'التل'
'التكي'
'التقينا_'
'التف'
'التعويذة_'
'التطو'
'التسلي'
'التسجيل_'
'التزلج_'
'التذ'
'التدريب_'
'التخلص_'
'التخل'
'التحد_'
'التجربة_'
'التجار'
'التبا'
'التالى_'
'البيانات_'
'البلا'
'البقية_'
'البطاري'
'البصمات_'
'البدأ_'
'البد'
'البحار_'
'البار_'
'البار'
'الاي'
'الاو'
'الاهتمام_'
'الاماكن_'
'الاغ'
'الاعتراف_'
'الاض'
'الاص'
'الاستمرار_'
'الاستع'
'الاد'
'الاخير'
'الاخر_'
'الاخر'
'الاجتماع_'
'الاثنان_'
'الإنترنت_'
'الإم'
'الإف'
'الإعلان'
'الإحترام_'
'الإثنين_'
'الإثنان_'
'الإب'
'الأيمن_'
'الأيدي_'
'الأي'
'الأولية_'
'الأه'
'الأني'
'الأنف_'
'الأنس'
'الأميرة_'
'الأمير_'
'الأمراض_'
'الأك'
'الأقدام_'
'الأفلام_'
'الأغراض_'
'الأطوار_'
'الأسود_'
'الأسوأ_'
'الأسم'
'الأزرق_'
'الأراضي_'
'الأدلة_'
'الأخر_'
'الأت'
'الآلاف_'
'اكس'
'اكر'
'اكتشاف_'
'اكت'
'اقصد_'
'اقتل'
'اقا'
'افعلها_'
'افعله_'
'افتقد'
'اغلق'
'اعن'
'اعطيني_'
'اعط'
'اعرفه_'
'اعر'
'اطلق'
'اصل_'
'اصل'
'اصدقاء_'
'اصبحت_'
'اشاهد_'
'اسما_'
'اسكت'
'اسفة_'
'اسرع_'
'استعد_'
'استطعت_'
'استدعا'
'اسألك_'
'اسأل'
'ازا'
'ارها_'
'ارم'
'اردو_'
'ارد'
'ارحل_'
'ارب'
'ارا_'
'اذهبى_'
'ادف'
'ادع'
'اخرجي_'
'اختف'
'اخترع'
'اختر'
'اخبريني_'
'اخبرتني_'
'اخبار'
'احمل_'
'احمق_'
'احم'
'احس'
'احدهم_'
'احتمال'
'احتجت_'
'اجه_'
'اجم'
'اجلب'
'اتي'
'اتم'
'اتل'
'اتس'
'اتبع'
'ابو'
'ابل_'
'ابع_'
'ابتسم_'
'ائق_'
'ائب_'
'اأ'
'ئيل_'
'ئى_'
'ئم'
'ئع_'
'ئط_'
'ئز_'
'ئر_'
'ئب_'
'ئا'
'إيمي'
'إيلينا_'
'إيصال'
'إيثان_'
'إياها_'
'إهد'
'إنهاء_'
'إنك'
'إنقاذ_'
'إنظري_'
'إنتهينا_'
'إنتظر'
'إنتظار_'
'إنتباه'
'إليكم_'
'إلتق'
'إفعل'
'إعذر'
'إط'
'إضافة_'
'إض'
'إشارت'
'إسمي_'
'إستق'
'إستعمل'
'إستر'
'إستخدام_'
'إسب'
'إرتد'
'إخراج_'
'إخراج'
'إختفى_'
'إخبارك_'
'إحضار_'
'إحتج'
'إجعل'
'إجراء_'
'إجبار'
'إجازة_'
'إجاب'
'إتصلت_'
'إترك'
'إت_'
'إبنتي_'
'إبن'
'إبقى_'
'إبتعد_'
'ؤو'
'ؤلاء_'
'ؤال_'
'ؤا'
'ؤ_'
'أيمكننا_'
'أوين_'
'أوليفر_'
'أوراق_'
'أورا'
'أوتعلم_'
'أهي_'
'أها'
'أني'
'أنهي_'
'أنهما_'
'أنكما_'
'أنفاس'
'أنـه_'
'أنــا_'
'أنظروا_'
'أنظ'
'أنصت_'
'أنص'
'أنسة_'
'أنس'
'أنز'
'أند'
'أنجيلا_'
'أنتى_'
'أنتهى_'
'أنة_'
'أنام_'
'أنأ'
'أمنح'
'أمن'
'أمم_'
'أمل'
'أمكنك_'
'أمـ'
'أمسكو'
'أمسكت_'
'أمرنا_'
'أمر'
'أمانع_'
'أمان_'
'أما'
'ألم'
'ألس'
'ألتقي_'
'ألت'
'ألأ'
'أكاذيب_'
'أكا'
'أقود_'
'أقدام'
'أقتل_'
'أفو'
'أفلام_'
'أفعال'
'أغلب_'
'أغراضك_'
'أعي'
'أعمى_'
'أعم'
'أعل'
'أعظم_'
'أعز_'
'أعتق'
'أعاد_'
'أع_'
'أض'
'أصلح'
'أصل_'
'أصدقائنا_'
'أصح'
'أشكال_'
'أشجار_'
'أشتري'
'أسنان_'
'أسمعي_'
'أسل'
'أسـ'
'أسرت'
'أسحب_'
'أستمر_'
'أسب'
'أساعدك_'
'أساعد'
'أزي'
'أرني_'
'أرك_'
'أرض_'
'أرض'
'أرسلو'
'أرج'
'أراها_'
'أراضي'
'أذكر_'
'أدم'
'أدخ'
'أخي'
'أخوك_'
'أخطأت_'
'أخري'
'أخر'
'أخذه_'
'أخد'
'أختك_'
'أختب'
'أختار_'
'أخبروني_'
'أخبرتها_'
'أحياء_'
'أحمر_'
'أحم'
'أحبها_'
'أحبه_'
'أجن'
'أجزاء_'
'أثار'
'أتي_'
'أتمكن_'
'أتف'
'أتعلمون_'
'أتعامل_'
'أتظن'
'أتسائل_'
'أتر'
'أتخ'
'أتحر'
'أتح'
'أبيض_'
'أبي'
'أبق_'
'آير'
'آمنا_'
'آرتي_'
'آت'
'؟ ._'
'؛_'
'،(_'
'ê'
'Ó'
'Ã'
'¹_'
'£'
'¡_'
'~_'
'zing_'
'yu'
'ypt'
'your'
'you'
'ym'
'xon_'
'written_'
'wrist_'
'wound_'
'worthy_'
'wolf_'
'wn'
'with'
'wishes_'
'wire'
'will'
'wie'
'whom_'
'wherever_'
'whenever_'
'wh'
'wet_'
'weigh'
'wee'
'wealth'
'weak_'
'watched_'
'warm'
'wai'
'voi'
'vital_'
'vit'
'violence_'
'vin'
'ville_'
'view_'
'vid'
'version_'
'vent'
'veni'
'vehicle_'
'vani'
'van'
'vac'
'uts_'
'ute'
'ust'
'ury_'
'uri'
'universe_'
'unity_'
'unit_'
'unfai'
'uncon'
'ular_'
'ul_'
'ues_'
'uer'
'ud'
'uc'
'ub'
'twisted_'
'tune_'
'tting_'
'tte_'
'trunk_'
'troubles_'
'treasure_'
'travel_'
'trapped_'
'traffic_'
'toys_'
'toast_'
'tin_'
'tin'
'tickets_'
'tia'
'thrown_'
'thousands_'
'thoughts_'
'therapy_'
'theory_'
'tha'
'terrific_'
'term_'
'ter'
'tent_'
'tens_'
'tend_'
'technically_'
'tattoo_'
'tat'
'tar'
'tanks_'
'talent_'
'tal'
'tage_'
'tac'
'sweat_'
'swallow_'
'surviv'
'surrounded_'
'suppl'
'sunset_'
'sugar_'
'suffer'
'subway_'
'su_'
'struggle_'
'stress_'
'store'
'stomach_'
'stock_'
'stinks_'
'sting_'
'stic'
'stepped_'
'sten_'
'status_'
'stati'
'states_'
'statement_'
'state'
'star'
'stal'
'stairs_'
'stain'
'sque'
'square_'
'spray_'
'spots_'
'spin'
'speech_'
'source_'
'sol'
'sod'
'sobbing_'
'snap_'
'smoking_'
'slipped_'
'sleep'
'sk'
'sis_'
'silent_'
'silence_'
'signature_'
'signal_'
'si_'
'shy_'
'shopping_'
'shin'
'shield_'
'sheriff_'
'shadow_'
'settled_'
'servi'
'sensitive_'
'selfish_'
'secrets_'
'season_'
'seal_'
'script_'
'scream_'
'school'
'sayin_'
'satellite_'
'sam_'
'rse_'
'routine_'
'rose_'
'ros'
'romantic_'
'rolling_'
'rocks_'
'robot_'
'rob_'
'ro_'
'rly_'
'riti'
'ris'
'rior'
'rings_'
'rin'
'ril'
'ri_'
'rge'
'reward_'
'revenge_'
'reve'
'ress_'
'research_'
'required_'
'reports_'
'replace_'
'repl'
'repeat_'
'ren_'
'remote_'
'remind_'
'released_'
'rele'
'rel'
'regi'
'reb'
'reached_'
'rc'
'rats_'
'rated_'
'rap'
'ral_'
'rad'
'race_'
'rab'
'quarters_'
'pushing_'
'punish_'
'ption_'
'pt_'
'psycho'
'ps'
'provided_'
'protocol_'
'pros'
'production_'
'produce_'
'proceed'
'prob'
'pride_'
'prick_'
'price'
'prevent_'
'presents_'
'presence_'
'pres'
'pray_'
'practice_'
'practi'
'pping_'
'pper_'
'pot'
'post'
'positive_'
'port_'
'popped_'
'pop_'
'political_'
'poison_'
'poe'
'plo'
'pleasant_'
'ple_'
'plate_'
'pic'
'ph'
'pes'
'permanent_'
'period'
'penny_'
'pee_'
'pea'
'pay'
'pathetic_'
'passion_'
'passing_'
'parts_'
'parking_'
'pac'
'oy'
'ows_'
'owner_'
'owned_'
'overs'
'ove'
'outs'
'ously_'
'ours_'
'our'
'oun'
'ough'
'ost'
'ort'
'orr'
'organiz'
'ordinary_'
'ord'
'option_'
'op_'
'ood_'
'ond'
'onal_'
'omi'
'om'
'ole'
'offered_'
'ocean_'
'obs'
'object'
'ob'
'nun_'
'nty_'
'nts_'
'ntly_'
'nsi'
'nol'
'nightmare_'
'nger_'
'newspaper_'
'net_'
'net'
'needle_'
'need'
'nci'
'nch_'
'national_'
'nat'
'mystery_'
'my'
'mul'
'mr_'
'mps_'
'mph_'
'mpa'
'movies_'
'movement_'
'mou'
'motor'
'mostly_'
'moral_'
'moo'
'mont_'
'mommy_'
'mo_'
'ml'
'miracle_'
'mine'
'millions_'
'mile'
'mes_'
'merry_'
'ment'
'member_'
'mc'
'math_'
'marine_'
'manu'
'mans'
'mani'
'manage_'
'male_'
'magazine_'
'lower_'
'lor'
'lookout_'
'lonely_'
'logy_'
'log'
'locks_'
'located_'
'llo'
'lla'
'll'
'lightning_'
'light'
'lick'
'level_'
'let'
'leo'
'len_'
'len'
'leather_'
'leak'
'leads_'
'ld'
'laugh'
'lan'
'lain'
'lad'
'kno'
'knives_'
'kn'
'kissed_'
'kindness_'
'kicking_'
'ken_'
'kat'
'kara'
'jury_'
'jungle_'
'jun'
'jerk_'
'je'
'j'
'itude_'
'itch'
'ists_'
'ist'
'issues_'
'issue_'
'iss'
'isi'
'irrelevant_'
'ir'
'ip'
'ious_'
'ion'
'intimate_'
'interrupt'
'international_'
'intend_'
'insu'
'inst'
'ini'
'infl'
'iness'
'ine'
'individual_'
'ind_'
'including_'
'incident_'
'impression_'
'impa'
'im'
'ignore_'
'ignor'
'idi'
'identify_'
'ide'
'ici'
'ic'
'hurting_'
'hundreds_'
'hra'
'hostage_'
'hos'
'hoo'
'honestly_'
'hone'
'hon'
'hog_'
'hing_'
'helicopter_'
'hel'
'hed_'
'heartbeat_'
'heart'
'hea'
'hat'
'hard'
'harass'
'hara'
'hang'
'hammer'
'gut_'
'gus_'
'gue_'
'guarantee_'
'gru'
'grown_'
'groom'
'grav'
'grat'
'grass_'
'graph'
'graduation_'
'got'
'goods_'
'golden_'
'gna'
'gn'
'glue_'
'gla'
'gl'
'gil'
'gi_'
'ghosts_'
'gged_'
'gers_'
'genuine_'
'gen'
'gee'
'ge'
'gas'
'garden_'
'gan_'
'fuel_'
'frozen_'
'freedom_'
'fortune_'
'forest_'
'foreign_'
'focus_'
'fnArabic_'
'flesh_'
'fits_'
'fis'
'finds_'
'filled_'
'file_'
'ffe'
'fee_'
'fed_'
'fantastic_'
'fancy_'
'fan'
'faith_'
'fad_'
'explosion_'
'expe'
'exist'
'execution_'
'exc'
'eventually_'
'eve'
'eu'
'ette_'
'eti'
'eth'
'erti'
'err'
'ern_'
'erence'
'ered_'
'ents_'
'entitled_'
'enti'
'eno'
'ene'
'elect'
'ei'
'egr'
'eggs_'
'edit'
'ed'
'ect'
'eb'
'earn_'
'eager_'
'dum'
'drove_'
'draw_'
'drank_'
'don'
'dly_'
'divorced_'
'divorce_'
'division_'
'distant_'
'dissolve'
'dish'
'disguise_'
'disease_'
'disco'
'disapp'
'direct_'
'dil'
'dies_'
'dial'
'dge'
'detective_'
'destruction_'
'dent_'
'demo'
'delivered_'
'degrees_'
'defend_'
'defend'
'deco'
'dece'
'debt'
'ddi'
'dawn_'
'database_'
'dat'
'dancing_'
'damned_'
'dal'
'dai'
'cy'
'custody_'
'crow'
'critic'
'cri'
'create_'
'crash_'
'cowboy_'
'cow_'
'cou'
'cos_'
'corn_'
'cor'
'copies_'
'cook'
'convinced_'
'conv'
'controls_'
'contr'
'const'
'considering_'
'conse'
'confused_'
'condo'
'concern_'
'comin_'
'combined_'
'colour'
'colon'
'collection_'
'coach_'
'clean'
'civili'
'circumstances_'
'circle_'
'cinema_'
'cigar'
'cia'
'choices_'
'chief_'
'cher'
'char'
'changes_'
'ceremony_'
'cent'
'cell'
'causes_'
'cats_'
'cast'
'cas'
'cart_'
'carry_'
'carrie'
'cargo_'
'cared_'
'care'
'cally_'
'cable_'
'cabin_'
'by'
'buying_'
'butt_'
'butt'
'bus'
'buried_'
'burger_'
'burg'
'bun'
'bug_'
'brow'
'brilliant_'
'brid'
'breath'
'breast_'
'brave_'
'branch_'
'bow_'
'bour'
'bothered_'
'bot'
'borrow_'
'bored_'
'book'
'bon'
'bombs_'
'bli'
'bleeding_'
'ble'
'blast'
'blanket_'
'blade_'
'black'
'bird_'
'bi_'
'besides_'
'belt_'
'believes_'
'began_'
'beep'
'bber'
'bb'
'bath'
'base_'
'barr'
'bal'
'bait_'
'baggage_'
'bag'
'badly_'
'bad'
'backup_'
'babies_'
'aver'
'aur'
'au_'
'ath'
'aste'
'arrangements_'
'arr'
'armed_'
'arguing_'
'ara'
'approaching_'
'appears_'
'apologize_'
'anti_'
'answers_'
'answered_'
'anger_'
'ane_'
'ammo_'
'amb'
'am'
'alis'
'alien_'
'alcohol_'
'alarm_'
'agency_'
'age'
'admire'
'ade_'
'ack_'
'achieve'
'ach'
'accused_'
'accomplish'
'accepted_'
'ac_'
'absurd_'
'above_'
'aboard_'
'Z_'
'Young_'
'Wouldn_'
'World_'
'Wonderful_'
'Wind'
'Wilson_'
'Willie_'
'Wi'
'White_'
'Whi'
'Wanna_'
'Walker_'
'Wal'
'Wa'
'WITH_'
'Vince_'
'Vic'
'Ven'
'Van_'
'VI'
'VE'
'Us_'
'Unh_'
'UR'
'UP_'
'UN'
'UH_'
'Typesetting_'
'Ty'
'Tuesday_'
'Ts'
'Tor'
'Ton'
'Today_'
'Thr'
'Tho'
'Terry_'
'Ten_'
'Temp'
'Tar'
'Tan'
'TT'
'TI'
'THE'
'TH'
'Sweet_'
'Super_'
'Such_'
'Sub'
'Stu'
'Stra'
'Sto'
'Steady_'
'State_'
'Squ'
'Spi'
'Speaking_'
'Spar'
'Spanish_'
'Soviet_'
'Smith_'
'Sm'
'Sid'
'Shu'
'Sho'
'Shep'
'Sh'
'Sen'
'Sec'
'Save_'
'Saturday_'
'Sammy_'
'Samantha_'
'Sally_'
'Sad'
'Sac'
'STE'
'SHE_'
'Russians_'
'Russia_'
'Rum'
'Rou'
'Ross_'
'Ron_'
'Ron'
'Roman'
'Rodney_'
'Robin_'
'Robert'
'Roa'
'Rec'
'Real_'
'Randy_'
'Ram'
'Raj_'
'Rai'
'RI'
'Quiet_'
'Qui'
'Queen_'
'Pun'
'Pull_'
'Private_'
'Princess_'
'Pretty_'
'Pres'
'Power_'
'Pop_'
'Police_'
'Plan'
'Park_'
'Par'
'PH'
'Ou'
'Otherwise_'
'Os'
'Or'
'Ohh_'
'Nurse_'
'Nu'
'Nicole_'
'Nicky_'
'Nelson_'
'Neither_'
'Nea'
'Nazis_'
'Nation'
'Nancy_'
'Nam'
'Mun'
'Morgan_'
'Mont'
'Monday_'
'Mob'
'Minister_'
'Miami_'
'Men_'
'Mem'
'Mee'
'Matt'
'Mat'
'Mart'
'Marshal_'
'Marr'
'Mark'
'Marie_'
'Mand'
'Mala'
'Mal'
'Mag'
'MU'
'MON'
'MA'
'Louis_'
'Lots_'
'Lor'
'Logan_'
'Liz_'
'Light'
'Lie'
'Leg'
'League_'
'Later_'
'Lan'
'Kr'
'Kn'
'Kir'
'Kid'
'Kevin_'
'Kas'
'Kan'
'Justin_'
'Joy_'
'Jos'
'Joa'
'Jean_'
'Jan'
'Jackson_'
'Iv'
'Italian_'
'Israeli'
'Ira'
'Inter'
'Indi'
'Inde'
'Ie'
'Ic'
'IR'
'Hunter_'
'Honestly_'
'Hon'
'Hol'
'Hit_'
'Hill'
'Hil'
'Head'
'Hea'
'Haven_'
'Hands_'
'HIM_'
'HI'
'HAVE_'
'Gree'
'Grand_'
'Gotta_'
'Gordon_'
'Gonna_'
'Going_'
'Gob'
'Girls_'
'Gh'
'Germany_'
'GU'
'GO_'
'GHT_'
'GET_'
'GE'
'Friend'
'Fred_'
'Foo'
'Fla'
'Faster_'
'Fan'
'Fai'
'FI'
'Europe_'
'England_'
'Em'
'Eli'
'El_'
'Eight'
'Eg'
'Edward_'
'Eat_'
'Ea'
'EL'
'Drive'
'Dre'
'Doo'
'Dark_'
'Dal'
'DR'
'DNA_'
'DE'
'Cut_'
'Custer_'
'Cu'
'Cru'
'Crea'
'Coun'
'Cop'
'Connor_'
'Colo'
'Cli'
'Cleveland_'
'Clear_'
'Clear'
'Claire_'
'Cho'
'Chinese_'
'Certainly_'
'Cath'
'Cass'
'Casey_'
'Carla_'
'Canada_'
'Came'
'CT'
'CK_'
'Burn'
'Bur'
'Bullshit_'
'Bull'
'Buddy_'
'Bru'
'Brig'
'Bou'
'Boo'
'Bomb'
'Bit'
'Betty_'
'Bee'
'Beck'
'Bea'
'Bauer_'
'Bart_'
'Bai'
'BE'
'Awa'
'Attention_'
'Annie_'
'Ann_'
'Angeles_'
'Angel'
'Amen_'
'Always_'
'Allow_'
'Ali_'
'Aff'
'Ae'
'AN_'
'AI'
'@_'
'95_'
'75'
'73'
'7'
'68_'
'51_'
'43_'
'42_'
'35_'
'3'
'27_'
'17'
'16'
'150_'
'15'
'14'
'120'
'05_'
'..... _'
'. ._'
'. ..'
'. - '
'. " _'
'-{\\_'
',.'
'*'
')} '
'):_'
')" '
')! '
') )!_'
') "_'
') !_'
'( (_'
'', _'
'''
'" (_'
' ♪ ♪ _'
' ؟ )_'
' ]_'
' = _'
' . '
' ,'
' * '
' ) -_'
' "(_'
' ! -_'
'♫ _'
'♪ ♪_'
'″'
'‬ '
'‫"_'
'‎'
'٩'
'ْ، _'
'ْ '
'ِّ _'
'ِّ'
'ّ!'
'ّ -_'
'ِ،_'
'ِ, _'
'َ!_'
'ٍ، _'
'ٌ،'
'ً،'
'ً.. _'
'ً)_'
'يوني'
'يوم'
'يوليو_'
'يول'
'يوقف'
'يوسف_'
'يور'
'يوا'
'يهم'
'يهربون_'
'يهرب_'
'يهدد'
'ينو'
'ينظرون_'
'ينطبق_'
'ينسى_'
'ينزف_'
'ينز'
'ينتظرك_'
'يمي_'
'يموتون_'
'يمو'
'يمه_'
'يمنح'
'يمكننـ'
'يمكنك'
'يمثل_'
'يلوم'
'يلن'
'يلعب_'
'يلد'
'يلاح'
'يكونون_'
'يكون'
'يكن'
'يكشف_'
'يكره'
'يكتب_'
'يكة_'
'يكب'
'يقي'
'يقود'
'يقه'
'يقم_'
'يقل_'
'يقل'
'يقع_'
'يقظ_'
'يقض'
'يقدمو'
'يقد'
'يقتلون'
'يقتلك_'
'يقت'
'يقة_'
'يفل'
'يفك_'
'يفض'
'يفسر_'
'يفس'
'يفر'
'يـو'
'يـن_'
'يغي'
'يعود'
'يعل'
'يعق'
'يعرف'
'يعرض_'
'يعجبه'
'يعتمد_'
'يعامل'
'يظنون_'
'يضعون_'
'يضا'
'يصلح_'
'يصب_'
'يشعرون_'
'يشبه'
'يسو'
'يسرني_'
'يسرق'
'يستعمل'
'يستع'
'يستطيعوا_'
'يستخدم_'
'يساعدون'
'يزعج'
'يزداد_'
'يرين'
'يريدون'
'يريدن'
'يرسلو'
'يرسل_'
'يرجى_'
'يرجع_'
'يرب'
'يراه'
'يران_'
'يراك_'
'يرا_'
'يذهبو'
'يذكر_'
'يدوي'
'يدل_'
'يدعو_'
'يدري_'
'يدا_'
'يخط'
'يخص_'
'يختبئ'
'يخاف_'
'يحو'
'يحلو_'
'يحق_'
'يحف'
'يحصلون_'
'يحدد_'
'يحد'
'يحبني_'
'يحبك_'
'يحا'
'يجي'
'يجلس_'
'يجلب_'
'يجعلها_'
'يجعل'
'يجر'
'يتول'
'يتناول'
'يتم'
'يتفق'
'يتط'
'يتسنى_'
'يتذكر_'
'يتحرك_'
'يتبقى_'
'يتبا'
'يتأ'
'ية'
'يبه'
'يانا_'
'يان'
'ياما'
'يالله'
'ياك_'
'ياك'
'ياف'
'ياطي'
'يات'
'يئ'
'يؤسفني_'
'يأن'
'يأكلون_'
'يأكل'
'يأخذ'
'يأتوا_'
'ىب'
'ىال'
'ويي'
'ويه_'
'ويني_'
'وينت'
'ويليام_'
'ويلا'
'ويك_'
'ويقول'
'ويف'
'ويص'
'ويسكي_'
'وير_'
'ويد'
'ويبدو_'
'ويا'
'ووس'
'وود'
'وهنا_'
'وها'
'ونهم_'
'ونها_'
'ونذهب_'
'ونح'
'ومم'
'ومتى_'
'ولى_'
'ولما_'
'ولكـ'
'ولع'
'ولط'
'ولديك_'
'ولدي'
'وكيل_'
'وكي'
'وكذ'
'وكت'
'وكأن'
'وقع'
'وقر'
'وقح'
'وقب'
'وقام_'
'وفر'
'وعي_'
'وعي'
'وعندها_'
'وعدتني_'
'وعة_'
'وظ'
'وطلب'
'وطب'
'وطا'
'وط_'
'وضعوا_'
'وصلت'
'وصف_'
'وصا'
'وشي'
'وش_'
'وسيلة_'
'وستكون_'
'وستح'
'وزي'
'وزا'
'ورو'
'وره'
'ورم'
'ورقة_'
'ورق'
'ورطة_'
'ورد_'
'ورائ'
'وراءه_'
'ودون_'
'ودن'
'وخا'
'وحيدا_'
'وحيد_'
'وحصل'
'وح_'
'وجع'
'وجدوا_'
'وجده_'
'وجدتك_'
'وجدت'
'وجبات_'
'وثلاثون_'
'وثق'
'وث'
'وتي'
'وتلك_'
'وتعرف_'
'وتظ'
'وتريد_'
'وتخبر'
'وتا'
'وبل'
'وبعد'
'وبع'
'وبص'
'وبش'
'وبدون_'
'وبالمناسبة_'
'وبالت'
'وبار'
'وانتظر'
'والي'
'والو'
'والمل'
'والمد'
'والكثير_'
'والقتل_'
'والـ'
'والسي'
'والسب'
'والسا'
'والرو'
'والرج'
'والدها_'
'والثا'
'والت_'
'والبي'
'والاست'
'والأم'
'والأس'
'واقي'
'واقف'
'واصل_'
'واسعة_'
'واس'
'وارن'
'وارئ_'
'وار'
'واد'
'واحد'
'واجهة_'
'وإض'
'وإخ'
'وأني_'
'وأك'
'وأصبح'
'وأص'
'وأست'
'وأخيرا_'
'وأخبر'
'وأج'
'هيون_'
'هين'
'هيذر_'
'هيد'
'هوليود_'
'هولي'
'هود_'
'هوج'
'هنا'
'همم_'
'همة_'
'هــذا_'
'هس'
'هزم'
'هروب_'
'هرب'
'هذان_'
'هده'
'هدفك_'
'هدا'
'هج'
'هتم_'
'هبت_'
'هاورد_'
'هاما'
'هالك'
'هارف'
'هارت'
'هارب'
'هادئة_'
'هاد_'
'هاجم'
'هاتفي'
'نيلسون_'
'نيف'
'نيب'
'نيا'
'نوق'
'نوعي'
'نوع'
'نور_'
'نور'
'نوح_'
'نوجه'
'ننطلق_'
'نم_'
'نلتقي_'
'نكم'
'نقول_'
'نقل'
'نقف_'
'نقص_'
'نقدا_'
'نقابل'
'نفقد_'
'نفا'
'نغم'
'نعمة_'
'نعـم_'
'نعد_'
'نعثر_'
'نعا'
'نظريا_'
'نظري'
'نظار'
'نطا'
'نض'
'نصيحت'
'نصيب_'
'نصف'
'نشي'
'نشا'
'نشأت_'
'نسيت'
'نسميها_'
'نسرق'
'نسخت'
'نستم'
'نستخدم_'
'نسب'
'نسأل'
'نزل_'
'نرد_'
'نراك_'
'ندق'
'ندفع_'
'ندرك_'
'نختل'
'نخب_'
'نخب'
'نخا'
'نحي'
'نحن'
'نحـ'
'نجوم_'
'نجم'
'نجعل_'
'نجرب_'
'نجده'
'نجح_'
'نجب'
'نتوقف_'
'نتن'
'نتكلم_'
'نتف'
'نتظ'
'نترك'
'نتذكر_'
'نتحرك_'
'نتج'
'نتب'
'نتاج_'
'نتأ'
'نبيذ_'
'نبني_'
'نبض_'
'نامج_'
'نام'
'نالك_'
'نافي'
'ناضج_'
'نارية_'
'ناري_'
'نادي'
'ناحي'
'ناجح'
'ناج'
'ناثان_'
'نائي'
'نؤ'
'نأ'
'ن'
'ميم'
'ميلا_'
'ميك_'
'ميرا_'
'ميدا'
'موه_'
'مونيكا_'
'مونك'
'مولدر_'
'مولد'
'موعدك_'
'موعدا_'
'موضع_'
'موسيق'
'مورين'
'موجودا_'
'موتك_'
'مواقع_'
'موافقة_'
'مواطن'
'مهووس'
'مهمت'
'مهرجان_'
'مهج'
'مهارات'
'مهاجم'
'منفصل'
'منصب'
'منشغل'
'منزلا_'
'منزل'
'مندهش'
'منحة_'
'منج'
'منتجات'
'مناطق_'
'مميزة_'
'مميز_'
'ممم_'
'ممر'
'ممتلئ'
'مليون'
'مليئ'
'ملو'
'مله_'
'ملكية_'
'ملك'
'ملفات_'
'ملف'
'ملاكم'
'ملئ_'
'مكو'
'مكنها_'
'مكم_'
'مكم'
'مكاني_'
'مقي'
'مقعد_'
'مقطور'
'مقطع_'
'مقصو'
'مقر_'
'مقت'
'مقاعد_'
'مقابلته'
'مقابلت'
'مق_'
'مفيد_'
'مفتوح'
'مفا'
'مــر'
'مــ'
'مغلقة_'
'معي'
'معهد_'
'معن'
'معلم_'
'معقدة_'
'معظمه'
'معطفك_'
'معركت'
'معرض_'
'معدل_'
'معجب_'
'معت_'
'معان'
'مظل'
'مطبخ'
'مضي'
'مصلحة_'
'مصادر_'
'مشي'
'مشوش'
'مشكلت'
'مشكل'
'مشغول'
'مشروع'
'مشروب_'
'مشت'
'مشاعري_'
'مشاع'
'مشابه'
'مسي'
'مسك'
'مسرورة_'
'مسرحية_'
'مسر'
'مسدسك_'
'مسدسا_'
'مسد'
'مسحو'
'مسح'
'مستوى_'
'مستقبلي_'
'مستعده_'
'مستشار_'
'مستر'
'مستحيلة_'
'مسب'
'مزيف'
'مزر'
'مزا'
'مريحة_'
'مريح'
'مرور_'
'مرهق_'
'مره'
'مرفوض_'
'مرضى_'
'مرخص'
'مرحى_'
'مرحب'
'مرحاض_'
'مرج'
'مرتبطة_'
'مرتب'
'مرتاح_'
'مرتاح'
'مربك'
'مرب'
'مراقبت'
'مرار_'
'مذهل'
'مذكرة_'
'مذبح'
'مدم'
'مدريد_'
'مدرب'
'مدر'
'مدب'
'مدام_'
'مخف'
'مخطوب'
'مخطئ'
'مختلف'
'مختل_'
'مخالف'
'مخادع_'
'مخا'
'محي'
'محو_'
'محمل_'
'محقق'
'محظوظا_'
'محرج'
'محر'
'محد'
'محترم'
'محترف_'
'محتا'
'محبو'
'محام'
'محادثت'
'مجنونا_'
'مجموع'
'مجتمع'
'مجال'
'مثيرا_'
'مثالي'
'متوجه_'
'متواجدة_'
'مته'
'متنا'
'متم'
'متل'
'متفق'
'متعج'
'متع_'
'متطابق'
'متص'
'متش'
'متسل'
'متساو'
'متز'
'مترا_'
'متحضر'
'متح'
'متأكدا_'
'متأخ_'
'مبروك_'
'مباشر_'
'مبارك'
'مبار'
'مباد'
'مايريد'
'ماير'
'ماية_'
'ماهر'
'ماندي_'
'مالي_'
'ماكي'
'ماكر'
'ماكان_'
'مارلين_'
'مارا_'
'مارأيك_'
'ماد'
'ماحدث_'
'ماتوا_'
'ماا'
'مائ'
'مئن'
'مؤهل'
'مؤلف'
'مؤخرته_'
'مؤخرت'
'مؤثر_'
'مألوف'
'م'
'ليون_'
'ليه_'
'لينو'
'ليندا_'
'ليمون_'
'ليلى_'
'ليك_'
'ليقو'
'ليسم'
'ليسا'
'ليزبن_'
'ليد_'
'ليخ'
'ليت_'
'ليام_'
'لوه_'
'لون'
'لوسي'
'لوري'
'لور'
'لوحدنا_'
'لوان'
'لوالد'
'لهي'
'لهما_'
'لنم'
'لنفس'
'لنست'
'لندي'
'لنخ'
'لنحضر_'
'لنتحدث_'
'لمون_'
'لمنزلك_'
'لمن'
'لمل'
'لمقابلتك_'
'لمقابل'
'لمعرفته'
'لمصلح'
'لمست_'
'لمسة_'
'لمسا'
'لمس_'
'لمجرد_'
'لمة_'
'للناس_'
'للمو'
'للمكتب_'
'للمخ'
'للقو'
'للقلق_'
'للقدوم_'
'للقاء_'
'للقا'
'للغ'
'للعودة_'
'للعل'
'للعق'
'للعشاء_'
'للعا'
'للطا'
'للصي'
'للسيارة_'
'للسف'
'للسر'
'للرجل_'
'للخلف_'
'للخطر_'
'للحمام_'
'للحض'
'للجيش_'
'للجم'
'للتو'
'للتك'
'للتف'
'للتغ'
'للتخلص_'
'للتخ'
'للتأكد_'
'للتأ'
'للت_'
'للإن'
'للإست'
'للأمر_'
'للأم'
'للأسف_'
'للأس'
'للأر'
'لكي'
'لكو'
'لكلا'
'لكان_'
'لقول_'
'لقوا_'
'لقـد_'
'لقب_'
'لقب'
'لقائ'
'لفي'
'لفت_'
'لفت'
'لفة_'
'لـقد_'
'لــ_'
'لـذ'
'لعمله'
'لعمل_'
'لعلمك_'
'لعل_'
'لعدة_'
'لعبت_'
'لعب'
'لعائل'
'لصة_'
'لصالح'
'لص'
'لشر'
'لسم'
'لسر'
'لسؤال'
'لزوج'
'لرجل_'
'لذال'
'لدين'
'لديكى_'
'لدو'
'لدعم'
'لحيات'
'لحم'
'لحظات_'
'لحت'
'لجو'
'لجه'
'لجن'
'لثلاثة_'
'لثاني'
'لتوها_'
'لتل'
'لتقوم'
'لتط'
'لتري'
'لتأ'
'لبي'
'لبقية_'
'لبضعة_'
'لبا'
'لايع'
'لايا'
'لاي_'
'لاوس'
'لاني_'
'لانك_'
'لانس'
'لاند_'
'لانا_'
'لاكن_'
'لاع'
'لاس'
'لازم'
'لازل'
'لاري'
'لارس'
'لاد'
'لاخت'
'لاحظ'
'لاتفعل_'
'لاب_'
'لائق'
'لائ'
'لئ'
'لإيقاف'
'لإي'
'لإنقاذ'
'لإل'
'لإق'
'لأنن'
'لأنفس'
'لأق'
'لأعلى_'
'لأط'
'لأخر'
'لأخت'
'لأبي'
'لأ_'
'كينا'
'كيلس'
'كيري_'
'كير_'
'كونو'
'كونف'
'كونراد_'
'كولي'
'كوكب'
'كوس'
'كود'
'كوخ_'
'كوت'
'كوبر_'
'كوبا_'
'كهربائي'
'كها_'
'كنـ'
'كمية_'
'كمل'
'كمح'
'كمة_'
'كلود'
'كلو_'
'كلو'
'كلاي_'
'كلاري'
'كق'
'كفي'
'كفاك_'
'كف_'
'كــ'
'كصديق_'
'كشف'
'كشخص_'
'كشاف'
'كش_'
'كسو'
'كسر'
'كسب_'
'كز'
'كريس'
'كري_'
'كروم'
'كروز_'
'كرهت'
'كرات_'
'كذب_'
'كحول_'
'كثير'
'كثر_'
'كتو'
'كتم'
'كتشف_'
'كتاب'
'كتا'
'كبي'
'كبري'
'كبر'
'كبد'
'كاين'
'كاو'
'كاه'
'كانت'
'كاميرات_'
'كامي'
'كامبل_'
'كامب_'
'كالي_'
'كالي'
'كالو'
'كالم'
'كالعادة_'
'كالج'
'كالأ'
'كافيا_'
'كافة_'
'كاف_'
'كاست'
'كاري_'
'كارمن_'
'كاتب_'
'كاتب'
'كابي'
'كابو'
'كائ'
'كأنه_'
'كأنك_'
'قيه'
'قين'
'قيمته'
'قويا_'
'قومى_'
'قوموا_'
'قوم'
'قود'
'قوت'
'قوانين'
'قنينة_'
'قني_'
'قنة_'
'قميصك_'
'قميص'
'قمت'
'قمام'
'قما'
'قلها_'
'قلتي_'
'قلتها_'
'قفي_'
'قفوا_'
'قفه'
'قـا'
'قع'
'قطار_'
'قضيب_'
'قضي'
'قصص_'
'قصدت_'
'قش'
'قس'
'قرون_'
'قرض_'
'قررنا_'
'قرارات_'
'قذا'
'قدي'
'قدون_'
'قدو'
'قدمي'
'قدموا_'
'قدمه'
'قدمك_'
'قدما'
'قدرة_'
'قدت_'
'قتن'
'قتلتي'
'قتلته'
'قتلت'
'قبيح'
'قبه_'
'قبلت_'
'قبضت'
'قبض_'
'قانوني'
'قاق'
'قاسم_'
'قادرين_'
'قائم'
'فيو'
'فيهم_'
'فيه'
'فيني_'
'فيم_'
'فيلي'
'فيكي_'
'فيفيان_'
'فيغا'
'فيرجينيا_'
'فيران'
'فيرا'
'فيدي'
'فيدرالي'
'فيب'
'فيال'
'فوني'
'فوقه'
'فورمان_'
'فوت'
'فوات'
'فهناك_'
'فهمت'
'فهل_'
'فه'
'فمي_'
'فليك'
'فلوري'
'فلدي_'
'فلتح'
'فلتت'
'فكيف_'
'فكري_'
'فقي'
'فقر'
'فقدناه'
'فقدت'
'فقدان_'
'ففي_'
'فعو'
'فعلي'
'فظي'
'فظ'
'فطيرة_'
'فضل'
'فشل_'
'فشل'
'فش'
'فستان'
'فزع'
'فريدي_'
'فرض_'
'فرص'
'فرشاة_'
'فرح'
'فرج'
'فراي_'
'فراغ'
'فراد'
'فذ_'
'فخورا_'
'فتيان_'
'فتي'
'فته'
'فتش'
'فتحه'
'فتح'
'فانك_'
'فالكو'
'فال_'
'فاق'
'فاشل_'
'فأن'
'فأخ'
'فأة_'
'ـك'
'ــي_'
'ــي'
'ــم_'
'ــــي'
'ــــــ'
'ـعـ'
'ـع'
'ـظ'
'ـري'
'ـرا'
'ـدة_'
'ـال_'
'ـات_'
'غيري_'
'غيرة_'
'غيت'
'غيب'
'غو_'
'غن_'
'غلو'
'غله'
'غلن'
'غلطتك_'
'غطي'
'غطاء_'
'غز'
'غريف'
'غريغ_'
'غروف'
'غرو'
'غرقت_'
'غرفتي_'
'غرف'
'غرب_'
'غراي'
'غرام'
'غذائي'
'غذاء_'
'غد'
'غت_'
'غامضة_'
'غال'
'غاضبا_'
'غاز'
'غاريت'
'غاد'
'غات'
'غائ'
'غا_'
'عيون_'
'عيو'
'عينا'
'عين'
'عيب_'
'عيان_'
'عيادة_'
'عيا'
'عون'
'عود_'
'عنيد'
'عنق'
'عند'
'عنة_'
'عميق'
'عمي'
'عمى_'
'عمه_'
'عمن'
'عمليات_'
'عملاء_'
'عمر_'
'عمر'
'عمتي_'
'عمت'
'عمة_'
'عليه'
'عليكي_'
'علية_'
'علي'
'علهم_'
'علها_'
'علنا_'
'علمنا_'
'علقت_'
'علب'
'علام'
'علاقت'
'عقود_'
'عــ'
'عظام'
'عطر'
'عضوي'
'عض_'
'عصي'
'عشرين_'
'عساي_'
'عزيز'
'عري'
'عرفوا_'
'عرفته'
'عرضا_'
'عديم'
'عديدة_'
'عدي'
'عدلا_'
'عجبا_'
'عجب'
'عج_'
'عث_'
'عتي'
'عتك_'
'عامة_'
'عالق'
'عالج'
'عاصفة_'
'عادت_'
'عاب_'
'عائلتنا_'
'عائلت'
'عاء_'
'ظين_'
'ظيم'
'ظه'
'ظنن'
'ظلم'
'ظف'
'ظري'
'ظاهر'
'ظات_'
'ظ'
'طين_'
'طيع'
'طوي'
'طور_'
'طهي'
'طه'
'طلع_'
'طلة_'
'طلبت'
'طل'
'طفلتي_'
'طفال_'
'طفا'
'طعه_'
'طريقك_'
'طري_'
'طردك_'
'طردت'
'طرح'
'طراب'
'طح'
'طبية_'
'طبيب'
'طبخ'
'طباع'
'طب'
'طان'
'طالي'
'طالب_'
'طال'
'طارق_'
'طات_'
'طابق_'
'طئ'
'ضيوف'
'ضيه_'
'ضية_'
'ضه_'
'ضني_'
'ضمن'
'ضما'
'ضك_'
'ضـر'
'ضغط'
'ضغ'
'ضعيف_'
'ضعوا_'
'ضربن'
'ضربته'
'ضربا'
'ضرب'
'ضدي_'
'ضده'
'ضحيت'
'ضحي_'
'ضحايا'
'ضجة_'
'ضج'
'ضان_'
'ضاعت_'
'ضاجع'
'ضات_'
'ضابط'
'ضائ'
'صيا'
'صوتك_'
'صوت'
'صوا'
'صه'
'صناعة_'
'صناديق_'
'صمت_'
'صفا'
'صـل_'
'صغار_'
'صغ'
'صريحة_'
'صريح'
'صري'
'صرة_'
'صراخ_'
'صديقها_'
'صديقه_'
'صدم'
'صدقاء_'
'صدق_'
'صدفة_'
'صدري'
'صدام_'
'صحي_'
'صت_'
'صان'
'صال'
'صاخب'
'صات_'
'شين_'
'شيم'
'شيلب'
'شيل_'
'شيف'
'شيري'
'شيت'
'شوارع_'
'شواء_'
'شوا'
'شه_'
'شنا'
'شمال_'
'شقيقتك_'
'شق_'
'شق'
'شفى_'
'شفرة_'
'شفر'
'شـون_'
'شرين_'
'شريكتي_'
'شروت'
'شركتي_'
'شركا'
'شرق_'
'شربت'
'شد'
'شخصي'
'شج'
'شتري'
'شبح'
'شام'
'شاعر'
'شاطئ_'
'شاشة_'
'شاركت_'
'شارك_'
'شار_'
'شاحن'
'شابا_'
'شأن_'
'سيه_'
'سيلي'
'سيقوم_'
'سيفي_'
'سيفعلون_'
'سيعت'
'سيظل_'
'سيس_'
'سيرينا_'
'سيدنا_'
'سيدن'
'سيحضر_'
'سيجارة_'
'سيتوج'
'سيب'
'سياسي_'
'سياسة_'
'سيارات_'
'سيأخذ_'
'سوي'
'سوم'
'سوك'
'سوس_'
'سوري'
'سوداء_'
'سني'
'سننت'
'سنف'
'سنعود_'
'سنط'
'سنصل_'
'سنش'
'سنتين_'
'سنتي'
'سنتحدث_'
'سنتا'
'سمي'
'سمو'
'سمك_'
'سمعتها_'
'سمع'
'سماعها_'
'سلي'
'سلوك'
'سلط'
'سلة_'
'سلب'
'سلامتك_'
'سلامة_'
'سلام_'
'سكرتير'
'سكار'
'سفينت'
'سفر'
'سـ_'
'سعر_'
'سعداء_'
'سعا'
'سطو_'
'سروري_'
'سرقتها_'
'سرقت_'
'سرعة_'
'سرت'
'سرا_'
'سخيفا_'
'سحق_'
'سحب_'
'ستيفان'
'ستيان_'
'ستو_'
'ستهرب'
'ستن'
'ستموت_'
'ستمع_'
'ستلا'
'ستل'
'ستكون'
'ستفعله_'
'ستصبح_'
'ستسمع_'
'سترا'
'ستدعى_'
'ستد'
'ستخبر'
'سبيل'
'سبي_'
'سبتمبر_'
'سانت'
'سامي_'
'سامح'
'سام'
'سافر_'
'ساعه_'
'ساعدوني_'
'ساعدنا_'
'ساعدك_'
'ساعدتها_'
'ساعدته_'
'ساس'
'ساره_'
'سارا'
'ساد_'
'ساحر_'
'ساج'
'ساة_'
'سائل'
'سئمت_'
'سؤالك_'
'سؤالا_'
'سأو'
'سأهتم_'
'سأك'
'سأقتل'
'سأقا'
'سأفعلها_'
'سأفعله_'
'سأغ'
'سأعطيه'
'سأعطي'
'سأعت'
'سأطلب_'
'سأضع'
'سأسل'
'سأدفع_'
'سأحم'
'سأحضره_'
'سأحصل_'
'سأحت'
'سأحب'
'سأتو'
'سأتزوج_'
'سأتح'
'سآخذك_'
'سآخذ'
'زيل_'
'زير_'
'زية_'
'زون'
'زومبي_'
'زور'
'زواج_'
'زنا_'
'زمي'
'زلي'
'زلن'
'زلة_'
'زفاف_'
'زف'
'زز_'
'زرع_'
'زرت'
'زحف'
'زح_'
'زجاج'
'زت_'
'زت'
'زبدة_'
'زاوية_'
'زام'
'زاز'
'زائر_'
'زائ'
'زئ'
'زء_'
'ريكا_'
'ريف_'
'ريف'
'ريـ'
'ريغ'
'رير_'
'ريث'
'ريت'
'رويد'
'روي'
'رومي_'
'رومان_'
'رول'
'روق'
'روف_'
'روف'
'روع'
'روسيا_'
'روس'
'روزا'
'رور'
'روحك_'
'روبرت'
'روب'
'رهينة_'
'رهن_'
'رمي_'
'رمو'
'رمز_'
'رمادي_'
'رماد_'
'ركو'
'ركز_'
'ركز'
'ركت'
'ركبتي'
'رقيق'
'رقمي'
'رفيقي_'
'رفيقت'
'رفي_'
'رفي'
'رفع_'
'رغب'
'رعب_'
'رعا'
'رطي_'
'رط'
'رضيع_'
'رسون_'
'رسل'
'رسائل'
'رحمة_'
'رحلت_'
'رحب'
'رث_'
'ربون_'
'ربك_'
'ربطة_'
'ربط'
'ربت_'
'رايت_'
'رايت'
'راى_'
'راو'
'راه'
'راك'
'راقب'
'رافا'
'راط'
'راس'
'راز'
'راد_'
'رات'
'رئيسي_'
'رؤيت_'
'رأيكم'
'رأيت'
'رأ_'
'ذيك_'
'ذوا'
'ذهـ'
'ذها'
'ذكي'
'ذكريات_'
'ذكرى_'
'ذف_'
'ذع'
'ذج'
'ذبي'
'ذاكرت'
'ذاكرة_'
'ذارا'
'ذات'
'دينا'
'ديمي'
'ديلي'
'ديق'
'ديـ'
'ديسك'
'ديرة_'
'ديانا_'
'ديار'
'ديا'
'دومي'
'دوق'
'دواعي_'
'دهس'
'دمك_'
'دما_'
'دليل'
'دلي'
'دقيقه_'
'دق'
'دفن_'
'دفاعي_'
'دعوة_'
'دعم_'
'دس'
'دز'
'دروس_'
'دح'
'دج'
'دت'
'دة'
'دبليو_'
'دبر'
'دايم_'
'دايل_'
'دانى_'
'دام'
'دال'
'دافني_'
'داخلي'
'دئ'
'دء_'
'خية_'
'خيارات_'
'خيارا_'
'خوا'
'خه_'
'خنزير_'
'خلاف_'
'خـ'
'خطيرة_'
'خطابا'
'خطاب'
'خصي'
'خص_'
'خرية_'
'خرى_'
'خرو'
'خرق'
'خرج'
'خذيه'
'خذو'
'خذني_'
'خدمتك_'
'خدمات'
'خدم_'
'خدام'
'خداع_'
'خد'
'خجول'
'خج'
'خبير_'
'خبز_'
'خبرني_'
'خاصتك_'
'خارقة_'
'خاب'
'خائف'
'حيد'
'حيح_'
'حولها_'
'حمراء_'
'حمدا_'
'حمايتك_'
'حمام'
'حلمك_'
'حلم'
'حلقت_'
'حلة_'
'حكي'
'حكاي'
'حقيرة_'
'حفله_'
'حفلت'
'حفلات_'
'حفل'
'حفظ'
'حفر'
'حفا'
'حف_'
'حـا'
'حظي'
'حظا_'
'حطم'
'حضر_'
'حضر'
'حصان_'
'حزي'
'حزم'
'حريق_'
'حرية_'
'حرو'
'حرك_'
'حرج_'
'حذرتك_'
'حذائك_'
'حدود_'
'حدوث_'
'حدا'
'حجم_'
'حجز_'
'حجر'
'حتاجه_'
'حبيب'
'حبوب_'
'حبه_'
'حبن'
'حبل_'
'حبك_'
'حام'
'حالي_'
'حالها_'
'حالتي_'
'حافظ_'
'حارسه'
'حادث_'
'حادث'
'جيو'
'جيه'
'جيس'
'جيران'
'جيدون_'
'جيج'
'جى_'
'جوي'
'جولي'
'جورج'
'جود_'
'جوانا_'
'جهو'
'جنيه'
'جنود'
'جنوب_'
'جنسي_'
'جندي'
'جنب'
'جنا'
'جميعها_'
'جميع'
'جما'
'جليزي'
'جلد_'
'جـي'
'جــ'
'جسدي_'
'جسد_'
'جستن_'
'جزءا_'
'جريس_'
'جروح'
'جرحت'
'جرة_'
'جرب'
'جراي_'
'جراحية_'
'جراحة_'
'جذابة_'
'جديده_'
'جديدا_'
'جدى_'
'جدول_'
'جددا_'
'جدة_'
'جدا'
'جح_'
'جح'
'جبر'
'جبان'
'جايك_'
'جايسون_'
'جاهزا_'
'جانيس_'
'جالسة_'
'جال'
'جاكس'
'جاف'
'جارية_'
'جاري'
'جائعة_'
'جائع'
'جاء'
'جئنا_'
'ثين_'
'ثيل_'
'ثيا_'
'ثوان_'
'ثن'
'ثمل_'
'ثمار'
'ثلي'
'ثف'
'ثت_'
'ثاني_'
'ثاني'
'ثال'
'ثاق'
'ثابت_'
'تيني_'
'تيل_'
'تيس_'
'تيري'
'تيرن'
'تير'
'تيج'
'تيب_'
'تومب'
'توقيع'
'توقعت_'
'توق'
'توصيل'
'تواجد'
'توا_'
'تنور'
'تنو'
'تنفيذ_'
'تنفسي_'
'تنف'
'تنظر'
'تنط'
'تنصت_'
'تنص'
'تنسي_'
'تنج'
'تنتظرين'
'تنتظرني_'
'تنان'
'تناقش'
'تناس'
'تمي'
'تمنيت_'
'تمل'
'تمكنا_'
'تمز'
'تمثيل_'
'تمت'
'تماع'
'تمارس'
'تماد'
'تما_'
'تلي'
'تلمس'
'تلفزيون_'
'تلت_'
'تلة_'
'تلب'
'تلاح'
'تكو'
'تكلم_'
'تكلفة_'
'تكره_'
'تكره'
'تكتشف'
'تقييم_'
'تقيي'
'تقيم_'
'تقومي_'
'تقود_'
'تقود'
'تقطع'
'تقط'
'تقضي_'
'تقرأ_'
'تقدمت_'
'تقدم'
'تقترب_'
'تقتر'
'تقبل_'
'تقاعد_'
'تقاطع_'
'تقاتل_'
'تقابله'
'تفي'
'تفوت_'
'تفكير_'
'تفعلي'
'تفع'
'تفض'
'تفجير'
'تفتي'
'تفتقد'
'تـه_'
'تغي'
'تغطية_'
'تغادري_'
'تعويذة_'
'تعوي'
'تعليمات_'
'تعليق_'
'تعلم'
'تعقبه'
'تعق'
'تعطينا_'
'تعزف_'
'تعرفها_'
'تعرفه_'
'تعرفني_'
'تعر'
'تعذر'
'تعتبر_'
'تعتبر'
'تعبت_'
'تعادل'
'تظن'
'تظل_'
'تطل'
'تطب'
'تطارد'
'تطا'
'تضغط_'
'تضعي'
'تضحك_'
'تصوير_'
'تصوي'
'تصورت_'
'تصو_'
'تصني'
'تصف'
'تصرف'
'تصدقي'
'تصح'
'تصبحي_'
'تصبح'
'تصال_'
'تشي_'
'تشون'
'تشم'
'تشغيله'
'تشتري_'
'تشبه_'
'تشايس_'
'تشارلى_'
'تشارل'
'تشارك'
'تشاجر'
'تشاء_'
'تسي'
'تسميت'
'تسمي'
'تسمى_'
'تسمعه'
'تسمعني_'
'تسمع'
'تسليم_'
'تسقط_'
'تسط'
'تستيقظ_'
'تستن'
'تستق'
'تستطيع'
'تسبب'
'تزيد'
'تزعج'
'تزداد_'
'تريس'
'تريدي_'
'تروي'
'ترن'
'ترمين'
'ترقي'
'ترض'
'ترسل'
'ترجع_'
'ترتكب'
'ترتدين'
'تراه_'
'تراك'
'ترافيس_'
'تراس'
'تذوق'
'تذهبوا_'
'تذهب'
'تذكرت'
'تذكر'
'تدمر_'
'تدل'
'تدعي_'
'تدريب'
'تدري'
'تدرك_'
'تدر'
'تدخ'
'تد_'
'تخي'
'تخو'
'تخصص'
'تخزين_'
'تخر'
'تختار_'
'تخبرين'
'تخبره_'
'تحياتي_'
'تحويل_'
'تحو'
'تحليل'
'تحلم_'
'تحل'
'تحققت_'
'تحضر'
'تحصلي_'
'تحريك'
'تحري'
'تحذير_'
'تحدى_'
'تحتوي_'
'تحتك_'
'تحتفظ_'
'تحتاجي_'
'تحبهم_'
'تحبه_'
'تحب'
'تجيب'
'تجمع_'
'تجلسين_'
'تجلس_'
'تجرب'
'تجاهل_'
'تجاه_'
'تجاه'
'تجاري_'
'تجارة_'
'تجار_'
'تج_'
'تثرثر'
'تث'
'تتوقع_'
'تتنفس_'
'تتناول'
'تتك'
'تتق'
'تتعل'
'تتعاط'
'تتصرفين_'
'تتسبب_'
'تتسائل_'
'تتحول_'
'تتحدثي_'
'تتجه'
'تتج'
'تتاح'
'تت_'
'تبو'
'تبه'
'تبن'
'تبل'
'تبعد'
'تبحثين_'
'تبتسم_'
'تايم'
'تاني'
'تان'
'تال'
'تافهة_'
'تاد'
'تابة_'
'تاب'
'تائ'
'تؤذي'
'تأم'
'تأكلين_'
'تأكل'
'تأخذه'
'تأخذني_'
'تأج'
'ةم'
'ةع'
'ةالم'
'ةإ'
'بيير_'
'بيه_'
'بينه'
'بيلي'
'بيلى_'
'بيلا'
'بيكا_'
'بيك_'
'بيض_'
'بيض'
'بيشوب_'
'بيز'
'بيرو'
'بيرس_'
'بيرت'
'بيدي'
'بيد_'
'بيج'
'بيتزا_'
'بيبر_'
'بوينت_'
'بوي_'
'بولي'
'بولا'
'بوقتك'
'بوسعه_'
'بوز'
'بور_'
'بوجه'
'بواجب'
'بني'
'بنفس'
'بنظ'
'بنس'
'بنت'
'بناي'
'بنات_'
'بمو'
'بمن'
'بملا'
'بمكا'
'بمفردي_'
'بمعنى_'
'بمشا'
'بمس'
'بمراقب'
'بمج'
'بمب'
'بلين'
'بلقائك_'
'بلدنا_'
'بلدة_'
'بكت'
'بكا'
'بقيمة_'
'بقرب'
'بقتله_'
'بقائ'
'بفضل'
'بفت'
'بـد'
'بغير_'
'بغض_'
'بغري'
'بغر'
'بعودتك_'
'بعنوان_'
'بعنا'
'بعملية_'
'بعـد_'
'بعضها_'
'بعض'
'بعش'
'بعر'
'بعدا'
'بعة_'
'بطل'
'بطبيع'
'بطاقت'
'بط'
'بضربة_'
'بضرب'
'بصديق'
'بشرائ'
'بشراء_'
'بشده_'
'بشئ_'
'بشأني_'
'بشأنها_'
'بسيارة_'
'بسن_'
'بسلام_'
'بسك'
'بسببه_'
'بزو'
'بريء_'
'بروك_'
'برود'
'برفقت'
'برفقة_'
'برد_'
'براين_'
'براون_'
'براندون_'
'بران'
'برافو_'
'براحة_'
'برا_'
'برأي'
'بدور'
'بداخله'
'بدأوا_'
'بدأت'
'بدء_'
'بخل'
'بحي'
'بحقيق'
'بحق'
'بحد'
'بحثا_'
'بحا'
'بجوار'
'بجدي'
'بتصوير_'
'بتص'
'بتحسن_'
'بتا'
'ببطء_'
'باين_'
'بايبر_'
'باي_'
'باوند_'
'بانت'
'بامكانه'
'بالنظر_'
'بالموت_'
'بالمل'
'بالمع'
'بالمص'
'بالمدرسة_'
'بالمخ'
'بالمت'
'بالكر'
'بالقب'
'بالغرض_'
'بالغر'
'بالعم'
'بالعا'
'بالظبط_'
'بالظ'
'بالطب'
'بالضر'
'بالشر'
'بالسي'
'بالسوء_'
'بالسر'
'بالزب'
'بالرب_'
'بالذهاب_'
'بالذنب_'
'بالخطأ_'
'بالحي'
'بالحزن_'
'بالحب_'
'بالجي'
'بالجم'
'بالجبن'
'بالث'
'بالته'
'بالتل'
'بالتالي_'
'بالبحث_'
'بالأح'
'باكس'
'باكرا_'
'باق_'
'بافي_'
'باف'
'باعد'
'باع_'
'باط_'
'باستطاعت'
'باز'
'باري'
'بارت_'
'بارب'
'باخ'
'باحث'
'باتي_'
'باتر'
'بابي'
'بائس'
'بإمكانهم_'
'بإمكان'
'بإم'
'بإع'
'بإستطاعت'
'بإخ'
'بأيدي'
'بأنكم_'
'بأمكان'
'بأكمله_'
'بأسم'
'بأست'
'بأخذه'
'بأحد_'
'بأح'
'بأب'
'اير_'
'اير'
'ايدي'
'ايدن'
'ايان_'
'اون'
'اولي'
'اولئك_'
'اوقف_'
'اوق'
'اود_'
'اها'
'انيا_'
'انهي_'
'انكم_'
'انقل'
'انفس'
'انضم'
'انص'
'انش'
'انسة_'
'انزلا'
'اند_'
'انخفض'
'انجل'
'انتهي'
'انتقلت_'
'انتظرت_'
'انتظر'
'انتظار_'
'انتظ'
'انتح'
'انب'
'امين'
'اموا'
'امو'
'امنا_'
'امن'
'امم_'
'امل_'
'امريكا_'
'امرا'
'امتص'
'امب'
'اماندا_'
'اليها_'
'اليمين_'
'اليكم_'
'الوعي_'
'الوطني_'
'الوطن_'
'الوسي'
'الورق'
'الور'
'الود'
'الواحد'
'الهواتف_'
'الهند_'
'الهند'
'الهم'
'الهبوط_'
'الهارب'
'النيران_'
'النوا'
'النها'
'النمو'
'النم'
'النك'
'النقل_'
'النقال'
'النقاط_'
'النظرية_'
'النظا'
'النط'
'النصف_'
'النش'
'النز'
'النر'
'النحل_'
'النب'
'النافذه_'
'الميدالية_'
'الميت'
'الموق'
'الموس'
'المور'
'المواعدة_'
'المواطن'
'المهن'
'المهاجم'
'المنضدة_'
'المنتصف_'
'المناطق_'
'المنازل_'
'الممي'
'الممتع_'
'الملي'
'الملو'
'الملعب_'
'الملاحظة_'
'الملاح'
'الملائ'
'المكون'
'المكس'
'المكالمات_'
'المقل'
'المقدس_'
'المقاتل'
'المغني'
'المغفل'
'المغر'
'المعيش'
'المعلم_'
'المعروف_'
'المعرض_'
'المعالج'
'المظهر_'
'المطلوب'
'المط'
'المضحك_'
'المصعد_'
'المصاب'
'المشتر'
'المشاركة_'
'المسلسل_'
'المسل'
'المساعده_'
'المساعد_'
'المسؤولية_'
'المزو'
'المزرعة_'
'المزاح_'
'المريخ_'
'المرك'
'المرض'
'المرء_'
'المدني'
'المدم'
'المدرسه_'
'المدة_'
'المدا'
'المخيفة_'
'المخل'
'المخرج_'
'المخدر_'
'المخالف'
'المخاطرة_'
'المخ_'
'المجنون_'
'المجرم_'
'المجانين_'
'المجال_'
'المثالية_'
'المثال_'
'المث'
'المتوسط'
'المتوا'
'المتو'
'المتعة_'
'المتش'
'المتأنق_'
'المبي'
'المباراة_'
'المباحث_'
'المالية_'
'الماس'
'الماد'
'المائدة_'
'المؤس'
'الليموزين_'
'الليلية_'
'اللي_'
'اللون_'
'اللوحات_'
'اللق'
'اللحظات_'
'اللائ'
'اللا_'
'الكيم'
'الكيل'
'الكون'
'الكوا'
'الكهف_'
'الكلية_'
'الكفا'
'الكعكة_'
'الكثير'
'الكامل_'
'الكا'
'القوي_'
'القنوات_'
'القناع_'
'القن'
'القلادة_'
'القفز'
'القف'
'القطن_'
'القضايا_'
'القض'
'القصيرة_'
'القصر_'
'القس_'
'القرص_'
'القرب_'
'القرار_'
'القراءة_'
'القرا'
'القدر_'
'القبي'
'القبو_'
'القاد'
'الفيس'
'الفيروس_'
'الفنا'
'الفل'
'الفظيعة_'
'الفستق_'
'الفرح_'
'الفرار_'
'الفتاه_'
'الفت'
'الفاكهة_'
'الفاعل_'
'الفاشل'
'الفار'
'الفائز'
'الفئ'
'الــ_'
'الغواص'
'الغز'
'الغرف'
'الغربي_'
'الغر'
'العيون_'
'العين'
'العواقب_'
'العمو'
'العمليات_'
'العملاء_'
'العمدة_'
'العمة_'
'العلم_'
'العلام'
'العقول_'
'العقل_'
'العق'
'العصر_'
'العصا'
'العش'
'العزيز'
'العربة_'
'العدو_'
'العدد_'
'العدالة_'
'العجل'
'العج'
'العت'
'العبور_'
'العبا'
'العب_'
'العاهرات_'
'العالي_'
'العال'
'العاطفة_'
'العاصمة_'
'العادي'
'العاج'
'العائ'
'الظهيرة_'
'الظل_'
'الظل'
'الطيور_'
'الطوا'
'الطلق'
'الطلاق_'
'الطقس_'
'الطفل'
'الطف'
'الطر'
'الطبي_'
'الطبق'
'الطب'
'الضرر_'
'الضحايا_'
'الضح'
'الضب'
'الضا'
'الصين'
'الصوتي_'
'الصو'
'الصم'
'الصلب_'
'الصلا'
'الصخ'
'الصحي_'
'الصحة_'
'الشيخ'
'الشهي'
'الشهر'
'الشهادة_'
'الشن'
'الشمل_'
'الشمسي'
'الشمالي'
'الشكر_'
'الشـ'
'الشعبي'
'الشريط_'
'الشرير'
'الشري'
'الشرقي'
'الشرطه_'
'الشرا'
'الشبكة_'
'الشب'
'الشاهد_'
'الشاذ'
'الشائع'
'السينا'
'السيف_'
'السيطره_'
'السيجار'
'السياس'
'السيء_'
'السهم_'
'السنه_'
'السنجاب_'
'السلك_'
'السكا'
'السك'
'السق'
'السعيد'
'السريعة_'
'السرطان_'
'السخيفة_'
'السخ'
'السجل_'
'السبا'
'السب'
'السافل_'
'الساعه_'
'الساع'
'الساخ'
'الساحر'
'السابقه_'
'الزوج'
'الزه'
'الزنوج_'
'الزناد_'
'الزا'
'الروايات_'
'الرواق_'
'الرماد_'
'الرما'
'الرك'
'الرفاق_'
'الرعاية_'
'الرع'
'الرضيع_'
'الرصيف_'
'الرد_'
'الرد'
'الرجوع_'
'الراهن_'
'الرابع_'
'الرؤ'
'الذنب_'
'الذكي'
'الذكر_'
'الذكر'
'الذاكرة_'
'الذئاب_'
'الديك_'
'الدول'
'الدوق_'
'الدوا'
'الدو'
'الدن'
'الدمى_'
'الدمو'
'الدم'
'الدقيقة_'
'الدروس_'
'الدرج_'
'الدر'
'الداخلي_'
'الدائرة_'
'الخيال'
'الخوا'
'الخطب_'
'الخس'
'الخرا'
'الخدع'
'الخد'
'الخبرة_'
'الخارق'
'الخارجية_'
'الخاتم_'
'الحيوية_'
'الحوت_'
'الحوا'
'الحمقى_'
'الحما'
'الحلبة_'
'الحل'
'الحقائق_'
'الحفا'
'الحـ'
'الحشرة_'
'الحروب_'
'الحرك'
'الحرا'
'الحذر_'
'الحديق'
'الحدث_'
'الحجر_'
'الحاضر_'
'الحاجز_'
'الجيد'
'الجوية_'
'الجوار'
'الجنة_'
'الجلل_'
'الجلسة_'
'الجلالة_'
'الجـ'
'الجسر_'
'الجس'
'الجزيرة_'
'الجدي'
'الجدو'
'الجدد_'
'الجدار_'
'الجبنة_'
'الجبن_'
'الجبن'
'الجبال_'
'الجان'
'الثلاث'
'الثقب_'
'الثان'
'الثامن_'
'التوقيت_'
'التوص'
'التوجه_'
'التوت'
'التنا'
'التمويه_'
'التليف'
'التقيت'
'التفاهات_'
'التفا'
'التغيير_'
'التعليمات_'
'التعديل_'
'التط'
'التصويت_'
'التسوق_'
'التسل'
'الترجمة_'
'التراب_'
'التخطيط_'
'التحم'
'التحليل_'
'التحك_'
'التحقق_'
'التحرير_'
'التحا'
'التجو'
'التافه'
'التاسع_'
'التأمين_'
'التأكيد_'
'التأكد_'
'التأخير_'
'البيع_'
'البول'
'البه'
'البنات_'
'البقر_'
'البقايا_'
'البطل_'
'البشري_'
'البرد_'
'البديل_'
'البدلة_'
'البح'
'البال'
'الباقي_'
'الباص_'
'الايام_'
'الاولاد_'
'الاه'
'الانفجار_'
'الانتقام_'
'الانتخابات_'
'الانت'
'الامن'
'الاقل_'
'الاعتماد_'
'الاط'
'الاشت'
'الارض_'
'الارج'
'الارت'
'الاحم'
'الاحتفال_'
'الإيمان_'
'الإه'
'الإنق'
'الإنف'
'الإنذار_'
'الإنجليزي'
'الإنتهاء_'
'الإله'
'الإعتبار_'
'الإص'
'الإشا'
'الإستم'
'الإستع'
'الإسبانية_'
'الإر'
'الإد'
'الإحتمالات_'
'الإحت'
'الإجتماع_'
'الإج'
'الإتجاه_'
'الإت_'
'الإت'
'الأيس'
'الأولو'
'الأول'
'الأوب'
'الأو_'
'الأنظار_'
'الأناس_'
'الأمـر_'
'الأمريكيين_'
'الألي'
'الألب'
'الأكل_'
'الأقفا'
'الأغبياء_'
'الأعضاء_'
'الأطلاق_'
'الأصوات_'
'الأصل'
'الأشعة_'
'الأشر'
'الأسو'
'الأسما'
'الأسل'
'الأسرة_'
'الأسد_'
'الأستاذ_'
'الأساسي'
'الأسابيع_'
'الأسا'
'الأرا'
'الأخوة_'
'الأخلاق_'
'الأخرين_'
'الأخ_'
'الأحجار_'
'الأثن'
'الأث'
'الأبو'
'الأ'
'الآونة_'
'الآلهة_'
'الآخرون_'
'الآخ'
'اكي_'
'اكر_'
'اقية_'
'اقي'
'اقم'
'اقف'
'اقط'
'اقش'
'اقسم'
'اقر'
'اقتربت_'
'اقترب'
'افية_'
'افق'
'افع'
'افتح'
'اغت'
'اغا'
'اعيش_'
'اعض'
'اعذرون'
'اعتدت_'
'اعتد'
'اعتادت_'
'اعاد'
'اعا'
'اطي'
'اطل'
'اطفال'
'اطر_'
'اصي'
'اصو'
'اصم'
'اصا'
'اشكر'
'اشر'
'اشخاص_'
'اشتر'
'اشار'
'اسي'
'اسود_'
'اسمعني_'
'اسمحوا_'
'اسلوب'
'اسك'
'اسع'
'اسحب_'
'استول'
'استمري'
'استمر'
'استمتع_'
'استمتع'
'استغرقت'
'استطع_'
'استط'
'استسلم'
'استخدامه'
'استخ'
'استح'
'اسب'
'اره'
'ارفع_'
'ارش'
'ارسل'
'ارجع_'
'ارته_'
'ارتكبت_'
'ارتكب'
'ارتدي'
'ارتب'
'اراك'
'اده_'
'ادل_'
'ادع_'
'ادر_'
'اخي_'
'اخرجوا_'
'اخرج'
'اختيار_'
'اختفى_'
'اختطفت_'
'اخترت_'
'اختب'
'اخبري'
'اخبرك_'
'اخبرت_'
'اخبر'
'احي'
'احل'
'احضرت_'
'احر'
'احذر'
'احد'
'احترام'
'احتر'
'احتج'
'احبها_'
'احبك_'
'احب'
'اجلسي_'
'اجلسوا_'
'اجل'
'اجعله'
'اجع'
'اجتماعية_'
'اثر_'
'اثر'
'اثار'
'اتكم_'
'اتفاق_'
'اتع'
'اتصالا'
'اتري'
'اتركه_'
'اتركني_'
'اترك'
'اتر'
'اتذكر_'
'اتخ'
'اتباع'
'ابه'
'ابق'
'ابدأ_'
'ابا_'
'ائهم_'
'ائل'
'ائد_'
'اءه_'
'ئيس_'
'ئهم_'
'ئما'
'ئلة_'
'ئق_'
'ئـ'
'ئز'
'ئذ_'
'ئح'
'ئت'
'ئا_'
'إيه_'
'إيمان'
'إيلي'
'إيقافه'
'إيس'
'إيريك_'
'إيرا'
'إيذائ'
'إيجا'
'إنـ_'
'إنـ'
'إنظر'
'إنزل'
'إنذار_'
'إند'
'إنتهت_'
'إنا'
'إمت'
'إليوت_'
'إليك'
'إليس'
'إلي'
'إلهام'
'إلقاء_'
'إلغا'
'إلا'
'إقل'
'إفساد_'
'إغر'
'إغ'
'إعطائك_'
'إعطا'
'إعتق'
'إعترا'
'إعادته'
'إطلا'
'إضطر'
'إضافي_'
'إصبع_'
'إصابة_'
'إشع'
'إش'
'إستمر'
'إستد'
'إزالة_'
'إز'
'إركض'
'إرفع_'
'إرف'
'إذاكان'
'إدي_'
'إدخ'
'إختيار'
'إختطف'
'إختر'
'إختبار_'
'إخبار_'
'إحترا'
'إجلسي_'
'إجلس_'
'إجتماع'
'إجابة_'
'إثارة_'
'إث'
'إتصال_'
'إتص'
'إتبع'
'إبنة_'
'إبق'
'إبر'
'إبت'
'ؤيتك'
'ؤية_'
'ؤي'
'ؤن'
'أيه'
'أينما_'
'أيمكنكم_'
'أيق'
'أيـ'
'أير'
'أيت_'
'أوو'
'أون'
'أولي'
'أولو'
'أول'
'أوقات_'
'أوف'
'أوغ'
'أوضح_'
'أورلي'
'أودي'
'أودري_'
'أوت'
'أوامر_'
'أواجه_'
'أنيقة_'
'أنهيت_'
'أنكى_'
'أنكل'
'أنقذت_'
'أنـ'
'أنط'
'أنسي'
'أنزل_'
'أنخفض_'
'أنجلي'
'أنجلوس_'
'أنجل'
'أنج'
'أنث'
'أنتم'
'أنتظر'
'أنتت'
'أناني_'
'أموال'
'أمها'
'أمنية_'
'أمك'
'أمشي_'
'أمسك_'
'أمريك'
'أمرها_'
'أمرك_'
'أمرأة_'
'أمامه'
'أمامنا_'
'أمامك_'
'ألين'
'أليكس'
'أليسون_'
'ألي_'
'ألى_'
'ألوان_'
'ألهذا_'
'أله'
'ألمس'
'ألماني'
'ألقيت_'
'ألد'
'ألب'
'ألان_'
'أكي'
'أكنت_'
'أكمل_'
'أكل'
'أكر'
'أكذب_'
'أقو'
'أقنعة_'
'أقف'
'أقـ'
'أقط'
'أقضي_'
'أقس'
'أقتله_'
'أقترب'
'أقب'
'أقاتل_'
'أقا'
'أفهم'
'أفل'
'أفسد'
'أفريقيا_'
'أفا'
'أغراض'
'أغر'
'أعوام_'
'أعن'
'أعمالك_'
'أعلمني_'
'أعلمك_'
'أعطيهم_'
'أعطيه_'
'أعطيني_'
'أعطيته_'
'أعطه_'
'أعطت'
'أعرف'
'أعرض_'
'أعذرني_'
'أعدت'
'أعجبك_'
'أعتقد'
'أعبث_'
'أظن'
'أطفالك_'
'أطفئ'
'أطع'
'أطر'
'أضي'
'أضمن_'
'أضغط_'
'أصف'
'أصدقا'
'أصبح'
'أصاب'
'أشيائ'
'أشي'
'أشكركم_'
'أشرح_'
'أشاهد'
'أسنان'
'أسميه'
'أسمح_'
'أسم_'
'أسلح'
'أسقط_'
'أسطو'
'أسرعي_'
'أسرار'
'أسد'
'أسج'
'أستيقظ'
'أستو'
'أستطي'
'أستط'
'أستحق'
'أساس'
'أسأل_'
'أسأل'
'أزال_'
'أرواح'
'أرك'
'أرقام_'
'أرسم_'
'أرسلنا_'
'أرسل'
'أردنا'
'أردته_'
'أرد'
'أرجوكم_'
'أرادت'
'أذن'
'أذلك_'
'أدير_'
'أديت'
'أدوات_'
'أدو'
'أدعى_'
'أدعو'
'أدعك_'
'أدرى_'
'أخيك_'
'أخير_'
'أخفض_'
'أخطاء_'
'أخسر_'
'أخرجي_'
'أخرجوا_'
'أخرج'
'أخته_'
'أختا'
'أخت_'
'أخبرن'
'أخاف_'
'أحي'
'أحلام'
'أحل'
'أحضره_'
'أحزر_'
'أحر_'
'أحداث_'
'أحتاجك_'
'أحببتها_'
'أحببته_'
'أحببت_'
'أجهز'
'أجمع_'
'أجله_'
'أجل'
'أجعله_'
'أجعلك_'
'أجعل_'
'أجرة_'
'أجبت_'
'أجا'
'أثم_'
'أثبت'
'أتيت'
'أتناول_'
'أتما'
'أتك'
'أتقول'
'أتفه_'
'أتفق_'
'أتعلمي'
'أتعتقدين_'
'أتش'
'أتزو'
'أتذكر'
'أتدري_'
'أتحتاج'
'أتأكد_'
'أبواب'
'أبني_'
'أبنا'
'أبن_'
'أبن'
'أبك'
'أبـ'
'أبعد'
'أبريل_'
'أئ'
'أؤ'
'آي_'
'آنج'
'آمين_'
'آمر'
'آمان'
'آليك'
'آلي'
'آلهة_'
'آكل'
'آك'
'آرت'
'آر_'
'آخـر_'
'آخذ'
'آخ'
'آجل_'
'آثا'
'آبا'
'ءك'
'ءت'
'؟ ..'
'؟ (_'
'؟ "_'
'،"_'
'، ( _'
'ý'
'è'
'á_'
'×_'
'¶'
'£­_'
'}.'
'{_'
'zza'
'zone_'
'zie'
'zi'
'zero_'
'yt'
'yp'
'yourselves_'
'younger_'
'young'
'yll'
'yle_'
'yh'
'yen'
'yellow_'
'yell_'
'yd'
'yards_'
'xter_'
'xt'
'wri'
'wrestling_'
'wrapped_'
'wow_'
'wood'
'woo_'
'wol'
'woke_'
'wle'
'wl_'
'wives_'
'witch'
'wis'
'wiped_'
'wipe_'
'winds'
'windows_'
'wig'
'whore_'
'whip'
'whi'
'whe'
'wear'
'wea'
'we'
'waves_'
'washe'
'warning_'
'warned_'
'ware'
'ward'
'wander'
'wall'
'walks_'
'vote_'
'vote'
'vor'
'von_'
'volu'
'voca'
'viv'
'visions_'
'vis_'
'vis'
'virus_'
'vir'
'viole'
'villa'
'view'
'vice_'
'vet_'
'vest_'
'ves'
'versus_'
'versa'
'vault_'
'vate_'
'vat'
'var'
'vampires_'
'valuable_'
'val_'
'vad'
'utio'
'usion_'
'ush'
'useless_'
'usa'
'urin'
'urgent_'
'urg'
'unw'
'unti'
'unt_'
'unknown_'
'unit'
'underwear_'
'understands_'
'undercover_'
'unc'
'unbelievable_'
'unb'
'uls'
'uli'
'ule_'
'ula_'
'uk'
'ui'
'ugh'
'ue'
'ude'
'ud_'
'ucin'
'tyr'
'typi'
'twin'
'twenty_'
'twelve_'
'tw'
'tude_'
'tual'
'tto_'
'ttle'
'tructi'
'troll'
'triumph'
'triple'
'tricks_'
'tren'
'tre'
'traveled_'
'travel'
'transform'
'transfer_'
'training_'
'trailer_'
'trail'
'trade'
'tower_'
'toward_'
'tow'
'touch'
'tou'
'tos'
'top'
'tooth'
'tongue_'
'tome'
'tole'
'toc'
'tob'
'tm'
'tly_'
'title_'
'titi'
'tip'
'tics_'
'tic'
'threaten'
'thr'
'thirst'
'thic'
'thful_'
'therapist_'
'theatr'
'tests_'
'testimony_'
'test'
'tern'
'terminat'
'tend'
'temperature_'
'temper_'
'tech_'
'tch'
'taxi'
'tax'
'tation_'
'tate'
'taste'
'tast'
'tap_'
'tap'
'tamp'
'takin_'
'tai'
'sync'
'symptoms_'
'symbol'
'switche'
'swi'
'sweat'
'swa'
'susp'
'survived_'
'surgeon'
'surface_'
'sure'
'supp'
'sunshine_'
'sun'
'summ'
'suite_'
'sue_'
'sucker_'
'suc'
'subject_'
'stud_'
'struggling_'
'strongest_'
'strip'
'string'
'strictly_'
'stri'
'stretch_'
'stream_'
'strate'
'strap'
'stranger_'
'stra'
'stood_'
'stone'
'stink'
'stina_'
'stin'
'stew_'
'steps_'
'stems_'
'stein_'
'stee'
'steam'
'stea'
'stat'
'starv'
'stand'
'stabbed_'
'st'
'ssm'
'ssa'
'squeeze_'
'squa'
'spy_'
'sports_'
'sport_'
'spl'
'spinning_'
'spilled_'
'spell'
'specifically_'
'speciali'
'spare_'
'span'
'sou'
'sooner_'
'songs_'
'somethin_'
'someday_'
'solution_'
'solo_'
'soft'
'soccer_'
'soaked_'
'snow'
'sno'
'sni'
'smooth'
'smo'
'smi'
'slide'
'slice_'
'sle'
'slap_'
'slam'
'skinny_'
'siz'
'sive_'
'sity_'
'siss'
'sire'
'sinner'
'sinking_'
'sink_'
'sin'
'sible_'
'sib'
'shri'
'show'
'shove'
'shoulders_'
'shop'
'shock'
'ships_'
'ship'
'sher'
'shelter_'
'shar'
'sha_'
'sexual_'
'server'
'separated_'
'sentimental_'
'sensors_'
'semester_'
'secure_'
'seats_'
'seat'
'seal'
'scot'
'sci'
'sche'
'sch'
'scen'
'scarf_'
'scanner_'
'sca'
'sat'
'sand'
'san'
'samples_'
'sag'
'sad'
'sacrifice_'
'rush_'
'rush'
'runners_'
'rum'
'ruined_'
'rubbing_'
'rub_'
'rto'
'rted_'
'rre'
'roy'
'row_'
'roo'
'ron'
'romance_'
'rom'
'rolled_'
'role'
'rog'
'robber'
'rm_'
'rk'
'ritual_'
'rits'
'risks_'
'risk'
'rising_'
'rises_'
'ripp'
'rip_'
'rights_'
'ride'
'rica'
'rib'
'rian_'
'rh'
'review'
'returning_'
'retr'
'resume_'
'restr'
'ressi'
'responsibilities_'
'response_'
'respect'
'residen'
'resi'
'rescue_'
'require'
'request'
'represent'
'reported_'
'repo'
'rene'
'removed_'
'remo'
'remaining_'
'relieved_'
'reli'
'relati'
'rei'
'regrets_'
'register_'
'regard_'
'reg'
'refuses_'
'refu'
'referr'
'reel_'
'rede'
'recruit'
'recover'
'reconstruct'
'rece'
'rebel_'
'reas'
'realise'
'rdin'
'rb'
'ray_'
'rape_'
'ransom_'
'rank'
'ran'
'ral'
'rain'
'racket'
'raci'
'quot'
'quo'
'quit'
'quer'
'quen'
'quarter_'
'pushed_'
'purs'
'pure'
'pup'
'punk_'
'punishment_'
'pulled_'
'pull'
'pti'
'pry'
'prove'
'prov'
'protecting_'
'prot'
'prospe'
'proposal_'
'property_'
'proper_'
'profit'
'profile_'
'prof'
'products_'
'product_'
'producer_'
'produce'
'priva'
'principle'
'prev'
'pretend_'
'prepare_'
'prayers_'
'ppy_'
'powers_'
'pound_'
'possession_'
'pose_'
'pork_'
'porch_'
'popular_'
'politics_'
'polite_'
'policy_'
'policem'
'pok'
'pockets_'
'pocket_'
'plus_'
'pleas'
'play'
'plato'
'plates_'
'planned_'
'pit_'
'piss_'
'pirates_'
'pilot'
'pills_'
'pig_'
'pie'
'pick'
'pi_'
'photos_'
'photo'
'phoned_'
'phi'
'personnel_'
'pers_'
'pers'
'perp'
'penguin_'
'pend'
'pect'
'paying_'
'paw'
'pas_'
'particular_'
'parti'
'part'
'paro'
'paral'
'panties_'
'panic_'
'palm'
'pad'
'packing_'
'pace_'
'pa_'
'oxy'
'ox_'
'overt'
'overr'
'overdose'
'overc'
'ova'
'ov'
'outdo'
'ounce'
'ose_'
'ose'
'orn_'
'organized_'
'organis'
'orga'
'ordered_'
'orange_'
'oppo'
'operate'
'oper_'
'open'
'oom_'
'ons'
'omy_'
'om_'
'olut'
'oldest_'
'old'
'ol'
'oke'
'oint'
'oid_'
'ogra'
'official_'
'official'
'odd_'
'observ'
'oblig'
'obi'
'obe'
'nurse'
'nter'
'nse'
'not'
'nos'
'nor'
'noble_'
'nna_'
'nl'
'nk_'
'nin_'
'ni_'
'ngs'
'ney_'
'nes'
'ners'
'ner'
'neo'
'nent_'
'neigh'
'neg'
'nee'
'neath_'
'ndered_'
'nde_'
'nde'
'nda_'
'nav'
'nau'
'natur'
'nati'
'narrow'
'nal_'
'nails_'
'mut'
'muscles_'
'muscle_'
'mur'
'mum_'
'multi'
'mper'
'mountain_'
'motor_'
'moron_'
'moni'
'mond_'
'mom'
'mmi'
'mit'
'mist'
'mission'
'minor_'
'minis'
'mini'
'minati'
'military_'
'might'
'messing_'
'messed_'
'messages_'
'merc'
'mer'
'meds_'
'medicine_'
'medic'
'medi'
'mble'
'mbi'
'mber'
'mayor_'
'math'
'matches_'
'master'
'massive_'
'mas'
'mart'
'mari'
'map_'
'mann'
'mam'
'makeup_'
'major'
'main'
'maiden_'
'magnet'
'mag'
'madman_'
'madam_'
'mach'
'lyrics_'
'lus'
'lur'
'lum'
'low'
'loser_'
'lookin_'
'loo'
'long'
'lon'
'logist_'
'logi'
'local_'
'lobby_'
'load'
'lm'
'llig'
'lle'
'lize_'
'listened_'
'liste'
'lion_'
'line'
'lighter_'
'liest_'
'lib'
'lf_'
'levels_'
'lesbian_'
'lera'
'ler'
'lem'
'legend_'
'leg'
'lee'
'lect'
'leaves_'
'learn'
'lean'
'lawyers_'
'lau'
'latest_'
'large'
'languages_'
'lands_'
'landing_'
'land'
'laid_'
'labor'
'ku_'
'knocked_'
'kingdom_'
'kes'
'ken'
'jumped_'
'judg'
'jokes_'
'join'
'jin'
'jewel'
'jee'
'jack'
'iz'
'ius_'
'ities_'
'ith_'
'itat'
'itar'
'ister'
'ism_'
'ise'
'isa'
'irs_'
'iro'
'ire'
'ional_'
'invo'
'invitation_'
'invit'
'invented_'
'intern_'
'intern'
'intentions_'
'intention'
'intended_'
'intelligence_'
'insul'
'instructions_'
'instru'
'install'
'inspire_'
'ino_'
'inner_'
'injury_'
'inj'
'inga'
'influence_'
'infi'
'infe'
'infa'
'induce'
'indicates_'
'indicat'
'incredibly_'
'inci'
'inc'
'inar'
'ina_'
'improv'
'impressed_'
'impr'
'importance_'
'impo'
'impl'
'imp'
'imagined_'
'images_'
'im_'
'ils_'
'illegal_'
'ill_'
'ight_'
'ight'
'identi'
'icul'
'ick_'
'ick'
'ich'
'iat'
'ians_'
'hydro'
'hus'
'hunt_'
'hung_'
'hunch_'
'humans_'
'hul'
'hug_'
'ht_'
'hs_'
'hrer_'
'houses_'
'hou'
'hotels_'
'hostages_'
'horrible_'
'hope'
'homes_'
'hm'
'hl_'
'hl'
'hits_'
'hit'
'hill_'
'highly_'
'hic'
'hh_'
'het'
'hesitat'
'heroin_'
'hem'
'helps_'
'helpful_'
'height'
'heel'
'heavily_'
'heat'
'hearts_'
'healthy_'
'headquarters_'
'heading_'
'hay'
'hated_'
'handy_'
'hal'
'hag'
'habit'
'gym'
'gum'
'guide_'
'gui'
'growing_'
'grow'
'group'
'grounds_'
'grip_'
'gri'
'greed'
'greatest_'
'great'
'gre'
'granted_'
'grant_'
'grandm'
'grac'
'goodness_'
'gon_'
'goddess_'
'goa'
'gment'
'global_'
'glo'
'gli'
'give'
'girlfriends_'
'gin'
'ghe'
'gha'
'gh'
'gging_'
'ggie_'
'gettin_'
'get'
'gent'
'generation'
'general'
'gea'
'garbage_'
'garage_'
'gam'
'gall'
'fucker_'
'fte'
'fs'
'frustrati'
'fru'
'front'
'frig'
'frie'
'frank'
'franc'
'fract'
'fourt'
'fou'
'formula_'
'formation_'
'form'
'forgiveness_'
'forge'
'foolish'
'fool'
'fly'
'float'
'fix'
'fist_'
'finger_'
'finger'
'finest_'
'financial_'
'fina'
'filthy_'
'filter'
'files_'
'fights_'
'fied_'
'fica'
'fic'
'ffin_'
'ffici'
'ffi'
'ffer'
'ffa'
'fer'
'fence'
'female_'
'fee'
'favours_'
'fav'
'father'
'fashioned_'
'fascinat'
'fart'
'farmer_'
'fair'
'failure_'
'failed_'
'fai'
'factor'
'faces_'
'fab'
'extend'
'exte'
'ext'
'express'
'expos'
'explosive'
'expl'
'expertise_'
'expert_'
'experiment_'
'experi'
'expensive_'
'expand'
'exp'
'exit_'
'exchanged_'
'exact_'
'eve_'
'eur'
'ett'
'etor'
'eth_'
'estin'
'estimate'
'ested_'
'essential'
'ess'
'ese_'
'esc'
'erie_'
'era_'
'equi'
'equal_'
'environment_'
'entry_'
'entr'
'ens_'
'ens'
'enjoyed_'
'eni'
'engineer'
'ene_'
'ending_'
'enda'
'employee_'
'emotional'
'emn'
'embarrassed_'
'elected_'
'elder'
'eff'
'ef_'
'edi'
'edge_'
'ede'
'ecuti'
'ecti'
'echo'
'ech'
'eaten_'
'east_'
'ease'
'eas_'
'earned_'
'ean'
'dwell_'
'dust_'
'dun'
'dumped_'
'dumb_'
'dull_'
'duce_'
'drum_'
'drinks_'
'dream'
'dre'
'drawn_'
'drawer_'
'dramatic_'
'dragged_'
'drag_'
'dr'
'dozen'
'dough_'
'dot'
'dos'
'dor_'
'dona'
'dom_'
'dom'
'dol'
'dodge'
'documents_'
'doc'
'dness_'
'dn'
'dle'
'dive'
'dit'
'disturbing_'
'disturb'
'distracted_'
'distract'
'disor'
'discussi'
'discre'
'disc_'
'disappoint_'
'directions_'
'din'
'diff'
'die'
'diary_'
'dh'
'dg'
'devil_'
'determined_'
'dete'
'details_'
'destin'
'dest'
'dessert_'
'design'
'describe'
'depo'
'depending_'
'depend'
'demoni'
'demand_'
'demand'
'delusion'
'dell_'
'delightful_'
'del'
'defeat'
'def'
'deep'
'debri'
'dearest_'
'dealer_'
'dea'
'ddy_'
'darkness_'
'dam'
'cuts_'
'cut'
'custom'
'cus'
'cursed_'
'cupcake'
'ctur'
'cti'
'crus'
'crumbl'
'crown_'
'criminals_'
'cries_'
'creatures_'
'cre'
'crat'
'crashed_'
'craft_'
'courage_'
'cour'
'counting_'
'counsel'
'council_'
'coug'
'costume_'
'correct_'
'correct'
'core_'
'coordinates_'
'cooper'
'cookie_'
'coo'
'convert'
'convention'
'contract_'
'conta'
'conquer'
'connection'
'conflict'
'confidential'
'confess'
'conference_'
'cone_'
'conduct'
'condition_'
'cond'
'concert_'
'conce'
'conc'
'con_'
'compos'
'complicated_'
'complaint'
'communication_'
'communi'
'commission_'
'command'
'comf'
'come'
'coma_'
'com'
'collect'
'cock_'
'cock'
'coa'
'clue'
'close'
'clinic_'
'clin'
'climb_'
'clear'
'classes_'
'cket'
'cker_'
'cke'
'civil_'
'cit'
'circu'
'cing_'
'chuckl'
'chu'
'christ'
'chop_'
'chil'
'chick'
'chen_'
'chemistry_'
'cheat_'
'chat_'
'charming_'
'charm'
'charity_'
'characteristic'
'chap'
'changing_'
'cham'
'challenge_'
'chain'
'cent_'
'cemetery_'
'cells_'
'ced_'
'cea'
'cave'
'cata'
'cass'
'cases_'
'carrying_'
'carpe'
'card'
'capable_'
'cann'
'candles_'
'campaign_'
'camp'
'cameras_'
'cHFFFFFF_'
'cH00'
'buzz_'
'buy'
'busted_'
'bushes_'
'bury_'
'burning_'
'bum'
'bulb_'
'bucket_'
'buck'
'brutal'
'broo'
'brief'
'bride_'
'bra_'
'boxes_'
'bowling_'
'border_'
'booze_'
'bond_'
'bon_'
'bomb'
'bly_'
'blows_'
'blood'
'block'
'blink'
'bles_'
'blend_'
'blam'
'blackout_'
'bla'
'birth_'
'bio'
'bing_'
'bin'
'bills_'
'billion_'
'bility_'
'bikin'
'bid_'
'bid'
'beth_'
'belo'
'beg'
'bee_'
'bee'
'bedroom_'
'bed'
'beating_'
'beat'
'beam_'
'bea'
'bbing_'
'bbi'
'bat'
'basi'
'basement_'
'baseball_'
'barbe'
'bands_'
'bandit'
'balcony_'
'bail_'
'backs'
'back'
'ba_'
'az'
'ays_'
'aw'
'available_'
'aut'
'attract'
'attempted_'
'attacks_'
'attached_'
'att'
'ator'
'atom'
'atic'
'athletic_'
'assur'
'assignment_'
'asses_'
'assembl'
'assa'
'asks_'
'artist_'
'arse_'
'arrive_'
'arrested_'
'aro'
'arm'
'arin'
'aret_'
'ards_'
'arch'
'appointment_'
'appetite_'
'apparent'
'ante'
'ano'
'announce_'
'ann'
'angle_'
'ando'
'ancient_'
'amo'
'amine'
'amin'
'ami'
'amend'
'ama'
'alt'
'alle'
'alized_'
'ake_'
'aj'
'airs'
'agi'
'agents_'
'ag'
'affairs_'
'adventures_'
'ador'
'adopt'
'ades_'
'add'
'activity_'
'act'
'acr'
'ack'
'acid_'
'ache'
'accurate_'
'accounts_'
'accidental_'
'accent_'
'acce'
'acc'
'abi'
']'
'\\'
'Ziva_'
'Zack_'
'Yours_'
'Yi'
'Yet_'
'YO'
'YES_'
'YEAH_'
'Wrong_'
'Woong_'
'Woo_'
'Won'
'Wish_'
'Will'
'Whose_'
'Whereas_'
'Weapons_'
'Wayne_'
'Watson_'
'Warren_'
'Wan'
'Walk'
'Wake_'
'WOMAN_'
'WO'
'WAS_'
'WAR'
'WANT'
'Voice_'
'Viv'
'Vir'
'Vincent_'
'Vic_'
'Vegas_'
'Valentine_'
'Ur'
'Unbelievable_'
'UM'
'UCK'
'Tyler_'
'Turns_'
'Turk_'
'Tucker_'
'Truth_'
'Trav'
'Torres_'
'Too'
'Third_'
'Theresa_'
'Ther'
'Theo'
'Them_'
'The'
'Tha'
'Ten'
'Tel'
'Teal_'
'Taylor_'
'Target_'
'Tara_'
'TH_'
'THINK'
'THING_'
'THERE_'
'Sydney_'
'Swa'
'Susan_'
'Superman_'
'Sup'
'Suck_'
'Strange_'
'Stor'
'Start'
'Star'
'Stan'
'St'
'Spring'
'Sou'
'Some'
'Sofia_'
'Soc'
'Slow_'
'Sl'
'Sit'
'Sis'
'Sin'
'Sign_'
'Sidney_'
'Shin'
'Sherman_'
'Sher'
'Shel'
'Shane_'
'Señor'
'Service_'
'Serena_'
'Security_'
'Secretary_'
'Secret_'
'Scully_'
'Sav'
'Sat'
'Saint_'
'Sad_'
'STA'
'SO_'
'SE_'
'SC'
'Russ_'
'Running_'
'Royce_'
'Royal_'
'Rod'
'Robinson_'
'Road_'
'River_'
'Rich'
'Rh'
'Reyn'
'Rev'
'Rest'
'Rese'
'Report_'
'Ren'
'Rem'
'Releas'
'Reg'
'Rebecca_'
'Re_'
'Rat'
'Rap'
'Rain'
'RU'
'RT'
'Que'
'Pur'
'Pros'
'Produc'
'Problem_'
'Prince_'
'Pos'
'Port'
'Pol'
'Ple'
'Pla'
'Pig'
'Philly_'
'Peg'
'Pear'
'Park'
'Pardon_'
'Papa_'
'Pand'
'Palm'
'Paint'
'Pai'
'PT'
'PLAN'
'PL'
'PI'
'PA'
'Oz'
'Ot'
'Oscar_'
'Om'
'Oliver_'
'OU'
'ON'
'Number_'
'North'
'Night_'
'Nic'
'Nei'
'Negative_'
'Nee'
'Nav'
'Natalie_'
'Nat'
'Name_'
'NT_'
'NT'
'NS'
'NG'
'ND'
'My'
'Mur'
'Mum'
'Mount_'
'Mos'
'Mort'
'Morning_'
'Monsieur_'
'Money_'
'Mol'
'Mit'
'Miranda_'
'Mind_'
'Mill'
'Mila'
'Mick'
'Michelle_'
'Mexico_'
'Metro'
'Merry_'
'Merc'
'Medi'
'Med'
'Mass'
'Mason_'
'Mas'
'Martin'
'Mars_'
'Maris_'
'Mario'
'Marcus_'
'Marc'
'Many_'
'Manu'
'Magn'
'Magic_'
'Maggie_'
'Madame_'
'Mad'
'Lui'
'Lucy_'
'Luc'
'Lost_'
'Lore'
'List'
'Lionel_'
'Linds'
'Lil'
'Liar_'
'Lex_'
'Lester_'
'Le_'
'Law'
'Las_'
'Land'
'LIST'
'LD_'
'Kur'
'Kun'
'Kru'
'Kitty_'
'Kit'
'Kid_'
'Kennedy_'
'Kenn'
'Kee'
'Katherine_'
'Kara_'
'KE_'
'June_'
'Jump'
'Juliet_'
'Julie_'
'Julia_'
'Judy_'
'Juan'
'Josh_'
'Jones_'
'Johnson_'
'Jo_'
'Jee'
'Jan_'
'Jama'
'Jack'
'Izz'
'Iw'
'Isa'
'Ir'
'Ins'
'Ing'
'Imp'
'Imagine_'
'Im'
'Il'
'IT'
'IF_'
'ID'
'Howdy_'
'Hou'
'Hotel_'
'Honorable_'
'Ho_'
'Hitler_'
'Herr_'
'Hen'
'Helen_'
'Has'
'Hard_'
'HOW_'
'HOU'
'HO'
'Guy_'
'Gun'
'Gro'
'Greetings_'
'Gran'
'Grab'
'Goodn'
'Gone_'
'Gol'
'Gog'
'God'
'Glad_'
'Gl'
'Gel'
'Gat'
'Gas'
'Gary_'
'Game_'
'GPS_'
'GONNA_'
'Francis_'
'Fran'
'Fr'
'Found_'
'Foreman_'
'Fore'
'Fl'
'Finally_'
'Feed'
'Fat_'
'Fair'
'FO'
'FIN'
'FE'
'Excellent_'
'Evelyn_'
'Eu'
'Ernie_'
'Eri'
'Ep'
'Emer'
'Elli'
'Ellen_'
'Ella_'
'Ele'
'Eight_'
'Edgar_'
'Earl_'
'ET'
'EN_'
'Dylan_'
'Ducky_'
'Drew_'
'Down_'
'Down'
'Dor'
'Donna_'
'Dom'
'Doll'
'Dig'
'Dick_'
'Design'
'Department_'
'Den'
'Def'
'Darr'
'Darling_'
'Dancing_'
'Dale_'
'DY_'
'DU'
'DONE_'
'DO'
'DIS'
'DID_'
'Cylon_'
'Cus'
'Cul'
'Cross_'
'Crazy_'
'Cos'
'Corn'
'Control_'
'Cont'
'Consider_'
'Comp'
'Cole'
'Coco'
'Club_'
'Clu'
'Cle'
'Cin'
'Ci'
'Child'
'Cheers_'
'Chee'
'Central_'
'Catch'
'Cast'
'Carol'
'Carl'
'Cap'
'California_'
'CI'
'CAN_'
'CA'
'Butter'
'Buster_'
'Bus'
'Buc'
'Brother_'
'Brooklyn_'
'Brook'
'Bree'
'Break'
'Brando'
'Bot'
'Boston_'
'Bond_'
'Blo'
'Blin'
'Black'
'Bl'
'Bio'
'Bingo_'
'Between_'
'Bern'
'Berlin_'
'Bent'
'Benn'
'Beh'
'Beautiful_'
'Batman_'
'Bas'
'Baron'
'Barne'
'Barb'
'Bank'
'Band'
'Bam'
'BB'
'Aye_'
'Aw'
'Audrey_'
'Att'
'Atlanti'
'Asgard_'
'Artie_'
'Arr'
'Arms'
'April_'
'App'
'Ap'
'Anton'
'Ani'
'Andrew_'
'And'
'Already_'
'Ali'
'Alf'
'Alexander_'
'Alc'
'Albert_'
'Alb'
'Ala'
'Air_'
'Ahh_'
'Agen'
'African_'
'Ade'
'Add'
'Adam_'
'Acc'
'Abe'
'Ab'
'Aaron_'
'Aa'
'AN'
'AM_'
'ALLY_'
'AG'
'AB'
'= _'
'='
'94'
'87'
'83'
'78_'
'700_'
'52_'
'36_'
'30s_'
'26_'
'250_'
'240_'
'21'
'1cH'
'19_'
'199'
'186'
'180_'
'160_'
'12'
'1000_'
'09_'
'0000_'
'.?_'
'........'
'......'
'...(_'
'... ..._'
'... .. '
'... -_'
'... !_'
'.."_'
'. ‏'
'. [_'
'-- - _'
'--'
'- ._'
'- ..._'
'- ... _'
'- ..'
'- '_'
'- $_'
'- ! _'
',... ..'
', ..._'
', .'
','
')ِ_'
')} {\\_'
')... '
').. '
'))_'
') .'
') - (_'
') )..._'
'({\\_'
'( '
''...'
'%_'
'$'
'##'
'"‬_'
'"َ'
'"؟ '
'"، '
'"،'
'". _'
'" ؟'
' ٌ _'
' ؟"_'
' ؟ "_'
' ، ( _'
' ، "_'
' ~_'
' \'
' =='
' / _'
' ... ..._'
' ... ..'
' .. ؟_'
' ."_'
' . . _'
' - ._'
' , "_'
' **'
' )، _'
' ) , _'
' ('
' ' _'
' " ، _'
' " "_'
' ! ؟_'
' ! '
'♪♪'
'♪ '
'‫'
'‪'
'– _'
'‏'
'‎‏'
'‎._'
'ْ؟_'
'ْ "_'
'ِّ، _'
'ُّ '
'ُّ'
'ٍّ _'
'ٌّ _'
'ّ...'
'ّ, '
'ّ ؟_'
'ّ . '
'ّ , _'
'ّ "'
'ِ. '
'ِ.'
'ِ,'
'ِ)'
'ِ"_'
'ِ" '
'ِ -_'
'ُ..._'
'ُ... _'
'ُ.'
'ُ!_'
'َ؟'
'َ...'
'َ.'
'َ, _'
'َ ؟_'
'َ ، _'
'َ " _'
'ٌ؟_'
'ٌ , _'
'ًً'
'ً؟'
'ً، "'
'ً. '
'ً-_'
'ً- _'
'ً"؟_'
'ً"_'
'ً"'
'ً ؛ '
'ً ، (_'
'ً ،'
'ً , '
'ييم'
'يونج'
'يومي'
'يوف'
'يوضع_'
'يوضح_'
'يوش'
'يوس'
'يورك'
'يود_'
'يود'
'يوافق'
'يواصل_'
'يواجه'
'يهود_'
'يهمه'
'يهد'
'يهت'
'يهبط'
'يهات_'
'ينهم_'
'ينن'
'ينك_'
'ينط'
'ينج_'
'ينتظرون_'
'ينت_'
'ينب'
'ينامو'
'ينام'
'ينال_'
'يمين'
'يمون_'
'يموتو'
'يمنع'
'يمن'
'يمل'
'يمكنكما_'
'يمضي_'
'يمسك'
'يمزح_'
'يمثل'
'يمانع'
'يمارس_'
'يمات'
'يما_'
'يما'
'يله'
'يلمس_'
'يلعبون'
'يلر_'
'يلح'
'يكمن_'
'يكسب_'
'يكتشف_'
'يكترث_'
'يكان'
'يقين_'
'يقولو'
'يقـ'
'يقع'
'يقطن'
'يقطعو'
'يقصد_'
'يقص'
'يقتلني_'
'يقبل'
'يقارب_'
'يقاتل'
'يفيد_'
'يفوق_'
'يفوز_'
'يفوت_'
'يفهمو'
'يفهم_'
'يفها_'
'يفه'
'يفقس'
'يفعلونه'
'يفز'
'يفرق_'
'يفتقر'
'يفتقد'
'يفة_'
'يفا_'
'يفا'
'يـل'
'يـــ'
'يــا_'
'يــا'
'يـد'
'يغو'
'يغن'
'يغلق_'
'يغرق'
'يغا'
'يعين_'
'يعيد'
'يعه_'
'يعنيه'
'يعن'
'يعم'
'يعلمن'
'يعطيك_'
'يعطي_'
'يعزف_'
'يعرفو'
'يعرفني_'
'يعرضون_'
'يعرض'
'يعذب'
'يعدون_'
'يعجبك_'
'يعتني_'
'يعتمدون_'
'يعة_'
'يعب'
'يعاني_'
'يظهر'
'يظ'
'يطير_'
'يطلق'
'يطل'
'يط_'
'يضم'
'يضعون'
'يضرب_'
'يضحكون_'
'يصيب_'
'يصو'
'يصنعون_'
'يصنعو'
'يصنع_'
'يصم'
'يصل'
'يصعب_'
'يصطادون_'
'يصرخ_'
'يصدق'
'يصب'
'يشير_'
'يشك_'
'يشعره'
'يشع'
'يشرب_'
'يشرب'
'يشتر'
'يشاهد_'
'يشا_'
'يسه'
'يسمي_'
'يسمونه'
'يسمح_'
'يسكن'
'يسك'
'يسعنا_'
'يسر'
'يسخر'
'يسح'
'يستن'
'يستر'
'يستدع'
'يستخدمون_'
'يستخدمون'
'يستخدم'
'يستحقه'
'يستح'
'يساعده'
'يسا_'
'يسألن'
'يسأل'
'يزيد_'
'يزي'
'يزعجني_'
'يزعجك_'
'يزالون_'
'يري'
'يرون_'
'يرون'
'يروق'
'يرها_'
'يره'
'يرمي'
'يركض_'
'يرفع'
'يرز'
'يرحل_'
'يرح'
'يرتدي'
'يران'
'يراقب_'
'يراقب'
'يذك'
'يدين'
'يدى_'
'يدون_'
'يدو_'
'يدو'
'يدها_'
'يدعي_'
'يدعون_'
'يدرس'
'يدر_'
'يدخل'
'يدج_'
'يدان_'
'يداك_'
'يدافع'
'يخفي'
'يخطط_'
'يخضع_'
'يخص'
'يخر'
'يخدم'
'يخدع'
'يختلف_'
'يختف'
'يختا'
'يخبرك_'
'يخ_'
'يحين_'
'يحي'
'يحميك_'
'يحملون_'
'يحمل'
'يحلق_'
'يحزنني_'
'يحتوي_'
'يحتفظ_'
'يحتف'
'يحتاجه_'
'يحة_'
'يحبونك_'
'يحاولوا_'
'يجلب'
'يجعلن'
'يجرؤ_'
'يجذب_'
'يجده_'
'يجبر'
'يجبأن'
'يجا'
'يثير_'
'يثق'
'يثبت_'
'يتي'
'يتوق'
'يتورط_'
'يتها_'
'يته_'
'يته'
'يتنا'
'يتمن'
'يتمكنوا_'
'يتمك'
'يتمتع'
'يتلقى_'
'يتل'
'يتكل'
'يتغير_'
'يتغي'
'يتعلم_'
'يتعل'
'يتعرف'
'يتعرض'
'يتعارض_'
'يتطلع_'
'يتضح_'
'يتصلو'
'يتصل_'
'يتصر'
'يتصد'
'يترك'
'يتذ'
'يتخذ'
'يتحمل'
'يتحر'
'يتحد'
'يتحتم_'
'يتجول'
'يتجه'
'يتا'
'يتأكدو'
'يتأذ'
'يبيع'
'يبن'
'يبكي_'
'يبق'
'يبـ'
'يبعد'
'يبدوا'
'يبد'
'يبحث_'
'يبات_'
'ياي_'
'ياو'
'ياه_'
'يانج'
'يالي'
'ياللمس'
'ياق'
'يافتي'
'يافتى_'
'ياعزيزي_'
'ياعزيزتي_'
'ياصاح'
'ياره'
'يارب'
'ياخذ_'
'ياح_'
'ياجي'
'ياجو'
'ياجا'
'ياج'
'ياب_'
'ياالهي_'
'يائية_'
'يئة_'
'يؤمنون_'
'يؤلمن'
'يؤلم'
'يؤذي'
'يؤد'
'يأخذون'
'ويو'
'وينشستر_'
'ويند'
'وينب'
'ويمكنن'
'ويمكن'
'ويليامز_'
'ويلو_'
'ويلك'
'ويلر'
'ويز'
'ويذ'
'ويخرج'
'ويخ'
'ويجية_'
'ويجعل'
'ويجب_'
'ويتني_'
'ويتمان_'
'ويات_'
'وول_'
'ووقف_'
'ووق'
'وور'
'ووج'
'وواحد'
'وهواء'
'وهنالك_'
'وهمية_'
'وهم'
'وهر'
'وهة_'
'وهؤلاء_'
'ونى_'
'ونوا_'
'ونه'
'ونـ'
'ونغ'
'ونظر'
'ونظ'
'ونش'
'ونسي'
'ونست'
'ونخ'
'ونحصل_'
'ومهم'
'ومك'
'ومعظم'
'ومعا'
'ومشاهدة_'
'ومست'
'ومس'
'ومج'
'ومثل'
'ومث'
'ومب'
'ومازال'
'ومؤخر'
'ولن'
'وللأ'
'ولل'
'ولكنكم_'
'ولكن'
'ولك_'
'ولرب'
'ولدا_'
'ولت_'
'ولايوجد_'
'ولاي'
'ولاد_'
'ولاد'
'ولات'
'ولأن'
'وكيس_'
'وكو_'
'وكه'
'وكنا_'
'وكن'
'وكم_'
'وكسر_'
'وكرة'
'وكرات_'
'وكب'
'وكاد'
'وقوف'
'وقوع_'
'وقود_'
'وقم'
'وقـ'
'وقدم'
'وقحا_'
'وقتي_'
'وقتى_'
'وقتها_'
'وقتم'
'وقتل'
'وقتكم'
'وقات_'
'وفكرت_'
'وفـ'
'وفعلت_'
'وفري'
'وفاق_'
'وفاته_'
'وغبي'
'وغا_'
'وعند_'
'وعن_'
'وعن'
'وعم'
'وعلمت'
'وعل'
'وعشر'
'وعدم_'
'وعب_'
'وعائل'
'وظيف'
'وظ_'
'وطريقة_'
'وطأ'
'وضوح'
'وضعي'
'وضعو'
'وضعنا_'
'وضعت'
'وصول_'
'وصف'
'وصر'
'وصديقت'
'وصديق'
'وشيء_'
'وشو'
'وشك'
'وشع'
'وشخص_'
'وشأنها_'
'وشأن'
'وسيم'
'وسيد'
'وسو'
'وسنب'
'وسمع'
'وسر'
'وستو'
'وستك'
'وستخ'
'وساع'
'وسادتي_'
'وساد'
'وسات_'
'وسأل'
'وزير'
'وزوجتي_'
'وزنه_'
'وزم'
'وزبدة_'
'ورين'
'ورو_'
'ورقم'
'ورع_'
'وردي'
'وراء'
'ورؤي'
'ورأي'
'وذكي'
'وذا'
'وذ_'
'ودود'
'وده_'
'ودم'
'ودقيقة_'
'وددت_'
'ودخل'
'ودا_'
'وخمس'
'وخذ'
'وخائ'
'وخ_'
'وحوش_'
'وحقيق'
'وحصلت_'
'وحدنا_'
'وحب'
'وحاول'
'وجوده_'
'وجهها_'
'وجهات_'
'وجها_'
'وجه'
'وجميلة_'
'وجميع_'
'وجدناه'
'وجدن'
'وجبة_'
'وجب_'
'وثيق'
'وثي'
'وثم_'
'وثل'
'وتوف'
'وتكرارا_'
'وتقول_'
'وتعم'
'وتعليم'
'وتعلم'
'وتعتق'
'وتعا'
'وتضرب'
'وتست'
'وتز'
'وتري'
'وترو'
'وتركت'
'وتذهب_'
'وتذكر'
'وتخ'
'وتج'
'وتأخذ'
'وتأ'
'وبن'
'وبك_'
'وبسبب'
'وبس'
'وبر_'
'وبدلا_'
'وبدا'
'وبدأ_'
'وبدأ'
'وبالنسبة_'
'وبات_'
'وبأ'
'واين_'
'وايد_'
'واي_'
'واني'
'وانه'
'وانظر_'
'وانتم_'
'وانات'
'واما_'
'واليوم_'
'والنق'
'والناس_'
'والمف'
'والمشروبات_'
'والمش'
'والمس'
'والمح'
'واللي'
'والكهرباء_'
'والفر'
'والفت'
'والغب'
'والغ'
'والعشرون_'
'والعا'
'والطريق'
'والط'
'والص'
'والشيء_'
'والسيدة_'
'والسعة_'
'والذي'
'والديه_'
'والديك_'
'والدي'
'والدو'
'والدر'
'والدتها_'
'والدت'
'والداه'
'والدا'
'والخز'
'والحياة_'
'والحما'
'والحق'
'والجم'
'والجا'
'والث'
'والتي'
'والتى_'
'والتع'
'والتح'
'والبا'
'والان'
'والاب'
'والإست'
'والأن'
'والأش'
'والأخ'
'والآ'
'واقف_'
'واقع'
'وافقت'
'وافق_'
'واعتقد'
'واط_'
'واط'
'واضحا_'
'واسم'
'وارين_'
'واذهب'
'واذ'
'وادي_'
'واخبر_'
'واخبر'
'واحـ'
'واحض'
'واجهتك_'
'واجهت'
'واجه'
'واجلس'
'واجبك_'
'واج'
'واتك'
'واة_'
'واا'
'وإس'
'وإث'
'وأين_'
'وأه'
'وأنهم_'
'وأنك_'
'وأنـ'
'وأمي_'
'وأمسك'
'وأفعل_'
'وأطلب'
'وأطف'
'وأشك'
'وأسمع'
'وأسب'
'وأري'
'وأرس'
'وأربع'
'وأخرج'
'وأخت'
'وأخ'
'وأحيانا_'
'وأحت'
'وآخرون_'
'هين_'
'هيلينا_'
'هيلين_'
'هيلاري_'
'هيك'
'هيس'
'هيزات'
'هيرو'
'هيرم'
'هويات_'
'هومر_'
'هولين'
'هولي_'
'هولمز_'
'هولة_'
'هوك'
'هوفمان_'
'هوف'
'هوري'
'هواي'
'هواتف'
'هه'
'هنـ'
'هند'
'هنت'
'هناك'
'همه'
'همني_'
'همت'
'هلي'
'هله'
'هلة_'
'هلا'
'هـي_'
'هـناك_'
'هــا_'
'هـ_'
'هش'
'هزيمته_'
'هزيمت'
'هزيمة_'
'هزه_'
'هزل'
'هز_'
'هروب'
'هره_'
'هربت_'
'هرات_'
'هذي_'
'هذاهو'
'هدي'
'هدو'
'هدت_'
'هدة_'
'هجو'
'هج_'
'هبوط_'
'هبـ'
'هبط_'
'هبة_'
'هاينز_'
'هايد'
'هاية'
'هاوا'
'هاهو_'
'هاه'
'هاني'
'هانسي'
'هاند'
'هانت'
'هامش'
'هامر'
'هامة_'
'هاك'
'هاق'
'هاش'
'هارفي_'
'هاردي'
'هاربر_'
'هادو'
'هادئا_'
'هاجمن'
'هاتي'
'هاته_'
'هاتف'
'هاتش'
'هابي'
'هائلة_'
'هائل'
'هاء_'
'نيوم'
'نيوتن_'
'نينج'
'نيكول_'
'نيكول'
'نيكل'
'نيس'
'نيرو'
'نير'
'نيجي'
'نوي'
'نوم_'
'نولوجي'
'نولان_'
'نوف'
'نورما_'
'نورم'
'نورا'
'نوتي'
'نوبت'
'نواف'
'نواجه_'
'نهر'
'نهد'
'نهتم_'
'نهايته'
'ننفصل_'
'ننفذ_'
'ننش'
'ننس'
'ننته'
'نناقش_'
'ننا_'
'نموذج_'
'نمر_'
'نمر'
'نلت_'
'نلت'
'نكمل_'
'نكس'
'نكر'
'نكتشف_'
'نقوله'
'نقودي_'
'نقه_'
'نقم_'
'نقله'
'نقلك_'
'نقضي_'
'نقدم_'
'نقتل'
'نقترب_'
'نقة_'
'نقبل_'
'نفي'
'نفع_'
'نفذت_'
'نفتح_'
'نف_'
'نـي_'
'نــ'
'نعين_'
'نعومي_'
'نعه'
'نعـــ'
'نعطي'
'نعرفه'
'نعر'
'نعة_'
'نظيفه_'
'نظيف_'
'نظير'
'نظم'
'نظف'
'نظام'
'نظ_'
'نطلق_'
'نطق_'
'نضي'
'نضح'
'نصيحة_'
'نصل'
'نصفه_'
'نصر_'
'نصدق'
'نصح'
'نشرت'
'نشتر'
'نشت'
'نسير'
'نسمع_'
'نسل'
'نسرع_'
'نسر_'
'نسخ_'
'نسخ'
'نستط'
'نستج'
'نساعد'
'نزيل_'
'نزيف_'
'نزهة_'
'نزلت_'
'نري_'
'نرجع'
'نرج'
'نربط'
'نراها_'
'نراه'
'نراقب'
'نرا'
'ندي_'
'ندما'
'ندم_'
'ندك'
'ندف'
'ندعوه'
'نداء_'
'نخسر_'
'نخاف_'
'نحوي_'
'نحوه'
'نحوك_'
'نحو'
'نحم'
'نحل_'
'نحط'
'نحض'
'نحتفل_'
'نجي'
'نجم_'
'نجلس_'
'نجل'
'نجري_'
'نجتمع_'
'نجات'
'نجا_'
'نتين_'
'نتي'
'نتوقع_'
'نتواعد_'
'نتها_'
'نتنا'
'نتمنى_'
'نتمكن_'
'نتلق'
'نتقا'
'نتعر'
'نتصا'
'نتص'
'نتسا'
'نتركه_'
'نتر'
'نتحد_'
'نتج_'
'نتت'
'نبيع'
'نبقي_'
'نبق'
'نبذل_'
'نباتي'
'نايج'
'نايتلي_'
'ناولني_'
'ناول_'
'ناو'
'ناهم_'
'ناه'
'نانس'
'ناميك_'
'نامي'
'ناقص_'
'ناقش'
'نافذة_'
'ناعه'
'ناعم_'
'ناظر'
'ناسب_'
'نازي'
'ناز'
'نارد_'
'نادر_'
'ناجي'
'ناجحة_'
'نائم_'
'نائم'
'نأمل_'
'نأك'
'نأتي_'
'نأت_'
'ميول'
'ميه'
'ميلي'
'ميلو_'
'ميلانو_'
'ميلان'
'ميلادها_'
'ميلاده_'
'ميكانيكي'
'ميغ'
'ميع'
'ميسون_'
'ميسا'
'ميريد'
'ميرفي'
'ميرس'
'ميدل'
'ميج'
'ميتشيل_'
'موني_'
'مونرو_'
'موند'
'مونتغمري_'
'مونتانا_'
'مونا_'
'مومو'
'موم'
'مولين'
'موكلت'
'موقفك_'
'موقعه_'
'موقعك'
'موقعا_'
'موفقا_'
'موف'
'موظفي_'
'موظفي'
'موطن'
'موص'
'موسيقية_'
'موسم'
'موس_'
'موزا'
'موز_'
'موريس_'
'مورد'
'مورتي_'
'مورا'
'مود'
'موح'
'موجودين_'
'موجه'
'مواقعه'
'موافق'
'مواعيد'
'مواعد'
'مواصفات'
'مواز'
'مهين_'
'مهي'
'مهووس_'
'مهنة_'
'مهمتك_'
'مهما'
'مهم'
'مهذبة_'
'مهذ'
'مهدد'
'مهبل_'
'مهام'
'مهار'
'منين_'
'منهن'
'منهما_'
'منهك_'
'منه'
'منن'
'منفرد'
'منـ'
'منغ'
'منظمة_'
'منظم_'
'منظم'
'منظر'
'منظ'
'منص'
'منزلى_'
'منزعجة_'
'منذ'
'مندو'
'مند'
'منخفض_'
'منخفض'
'منحي_'
'منحت'
'منتهي'
'منتظم'
'منالعا'
'منافس'
'مناس'
'مناداتي_'
'مميزا_'
'مممم'
'مملو'
'ممكنة_'
'ممكنا_'
'ممـ'
'ممسك'
'ممزق_'
'ممرضة_'
'ممتن_'
'ممتلكات_'
'ممتعة_'
'مماثلة_'
'مما'
'ملكي'
'ملكا_'
'ملعون_'
'ملعب_'
'ملع'
'ملزم'
'ملامح'
'ملاقات'
'ملازم'
'ملاحظة_'
'ملاحظات'
'ملابسى_'
'ملائما'
'ملائ'
'مكس'
'مكروه_'
'مكتوب'
'مكتو'
'مكتبه_'
'مكتبة_'
'مكت'
'مكب'
'مكانا_'
'مكالم'
'مكافح'
'مكافأة_'
'مقيد'
'مقنع'
'مقلب_'
'مقل'
'مقف'
'مقرب'
'مقدرا'
'مقدار'
'مقد'
'مقبول_'
'مقايض'
'مقاطعة_'
'مقاس_'
'مقاتل_'
'مفيدا_'
'مفهوما_'
'مفكر'
'مفقود_'
'مفصول'
'مفص'
'مفر_'
'مفر'
'مفتوح_'
'مفتر'
'مفاجئة_'
'مفاتيح_'
'مـو'
'مــو'
'مـــــ'
'مـع'
'مغني'
'مغل'
'مغط'
'مغري'
'مغرم'
'معينة_'
'معو'
'معم'
'معلومات'
'معقول'
'معقد'
'معق'
'معطلة_'
'معطف_'
'معط'
'معسكر_'
'معروفا_'
'معروف'
'معرفتي_'
'معرف'
'معر'
'معدته'
'معدات_'
'معجبي'
'معجب'
'معتوه_'
'معتاد_'
'معاي'
'معاملت'
'معالجة_'
'معالج_'
'معالج'
'معارك'
'مظلة_'
'مطلوب'
'مطب'
'مطاردة_'
'مطار_'
'مطار'
'مط_'
'مضيعة_'
'مضرو'
'مضاد'
'مصير'
'مصيدة_'
'مصمم'
'مصر_'
'مصدر'
'مصد'
'مصح'
'مصاص_'
'مصارع_'
'مصار'
'مصادفة_'
'مصاد'
'مصابا_'
'مشوشة_'
'مشه'
'مشكلتي_'
'مشكلتنا_'
'مشفر'
'مشف'
'مشروعنا_'
'مشروبا_'
'مشرو'
'مشرف'
'مشر_'
'مشد'
'مشجع_'
'مشاهد'
'مشاك'
'مشاعره_'
'مشار'
'مسيطر_'
'مسن'
'مسم'
'مسلح_'
'مسلح'
'مسكن'
'مسروق'
'مسرحي_'
'مسدسه_'
'مسدسات_'
'مسدس'
'مسخ'
'مسجلة_'
'مستيقظة_'
'مستو'
'مستم'
'مستقيم'
'مستقبل_'
'مستق'
'مستعم'
'مستعدا'
'مستشار'
'مستا'
'مسبق'
'مساعده_'
'مساعدته_'
'مساعدت'
'مساعد'
'مساره_'
'مساحة_'
'مساب'
'مساءا_'
'مسئول'
'مسؤولية_'
'مزو'
'مزم'
'مزعجة_'
'مزرعة_'
'مزدوج_'
'مزدحم'
'مزح'
'مزارع_'
'مزاح'
'مزاج_'
'مز'
'مريم_'
'مريع_'
'مريع'
'مريضا_'
'مريض'
'مرون'
'مرهقة_'
'مرن'
'مركز'
'مركب_'
'مرك'
'مرفقي'
'مرغ'
'مرع'
'مرضا'
'مرح_'
'مرتفعة_'
'مرتدية_'
'مرتدي'
'مرتا'
'مرت'
'مربية_'
'مربع_'
'مراهق'
'مراقبة_'
'مراقب_'
'مرافق'
'مراسم_'
'مراحل_'
'مرآب'
'مذكور_'
'مذاقها_'
'مذاق'
'مدينتنا_'
'مديرة_'
'مدير'
'مدون_'
'مدهش'
'مدن_'
'مدف'
'مدرب_'
'مدار_'
'مخمور_'
'مخلصي'
'مخطط'
'مخزون_'
'مختلفا_'
'مختطف'
'مخبو'
'مخبر_'
'مخب'
'مخاوف'
'مخاط'
'محلي'
'محلول'
'محقا_'
'محق'
'محف'
'محظوظ'
'محظور'
'محرم'
'محدود_'
'محتويات'
'محتوى_'
'محتر'
'محتجز'
'محبط'
'محبة_'
'محال_'
'محاك'
'محاضر'
'محارب_'
'محار'
'محادثة_'
'محادثات'
'مجيد_'
'مجوهرات_'
'مجهو'
'مجه'
'مجنون'
'مجلات_'
'مجرى_'
'مجرة_'
'مجتمع_'
'مجانين_'
'مجانية_'
'مجانا_'
'مج_'
'مثي'
'مثلهم_'
'مثلها_'
'مثلنا_'
'مثلكم'
'مثـل'
'مث'
'متيق'
'متوه'
'متوقف'
'متوقعا_'
'متوقع_'
'متورط_'
'متور'
'متوتر'
'متها_'
'مته_'
'متما'
'متكب'
'متك_'
'متك'
'متقلب'
'متفر'
'متفاجئ_'
'متغطرس'
'متعل'
'متعة_'
'متطور'
'متس'
'متزوجين_'
'متزوجا'
'مترا'
'متر_'
'متدرب'
'متخل'
'متخفي'
'متخصص'
'متحف'
'متحد'
'متجهة_'
'متجمد'
'متجر'
'متج'
'متتالية_'
'متبرع_'
'متاكد'
'متاع'
'متاحا_'
'متاح'
'متأكد'
'متأخرة_'
'مبي_'
'مبو'
'مبهر_'
'مبهج'
'مبنى_'
'مبلل'
'مبلغ_'
'مبك_'
'مبال'
'ماين'
'مايل'
'مايبدو_'
'مايا_'
'ماي_'
'ماهية_'
'ماه'
'مانو_'
'مانس'
'ماند'
'مالي'
'مالو'
'مالم'
'مالكولم_'
'مالأ'
'ماكنت'
'ماكن'
'ماكل'
'ماكدونالدز_'
'ماكج'
'ماكانت_'
'ماقلت'
'ماق'
'مافي_'
'مافعلت'
'ماف'
'ماعل'
'ماع'
'ماضي_'
'ماش'
'مازلت'
'ماز'
'ماريو'
'ماريا'
'مارلا_'
'ماركو_'
'مارف'
'مارسي'
'مارست'
'مارس'
'مارجريت_'
'مارج_'
'مارتا_'
'مارت_'
'مارت'
'مار_'
'ماذا'
'ماد_'
'ماجو'
'ماثيو_'
'ماث'
'ماتي'
'ماتريد_'
'ماتر'
'ماة_'
'مابين_'
'ماأ'
'مؤمن'
'مؤلم'
'مؤقتا_'
'مؤخ'
'مأساوي'
'ليين_'
'لينك'
'ليندس'
'ليمو'
'ليله'
'ليلتين_'
'ليلتكم'
'ليل'
'ليقتل'
'ليفي_'
'ليفا'
'ليـ'
'ليص'
'ليش'
'ليستم'
'ليزي'
'ليرى_'
'ليرة_'
'ليخرج'
'ليتو'
'ليتم'
'ليتل'
'ليتش'
'ليتح'
'ليب_'
'ليالي_'
'لويز_'
'لوي_'
'لوها_'
'لوني_'
'لونزا_'
'لونج_'
'لونالخط_'
'لوكه'
'لوكان'
'لوكا_'
'لوك'
'لوغ'
'لوع_'
'لوضع_'
'لوس'
'لورنزو_'
'لورد'
'لوحد'
'لوحات'
'لوح_'
'لوح'
'لوجه'
'لوثر_'
'لوث'
'لهـ'
'لهاتف_'
'لها'
'لني_'
'لنه'
'لنلعب_'
'لنقول_'
'لنفعل'
'لنفسه_'
'لنفتر'
'لنـ'
'لنعد'
'لنض'
'لنش'
'لنس'
'لند'
'لنجعلك_'
'لنجرب_'
'لنجاة_'
'لنتع'
'لنتحرك_'
'لنبق'
'لنأكل_'
'لنأخذ'
'لمين_'
'لموقع'
'لموا_'
'لموا'
'لمه'
'لمنع_'
'لمنزل'
'لمنا'
'لمكان_'
'لمك'
'لمقا'
'لمق'
'لمـاذا_'
'لمعلومات'
'لمصا'
'لمشا'
'لمش'
'لمساعدته'
'لمزيد_'
'لمركب'
'لمراقبة_'
'لمحل'
'لمح'
'لمجيئك_'
'لمثل_'
'لمبا'
'لمب'
'لمان_'
'لماذ_'
'لمات'
'لمأ'
'لليسار_'
'للولا'
'للوراء_'
'للهروب_'
'للهر'
'للهجوم_'
'للنق'
'للناد'
'للموت'
'للملك'
'للمل'
'للمق'
'للمعر'
'للمش'
'للمستشفى_'
'للمست'
'للمساعده_'
'للمرح_'
'للمدينة_'
'للمدير_'
'للمخدر'
'للكه'
'للقم'
'للفا'
'للف_'
'للـ_'
'للغرب'
'للعد'
'للعام_'
'للعائلة_'
'للطر'
'للطب'
'للطائرة_'
'للشه'
'للشع'
'للشر'
'للشخص_'
'للشب'
'للسما'
'للسجن_'
'للزواج_'
'للروعة_'
'للروح_'
'للرق'
'للرج'
'للذك'
'للدم'
'للدف'
'للخط'
'للخدم'
'للحكو'
'للحقيق'
'للحفل'
'للحفاظ_'
'للحديث_'
'للحا'
'للجري'
'للجحيم_'
'للث'
'للتوا'
'للتعا'
'للتع'
'للتد'
'للتحقيق_'
'للتب'
'للبي'
'للبل'
'للبق'
'للبا'
'للامر'
'للاط'
'للاسف'
'للاستم'
'للإنت'
'للإغ'
'للإعت'
'للإس'
'للإر'
'للإح'
'للإجابة_'
'للأول'
'للأمو'
'للأما'
'للألم_'
'للأح'
'لكيفية_'
'لكنـ'
'لقى_'
'لقو'
'لقم'
'لقطع'
'لقطا'
'لقضاء_'
'لقس'
'لقدك'
'لقتل'
'لقت'
'لقاتل_'
'لفين'
'لفقد'
'لفعلها_'
'لفريق'
'لفتح_'
'لفتا'
'لـي'
'لـه_'
'لـك_'
'لـديه'
'لـة_'
'لغرفت'
'لغرفة_'
'لغة_'
'لعين'
'لعن'
'لعمل'
'لعله'
'لعلاج_'
'لعط'
'لعرض'
'لعدم_'
'لظروف_'
'لطيف'
'لطفل'
'لطفاء_'
'لطف_'
'لطف'
'لط_'
'لضم'
'لضر'
'لصر'
'لصد'
'لصح'
'لصالح_'
'لصا'
'لشي'
'لشرك'
'لشب'
'لسي_'
'لسي'
'لسنوات_'
'لسن'
'لسماع_'
'لستم_'
'لسة_'
'لسب'
'لزيا'
'لزوجتي'
'لرجال'
'لرب_'
'لرأسك_'
'لذيذة_'
'لديك'
'لديـ'
'لدي'
'لدك'
'لدت'
'لدا'
'لخسار'
'لخروج'
'لخدمة_'
'لخا'
'لحيتك_'
'لحية_'
'لحي'
'لحمايتك_'
'لحفل'
'لحضور_'
'لحص'
'لحسن_'
'لحال'
'لجي'
'لجل'
'لجعلن'
'لجعل'
'لجر'
'لثلاث_'
'لث'
'لتهتم'
'لتنه'
'لتنا'
'لتكن_'
'لتك_'
'لتقو'
'لتقديم_'
'لتفتيش_'
'لتغطية_'
'لتغ'
'لتعلم'
'لتعر'
'لتصبح'
'لترى_'
'لتدفع'
'لتد'
'لتخبر'
'لتحمله'
'لتحم'
'لتحل'
'لتحق'
'لتحص'
'لتحر'
'لتحديد_'
'لتجن'
'لتجعل'
'لتجد'
'لتج'
'لتأخ'
'لبيع'
'لبق'
'لبعضنا_'
'لبره'
'لبت'
'لباق'
'لباس'
'لايه'
'لاين'
'لايمكن_'
'لايل'
'لايص'
'لايجب_'
'لايج'
'لايت'
'لاى_'
'لانه'
'لامي_'
'لاكو'
'لافي'
'لافت'
'لاع_'
'لاط'
'لاشيئ_'
'لاستخدام'
'لاست'
'لازالت_'
'لارا'
'لاخر'
'لاحظو'
'لاحت'
'لاج_'
'لاتي'
'لاتو'
'لاتك'
'لاتستطيع_'
'لاتست'
'لاتريد_'
'لاتد'
'لاتح'
'لاتج'
'لابن'
'لائح'
'لاأر'
'لاأحد_'
'لئيمة_'
'لإيجاد_'
'لإنه'
'لإن_'
'لإغ'
'لإعطا'
'لإظهار_'
'لإس'
'لإحت'
'لإج'
'لإثبات_'
'لإب'
'لأى_'
'لأه'
'لأنه'
'لأننى_'
'لأنـ'
'لأنت'
'لأمك_'
'لأمرك_'
'لأقول'
'لأفعله'
'لأفعل_'
'لأف'
'لأعلم'
'لأعط'
'لأطلب'
'لأصل_'
'لأصدقا'
'لأصب'
'لأص'
'لأشر'
'لأربع'
'لأخبر'
'لأحض'
'لأحر'
'لأجعل'
'لأج'
'لأبي_'
'لآن_'
'لآخر'
'كيون'
'كيو'
'كيني_'
'كيمبل_'
'كيم'
'كيلي'
'كيلومتر'
'كيلا'
'كيك'
'كيفين_'
'كيشا'
'كيسي'
'كيزي'
'كيز_'
'كيرواك_'
'كيرك_'
'كيرا_'
'كير'
'كيد_'
'كية_'
'كيب_'
'كوينتن_'
'كوني'
'كونه'
'كوميدي'
'كولينز_'
'كولومب'
'كولو'
'كولت'
'كولات_'
'كوك_'
'كوفا'
'كوف'
'كوس_'
'كوز'
'كوركي_'
'كورتيز_'
'كورت'
'كورا'
'كهف_'
'كهرب'
'كني_'
'كني'
'كنه'
'كننا_'
'كنـت_'
'كنز_'
'كنتا'
'كنا'
'كمي'
'كمقا'
'كمش'
'كمس'
'كمبيوتر_'
'كمب'
'كماتع'
'كليفلاند_'
'كليف'
'كلمي'
'كلمه_'
'كلم_'
'كلفن'
'كلف_'
'كلـ'
'كلتا'
'كلبي_'
'كلبك_'
'كلب'
'كلاودي'
'كلاهما_'
'كلامك_'
'كلاب'
'ككل'
'كفاي'
'كفا'
'كـم'
'كـانـت_'
'كـا'
'كعك_'
'كعائل'
'كع_'
'كط'
'كسول_'
'كسرت'
'كسج'
'كسة_'
'كرين_'
'كريستو'
'كريستال_'
'كريست'
'كرون'
'كروس_'
'كرو_'
'كرهي'
'كره'
'كرني_'
'كرك_'
'كرسي_'
'كرستي'
'كرس'
'كرر_'
'كرايمر_'
'كراو'
'كرامة_'
'كراس'
'كرا_'
'كذالك_'
'كذا_'
'كد'
'كحيوان'
'كجزء_'
'كجا'
'كثرة_'
'كتيبات_'
'كتلك_'
'كتف'
'كتبه'
'كتابي_'
'كتابك_'
'كتابا_'
'كبيره_'
'كبو'
'كبسولة_'
'كبرت_'
'كبت_'
'كايت'
'كانه'
'كانج_'
'كامبر'
'كاله'
'كالل'
'كالف'
'كالرج'
'كالد'
'كالخ'
'كالث'
'كالب'
'كالا'
'كاك'
'كافي_'
'كاش'
'كاسي'
'كازين'
'كاريف_'
'كاري'
'كارولين'
'كارو'
'كارما'
'كارلوس_'
'كارلو_'
'كاديل'
'كاج'
'كاتي'
'كاترينا_'
'كاب_'
'كإنسان'
'كأني_'
'كأنها_'
'كأسا_'
'كأس'
'كأخ'
'كأب'
'قيم'
'قيد'
'قيادته'
'قيادتك_'
'قياد'
'قوليها_'
'قولو'
'قوله'
'قولك_'
'قوتي_'
'قوات_'
'قهوتي_'
'قنو'
'قنبله_'
'قنبلة_'
'قناص'
'قمه'
'قمتم_'
'قليل'
'قلون_'
'قلم_'
'قلتى_'
'قلبية_'
'قلبى_'
'قفل'
'قفا'
'قعه_'
'قظ'
'قضينا_'
'قضيت'
'قضيبك_'
'قضيب'
'قضي_'
'قضبان_'
'قصوى_'
'قصد_'
'قصار'
'قشة_'
'قش_'
'قسم'
'قس_'
'قريبين_'
'قريبون_'
'قريب'
'قرط'
'قرص_'
'قرر'
'قرد'
'قرب'
'قراري_'
'قرأ'
'قديما_'
'قدومكم'
'قده'
'قدنا_'
'قدميه_'
'قدمى_'
'قدره'
'قدرت'
'قدراتك_'
'قدت'
'قتي'
'قتها_'
'قتله'
'قتلتها_'
'قبول_'
'قبلي_'
'قبلتن'
'قبعة_'
'قبر_'
'قبر'
'قبت'
'قبة_'
'قبال'
'قاومة_'
'قانون'
'قالته'
'قاع_'
'قاع'
'قاظ_'
'قاط_'
'قاصر'
'قاسية_'
'قاسيا'
'قاسي_'
'قاس'
'قارب_'
'قاذ'
'قادنا_'
'قادما_'
'قاتلة_'
'قاتلا_'
'قات'
'قابلته_'
'قابلة_'
'قاب_'
'فينيك'
'فيني'
'فينش_'
'فينس_'
'فيم'
'فيلمك_'
'فيلدما'
'فيق'
'فيغاس_'
'فيس'
'فيز'
'فيروس_'
'فيرج'
'فيد_'
'فيد'
'فيجا'
'فيتز_'
'فيتا'
'فوي'
'فون'
'فولاذي'
'فوك'
'فوض'
'فوستر_'
'فوز_'
'فوري'
'فود'
'فوا'
'فهى_'
'فنلند'
'فنان_'
'فنا'
'فمه'
'فلين'
'فلور'
'فلو'
'فلنفعل'
'فلك'
'فلس'
'فلديه'
'فلدي'
'فلح'
'فلتع'
'فلتأ'
'فكرتك_'
'فكر'
'فكا'
'فقير_'
'فقه'
'فقط'
'فقدتها_'
'فقت'
'فـــ'
'فـ_'
'فعي'
'فعها_'
'فعلناها_'
'فعلتي_'
'فعلتم_'
'فعة_'
'فعال_'
'فظيعة_'
'فظت'
'فطور'
'فطر'
'فضو'
'فضلا_'
'فضائي'
'فضائح_'
'فضاء_'
'فض'
'فصيل'
'فسيكون'
'فسيح'
'فسن'
'فساء_'
'فسأح'
'فزت_'
'فريقك'
'فريز'
'فريت'
'فرون_'
'فروس'
'فرنس'
'فرك_'
'فرصه'
'فرصتي'
'فرسان'
'فرب'
'فرانكل'
'فرانسي'
'فرانز'
'فرا'
'فدر'
'فخور'
'فخم_'
'فخام'
'فخ'
'فحي'
'فحصت'
'فجرا'
'فجا'
'فتو'
'فتش_'
'فتحا'
'فبراير_'
'فايلو'
'فايك'
'فاون_'
'فاني_'
'فاع'
'فاشلا_'
'فاشل'
'فاش'
'فاز'
'فارغ'
'فاذ'
'فادح'
'فادة_'
'فاد_'
'فاتورة_'
'فاتني_'
'فاتنة_'
'فاتن'
'فاتر'
'فات'
'فائق_'
'فائز'
'فإنهم_'
'فإنني_'
'فأين_'
'فأن_'
'ـيـاء_'
'ـود_'
'ـوا'
'ـهـ'
'ـم'
'ـق'
'ــون'
'ــه_'
'ــل'
'ـــل'
'ـــر'
'ــض'
'ــز'
'ــد'
'ــان'
'ـط'
'ـص'
'ـش_'
'ـس'
'ـرف'
'ـرة'
'ـدو'
'ـدث'
'ـته'
'ـتـ'
'ـاني'
'ـامي'
'ـاق'
'ـاع'
'ـار'
'ـاج'
'ـاب'
'غيور_'
'غيور'
'غيرها_'
'غيره_'
'غيرك'
'غيبس_'
'غوط_'
'غوس_'
'غوت'
'غها'
'غنية_'
'غني'
'غناء'
'غلطته'
'غلط'
'غلب_'
'غفوة_'
'غـي'
'غـ'
'غضبها_'
'غص'
'غز_'
'غريز'
'غريتش'
'غرق_'
'غرفتها_'
'غرفته_'
'غرة_'
'غرباء_'
'غرايس_'
'غراهام_'
'غرانت_'
'غرات'
'غر_'
'غتون'
'غبيا_'
'غب_'
'غانستان'
'غامضا_'
'غامر'
'غام'
'غالية_'
'غاف'
'غاضبه_'
'غاضب'
'غازا'
'غاري_'
'غادري_'
'غادرة_'
'غابريل_'
'غابة_'
'عيين_'
'عيونه'
'عيونك_'
'عينيها_'
'عينيه_'
'عينة_'
'عيناك'
'عيم_'
'عيف'
'عوه'
'عوضا_'
'عوض_'
'عور'
'عوائ'
'عهم_'
'عهد_'
'عنيف_'
'عنيف'
'عنك'
'عنق_'
'عنف'
'عنـ'
'عنصر_'
'عنصر'
'عندمـا_'
'عندم'
'عندئذ_'
'عمو'
'عمليا_'
'عملها_'
'عملاق'
'عمري_'
'عمرى_'
'عمدة_'
'عمدا_'
'عليـ'
'عليا'
'علن'
'علمي'
'علموا_'
'علماء'
'علـ'
'علت_'
'علاو'
'علان'
'علاقتنا_'
'علاقات'
'علا'
'عقيد_'
'عقل'
'عقار'
'عفو'
'عفا_'
'عظمى_'
'عطل'
'عطش'
'عطا'
'عضوه_'
'عضلات'
'عصيب_'
'عصفور_'
'عصري'
'عصر_'
'عصبي'
'عصاب'
'عصا'
'عشيق'
'عشوائي'
'عشة_'
'عسكري_'
'عسكر'
'عسان'
'عزيز_'
'عزم'
'عزل_'
'عرك'
'عرق_'
'عرفت'
'عرضية'
'عرضي_'
'عرضه'
'عرب'
'عذب_'
'عدية_'
'عدواني'
'عده_'
'عدني_'
'عدل'
'عدكم_'
'عدس'
'عددا_'
'عدتك'
'عدت'
'عدان'
'عجي'
'عجل'
'عجز_'
'عتين_'
'عتم'
'عتقد'
'عتذ'
'عبه_'
'عبقري_'
'عبقر'
'عبر'
'عبدة_'
'عبث'
'عاية_'
'عاود'
'عاهر'
'عانى_'
'عامله'
'عامل'
'عاليا_'
'عالي_'
'عالمي'
'عاق'
'عاف_'
'عاش'
'عارية_'
'عار_'
'عادية_'
'عاده'
'عادلة_'
'عادل'
'عادت'
'عاجز'
'عاج_'
'عات'
'عائلي'
'عائل'
'ظيفي_'
'ظي_'
'ظهرت'
'ظني'
'ظننته_'
'ظن'
'ظم_'
'ظلام_'
'ظفه_'
'ظريف_'
'ظروف_'
'ظرة_'
'ظتك_'
'ظائف'
'طيور_'
'طيه_'
'طيني_'
'طيبا_'
'طيب'
'طياد_'
'طيات'
'طون_'
'طوله_'
'طوفا'
'طوارئ_'
'طو_'
'طني'
'طلي'
'طلبو'
'طلبه'
'طلبة_'
'طلبات_'
'طلبا_'
'طك_'
'طقوس'
'طقة_'
'طق_'
'طفي'
'طفة_'
'طعنة_'
'طعمه'
'طط_'
'طريقتك_'
'طريف_'
'طرده_'
'طدام_'
'طحا'
'طح_'
'طبيعيا_'
'طبيعت'
'طبيبي_'
'طبق_'
'طبق'
'طبا'
'طب_'
'طاقات'
'طازجة_'
'طاردة_'
'طار'
'طابع'
'طائرات_'
'طئ_'
'طأ_'
'ضين'
'ضيق_'
'ضيف_'
'ضون'
'ضوع_'
'ضور'
'ضوئ'
'ضننت_'
'ضمين'
'ضمير_'
'ضمير'
'ضمان_'
'ضلل'
'ضلع'
'ضعيفة_'
'ضعة_'
'ضطر'
'ضرين_'
'ضروريا_'
'ضرور'
'ضرهم_'
'ضرر'
'ضربه'
'ضربت_'
'ضخم'
'ضخ'
'ضحيتنا_'
'ضحكا_'
'ضت_'
'ضبط_'
'ضاف'
'ضاعف'
'ضاجعت_'
'ضات'
'ضئيل'
'صيني'
'صيف_'
'صيد_'
'صيد'
'صية_'
'صيب'
'صى_'
'صول_'
'صورن'
'صور'
'صوتها_'
'صوب'
'صواب_'
'صو_'
'صنعوا_'
'صناع'
'صممت'
'صمام_'
'صم_'
'صلي'
'صلون_'
'صلو'
'صلك'
'صلص'
'صلب'
'صلاحي'
'صفيح'
'صفي_'
'صفق'
'صفر_'
'صفحات'
'صــ'
'صغيري'
'صغير'
'صعوب'
'صعد_'
'صعب'
'صريح_'
'صرخ'
'صرت_'
'صديقته_'
'صدي'
'صدقيني_'
'صدره_'
'صدر_'
'صداقة_'
'صداق'
'صخب'
'صحيفة_'
'صحت'
'صتي'
'صبا'
'صانعة_'
'صالات_'
'صاف_'
'صاحب'
'صابي_'
'صابة'
'صاب'
'صائد_'
'شيو'
'شيلدون_'
'شيق'
'شيفر'
'شيف_'
'شيطان'
'شيط_'
'شيرمان_'
'شيبرد_'
'شيب'
'شيئ'
'شوهد'
'شول'
'شوك'
'شوق'
'شوطا_'
'شور'
'شهو'
'شهرا'
'شهدت_'
'شهادت'
'شها_'
'شنق_'
'شن_'
'شميت_'
'شمو'
'شمس_'
'شمالا_'
'شم_'
'شكله_'
'شكلك'
'شكلة_'
'شكـ'
'شكسبير_'
'شكر'
'شقيقه'
'شقيقتي_'
'شقيق_'
'شقيق'
'شقي_'
'شقتك_'
'شقت'
'شفيت'
'شفتيك_'
'شفت'
'شفة_'
'شفا'
'شغل'
'شغب_'
'شغ'
'شعوري_'
'شعورك_'
'شعو'
'شعره'
'شعرتي_'
'شعبي'
'شعاع_'
'شع_'
'شطيرة_'
'شش'
'شريف_'
'شريرة_'
'شريحة_'
'شروق_'
'شروط'
'شرك'
'شرعي'
'شرطيا_'
'شرح_'
'شرة_'
'شخصين_'
'شخ'
'شحن'
'شجع'
'شجاع'
'شبيها_'
'شباب'
'شاين'
'شاهدي'
'شاهدوا_'
'شاهدته'
'شاني'
'شانك'
'شامل'
'شامبر'
'شاك_'
'شاك'
'شاف'
'شاغر'
'شارو'
'شارلى_'
'شارلز_'
'شارت'
'شارات_'
'شاد'
'شابة_'
'شائع'
'شائ'
'شؤون_'
'شأنها_'
'شأنه_'
'شأنك_'
'سيندي_'
'سينتهي_'
'سيناريو_'
'سينات'
'سيمي'
'سيمونز_'
'سيمو'
'سيمن'
'سيما'
'سيلو'
'سيلفستر_'
'سيلف'
'سيكونون_'
'سيكون'
'سيقومون_'
'سيقول_'
'سيقود'
'سيقتلني_'
'سيقان_'
'سيفي'
'سيفك'
'سيفعلونه_'
'سيفعل'
'سيفر'
'سيف_'
'سيغا'
'سيعيش'
'سيعود_'
'سيعط'
'سيطرت'
'سيطر_'
'سيطر'
'سيط'
'سيصل'
'سيسي'
'سيساعدن'
'سيساعدك'
'سيساعد_'
'سيسا'
'سيري'
'سيرغب'
'سيرسل'
'سيرجي'
'سيرت'
'سيذهب_'
'سيده_'
'سيدمر_'
'سيدف'
'سيخبر'
'سيحل'
'سيحاول_'
'سيجعل_'
'سيجعل'
'سيجر'
'سيجد'
'سيج'
'سيث'
'سيتوقف_'
'سيتو'
'سيتف'
'سيتع'
'سيتزو'
'سيبق'
'سيبد'
'سيبا'
'سياس'
'سيارته_'
'سيار'
'سياد'
'سياتل_'
'سيئ'
'سيؤ'
'سيأخذ'
'سىء_'
'سوني'
'سوسة_'
'سوز'
'سود'
'سوج'
'سوبر'
'سوء'
'سهلة_'
'سهل'
'سها_'
'سه'
'سنوا'
'سنموت_'
'سنمر_'
'سنل'
'سنك'
'سنقضي_'
'سنقتل'
'سنغادر'
'سنغ'
'سنعمل_'
'سنعرف_'
'سنض'
'سندوي'
'سنحص'
'سنحتفل_'
'سنتوقف_'
'سنتحد_'
'سنبدأ_'
'سنأخذ'
'سمين_'
'سمى_'
'سمعوا_'
'سمعت'
'سمع_'
'سمح'
'سمت'
'سمة_'
'سماعهم_'
'سماعه_'
'سماعك_'
'سلين'
'سليما'
'سلي_'
'سلوك_'
'سلها_'
'سلمت'
'سلفر'
'سلام'
'سلات'
'سكير'
'سكي'
'سكوت'
'سكوبي_'
'سكران_'
'سكاي_'
'سكان'
'سكاكين_'
'سكا_'
'سقو'
'سفي'
'سـل'
'سـأ'
'سعيده_'
'سعد'
'سعادة_'
'سطحي'
'سطح'
'سطا'
'سريع_'
'سرور'
'سروا'
'سرقنا_'
'سرقته_'
'سرعتي_'
'سرد'
'سراحه_'
'سراح_'
'سراح'
'سرا'
'سخر'
'سخاف'
'سخ_'
'سخ'
'سحري_'
'سحري'
'سحر_'
'سحر'
'سحب'
'سحاقية_'
'سح'
'سجي'
'ستين'
'ستيلا_'
'ستيفي_'
'ستيفن_'
'ستيف'
'ستون'
'سته_'
'سته'
'ستنف'
'ستنجح_'
'ستنا'
'ستن_'
'ستمر_'
'ستقوم'
'ستقول_'
'ستقر'
'ستفعلين_'
'ستفعلون_'
'ستفعل'
'ستغا'
'ستعمل'
'ستعرف_'
'ستعر'
'ستعد'
'ستعتق'
'ستظهر'
'ستطيعين_'
'ستضع'
'ستض'
'ستشتر'
'ستشارك'
'ستستطيع_'
'ستساعدن'
'ستسا'
'سترين'
'ستري'
'سترى_'
'سترسل_'
'سترحل'
'سترت'
'سترة_'
'ستذهب'
'ستدفع'
'ستخدم_'
'ستجلب'
'ستجعلني_'
'ستجعل_'
'ستجعل'
'ستجد_'
'ستتع'
'ستتص'
'ستترك_'
'ستترك'
'ستتح'
'ستتأ'
'ستبقين_'
'ستبد'
'ستاين_'
'ستان_'
'ستال'
'ستاف'
'ستارك_'
'ستار_'
'ستأك'
'ستأت'
'سبينس'
'سبيرو'
'سبير'
'سبه'
'سبة'
'سببت_'
'سباق_'
'سبار'
'سباح'
'ساهم'
'ساه'
'ساندي'
'ساندر'
'سانج'
'سانة_'
'سامحيني_'
'سالي_'
'سالت'
'ساقي_'
'ساقي'
'ساقو'
'سافل_'
'ساعي'
'ساعدون'
'ساعده'
'ساعدن'
'ساعدتن'
'ساعدت'
'ساعدة_'
'ساعد'
'ساري'
'ساذ'
'ساحرة_'
'ساتصل_'
'سابقة_'
'سائق_'
'سؤالي_'
'سأوصل'
'سأوا'
'سأه'
'سأنتق'
'سأنتظر_'
'سأنتظ'
'سأنت'
'سأنام_'
'سأنال_'
'سأمنح'
'سأمسك'
'سألني_'
'سألك_'
'سألتني_'
'سألتك_'
'سأكتب_'
'سأقو'
'سأقض'
'سأقد'
'سأفكر_'
'سأفتقد'
'سأفتح_'
'سأف'
'سأعل'
'سأعان'
'سأظ'
'سأضعها_'
'سأضطر_'
'سأضاجع'
'سأض'
'سأصر'
'سأساعدك_'
'سأريك'
'سأرسل'
'سأرحل_'
'سأرت'
'سأراه'
'سأدعك_'
'سأدخل_'
'سأخبره'
'سأحل_'
'سأحضرها_'
'سأحاول_'
'سأجلب'
'سأجعل_'
'سأتك'
'سأتعا'
'سأبعث'
'زيو'
'زيـ'
'زيغلر_'
'زيع_'
'زيار'
'زى_'
'زويلا_'
'زول'
'زوجين'
'زوجتـ'
'زوجت'
'زواجي_'
'زواجنا_'
'زهورا_'
'زهر'
'زه'
'زنه'
'زمني'
'زملا'
'زلهم_'
'زف_'
'زعج_'
'زعا'
'زراع'
'زحين'
'زجاجة_'
'زجاج_'
'زج'
'زتي_'
'زتها_'
'زتك_'
'زبي'
'زبول_'
'زبائن'
'زاني'
'زان_'
'زالوا_'
'زائدة_'
'زاء_'
'ريي'
'ريها'
'ريني_'
'رينالين_'
'ريم_'
'ريم'
'ريلا_'
'ريكي_'
'ريكي'
'ريكو'
'ريق_'
'ريفي'
'ريــ'
'ريط'
'ريده'
'ريجي_'
'ريتا_'
'ريال_'
'رياضي'
'رياضة_'
'روين'
'روه'
'روني'
'رونالد'
'رومن'
'رومانسيا_'
'رومان'
'روم'
'روزي_'
'روزن'
'روز'
'رودي_'
'روحه'
'روجي'
'روج'
'روث_'
'روبين'
'روبي'
'روبو'
'رواية_'
'رهي'
'رها'
'رمين'
'رموز_'
'رمل'
'رلي_'
'ركه'
'ركل'
'ركبتك_'
'ركبت_'
'ركا'
'رقوا_'
'رقمك_'
'رقصت'
'رقص'
'رقبتي_'
'رقبتك_'
'رقب'
'رقائق_'
'رفيق_'
'رفعت_'
'رفع'
'رفر'
'رفت'
'رفاق'
'رفات'
'رفا'
'رغما_'
'رغبتك'
'رعة_'
'رضي'
'رصاص'
'رصا'
'رسوم'
'رسو'
'رسمي'
'رسل_'
'رسام'
'رسالتي_'
'رسالتك'
'رسال'
'رز'
'رذ'
'ردو'
'رده'
'رخيص'
'رحيل_'
'رحيل'
'رحلتك_'
'رجول'
'رجلنا_'
'رجع'
'رجح_'
'رجان'
'رث'
'رتي'
'رتها_'
'رته_'
'رتنا_'
'رتك'
'رتا'
'رة'
'ربيك'
'ربية_'
'ربو'
'ربه'
'ربت'
'رايموند_'
'رايتشل_'
'راودن'
'راهنت_'
'راهب'
'راني'
'راند'
'رانا_'
'رامون_'
'رالف_'
'رال_'
'راقبه'
'راق_'
'رافعة_'
'راغ'
'راعي_'
'راعي'
'راضي'
'راش'
'راسل'
'راسك'
'راست'
'رار'
'رادو'
'راحل'
'راح'
'راجع_'
'راجا'
'راتيجي'
'راتش'
'رائعين_'
'رائحتها_'
'رائحته_'
'رائحتك_'
'رائح'
'رئيست'
'رئتي'
'رئة_'
'رؤيه_'
'رؤيا_'
'رؤس'
'رؤ'
'رأيناه'
'رأيتي_'
'رأيتهم_'
'رأي'
'رأسها_'
'رأت'
'ذيل'
'ذوق_'
'ذوفات_'
'ذهني_'
'ذهنك_'
'ذهبي_'
'ذهبت'
'ذني_'
'ذنب'
'ذن_'
'ذلكـ_'
'ذكيا_'
'ذكري'
'ذكرت'
'ذكرا'
'ذكائ'
'ذكاء_'
'ذك'
'ذراعي_'
'ذراع_'
'ذرا'
'ذت_'
'ذبون_'
'ذبح'
'ذاهبون_'
'ذاه'
'ذاكرتي_'
'ذاك'
'ذار'
'ذاتي_'
'ذاتها_'
'ذاته_'
'ذاب_'
'ذئ'
'ديين_'
'دييجو_'
'ديوم_'
'ديو_'
'ديو'
'دينوزو_'
'ديمتري'
'ديلو'
'ديلان_'
'ديكستر_'
'ديفيس_'
'ديدة_'
'ديث_'
'ديب_'
'ديان_'
'دويل_'
'دوم'
'دولي'
'دولارا_'
'دول'
'دوك'
'دورى_'
'دورن'
'دوران_'
'دورا'
'دودة_'
'دوج_'
'دوت'
'دوب'
'دوائر_'
'دواء_'
'دهر'
'دهاك_'
'دها'
'دمي_'
'دمرت_'
'دمج_'
'دماغك_'
'دلو'
'دلت'
'دكتوره_'
'دكتورة_'
'دقيق_'
'دقي'
'دقك'
'دقة_'
'دقات_'
'دفعة_'
'دفا'
'دعوني_'
'دعون'
'دعوتك_'
'دعتن'
'دعت'
'دعاب'
'درين_'
'دريك'
'دري_'
'دروع_'
'دروس'
'درك'
'درست_'
'درسا_'
'دربت'
'درب_'
'درام'
'دراسة_'
'دراجة_'
'دراج'
'ددة_'
'دخان_'
'دثت'
'دثة_'
'دتها_'
'دتن'
'دتك'
'دايان'
'داي_'
'داوس'
'داو'
'دانيل_'
'دالي'
'دافيد_'
'دافع_'
'دافئ_'
'داف_'
'داع_'
'داري'
'دارك'
'داد'
'داخلية_'
'داخله'
'داخ'
'داث_'
'داب_'
'دائرة_'
'دائر'
'خيو'
'خيف'
'خيري'
'خيال'
'خيا'
'خول_'
'خول'
'خوف_'
'خور'
'خنت_'
'خمن'
'خمسون_'
'خمر_'
'خما'
'خم_'
'خم'
'خليلة_'
'خليل_'
'خليج_'
'خلية_'
'خلو'
'خلها_'
'خلق'
'خلفها_'
'خلع'
'خلسة_'
'خلايا'
'خلالها_'
'خفيفة_'
'خفي_'
'خــ'
'خطور'
'خطواتك_'
'خططت'
'خطرا_'
'خطتنا_'
'خطت'
'خطئا_'
'خطئ'
'خضم_'
'خصيتي'
'خصوصي'
'خصم'
'خسر_'
'خسارة_'
'خسائر'
'خزانتك_'
'خزانة_'
'خريطة_'
'خروجه'
'خروج_'
'خرجوا_'
'خرة'
'خرب'
'خذى_'
'خذها_'
'خدي'
'خدمها_'
'ختم'
'ختل'
'ختبر'
'خت_'
'خبي'
'خبئ'
'خان'
'خام_'
'خافت_'
'خاطر'
'خاط'
'خاصت'
'خارجة_'
'خاذ_'
'خادمتك_'
'خاد'
'خات'
'خائن'
'حيوي'
'حيل'
'حيـات'
'حير'
'حياله'
'حياتكم'
'حى_'
'حولي'
'حولنا_'
'حول'
'حوالى_'
'حواف'
'حواج'
'حواء_'
'حو_'
'حميم'
'حمي'
'حمله'
'حمايت'
'حلي'
'حلوة_'
'حلو'
'حله_'
'حلمي_'
'حلمت_'
'حلقت'
'حلقات_'
'حلف'
'حلا_'
'حلا'
'حكومة_'
'حقيقي'
'حقي_'
'حقون'
'حقائ'
'حقآ_'
'حفن'
'حفظ_'
'حفرت'
'حف'
'حظيت_'
'حظي_'
'حظت'
'حضورك_'
'حضن_'
'حضرتك_'
'حضرت_'
'حضار'
'حض'
'حصول_'
'حصو'
'حصلت'
'حصل'
'حصا'
'حسنـ'
'حسن'
'حسـ'
'حسبك_'
'حساسية_'
'حس_'
'حزينه_'
'حزن'
'حركات_'
'حرق_'
'حرفيا_'
'حرر'
'حرب'
'حراس_'
'حرارة_'
'حذرك_'
'حذا'
'حديق'
'حديد'
'حدود'
'حدث'
'حدة_'
'حثالة_'
'حته'
'حتفهم_'
'حترم_'
'حبين_'
'حبيبك_'
'حبيبتى_'
'حبيب_'
'حبو'
'حبها_'
'حبر'
'حاولوا_'
'حاو'
'حالكم_'
'حالته'
'حالتك_'
'حاكم_'
'حاكم'
'حاك'
'حاق'
'حافلة'
'حاسوبي'
'حاسوب_'
'حاسم'
'حارس'
'حاد_'
'حاث'
'حاب_'
'حاب'
'حائ'
'حاء_'
'جينين'
'جينيف'
'جيلي'
'جيكي'
'جيفير'
'جيش'
'جيسون_'
'جيس_'
'جيرا'
'جية_'
'جيبو'
'جيبك_'
'جيان_'
'جويل_'
'جويس_'
'جوه'
'جونس'
'جونا'
'جوم'
'جوليت_'
'جوليانا_'
'جولات_'
'جوردون_'
'جوردن_'
'جور'
'جودو'
'جودة_'
'جود'
'جوثام_'
'جوان_'
'جوان'
'جوارب'
'جوا_'
'جهوا'
'جهه'
'جهدنا_'
'جهد'
'جهت'
'جهة_'
'جها_'
'جنية_'
'جني_'
'جني'
'جنوب'
'جنت'
'جناز'
'جناح_'
'جمهوري'
'جمهور_'
'جمل'
'جمجمت'
'جمان_'
'جمالا_'
'جماعت'
'جماعة_'
'جماع'
'جليد'
'جلوريا_'
'جلست'
'جلده'
'جلة_'
'جلبته'
'جلالت'
'جك_'
'جـمـ'
'جـــ'
'جـر'
'جـد'
'جعه'
'جعلو'
'جعلنا_'
'جعلتهم_'
'جعلته_'
'جعلتن'
'جعلت'
'جعت'
'جش'
'جسمي_'
'جسم_'
'جسديا_'
'جزيرة_'
'جزر_'
'جزا'
'جزئي'
'جز'
'جريفي'
'جرت'
'جربي_'
'جربت'
'جربة_'
'جرائم_'
'جرأة_'
'جذو'
'جذب'
'جذ_'
'جدوى_'
'جدو'
'جده'
'جدران_'
'جدتى_'
'جدتك_'
'جدت_'
'جدال_'
'جثث_'
'جثته_'
'جث_'
'جث'
'جتم'
'جبي'
'جبه'
'جبن'
'جبار'
'جبات_'
'جايك'
'جاهيل_'
'جاني'
'جانبي'
'جالو'
'جاك'
'جاس_'
'جاري_'
'جابة_'
'جأت'
'جأ'
'ثيو_'
'ثيرة_'
'ثير'
'ثيات'
'ثوق'
'ثورة_'
'ثور'
'ثوب'
'ثواني_'
'ثوانى_'
'ثوا_'
'ثه_'
'ثني'
'ثمنها_'
'ثملا_'
'ثماني'
'ثمان'
'ثلث_'
'ثلاثي'
'ثلاثون_'
'ثلاثه_'
'ثلا'
'ثك'
'ثقيل_'
'ثقيل'
'ثقـ'
'ثرث'
'ثرة_'
'ثر'
'ثبات'
'ثالث_'
'ثارة_'
'ثار'
'ثات_'
'ثا_'
'تينا'
'تيك'
'تيش'
'تيس'
'تيت'
'تيال'
'توكي'
'توقفو'
'توقع_'
'توفيت_'
'توفي_'
'توضيح'
'توض'
'توصلن'
'توصلت'
'توصل'
'توزيع_'
'توري_'
'توري'
'تورا'
'تود'
'توجه_'
'توجه'
'توبا'
'تواعد'
'تواصل_'
'تواجه'
'تواجد_'
'تهو'
'تهل'
'تهرب_'
'تهر'
'تهديدات'
'تهديدا_'
'تهدأ'
'تهتمين_'
'تهاتف'
'تها'
'تنهد'
'تنقل_'
'تنقذ'
'تنفيذي'
'تنفيذ'
'تنظف_'
'تنظري_'
'تنضم_'
'تنض'
'تنزل'
'تندم'
'تنجر'
'تنتق'
'تنتظرون'
'تنبيه'
'تناولت'
'تنام'
'تنافسي'
'تناد'
'تمييز'
'تميز_'
'تمويل'
'تمهلي_'
'تمه_'
'تمه'
'تمنحني_'
'تملك'
'تمكن_'
'تمشي'
'تمس'
'تمثل'
'تمث'
'تمتع_'
'تمتص_'
'تمانعي_'
'تمال_'
'تماسكي_'
'تماسك'
'تمازحني_'
'تلوم'
'تلنا'
'تلمسني_'
'تلم'
'تلقوا_'
'تلفزيوني_'
'تلف'
'تلط'
'تلبسي_'
'تلاش'
'تلاحقني_'
'تكونى_'
'تكونو'
'تكنولوجيا_'
'تكمل_'
'تكما'
'تكم'
'تكلم'
'تكلف'
'تكل_'
'تكس'
'تكرر_'
'تكرار'
'تكتب'
'تكبر_'
'تكاف'
'تكا'
'تقي_'
'تقي'
'تقويم_'
'تقوليه'
'تقولو'
'تقولها_'
'تقودن'
'تقنيا_'
'تقني'
'تقليد_'
'تقليد'
'تقفز_'
'تقطيع_'
'تقصد'
'تقص_'
'تقسيم'
'تقس'
'تقرأه'
'تقديره'
'تقدمن'
'تقتله'
'تقت'
'تقبيل'
'تقال'
'تقارير_'
'تقارير'
'تقابليه'
'تقابلت'
'تق_'
'تفوي'
'تفوق'
'تفوح_'
'تفو'
'تفهمين_'
'تفهمي_'
'تفهمون_'
'تفهمو'
'تفل'
'تفكيره'
'تفكرو'
'تفكر'
'تفقدي'
'تفقده'
'تفقد'
'تفعليه_'
'تفعلو'
'تفعل'
'تفظ_'
'تفريغ'
'تفحص_'
'تفاصيل_'
'تفاح_'
'تفاج'
'تـم'
'تـقـتـل_'
'تـق'
'تـف'
'تـر'
'تـذ'
'تغيير'
'تغني_'
'تغلبت_'
'تغطي'
'تغضب'
'تغادر'
'تعيش'
'تعيده'
'تعيد_'
'تعني'
'تعلو'
'تعلمى_'
'تعلمت'
'تعلمان_'
'تعقيد'
'تعقب_'
'تعطي'
'تعرفينه'
'تعرفوا_'
'تعرض'
'تعر_'
'تعديت'
'تعدي'
'تعجب'
'تعثر_'
'تعتقدي_'
'تعتاد'
'تعة'
'تعبير_'
'تعبث_'
'تعاون'
'تعاود'
'تعان'
'تعال'
'تعاقب'
'تعاطي_'
'تعازي_'
'تعارك'
'تظني'
'تظنه'
'تظنني'
'تظار'
'تطيعي'
'تطيع_'
'تطو'
'تطلبي_'
'تطلبه'
'تطلب'
'تطل_'
'تطابق_'
'تضم'
'تضع'
'تضرب_'
'تضح'
'تضاجع_'
'تصويت'
'تصنعو'
'تصنع_'
'تصفي'
'تصغي'
'تصعد_'
'تصحيح_'
'تصا'
'تشين_'
'تشين'
'تشيل'
'تشيك_'
'تشيس_'
'تشيتش'
'تشل_'
'تشك_'
'تشف'
'تشـ'
'تشعر'
'تشع_'
'تشبه'
'تشاهدين'
'تشاهد_'
'تشاند'
'تشار'
'تشاب'
'تسوق_'
'تسميه_'
'تسمعين'
'تسلق'
'تسلسل'
'تسكن_'
'تسـ'
'تسعد'
'تسع_'
'تسرق'
'تسرع_'
'تسرب_'
'تسر'
'تسديد'
'تستمعي'
'تستم'
'تستف'
'تستغرق_'
'تستغ'
'تستعمل'
'تستع'
'تستطيعي_'
'تستط'
'تستخدمه'
'تستخ'
'تساوي_'
'تسام'
'تساعدي'
'تساعده'
'تسألي'
'تزوجت'
'تزوج_'
'تزعجني_'
'تريه'
'تريش'
'تريدينن'
'تريدو'
'تريده'
'تريدنى_'
'تريدك_'
'ترون'
'ترود'
'تركيز'
'تركها_'
'تركه_'
'تركته_'
'ترقصي'
'ترقص_'
'ترفع_'
'ترف_'
'ترف'
'ترغ'
'ترعر'
'ترع'
'ترد_'
'ترخيص'
'ترحي'
'ترحلي'
'ترتيبات_'
'ترتديه'
'ترتدي_'
'تربيت'
'تربح'
'تراو'
'ترام'
'تراق'
'تراجعوا_'
'تراب_'
'تذكرين_'
'تذكرني_'
'تذكرت_'
'تذكار'
'تدين_'
'تدي_'
'تدي'
'تدميره'
'تدق'
'تدف'
'تدعين'
'تدعي'
'تدعو'
'تدعها_'
'تدعن'
'تدعم'
'تدرس'
'تدخلين_'
'تداء_'
'تخمين'
'تخلي'
'تخلى_'
'تخلصت_'
'تخلص'
'تخفي_'
'تخطي_'
'تخطي'
'تخطط_'
'تخطط'
'تخط'
'تخص'
'تخشي'
'تخشى_'
'تخرجين'
'تخرجو'
'تخرب'
'تخدع'
'تخد'
'تختل'
'تختبر'
'تختبئ'
'تخت'
'تخبريها_'
'تخبرينني_'
'تخبرينا_'
'تخبري_'
'تخبرنى_'
'تخبرك_'
'تخبر_'
'تخافي'
'تخاف'
'تخاط'
'تخ_'
'تحية_'
'تحميل'
'تحملها_'
'تحمله_'
'تحملت'
'تحم'
'تحلق_'
'تحل_'
'تحك'
'تحقيقه'
'تحقيقات'
'تحفظ'
'تحصلين_'
'تحص'
'تحسي'
'تحس_'
'تحس'
'تحرير_'
'تحركات'
'تحرك'
'تحدثت'
'تحدث'
'تحتس'
'تحترم'
'تحتاجون_'
'تحتاجها'
'تحبي'
'تحبك_'
'تحال'
'تحارب'
'تجني'
'تجنب'
'تجميل_'
'تجميد'
'تجعلين'
'تجعله_'
'تجعلنا_'
'تجعلك_'
'تجريب'
'تجربي'
'تجرؤي_'
'تجر_'
'تجدي'
'تجت'
'تجب'
'تجاهه'
'تجارب_'
'تجارب'
'تجار'
'تثير_'
'تثق'
'تثبيت'
'تثبت_'
'تتوقع'
'تتواصل_'
'تتواجد'
'تتناوله'
'تتن'
'تتمنى_'
'تتما'
'تتل'
'تتكرر_'
'تتفو'
'تتفهم'
'تتفا'
'تتعرض_'
'تتعر'
'تتعب'
'تتع'
'تتظاهر'
'تتط'
'تتشاجر'
'تتشاب'
'تتسوق'
'تتزوج'
'تتر'
'تتذكري'
'تتذ'
'تتدخل'
'تتخيل'
'تتخط'
'تتخذ'
'تتحمل_'
'تتحمل'
'تتحكم_'
'تتحسن'
'تتحرك'
'تتحد_'
'تتبول_'
'تتبعن'
'تتأكد_'
'تتأرجح_'
'تتأ'
'تبين_'
'تبيع_'
'تبول'
'تبلي'
'تبلغ_'
'تبك'
'تبري'
'تبديل_'
'تبدوا_'
'تبحثون_'
'تبح'
'تبال'
'تباع_'
'تبادل'
'تايت'
'تايبي'
'تاون_'
'تاو'
'تاني_'
'تانغو_'
'تاند'
'تانا'
'تاما'
'تام'
'تالبو'
'تاك_'
'تاشا_'
'تاس'
'تاخذ_'
'تاخ'
'تاجين_'
'تاجر'
'تات'
'تاة_'
'تابع'
'تئ'
'تؤمن_'
'تؤلمني_'
'تؤذي_'
'تؤثر_'
'تأكلي_'
'تأكد'
'تأك'
'تأذي'
'تأخر'
'تأخذين'
'تأخذون'
'تأخذ'
'تأخ_'
'تأخ'
'تأثير_'
'تأب'
'ت'
'ةمن'
'ةف'
'ةح'
'ةا'
'بيي'
'بيون'
'بيوتكم_'
'بينهما_'
'بينس'
'بينج'
'بينت'
'بيكر_'
'بيف'
'بيـ'
'بيري_'
'بيرغ'
'بيرس'
'بيرد'
'بيرا'
'بيدك_'
'بيجام'
'بيته'
'بيتك_'
'بيتسي_'
'بيتس_'
'بيبي_'
'بياتريس_'
'بيا'
'بيئ'
'بويد_'
'بوند_'
'بولين_'
'بولي_'
'بوعد'
'بوط_'
'بوضعه_'
'بوش_'
'بوسعه'
'بوسطن_'
'بوريس_'
'بورغ'
'بوذا_'
'بوجوده_'
'بوت_'
'بوالدت'
'بوالد'
'بواسطت'
'بوارو_'
'بوابة_'
'بواب'
'بهين_'
'بهي'
'بهذ'
'بها'
'بنى_'
'بنو'
'بنطاله'
'بنز'
'بند'
'بموق'
'بموجب_'
'بمهمة_'
'بمه'
'بمنت'
'بمك'
'بمقد'
'بمقابلتك_'
'بمق'
'بمفرده_'
'بمفردكم_'
'بمعرفة_'
'بمعر'
'بمط'
'بمصا'
'بمسح_'
'بمسا'
'بمرض'
'بمد'
'بمثل_'
'بمال'
'بمأمن_'
'بليل'
'بلوم_'
'بلمس'
'بلغت_'
'بلع'
'بلد_'
'بلد'
'بلح'
'بلت_'
'بلة_'
'بلاين_'
'بلانك'
'بلاك_'
'بلاك'
'بلادي_'
'بلات'
'بلاء'
'بكي'
'بكو'
'بكلمة_'
'بكرا'
'بكر'
'بكامل'
'بقين'
'بقول'
'بقوا'
'بقو'
'بقليل_'
'بقلب'
'بقسو'
'بقرار'
'بقدو'
'بقد'
'بقة_'
'بقا'
'بفكر'
'بفقدان_'
'بفعله'
'بفحص'
'بفتح_'
'بـه_'
'بـــ'
'بـأن'
'بغي'
'بغل'
'بغرابة_'
'بغاية_'
'بعيد'
'بعي_'
'بعمله_'
'بعملك_'
'بعمق_'
'بعمر'
'بعلم'
'بعلاق'
'بعك_'
'بعق'
'بعـض_'
'بعضكم_'
'بعرض_'
'بعدي_'
'بعث'
'بطيئ'
'بطول'
'بطو'
'بطن'
'بطلب'
'بطفل_'
'بطفل'
'بطع'
'بطريقت'
'بطريق'
'بطاقات'
'بطابقين_'
'بصو'
'بصمات'
'بصم'
'بصفق'
'بصف'
'بصري_'
'بصر'
'بصدد'
'بصدا'
'بصحبت'
'بصب'
'بشي'
'بشع_'
'بشرية_'
'بشخص'
'بشان_'
'بشا'
'بشأننا_'
'بشأنك_'
'بسون_'
'بسما'
'بسم'
'بسلا'
'بسري'
'بسج'
'بسببك_'
'بسب'
'بساق'
'بساعة_'
'بساط'
'بزيار'
'برينا'
'بريك'
'بريغز_'
'بريست'
'بريجز_'
'بريتش'
'بريئة_'
'بريئا_'
'بروكلين_'
'بروس_'
'بروس'
'برودو'
'برو_'
'برها'
'برني'
'برنامج'
'برميل'
'برمي'
'بركة_'
'بركات'
'برق'
'برفق_'
'برغبت'
'برغ_'
'برس'
'برد'
'برجل'
'برج'
'براند'
'براز'
'برادو'
'برائ'
'برؤيت'
'برأس'
'بذل_'
'بدين_'
'بديلة_'
'بديع'
'بدونه'
'بدون'
'بدم'
'بدل_'
'بدل'
'بدقة_'
'بدف'
'بداي'
'بدال'
'بخيان'
'بخصوص'
'بخدم'
'بخداع'
'بخا'
'بخ_'
'بحيرة_'
'بحياتي_'
'بحياتك_'
'بحياة_'
'بحوزته'
'بحمل'
'بحس'
'بحرية_'
'بحرق_'
'بحذ'
'بحج'
'بحب_'
'بحار_'
'بجوار_'
'بجنو'
'بجانبك_'
'بجائز'
'بثم'
'بثلا'
'بتي_'
'بتي'
'بتوق'
'بتهمة_'
'بتنظيفها_'
'بتنظي'
'بتم'
'بتقدي'
'بتفجير_'
'بتف'
'بتعلي'
'بتعق'
'بتشغيل_'
'بتسم'
'بتسلي'
'بتس'
'بتز'
'بتركيب'
'بتذكر'
'بتد'
'بتاتا_'
'بتأ'
'ببيعها_'
'ببل'
'ببعضنا_'
'ببعض'
'ببطاقة_'
'ببط'
'ببد'
'بايلي_'
'بايس'
'باول_'
'باول'
'باه_'
'بانيا_'
'بانني_'
'بانك_'
'بانك'
'بانتظار'
'بامو'
'بامكان'
'بام_'
'بالوق'
'بالوحدة_'
'بالنهاية_'
'بالنسبه_'
'بالمي'
'بالمنا'
'بالملل_'
'بالمكتب_'
'بالمكان_'
'بالمط'
'بالمصعد_'
'بالمست'
'بالمساعد'
'بالمدينة_'
'بالمج'
'بالليل_'
'باللغة_'
'بالكل'
'بالقيام_'
'بالقوة_'
'بالقلق_'
'بالقص'
'بالقد'
'بالقتلة_'
'بالفر'
'بالفتيات_'
'بالـ'
'بالغيرة_'
'بالغضب_'
'بالغسيل_'
'بالغد_'
'بالغ_'
'بالعودة_'
'بالعق'
'بالعالم_'
'بالصور'
'بالصدف'
'بالصد'
'بالشوكولا'
'بالشه'
'بالشع'
'بالسن'
'بالسك'
'بالسعادة_'
'بالسا'
'بالرحلة_'
'بالرجال_'
'بالرج'
'بالراحة_'
'بالذ'
'بالدماء_'
'بالدخول_'
'بالخلف_'
'بالخط'
'بالخز'
'بالحياة_'
'بالحم'
'بالحقي'
'بالحال'
'بالحاج'
'بالجنون_'
'بالجنو'
'بالجمي'
'بالجراح'
'بالجامعه_'
'بالثل'
'بالتيمور_'
'بالتوق'
'بالتق'
'بالتفا'
'بالتحدث_'
'بالتح'
'بالتج'
'بالبي'
'بالام'
'بالاع'
'بالاضافة_'
'بالاض'
'بالاش'
'بالاج'
'بالإن'
'بالإع'
'بالإس'
'بالإح'
'بالإتصال_'
'بالأن'
'بالألم_'
'بالأطفال_'
'بالأضافة_'
'بالأش'
'بالأر'
'باكو_'
'باك_'
'باقي'
'باغ'
'باعه'
'باستطاعتنا_'
'باستر_'
'بارو'
'بارن'
'بارس'
'باردة_'
'بارت'
'بارات'
'باحثة_'
'باتم'
'باتشي'
'بابلو_'
'بائ'
'بئ_'
'بإيجاد'
'بإن_'
'بإمكانها_'
'بإعطائك_'
'بإعط'
'بإعداد_'
'بإص'
'بإزال'
'بإرسال_'
'بإخت'
'بأي'
'بأى_'
'بأول'
'بأننى_'
'بأنفس'
'بأموال'
'بأل'
'بأفضل_'
'بأغ'
'بأط'
'بأص'
'بأشياء_'
'بأسل'
'بأر'
'بأد'
'بأحسن_'
'بآخر_'
'ايو'
'اين'
'ايمي_'
'ايمان'
'ايلان'
'ايل_'
'ايل'
'ايقاف'
'ايس'
'ايد_'
'اياك'
'ايا_'
'ايا'
'اوي_'
'اووه_'
'اون_'
'اولاد'
'اوض'
'اوراق'
'اهي'
'اهمي'
'اهل_'
'اهزم'
'اهرب'
'اهدئي_'
'اهتمام_'
'اهتمام'
'انوا'
'انهضي_'
'انقاذ'
'انق_'
'انفجار_'
'انع'
'انظرى_'
'انظ'
'انطباع_'
'انصت'
'انسي'
'انسا'
'انزل'
'انز'
'اندي'
'اندري'
'اندا_'
'انته'
'انتقل'
'انتقاد'
'انتق'
'انتظرى_'
'انتظرني_'
'انتزاع_'
'انتحاري'
'انتبهوا_'
'انتباه_'
'امها_'
'امه'
'امعة_'
'امض_'
'امسا'
'امس_'
'امرأه_'
'امتياز'
'امة_'
'اليوناني'
'اليومي'
'اليور'
'اليهودي'
'اليهو'
'اليمنى_'
'اليكس_'
'اليسون_'
'اليسرى_'
'اليست'
'اليس'
'اليد'
'الويس'
'الوهم'
'الولادة_'
'الول'
'الوك'
'الوف'
'الوعد_'
'الوط'
'الوش'
'الوس'
'الوري'
'الوحيد'
'الوحوش_'
'الوحد'
'الوجود_'
'الوجبة_'
'الوث'
'الوب'
'الواق'
'الواضحة_'
'الواج'
'الو_'
'الهيكل_'
'الهوية_'
'الهنود_'
'الهلا'
'الهر'
'الهدي'
'الهد'
'الهجمات_'
'الهجر'
'الهال'
'الهاد'
'الها_'
'النهائية_'
'النموذج_'
'النمط_'
'النمر_'
'النقيب_'
'النقاش_'
'النفس_'
'النفايات_'
'النعي'
'النشاط_'
'النسبة_'
'النزي'
'النزل'
'النرجسية_'
'الند'
'النجم_'
'النجاة_'
'النتائج_'
'النبي'
'النبض'
'الناس'
'النارية_'
'النادر'
'الميل'
'الميزانية_'
'الميدان_'
'الميت_'
'الموه'
'الموظفين_'
'الموض'
'الموسم'
'الموجودين_'
'الموجودة_'
'الموجود_'
'المواقع_'
'المواعيد_'
'المواص'
'الموارد_'
'المواد_'
'المواجه'
'المهز'
'المهارة_'
'المهاجر'
'المنقو'
'المنف'
'المنغ'
'المنشود'
'المند'
'المنحرف_'
'المنتجع_'
'المنت'
'المنبع_'
'المناسب'
'المملكة_'
'الممل'
'الممرض'
'الممتلكات_'
'الممت'
'المليون_'
'الملعون_'
'الملح_'
'الملايين_'
'الملاكمة_'
'الملاك_'
'المكو'
'المقصورة_'
'المقصود_'
'المقصد_'
'المقر_'
'المقدم'
'المقدس'
'المقدر'
'المقبل_'
'المقبرة_'
'المقال'
'المفقود'
'المفتوح'
'المفت'
'المفاجئ'
'المفاج'
'المفا'
'المغناطيسي'
'المغلق'
'المغف'
'المغا'
'المعمل_'
'المعطف_'
'المعروف'
'المعدل'
'المعتق'
'المعتد'
'المعتادة_'
'المعاناة_'
'المعاد'
'المظلمة_'
'المطلوب_'
'المطلق'
'المطرق'
'المطب'
'المطار_'
'المطاب'
'المضحك'
'المضاد'
'المضا'
'المصن'
'المصل'
'المصري'
'المصرف'
'المصدر_'
'المصباح_'
'المصار'
'المشع'
'المشروبات_'
'المشاهير_'
'المشاهد'
'المسيحي'
'المسما'
'المسع'
'المسرحي'
'المسد'
'المسحوق_'
'المسج'
'المستوطن'
'المستمر_'
'المستقبلي'
'المستع'
'المستط'
'المستشفي_'
'المسؤول'
'المزد'
'المريض_'
'المركزية_'
'المركبة_'
'المرضى'
'المرح'
'المرب'
'المراف'
'المراسم_'
'المراسل'
'المراس'
'المدى_'
'المدهش'
'المدن_'
'المدفع'
'المدعو'
'المدربين_'
'المدارس_'
'المدار'
'المخي'
'المخط'
'المخد_'
'المختلفة_'
'المختطف'
'المختص'
'المخبر'
'المخب'
'المخاطره_'
'المحيطات_'
'المحلي_'
'المحف'
'المحدد_'
'المحترم_'
'المحترم'
'المحترق'
'المحترف'
'المحتال'
'المحامين_'
'المحامي'
'المحادث'
'المجو'
'المجهول_'
'المجن'
'المجئ_'
'المثير_'
'المثق'
'المثالي'
'المتوقع'
'المتهم_'
'المتن'
'المتعلقة_'
'المتعل'
'المتعا'
'المتط'
'المتص'
'المتحف_'
'المتج'
'المتبق'
'المتاجر'
'المتا'
'المتأ'
'المبكر_'
'المباني_'
'المباد'
'المايكرو'
'المئات_'
'المؤخرة_'
'المألوف_'
'الليالي_'
'اللقيط_'
'اللقب_'
'اللغة_'
'اللص_'
'اللذين_'
'اللحظ'
'اللبا'
'اللاسلكي'
'اللاز'
'اللاح'
'الكيمياء_'
'الكيس'
'الكونغ_'
'الكونغ'
'الكونجرس_'
'الكوم'
'الكوك'
'الكوري'
'الكوخ_'
'الكهربائية_'
'الكهرباء_'
'الكهربا'
'الكمي'
'الكمال_'
'الكم_'
'الكم'
'الكلى_'
'الكلم'
'الكلاسيكية_'
'الكفاح_'
'الكشاف'
'الكريمة_'
'الكثيرين_'
'الكت'
'الكبيره_'
'الكبسول'
'الكبرى_'
'الكبد'
'الكبار_'
'الكاهن_'
'الكاميرات'
'الكام'
'الكافي_'
'الكافي'
'الكات'
'الكائنات_'
'الكائن_'
'القيو'
'القيم'
'القي_'
'القوا'
'القندس_'
'القنب'
'القناص'
'القناة_'
'القنابل_'
'القمة_'
'القلو'
'القلم_'
'القطعة_'
'القطبي'
'القط_'
'القضيب_'
'القضا'
'القصير_'
'القصص_'
'القش'
'القسم_'
'القس'
'القريب'
'القرف'
'القرد'
'القذرة_'
'القذا'
'القدي'
'القدماء_'
'القتلة_'
'القت'
'القبر_'
'القانوني_'
'القاسي'
'القار'
'القاتلة_'
'الفيزيائي'
'الفير'
'الفيدراليين_'
'الفيدرالي_'
'الفيت'
'الفول_'
'الفم_'
'الفلم_'
'الفشل_'
'الفريد'
'الفرنسي'
'الفرن_'
'الفرق'
'الفرعي_'
'الفرص'
'الفرد'
'الفح'
'الفتي'
'الفاي'
'الفان'
'الفاصوليا'
'الفاشي'
'الفاسد'
'الفارغ'
'الفائدة_'
'الفأر_'
'الـت'
'الـ3'
'الـ10_'
'الغولف_'
'الغني'
'الغموض_'
'الغطاء_'
'الغضب_'
'الغسيل_'
'الغرض_'
'الغرب'
'الغرا'
'الغذا'
'الغباء_'
'الغامض'
'الغالب_'
'العوده_'
'العوائ'
'العو'
'العنيفة_'
'العنق'
'العنف_'
'العناء_'
'العمال_'
'العم'
'العليا_'
'العلو'
'العلمي'
'العلكة_'
'العقو'
'العقلية_'
'العقد'
'العفن_'
'العظمي_'
'العظمة_'
'العظام_'
'العطلات_'
'العضل'
'العصير_'
'العصابة_'
'العصاب'
'العص'
'العشب_'
'العسكرية_'
'العرق_'
'العربي'
'العراق_'
'العدوى_'
'العدة_'
'العدا'
'العبقري_'
'العاملين_'
'العالمية_'
'العاري'
'العارض'
'الظه'
'الظروف_'
'الطيب_'
'الطيار_'
'الطو'
'الطلاء_'
'الطلا'
'الطل'
'الطفولة_'
'الطراز_'
'الطبي'
'الطاولات_'
'الطالب'
'الطاقه_'
'الطائر_'
'الط_'
'الضيوف_'
'الضي'
'الضوضاء_'
'الضو'
'الضف'
'الضعف'
'الضري'
'الضربة_'
'الضباب_'
'الصيفي_'
'الصيادين_'
'الصوا'
'الصناع'
'الصناديق_'
'الصمود_'
'الصفراء_'
'الصغي'
'الصغار_'
'الصعوب'
'الصراخ_'
'الصديق'
'الصداق'
'الصداع_'
'الصخرة_'
'الصحيحة_'
'الصحي'
'الصحفي'
'الصحراء_'
'الصحافة_'
'الصبيان'
'الصامت_'
'الصالح'
'الصاروخ_'
'الصائب_'
'الشيوع'
'الشيوخ_'
'الشيك_'
'الشيطان'
'الشيئ_'
'الشىء_'
'الشوكولات'
'الشوربة_'
'الشهيرة_'
'الشهود_'
'الشمع'
'الشمالية_'
'الشقي'
'الشفقة_'
'الشفر'
'الشفاه_'
'الشعب'
'الشط'
'الشرو'
'الشركاء_'
'الشرعي_'
'الشديد_'
'الشحن'
'الشجر'
'الشجاع_'
'الشجار_'
'الشبح_'
'الشبان_'
'الشام'
'الشاحن'
'السين'
'السيـ'
'السيده_'
'السياسي_'
'السياره_'
'السيا'
'السوداني_'
'السود_'
'السوء_'
'السهول'
'السه'
'السمينة_'
'السموم_'
'السماوي_'
'السماوات_'
'السماع_'
'السماع'
'السلبي'
'السلا'
'السكو'
'السكن_'
'السكر'
'السكان'
'السقي'
'السفن_'
'السفارة_'
'السفا'
'السف'
'السعر'
'السطو_'
'السط'
'السري'
'السد'
'السخيف'
'السخري'
'السحرية_'
'السحر'
'السجلات_'
'السباغيتي_'
'الساف'
'السار'
'السادس_'
'الساد'
'الساحل_'
'الساب'
'السائ'
'الس'
'الزيت_'
'الزيا'
'الزي'
'الزومبي_'
'الزوجي'
'الزوا'
'الزنزان'
'الزنجي_'
'الزمان'
'الزل'
'الزجاجة_'
'الزجاج'
'الزبد'
'الزبا'
'الزاوية_'
'الز_'
'الريفي_'
'الريش'
'الرياضية_'
'الرياضيات_'
'الرياضي_'
'الروك_'
'الروسية_'
'الروحي'
'الروا'
'الرهائن_'
'الرقمي_'
'الرقبة_'
'الرقاق'
'الرص'
'الرسو'
'الرسمي'
'الرداء_'
'الرحمة_'
'الرحلات_'
'الرجلين_'
'الرجاء_'
'الربع_'
'الربط'
'الربح_'
'الراي'
'الراقص'
'الراعي_'
'الراد'
'الرائد'
'الرئيسي'
'الرئيس'
'الرئ'
'الذهبية_'
'الذهبي'
'الذك'
'الذرة_'
'الذات'
'الدينية_'
'الدين_'
'الدين'
'الديمقراطي_'
'الديك'
'الديس'
'الدونات_'
'الدولي_'
'الدولة_'
'الدولارات_'
'الدور'
'الدهون_'
'الده'
'الدمية_'
'الدلائل_'
'الدك'
'الدرس_'
'الدرج'
'الدراسة_'
'الدراس'
'الدجاج'
'الخيوط_'
'الخو'
'الخمسين'
'الخمسة_'
'الخمس'
'الخلو'
'الخـاص'
'الخطوط_'
'الخطرة_'
'الخطر_'
'الخضراء_'
'الخضر'
'الخصوصية_'
'الخزانة_'
'الخريط'
'الخدمات_'
'الختامي'
'الخب'
'الخاط'
'الخاص'
'الخارج'
'الخادم'
'الخ_'
'الحيو'
'الحيتان_'
'الحية_'
'الحياه_'
'الحوار'
'الحوادث_'
'الحن'
'الحمي'
'الحمل_'
'الحمق'
'الحمض_'
'الحم_'
'الحلوي'
'الحكيم_'
'الحكوم'
'الحكمة_'
'الحقول_'
'الحقوق_'
'الحقن'
'الحفله_'
'الحفلا'
'الحفر'
'الحظي'
'الحط'
'الحضارة_'
'الحضا'
'الحصـ'
'الحش'
'الحساس'
'الحسابات_'
'الحزينة_'
'الحزام_'
'الحروف_'
'الحرمان_'
'الحرار'
'الحذاء_'
'الحجز_'
'الحاوي'
'الحالات_'
'الحاسب'
'الحادية_'
'الجول'
'الجوز_'
'الجهد_'
'الجنود_'
'الجنوبية_'
'الجنسي_'
'الجنس'
'الجندي_'
'الجناز'
'الجناح'
'الجنائي_'
'الجمعي'
'الجمال_'
'الجماعي'
'الجليد'
'الجعة_'
'الجسدي'
'الجسد_'
'الجزيئ'
'الجز'
'الجريد'
'الجري'
'الجرعة_'
'الجراحي'
'الجراحة_'
'الجرا'
'الجدران_'
'الجدا'
'الجبل_'
'الجبان'
'الجب'
'الجاه'
'الجانبية_'
'الجامعي_'
'الجام'
'الجاذبية_'
'الجائع'
'الجائزة_'
'الج'
'الثيران_'
'الثور'
'الثنائ'
'الثمانين'
'الثم'
'الثرو'
'الث_'
'التوق'
'التور'
'التواصل_'
'التهم'
'التنفيذي_'
'التنف'
'التنصت_'
'التناني'
'التنازل'
'التمر'
'التمثال_'
'التما'
'التكنول'
'التكلفة_'
'التقي'
'التقو'
'التقني'
'التقليدية_'
'التقلي'
'التقط'
'التقدير_'
'التقدم_'
'التقبيل_'
'التقارير_'
'التفت'
'التغ'
'التعوي'
'التعلي'
'التعل'
'التعرف_'
'التعر'
'التعذيب_'
'التضحية_'
'التصرف_'
'التصديق_'
'التشخيص_'
'التسكع_'
'التزام'
'التركيز_'
'الترحيب_'
'التذك'
'التدر'
'التدخل_'
'التحقيقات_'
'التحر'
'التحديد_'
'التحدي'
'التجسس_'
'التجريب'
'التجاري_'
'التاليه_'
'التاكس'
'التافهة_'
'التأه'
'البيس'
'البيئ'
'البولي'
'البوكر_'
'البوا'
'البنكي_'
'البنفسج'
'البنت_'
'البناء_'
'البنا'
'البلي'
'البك'
'البقع_'
'البـ'
'البعث'
'البع'
'البطاقة_'
'البطاقات_'
'البضا'
'البشر'
'البسي'
'البس'
'البريطانية'
'البرم'
'البذ'
'البديلة_'
'البدا'
'البخ'
'الباه'
'البالونات_'
'الباك'
'الباقي'
'البارو'
'البارد'
'الباب'
'الب_'
'الايطالية_'
'الانض'
'الانسان_'
'الانجليزي'
'الانتهاء_'
'الانتقال_'
'الانتباه_'
'الاموال_'
'الامتحان'
'الامبراطور'
'الاما'
'الاله_'
'الالا'
'الاكاد'
'الاك'
'الاف_'
'الاغني'
'الاغل'
'الاطلاق_'
'الاشخاص_'
'الاسهم_'
'الاسماء_'
'الاسل'
'الاستي'
'الاستوديو_'
'الاستمتاع_'
'الاستماع_'
'الاستق'
'الاستخبارات_'
'الاسبوعي'
'الاز'
'الاذ'
'الادوات_'
'الاخرين_'
'الاختيار'
'الاختلاف_'
'الاختفاء_'
'الاختبار'
'الاختباء_'
'الاحرا'
'الاحداث_'
'الاحد_'
'الاجتماعية_'
'الاجتماع'
'الاجابة_'
'الاثنتان_'
'الاتجاه'
'الابتعاد_'
'الاب_'
'الإيطالي_'
'الإيطالي'
'الإنضمام_'
'الإنساني'
'الإنتقام_'
'الإمكان_'
'الإمساك_'
'الإمبراطور_'
'الإلهام_'
'الإلكتروني'
'الإلت'
'الإقلاع_'
'الإقت'
'الإعجاب_'
'الإعتناء_'
'الإطار_'
'الإط'
'الإضط'
'الإصاب'
'الإسك'
'الإسرا'
'الإستخبارات'
'الإسب'
'الإز'
'الإرهابي'
'الإرسال_'
'الإحصاء_'
'الإحتيا'
'الإحتفال'
'الإجراءات_'
'الإجرا'
'الإجتماعي'
'الإتصالات_'
'الإئتمان'
'الأولي_'
'الأوامر_'
'الأنفاق_'
'الأمو'
'الأمها'
'الأمن'
'الأمطار_'
'الأمد_'
'الأمتع'
'الأمان_'
'الأمام'
'الأما'
'الألواح_'
'الألماني'
'الألم'
'الألفية_'
'الأكاذيب_'
'الأفكار_'
'الأغلب_'
'الأعلا'
'الأعظم_'
'الأعر'
'الأعد'
'الأطباق_'
'الأصلية_'
'الأصفر_'
'الأصغر_'
'الأسف_'
'الأسطورة_'
'الأسطو'
'الأسر_'
'الأسر'
'الأسبا'
'الأسئ'
'الأزم'
'الأرواح_'
'الأرقام_'
'الأرج'
'الأدا'
'الأخو'
'الأخت'
'الأحي'
'الأحج'
'الأجو'
'الأجرا'
'الأجانب_'
'الآم'
'الآلي_'
'اكم_'
'اكل_'
'اكل'
'اكتو'
'اكتشفوا_'
'اكتشفت_'
'اكتشف_'
'اكتب_'
'اكبر_'
'اكاد'
'اكا'
'اقوله_'
'اقل'
'اقرب_'
'اقدم'
'اقتلني_'
'اقترب_'
'اقتراح'
'اقتر'
'اقتحام_'
'اقتب'
'اقبة_'
'اقب'
'اقات'
'افيا_'
'افها_'
'افه_'
'افعلي'
'افس'
'افر'
'افحص_'
'افترض_'
'افتر'
'افتح_'
'افتت'
'افا'
'اغنية_'
'اغني'
'اغل'
'اغرا'
'اغتصاب_'
'اغتص'
'اعين'
'اعوام_'
'اعه_'
'اعمال_'
'اعمال'
'اعظم_'
'اعطن'
'اعطا'
'اعصاب'
'اعرفك'
'اعذ'
'اعدة_'
'اعدا'
'اعتمد_'
'اعتقل'
'اعتقدنا_'
'اعتقدت'
'اعتقدا'
'اعتذر_'
'اعتبر'
'اعتبار'
'اعب_'
'اظهر'
'اظن'
'اطو'
'اطلقت_'
'اطلب'
'اطة_'
'اضع'
'اضطررت_'
'اضطر_'
'اضطر'
'اضاف'
'اصمد'
'اصع'
'اصطدم'
'اصط'
'اصدقائ'
'اصد'
'اصبع'
'اص_'
'اشياء_'
'اشي_'
'اشرح_'
'اشرب'
'اشتقت_'
'اشتري'
'اسه'
'اسمعي'
'اسمعوا_'
'اسقط'
'اسرا'
'اسر'
'استي'
'استمعي_'
'استمتعت_'
'استم'
'استلق'
'استك'
'استقل'
'استق'
'استغر'
'استعمال'
'استعدوا_'
'استعادة_'
'استطاع'
'استرخي_'
'استراحة_'
'استرا'
'استدعي'
'استدع'
'استدر'
'استد'
'استخراج'
'استخدمه_'
'استخدم'
'استج'
'استثنائ'
'اسبوع'
'اسبانيا_'
'اساعد'
'ازي'
'ازل_'
'ارين'
'اريدها_'
'اريدكم_'
'ارهاب'
'ارن'
'اركض_'
'اركب_'
'ارفعي_'
'ارف'
'ارس_'
'اردن'
'اردتي_'
'ارتفع'
'ارتفاع_'
'ارتداء_'
'ارتدا'
'ارت_'
'اربعة_'
'اراهن'
'اراه'
'اذهبوا_'
'اذه'
'ادين_'
'ادوار'
'ادن'
'ادل'
'ادري'
'ادخلي'
'ادتك_'
'ادات'
'ادا_'
'ادا'
'اخيرا_'
'اخو'
'اخمن_'
'اخل'
'اخط'
'اخرجو'
'اخر'
'اخذه'
'اختطاف_'
'اختط'
'اختصا'
'اختراع_'
'اختار_'
'اختار'
'اخبرنى_'
'اخبرنا_'
'اخبرك'
'اخبرته_'
'اخبر_'
'اخباري_'
'اخبار_'
'اخاف'
'احيانا_'
'احياء'
'احه_'
'احف'
'احضرت'
'احض'
'احسنت_'
'احز'
'احذ'
'احدى_'
'احدا_'
'احتفظ_'
'احتفال'
'احترامي_'
'احتاج'
'اجي'
'اجون'
'اجهز_'
'اجك'
'اجعل'
'اجع_'
'اجراء'
'اجد'
'اجته'
'اجتماع'
'اجت'
'اجة_'
'اجبر'
'اجب_'
'اجاز'
'اثي'
'اثبت'
'اتيت'
'اتوقع_'
'اته'
'اتناول'
'اتن'
'اتك'
'اتق'
'اتفهم'
'اتعلمين_'
'اتعرف'
'اتصالك_'
'اتص'
'اتركيه'
'اتخذت_'
'اتحرك_'
'اتجاه_'
'اتأ'
'ابنه_'
'ابنته'
'ابنة_'
'ابنا'
'ابك_'
'ابقي'
'ابقا'
'ابعد_'
'ابس'
'ابر'
'ابدو_'
'ابدأي_'
'ابتعدوا_'
'ابتعد'
'ابتس'
'اا'
'ائي'
'ائه_'
'ائم_'
'ائز_'
'ائح'
'اءته'
'اءات_'
'ئنا'
'ئل'
'ئرة_'
'ئرات_'
'ئد'
'ئج'
'ئته'
'ئتم'
'ئت_'
'إيم'
'إيلي_'
'إيلا'
'إيفري_'
'إيفا_'
'إيطالي'
'إيزا'
'إيز'
'إيرين_'
'إيري'
'إيرل_'
'إير'
'إيذاء'
'إيدي'
'إيدن_'
'إيد'
'إيجادها_'
'إيجاد'
'إيجابي_'
'إيثل_'
'إهدأ_'
'إهتمام_'
'إنهن_'
'إنهما_'
'إنهض_'
'إنها'
'إنكم_'
'إنكار_'
'إنقاذي_'
'إنقاذه'
'إنقاذ'
'إنق'
'إنفصل'
'إنـها_'
'إنـه_'
'إنطباعا'
'إنضم'
'إنسى_'
'إنسانة_'
'إنز'
'إنجاز'
'إنجا'
'إنتهي'
'إنته'
'إنتقا'
'إنتق'
'إنتظرو'
'إنتحار'
'إنتبهي_'
'إنتاجه'
'إنب'
'إميلي'
'إمكاني'
'إمض_'
'إمسك'
'إمر'
'إلين'
'إليزا'
'إلهـ'
'إلها'
'إله_'
'إلكتروني'
'إلع'
'إلسا_'
'إلحق'
'إلته'
'إلت'
'إكس_'
'إكتشفت_'
'إكتشف_'
'إكتشف'
'إقناع_'
'إقف'
'إقتحم'
'إقا'
'إفترض'
'إفتحيه_'
'إفتحي_'
'إغل'
'إغتص'
'إعلام'
'إعل'
'إعرف_'
'إعداد'
'إعجاب'
'إعترف'
'إعتب'
'إظ'
'إطار'
'إضر'
'إصلاحه'
'إصط'
'إصاب'
'إشتقت_'
'إشتري'
'إشتر'
'إشاعات_'
'إسمك_'
'إسمـ'
'إسك'
'إسعاف_'
'إسع'
'إستيقظ'
'إستن'
'إستغلال'
'إستعد'
'إستعادة_'
'إستطعت_'
'إستط'
'إسترا'
'إستخدم'
'إستحق'
'إستج'
'إستثنا'
'إسأل_'
'إزعاجك_'
'إرهابي'
'إرساله'
'إرجاع_'
'إرتك'
'إرب_'
'إدر'
'إدانة_'
'إخوت'
'إخلاء_'
'إخفا'
'إخرس_'
'إخرجوا_'
'إخرج'
'إختيار_'
'إختفاء_'
'إختطاف_'
'إختصاص'
'إخترا'
'إخباره'
'إخبارنا_'
'إخب'
'إحياء_'
'إحض'
'إحساس_'
'إحذر_'
'إحدا'
'إحتيال'
'إحتمال'
'إجرا'
'إتق'
'إتفاق_'
'إتفاق'
'إبنه_'
'إبنتك_'
'إبطاله'
'إبرة_'
'إبراه'
'إبحث'
'إبتعد'
'إبتع'
'إبتسام'
'ؤول'
'ؤوس'
'ؤك'
'ؤس_'
'ؤخرا_'
'ؤخ'
'أيهـ'
'أيه_'
'أين'
'أيمي_'
'أيقظ'
'أيع'
'أيضـ'
'أيست'
'أيدين'
'أيديكم_'
'أيدي'
'أيام'
'أيا'
'أوه'
'أوما'
'أوليف'
'أوقفي'
'أوقع_'
'أوق'
'أوضح'
'أوصلك_'
'أوصل'
'أوص'
'أوش'
'أوستن_'
'أوروب'
'أوج'
'أوبر'
'أوبا'
'أوب'
'أوافقك_'
'أهنالك_'
'أهن'
'أهمي_'
'أهم'
'أهز'
'أنيق_'
'أنيا'
'أنواع'
'أنهي'
'أنها'
'أنن'
'أنقذ_'
'أنقا'
'أنق'
'أنفي'
'أنفه_'
'أنفسكم_'
'أنـــ'
'أنظر'
'أنطون'
'أنضم_'
'أنش'
'أندري'
'أندرو_'
'أندر'
'أنح'
'أنجب'
'أنتهي'
'أنتهت_'
'أنتقلت_'
'أنتق'
'أنتظري_'
'أنتظرى_'
'أنتظرت'
'أنتج'
'أنتبه'
'أنبوب_'
'أنباء_'
'أنالا'
'أناق'
'أمينة_'
'أميرة_'
'أمورا_'
'أمور'
'أمو'
'أمهل'
'أمني_'
'أمني'
'أملي_'
'أملكه_'
'أمكننا_'
'أمضي'
'أمض'
'أمسكته'
'أمسك'
'أمست'
'أمراض'
'أمرا'
'أماه_'
'أماندا_'
'أمانا_'
'أماز'
'أمارس'
'أليك_'
'أليست_'
'ألهي_'
'ألن'
'ألل'
'ألقيته'
'ألق_'
'ألفا_'
'ألغ'
'ألعاب_'
'ألعاب'
'ألدي'
'ألتقط_'
'ألتح'
'ألبي'
'ألبوم'
'ألبس'
'ألاحظ_'
'ألأم'
'أكمل'
'أكله_'
'أكلت_'
'أكرهك_'
'أكرر_'
'أكثـ'
'أكثر'
'أكتوبر_'
'أكتشفت_'
'أكتشف_'
'أكتش'
'أكت'
'أكاد_'
'أك_'
'أقنع'
'أقمت_'
'أقم_'
'أقصده_'
'أقراص'
'أقرأ_'
'أقدام_'
'أقارب'
'أقابلك'
'أقابل'
'أفوت_'
'أفهمه_'
'أفهمت_'
'أفلت_'
'أفكارنا_'
'أفكارك_'
'أفك_'
'أفقد'
'أفق'
'أفعلي'
'أفعال_'
'أفع'
'أفسدت_'
'أفس'
'أفتقده'
'أفتقد_'
'أفترضت_'
'أفتح'
'أف_'
'أغني_'
'أغن'
'أغم'
'أغلى_'
'أغلقت_'
'أغرب_'
'أغب'
'أغا'
'أعيننا_'
'أعي_'
'أعنيه_'
'أعنا'
'أعمال'
'أعماق'
'أعلن'
'أعلمه'
'أعطينا_'
'أعطين'
'أعطيتها_'
'أعطيتك'
'أعطي'
'أعطو'
'أعطتني_'
'أعطاه_'
'أعطاك_'
'أعض'
'أعزب_'
'أعر'
'أعذر'
'أعدكم'
'أعدائنا_'
'أعداء_'
'أعجبتك_'
'أعجبت'
'أعج'
'أعتمد_'
'أعتد'
'أظهرت'
'أظ'
'أطي'
'أطلبه'
'أطفالا_'
'أطف'
'أطار'
'أضيع_'
'أضواء_'
'أضعاف_'
'أضح'
'أضا'
'أصيب'
'أصوات'
'أصنع_'
'أصمت_'
'أصم'
'أصل'
'أصع'
'أصرخ_'
'أصر'
'أصدقه'
'أصدقك_'
'أصدقائها_'
'أصدقائه'
'أصدر'
'أصد_'
'أصبت'
'أصب'
'أصابك_'
'أشهد_'
'أشك'
'أشعر'
'أشرب'
'أشد_'
'أشخ'
'أشتاق'
'أشب'
'أشارك'
'أسي'
'أسود_'
'أسو'
'أسنانه'
'أسمي_'
'أسمعك_'
'أسمعت'
'أسماك'
'أسمائهم_'
'أسما'
'أسلوب_'
'أسلاف'
'أسكت'
'أسك'
'أسف'
'أسعد'
'أسرعت_'
'أسرار_'
'أستيقظ_'
'أستمتع'
'أستم'
'أستقيل_'
'أستغرق_'
'أستعيد_'
'أستع'
'أستخدم'
'أسبوعا'
'أسباب'
'أسام'
'أسا'
'أسئل'
'أس_'
'أزمة_'
'أزعج'
'أزر'
'أريدها_'
'أريدأ'
'أريا'
'أرها'
'أره'
'أرنب'
'أرميه'
'أرمي_'
'أرم'
'أرعب'
'أرضية_'
'أرسله'
'أرسلك_'
'أرسلته'
'أردتي_'
'أردتك_'
'أرد_'
'أرجو'
'أرجع_'
'أرجع'
'أرتكب_'
'أرتف'
'أرتاح'
'أرت_'
'أربعو'
'أربع'
'أراكم_'
'أرادوا_'
'أرادني_'
'أرادته_'
'أراد'
'أذي'
'أذهبوا_'
'أذهب'
'أذكياء'
'أذكى_'
'أذكره'
'أذكرك_'
'أدين_'
'أدل'
'أدريان_'
'أدخلي'
'أدخلت_'
'أداء'
'أخيه_'
'أخى_'
'أخلوا_'
'أخفقت_'
'أخفض'
'أخفت'
'أخف'
'أخـ'
'أخرق_'
'أخرس_'
'أخرجه'
'أخذي'
'أخذنا_'
'أخذتها_'
'أخذتني_'
'أختل'
'أخبرين'
'أخبركم_'
'أخبرته_'
'أخبرتن'
'أخبرتكم_'
'أخبرت'
'أخبر'
'أحيا'
'أحمي_'
'أحمل_'
'أحلامك'
'أحـد_'
'أحضري'
'أحضرو'
'أحضرتها_'
'أحضرته'
'أحضرت'
'أحش'
'أحذية_'
'أحذرك'
'أحذ'
'أحده'
'أحدث'
'أحج'
'أحتفظ_'
'أحتر'
'أحبه'
'أحببت'
'أح_'
'أجيبي_'
'أجيب'
'أجلها_'
'أجلب_'
'أجلا'
'أجعله'
'أجس'
'أجري_'
'أجرت_'
'أجر_'
'أجده'
'أجدك_'
'أجبرتني_'
'أجبرت'
'أجب_'
'أثي'
'أثرت_'
'أتولى_'
'أتوسل_'
'أتود_'
'أتها'
'أتن'
'أتمن'
'أتك_'
'أتق'
'أتفهم'
'أتفق'
'أتعرفون_'
'أتعرف'
'أتعت'
'أتظ'
'أتطلع_'
'أتصلت_'
'أتسمعني_'
'أتسمح'
'أتسم'
'أتستطيع_'
'أتس'
'أتريد'
'أترون_'
'أتركها_'
'أتركه_'
'أترك'
'أترغب_'
'أتذكرين_'
'أتذكرون_'
'أتدر'
'أتحد'
'أتحب_'
'أتحا'
'أتبع'
'أتأ'
'أبيك_'
'أبيع_'
'أبوك_'
'أبنت'
'أبلي'
'أبلغ'
'أبل'
'أبقو'
'أبقني_'
'أبعده_'
'أبرياء'
'أبرا'
'أبر'
'أبد'
'أبالي_'
'أبا_'
'أا'
'أؤكد_'
'أأم'
'أأت'
'آيل'
'آيري'
'آنست'
'آنس'
'آنذاك_'
'آنت'
'آمبر'
'آلو'
'آلات_'
'آلا'
'آف'
'آشلي_'
'آسفون_'
'آسفـ'
'آري'
'آدي'
'آد'
'آخرون_'
'آخران_'
'آخر'
'آخذها_'
'آجل'
'آتي'
'آبي_'
'آآآه_'
'ءه_'
'ءل'
'؟" "_'
'؟ ؟ ؟_'
'؟ ..._'
'،،،'
'،..'
'،)_'
'، ..'
'υ'
'οu'
'ο'
'Υou_'
'Τ'
'ö'
'ón_'
'ñ'
'í'
'½'
'³_'
'¬'
'§'
'¢_'
' !'
'~~'
'~ _'
'}♪'
'{\\\\_'
'zz_'
'zy_'
'zi_'
'zen'
'zel'
'zard_'
'zan'
'yton_'
'ysm_'
'yr'
'youth_'
'yne'
'yma'
'yl_'
'yi'
'yf'
'yell'
'yc'
'yas'
'yan_'
'xy_'
'xie'
'write'
'wrestle'
'wreck'
'wrap'
'wort'
'wors'
'worm'
'world'
'workin_'
'wore_'
'wonder'
'wning_'
'wly_'
'wit'
'wisely_'
'wise_'
[...]
