'<pad>_'
'<EOS>_'
'._'
', _'
''_'
'?_'
'- _'
'a_'
'I_'
'you_'
'que_'
'-_'
'the_'
'!_'
'to_'
'o_'
'de_'
's_'
'me_'
'. _'
't_'
'não_'
'é_'
'it_'
'of_'
'Não_'
'do_'
'e_'
'You_'
'um_'
'that_'
'and_'
'in_'
'para_'
'..._'
'... _'
'is_'
'O_'
'se_'
'uma_'
'for_'
'm_'
'on_'
'this_'
'no_'
're_'
'com_'
'your_'
'have_'
'as_'
'be_'
'was_'
'my_'
'A_'
'know_'
'we_'
'What_'
'It_'
'te_'
'está_'
'not_'
'eu_'
'with_'
'Eu_'
'os_'
'don_'
'are_'
'can_'
'da_'
'É_'
'em_'
'E_'
'We_'
'por_'
'he_'
'what_'
'll_'
'No_'
'bem_'
'all_'
'here_'
'get_'
'isso_'
'just_'
'out_'
'him_'
'mais_'
'right_'
'about_'
'Sim_'
'He_'
'na_'
'up_'
'like_'
'Oh_'
'The_'
'And_'
'That_'
'at_'
'go_'
'there_'
'ele_'
'meu_'
'como_'
'got_'
'one_'
'fazer_'
've_'
'her_'
'aqui_'
'Yeah_'
'want_'
'they_'
'Mas_'
'but_'
'mas_'
'think_'
'will_'
'à_'
'foi_'
'muito_'
'nos_'
'"_'
'so_'
'minha_'
'if_'
'ser_'
'ao_'
'his_'
'But_'
'Que_'
'? _'
',_'
'Well_'
'Ele_'
'from_'
'now_'
'see_'
'isto_'
'ter_'
'lhe_'
'she_'
'back_'
'They_'
'dizer_'
'lá_'
'So_'
'Se_'
'Está_'
'going_'
'sei_'
'tem_'
'them_'
'vai_'
'gonna_'
'us_'
'did_'
'time_'
'd_'
'an_'
'This_'
'! _'
'Vamos_'
'had_'
'nada_'
'man_'
'coisa_'
'were_'
'good_'
'How_'
'would_'
'Por_'
'been_'
'tudo_'
'or_'
'só_'
'ela_'
'já_'
'didn_'
'Yes_'
'há_'
'down_'
'could_'
' "_'
'mim_'
'She_'
'Don_'
'Como_'
'. - _'
'come_'
'when_'
'say_'
'sua_'
'Come_'
'estou_'
'who_'
'ver_'
'There_'
'Let_'
'quando_'
'dos_'
'take_'
'tell_'
'our_'
'way_'
'Why_'
'lo_'
'era_'
'você_'
'mesmo_'
'need_'
'make_'
'tu_'
'more_'
'Hey_'
'Estou_'
'Então_'
'seu_'
'pode_'
'If_'
'são_'
'agora_'
'ou_'
'tenho_'
'some_'
'casa_'
'vez_'
'Ela_'
'something_'
'how_'
'vou_'
'off_'
'mean_'
'All_'
'really_'
'disse_'
'Do_'
'Um_'
'tua_'
'by_'
'Já_'
'falar_'
'Bem_'
'has_'
'Porque_'
'ir_'
'assim_'
'little_'
'never_'
'love_'
'Mr_'
'Okay_'
'estás_'
'over_'
'too_'
'people_'
'teu_'
'melhor_'
':_'
'onde_'
'tão_'
'quê_'
'let_'
'noite_'
'Now_'
'said_'
'posso_'
'favor_'
'Tenho_'
'very_'
'estão_'
'."_'
'Os_'
'Isso_'
'Olá_'
'nós_'
'Só_'
'where_'
'tempo_'
'também_'
'am_'
'My_'
'then_'
'estava_'
'Vou_'
'doing_'
'bom_'
'Where_'
'Você_'
'look_'
'life_'
'thing_'
'esta_'
'any_'
'porque_'
'Thank_'
'vamos_'
'estar_'
'até_'
'quero_'
'Obrigado_'
'tinha_'
'dia_'
'anos_'
'todos_'
'quem_'
'anything_'
'Sr_'
'into_'
'Just_'
'should_'
'Deus_'
'este_'
'Who_'
'? - _'
'alguma_'
'ti_'
'sou_'
'sobre_'
'two_'
'sim_'
'das_'
'Onde_'
'vida_'
'As_'
'homem_'
'ficar_'
'Look_'
'Isto_'
'dele_'
'quer_'
'pessoas_'
'pai_'
'only_'
'nunca_'
'la_'
'eles_'
'Para_'
'depois_'
'why_'
'much_'
'sorry_'
'Agora_'
'mãe_'
'Good_'
'' _'
'God_'
'Estás_'
'sempre_'
'first_'
'call_'
'because_'
'algo_'
'long_'
'home_'
'day_'
'Is_'
'other_'
'help_'
'even_'
'give_'
'Quem_'
'Foi_'
'Are_'
'their_'
'won_'
'these_'
'ainda_'
'Tu_'
'talk_'
'night_'
'again_'
'tipo_'
'sure_'
'Not_'
'work_'
'thought_'
'sir_'
'Acho_'
'still_'
'Tem_'
'dois_'
'before_'
'Quando_'
'than_'
'sem_'
'find_'
'coisas_'
'alguém_'
'Muito_'
'Há_'
'Get_'
'verdade_'
'tens_'
'pouco_'
'pelo_'
'okay_'
'Your_'
'Vai_'
'around_'
'trabalho_'
'please_'
'told_'
'dar_'
'outra_'
'faz_'
'well_'
'temos_'
'mal_'
'Here_'
'vais_'
'put_'
'Uma_'
'De_'
'" _'
'és_'
'dinheiro_'
'always_'
'Talvez_'
'Eles_'
'doesn_'
'things_'
'great_'
'cá_'
'saber_'
'guy_'
'dela_'
'Tens_'
'Nunca_'
'those_'
'better_'
'must_'
'Sou_'
'pela_'
'comigo_'
'Dr_'
'everything_'
'"._'
'fora_'
'feel_'
'away_'
'guys_'
'ever_'
'Quero_'
'place_'
'nem_'
'years_'
'outro_'
'Did_'
'sair_'
'name_'
'father_'
'aí_'
'believe_'
'In_'
'grande_'
'esse_'
'When_'
'through_'
'talking_'
'senhor_'
'mulher_'
'menos_'
'coming_'
'apenas_'
'Ainda_'
': _'
'old_'
'understand_'
'todo_'
'num_'
'last_'
'certeza_'
'after_'
'Maybe_'
'meus_'
'qualquer_'
'nas_'
'big_'
'nossa_'
'lot_'
'left_'
'Com_'
'seja_'
'nosso_'
'money_'
'filho_'
'daqui_'
'best_'
'Go_'
'real_'
'disso_'
'amigo_'
'vão_'
'stay_'
'sabe_'
'nothing_'
'being_'
'sério_'
'made_'
'house_'
'girl_'
'essa_'
'enough_'
'dead_'
'boa_'
'Then_'
'new_'
'done_'
'Temos_'
'Claro_'
'leave_'
'keep_'
'does_'
'wanna_'
'seus_'
'kill_'
'family_'
'Nós_'
' '_'
'fine_'
'else_'
'antes_'
'ajudar_'
'Olha_'
'Can_'
'És_'
'three_'
'happened_'
'aos_'
'today_'
'toda_'
'preciso_'
'nome_'
'nice_'
'friend_'
'duas_'
'course_'
'came_'
'trying_'
'saw_'
'pensar_'
'passa_'
'numa_'
'many_'
'acho_'
'Aqui_'
'vezes_'
'sabes_'
'queres_'
'certo_'
'carro_'
'wanted_'
'vocês_'
'parece_'
'lado_'
'hear_'
'gotta_'
'então_'
'Right_'
'Bom_'
'problema_'
'ninguém_'
'isn_'
'head_'
'boy_'
'hoje_'
'diz_'
'car_'
'ask_'
'another_'
'Hello_'
'wait_'
'same_'
'queria_'
'found_'
'Sabes_'
'Meu_'
'1_'
'someone_'
'might_'
'care_'
'Thanks_'
' ?_'
'São_'
'às_'
'mundo_'
'estamos_'
'embora_'
'Desculpa_'
'tentar_'
'stop_'
'room_'
'podemos_'
'may_'
'hell_'
'already_'
'Please_'
'três_'
'son_'
'For_'
'Este_'
'Em_'
'2_'
'together_'
'querida_'
'novo_'
'looking_'
'horas_'
'every_'
'consigo_'
'bad_'
'Vá_'
'wife_'
'show_'
'mother_'
'knew_'
'John_'
'Ah_'
'went_'
'wasn_'
'têm_'
'kind_'
'deve_'
'ali_'
'Pois_'
'One_'
'Era_'
'dias_'
'Parece_'
'OK_'
'wrong_'
'world_'
'volta_'
'razão_'
'pessoa_'
'lugar_'
'Tudo_'
'Posso_'
'Pode_'
'Nem_'
'yeah_'
'si_'
'morning_'
'Wait_'
'To_'
'Hi_'
'Because_'
'uh_'
'getting_'
'10_'
'whole_'
'rapaz_'
'next_'
'i_'
'heard_'
'algum_'
'try_'
'remember_'
'passar_'
'parte_'
'own_'
'mind_'
'fez_'
'Jack_'
'wouldn_'
'sido_'
'seen_'
'quase_'
'lhes_'
'cima_'
'aconteceu_'
'Qual_'
'Esta_'
'Certo_'
'homens_'
'Boa_'
'year_'
'vi_'
'baby_'
'--_'
'yourself_'
'without_'
'use_'
'problem_'
'podes_'
'minutos_'
'ideia_'
'fucking_'
'deles_'
'Tell_'
'woman_'
'vir_'
'live_'
'Queres_'
'Na_'
'Estava_'
', "_'
'ouvir_'
'momento_'
'matter_'
'job_'
'happy_'
'contigo_'
'Ou_'
'teus_'
'talvez_'
'run_'
'play_'
'morte_'
'guess_'
'end_'
'days_'
'Nada_'
'5_'
'voltar_'
'myself_'
'maybe_'
'los_'
'hora_'
'família_'
'devia_'
'called_'
'anyone_'
'Take_'
'See_'
'Quer_'
'Have_'
'vê_'
'shit_'
'minute_'
'matar_'
'having_'
'face_'
'dentro_'
'caso_'
'atrás_'
'ain_'
'Pai_'
'3_'
'vos_'
'todas_'
'tarde_'
'sabia_'
'part_'
'levar_'
'business_'
'ago_'
'Sei_'
'Obrigada_'
'Estamos_'
'primeiro_'
'meet_'
'huh_'
'espera_'
'Ok_'
'which_'
'turn_'
'tomorrow_'
'second_'
'most_'
'heart_'
'haven_'
'contra_'
'amigos_'
'Of_'
'Deixa_'
'30_'
'tenha_'
'suas_'
'start_'
'pretty_'
'podem_'
'ia_'
'desta_'
'Estão_'
'Espera_'
'tal_'
'school_'
'says_'
'outros_'
'morto_'
'men_'
'medo_'
'friends_'
'deal_'
'bring_'
'frente_'
'chegar_'
'aquele_'
'Listen_'
'sorte_'
'killed_'
'hand_'
'gente_'
'entrar_'
'Diz_'
'20_'
'yet_'
'será_'
'podia_'
'hard_'
'die_'
'ajuda_'
'actually_'
'Vocês_'
'Preciso_'
'Depois_'
'15_'
'took_'
'tonight_'
'tanto_'
'minhas_'
'merda_'
'maneira_'
'lost_'
'idea_'
'entre_'
'encontrar_'
'cabeça_'
'bit_'
'arma_'
'New_'
'Michael_'
'Like_'
'Desculpe_'
'fiz_'
'começar_'
'cara_'
'ano_'
'amor_'
'Uh_'
'Porquê_'
'Miss_'
'His_'
'Give_'
'Ei_'
'Dad_'
' - _'
'used_'
'until_'
'uns_'
'such_'
'soon_'
'primeira_'
'porta_'
'late_'
'hit_'
'crazy_'
'claro_'
'Também_'
'Mrs_'
'Mom_'
'Mais_'
'última_'
'taking_'
'saying_'
'sangue_'
'ready_'
'mão_'
'kid_'
'gone_'
'fosse_'
'causa_'
'alone_'
'Todos_'
'Excuse_'
'velho_'
'stuff_'
'started_'
'making_'
'l_'
'fuck_'
'disto_'
'chance_'
'Vais_'
'Stop_'
'S_'
'Nothing_'
'Jesus_'
'000_'
'week_'
'rapariga_'
'morrer_'
'kids_'
'forma_'
'far_'
'cinco_'
'Sam_'
'Podes_'
'Até_'
'yes_'
'once_'
'nenhum_'
'mãos_'
'jogo_'
'irmão_'
'fica_'
'corpo_'
'alguns_'
'Will_'
'Sabe_'
'"?_'
'worry_'
'problemas_'
'precisa_'
'phone_'
'makes_'
'hurt_'
'happen_'
'each_'
'dá_'
'deste_'
'deixar_'
'With_'
'Mãe_'
'Frank_'
'At_'
'6_'
'. "_'
'! - _'
'wants_'
'under_'
'since_'
'senhora_'
'qual_'
'maior_'
'few_'
'faço_'
'brother_'
'beautiful_'
'aquilo_'
'T_'
'Ninguém_'
'-- _'
'true_'
'thinking_'
'poder_'
'pedir_'
'hold_'
'gosto_'
'demais_'
'couple_'
'comer_'
'caminho_'
'break_'
'both_'
'andar_'
'Dá_'
'Anda_'
'thank_'
'seria_'
'pôr_'
'pois_'
'pay_'
'nisso_'
'neste_'
'moment_'
'minutes_'
'inside_'
'hospital_'
'dormir_'
'door_'
'couldn_'
'conta_'
'amanhã_'
'Or_'
'Charlie_'
'Adeus_'
'50_'
'while_'
'vem_'
'times_'
'somebody_'
'obrigado_'
'five_'
'feliz_'
'dólares_'
'difícil_'
'cidade_'
'cada_'
'brincar_'
'able_'
'These_'
'Senhor_'
'poderia_'
'party_'
'partir_'
'outside_'
'mau_'
'looks_'
'knows_'
'importante_'
'história_'
'high_'
'gave_'
'fui_'
'On_'
'Deve_'
'água_'
'working_'
'word_'
'town_'
'supposed_'
'quatro_'
'pensei_'
'later_'
'hours_'
'fire_'
'filha_'
'death_'
'conseguir_'
'close_'
'asked_'
'altura_'
'Sra_'
'Sorry_'
'Achas_'
'.._'
'á_'
'shot_'
'segurança_'
'segundo_'
'quanto_'
'procura_'
'pessoal_'
'normal_'
'hands_'
'gets_'
'foram_'
'exactly_'
'dinner_'
'dad_'
'crime_'
'bitch_'
'Our_'
'única_'
'vindo_'
'quarto_'
'polícia_'
'point_'
'person_'
'olhos_'
'move_'
'means_'
'listen_'
'juntos_'
'cut_'
'coração_'
'body_'
'aquela_'
'acabou_'
'YOU_'
'Tom_'
'George_'
'... - _'
' ..._'
'wish_'
'visto_'
'trabalhar_'
'telling_'
'sit_'
'quiser_'
'prazer_'
'olhar_'
'office_'
'mine_'
'met_'
'its_'
'importa_'
'feito_'
'case_'
'buscar_'
'ass_'
'Would_'
'Sure_'
'...?_'
'(_'
'# _'
' $_'
'water_'
'war_'
'side_'
'semana_'
'sabemos_'
'probably_'
'pergunta_'
'mulheres_'
'hour_'
'eyes_'
'easy_'
'died_'
'deu_'
'check_'
'anymore_'
'almost_'
'against_'
'young_'
'waiting_'
'set_'
'save_'
'open_'
'lose_'
'hope_'
'goes_'
'errado_'
'eat_'
'durante_'
'criança_'
'children_'
'chega_'
'cause_'
'become_'
'algumas_'
'Quanto_'
'Pára_'
'Ouve_'
'Alguém_'
'watch_'
'story_'
'sister_'
'semanas_'
'safe_'
'quite_'
'perto_'
'nossos_'
'months_'
'mesma_'
'important_'
'husband_'
'half_'
'gun_'
'game_'
'enquanto_'
'desculpa_'
'answer_'
'acredito_'
'acontecer_'
'Which_'
'THE_'
'Sir_'
'Podemos_'
'Pelo_'
'Me_'
'General_'
'Fica_'
': "_'
'4_'
'vá_'
'vosso_'
'viver_'
'vejo_'
'till_'
'team_'
'somos_'
'realmente_'
'querido_'
'pé_'
'police_'
'parar_'
'havia_'
'funny_'
'fim_'
'estes_'
'doctor_'
'change_'
'between_'
'alive_'
'acordo_'
'Vem_'
'Really_'
'Hold_'
'Disse_'
'teria_'
'sent_'
'seis_'
'rest_'
'reason_'
'plan_'
'perder_'
'muitos_'
'muita_'
'meses_'
'jogar_'
'four_'
'fazem_'
'direito_'
'daughter_'
'contar_'
'comida_'
'child_'
'chamar_'
'brought_'
'afraid_'
'Two_'
'Sem_'
'Lamento_'
'Espere_'
'David_'
'women_'
'speak_'
'pronto_'
'number_'
'married_'
'line_'
'least_'
'jantar_'
'irmã_'
'hot_'
'honey_'
'hair_'
'final_'
'everybody_'
'also_'
'Sempre_'
'Pensei_'
'Max_'
'Keep_'
'Captain_'
'Assim_'
'After_'
'12_'
'Óptimo_'
'walk_'
'viagem_'
'usar_'
'tive_'
'though_'
'sentir_'
'question_'
'próprio_'
'power_'
'perfect_'
'passado_'
'pais_'
'order_'
'nesta_'
'guerra_'
'forget_'
'feeling_'
'everyone_'
'different_'
'desde_'
'culpa_'
'crianças_'
'Very_'
'Sinto_'
'Put_'
'Faz_'
'8_'
'100_'
'whatever_'
'vivo_'
'truth_'
'tivesse_'
'shoot_'
'serious_'
'seguir_'
'read_'
'pick_'
'ouvi_'
'ontem_'
'nobody_'
'meio_'
'local_'
'licença_'
'fazê_'
'fall_'
'fact_'
'estavam_'
'esperar_'
'escola_'
'drink_'
'digo_'
'diferente_'
'cedo_'
'blood_'
'aren_'
'anda_'
'ahead_'
'acabar_'
'C_'
'?"_'
'00_'
') _'
' ._'
'umas_'
'tratar_'
'stupid_'
'sick_'
'shouldn_'
'rápido_'
'raio_'
'pior_'
'pena_'
'pagar_'
'nave_'
'mil_'
'manhã_'
'logo_'
'ligar_'
'estado_'
'cama_'
'York_'
'Pronto_'
'Nick_'
'Never_'
'Mesmo_'
'Got_'
'Everything_'
'Espero_'
'/_'
'tuas_'
'tried_'
'touch_'
'rapazes_'
'presente_'
'pequeno_'
'marido_'
'hotel_'
'himself_'
'haver_'
'fun_'
'food_'
'filme_'
'fight_'
'equipa_'
'dear_'
'comes_'
'boys_'
'behind_'
'beber_'
'apanhar_'
'TV_'
'Some_'
'James_'
'D_'
'Ben_'
'Aquele_'
'About_'
' !_'
'yours_'
'tirar_'
'teve_'
'taken_'
'sleep_'
'six_'
'significa_'
'salvar_'
'quis_'
'querem_'
'possa_'
'pequena_'
'número_'
'nossas_'
'mostrar_'
'hipótese_'
'happens_'
'full_'
'deixou_'
'country_'
'correr_'
'cool_'
'comprar_'
'clear_'
'city_'
'cannot_'
'] _'
'Vão_'
'Será_'
'Mike_'
'Essa_'
'B_'
'9_'
'vossa_'
'veio_'
'trouble_'
'lives_'
'known_'
'kiss_'
'idade_'
'free_'
'festa_'
'either_'
'drive_'
'book_'
'bet_'
'banho_'
'baixo_'
'Only_'
'Nobody_'
'Man_'
'FBI_'
'Danny_'
'Daddy_'
'trust_'
'suppose_'
'stand_'
'sometimes_'
'sinto_'
'sexo_'
'send_'
'seguro_'
'running_'
'return_'
'questão_'
'perceber_'
'needs_'
'mudar_'
'minuto_'
'message_'
'human_'
'gosta_'
'fizeste_'
'fast_'
'estranho_'
'especial_'
'eram_'
'encontro_'
'damn_'
'continuar_'
'calling_'
'base_'
'anybody_'
'acreditar_'
'achas_'
'Whatever_'
'Tony_'
'Nice_'
'Henry_'
'Fine_'
'Everybody_'
'Even_'
'Could_'
'Cala_'
'By_'
'7_'
'tomar_'
'tinhas_'
'sweet_'
'suficiente_'
'step_'
'rua_'
'querer_'
'possible_'
'pensa_'
'paz_'
'palavra_'
'moving_'
'meia_'
'ma_'
'longer_'
'living_'
'light_'
'leaving_'
'learn_'
'foste_'
'estas_'
'dizem_'
'descobrir_'
'boca_'
'along_'
'acha_'
'[_'
'Somos_'
'Queria_'
'Presidente_'
'Mary_'
'Help_'
'Great_'
'Fui_'
'From_'
'Diga_'
'Ao_'
'? !_'
'40_'
'wonderful_'
'white_'
'wedding_'
'sozinha_'
'sistema_'
'shall_'
'sense_'
'secret_'
'report_'
'quiseres_'
'passou_'
'others_'
'ok_'
'nisto_'
'médico_'
'muitas_'
'morreu_'
'million_'
'milhões_'
'melhores_'
'marry_'
'longe_'
'livro_'
'jovem_'
'hang_'
'gostar_'
'front_'
'forte_'
'fazes_'
'disseste_'
'devo_'
'control_'
'capaz_'
'bar_'
'asking_'
'arranjar_'
'armas_'
'amo_'
'air_'
'Those_'
'Something_'
'Paul_'
'Apenas_'
'American_'
'trouxe_'
'tired_'
'telefone_'
'sort_'
'sinal_'
'sala_'
'sabem_'
'queremos_'
'precisar_'
'possível_'
'plano_'
'parents_'
'oportunidade_'
'ones_'
'nenhuma_'
'music_'
'modo_'
'mistake_'
'miss_'
'manter_'
'luz_'
'lady_'
'fácil_'
'funciona_'
'ficou_'
'falta_'
'demasiado_'
'connosco_'
'café_'
'bebé_'
'assassino_'
'aprender_'
'Welcome_'
'Shit_'
'Ray_'
'Natal_'
'Mother_'
'J_'
'Charles_'
'Alex_'
' ... _'
'último_'
'welcome_'
'weeks_'
'vontade_'
'vista_'
'swear_'
'ship_'
'sequer_'
'seems_'
'scared_'
'promise_'
'programa_'
'precisamos_'
'piece_'
'palavras_'
'outras_'
'nova_'
'news_'
'matou_'
'idiota_'
'houve_'
'history_'
'given_'
'future_'
'fizeram_'
'faça_'
'fazendo_'
'essas_'
'doente_'
'cão_'
'consegue_'
'conhecer_'
'class_'
'chave_'
'calma_'
'boas_'
'ar_'
'across_'
'Vim_'
'Sarah_'
'IT_'
'Harry_'
'Desde_'
'Bobby_'
'Be_'
'. -_'
'throw_'
'sítio_'
'spend_'
'special_'
'sozinho_'
'somewhere_'
'ride_'
'resto_'
'provas_'
'poor_'
'perguntar_'
'pelos_'
'paid_'
'miúdos_'
'lucky_'
'lie_'
'ler_'
'hey_'
'hate_'
'grandes_'
'gostaria_'
'filhos_'
'felt_'
'elas_'
'dog_'
'diga_'
'dez_'
'conversa_'
'completamente_'
'coffee_'
'cheio_'
'chefe_'
'chamada_'
'casar_'
'casamento_'
'cabelo_'
'buy_'
'breve_'
'amiga_'
'Wow_'
'Was_'
'Red_'
'Põe_'
'Polícia_'
'Paris_'
'Parabéns_'
'Lisa_'
'Father_'
'Does_'
'Alan_'
'único_'
'worried_'
'wake_'
'viu_'
'terra_'
'ten_'
'takes_'
'system_'
'rádio_'
'relação_'
'private_'
'playing_'
'país_'
'olha_'
'mom_'
'missing_'
'mente_'
'luck_'
'loved_'
'livros_'
'happening_'
'government_'
'fundo_'
'fugir_'
'fome_'
'figure_'
'fighting_'
'fault_'
'fala_'
'esses_'
'dizes_'
'dance_'
'conheço_'
'company_'
'clothes_'
'chegou_'
'charge_'
'blow_'
'black_'
'bed_'
'bastante_'
'aqueles_'
'anyway_'
'Watch_'
'Shut_'
'Remember_'
'Peter_'
'Move_'
'Merda_'
'Jimmy_'
'Gosto_'
'Fuck_'
'Da_'
'Clark_'
'Capitão_'
'Calma_'
'Big_'
'An_'
'..."_'
'árvore_'
'yesterday_'
'ya_'
'worse_'
'victim_'
'tipos_'
'terá_'
'sound_'
'small_'
'sentido_'
'seem_'
'resposta_'
'proteger_'
'procurar_'
'pain_'
'ordens_'
'murder_'
'meeting_'
'maravilhoso_'
'las_'
'information_'
'imediatamente_'
'hungry_'
'gajo_'
'explain_'
'esteja_'
'emprego_'
'devem_'
'deixe_'
'deixa_'
'cold_'
'choice_'
'cavalo_'
'capitão_'
'ataque_'
'alma_'
'ajudá_'
'acontece_'
'THAT_'
'Seu_'
'Over_'
'Lord_'
'Leave_'
'Larry_'
'Jim_'
'Isn_'
'Devo_'
'Deixe_'
'Cause_'
'Boy_'
'18_'
''?_'
'À_'
'words_'
'tê_'
'totalmente_'
'thanks_'
'stories_'
'sounds_'
'short_'
'serve_'
'saved_'
'prison_'
'present_'
'preocupes_'
'ponto_'
'personal_'
'percebi_'
'penso_'
'paper_'
'nele_'
'near_'
'natural_'
'miúdo_'
'mad_'
'looked_'
'lindo_'
'lei_'
'kidding_'
'handle_'
'grupo_'
'glad_'
'girls_'
'follow_'
'fogo_'
'feet_'
'fazemos_'
'faria_'
'evening_'
'esteve_'
'estavas_'
'espero_'
'escritório_'
'catch_'
'broke_'
'boyfriend_'
'born_'
'birthday_'
'Whoa_'
'Stay_'
'Sai_'
'Olhe_'
'Nova_'
'M_'
'Johnny_'
'Joe_'
'First_'
'Esse_'
'Dois_'
'Didn_'
'Bye_'
'Brian_'
'Bill_'
'Any_'
'Ali_'
'Ai_'
'Acha_'
'11_'
'´_'
'write_'
'tough_'
'test_'
'teres_'
'tempos_'
'talked_'
'station_'
'sonho_'
'situação_'
'serviço_'
'senhores_'
'seat_'
'rei_'
'record_'
'raparigas_'
'ran_'
'questions_'
'pés_'
'prove_'
'prova_'
'porra_'
'percebo_'
'orders_'
'moved_'
'mesa_'
'menina_'
'loja_'
'key_'
'irá_'
'horse_'
'ground_'
'fool_'
'faças_'
'falou_'
'experiência_'
'existe_'
'estúpido_'
'dream_'
'dito_'
'desse_'
'depressa_'
'date_'
'cuidado_'
'computer_'
'chão_'
'chama_'
'certa_'
'campo_'
'calls_'
'caixa_'
'boss_'
'assunto_'
'apartment_'
'anywhere_'
'animal_'
'accident_'
'Venha_'
'U_'
'Têm_'
'Sua_'
'Still_'
'Precisamos_'
'Ora_'
'May_'
'Martin_'
'Ma_'
'Lá_'
'Hurry_'
'Hmm_'
'Her_'
'Gostaria_'
'Exactamente_'
'Every_'
'Eric_'
'Ed_'
'Easy_'
'Devia_'
'Chama_'
'25_'
'...._'
')_'
'óptimo_'
'win_'
'weird_'
'verdadeiro_'
'upstairs_'
'turned_'
'tenhas_'
'suposto_'
'space_'
'smell_'
'sign_'
'segundos_'
'seeing_'
'sai_'
'quiet_'
'pára_'
'próximo_'
'próxima_'
'plane_'
'pediu_'
'past_'
'oh_'
'nesse_'
'necessary_'
'má_'
'miles_'
'meant_'
'lunch_'
'lovely_'
'lista_'
'list_'
'less_'
'junto_'
'horrível_'
'goddamn_'
'giving_'
'gay_'
'ganhar_'
'futuro_'
'forgot_'
'fix_'
'finished_'
'facto_'
'eye_'
'expect_'
'estive_'
'estação_'
'esposa_'
'entregar_'
'entire_'
'encontrou_'
'eight_'
'during_'
'dou_'
'certainly_'
'carta_'
'carry_'
'busy_'
'bola_'
'age_'
'abaixo_'
'Vê_'
'Tommy_'
'Tenente_'
'Since_'
'Perhaps_'
'Ouvi_'
'Ms_'
'More_'
'Minha_'
'Lieutenant_'
'Jenny_'
'Doc_'
'Cuidado_'
'City_'
'Christ_'
'Bob_'
'Alguma_'
'- "_'
' #_'
'Às_'
'worked_'
'watching_'
'vossos_'
'vestido_'
'velha_'
'unless_'
'trás_'
'train_'
'terrible_'
'table_'
'stopped_'
'single_'
'simple_'
'sete_'
'sell_'
'rich_'
'puta_'
'pull_'
'perigo_'
'perguntas_'
'pelas_'
'pass_'
'par_'
'ouro_'
'ordem_'
'mouth_'
'motivo_'
'low_'
'louco_'
'levou_'
'letter_'
'lembrar_'
'land_'
'ladies_'
'honest_'
'homicídio_'
'holding_'
'gostava_'
'gentlemen_'
'force_'
'field_'
'explicar_'
'exactamente_'
'ex_'
'esquerda_'
'escrever_'
'escolha_'
'escape_'
'enorme_'
'direita_'
'diferentes_'
'dessa_'
'dentes_'
'decide_'
'contacto_'
'companhia_'
'clean_'
'chamado_'
'certain_'
'calhar_'
'cair_'
'box_'
'boat_'
'blame_'
'avião_'
'attack_'
'atenção_'
'arm_'
'area_'
'agente_'
'acredita_'
'Vi_'
'Susan_'
'Querida_'
'Peço_'
'Pete_'
'Ouça_'
'Make_'
'Little_'
'Leo_'
'L_'
'Homer_'
'Happy_'
'Fala_'
'Desculpem_'
'Christmas_'
'Antes_'
'Além_'
'." _'
'", _'
'zona_'
'weren_'
'walking_'
'tentou_'
'tanta_'
'strong_'
'strange_'
'standing_'
'sonhos_'
'sex_'
'sake_'
'rules_'
'risk_'
'reunião_'
'respeito_'
'presidente_'
'nessa_'
'negócios_'
'neck_'
'nature_'
'morta_'
'missão_'
'missed_'
'middle_'
'mentir_'
'matá_'
'lying_'
'luta_'
'livre_'
'linda_'
'lidar_'
'law_'
'kept_'
'jornal_'
'jail_'
'interessa_'
'impossível_'
'impossible_'
'hasn_'
'grave_'
'girlfriend_'
'estrada_'
'espaço_'
'erro_'
'engraçado_'
'droga_'
'dor_'
'director_'
'diferença_'
'deveria_'
'destes_'
'definitely_'
'decided_'
'darling_'
'danger_'
'creio_'
'crap_'
'court_'
'cop_'
'conheci_'
'começo_'
'church_'
'bye_'
'building_'
'através_'
'acerca_'
'Veja_'
'Turn_'
'Toma_'
'Time_'
'Taylor_'
'Steve_'
'St_'
'Sometimes_'
'Someone_'
'Sit_'
'Ryan_'
'Ross_'
'Richard_'
'R_'
'Professor_'
'Podia_'
'Looks_'
'Lois_'
'Joey_'
'Jackie_'
'Grande_'
'Everyone_'
'Earth_'
'Coronel_'
'Continua_'
'Billy_'
'Back_'
'Al_'
'Adoro_'
'Acabou_'
'., _'
'últimos_'
'works_'
'wonder_'
'weapons_'
'vim_'
'velocidade_'
'total_'
'top_'
'tiro_'
'tio_'
'tape_'
'stomach_'
'situation_'
'simples_'
'sente_'
'sejas_'
'security_'
'search_'
'saiu_'
'road_'
'ring_'
'resolver_'
'receber_'
'quinta_'
'proud_'
'profissional_'
'professor_'
'preso_'
'posição_'
'position_'
'porquê_'
'poderá_'
'pensas_'
'parque_'
'papel_'
'pack_'
'paciente_'
'obrigada_'
'novamente_'
'none_'
'neither_'
'nao_'
'namorado_'
'military_'
'mexer_'
'maioria_'
'linha_'
'liberdade_'
'levá_'
'killer_'
'join_'
'iria_'
'interested_'
'interessante_'
'general_'
'funcionar_'
'flight_'
'feira_'
'feels_'
'estivesse_'
'estiver_'
'entrou_'
'energia_'
'dum_'
'dropped_'
'drop_'
'disseram_'
'delas_'
'daí_'
'dançar_'
'crew_'
'costas_'
'contente_'
'complete_'
'club_'
'chaves_'
'captain_'
'calças_'
'bonita_'
'bocado_'
'board_'
'bird_'
'bater_'
'azul_'
'art_'
'adoro_'
'act_'
'Victor_'
'Uncle_'
'Tira_'
'Tinha_'
'Terra_'
'Scott_'
'Say_'
'Santa_'
'Run_'
'Roger_'
'Primeiro_'
'Podem_'
'Pare_'
'Mark_'
'Leva_'
'Last_'
'Kyle_'
'Jane_'
'Helen_'
'Fiz_'
'Fique_'
'Estas_'
'Doutor_'
'Disseste_'
'Depressa_'
'Colonel_'
'Chefe_'
'Anyway_'
'Andy_'
'America_'
'Amanhã_'
'Am_'
';_'
'200_'
'16_'
''._'
'within_'
'wild_'
'wearing_'
'wall_'
'vale_'
'using_'
'uncle_'
'trazer_'
'tornar_'
'tocar_'
'televisão_'
'store_'
'size_'
'simply_'
'share_'
'seconds_'
'sea_'
'saia_'
'responsible_'
'respect_'
'realize_'
'rather_'
'race_'
'quickly_'
'quente_'
'própria_'
'promised_'
'problems_'
'prisão_'
'press_'
'president_'
'precisas_'
'praia_'
'pra_'
'porcaria_'
'planeta_'
'perigoso_'
'perhaps_'
'pedi_'
'peace_'
'parecer_'
'offer_'
'máquina_'
'movie_'
'mortos_'
'miúda_'
'menino_'
'mandar_'
'lt_'
'loucura_'
'liked_'
'leva_'
'lembro_'
'lembra_'
'king_'
'juro_'
'interesting_'
'innocent_'
'ilha_'
'hurry_'
'hadn_'
'força_'
'following_'
'fish_'
'finally_'
'film_'
'fear_'
'fat_'
'familiar_'
'falo_'
'exército_'
'experience_'
'estilo_'
'encontrá_'
'early_'
'dude_'
'dress_'
'discutir_'
'diria_'
'digas_'
'deves_'
'deep_'
'debaixo_'
'dark_'
'cops_'
'computador_'
'chorar_'
'camera_'
'cadeira_'
'broken_'
'bonito_'
'became_'
'bathroom_'
'barulho_'
'bank_'
'bag_'
'aniversário_'
'animals_'
'além_'
'almoço_'
'Vegas_'
'Try_'
'Todas_'
'Tive_'
'Son_'
'Rose_'
'Quase_'
'OF_'
'Next_'
'Mal_'
'London_'
'Lex_'
'Lee_'
'Lady_'
'Kevin_'
'Jerry_'
'Jake_'
'Iorque_'
'II_'
'House_'
'French_'
'Estávamos_'
'Dê_'
'Doctor_'
'Devias_'
'Deves_'
'Dave_'
'Damn_'
'Anna_'
'Amy_'
'60_'
'14_'
'.. _'
', '_'
'!"_'
'área_'
'worst_'
'whose_'
'whether_'
'walked_'
'vote_'
'vidas_'
'venha_'
'vender_'
'upset_'
'tribunal_'
'tivemos_'
'surpresa_'
'suicide_'
'stayed_'
'state_'
'stage_'
'spent_'
'speaking_'
'smart_'
'sejam_'
'seguinte_'
'segredo_'
'saída_'
'saco_'
'roupas_'
'responder_'
'quick_'
'provavelmente_'
'pregnant_'
'povo_'
'possamos_'
'planos_'
'perfeito_'
'partner_'
'papá_'
'original_'
'opened_'
'often_'
'numbers_'
'nove_'
'noites_'
'needed_'
'meter_'
'manager_'
'lutar_'
'laugh_'
'lamento_'
'instead_'
'ideias_'
'hundred_'
'hoping_'
'herói_'
'grow_'
'graça_'
'gotten_'
'forgive_'
'fired_'
'fiquei_'
'finalmente_'
'ficas_'
'fato_'
'evidence_'
'espécie_'
'eras_'
'entendo_'
'encontrei_'
'duty_'
'doubt_'
'dollars_'
'dirty_'
'devíamos_'
'desapareceu_'
'dado_'
'cross_'
'controlar_'
'consegues_'
'conhecê_'
'confiança_'
'compreendo_'
'comandante_'
'college_'
'code_'
'chá_'
'chuva_'
'casos_'
'calor_'
'calm_'
'breakfast_'
'blind_'
'batalha_'
'army_'
'appreciate_'
'afternoon_'
'acaso_'
'acabei_'
'Washington_'
'Walter_'
'WE_'
'Vês_'
'Vince_'
'Vemo_'
'Tomorrow_'
'Toda_'
'Think_'
'Sente_'
'Robert_'
'Raios_'
'Rachel_'
'Provavelmente_'
'Portanto_'
'People_'
'Parker_'
'Papa_'
'P_'
'Ooh_'
'Lily_'
'Kill_'
'Jones_'
'Jason_'
'Hoje_'
'Forget_'
'Escuta_'
'El_'
'Eh_'
'Eddie_'
'Duas_'
'Dean_'
'Chuck_'
'Chris_'
'Call_'
'Cada_'
'Buck_'
'Black_'
'Arthur_'
'Aquela_'
'Aonde_'
'Agente_'
'Actually_'
'AND_'
'90_'
'17_'
'0_'
'... ... _'
'.'_'
'- - _'
'"!_'
'window_'
'vêm_'
'voz_'
'voar_'
'vive_'
'viste_'
'verde_'
'turns_'
'triste_'
'trip_'
'trick_'
'travel_'
'totally_'
'tinham_'
'themselves_'
'tenham_'
'student_'
'stuck_'
'straight_'
'stole_'
'speech_'
'soldados_'
'sol_'
'simpático_'
'shop_'
'shoes_'
'shirt_'
'seven_'
'segunda_'
'sabias_'
'roupa_'
'roubar_'
'rock_'
'relax_'
'relatório_'
'recuperar_'
'quadro_'
'põe_'
'pá_'
'provar_'
'prometo_'
'program_'
'prepared_'
'preparar_'
'preparado_'
'podias_'
'perfeita_'
'perdeu_'
'patient_'
'passada_'
'operação_'
'nomes_'
'negócio_'
'namorada_'
'named_'
'música_'
'médicos_'
'morre_'
'month_'
'mission_'
'mestre_'
'mess_'
'matei_'
'mata_'
'machine_'
'líder_'
'longo_'
'ligação_'
'legal_'
'janela_'
'informação_'
'horrible_'
'honra_'
'hello_'
'group_'
'gift_'
'gas_'
'fucked_'
'fotos_'
'floor_'
'fizemos_'
'finish_'
'feelings_'
'faith_'
'fair_'
'escolher_'
'ei_'
'easier_'
'driving_'
'doutor_'
'diabo_'
'devias_'
'destroy_'
'descer_'
'defesa_'
'câmara_'
'cry_'
'cover_'
'controlo_'
'conseguiu_'
'confiar_'
'complicado_'
'companheiro_'
'closed_'
'clock_'
'cinema_'
'chief_'
'chamo_'
'cerca_'
'cena_'
'cell_'
'cavalos_'
'caro_'
'carne_'
'careful_'
'cansado_'
'cabo_'
'buscá_'
'busca_'
'braço_'
'bone_'
'beer_'
'beauty_'
'battle_'
'bastard_'
'barco_'
'banco_'
'autocarro_'
'americano_'
'amas_'
'agradecer_'
'address_'
'acham_'
'`_'
'White_'
'Vejo_'
'Trust_'
'Today_'
'Three_'
'Ted_'
'Talk_'
'Stanley_'
'Shh_'
'Seja_'
'Sabia_'
'Sabem_'
'Rápido_'
'Roy_'
'Querido_'
'Queen_'
'Pessoal_'
'Passa_'
'Out_'
'Oi_'
'Major_'
'Lucas_'
'Louis_'
'Lembra_'
'King_'
'Kate_'
'Julia_'
'Internet_'
'Hei_'
'HAVE_'
'Guess_'
'Greg_'
'Graças_'
'Gostas_'
'Goodbye_'
'Foram_'
'Feliz_'
'Excelente_'
'Estes_'
'Entre_'
'Daqui_'
'Brown_'
'Algo_'
'Adam_'
'Acabei_'
'500_'
'22_'
'$_'
' -_'
'wrote_'
'wind_'
'weapon_'
'vítima_'
'várias_'
'vossas_'
'visitar_'
'tínhamos_'
'trouxeram_'
'trade_'
'trabalhos_'
'tiveste_'
'tiver_'
'tira_'
'ticket_'
'third_'
'terem_'
'tentando_'
'teeth_'
'taste_'
'suspeito_'
'surprised_'
'surprise_'
'surgery_'
'sun_'
'stick_'
'star_'
'split_'
'soul_'
'sob_'
'skin_'
'shower_'
'shame_'
'serão_'
'service_'
'senão_'
'scene_'
'saving_'
'saudades_'
'sapatos_'
'saio_'
'role_'
'river_'
'rio_'
'rid_'
'relationship_'
'regras_'
'registo_'
'realidade_'
'reach_'
'rapidamente_'
'quais_'
'putting_'
'public_'
'prestes_'
'pressure_'
'pressa_'
'precisam_'
'plenty_'
'pista_'
'pernas_'
'pedido_'
'pattern_'
'passo_'
'passed_'
'pants_'
'pago_'
'owe_'
'ouve_'
'números_'
'novos_'
'notícias_'
'noticed_'
'nose_'
'neve_'
'murdered_'
'mudou_'
'medical_'
'mar_'
'mala_'
'listening_'
'lines_'
'likes_'
'ligo_'
'levantar_'
'legs_'
'leaves_'
'lay_'
'lab_'
'kitchen_'
'killing_'
'keeps_'
'inteiro_'
'inteira_'
'imaginar_'
'igual_'
'ice_'
'humanos_'
'hide_'
'herself_'
'helped_'
'hanging_'
'guarda_'
'guard_'
'grab_'
'fugiu_'
'fotografia_'
'foto_'
'fly_'
'fit_'
'fique_'
'filmes_'
'feed_'
'fantástico_'
'famoso_'
'exemplo_'
'excuse_'
'except_'
'estávamos_'
'estaria_'
'esquecer_'
'espírito_'
'esperança_'
'escuro_'
'escrito_'
'dying_'
'duma_'
'due_'
'driver_'
'double_'
'doin_'
'dogs_'
'doença_'
'dizia_'
'distância_'
'devemos_'
'detective_'
'desert_'
'desculpas_'
'dados_'
'cérebro_'
'crack_'
'cozinha_'
'copo_'
'contrário_'
'contact_'
'conhecido_'
'comando_'
'chicken_'
'chapéu_'
'changed_'
'chamou_'
'cave_'
'cat_'
'cartão_'
'cartas_'
'card_'
'capital_'
'canção_'
'bus_'
'bullshit_'
'buddy_'
'bridge_'
'breaking_'
'braços_'
'bordo_'
'blue_'
'began_'
'bear_'
'ball_'
'balas_'
'atrasado_'
'arrived_'
'aquelas_'
'alto_'
'advogado_'
'admit_'
'acidente_'
'Y_'
'William_'
'Want_'
'WHAT_'
'Volta_'
'Viste_'
'Van_'
'Too_'
'Todo_'
'Thomas_'
'Ten_'
'TO_'
'Steven_'
'Sobre_'
'San_'
'Robin_'
'Randy_'
'Qualquer_'
'Penso_'
'Owen_'
'Natalie_'
'Menina_'
'Mama_'
'Majestade_'
'Maggie_'
'MY_'
'Love_'
'Lembras_'
'Kim_'
'Josh_'
'Inglaterra_'
'Houve_'
'Homem_'
'Havia_'
'Has_'
'Goa_'
'Fucking_'
'Fred_'
'English_'
'Encontrei_'
'Dude_'
'Commander_'
'Casa_'
'Carl_'
'Better_'
'Aí_'
'Ask_'
'Abby_'
'13_'
'"..._'
'♪ _'
'–_'
'written_'
'wound_'
'wondering_'
'witness_'
'whoa_'
'wear_'
'volto_'
'voltas_'
'video_'
'vergonha_'
'vento_'
'vens_'
'velhos_'
'usually_'
'upon_'
'type_'
'truly_'
'tripulação_'
'treat_'
'trata_'
'track_'
'trabalha_'
'tornou_'
'thousand_'
'thinks_'
'teste_'
'termos_'
'teremos_'
'tells_'
'telhado_'
'tecnologia_'
'tea_'
'taught_'
'suit_'
'subject_'
'street_'
'steal_'
'spirit_'
'smile_'
'sing_'
'silly_'
'shut_'
'showing_'
'self_'
'seemed_'
'saúde_'
'sad_'
'roof_'
'roll_'
'rico_'
'respirar_'
'regret_'
'red_'
'reading_'
'quit_'
'queriam_'
'push_'
'pulled_'
'priest_'
'pressão_'
'presença_'
'preocupar_'
'powerful_'
'podíamos_'
'pobre_'
'pizza_'
'peço_'
'peças_'
'pequenos_'
'pensam_'
'pele_'
'pareces_'
'ouviu_'
'ouviste_'
'onto_'
'oito_'
'oil_'
'oficial_'
'ocupado_'
'ocupada_'
'näo_'
'note_'
'navio_'
'naquele_'
'naquela_'
'moon_'
'monte_'
'milhão_'
'mercado_'
'mention_'
'mensagem_'
'memory_'
'massa_'
'mail_'
'longa_'
'location_'
'lived_'
'ligou_'
'leve_'
'leg_'
'learned_'
'lead_'
'lawyer_'
'juntar_'
'julgamento_'
'invited_'
'inimigo_'
'honor_'
'hero_'
'hearts_'
'haja_'
'green_'
'governo_'
'god_'
'glass_'
'giro_'
'frio_'
'fixe_'
'files_'
'figured_'
'ferido_'
'fell_'
'farto_'
'extra_'
'exercício_'
'excellent_'
'evitar_'
'estúpida_'
'estrelas_'
'estiveste_'
'espere_'
'emergência_'
'earlier_'
'dreams_'
'difficult_'
'difference_'
'dessas_'
'despedida_'
'desejo_'
'deixá_'
'decision_'
'data_'
'código_'
'céu_'
'costumava_'
'conversar_'
'contou_'
'conhecimento_'
'comum_'
'começou_'
'começa_'
'color_'
'colocar_'
'clube_'
'caught_'
'casas_'
'casaco_'
'carrinha_'
'career_'
'camp_'
'buried_'
'breath_'
'bomb_'
'beyond_'
'beat_'
'avô_'
'avó_'
'attention_'
'apartamento_'
'apart_'
'aparecer_'
'ama_'
'alvo_'
'ajude_'
'ai_'
'agree_'
'acção_'
'action_'
'acordar_'
'acontecendo_'
'access_'
'absolutely_'
'abrir_'
']_'
'Yo_'
'West_'
'Venham_'
'Três_'
'Street_'
'Stargate_'
'Sonny_'
'Smith_'
'Shane_'
'Senta_'
'Senhora_'
'Sargento_'
'Sara_'
'Said_'
'Rick_'
'Rei_'
'Ready_'
'Querem_'
'Podíamos_'
'Piper_'
'Pensava_'
'Pensa_'
'Open_'
'Ontem_'
'Once_'
'Näo_'
'Neste_'
'Nathan_'
'Name_'
'Mundo_'
'Morning_'
'Mind_'
'Matt_'
'Master_'
'Marshall_'
'Mamã_'
'Madame_'
'Luke_'
'Los_'
'Londres_'
'Karen_'
'KNOW_'
'Jordan_'
'Johnson_'
'Ia_'
'Huh_'
'Honey_'
'Grace_'
'G_'
'Four_'
'Foste_'
'Fizeste_'
'Fez_'
'Faça_'
'Esperem_'
'Enquanto_'
'Elas_'
'Durante_'
'Dra_'
'Digo_'
'DNA_'
'Cooper_'
'Coach_'
'Chief_'
'Charlotte_'
'Bruce_'
'Bolas_'
'Besides_'
'Barney_'
'Aren_'
'Aposto_'
'Another_'
'Annie_'
'Acredito_'
'Absolutely_'
'? ._'
'.!_'
', - _'
'% _'
'zero_'
'y_'
'worth_'
'woods_'
'waste_'
'voltou_'
'voice_'
'via_'
'vermelho_'
'urso_'
'twice_'
'truck_'
'treatment_'
'traz_'
'transmissão_'
'trace_'
'tiverem_'
'testemunhas_'
'telefonema_'
'tears_'
'teacher_'
'tamanho_'
'sweetheart_'
'support_'
'suggest_'
'sucesso_'
'starting_'
'sr_'
'spot_'
'song_'
'somehow_'
'som_'
'soldier_'
'soldado_'
'sinais_'
'simplesmente_'
'silêncio_'
'shows_'
'showed_'
'sexual_'
'senti_'
'segura_'
'secreto_'
'salvo_'
'round_'
'rosto_'
'risco_'
'ridiculous_'
'queira_'
'propósito_'
'pronta_'
'processo_'
'privado_'
'price_'
'preocupe_'
'post_'
'portanto_'
'portal_'
'pontos_'
'planet_'
'pie_'
'pictures_'
'picture_'
'piada_'
'pertence_'
'percebes_'
'penses_'
'parede_'
'parceiro_'
'ouvidos_'
'opinião_'
'operações_'
'operation_'
'olho_'
'nível_'
'nowhere_'
'notas_'
'nota_'
'north_'
'nine_'
'necessário_'
'names_'
'mês_'
'máximo_'
'motherfucker_'
'mo_'
'metade_'
'meninas_'
'match_'
'marriage_'
'magia_'
'louca_'
'loss_'
'losing_'
'loose_'
'lonely_'
'lixe_'
'ligado_'
'letters_'
'leading_'
'laughing_'
'language_'
'laid_'
'km_'
'jump_'
'journey_'
'jardim_'
'involved_'
'interior_'
'inteligente_'
'insane_'
'informações_'
'inferno_'
'imagem_'
'idéia_'
'ido_'
'idiot_'
'humana_'
'histórias_'
'hidden_'
'hi_'
'held_'
'heaven_'
'hall_'
'guns_'
'guilty_'
'growing_'
'grew_'
'gostas_'
'gostam_'
'goodness_'
'gold_'
'gelo_'
'fuckin_'
'forças_'
'forward_'
'fortes_'
'forever_'
'foot_'
'folks_'
'fingers_'
'fico_'
'ficam_'
'fellow_'
'fazia_'
'famous_'
'families_'
'everywhere_'
'estranha_'
'estragar_'
'esqueças_'
'equipment_'
'entender_'
'enganar_'
'empty_'
'empresa_'
'dúvida_'
'dê_'
'dão_'
'drunk_'
'drinking_'
'downtown_'
'dizendo_'
'dig_'
'diabos_'
'dever_'
'destas_'
'deixei_'
'decidi_'
'daquele_'
'daquela_'
'damage_'
'cães_'
'cutting_'
'criminal_'
'cousin_'
'cost_'
'corrida_'
'corpos_'
'convosco_'
'continua_'
'contas_'
'conheces_'
'completely_'
'command_'
'comeu_'
'colega_'
'coat_'
'choose_'
'cheiro_'
'character_'
'cash_'
'casado_'
'cares_'
'cab_'
'c_'
'bunch_'
'borrow_'
'books_'
'bolo_'
'bloody_'
'bilhete_'
'belo_'
'beleza_'
'bela_'
'assinar_'
'asleep_'
'arte_'
'antiga_'
'acting_'
'acontecido_'
'acima_'
'acesso_'
'abrigo_'
'aboard_'
'[ _'
'World_'
'WITH_'
'Unless_'
'United_'
'Tuvok_'
'Tina_'
'Tim_'
'Terry_'
'Tal_'
'Suponho_'
'Sunday_'
'Stand_'
'Should_'
'Shoot_'
'Sergeant_'
'Sammy_'
'Saiam_'
'Rock_'
'Quatro_'
'Quantas_'
'Phil_'
'Parem_'
'Padre_'
'Outra_'
'Old_'
'Nos_'
'Nate_'
'Mason_'
'Logan_'
'Liga_'
'Larga_'
'Kelly_'
'Keith_'
'Jonathan_'
'IS_'
'IN_'
'Home_'
'High_'
'Hank_'
'Força_'
'F_'
'Estavas_'
'Esquece_'
'Entra_'
'Entendido_'
'Earl_'
'Dêem_'
'Dizem_'
'Dick_'
'Detective_'
'DON_'
'Conheço_'
'Conhece_'
'Check_'
'Chamo_'
'Central_'
'Carter_'
'Caramba_'
'Capitã_'
'Brother_'
'Avenue_'
'Após_'
'Anything_'
'Angel_'
'Ambos_'
'Alice_'
'ARE_'
'; _'
'80_'
'70_'
'35_'
'300_'
'24_'
'," _'
' ] _'
' , _'
'íamos_'
'época_'
' ?_'
'writing_'
'ways_'
'voo_'
'viva_'
'visão_'
'visita_'
'visit_'
'vimos_'
'verdadeira_'
'velhote_'
'usá_'
'usando_'
'tree_'
'towards_'
'topo_'
'tivesses_'
'tiros_'
'tie_'
'tido_'
'theory_'
'terrível_'
'teoria_'
'tenente_'
'teach_'
'suspect_'
'survive_'
'stress_'
'spy_'
'spring_'
'solve_'
'smoking_'
'smoke_'
'slowly_'
'slip_'
'sitting_'
'sight_'
'shoulder_'
'shooting_'
'ships_'
'several_'
'serei_'
'senhoras_'
'sending_'
'segue_'
'sede_'
'secretária_'
'science_'
'scare_'
'sat_'
'salad_'
'saiba_'
'ruas_'
'riding_'
'resultado_'
'restaurante_'
'responsibility_'
'remain_'
'relógio_'
'release_'
'regresso_'
'reached_'
'querias_'
'queen_'
'pôs_'
'pó_'
'pude_'
'próximos_'
'propriedade_'
'prontos_'
'principal_'
'primeiros_'
'preço_'
'postos_'
'possibly_'
'positivo_'
'popular_'
'ponte_'
'polícias_'
'pleasure_'
'played_'
'plans_'
'planning_'
'piloto_'
'pieces_'
'picked_'
'pescoço_'
'perna_'
'perdi_'
'percent_'
'pequenas_'
'pensou_'
'peixe_'
'pedaço_'
'partes_'
'parecia_'
'parecem_'
'pal_'
'paga_'
'outta_'
'ought_'
'opção_'
'olá_'
'oficiais_'
'officer_'
'obra_'
'novas_'
'nothin_'
'nor_'
'nervous_'
'negro_'
'motor_'
'monstro_'
'miúdas_'
'milhares_'
'metros_'
'metal_'
'mentira_'
'mental_'
'meat_'
'maus_'
'matters_'
'mate_'
'master_'
'maravilhosa_'
'mano_'
'mamã_'
'maldito_'
'malas_'
'main_'
'loves_'
'lots_'
'locked_'
'lixo_'
'lied_'
'li_'
'levo_'
'lembras_'
'knowledge_'
'judge_'
'joke_'
'jobs_'
'investigação_'
'investigar_'
'introduce_'
'inocente_'
'impressão_'
'imprensa_'
'impedir_'
'imagine_'
'igreja_'
'humans_'
'humano_'
'hole_'
'headache_'
'harm_'
'hardly_'
'gozar_'
'gigante_'
'gelado_'
'garrafa_'
'games_'
'fresh_'
'form_'
'foder_'
'firing_'
'file_'
'favorite_'
'falei_'
'falando_'
'faca_'
'existem_'
'exciting_'
'estará_'
'estares_'
'esquecido_'
'esperto_'
'espectáculo_'
'errada_'
'entra_'
'entende_'
'entanto_'
'energy_'
'encontraram_'
'eh_'
'eating_'
'ears_'
'dás_'
'drugs_'
'doce_'
'divertido_'
'discovered_'
'disco_'
'destino_'
'descobri_'
'dera_'
'department_'
'demorar_'
'deixo_'
'deitar_'
'dei_'
'dedo_'
'decisão_'
'dealing_'
'dangerous_'
'daddy_'
'cute_'
'curso_'
'cuidar_'
'credit_'
'count_'
'correio_'
'coragem_'
'cor_'
'continue_'
'construir_'
'conselho_'
'conseguia_'
'consegui_'
'conhecemos_'
'common_'
'comboio_'
'civil_'
'cigarettes_'
'cheque_'
'checked_'
'chair_'
'casino_'
'cases_'
'carteira_'
'camisa_'
'cabrão_'
'butt_'
'bust_'
'buraco_'
'built_'
'build_'
'breathing_'
'branco_'
'branca_'
'bought_'
'bottom_'
'bigger_'
'below_'
'believed_'
'beginning_'
'begin_'
'bebidas_'
'barely_'
'band_'
'balls_'
'bala_'
'aviso_'
'atirar_'
'assume_'
'arrest_'
'approach_'
'apologize_'
'apanhado_'
'angry_'
'andam_'
'andado_'
'among_'
'americanos_'
'alta_'
'allowed_'
'allow_'
'alegria_'
'ah_'
'agentes_'
'agent_'
'afford_'
'advantage_'
'actor_'
'acreditam_'
'achar_'
'aceitar_'
'account_'
'abre_'
'above_'
'Wouldn_'
'Without_'
'Were_'
'Vic_'
'Up_'
'Things_'
'Their_'
'Tentei_'
'Sydney_'
'Step_'
'Start_'
'Spock_'
'Socorro_'
'Sobe_'
'Simon_'
'Show_'
'Shirley_'
'Senhoras_'
'Seis_'
'Scully_'
'Sandy_'
'Quantos_'
'President_'
'Porra_'
'Poirot_'
'Plus_'
'Percebeste_'
'Pela_'
'Patrick_'
'Park_'
'Odeio_'
'ON_'
'Number_'
'Norman_'
'Nicole_'
'NOT_'
'Mãos_'
'Morgan_'
'Monsieur_'
'Monk_'
'Monica_'
'Mommy_'
'Miranda_'
'Meus_'
'Marie_'
'Lucy_'
'Liz_'
'Know_'
'Ken_'
'K_'
'Jesse_'
'Jeff_'
'Inspector_'
'Indian_'
'Howard_'
'Honor_'
'Holy_'
'Haven_'
'Hang_'
'Haley_'
'H_'
'HE_'
'Glad_'
'Five_'
'Faço_'
'Fazes_'
'Fantástico_'
'Ever_'
'Estado_'
'Dylan_'
'Duke_'
'Devem_'
'Denny_'
'Dei_'
'Dear_'
'Day_'
'Dan_'
'DO_'
'Cristo_'
'Creio_'
'Consigo_'
'Conselho_'
'Consegui_'
'Consegues_'
'Congratulations_'
'Cinco_'
'Chloe_'
'California_'
'Bring_'
'Bart_'
'Atenção_'
'Apparently_'
'Anne_'
'América_'
'Amo_'
'Americans_'
'Alguns_'
'Albert_'
'Agradeço_'
'Achei_'
'? -_'
'75_'
'45_'
'19_'
'ás_'
'zangado_'
'youth_'
'wise_'
'wire_'
'winner_'
'willing_'
'weekend_'
'vás_'
'voltei_'
'volte_'
'visual_'
'viram_'
'village_'
'vidro_'
'vestir_'
'venda_'
'value_'
'usual_'
'usado_'
'usa_'
'universidade_'
'ultimamente_'
'uld_'
'turning_'
'trial_'
'treinar_'
'treated_'
'training_'
'toque_'
'tiveram_'
'tirou_'
'tiny_'
'tia_'
'testes_'
'telemóvel_'
'tantas_'
'swimming_'
'supply_'
'superfície_'
'super_'
'summer_'
'subir_'
'storm_'
'stone_'
'staff_'
'speed_'
'south_'
'souber_'
'soube_'
'sooner_'
'solar_'
'soda_'
'sociedade_'
'sleeping_'
'site_'
'sink_'
'signal_'
'shock_'
'sheriff_'
'seriously_'
'seres_'
'seremos_'
'sentado_'
'selvagem_'
'sees_'
'screaming_'
'sarilhos_'
'rosa_'
'robot_'
'rights_'
'ridículo_'
'result_'
'responsabilidade_'
'research_'
'rescue_'
'request_'
'relaxar_'
'records_'
'reasons_'
'reality_'
'razões_'
'ray_'
'range_'
'raios_'
'questões_'
'queríamos_'
'queiras_'
'quartos_'
'quarter_'
'quantos_'
'pudesse_'
'process_'
'primo_'
'pride_'
'preto_'
'pretend_'
'presos_'
'prepare_'
'prefer_'
'poucos_'
'porreiro_'
'pool_'
'política_'
'policial_'
'policia_'
'podiam_'
'plate_'
'pig_'
'piano_'
'peça_'
'peso_'
'perdido_'
'perdeste_'
'pedra_'
'passeio_'
'passaram_'
'parvo_'
'particular_'
'park_'
'papers_'
'padrão_'
'owner_'
'ourselves_'
'ossos_'
'opening_'
'olhes_'
'older_'
'ocupados_'
'nuts_'
'notice_'
'norte_'
'nojento_'
'noivo_'
'noiva_'
'nela_'
'necessidade_'
'natureza_'
'nariz_'
'nadar_'
'más_'
'murderer_'
'movimento_'
'movies_'
'moves_'
'movement_'
'motel_'
'mostra_'
'moral_'
'mood_'
'militar_'
'membros_'
'mark_'
'maricas_'
'mandou_'
'maluco_'
'male_'
'major_'
'maiores_'
'língua_'
'luzes_'
'lua_'
'liceu_'
'libertar_'
'leite_'
'large_'
'laboratório_'
'knowing_'
'kick_'
'keeping_'
'justo_'
'jogos_'
'island_'
'irmos_'
'irei_'
'inútil_'
'interest_'
'interessado_'
'indo_'
'indeed_'
'incrível_'
'importo_'
'importas_'
'immediately_'
'imenso_'
'iam_'
'hundreds_'
'huge_'
'hook_'
'hmm_'
'helping_'
'heads_'
'h_'
'graças_'
'graus_'
'gostei_'
'goin_'
'gatilho_'
'garota_'
'fé_'
'further_'
'fossem_'
'foreign_'
'fizesse_'
'finding_'
'filled_'
'fill_'
'ferida_'
'female_'
'fechar_'
'fate_'
'fale_'
'faculdade_'
'explosão_'
'explica_'
'expensive_'
'evil_'
'eventually_'
'estarão_'
'esperava_'
'especially_'
'esconder_'
'escapar_'
'escadas_'
'entrado_'
'enganado_'
'enfrentar_'
'encontrado_'
'encher_'
'emoções_'
'elevador_'
'effort_'
'duro_'
'dumb_'
'drogas_'
'dressed_'
'downstairs_'
'dollar_'
'doentes_'
'divertir_'
'disser_'
'disgusting_'
'disappeared_'
'direcção_'
'dick_'
'deserve_'
'describe_'
'desaparece_'
'delicious_'
'deixado_'
'defense_'
'dedos_'
'custa_'
'cumprir_'
'crying_'
'criar_'
'created_'
'corredor_'
'coronel_'
'convinced_'
'contrato_'
'consiga_'
'conseguimos_'
'conhecia_'
'conhecem_'
'concerned_'
'compreender_'
'começam_'
'combater_'
'combate_'
'colonel_'
'closer_'
'clearly_'
'claim_'
'civis_'
'cheia_'
'chegarmos_'
'chamas_'
'cerveja_'
'casou_'
'casal_'
'cars_'
'carreira_'
'carga_'
'caras_'
'candy_'
'camião_'
'cadeia_'
'burning_'
'burned_'
'burn_'
'bucks_'
'brothers_'
'brings_'
'brilhante_'
'brave_'
'brain_'
'bother_'
'bolso_'
'bolas_'
'bocadinho_'
'becomes_'
'bando_'
'baile_'
'azar_'
'awful_'
'ate_'
'assuntos_'
'asshole_'
'appear_'
'apesar_'
'anti_'
'animais_'
'angel_'
'andando_'
'ambulance_'
'amazing_'
'amar_'
'aldeia_'
'agradável_'
'affair_'
'advice_'
'acreditas_'
'accept_'
'acabaram_'
'aberta_'
'abandoned_'
'Xena_'
'X_'
'Wake_'
'Vincent_'
'Verão_'
'Verdade_'
'Valley_'
'V_'
'Until_'
'Tenta_'
'Super_'
'Sun_'
'Sue_'
'Stephen_'
'South_'
'Soon_'
'Somebody_'
'Sister_'
'Senator_'
'Segundo_'
'Sean_'
'Saia_'
'Sabias_'
'Russell_'
'Roma_'
'Realmente_'
'Quais_'
'Q_'
'Precisas_'
'Porter_'
'Poor_'
'Police_'
'Podias_'
'Pobre_'
'Pessoas_'
'Passei_'
'Pareces_'
'Papá_'
'Paige_'
'Oiça_'
'Officer_'
'Nossa_'
'North_'
'Norte_'
'None_'
'Nina_'
'Nesse_'
'Nenhum_'
'NO_'
'Must_'
'Monday_'
'Ministro_'
'Miguel_'
'Michelle_'
'Mestre_'
'Meredith_'
'Margaret_'
'Marcus_'
'Majesty_'
'Lincoln_'
'Leste_'
'Laura_'
'Lana_'
'Kind_'
'Kenny_'
'Katie_'
'Justin_'
'Juro_'
'Julie_'
'Joy_'
'India_'
'Idiota_'
'Ice_'
'However_'
'Hastings_'
'Harvey_'
'Grab_'
'German_'
'Gary_'
'Friday_'
'Fogo_'
'Fico_'
'Family_'
'Falo_'
'Fale_'
'FOR_'
'Eva_'
'Esqueci_'
'England_'
'Drop_'
'Doug_'
'Doesn_'
'Devíamos_'
'Davis_'
'Daniel_'
'Céus_'
'Cut_'
'Conrad_'
'Comandante_'
'Claire_'
'Chicago_'
'Center_'
'Catherine_'
'Cale_'
'Bud_'
'Bridge_'
'Booth_'
'Bo_'
'Before_'
'Barry_'
'Bad_'
'Baby_'
'Aw_'
'Atlantis_'
'April_'
'Apesar_'
'Aos_'
'Ann_'
'Alright_'
'Almost_'
'Algum_'
'Agent_'
'Aaron_'
'38_'
'28_'
'26_'
'.?_'
'...!_'
'... .._'
'... "_'
'". _'
' -- _'
'óptima_'
'Ó_'
'yellow_'
'wine_'
'whom_'
'whoever_'
'wherever_'
'whenever_'
'weather_'
'weak_'
'vós_'
'vítimas_'
'vídeo_'
'voce_'
'vires_'
'virar_'
'vinha_'
'vingança_'
'vestígios_'
'versão_'
'vemos_'
'vejam_'
'vazio_'
'van_'
'uses_'
'unit_'
'ugly_'
'táxi_'
'treta_'
'treino_'
'trato_'
'tratamento_'
'traseiro_'
'trail_'
'traffic_'
'trabalhava_'
'touched_'
'torna_'
'tomates_'
'toma_'
'tirá_'
'thy_'
'throat_'
'threat_'
'thirsty_'
'tesouro_'
'terreno_'
'terminar_'
'terei_'
'tenta_'
'tempestade_'
'telefonar_'
'tantos_'
'tall_'
'sword_'
'sweetie_'
'surface_'
'sul_'
'suficientes_'
'suck_'
'sub_'
'study_'
'stops_'
'stays_'
'staying_'
'statement_'
'stairs_'
'spread_'
'spoke_'
'soubesse_'
'somethin_'
'sombra_'
'sold_'
'social_'
'sobreviver_'
'sobe_'
'slaves_'
'sides_'
'shy_'
'shoe_'
'settle_'
'sergeant_'
'separate_'
'sentia_'
'sentes_'
'seguida_'
'segredos_'
'schedule_'
'sargento_'
'rápida_'
'rude_'
'roubo_'
'romantic_'
'revolução_'
'responsável_'
'resistência_'
'refuse_'
'recognize_'
'received_'
'rate_'
'radio_'
'radar_'
'rabo_'
'ra_'
'quisesse_'
'quebrar_'
'público_'
'punishment_'
'puder_'
'provável_'
'protection_'
'protect_'
'property_'
'produtos_'
'princípio_'
'princesa_'
'prevent_'
'presentes_'
'preocupado_'
'prefiro_'
'precisava_'
'pre_'
'praticar_'
'praticamente_'
'pop_'
'poderes_'
'plus_'
'player_'
'plain_'
'physical_'
'pesquisa_'
'pesadelo_'
'permissão_'
'perfume_'
'perdemos_'
'perda_'
'pensando_'
'pegar_'
'pede_'
'paying_'
'pathetic_'
'patch_'
'participar_'
'parou_'
'parking_'
'parecido_'
'pareceu_'
'padre_'
'packed_'
'ouvido_'
'ordered_'
'offered_'
'odeio_'
'normalmente_'
'normais_'
'non_'
'nights_'
'nestes_'
'negros_'
'nearly_'
'naked_'
'museum_'
'motorista_'
'monster_'
'moments_'
'momentos_'
'militares_'
'mile_'
'midnight_'
'metido_'
'mesmas_'
'merdas_'
'mentiu_'
'mentioned_'
'menti_'
'memória_'
'memories_'
'members_'
'melhorar_'
'medicine_'
'matéria_'
'mato_'
'matado_'
'mantém_'
'manage_'
'mama_'
'magic_'
'limpo_'
'level_'
'levado_'
'led_'
'lavar_'
'knife_'
'keys_'
'juntas_'
'jeito_'
'issues_'
'issue_'
'irmãos_'
'início_'
'international_'
'interesse_'
'intend_'
'insurance_'
'instante_'
'incomoda_'
'inches_'
'impede_'
'imagens_'
'idiotas_'
'ias_'
'holiday_'
'ho_'
'hired_'
'hiding_'
'health_'
'ha_'
'grávida_'
'grand_'
'golf_'
'gods_'
'gives_'
'gentleman_'
'funeral_'
'fully_'
'forgotten_'
'fonte_'
'fizer_'
'fila_'
'ficasse_'
'ficará_'
'ficaria_'
'fever_'
'fellas_'
'feio_'
'façam_'
'fase_'
'fantasma_'
'fancy_'
'falas_'
'faces_'
'extremamente_'
'exterior_'
'explodir_'
'explicação_'
'expecting_'
'exist_'
'exchange_'
'estrela_'
'estrangeiro_'
'esqueci_'
'especialista_'
'espacial_'
'entrevista_'
'ensinou_'
'enjoy_'
'ends_'
'encontrámos_'
'encontra_'
'empregado_'
'emergency_'
'effect_'
'edifício_'
'easily_'
'earth_'
'ear_'
'domingo_'
'dom_'
'divorce_'
'distance_'
'disponível_'
'disparar_'
'discurso_'
'difíceis_'
'dies_'
'devolver_'
'devil_'
'details_'
'destroyed_'
'desses_'
'despedido_'
'desk_'
'descansar_'
'der_'
'demora_'
'demon_'
'defender_'
'dare_'
'dança_'
'damned_'
'cup_'
'cruel_'
'crisis_'
'criado_'
'crash_'
'cortar_'
'correct_'
'convidados_'
'contract_'
'consider_'
'conseguiste_'
'conseguem_'
'conduzir_'
'comunidade_'
'competition_'
'community_'
'commit_'
'comfortable_'
'colegas_'
'cobra_'
'closet_'
'clientes_'
'cliente_'
'classe_'
'cientistas_'
'chocolate_'
'chegue_'
'cheese_'
'centenas_'
'cego_'
'ceder_'
'caça_'
'carregar_'
'cargo_'
'capable_'
'cancro_'
'canal_'
'campaign_'
'cala_'
'cabana_'
'button_'
'brilliant_'
'brancos_'
'brains_'
'bottle_'
'bons_'
'bombas_'
'bomba_'
'boleia_'
'bill_'
'belong_'
'behavior_'
'beg_'
'bebida_'
'beach_'
'basketball_'
'balance_'
'ação_'
'avisar_'
'autopsy_'
'auto_'
'aula_'
'attacked_'
'atmosfera_'
'atacou_'
'assassinos_'
'artista_'
'article_'
'após_'
'apresentar_'
'appears_'
'apparently_'
'aposto_'
'apostas_'
'apaixonada_'
'antigos_'
'antigo_'
'anjo_'
'anel_'
'ando_'
'andas_'
'amigas_'
'alarm_'
'adorável_'
'adora_'
'acções_'
'acusação_'
'actual_'
'achou_'
'achei_'
'achamos_'
'acalmar_'
'acabado_'
'acaba_'
'aberto_'
'Yet_'
'Yep_'
'Whose_'
'While_'
'Wayne_'
'Volte_'
'Viva_'
'Veio_'
'Uns_'
'Toca_'
'Toby_'
'Tio_'
'Tempo_'
'Teal_'
'THIS_'
'THEY_'
'Sul_'
'States_'
'State_'
'Spirit_'
'Sounds_'
'Sophie_'
'Sharon_'
'Seth_'
'Seria_'
'Sentem_'
'Senhores_'
'Segurança_'
'Sea_'
'Santo_'
'Samantha_'
'Sabemos_'
'Ruth_'
'Roman_'
'Rob_'
'Relax_'
'Quite_'
'Pull_'
'Precisa_'
'Play_'
'Phoebe_'
'Pergunte_'
'Perdemos_'
'Penny_'
'Parecia_'
'Pardon_'
'Ouviste_'
'Oliver_'
'Olhem_'
'Ohh_'
'Obviously_'
'Nosso_'
'Nope_'
'Nigel_'
'Negro_'
'N_'
'NOW_'
'Mulheres_'
'Most_'
'Mmm_'
'Miles_'
'Mickey_'
'Miami_'
'Mexam_'
'Men_'
'Mel_'
'Maria_'
'Many_'
'Mac_'
'ME_'
'Long_'
'Logo_'
'Linda_'
'Light_'
'Levem_'
'Lawrence_'
'LA_'
'Kids_'
'Junior_'
'Jay_'
'Isabel_'
'Hotel_'
'Ho_'
'Hitler_'
'Henderson_'
'Hell_'
'Head_'
'Hannah_'
'Hall_'
'Ha_'
'HERE_'
'Going_'
'Getting_'
'Germans_'
'França_'
'Francisco_'
'Forgive_'
'Ford_'
'Florida_'
'Fire_'
'Fiquei_'
'Find_'
'Finalmente_'
'Falei_'
'Except_'
'Exactly_'
'Europa_'
'Esqueça_'
'Eram_'
'Enterprise_'
'Encontraste_'
'Encontraram_'
'Emily_'
'Eight_'
'Edward_'
'East_'
'EUA_'
'Duvido_'
'Down_'
'Donna_'
'Dia_'
'Desta_'
'Deixem_'
'Death_'
'Darling_'
'Cá_'
'Cool_'
'Connor_'
'Conheces_'
'Completamente_'
'Christian_'
'China_'
'Camp_'
'Calm_'
'Califórnia_'
'Café_'
'Caesar_'
'CAN_'
'Buffy_'
'Brenda_'
'Betty_'
'Bauer_'
'Aunt_'
'Aquilo_'
'Aqueles_'
'Anyone_'
'Anybody_'
'Angeles_'
'Andrew_'
'Amen_'
'Always_'
'Although_'
'Aliás_'
'Alemanha_'
'Abre_'
'23_'
'21_'
'120_'
'- [ _'
'* _'
'%._'
' ♪_'
' ]_'
' ? _'
'útil_'
'ó_'
'éramos_'
'álcool_'
'Água_'
'África_'
'_'
'yards_'
'xerife_'
'workers_'
'witch_'
'winning_'
'windows_'
'wave_'
'waters_'
'wash_'
'warm_'
'vírus_'
'vêem_'
'vários_'
'visiting_'
'vinho_'
'vindas_'
'vieste_'
'vieram_'
'vessel_'
'vermelha_'
'venhas_'
'veja_'
'valor_'
'valer_'
'useless_'
'usava_'
'unknown_'
'universe_'
'understood_'
'typical_'
'twenty_'
'tunnels_'
'tretas_'
'transporte_'
'traga_'
'tradition_'
'tractor_'
'trabalhando_'
'toy_'
'tower_'
'toward_'
'toast_'
'tire_'
'tight_'
'throwing_'
'thousands_'
'thin_'
'testemunha_'
'testar_'
'terás_'
'terceiro_'
'tensão_'
'temperatura_'
'telefonou_'
'technology_'
'teatro_'
'tarte_'
'tank_'
'talks_'
'ta_'
'séculos_'
'systems_'
'suficientemente_'
'suffer_'
'sudden_'
'success_'
'structure_'
'streets_'
'stolen_'
'stock_'
'staring_'
'spare_'
'sozinhos_'
'sopa_'
'sonhar_'
'solo_'
'soldiers_'
'sofá_'
'society_'
'sobrinho_'
'soa_'
'slow_'
'sisters_'
'similar_'
'signed_'
'shopping_'
'servir_'
'servem_'
'sermos_'
'serem_'
'sentimentos_'
'sentem_'
'sentar_'
'senta_'
'secrets_'
'secretary_'
'screw_'
'scream_'
'scientific_'
'saíres_'
'saltar_'
'sairmos_'
'saibas_'
'safety_'
'safar_'
'sacana_'
'sabiam_'
'runs_'
'ruined_'
'ruin_'
'rough_'
'rotina_'
'ritual_'
'rip_'
'ricos_'
'rice_'
'rezar_'
'rever_'
'reunir_'
'returned_'
'retirar_'
'resultou_'
'resultar_'
'resultados_'
'restaurant_'
'responsabilidades_'
'reserva_'
'represented_'
'reports_'
'repente_'
'religion_'
'redor_'
'recently_'
'recebi_'
'raise_'
'quiserem_'
'queijo_'
'página_'
'pus_'
'purpose_'
'pulse_'
'próximas_'
'próprios_'
'prémio_'
'protecção_'
'project_'
'procuro_'
'procuras_'
'prisoners_'
'prisoner_'
'preocupação_'
'preocupa_'
'practice_'
'powers_'
'posto_'
'posse_'
'positive_'
'pontapé_'
'políticos_'
'pole_'
'points_'
'poderão_'
'poderiam_'
'plasma_'
'planned_'
'planetas_'
'pissed_'
'pilot_'
'photos_'
'pessoalmente_'
'pesada_'
'permitir_'
'perguntou_'
'perdoe_'
'percebido_'
'percebeste_'
'percebem_'
'perante_'
'pensava_'
'pensaste_'
'pensado_'
'peito_'
'pee_'
'pato_'
'passenger_'
'partiu_'
'partido_'
'pares_'
'papéis_'
'palhaço_'
'paixão_'
'pair_'
'ovos_'
'ours_'
'opportunity_'
'online_'
'officers_'
'oferecer_'
'oeste_'
'odd_'
'notícia_'
'notes_'
'noon_'
'noble_'
'nightmare_'
'nervosa_'
'neighborhood_'
'needing_'
'n_'
'médica_'
'mágico_'
'musical_'
'munições_'
'mudança_'
'mortes_'
'morreram_'
'montar_'
'molho_'
'model_'
'mm_'
'mix_'
'minds_'
'messing_'
'mesmos_'
'mesas_'
'mentiras_'
'menor_'
'meninos_'
'membro_'
'material_'
'mataram_'
'marks_'
'marca_'
'mantenha_'
'manda_'
'malta_'
'maid_'
'madeira_'
'loud_'
'loucos_'
'lock_'
'localização_'
'lixar_'
'limpeza_'
'limited_'
'liga_'
'lift_'
'liar_'
'lf_'
'lesson_'
'lately_'
'laser_'
'largar_'
'laranja_'
'landed_'
'ladrão_'
'lados_'
'knees_'
'kitty_'
'kicked_'
'juízo_'
'justice_'
'jury_'
'juiz_'
'judgment_'
'joy_'
'jovens_'
'jornais_'
'janelas_'
'jam_'
'ires_'
'iremos_'
'invented_'
'introduced_'
'intervalo_'
'interrupt_'
'inimigos_'
'informar_'
'incredible_'
'impressões_'
'impostos_'
'importância_'
'importantes_'
'imagino_'
'idiots_'
'identificação_'
'identificar_'
'hunt_'
'hug_'
'horses_'
'holes_'
'hitting_'
'helicóptero_'
'hei_'
'heat_'
'healthy_'
'headed_'
'harder_'
'handed_'
'génio_'
'género_'
'guest_'
'guards_'
'guardas_'
'grown_'
'grandmother_'
'grade_'
'goste_'
'gosh_'
'glory_'
'giant_'
'ghosts_'
'ghost_'
'gear_'
'gates_'
'gate_'
'futebol_'
'fur_'
'função_'
'funcionou_'
'frozen_'
'friendship_'
'freeze_'
'fought_'
'fotografias_'
'fores_'
'forced_'
'flying_'
'flower_'
'fingir_'
'finger_'
'filthy_'
'ficheiros_'
'ficarei_'
'ficamos_'
'feitos_'
'feitas_'
'feijão_'
'fed_'
'faremos_'
'farei_'
'fantasia_'
'fan_'
'falámos_'
'falso_'
'false_'
'falls_'
'falamos_'
'falado_'
'explosivos_'
'explosion_'
'expected_'
'excepto_'
'excelente_'
'estiveres_'
'estejas_'
'estaremos_'
'esquadra_'
'esperando_'
'especialmente_'
'especiais_'
'espada_'
'escrita_'
'escreveu_'
'erros_'
'equipamento_'
'entrada_'
'ensinar_'
'enfermeira_'
'encontram_'
'employees_'
'elements_'
'electricidade_'
'dúvidas_'
'dói_'
'dust_'
'dumped_'
'drug_'
'doors_'
'dono_'
'doces_'
'divisão_'
'dividir_'
'diversão_'
'distress_'
'disposto_'
'disposição_'
'dime_'
'digging_'
'digam_'
'dificuldade_'
'diante_'
'deviam_'
'detalhes_'
'destruir_'
'despite_'
'desejar_'
'desculpe_'
'descrição_'
'derrotar_'
'departamento_'
'democracy_'
'deixes_'
'deixem_'
'declare_'
'dava_'
'dating_'
'daquilo_'
'daqueles_'
'cópia_'
'curse_'
'cultural_'
'culpada_'
'cuecas_'
'crowd_'
'criminoso_'
'correu_'
'corner_'
'convince_'
'conversation_'
'controle_'
'continuo_'
'contei_'
'conspiracy_'
'conselhos_'
'conseguires_'
'confia_'
'condition_'
'concordo_'
'comunista_'
'comprado_'
'comportamento_'
'complicated_'
'complain_'
'committee_'
'committed_'
'commitment_'
'começaram_'
'coma_'
'colocou_'
'colecção_'
'coincidence_'
'coelho_'
'cock_'
'cloud_'
'closing_'
'cliff_'
'citizens_'
'circus_'
'circle_'
'chegámos_'
'cheap_'
'chateado_'
'centro_'
'cavalheiros_'
'causar_'
'carefully_'
'cared_'
'cardíaco_'
'cantar_'
'cancer_'
'caiu_'
'cabra_'
'cabeças_'
'buying_'
'brown_'
'brincadeira_'
'bodies_'
'bite_'
'bilhetes_'
'biggest_'
'bife_'
'bicicleta_'
'besta_'
'bath_'
'bate_'
'batata_'
'barba_'
'banda_'
'banana_'
'baixa_'
'backup_'
'babies_'
'awfully_'
'avançar_'
'available_'
'autoridade_'
'authority_'
'ausente_'
'aumentar_'
'attorney_'
'attitude_'
'atravessar_'
'atacar_'
'assistente_'
'aspecto_'
'asks_'
'artist_'
'arrested_'
'arrepender_'
'arms_'
'armed_'
'areia_'
'aproximar_'
'approaching_'
'apostar_'
'apoiar_'
'aparelho_'
'apareceu_'
'apanharam_'
'apaixonado_'
'aonde_'
'anytime_'
'ambulância_'
'ambas_'
'amarelo_'
'aluguer_'
'almas_'
'alien_'
'alert_'
'alcance_'
'ajudou_'
'aguentar_'
'agreed_'
'agents_'
'agarrar_'
'adorava_'
'aconteça_'
'achava_'
'according_'
'absolutamente_'
'YOUR_'
'Xander_'
'Woody_'
'Willie_'
'Williams_'
'Wells_'
'Walker_'
'Wade_'
'WAS_'
'Vinte_'
'Veremos_'
'Vens_'
'Vejamos_'
'Unidos_'
'Unbelievable_'
'US_'
'Tínhamos_'
'Tão_'
'Tyler_'
'Trouxe_'
'Tragam_'
'Tracy_'
'Trabalho_'
'Trabalha_'
'Tome_'
'Todd_'
'Tirei_'
'Tire_'
'Texas_'
'Teve_'
'Sério_'
'Sylvia_'
'Sweet_'
'Stuart_'
'Strike_'
'Stone_'
'Spike_'
'Sol_'
'Skinner_'
'Shepherd_'
'Setembro_'
'Seriously_'
'Serei_'
'Senão_'
'Seattle_'
'Russian_'
'Ronnie_'
'Ron_'
'Rogers_'
'Robbie_'
'River_'
'Rio_'
'Raymond_'
'Ralph_'
'Quiet_'
'Private_'
'Pretty_'
'Prazer_'
'Pratt_'
'Porém_'
'Pop_'
'Phillip_'
'Perfeito_'
'Perdão_'
'Pedi_'
'Patty_'
'Pat_'
'Ow_'
'Otherwise_'
'Orson_'
'Off_'
'Num_'
'Novo_'
'Neither_'
'Murphy_'
'Mostra_'
'Moses_'
'Morreu_'
'Money_'
'Mm_'
'Mississippi_'
'Ministério_'
'Miller_'
'Melinda_'
'Mayor_'
'Martha_'
'Marlene_'
'Marge_'
'Mantém_'
'Manny_'
'Madam_'
'Lucky_'
'Louisiana_'
'Lou_'
'Ligue_'
'Levou_'
'Lembro_'
'Leela_'
'Lane_'
'Ladies_'
'Kent_'
'Julian_'
'Jo_'
'Jill_'
'Jess_'
'Jarod_'
'Jackson_'
'JUST_'
'Irmão_'
'Importa_'
'Hunter_'
'Hopefully_'
'Herr_'
'Hard_'
'Had_'
'Green_'
'Governo_'
'Gotta_'
'Gostava_'
'Gosta_'
'Gold_'
'Girls_'
'Girl_'
'Gina_'
'Gibbs_'
'Friend_'
'France_'
'Foda_'
'Filho_'
'Fight_'
'Ficamos_'
'Felix_'
'Fazemos_'
'Farei_'
'Exército_'
'Excelência_'
'Excellent_'
'Ex_'
'Eve_'
'Estavam_'
'Estados_'
'Esses_'
'Essas_'
'Encontrámos_'
'Embora_'
'Elliot_'
'Ellie_'
'Eli_'
'Elaine_'
'Either_'
'Eis_'
'Eat_'
'Dou_'
'Diário_'
'Disseram_'
'Director_'
'Dinheiro_'
'Diego_'
'Deviam_'
'Despacha_'
'Delta_'
'Deixou_'
'Debbie_'
'DE_'
'Curtis_'
'Continuem_'
'Continue_'
'Confia_'
'Compreendo_'
'Christine_'
'Chi_'
'Chase_'
'Channel_'
'Caso_'
'Carol_'
'Carlos_'
'Careful_'
'Car_'
'Buster_'
'Bureau_'
'Buddy_'
'Bruno_'
'Bones_'
'Bond_'
'Blue_'
'Blair_'
'Barbara_'
'Anthony_'
'Amigo_'
'Amanda_'
'Allison_'
'Ajuda_'
'Africa_'
'Afaste_'
'Admiral_'
'Acorda_'
'Abram_'
'Abra_'
'Abbey_'
'ADN_'
'99_'
'48_'
'29_'
', $_'
'( _'
'', _'
'"? _'
' (_'
'– _'
'últimas_'
'óbvio_'
'álbum_'
'Íamos_'
'yourselves_'
'younger_'
'wounds_'
'woke_'
'wives_'
'wishes_'
'wipe_'
'wings_'
'wing_'
'wide_'
'whore_'
'wheel_'
'wet_'
'weight_'
'waves_'
'watched_'
'wasting_'
'warned_'
'warn_'
'waited_'
'vês_'
'votes_'
'voltasse_'
'voltarei_'
'voices_'
'vodka_'
'vizinho_'
'vivem_'
'vitórias_'
'vitória_'
'violência_'
'vindos_'
'viesse_'
'vice_'
'verão_'
'verificar_'
'verdadeiramente_'
'valuable_'
'vacation_'
'utilizar_'
'usou_'
'unlike_'
'união_'
'university_'
'unique_'
'uniform_'
'unbelievable_'
'un_'
'ultrapassar_'
'túnel_'
'tubarão_'
'tub_'
'trânsito_'
'truque_'
'trouxeste_'
'treasure_'
'trap_'
'transport_'
'transferred_'
'transfer_'
'traitor_'
'trailer_'
'tragam_'
'tour_'
'tortura_'
'torre_'
'toquei_'
'tongue_'
'tone_'
'tolo_'
'tiveres_'
'thrown_'
'thoughts_'
'terça_'
'terrorist_'
'terror_'
'terribly_'
'termina_'
'terias_'
'tentei_'
'tentativa_'
'tenhamos_'
'templo_'
'talkin_'
'talento_'
'série_'
'sábado_'
'suspenso_'
'suspeitos_'
'surveillance_'
'surprising_'
'surgeon_'
'sujeito_'
'suggesting_'
'suffering_'
'sucks_'
'sucked_'
'successful_'
'studies_'
'students_'
'string_'
'strike_'
'strain_'
'states_'
'starving_'
'stars_'
'spoken_'
'species_'
'sons_'
'sometime_'
'solution_'
'solta_'
'soft_'
'sofrimento_'
'sofrer_'
'slept_'
'slave_'
'sky_'
'sinta_'
'singing_'
'silver_'
'shown_'
'shots_'
'shortly_'
'shed_'
'shark_'
'sexy_'
'setting_'
'serás_'
'serviços_'
'separar_'
'sensitive_'
'sensação_'
'sendo_'
'senador_'
'sells_'
'selling_'
'selfish_'
'secure_'
'secreta_'
'seca_'
'screwed_'
'saímos_'
'saído_'
'satisfeito_'
'satellite_'
'sandwich_'
'sale_'
'rounds_'
'rope_'
'romântico_'
'rocks_'
'roads_'
'riscos_'
'rir_'
'revenge_'
'retired_'
'resta_'
'respondeu_'
'respond_'
'resolve_'
'resgate_'
'requested_'
'reporters_'
'reported_'
'repetir_'
'repeat_'
'religião_'
'relações_'
'registered_'
'refeição_'
'rede_'
'recorde_'
'reconhecimento_'
'reconhecer_'
'recommendation_'
'receio_'
'recebido_'
'recebeu_'
'recado_'
'realized_'
'realizar_'
'reaching_'
'ratos_'
'rato_'
'rasto_'
'rare_'
'rally_'
'rain_'
'quão_'
'quilómetros_'
'quarters_'
'quantidade_'
'pública_'
'pânico_'
'pássaro_'
'puts_'
'puto_'
'punk_'
'publicidade_'
'psiquiatra_'
'próprias_'
'pré_'
'provocar_'
'provide_'
'protegê_'
'propose_'
'proof_'
'prometeu_'
'promessa_'
'professores_'
'produção_'
'proceed_'
'pro_'
'print_'
'principle_'
'primitivo_'
'prestar_'
'preocupada_'
'prender_'
'prenda_'
'preferido_'
'preferes_'
'precisely_'
'pouca_'
'potato_'
'possam_'
'portrait_'
'porto_'
'portas_'
'porno_'
'porco_'
'população_'
'political_'
'policeman_'
'poison_'
'poem_'
'pobres_'
'pleased_'
'pleasant_'
'plant_'
'places_'
'piso_'
'picking_'
'pesar_'
'perseguir_'
'permit_'
'perimeter_'
'perguntei_'
'perdão_'
'perde_'
'pensão_'
'pensamento_'
'pegaram_'
'pedras_'
'patience_'
'passing_'
'passando_'
'parts_'
'partners_'
'partilhar_'
'pareça_'
'paredes_'
'pare_'
'pardon_'
'painted_'
'paint_'
'pages_'
'page_'
'pagamento_'
'pagam_'
'packing_'
'paciência_'
'oxigénio_'
'ovo_'
'orgulho_'
'ora_'
'opções_'
'opposite_'
'opinion_'
'olhe_'
'official_'
'odiar_'
'odeia_'
'occasion_'
'obviously_'
'observar_'
'obrigar_'
'objectivo_'
'obcecado_'
'nuclear_'
'novidades_'
'nojo_'
'noise_'
'national_'
'máquinas_'
'mustn_'
'mud_'
'morrido_'
'montes_'
'monsieur_'
'modelo_'
'misses_'
'miserável_'
'milk_'
'mexe_'
'metro_'
'meteste_'
'mergulho_'
'merely_'
'mentes_'
'mensagens_'
'memórias_'
'member_'
'meetings_'
'meal_'
'mayor_'
'matam_'
'mass_'
'marcar_'
'mapa_'
'map_'
'manutenção_'
'manners_'
'magazine_'
'mademoiselle_'
'lápis_'
'lábios_'
'luxo_'
'lord_'
'linguagem_'
'limpar_'
'limp_'
'liguei_'
'lights_'
'lieutenant_'
'liberty_'
'levei_'
'levaram_'
'levados_'
'letting_'
'lenda_'
'leis_'
'legend_'
'lealdade_'
'leads_'
'laundry_'
'laughs_'
'lar_'
'lad_'
'knocking_'
'knock_'
'kissed_'
'kinda_'
'kilos_'
'kills_'
'júri_'
'juventude_'
'justiça_'
'julgar_'
'joined_'
'jogador_'
'joelhos_'
'jerk_'
'jamais_'
'itself_'
'irão_'
'iriam_'
'investment_'
'interview_'
'internal_'
'interna_'
'intenção_'
'inteligência_'
'integrity_'
'insult_'
'instruções_'
'infantil_'
'incapaz_'
'impedi_'
'immediate_'
'imediato_'
'imbecis_'
'imaginei_'
'imaginação_'
'imagination_'
'imagina_'
'image_'
'ideal_'
'hunter_'
'hopes_'
'honesto_'
'honesta_'
'hipóteses_'
'hid_'
'hemorragia_'
'hearing_'
'headquarters_'
'haveria_'
'happiness_'
'handful_'
'gym_'
'guessing_'
'guerras_'
'grupos_'
'groups_'
'greatest_'
'gravata_'
'grau_'
'grabbed_'
'governador_'
'gostou_'
'goodbye_'
'golden_'
'gerente_'
'gentil_'
'genius_'
'gasolina_'
'garotos_'
'garden_'
'ganhas_'
'ganha_'
'gang_'
'galinha_'
'gabinete_'
'físico_'
'fãs_'
'fábrica_'
'furniture_'
'fundos_'
'fulano_'
'fuga_'
'fruit_'
'fria_'
'frango_'
'fourth_'
'fosses_'
'forgetting_'
'forces_'
'fooled_'
'flu_'
'flowers_'
'flesh_'
'flat_'
'flame_'
'fixing_'
'fita_'
'fishing_'
'finds_'
'fighter_'
'ficado_'
'festival_'
'festas_'
'ferro_'
'ferramentas_'
'felicidade_'
'feita_'
'fechada_'
'favorito_'
'fará_'
'fantastic_'
'fans_'
'falaste_'
'failure_'
'failed_'
'f_'
'expressão_'
'exposure_'
'expert_'
'experiências_'
'experimentar_'
'excitante_'
'exatamente_'
'example_'
'examinar_'
'exact_'
'evidência_'
'estúdio_'
'estivesses_'
'estivemos_'
'estelar_'
'estarei_'
'estacionamento_'
'esquina_'
'esquecerei_'
'espelho_'
'escuta_'
'escort_'
'escolas_'
'erva_'
'equal_'
'enviou_'
'enviar_'
'entregou_'
'entrego_'
'entrance_'
'entering_'
'enter_'
'entendi_'
'ensaiar_'
'engine_'
'engagement_'
'enfiar_'
'enfermeiras_'
'emocionante_'
'elevator_'
'election_'
'egoísta_'
'dúzia_'
'dívida_'
'dês_'
'durar_'
'drew_'
'dreamt_'
'drawing_'
'draw_'
'drank_'
'dozen_'
'dish_'
'disfarce_'
'diseases_'
'discuss_'
'discos_'
'direitos_'
'directly_'
'direction_'
'directamente_'
'digitais_'
'devido_'
'deveres_'
'deus_'
'detesto_'
'detesta_'
'detail_'
'desligar_'
'desire_'
'deserves_'
'deseja_'
'description_'
'desaparecido_'
'desaparecer_'
'depende_'
'dente_'
'demands_'
'delicioso_'
'delay_'
'deixará_'
'decidiu_'
'decidido_'
'deaf_'
'dawn_'
'dates_'
'daquelas_'
'dancing_'
'customers_'
'customer_'
'culpar_'
'cu_'
'crédito_'
'criou_'
'criminosos_'
'crescer_'
'creme_'
'creatures_'
'create_'
'courage_'
'counting_'
'costume_'
'cos_'
'correcto_'
'corre_'
'corda_'
'cooking_'
'cook_'
'convidado_'
'conveniente_'
'convencer_'
'controlado_'
'construction_'
'conseguiram_'
'consciência_'
'connected_'
'confusão_'
'confused_'
'confirmed_'
'confident_'
'conference_'
'condenado_'
'concert_'
'concerns_'
'computers_'
'computadores_'
'compreende_'
'compras_'
'completo_'
'completa_'
'comissão_'
'começaste_'
'comecei_'
'colleagues_'
'cobertura_'
'cloth_'
'clever_'
'cleaning_'
'ciúmes_'
'civilização_'
'cirurgia_'
'circunstâncias_'
'chinês_'
'chick_'
'chest_'
'cheguei_'
'chegam_'
'chef_'
'checking_'
'chato_'
'chatear_'
'charges_'
'chances_'
'chamá_'
'champion_'
'chamei_'
'certas_'
'certamente_'
'caviar_'
'causou_'
'castelo_'
'carros_'
'carregamento_'
'carpet_'
'cards_'
'cansada_'
'cancelar_'
'canais_'
'campos_'
'campanha_'
'camada_'
'cake_'
'caixas_'
'cable_'
'burro_'
'bullets_'
'bullet_'
'bug_'
'broad_'
'bro_'
'bringing_'
'brinde_'
'briga_'
'bride_'
'bread_'
'bounty_'
'bothering_'
'boring_'
'border_'
'boom_'
'bones_'
'bolsa_'
'blowing_'
'block_'
'biting_'
'biscoitos_'
'biblioteca_'
'belongs_'
'beijar_'
'beef_'
'becoming_'
'beam_'
'batota_'
'bateu_'
'basta_'
'basically_'
'based_'
'baseball_'
'barato_'
'baleado_'
'bairro_'
'bags_'
'açúcar_'
'aunt_'
'aulas_'
'audience_'
'attracted_'
'atraso_'
'ataques_'
'assusta_'
'assignment_'
'assassinato_'
'assassinado_'
'arrumar_'
'arranjou_'
'arranjo_'
'armados_'
'argument_'
'aproveitar_'
'aprendi_'
'apple_'
'aposta_'
'apology_'
'aplicar_'
'aparece_'
'apanhou_'
'análises_'
'anormal_'
'analisar_'
'americana_'
'ameaças_'
'ameaça_'
'ambos_'
'amante_'
'alright_'
'algures_'
'alemão_'
'alemães_'
'alemã_'
'alegre_'
'alcançar_'
'airport_'
'aguento_'
'agreement_'
'agradeço_'
'affection_'
'afastar_'
'advise_'
'admire_'
'adivinhar_'
'actuar_'
'acertar_'
'acampamento_'
'absurdo_'
'abra_'
'abandonar_'
'Yup_'
'YES_'
'Xerife_'
'Work_'
'Worf_'
'Won_'
'Wish_'
'Wilson_'
'Wild_'
'Whoever_'
'Whitney_'
'Wally_'
'Wallace_'
'W_'
'WHERE_'
'Von_'
'Volto_'
'Viu_'
'Violet_'
'Vinnie_'
'Vieram_'
'Veronica_'
'Vera_'
'Vejam_'
'Val_'
'Union_'
'Unfortunately_'
'Understand_'
'Twenty_'
'Travis_'
'Trata_'
'Tonight_'
'Tobias_'
'Times_'
'Therefore_'
'Thanksgiving_'
'Ter_'
'Tanto_'
'Taking_'
'Starfleet_'
'Special_'
'Soube_'
'Sooner_'
'Sloan_'
'Simpson_'
'Simone_'
'Sick_'
'Sheriff_'
'Shakespeare_'
'Seven_'
'Set_'
'Serena_'
'Senti_'
'Seems_'
'Secretário_'
'Sebastian_'
'Says_'
'Save_'
'Saturday_'
'Sanchez_'
'SHOW_'
'Russians_'
'Room_'
'Rome_'
'Ritchie_'
'Riley_'
'Rhonda_'
'Reverend_'
'Responde_'
'Reggie_'
'Recebi_'
'Rebecca_'
'Rainha_'
'Raines_'
'Quit_'
'Quick_'
'Queremos_'
'Público_'
'Prometo_'
'Procura_'
'Probably_'
'Princess_'
'Price_'
'Previously_'
'Presumo_'
'Preston_'
'Prepare_'
'Pouco_'
'Poderia_'
'Pilot_'
'Philip_'
'Peyton_'
'Perfect_'
'Perdi_'
'Pensas_'
'Peg_'
'Pedro_'
'Partiste_'
'Pablo_'
'Outro_'
'Ori_'
'Oito_'
'Ohio_'
'Oeste_'
'OUR_'
'OH_'
'Nove_'
'Normal_'
'Neill_'
'Neil_'
'Ned_'
'Naturalmente_'
'Nas_'
'Nao_'
'Nah_'
'NBC_'
'México_'
'Muitos_'
'Muitas_'
'Mostly_'
'Molly_'
'Moe_'
'Minister_'
'Menos_'
'Melissa_'
'Melhor_'
'Megan_'
'McGee_'
'Maurice_'
'Mata_'
'Marvin_'
'Mars_'
'Marissa_'
'Marina_'
'Mantenha_'
'Malta_'
'Mallory_'
'Malcolm_'
'Madrid_'
'MacGyver_'
'MEAN_'
'MAN_'
'Lizzie_'
'Lewis_'
'Levanta_'
'Leonard_'
'Lay_'
'Later_'
'Lake_'
'La_'
'LET_'
'Kirk_'
'Kid_'
'Kennedy_'
'Kathy_'
'Kat_'
'Kane_'
'KITT_'
'Jennifer_'
'Jen_'
'Jeez_'
'Jean_'
'Jacob_'
'Ivan_'
'Its_'
'Irmã_'
'Irish_'
'Irei_'
'Importas_'
'Imagine_'
'Ihe_'
'IRS_'
'IF_'
'Hércules_'
'Hum_'
'Hour_'
'Hospital_'
'Horatio_'
'Homens_'
'Holly_'
'Hit_'
'História_'
'Henrique_'
'Heard_'
'Having_'
'Harold_'
'Harlan_'
'Half_'
'HER_'
'Guys_'
'Guarda_'
'Guard_'
'Grimes_'
'Greek_'
'Gray_'
'Gloria_'
'Georgia_'
'GO_'
'Funny_'
'Fry_'
'Franklin_'
'Force_'
'Fomos_'
'Follow_'
'Fiquem_'
'Finally_'
'Filadélfia_'
'Façam_'
'Falar_'
'Excepto_'
'European_'
'Ethan_'
'Estiveste_'
'Estive_'
'Esteve_'
'Entretanto_'
'Entrem_'
'Enough_'
'Encontramo_'
'Ena_'
'Emma_'
'Ellen_'
'Elizabeth_'
'Dás_'
'Droga_'
'Drive_'
'Doyle_'
'Dos_'
'Digam_'
'Diane_'
'Diana_'
'Dez_'
'Devil_'
'Devagar_'
'Detesto_'
'Descobre_'
'Dentro_'
'Dennis_'
'Deixaste_'
'Dallas_'
'Dale_'
'Cylon_'
'Crazy_'
'County_'
'Costa_'
'Corta_'
'Corps_'
'Company_'
'Collins_'
'Coffee_'
'Cobra_'
'Close_'
'Clive_'
'Clay_'
'Christopher_'
'Children_'
'Cheira_'
'Chega_'
'Chame_'
'Catch_'
'Caroline_'
'Capitao_'
'Calem_'
'CIA_'
'Bush_'
'Burt_'
'Burns_'
'Brien_'
'Boris_'
'Bonita_'
'Bishop_'
'Beth_'
'Benny_'
'Bell_'
'Bela_'
'Being_'
'Beautiful_'
'Bay_'
'Bastante_'
'Basta_'
'Baron_'
'Banks_'
'BEEN_'
'BAR_'
'Away_'
'Avatar_'
'August_'
'Arranja_'
'Aparentemente_'
'Apanhei_'
'Ano_'
'Amazing_'
'Also_'
'Almirante_'
'Alerta_'
'Afraid_'
'Afinal_'
'Adrian_'
'Adams_'
'Aconteceu_'
'According_'
'Absolutamente_'
'Abe_'
'AS_'
'ABOUT_'
'?" _'
'800_'
'600_'
'55_'
'52_'
'47_'
'42_'
'31_'
'150_'
'112_'
'110_'
'.... _'
'... ._'
'. [_'
'- (_'
',..._'
', ..._'
' )_'
' ) _'
' ! _'
'únicas_'
'óleo_'
'óculos_'
'êxito_'
'ê_'
'âncora_'
'árvores_'
'Óptima_'
'ª_'
'¡_'
'zone_'
'zangada_'
'yum_'
'yo_'
'xadrez_'
'x_'
'wrapped_'
'wow_'
'worrying_'
'worlds_'
'wore_'
'witnesses_'
'winter_'
'winners_'
'wheels_'
'wee_'
'weakness_'
'wasted_'
'washed_'
'warning_'
'walls_'
'wallet_'
'waiter_'
'vulnerable_'
'vulgar_'
'voto_'
'vomitar_'
'volunteer_'
'volume_'
'viúva_'
'vivi_'
'visse_'
'visits_'
'virus_'
'virgin_'
'vira_'
'violação_'
'vinte_'
'vigilância_'
'view_'
'victory_'
'victims_'
'veterinário_'
'versus_'
'verdes_'
'ventos_'
'venham_'
'veneno_'
'vende_'
'velas_'
'vehicle_'
'vegetables_'
'valores_'
'vaca_'
'uso_'
'upside_'
'units_'
'underwear_'
'underwater_'
'undercover_'
'típico_'
'tyranny_'
'twisted_'
'turtle_'
'turma_'
'tunnel_'
'tubos_'
'truques_'
'trocar_'
'troca_'
'trips_'
'triple_'
'tremenda_'
'trazê_'
'tratado_'
'transportar_'
'transformou_'
'traição_'
'trains_'
'trago_'
'tradição_'
'tracks_'
'trabalhem_'
'toys_'
'torture_'
'tornaram_'
'tomo_'
'tomb_'
'tom_'
'toca_'
'tivessem_'
'tivermos_'
'tirei_'
'tickets_'
'thus_'
'threw_'
'threatening_'
'threatened_'
'theater_'
'terrorista_'
'território_'
'territory_'
'terms_'
'terminei_'
'terminado_'
'term_'
'teriam_'
'tentes_'
'tentarmos_'
'tendo_'
'temperature_'
'temer_'
'tema_'
'teimoso_'
'tecido_'
'tear_'
'teaching_'
'task_'
'targeted_'
'tarefa_'
'tarado_'
'tanker_'
'tag_'
'taco_'
'sós_'
'sócio_'
'symptoms_'
'switch_'
'swing_'
'sweep_'
'swamp_'
'suspeitas_'
'suspected_'
'survivors_'
'surrounded_'
'supper_'
'superior_'
'sumo_'
'sujos_'
'sugiro_'
'suggestion_'
'sugerir_'
'sue_'
'sucker_'
'subtil_'
'su_'
'struggle_'
'stronger_'
'strip_'
'strength_'
'strategy_'
'stood_'
'steps_'
'steak_'
'starts_'
'spray_'
'spit_'
'specific_'
'sozinhas_'
'soup_'
'sorriso_'
'sono_'
'sonhei_'
'someplace_'
'somente_'
'someday_'
'solução_'
'solid_'
'sobrevivência_'
'snow_'
'sneakers_'
'sneak_'
'smells_'
'smaller_'
'slit_'
'slight_'
'sites_'
'sinceramente_'
'simpática_'
'signals_'
'shorts_'
'sheer_'
'shared_'
'shaking_'
'sexuais_'
'settlement_'
'servant_'
'seriam_'
'sereia_'
'sentiu_'
'sentimento_'
'sensível_'
'sensores_'
'selvagens_'
'seizure_'
'seguros_'
'seguintes_'
'segui_'
'seek_'
'section_'
'seco_'
'season_'
'script_'
'screen_'
'scratch_'
'scheduled_'
'scan_'
'sayin_'
'sapo_'
'sam_'
'salta_'
'salt_'
'saias_'
'safely_'
'sack_'
'sabedoria_'
'russos_'
'russo_'
'rush_'
'rumores_'
'rumo_'
'roubou_'
'root_'
'romanos_'
'romance_'
'rodas_'
'rocket_'
'rica_'
'rhubarb_'
'retirement_'
'retire_'
'results_'
'responda_'
'respected_'
'repórter_'
'representar_'
'replace_'
'rent_'
'remédios_'
'relatives_'
'regressar_'
'regiment_'
'regime_'
'reforma_'
'refiro_'
'recém_'
'recusar_'
'recuperação_'
'recovery_'
'recompensa_'
'recolher_'
'recognized_'
'reckon_'
'reception_'
'receita_'
'recebe_'
'recall_'
'realised_'
'reais_'
'reacção_'
'ratio_'
'rat_'
'raro_'
'rara_'
'raptou_'
'rape_'
'rap_'
'raised_'
'rainha_'
'químicos_'
'quiseram_'
'quieto_'
'quietly_'
'quid_'
'questioning_'
'queridos_'
'queixas_'
'queixar_'
'queixa_'
'queiram_'
'queimar_'
'queda_'
'quarterback_'
'quarta_'
'quantas_'
'péssima_'
'puxar_'
'puro_'
'pure_'
'pura_'
'pulso_'
'pulmões_'
'pudeste_'
'pudesses_'
'psicológico_'
'prostitutas_'
'prostituta_'
'properly_'
'proper_'
'prom_'
'proibido_'
'profissão_'
'professora_'
'professional_'
'produto_'
'production_'
'procurá_'
'procuramos_'
'procedure_'
'probation_'
'prize_'
'prisioneiro_'
'priorities_'
'pretos_'
'pretende_'
'presents_'
'presence_'
'presa_'
'preparados_'
'preocupações_'
'prefere_'
'precisares_'
'precisarem_'
'prayer_'
'pratos_'
'prata_'
'powerless_'
'poucas_'
'potência_'
'postal_'
'possibilidade_'
'possas_'
'pornography_'
'pork_'
'pores_'
'podermos_'
'poderei_'
'pocket_'
'pneu_'
'plástico_'
'plug_'
'plot_'
'pledge_'
'players_'
'planted_'
'planta_'
'pity_'
'pistola_'
'pistas_'
'piss_'
'piscina_'
'pipe_'
'pintura_'
'pine_'
'pigs_'
'pigeons_'
'picnic_'
'picante_'
'phony_'
'pesado_'
'perímetro_'
'perturbadas_'
'pertencem_'
'perspective_'
'permite_'
'pergunto_'
'perguntaste_'
'perfectly_'
'perdoar_'
'percorrer_'
'percebeu_'
'percebe_'
'per_'
'penteado_'
'pense_'
'pensares_'
'penis_'
'pegou_'
'pega_'
'pecados_'
'peaceful_'
'pea_'
'patrol_'
'passámos_'
'passos_'
'passagem_'
'parva_'
'parties_'
'parole_'
'parente_'
'parei_'
'parecidos_'
'paranoid_'
'paragem_'
'parabéns_'
'panic_'
'palácio_'
'palmas_'
'painting_'
'painful_'
'painel_'
'pagou_'
'pacote_'
'package_'
'owns_'
'overcome_'
'oven_'
'ouço_'
'ouviram_'
'ouvimos_'
'orçamento_'
'organs_'
'ordinary_'
'option_'
'opens_'
'ombros_'
'olhando_'
'olhada_'
'officials_'
'officially_'
'offense_'
'odiava_'
'ocorreu_'
'obviamente_'
'obter_'
'object_'
'oath_'
'níveis_'
'nurse_'
'novidade_'
'noutro_'
'noticias_'
'newspapers_'
'neto_'
'nestas_'
'nervos_'
'nephew_'
'neles_'
'negra_'
'negociar_'
'negative_'
'navegar_'
'nation_'
'nascer_'
'narizes_'
'nacional_'
'mínima_'
'multidão_'
'mudará_'
'mr_'
'moço_'
'mostre_'
'mostly_'
'mortas_'
'morrendo_'
'morrem_'
'morada_'
'montanhas_'
'montanha_'
'mister_'
'mistaken_'
'miserable_'
'mirror_'
'miracle_'
'miolos_'
'minas_'
'millimeter_'
'milhas_'
'milagre_'
'metes_'
'messed_'
'merry_'
'merece_'
'mercadoria_'
'mentiroso_'
'mel_'
'medication_'
'meaning_'
'matches_'
'mataste_'
'matas_'
'massive_'
'mask_'
'masculino_'
'mascote_'
'martelo_'
'marcha_'
'mapas_'
'manteiga_'
'mangas_'
'mandei_'
'mandado_'
'malucos_'
'mall_'
'magoar_'
'magnetic_'
'madam_'
'machines_'
'macaco_'
'líquido_'
'líderes_'
'lê_'
'lágrimas_'
'luto_'
'lungs_'
'ls_'
'loyalty_'
'loyal_'
'lower_'
'losers_'
'loser_'
'lookin_'
'lojas_'
'locker_'
'locais_'
'loan_'
'lições_'
'livres_'
'livrar_'
'literally_'
'lit_'
'lipstick_'
'linhas_'
'ligações_'
'lido_'
'liderança_'
'licking_'
'license_'
'libras_'
'leves_'
'levam_'
'leste_'
'lençóis_'
'launch_'
'latest_'
'lançar_'
'lago_'
'lads_'
'laboratory_'
'knocked_'
'kneel_'
'knee_'
'kinds_'
'kilometres_'
'jóia_'
'jurou_'
'julgas_'
'judeu_'
'joint_'
'joining_'
'jipe_'
'jeitoso_'
'jacket_'
'item_'
'irónico_'
'irás_'
'irritar_'
'investigating_'
'invasion_'
'intruso_'
'interromper_'
'interrogatório_'
'interferir_'
'interfere_'
'intelligence_'
'instinct_'
'instance_'
'inspiração_'
'insistiu_'
'insist_'
'injury_'
'injuries_'
'injection_'
'infância_'
'infelizmente_'
'infection_'
'inesperado_'
'inconsciente_'
'impulse_'
'improvisar_'
'impressionante_'
'impressed_'
'importar_'
'imitar_'
'imagined_'
'images_'
'ill_'
'ignore_'
'identified_'
'identidade_'
'ideas_'
'hã_'
'hurting_'
'humor_'
'humanity_'
'houvesse_'
'houver_'
'houses_'
'horror_'
'honour_'
'honesty_'
'homeless_'
'holy_'
'hits_'
'hire_'
'hill_'
'highly_'
'higher_'
'heróis_'
'heroína_'
'heavy_'
'heal_'
'haverá_'
'hat_'
'hallway_'
'habitual_'
'habilidade_'
'guidance_'
'guardar_'
'guarantee_'
'gritar_'
'grief_'
'greater_'
'granted_'
'grandma_'
'grandalhão_'
'gostamos_'
'gordo_'
'glove_'
'ginásio_'
'gifts_'
'gettin_'
'gently_'
'gaveta_'
'gatinho_'
'garganta_'
'garantir_'
'garantia_'
'garagem_'
'garage_'
'ganho_'
'gag_'
'fã_'
'fá_'
'furioso_'
'fumo_'
'fu_'
'fronteiras_'
'fronteira_'
'freedom_'
'freak_'
'fraud_'
'francês_'
'foul_'
'forth_'
'football_'
'fools_'
'fomos_'
'followed_'
'fodido_'
'flow_'
'floresta_'
'fleet_'
'fizeres_'
'fiques_'
'fios_'
'financial_'
'figura_'
'ficavam_'
'ficava_'
'fiança_'
'feridas_'
'fenda_'
'fence_'
'fella_'
'federais_'
'fechado_'
'fechadas_'
'fazerem_'
'farm_'
'fantástica_'
'fantasmas_'
'famílias_'
'faltar_'
'falling_'
'falhas_'
'falhar_'
'fales_'
'falarmos_'
'falam_'
'fail_'
'facilmente_'
'expulso_'
'expression_'
'explosive_'
'explore_'
'explique_'
'experiments_'
'existence_'
'excuses_'
'excited_'
'excitado_'
'exames_'
'exame_'
'evacuar_'
'eternal_'
'eterna_'
'estômago_'
'estudou_'
'estudar_'
'estiveram_'
'estarmos_'
'esquisito_'
'esqueça_'
'esquerdo_'
'esqueceu_'
'espreitar_'
'espiar_'
'esperas_'
'esperanças_'
'espantoso_'
'esforçar_'
'escolhido_'
'escolheram_'
'escaped_'
'episódio_'
'entrei_'
'entrega_'
'entraste_'
'entirely_'
'entao_'
'ensaio_'
'enormous_'
'enlouquecer_'
'engaged_'
'enemy_'
'ended_'
'encontrarmos_'
'encanto_'
'encantadora_'
'empregados_'
'emoção_'
'emotional_'
'emissões_'
'eléctrica_'
'eliminar_'
'eleições_'
'electricity_'
'elected_'
'egg_'
'education_'
'editor_'
'ecrã_'
'eclipse_'
'eaten_'
'dêem_'
'dura_'
'dump_'
'dry_'
'driveway_'
'dreadful_'
'dose_'
'dores_'
'domínio_'
'doido_'
'doenças_'
'doctors_'
'doc_'
'divórcio_'
'divorced_'
'divine_'
'diversões_'
'disturb_'
'distrair_'
'distracted_'
'disposal_'
'disparou_'
'dismissed_'
'disease_'
'discussed_'
'disaster_'
'dirigir_'
'direct_'
'digna_'
'diamonds_'
'device_'
'deveríamos_'
'devagar_'
'deva_'
'determined_'
'determinado_'
'detector_'
'detect_'
'destruição_'
'destiny_'
'destinado_'
'despachar_'
'desenvolver_'
'desconhecido_'
'descoberta_'
'depends_'
'demos_'
'delivery_'
'delivered_'
'delightful_'
'deixarei_'
'defeat_'
'deer_'
'declared_'
'decisões_'
'decisions_'
'decidir_'
'decent_'
'debate_'
'dd_'
'darei_'
'danos_'
'dadas_'
'células_'
'cycle_'
'custou_'
'custody_'
'curto_'
'culpado_'
'cujo_'
'cuide_'
'crânio_'
'crossed_'
'crise_'
'criatura_'
'crer_'
'creeps_'
'creature_'
'cowboy_'
'cow_'
'covered_'
'county_'
'counter_'
'council_'
'costelas_'
'corte_'
'corta_'
'correspondente_'
'corresponde_'
'corredores_'
'corra_'
'coroa_'
'copy_'
'coordinates_'
'cooperar_'
'convidou_'
'contratar_'
'conto_'
'continuas_'
'continuará_'
'continuarem_'
'contava_'
'contaste_'
'contagem_'
'contado_'
'contactos_'
'considered_'
'considerado_'
'consequências_'
'conscious_'
'connection_'
'conheceste_'
'conhece_'
'congratulations_'
'confuso_'
'confidence_'
'confess_'
'conferência_'
'conduz_'
'condutor_'
'condição_'
'concordar_'
'conclusion_'
'concern_'
'concentrate_'
'con_'
'comprou_'
'compromise_'
'communication_'
'comercial_'
'combined_'
'collect_'
'collar_'
'coincidência_'
'cocaína_'
'cobre_'
'client_'
'cleared_'
'clara_'
'claque_'
'citizen_'
'circles_'
'cinzas_'
'cigarro_'
'cidades_'
'chávena_'
'chosen_'
'chores_'
'chopper_'
'chip_'
'chineses_'
'chill_'
'childhood_'
'chickens_'
'cheira_'
'chegaste_'
'chegaram_'
'chefes_'
'chateada_'
'chat_'
'chasing_'
'changing_'
'champagne_'
'cesto_'
'certos_'
'ceremony_'
'central_'
'center_'
'cenas_'
'cela_'
'cc_'
'caíram_'
'caçador_'
'caused_'
'cats_'
'castigo_'
'cassete_'
'casada_'
'carrying_'
'carried_'
'caravana_'
'captured_'
'captura_'
'cappuccino_'
'capazes_'
'caos_'
'campeonato_'
'cameras_'
'calar_'
'calado_'
'cai_'
'cadáver_'
'cadela_'
'cadeiras_'
'cabin_'
'bêbado_'
'bêbada_'
'busted_'
'bunny_'
'bull_'
'brinquedos_'
'bright_'
'breathe_'
'bravo_'
'boxes_'
'botas_'
'bordel_'
'booth_'
'bonitas_'
'bonds_'
'bombs_'
'bombing_'
'blown_'
'blocking_'
'blocked_'
'blew_'
'bless_'
'blend_'
'bits_'
'billion_'
'bike_'
'bestial_'
'bell_'
'beira_'
'beings_'
'bein_'
'behaviour_'
'begins_'
'bedroom_'
'bebés_'
'bebi_'
'beats_'
'beast_'
'batatas_'
'bata_'
'bastards_'
'basic_'
'basement_'
'baseada_'
'barriga_'
'barraca_'
'baratas_'
'banheira_'
'bang_'
'baixar_'
'babe_'
'aérea_'
'awake_'
'avoid_'
'aviões_'
'avisei_'
'avental_'
'autoridades_'
'authorized_'
'attempt_'
'atreves_'
'atrasados_'
'atrasada_'
'atraente_'
'atire_'
'atira_'
'atendes_'
'atender_'
'assustador_'
'assumir_'
'assumed_'
'assistant_'
'assault_'
'assassinada_'
'assassina_'
'aspectos_'
'asas_'
'artes_'
'arse_'
'arruinar_'
'arrogante_'
'arrive_'
'arrastado_'
'arquivo_'
'armar_'
'armada_'
'argumento_'
'argue_'
'aproxima_'
'aproveitei_'
'aprovação_'
'appeal_'
'apologise_'
'apoio_'
'apeteceu_'
'apertar_'
'aperta_'
'apanhei_'
'anúncio_'
'análise_'
'answers_'
'answered_'
'ansioso_'
'anniversary_'
'ankle_'
'anjos_'
'anger_'
'andei_'
'analysis_'
'amou_'
'amostra_'
'ambassador_'
'alívio_'
'altos_'
'although_'
'alterou_'
'alternativa_'
'almoçar_'
'almofadas_'
'alimento_'
'alimentar_'
'alienígena_'
'alerta_'
'ala_'
'ajudante_'
'aged_'
'agarra_'
'afinal_'
'aeroporto_'
'advogados_'
'adultos_'
'adoram_'
'admira_'
'acusar_'
'actualmente_'
'acto_'
'activo_'
'acordado_'
'acordada_'
'acontecimento_'
'acertou_'
'acender_'
'aceitou_'
'aceito_'
'aceder_'
'accounts_'
'accidentally_'
'acabámos_'
'abertos_'
'abandonado_'
'\u_'
'Zoe_'
'Ziva_'
'Year_'
'Wrong_'
'Wonderful_'
'Wolf_'
'Wesley_'
'Water_'
'Warrick_'
'Ward_'
'Walt_'
'Wah_'
'WELL_'
'Voltem_'
'Virgil_'
'Vietname_'
'Victoria_'
'Vicky_'
'Vice_'
'Vaughn_'
'Vale_'
'VIP_'
'Usually_'
'Usa_'
'Universidade_'
'Under_'
'Tyr_'
'Tuesday_'
'Tru_'
'Tripp_'
'Tribunal_'
'Traga_'
'Trace_'
'Tough_'
'Touch_'
'Torres_'
'Tok_'
'Tipo_'
'Tinhas_'
'Till_'
'Tia_'
'Thursday_'
'Throw_'
'Thought_'
'Though_'
'Terás_'
'Terá_'
'Tenha_'
'Telefone_'
'Telefona_'
'Tate_'
'Tarzan_'
'Suse_'
'Stupid_'
'Stick_'
'Stevens_'
'Star_'
'Stanton_'
'Stan_'
'Stackhouse_'
'Speed_'
'Speak_'
'Sookie_'
'Six_'
'Sisko_'
'Siga_'
'Sidney_'
'Sherman_'
'Sheldon_'
'Sheila_'
'Shall_'
'Serviços_'
'Serviço_'
'Ser_'
'Send_'
'Senador_'
'Segura_'
'Segue_'
'School_'
'Saúde_'
'Saíste_'
'Saí_'
'Saul_'
'Sally_'
'Saiu_'
'SO_'
'Rússia_'
'Russo_'
'Rudy_'
'Ruby_'
'Roswell_'
'Rosa_'
'Roosevelt_'
'Rodney_'
'Rita_'
'Ricky_'
'Richards_'
'Rex_'
'Reverendo_'
'Return_'
'República_'
'Repare_'
'Reno_'
'Refere_'
'Real_'
'Rapazes_'
'RV_'
'RIGHT_'
'RE_'
'Quê_'
'Quão_'
'Quietos_'
'Querias_'
'Quark_'
'Push_'
'Protesto_'
'Promise_'
'Prometes_'
'Procurar_'
'Princesa_'
'Prince_'
'Primavera_'
'Preparar_'
'Prefiro_'
'Preferia_'
'Post_'
'Porreiro_'
'Ponham_'
'Polly_'
'Point_'
'Pierre_'
'Pick_'
'Phyllis_'
'Phone_'
'Pheebs_'
'Perdeu_'
'Pearl_'
'Partiu_'
'Pamela_'
'Pam_'
'Paga_'
'Ouviram_'
'Ordem_'
'Olivia_'
'Odo_'
'Ocean_'
'OR_'
'Número_'
'Nora_'
'Nine_'
'Night_'
'Nicky_'
'News_'
'Nesta_'
'Neela_'
'Navy_'
'Natureza_'
'Nash_'
'NEW_'
'Mulder_'
'Mui_'
'Moya_'
'Moving_'
'Mouth_'
'Mountain_'
'Mount_'
'Mortimer_'
'Morris_'
'Montana_'
'Monroe_'
'Ming_'
'Mine_'
'Mikey_'
'Might_'
'Mick_'
'Mexico_'
'Meg_'
'Meet_'
'McCoy_'
'Maya_'
'Matthew_'
'Mate_'
'Marty_'
'Marlo_'
'Marcel_'
'Maravilhoso_'
'Manning_'
'Manhattan_'
'Maldição_'
'Madre_'
'Mademoiselle_'
'Lyle_'
'Louise_'
'Louie_'
'Lorelai_'
'Locke_'
'Lionel_'
'Lindsey_'
'Lindo_'
'Ligou_'
'Lightning_'
'Life_'
'Lexington_'
'Levante_'
'Lembraste_'
'Lei_'
'Left_'
'Le_'
'Law_'
'Lauren_'
'Las_'
'Largue_'
'Land_'
'Lamb_'
'LL_'
'Knowing_'
'Kleenex_'
'Kitty_'
'Kit_'
'Karl_'
'Kansas_'
'June_'
'Jun_'
'Joseph_'
'Jews_'
'Jewish_'
'Jethro_'
'Jersey_'
'Jeremy_'
'Janeway_'
'Jamie_'
'Jamais_'
'Jadzia_'
'Israel_'
'Island_'
'Isaac_'
'Iris_'
'Irene_'
'Iremos_'
'Interesting_'
'Inn_'
'Infelizmente_'
'Indeed_'
'Imperador_'
'Imediatamente_'
'Imagino_'
'Imagina_'
'Igreja_'
'ID_'
'Hudson_'
'Houston_'
'Hora_'
'Hopper_'
'Hilary_'
'Herbert_'
'Hector_'
'Heather_'
'Hear_'
'Hawaii_'
'Harvard_'
'Hand_'
'Hamilton_'
'Halloween_'
'Gás_'
'Guy_'
'Gus_'
'Gun_'
'Group_'
'Griffin_'
'Grant_'
'Grandes_'
'Gordon_'
'Goodnight_'
'Goddamn_'
'Germany_'
'Gentlemen_'
'Gee_'
'Gave_'
'Garrett_'
'Gabriel_'
'Frankie_'
'Franco_'
'Fora_'
'Ficou_'
'Festival_'
'Ferrari_'
'Feel_'
'Fazem_'
'Fatty_'
'Fargo_'
'Face_'
'FROM_'
'Experimenta_'
'Existe_'
'Exatamente_'
'Everywhere_'
'Europe_'
'Estúpido_'
'Estejam_'
'Escreve_'
'Ensign_'
'Enron_'
'Enjoy_'
'Encosta_'
'Encontrámo_'
'Encantador_'
'Emergency_'
'Elvis_'
'Duncan_'
'Dum_'
'Doze_'
'Dorothy_'
'Dorian_'
'Done_'
'Donald_'
'Dog_'
'Dizia_'
'Dizes_'
'Divisão_'
'Dharma_'
'Devlin_'
'Deveríamos_'
'Deveria_'
'Devemos_'
'Deu_'
'Desmond_'
'Descobri_'
'Derek_'
'Deram_'
'Depende_'
'Demora_'
'Demasiado_'
'Deixar_'
'Defesa_'
'Dee_'
'Decidi_'
'Deb_'
'Data_'
'Daisy_'
'DC_'
'Câmara_'
'Cylons_'
'Crowley_'
'Cristina_'
'Crichton_'
'Creek_'
'Credo_'
'Crane_'
'Council_'
'Couldn_'
'Cos_'
'Corte_'
'Correcto_'
'Corre_'
'Copy_'
'Conta_'
'Comrade_'
'Comprei_'
'Command_'
'Comissário_'
'Coming_'
'Comida_'
'Comanche_'
'Coloca_'
'Colin_'
'Cole_'
'Cola_'
'Cody_'
'Cochran_'
'Clint_'
'Cliff_'
'Clean_'
'Chinese_'
'Chill_'
'Chico_'
'Cheryl_'
'Checking_'
'Chandler_'
'Chamam_'
'Certainly_'
'Cerca_'
'Cavaleiro_'
'Catholic_'
'Castro_'
'Cassidy_'
'Cash_'
'Carson_'
'Carrie_'
'Carla_'
'Campbell_'
'Cameron_'
'Camelot_'
'Cabot_'
'Cabo_'
'COME_'
'CNN_'
'Burn_'
'Burke_'
'Bryce_'
'British_'
'Bree_'
'Break_'
'Brandon_'
'Branca_'
'Brad_'
'Bottom_'
'Both_'
'Boss_'
'Borg_'
'Boom_'
'Body_'
'Block_'
'Billie_'
'Beverly_'
'Bette_'
'Best_'
'Bernie_'
'Believe_'
'Beethoven_'
'Been_'
'Beba_'
'Beau_'
'Bear_'
'Baxter_'
'Bastard_'
'Barlow_'
'Barb_'
'Bang_'
'Baker_'
'Baixa_'
'Bailey_'
'BUT_'
'Aye_'
'Auto_'
'Atrás_'
'Atlantic_'
'Around_'
'Ari_'
'Archie_'
'Apanhou_'
'Apanha_'
'Andrea_'
'Andei_'
'Ana_'
'Americana_'
'Ambassador_'
'Amar_'
'Alô_'
'Alto_'
'Alpha_'
'Alma_'
'Allow_'
'Alicia_'
'Alexander_'
'Aguenta_'
'Agarra_'
'Again_'
'Adorava_'
'Admite_'
'Adivinha_'
'Adele_'
'Across_'
'Acreditas_'
'Achámos_'
'Acabámos_'
'Acaba_'
'ALL_'
'? "_'
'93_'
'900_'
'72_'
'700_'
'68_'
'59_'
'54_'
'53_'
'51_'
'43_'
'400_'
'34_'
'33_'
'32_'
'27_'
'2000_'
'02_'
'.:_'
'...? - _'
'..." "_'
'... '_'
'.. .._'
'- [_'
'- # _'
',... _'
'"... _'
'" "_'
' ♪ ♪ _'
' --_'
' ,_'
'ônibus_'
'ótimo_'
'órgãos_'
'órbita_'
'ópera_'
'íntegra_'
'índios_'
'ão_'
'áreas_'
'águia_'
'àquela_'
'Ótimo_'
'Ás_'
'Ártico_'
'¶ _'
'³_'
'yin_'
'yard_'
'writer_'
'worthless_'
'worship_'
'workin_'
'widow_'
'whisky_'
'whip_'
'wears_'
'wealthy_'
'warrior_'
'warp_'
'ward_'
'wanting_'
'wah_'
'wagon_'
'válida_'
'vozes_'
'voyage_'
'voted_'
'votação_'
'votar_'
'von_'
'voltámos_'
'volts_'
'voltaria_'
'voltaram_'
'voltamos_'
'voltado_'
'volante_'
'vivido_'
'viveu_'
'viveram_'
'vital_'
'visível_'
'visitá_'
'visitor_'
'visitas_'
'vision_'
'virão_'
'virtude_'
'virgem_'
'viral_'
'violence_'
'vingar_'
'vinda_'
'vilão_'
'villain_'
'vigias_'
'vigiar_'
'vigia_'
'vier_'
'vidente_'
'vic_'
'vias_'
'viajar_'
'viagens_'
'vet_'
'vestidos_'
'veste_'
'vertical_'
'verme_'
'verem_'
'verdict_'
'venho_'
'vendê_'
'vencer_'
'vegetable_'
'vazias_'
'vazia_'
'vault_'
'varanda_'
'vapor_'
'vampiros_'
'vampiro_'
'valley_'
'vague_'
'vagina_'
'vagabundo_'
'vacas_'
'useful_'
'usaram_'
'usados_'
'urgent_'
'ups_'
'unstable_'
'unreasonable_'
'uniforme_'
'unidades_'
'unidade_'
'unhas_'
'unha_'
'ungrateful_'
'unfortunately_'
'uid_'
'título_'
'tímida_'
'ténis_'
'técnicas_'
'técnica_'
'turno_'
'turistas_'
'turista_'
'tube_'
'troop_'
'tristeza_'
'trigger_'
'tricks_'
'treinador_'
'trees_'
'trauma_'
'tratava_'
'tratamos_'
'tratados_'
'traseiras_'
'transplant_'
'transmission_'
'translation_'
'trancado_'
'tragédia_'
'traduzir_'
'trabalharam_'
'trabalham_'
'trabalhador_'
'tougher_'
'touching_'
'torturing_'
'torta_'
'toques_'
'tonta_'
'toneladas_'
'tomei_'
'tomada_'
'toilet_'
'toes_'
'toe_'
'toalha_'
'tivéssemos_'
'title_'
'tissue_'
'tirem_'
'tiras_'
'tirado_'
'tirada_'
'tip_'
'tiger_'
'tied_'
'thumb_'
'throats_'
'thirty_'
'thieves_'
'therefore_'
'therapy_'
'therapist_'
'theme_'
'theirs_'
'theatre_'
'teto_'
'testify_'
'tesoura_'
'teso_'
'teríamos_'
'terão_'
'terroristas_'
'terras_'
'terminou_'
'terminal_'
'terapia_'
'terapeuta_'
'tentarem_'
'tentaram_'
'tentam_'
'tentado_'
'tent_'
'tendência_'
'tempted_'
'temporal_'
'tempestades_'
'television_'
'telephone_'
'telegrama_'
'telefonemas_'
'telefonado_'
'tecto_'
'technically_'
'taxi_'
'tax_'
'tatuagem_'
'tasting_'
'tarnation_'
'tarda_'
'tampa_'
'talent_'
'sóbrio_'
'sítios_'
'sê_'
'séria_'
'século_'
'swim_'
'swept_'
'sweater_'
'suspicious_'
'sushi_'
'survival_'
'surrender_'
'surplus_'
'surely_'
'supplies_'
'suppliers_'
'suporto_'
'suportar_'
'supervisionar_'
'sunshine_'
'sunset_'
'sunrise_'
'sundown_'
'sum_'
'sujo_'
'suitcase_'
'suicídio_'
'suicidar_'
'suggested_'
'sugestão_'
'sugar_'
'suddenly_'
'subway_'
'submarino_'
'subiu_'
'studying_'
'studio_'
'stubborn_'
'strongest_'
'straw_'
'strangers_'
'straighten_'
'stove_'
'stones_'
'sticky_'
'sticking_'
'steel_'
'status_'
'stash_'
'stands_'
'standby_'
'standard_'
'stake_'
'stable_'
'stab_'
'square_'
'spotted_'
'sport_'
'spirits_'
'spending_'
'spell_'
'speaker_'
'spa_'
'soutien_'
'soubeste_'
'soubesses_'
'sorrir_'
'somar_'
'solteiro_'
'solitary_'
'solicitor_'
'software_'
'sofisticado_'
'soccer_'
'sobrinha_'
'sobrevivido_'
'sobreviventes_'
'sobretudo_'
'sobremesa_'
'sobra_'
'sneaking_'
'snakes_'
'snake_'
'smiling_'
'smiled_'
'smash_'
'slowing_'
'skills_'
'skill_'
'skies_'
'situations_'
'sitter_'
'sistemas_'
'sintomas_'
'sins_'
'sino_'
'sincera_'
'sin_'
'silent_'
'silence_'
'sickness_'
'shuttle_'
'shudder_'
'shrine_'
'shovel_'
'shout_'
'shore_'
'shooter_'
'shine_'
'shift_'
'shh_'
'sheep_'
'sharp_'
'sharing_'
'shake_'
'shadow_'
'shack_'
'sexta_'
'sewer_'
'setup_'
'sesta_'
'sessão_'
'session_'
'services_'
'served_'
'serial_'
'separaram_'
'sentence_'
'sensual_'
'sensato_'
'senha_'
'sends_'
'seminar_'
'semi_'
'selva_'
'segurá_'
'segurar_'
'seguido_'
'seguem_'
'seduzir_'
'secundário_'
'sector_'
'secretos_'
'sec_'
'sealed_'
'scroll_'
'scout_'
'scores_'
'scientists_'
'schools_'
'scary_'
'saírem_'
'saíram_'
'savages_'
'saudável_'
'satélite_'
'sapateado_'
'sanita_'
'sangrar_'
'san_'
'sample_'
'salão_'
'salário_'
'salvou_'
'salvamento_'
'salto_'
'saline_'
'sales_'
'salas_'
'saindo_'
'sacrificar_'
'sacanas_'
'sabido_'
'rígido_'
'réu_'
'rédeas_'
'rumors_'
'rumor_'
'rule_'
'rub_'
'royal_'
'route_'
'roses_'
'rooms_'
'rode_'
'roda_'
'rockets_'
'ribs_'
'ria_'
'revólver_'
'revolution_'
'revista_'
'review_'
'revelar_'
'revealed_'
'reveal_'
'reunion_'
'retirada_'
'retaguarda_'
'resume_'
'restaurantes_'
'respiração_'
'respeitar_'
'resist_'
'resident_'
'residence_'
'resemblance_'
'reputação_'
'represent_'
'reparei_'
'repair_'
'render_'
'removed_'
'remorsos_'
'reminds_'
'remembered_'
'remar_'
'relief_'
'released_'
'relatórios_'
'relativamente_'
'relationships_'
'related_'
'relacionado_'
'reject_'
'reino_'
'regular_'
'regrets_'
'registar_'
'regard_'
'reféns_'
'refém_'
'refuses_'
'reforços_'
'reduzir_'
'redondezas_'
'recurso_'
'recuperei_'
'recorrer_'
'recordar_'
'reconsider_'
'recommend_'
'recomendo_'
'recognise_'
'reclamar_'
'recentes_'
'recente_'
'recent_'
'receive_'
'receia_'
'recebo_'
'recebemos_'
'reboque_'
'rebeldes_'
'reactor_'
'react_'
'raça_'
'raptado_'
'rapazinho_'
'rancho_'
'radiação_'
'racionamento_'
'r_'
'química_'
'quota_'
'questionable_'
'quentes_'
'queima_'
'quedas_'
'quarteirões_'
'quarteirão_'
'quantidades_'
'qualidade_'
'q_'
'pôde_'
'pô_'
'pós_'
'pólo_'
'pássaros_'
'páginas_'
'puxa_'
'pussy_'
'pushing_'
'pushed_'
'puseste_'
'purse_'
'pudermos_'
'psycho_'
'psychic_'
'psicólogo_'
'próstata_'
'príncipe_'
'provoca_'
'protegidos_'
'protector_'
'prosecutor_'
'propriamente_'
'proposta_'
'promovido_'
'promising_'
'promises_'
'prometido_'
'projecto_'
'progressos_'
'progresso_'
'programas_'
'profundezas_'
'profunda_'
'profit_'
'product_'
'procurei_'
'procurando_'
'privada_'
'prisioneiros_'
'prior_'
'princess_'
'prince_'
'prima_'
'previously_'
'previous_'
'pretending_'
'presumo_'
'presta_'
'preparada_'
'preocupamos_'
'prendê_'
'prendas_'
'pregar_'
'predetermined_'
'prazo_'
'praying_'
'prayed_'
'prato_'
'poço_'
'poupar_'
'pot_'
'possui_'
'possibilities_'
'portão_'
'porcos_'
'poop_'
'pontaria_'
'ponta_'
'politics_'
'policy_'
'policemen_'
'poker_'
'poisonous_'
'poisoned_'
'pointing_'
'poeta_'
'poderíamos_'
'poderoso_'
'poderem_'
'pobreza_'
'plásticas_'
'plantas_'
'plantar_'
'placed_'
'placa_'
'pit_'
'pissing_'
'piores_'
'piorar_'
'pintar_'
'pink_'
'pills_'
'pillows_'
'pill_'
'pierced_'
'pia_'
'phrase_'
'photographer_'
'phase_'
'pet_'
'pessoais_'
'pesadelos_'
'personnel_'
'personally_'
'personalidade_'
'perseguição_'
'permission_'
'permanente_'
'permanecer_'
'period_'
'perigosos_'
'perigosa_'
'perform_'
'perdidos_'
'perdida_'
'perderam_'
'percas_'
'pensávamos_'
'pensavas_'
'pensamos_'
'pensamentos_'
'pencil_'
'penas_'
'penalty_'
'peitos_'
'peguei_'
'pegadas_'
'peek_'
'pedimos_'
'pechincha_'
'peak_'
'países_'
'payday_'
'patrão_'
'patrulha_'
'patroa_'
'patins_'
'paternidade_'
'patas_'
'pastilha_'
'pasta_'
'passei_'
'passava_'
'passaste_'
'passaporte_'
'passam_'
'parto_'
'partida_'
'parked_'
'parado_'
'papo_'
'papelada_'
'pancada_'
'pan_'
'palco_'
'pairs_'
'paintings_'
'padrinho_'
'pacientes_'
'owl_'
'outubro_'
'otário_'
'otherwise_'
'orgânica_'
'orgulhar_'
'organizar_'
'ordering_'
'orbit_'
'orange_'
'opponent_'
'oposto_'
'ondas_'
'olhou_'
'olhei_'
'ofyou_'
'oficialmente_'
'oferta_'
'ofereci_'
'ofensa_'
'ofender_'
'ocidental_'
'oceano_'
'occurred_'
'occur_'
'occasionally_'
'ocasião_'
'obtém_'
'obtive_'
'obstáculo_'
'obsessão_'
'observação_'
'núcleo_'
'nádegas_'
'nuvens_'
'nursing_'
'nun_'
'nu_'
'noção_'
'novels_'
'normally_'
'nonsense_'
'noivos_'
'nipples_'
'nigger_'
'nick_'
'netos_'
'nesses_'
'nessas_'
'nervoso_'
'neighbor_'
'negotiate_'
'needn_'
'necklace_'
'nação_'
'naughty_'
'naturalmente_'
'naturally_'
'nascido_'
'nap_'
'músico_'
'músculos_'
'míssil_'
'mísseis_'
'mínimo_'
'métodos_'
'mães_'
'mágica_'
'mystery_'
'mysterious_'
'myjob_'
'mundial_'
'mum_'
'mudam_'
'muda_'
'movimentos_'
'motores_'
'moto_'
'motivos_'
'motivational_'
'mostarda_'
'morro_'
'morra_'
'morphine_'
'moron_'
'moro_'
'morgue_'
'mordida_'
'morder_'
'morar_'
'monkey_'
'monitor_'
'mon_'
'mommy_'
'molhar_'
'molhado_'
'mole_'
'moeda_'
'modern_'
'moda_'
'mock_'
'mochila_'
'mixed_'
'mistérios_'
'mirrors_'
'minus_'
'minor_'
'minimum_'
'mini_'
'mina_'
'mid_'
'microscópio_'
'micro_'
'mexicanos_'
'mexicana_'
'mexa_'
'meteu_'
'meteor_'
'messages_'
'mereces_'
'mentindo_'
'mentally_'
'mentais_'
'melhorou_'
'melhora_'
'meias_'
'meds_'
'medicina_'
'medallion_'
'mecanismo_'
'meantime_'
'matem_'
'matarei_'
'massage_'
'maré_'
'market_'
'marijuana_'
'marcou_'
'marcas_'
'marcado_'
'maquilhagem_'
'manual_'
'mantêm_'
'mantê_'
'mantenham_'
'mansão_'
'manner_'
'manifestação_'
'manga_'
'maneiras_'
'managed_'
'malvada_'
'malucas_'
'maluca_'
'maldição_'
'malditos_'
'maldita_'
'makeup_'
'mails_'
'magoada_'
'magnífico_'
'lâmina_'
'luxury_'
'lutaram_'
'lucro_'
'logical_'
'lobos_'
'lobo_'
'loaded_'
'liver_'
'lively_'
'litro_'
'literature_'
'literalmente_'
'listens_'
'listened_'
'lion_'
'limpa_'
'limites_'
'limite_'
'limit_'
'ligá_'
'ligue_'
'lightning_'
'lighting_'
'ligados_'
'ligadas_'
'lies_'
'liderar_'
'lick_'
'library_'
'lho_'
'levels_'
'levas_'
'levaria_'
'levante_'
'leu_'
'letra_'
'lesão_'
'lessons_'
'lençol_'
'lentamente_'
'length_'
'lend_'
'lembrem_'
'lembre_'
'leitura_'
'leio_'
'leap_'
'leaders_'
'leader_'
'lazy_'
'laying_'
'lavradores_'
'lata_'
'largou_'
'largo_'
'lança_'
'landlord_'
'lance_'
'lame_'
'lack_'
'labor_'
'kung_'
'kittens_'
'kissing_'
'killers_'
'kidnapping_'
'kiddo_'
'kicking_'
'kg_'
'jóias_'
'jungle_'
'julho_'
'julga_'
'joking_'
'jokes_'
'jogava_'
'jogando_'
'joga_'
'jewels_'
'jewelry_'
'jet_'
'jazz_'
'jaybird_'
'jardineiro_'
'japoneses_'
'isolado_'
'irrita_'
'ironic_'
'irmãs_'
'involves_'
'invitation_'
'invisible_'
'investimento_'
'investigation_'
'investigate_'
'inventar_'
'inveja_'
'internet_'
'intern_'
'interesses_'
'intense_'
'intelectuais_'
'insulto_'
'instrumento_'
'instant_'
'insinuar_'
'inseguro_'
'insectos_'
'injecção_'
'iniciais_'
'inglês_'
'inform_'
'influenciar_'
'infeliz_'
'infectados_'
'industry_'
'indivíduo_'
'independentemente_'
'independent_'
'incêndio_'
'income_'
'incluindo_'
'incidente_'
'incident_'
'incapable_'
'inacreditável_'
'inaceitável_'
'impression_'
'importava_'
'importam_'
'imploro_'
'imbecil_'
'illegal_'
'ilegal_'
'ilegais_'
'iguais_'
'ignorance_'
'idosos_'
'idiotic_'
'hábil_'
'hunting_'
'hung_'
'hotline_'
'hose_'
'horríveis_'
'horny_'
'horns_'
'hopeless_'
'hoped_'
'hood_'
'honored_'
'hon_'
'holds_'
'hm_'
'highest_'
'hidrogénio_'
'helpful_'
'helicopter_'
'hein_'
'heck_'
'heavens_'
'heated_'
'heading_'
'headaches_'
'havido_'
'hates_'
'hated_'
'harsh_'
'happily_'
'gémea_'
'gás_'
'guts_'
'gum_'
'guitarra_'
'guerreiro_'
'guardado_'
'grudge_'
'growth_'
'grossa_'
'gritos_'
'grito_'
'grin_'
'grill_'
'gravidez_'
'graves_'
'gravação_'
'gravar_'
'gratitude_'
'grass_'
'grandfather_'
'grades_'
'gozo_'
'gostaste_'
'golpe_'
'golo_'
'golfe_'
'glória_'
'glasses_'
'gira_'
'ginástica_'
'gerações_'
'geral_'
'gentileza_'
'genetic_'
'generoso_'
'generate_'
'gel_'
'gato_'
'gather_'
'gastar_'
'gasoline_'
'garbage_'
'ganhou_'
'ganham_'
'gancho_'
'gallery_'
'gains_'
'fôlego_'
'fê_'
'fusão_'
'furiosa_'
'funnier_'
'funds_'
'fund_'
'funcionam_'
'fuel_'
'fruta_'
'frustração_'
'frickin_'
'fresco_'
'frequência_'
'frases_'
'framed_'
'fracos_'
'forçados_'
'fortune_'
'fortuna_'
'fortnight_'
'forms_'
'former_'
'formed_'
'foremost_'
'forem_'
'forbidden_'
'fogueira_'
'foge_'
'fofa_'
'foda_'
'focused_'
'flutuar_'
'fluid_'
'flores_'
'floats_'
'flip_'
'flee_'
'flag_'
'fizerem_'
'fits_'
'fist_'
'fisicamente_'
'firmes_'
'fires_'
'fins_'
'finder_'
'finais_'
'fina_'
'filmar_'
'ficção_'
'ficaremos_'
'ficaram_'
'ficando_'
'ferimento_'
'felizes_'
'feitiço_'
'federal_'
'fechados_'
'fecha_'
'febre_'
'feather_'
'fazermos_'
'fatia_'
'fatal_'
'fascinating_'
'fascinante_'
'farão_'
'farta_'
'farol_'
'fariam_'
'fanatics_'
'famosa_'
'fama_'
'faltava_'
'falhei_'
'falemos_'
'falem_'
'falava_'
'fake_'
'faixa_'
'fails_'
'failing_'
'facts_'
'factos_'
'factory_'
'facility_'
'facilities_'
'fabuloso_'
'eyeball_'
'extremely_'
'exposto_'
'exposição_'
'explode_'
'explico_'
'expedição_'
'expedition_'
'exige_'
'exhibition_'
'exhausted_'
'exercise_'
'exemplares_'
'executar_'
'excepção_'
'excelência_'
'examine_'
'examina_'
'exam_'
'evoluir_'
'evidentemente_'
'eventualmente_'
'events_'
'eternity_'
'eternidade_'
'estúpidos_'
'estupidez_'
'estudo_'
'estudantes_'
'estreita_'
'estratégia_'
'estranhos_'
'estragado_'
'estejamos_'
'estejam_'
'estate_'
'estaríamos_'
'estabelecido_'
'estabelecer_'
'essence_'
'esqueçam_'
'esquece_'
'espíritos_'
'espiões_'
'espingarda_'
'espertos_'
'esperta_'
'esperem_'
'específica_'
'espantosa_'
'esgoto_'
'escutar_'
'escuros_'
'escumalha_'
'escrevi_'
'escravos_'
'escolhidos_'
'escolheu_'
'es_'
'equipas_'
'episode_'
'envolver_'
'enviaram_'
'enviado_'
'enviada_'
'envelopes_'
'envelope_'
'entusiasmo_'
'entregá_'
'entertainer_'
'enterrado_'
'entendeu_'
'ensure_'
'ensiná_'
'ensina_'
'engineering_'
'engineer_'
'engenhoso_'
'engano_'
'enfermaria_'
'encontremos_'
'encerrado_'
'encantador_'
'empurrou_'
'empurrar_'
'emprestar_'
'emprestado_'
'empresas_'
'empregada_'
'empire_'
'emperor_'
'empatia_'
'emotion_'
'emos_'
'emocional_'
'embarque_'
'elite_'
'elevados_'
'elevadores_'
'elementos_'
'elegante_'
'el_'
'eis_'
'effects_'
'effective_'
'efeito_'
'educar_'
'educado_'
'economia_'
'eco_'
'earned_'
'earn_'
'dívidas_'
'duties_'
'duplicado_'
'dupla_'
'dull_'
'duelo_'
'duche_'
'drove_'
'drones_'
'driven_'
'drill_'
'dramatic_'
'drama_'
'dragged_'
'draft_'
'doutora_'
'doubling_'
'dormia_'
'dorme_'
'doll_'
'doida_'
'doentio_'
'documento_'
'dobrar_'
'diária_'
'dizemos_'
'division_'
'divides_'
'diverte_'
'disturbing_'
'district_'
'distribuir_'
'distraí_'
'dissesse_'
'disserem_'
'dissemos_'
'disposta_'
'display_'
'disparate_'
'disguised_'
'discussão_'
'discipline_'
'disciplina_'
'disappointed_'
'disappears_'
'disappear_'
'direção_'
'directora_'
'diploma_'
'dinossauros_'
'diner_'
'dim_'
'digressão_'
'digital_'
'digamos_'
'diferenças_'
'dieta_'
'diet_'
'diamantes_'
'diabetes_'
'devoted_'
'devesse_'
'deverias_'
'deveriam_'
'developed_'
'develop_'
'detrás_'
'determine_'
'determinar_'
'destruída_'
'destemido_'
'dessert_'
'desprezo_'
'despesas_'
'desperdício_'
'desperdiçar_'
'despedir_'
'despedimentos_'
'despachem_'
'desistir_'
'desisti_'
'designed_'
'desfile_'
'desfazer_'
'desesperadamente_'
'desenho_'
'descrever_'
'descobriram_'
'descobrimos_'
'descobrem_'
'descobre_'
'descoberto_'
'descent_'
'desce_'
'descarregar_'
'desastrada_'
'desaparecimento_'
'desactivar_'
'deram_'
'depósito_'
'depression_'
'depending_'
'deny_'
'denial_'
'demónio_'
'demorado_'
'demonstração_'
'demonstrar_'
'demand_'
'delighted_'
'delicate_'
'deliberadamente_'
'deli_'
'delegation_'
'deixava_'
'deixaste_'
'deixas_'
'deixaria_'
'deixaram_'
'deitado_'
'degrees_'
'definitivamente_'
'defending_'
'defend_'
'defence_'
'deeply_'
'decoration_'
'decline_'
'declarações_'
'decente_'
'debts_'
'deaths_'
'dated_'
'darkness_'
'daria_'
'damos_'
'dali_'
'dada_'
'cópias_'
'códigos_'
'cêntimos_'
'céus_'
'célula_'
'czar_'
'customs_'
'custar_'
'custam_'
'curta_'
'currículo_'
'curioso_'
'curb_'
'curar_'
'cumpre_'
'culpados_'
'cuja_'
'cuidados_'
'cuffs_'
'cue_'
'cuckoo_'
'cruéis_'
'cruz_'
'crop_'
'cristã_'
'cried_'
'criação_'
'criaturas_'
'criados_'
'crews_'
'creep_'
'creating_'
'crawl_'
'cracked_'
'cozinhar_'
'cows_'
'cowboys_'
'coward_'
'coverage_'
'courtroom_'
'couro_'
'coup_'
'counsel_'
'costa_'
'cortinas_'
'correspondência_'
'corrente_'
'correndo_'
'correm_'
'correcta_'
'cookies_'
'cooked_'
'convés_'
'convidada_'
'convert_'
'convention_'
'convencido_'
'continuam_'
'continente_'
'contents_'
'contentor_'
'contentes_'
'content_'
'contares_'
'contactar_'
'consumir_'
'construído_'
'constructed_'
'constantly_'
'consolation_'
'consistent_'
'consigas_'
'considerar_'
'consequences_'
'conselheiro_'
'conseguirmos_'
'conseguiria_'
'conseguirem_'
'conseguias_'
'consciousness_'
'conscience_'
'conosco_'
'connect_'
'conjunto_'
'conhecida_'
'conheceu_'
'conhecesse_'
'conhecendo_'
'confusa_'
'confortável_'
'conforto_'
'confirmar_'
'confie_'
'condução_'
'conduzo_'
'condolências_'
'condições_'
'conditions_'
'concurso_'
'concha_'
'concentração_'
'concentrating_'
'conceder_'
'comunicar_'
'comprimidos_'
'compreensão_'
'compraste_'
'compram_'
'compra_'
'comporta_'
'complicações_'
'comparison_'
'comment_'
'comin_'
'começas_'
'começando_'
'cometido_'
'cometeu_'
'cometer_'
'cometa_'
'comet_'
'comentários_'
'comemos_'
'comedian_'
'comece_'
'colheita_'
'cocksucker_'
'cobras_'
'cobertor_'
'coberto_'
'coberta_'
'co_'
'closely_'
'clima_'
'clients_'
'click_'
'classroom_'
'claiming_'
'civilian_'
'cities_'
'circumstances_'
'circuito_'
'cinto_'
'cilada_'
'cigars_'
'cigarette_'
'cientista_'
'churrasco_'
'chulo_'
'chose_'
'choro_'
'chop_'
'chips_'
'chills_'
'chicks_'
'chewing_'
'chew_'
'chemical_'
'cheirar_'
'cheguem_'
'chegará_'
'chegada_'
'chata_'
'charm_'
'charging_'
'chapéus_'
'chapa_'
'chantagem_'
'changes_'
'champanhe_'
'chames_'
'chamava_'
'chamamos_'
'chamam_'
'chamadas_'
'challenge_'
'chain_'
'certificar_'
'cereais_'
'cenário_'
'cents_'
'cento_'
'cemetery_'
'cem_'
'cells_'
'celebrity_'
'celebração_'
'celebrating_'
'ceiling_'
'caução_'
'cauteloso_'
'catástrofe_'
'cattle_'
'castle_'
'casamentos_'
'casacos_'
'cartuchos_'
'cart_'
'carries_'
'caridade_'
'careers_'
'careca_'
'capturar_'
'capacidades_'
'canto_'
'canceled_'
'canalha_'
'camisola_'
'camarão_'
'camarada_'
'caller_'
'caixão_'
'cais_'
'cage_'
'cadáveres_'
'cabras_'
'cabelos_'
'butter_'
'burns_'
'buracos_'
'bum_'
'buffalo_'
'brutal_'
'bronze_'
'britânico_'
'brincos_'
'brincava_'
'brincando_'
'brincadeiras_'
'brilhar_'
'breast_'
'breaks_'
'brass_'
'brasa_'
'branch_'
'bracelet_'
'bra_'
'bowl_'
'bout_'
'bote_'
'bosses_'
'borda_'
'boot_'
'booked_'
'bonitos_'
'bonecas_'
'bochechas_'
'bob_'
'blonde_'
'blocos_'
'blinked_'
'blessing_'
'bleeding_'
'blank_'
'blaming_'
'bitches_'
'birth_'
'birds_'
'bilhar_'
'bicha_'
'betting_'
'betrayed_'
'benevolente_'
'benefits_'
'belt_'
'belief_'
'beijá_'
'beijo_'
'beija_'
'begun_'
'beco_'
'bebê_'
'bebia_'
'beating_'
'baía_'
'bay_'
'bati_'
'batem_'
'bastardos_'
'basis_'
'baseia_'
'bars_'
'barra_'
'bargain_'
'barcos_'
'barata_'
'baleias_'
'balde_'
'bake_'
'bairros_'
'bailarina_'
'badly_'
'bactérias_'
'bacon_'
'backseat_'
'awesome_'
'avariou_'
'avariada_'
'avança_'
'autógrafo_'
'autorizado_'
'aumenta_'
'audiência_'
'audition_'
'auction_'
'attractive_'
'attic_'
'attacking_'
'attached_'
'atreve_'
'atrasar_'
'atmosphere_'
'atirou_'
'atiradores_'
'atirador_'
'atirado_'
'atingir_'
'atende_'
'atencioso_'
'atalho_'
'asylum_'
'assédio_'
'assure_'
'associação_'
'assist_'
'assinada_'
'assholes_'
'assalto_'
'asneira_'
'artificial_'
'arriscado_'
'arranje_'
'arranjaste_'
'arranja_'
'arrangements_'
'arranged_'
'arrancar_'
'armário_'
'armazém_'
'armado_'
'arbustos_'
'aquí_'
'aquecer_'
'apuros_'
'approval_'
'appointment_'
'appointed_'
'apontar_'
'apetecer_'
'apanhámos_'
'apanhados_'
'apanhada_'
'apagou_'
'anzol_'
'anxious_'
'anunciou_'
'antigamente_'
'anterior_'
'answering_'
'ansiedade_'
'annual_'
'annoying_'
'angels_'
'andou_'
'andava_'
'amount_'
'ammunition_'
'amizade_'
'amiguinho_'
'ambiente_'
'alvos_'
'alunos_'
'aluno_'
'alturas_'
'alternative_'
'altar_'
'alliance_'
'alimentos_'
'alike_'
'aliança_'
'alcohol_'
'alas_'
'alarme_'
'ajudes_'
'ajudas_'
'ajudado_'
'aid_'
'ahold_'
'agulha_'
'agressão_'
'agrada_'
'aggressive_'
'aggression_'
'agenda_'
'agency_'
'agarrá_'
'agarrou_'
'affairs_'
'afasta_'
'advisor_'
'advance_'
'adult_'
'adrenalina_'
'adquirir_'
'adolescentes_'
'admitted_'
'admirado_'
'adjunto_'
'adianta_'
'adeus_'
'adesivo_'
'addresses_'
'addition_'
'add_'
'ad_'
'acusações_'
'actress_'
'actores_'
'activity_'
'acredite_'
'aconteceram_'
'acontecem_'
'achievements_'
'achavam_'
'accused_'
'accurate_'
'acalma_'
'acabará_'
'abóbora_'
'abri_'
'abraçá_'
'ability_'
'aberração_'
'abandonou_'
'Ziggy_'
'Zero_'
'Zack_'
'Yvette_'
'Yuri_'
'Yuki_'
'Young_'
'Yao_'
'Yankee_'
'Word_'
'Wood_'
'Women_'
'Willard_'
'Wichita_'
'Whistler_'
'Whenever_'
'Western_'
'Wednesday_'
'Web_'
'Weaver_'
'Way_'
'Wash_'
'Warren_'
'Warp_'
'Wanna_'
'Wanda_'
'Waiting_'
'WANTED_'
'Vêm_'
'Voyager_'
'Vossa_'
'Voltei_'
'Voltar_'
'Voce_'
'Vivian_'
'Vive_'
'Vira_'
'Vinny_'
'Vimos_'
'Vida_'
'Venho_'
'Velho_'
'Vanessa_'
'Valentine_'
'Valentim_'
'Use_'
'Ursula_'
'Upstairs_'
'União_'
'Unit_'
'Understood_'
'Uau_'
'Turk_'
'Tucker_'
'Tua_'
'True_'
'Trudy_'
'Troy_'
'Trouxeste_'
'Trish_'
'Trevor_'
'Tretas_'
'Town_'
'Touchdown_'
'Tortuga_'
'Torre_'
'Tivemos_'
'Titanic_'
'Tirem_'
'Tiraste_'
'Timothy_'
'Tiki_'
'Tiffany_'
'Tie_'
'Ticket_'
'Thirty_'
'Third_'
'Teu_'
'Testemunhas_'
'Terri_'
'Teri_'
'Teresa_'
'Terei_'
'Telefono_'
'Team_'
'Tanner_'
'Tai_'
'Tabby_'
'TIME_'
'THERE_'
'Sê_'
'Sykes_'
'Suzanne_'
'Surprise_'
'Surely_'
'Supremo_'
'Suppose_'
'Superman_'
'Sunset_'
'Sung_'
'Sundays_'
'Such_'
'Strong_'
'Straight_'
'Stiles_'
'Stern_'
'Stephanie_'
'Stealing_'
'Stark_'
'Stanford_'
'Srta_'
'Squad_'
'Springfield_'
'Spider_'
'Spence_'
'Spanish_'
'Spain_'
'Southern_'
'Soprano_'
'Sonya_'
'Sonia_'
'Solte_'
'Sociais_'
'Soa_'
'Snarf_'
'Snap_'
'Smart_'
'Simplesmente_'
'Simeon_'
'Significa_'
'Signal_'
'Sigam_'
'Shouldn_'
'Sheridan_'
'Shelly_'
'Shawn_'
'Shaw_'
'Seymour_'
'Seus_'
'Serve_'
'Sentei_'
'Senhorita_'
'Senadora_'
'Screw_'
'Scotty_'
'Sayuri_'
'Saudações_'
'Sasha_'
'Santos_'
'Sangue_'
'Sandra_'
'Samuel_'
'Same_'
'Salve_'
'Salvaste_'
'Salta_'
'Salas_'
'Sala_'
'Sal_'
'Sair_'
'SON_'
'SOME_'
'SAY_'
'SAID_'
'Rádio_'
'Rusty_'
'Russia_'
'Russ_'
'Rupert_'
'Ruiz_'
'Ruhr_'
'Royal_'
'Rory_'
'Robinson_'
'Roberts_'
'Robb_'
'Road_'
'Ringo_'
'Richie_'
'Reza_'
'Resistência_'
'Republic_'
'Report_'
'Repara_'
'René_'
'Renee_'
'Reid_'
'Reese_'
'Recebemos_'
'Rapaz_'
'Ramsey_'
'Raj_'
'Rabbit_'
'Quinze_'
'Quinn_'
'Queens_'
'Puxa_'
'Purcell_'
'Punk_'
'Puerto_'
'Prue_'
'Prove_'
'Prova_'
'Prossiga_'
'Prontos_'
'Pronta_'
'Promete_'
'Procuro_'
'Problemas_'
'Prison_'
'Princeton_'
'Pride_'
'Preparem_'
'Prepara_'
'Prentiss_'
'Precisava_'
'Pray_'
'Poupem_'
'Possivelmente_'
'Pope_'
'Ponte_'
'Ponho_'
'Ponha_'
'Polish_'
'Poker_'
'Poe_'
'Podiam_'
'Poder_'
'Planet_'
'Piloto_'
'Phoenix_'
'Petty_'
'Peterson_'
'Permite_'
'Perdoe_'
'Perdoa_'
'Percebido_'
'Percebi_'
'Pense_'
'Peni_'
'Pega_'
'Pedimos_'
'Pede_'
'Pay_'
'Pauline_'
'Patterson_'
'Patsy_'
'Paso_'
'Part_'
'Paco_'
'PLENTY_'
'PA_'
'Oz_'
'Outside_'
'Outros_'
'Ouro_'
'Orleans_'
'Oriental_'
'Orange_'
'Oops_'
'Omega_'
'Olhos_'
'Olga_'
'Oklahoma_'
'Oil_'
'Oficial_'
'Ofereço_'
'Obviamente_'
'OVER_'
'OUT_'
'ONE_'
'Normally_'
'Nonsense_'
'Noite_'
'Noah_'
'Nicolau_'
'Newman_'
'Neville_'
'Nevada_'
'Nessa_'
'Negative_'
'Near_'
'Nation_'
'Naquele_'
'Naomi_'
'Nancy_'
'Nam_'
'Nacional_'
'NSA_'
'NIGHT_'
'NEA_'
'Myers_'
'Murdock_'
'Mundial_'
'Muller_'
'Muita_'
'Motel_'
'Mostre_'
'Moss_'
'Moscovo_'
'Mortos_'
'Moore_'
'Mona_'
'Mitch_'
'Mister_'
'Missouri_'
'Milo_'
'Millions_'
'Milhares_'
'Mexe_'
'Metro_'
'Mete_'
'Meryl_'
'Merry_'
'Mercedes_'
'Menti_'
'Melanie_'
'Meia_'
'Medicina_'
'Meanwhile_'
'McLeod_'
'McKay_'
'Maxwell_'
'Maureen_'
'Maryland_'
'Marshal_'
'Marry_'
'Marinha_'
'Marian_'
'Margie_'
'Marcy_'
'Mande_'
'Manda_'
'Manchester_'
'Malley_'
'Malibu_'
'Maldito_'
'Makes_'
'Maio_'
'Madonna_'
'Madison_'
'Mackey_'
'Macacos_'
'MADE_'
'Lydia_'
'Luz_'
'Lutei_'
'Luna_'
'Luisa_'
'Lovely_'
'Lori_'
'Looking_'
'Lola_'
'Lloyd_'
'Live_'
'Lister_'
'Lindsay_'
'Limpem_'
'Lilly_'
'Lillian_'
'Ligar_'
'Li_'
'Lhe_'
'Leve_'
'Levar_'
'Lester_'
'Leslie_'
'Leon_'
'Lemon_'
'Lembrem_'
'Legal_'
'Lazlo_'
'Laughing_'
'Late_'
'Lars_'
'Lang_'
'Lacey_'
'LIKE_'
'LAUGHING_'
'LAST_'
'Kung_'
'Kramer_'
'Kong_'
'KlTT_'
'Kira_'
'Kip_'
'Kiki_'
'Kick_'
'Key_'
'Kemp_'
'Karma_'
'Kara_'
'KAOS_'
'Juntos_'
'Junte_'
'Junta_'
'Jump_'
'July_'
'Jules_'
'Judge_'
'Judas_'
'Juan_'
'Jr_'
'Joyce_'
'Join_'
'Jockey_'
'Joan_'
'Jillian_'
'Jessica_'
'Jeová_'
'Jeffrey_'
'Jeanne_'
'Java_'
'Japão_'
'Japanese_'
'Japan_'
'Janice_'
'Jan_'
'Jal_'
'Itália_'
'Israeli_'
'Irving_'
'Irmãos_'
'Iraque_'
'Ir_'
'Io_'
'Into_'
'Instead_'
'Inimigo_'
'Inferno_'
'Iet_'
'Ide_'
'Ida_'
'Ian_'
'Humanos_'
'Human_'
'Hulk_'
'Hugo_'
'Hughes_'
'Hope_'
'Honestly_'
'Homicide_'
'Hollywood_'
'Holland_'
'Highway_'
'Hercules_'
'Herbie_'
'Herb_'
'Hawking_'
'Hartley_'
'Harrison_'
'Hardly_'
'Harding_'
'Happer_'
'Hanson_'
'Hannibal_'
'Hands_'
'Hamlet_'
'Halt_'
'HOUSE_'
'HOURS_'
'HIM_'
'HEART_'
'HAS_'
'Gutierrez_'
'Guerra_'
'Guards_'
'Grey_'
'Grandma_'
'Grand_'
'Gotham_'
'Gostavas_'
'Gostaste_'
'Golden_'
'Ginger_'
'Gil_'
'Gate_'
'Garza_'
'Ganhamos_'
'Game_'
'Gallagher_'
'Gabrielle_'
'Gabe_'
'GOOD_'
'GET_'
'Frota_'
'Frobisher_'
'Friends_'
'Free_'
'Frederick_'
'Frankenstein_'
'Francesco_'
'Fox_'
'Fotografia_'
'Foster_'
'Forças_'
'Fort_'
'Foreman_'
'Food_'
'Flying_'
'Florence_'
'Fletcher_'
'Fizemos_'
'Fiona_'
'Finished_'
'Finish_'
'Final_'
'Fields_'
'Ficaste_'
'Ficar_'
'Fi_'
'Fevereiro_'
'Fergus_'
'Female_'
'Federal_'
'Fecha_'
'Fazia_'
'Fazer_'
'Fayed_'
'Fate_'
'Fará_'
'Farm_'
'Falta_'
'Falas_'
'Falamos_'
'FINALLY_'
'FDR_'
'Explain_'
'Existem_'
'Excellency_'
'Exacto_'
'Everett_'
'Evening_'
'Evelyn_'
'Estrela_'
'Estelar_'
'Esperemos_'
'Esperava_'
'Especialmente_'
'Especially_'
'Espanha_'
'Escute_'
'Erik_'
'Er_'
'Equipa_'
'Enviei_'
'Entendem_'
'Enfermeira_'
'End_'
'Encontrar_'
'Empire_'
'Emergência_'
'Ellis_'
'Elena_'
'Eleanor_'
'Egyptian_'
'Edwards_'
'Edna_'
'Edgar_'
'Eddy_'
'Early_'
'ER_'
'EM_'
'Dão_'
'Dudley_'
'Drake_'
'Dragão_'
'Doutora_'
'Douglas_'
'Double_'
'Doo_'
'Dominique_'
'Domingo_'
'Doctors_'
'Direct_'
'Dillon_'
'Dillinger_'
'Diabos_'
'Dex_'
'Devon_'
'Desça_'
'Desaparece_'
'Des_'
'Department_'
'Denver_'
'Denham_'
'Deline_'
'Delhi_'
'Del_'
'Deixaram_'
'Definitivamente_'
'Dead_'
'Davenport_'
'Dava_'
'Daughter_'
'Daryl_'
'Daniels_'
'Dance_'
'Dana_'
'Damos_'
'Dakota_'
'Daily_'
'Curly_'
'Cuida_'
'Counting_'
'Countess_'
'Cortez_'
'Corey_'
'Cor_'
'Coop_'
'Cook_'
'Continuo_'
'Continuas_'
'Conseguimos_'
'Consegue_'
'Conhecemo_'
'Confio_'
'Conde_'
'Concordo_'
'Concho_'
'Computer_'
'Compra_'
'Complete_'
'Comigo_'
'Cometa_'
'Combinado_'
'Comando_'
'Colton_'
'Colonies_'
'College_'
'Colby_'
'Coisas_'
'Cohn_'
'Cohen_'
'Code_'
'Clifford_'
'Claus_'
'Claude_'
'Class_'
'Clara_'
'Cindy_'
'Christina_'
'Ching_'
'Chili_'
'Cheyenne_'
'Chen_'
'Chegue_'
'Cheers_'
'Chauncey_'
'Chatsworth_'
'Charley_'
'Change_'
'Chang_'
'Certamente_'
'Cavalo_'
'Cathy_'
'Cassie_'
'Casey_'
'Carta_'
'Carro_'
'Carolina_'
'Carmen_'
'Carly_'
'Care_'
'Cardassian_'
'Cara_'
'Canta_'
'Cannabis_'
'Cancer_'
'Calvin_'
'Callie_'
'Calley_'
'Cain_'
'Cabeça_'
'CHUCKLES_'
'Bíblia_'
'Buy_'
'Butch_'
'Building_'
'Buenos_'
'Brooke_'
'Brody_'
'Britânico_'
'Britain_'
'Brilliant_'
'Brett_'
'Breakfast_'
'Bradley_'
'Bowl_'
'Bow_'
'Boston_'
'Boomer_'
'Bons_'
'Bonnie_'
'Bon_'
'Bobbie_'
'Boas_'
'Blow_'
'Bloody_'
'Blood_'
'Blonde_'
'Bite_'
'Bingo_'
'Bet_'
'Bestial_'
'Bertram_'
'Bert_'
'Bernadette_'
'Berlim_'
'Bennett_'
'Benjamin_'
'Bender_'
'Belo_'
'Belle_'
'Beka_'
'Beijo_'
'Behind_'
'Beer_'
'Bea_'
'Barranca_'
'Barnes_'
'Barbie_'
'Barbarosa_'
'Bar_'
'BBC_'
'Avisa_'
'Avery_'
'Avenida_'
'Augustus_'
'Audrey_'
'Attention_'
'Assuntos_'
'Assad_'
'Ashley_'
'Artie_'
'Arnold_'
'Ariel_'
'Archer_'
'Arab_'
'Aquelas_'
'Apontar_'
'Aperta_'
'Aparece_'
'Apanhámos_'
'Apanhem_'
'Apanhamo_'
'Antonio_'
'Anita_'
'Angry_'
'Andre_'
'Ando_'
'Amsterdam_'
'Americano_'
'Amber_'
'Alliance_'
'Allen_'
'Allan_'
'Alison_'
'Alfa_'
'Alas_'
'Airport_'
'Air_'
'Ain_'
'Aid_'
'Agosto_'
'Agnes_'
'Age_'
'Afeganistão_'
'Afasta_'
'Adios_'
'Addison_'
'Acção_'
'Acredita_'
'Aceitar_'
'Acalme_'
'Academia_'
'Acabaste_'
'Acabaram_'
'Abençoado_'
'Aang_'
'AII_'
'98_'
'97_'
'95_'
'94_'
'84_'
'83_'
'65_'
'62_'
'37_'
'21st_'
'1992_'
'1985_'
'1984_'
'1945_'
'1000_'
'/ _'
'.: _'
'..." _'
'. (_'
'. " _'
'-..._'
'-... _'
'--?_'
'-- - _'
'- ..._'
'- ... _'
'- ( _'
',"_'
'," "_'
', " _'
'#_'
'!" _'
' ? - _'
' ' _'
' $ _'
' "._'
' " _'
'— _'
'únicos_'
'ótima_'
'índice_'
'índia_'
'éclair_'
'ângulo_'
'álibi_'
'águas_'
'ácido_'
'àquele_'
'Ü_'
'Última_'
'È_'
'Áustria_'
'Ámen_'
'Á_'
'¿_'
'° _'
'£­ _'
' ? _'
' ? - _'
'~ _'
'zombie_'
'zig_'
'zelar_'
'z_'
'yöu_'
'ylang_'
'yelled_'
'yell_'
'yeast_'
'yang_'
'yacht_'
'writes_'
'wrists_'
'wrestling_'
'wreck_'
'wraith_'
'wounded_'
'worthy_'
'worries_'
'worms_'
'wormhole_'
'worm_'
'worldwide_'
'workshop_'
'worker_'
'wooden_'
'wonders_'
'wondered_'
'witches_'
'wisdom_'
'wireless_'
'wired_'
'wiped_'
'wins_'
'wines_'
'wig_'
'whites_'
'wh_'
'west_'
'wench_'
'weep_'
'weeds_'
'weed_'
'website_'
'wartime_'
'warrants_'
'warhead_'
'wardroom_'
'walks_'
'w_'
'vírgula_'
'véspera_'
'väo_'
'vu_'
'vows_'
'vow_'
'vovó_'
'voltarão_'
'voltares_'
'voltaremos_'
'voltam_'
'voleibol_'
'voe_'
'voador_'
'viúvo_'
'viúvas_'
'vizinhos_'
'vizinhança_'
'vixen_'
'vivos_'
'vivida_'
'vivia_'
'vives_'
'viverem_'
'viverei_'
'vivemos_'
'vitaminas_'
'vistas_'
'visses_'
'visitors_'
'visions_'
'virtues_'
'virmos_'
'virgins_'
'virgindade_'
'virem_'
'virei_'
'viragem_'
'violentas_'
'violenta_'
'vinham_'
'vile_'
'vila_'
'viesses_'
'vieres_'
'viemos_'
'videotape_'
'viciado_'
'viajou_'
'viaja_'
'veículo_'
'veterinária_'
'vesti_'
'vestem_'
'veríamos_'
'version_'
'veres_'
'verdadeiros_'
'verdadeiras_'
'venture_'
'ventilação_'
'vendo_'
'vendia_'
'vendeu_'
'vendermos_'
'venderia_'
'venderam_'
'vendas_'
'vencido_'
'vencedores_'
'vencedor_'
'vence_'
'vemo_'
'velozes_'
'velhas_'
'vela_'
'vejas_'
'veias_'
'vegetarian_'
'vasculhei_'
'variety_'
'variedades_'
'variar_'
'vara_'
'vaqueira_'
'vantagem_'
'values_'
'valise_'
'valioso_'
'valia_'
'valente_'
'vaga_'
'vadio_'
'vaccine_'
'vacant_'
'uísque_'
'usemos_'
'usei_'
'usavam_'
'usas_'
'ursos_'
'urina_'
'urgências_'
'urge_'
'uptight_'
'upsetting_'
'untie_'
'unsure_'
'unstoppable_'
'unprepared_'
'unlucky_'
'unlocked_'
'universo_'
'united_'
'unir_'
'uniforms_'
'unica_'
'unheard_'
'unfair_'
'understands_'
'undermine_'
'underground_'
'unconscious_'
'uncomfortable_'
'unable_'
'umbrella_'
'umbilical_'
'ultrapassei_'
'ultrapassa_'
'ultimately_'
'tο_'
'túmulo_'
'técnico_'
'täo_'
'tácticas_'
'tá_'
'tyres_'
'twins_'
'twelve_'
'twat_'
'tune_'
'tubo_'
'tubarões_'
'tráfico_'
'tryin_'
'truthfully_'
'truta_'
'trusting_'
'trusted_'
'trunk_'
'trovão_'
'tropical_'
'tropas_'
'tropa_'
'trono_'
'troll_'
'troféu_'
'troco_'
'trocaram_'
'trocados_'
'triumph_'
'trinta_'
'trincheiras_'
'tricorder_'
'tribo_'
'tribe_'
'trespassing_'
'trenó_'
'trem_'
'treinados_'
'treaty_'
'treason_'
'traído_'
'traí_'
'traço_'
'traça_'
'trazes_'
'travels_'
'traveled_'
'traumatized_'
'traumas_'
'tratámos_'
'tratá_'
'tratas_'
'tratam_'
'traps_'
'trapped_'
'transplante_'
'transmitted_'
'transmitir_'
'transition_'
'transformation_'
'transferência_'
'transferir_'
'transferidos_'
'tranquilizantes_'
'tranquilidade_'
'trampled_'
'tramar_'
'tramado_'
'traitors_'
'trainers_'
'traidor_'
'tragedy_'
'tracking_'
'tracked_'
'trabalhou_'
'trabalhas_'
'trabalhamos_'
'trabalhadores_'
'trabalhado_'
'tr_'
'towel_'
'touros_'
'tournament_'
'tourists_'
'toucinho_'
'totem_'
'tostão_'
'toss_'
'torturado_'
'torto_'
'torpedoes_'
'tornozelo_'
'tornei_'
'tornaste_'
'tornam_'
'tormento_'
'tore_'
'torch_'
'tops_'
'topic_'
'toothbrush_'
'tooth_'
'tool_'
'tons_'
'tona_'
'tomá_'
'tome_'
'tomato_'
'tomate_'
'tomará_'
'tomarem_'
'tomaram_'
'tomamos_'
'tolos_'
'tolerável_'
'tolerate_'
'toilets_'
'tocou_'
'tocha_'
'tocas_'
'tocado_'
'tits_'
'tiroteio_'
'tiraste_'
'tirarem_'
'tirando_'
'tiramisu_'
'tiram_'
'tips_'
'tipas_'
'tintas_'
'tinta_'
'timing_'
'timetable_'
'timer_'
'til_'
'tigela_'
'tick_'
'thίs_'
'throughout_'
'threaten_'
'thread_'
'thou_'
'thick_'
'thankful_'
'tha_'
'texto_'
'textbook_'
'tetryon_'
'testing_'
'testified_'
'tested_'
'testamento_'
'testa_'
'tesouros_'
'terrestres_'
'termo_'
'teorias_'
'tentássemos_'
'tents_'
'tentação_'
'tentará_'
'tense_'
'tendes_'
'tend_'
'tenciona_'
'temporariamente_'
'temporada_'
'temple_'
'temper_'
'temo_'
'telegram_'
'telefono_'
'telefona_'
'tela_'
'tease_'
'teams_'
'taça_'
'taxes_'
'tastes_'
'tasted_'
'tas_'
'tartes_'
'tartarugas_'
'target_'
'tareia_'
'tapes_'
'tapa_'
'tap_'
'tao_'
'tanque_'
'tanas_'
'tan_'
'tambem_'
'tamanhos_'
'talentoso_'
'tala_'
'takeoff_'
'tais_'
'tail_'
'tach_'
'tables_'
'tabaco_'
'tab_'
'súbitas_'
'sólido_'
'sólida_'
'sílaba_'
'sétimo_'
'säo_'
'sã_'
'syrup_'
'symptom_'
'symphony_'
'sympathy_'
'sympathetic_'
'symbols_'
'symbol_'
'sworn_'
'swore_'
'swords_'
'swipe_'
'sweeten_'
'swallowed_'
'susto_'
'suspendeu_'
'suspeitar_'
'survived_'
'surpreso_'
'surpreendente_'
'supportive_'
'supporting_'
'supostamente_'
'suposições_'
'suponho_'
'superiors_'
'sunlight_'
'sunglasses_'
'suma_'
'sujar_'
'suite_'
'suicidal_'
'suicida_'
'suggests_'
'sugere_'
'sufocar_'
'sufficiently_'
'sufficient_'
'suffered_'
'sucedido_'
'sucedida_'
'succeed_'
'sucata_'
'subúrbios_'
'suburban_'
'substitutos_'
'substituir_'
'substance_'
'subspace_'
'submit_'
'suba_'
'suar_'
'stupidity_'
'stunt_'
'stuffed_'
'studied_'
'struck_'
'stroke_'
'stripper_'
'stripped_'
'stripes_'
'strings_'
'strictly_'
'strict_'
'stretch_'
'stressful_'
'stranger_'
'stores_'
'stopping_'
'stockings_'
'stinks_'
'sting_'
'stillbirths_'
'stiff_'
'stew_'
'sterility_'
'stepped_'
'steam_'
'steals_'
'steady_'
'stationery_'
'stationed_'
'startle_'
'starters_'
'standpoint_'
'stamp_'
'stakes_'
'stain_'
'stabbed_'
'st_'
'squeeze_'
'squad_'
'spur_'
'spun_'
'springing_'
'spots_'
'sports_'
'spoon_'
'spoil_'
'spiritual_'
'spinach_'
'spin_'
'spilling_'
'spilled_'
'spill_'
'spiked_'
'spies_'
'spider_'
'sperm_'
'speeding_'
'speeches_'
'speculate_'
'spaceship_'
'spacecraft_'
'sovereign_'
'sovaco_'
'source_'
'sour_'
'sounded_'
'sought_'
'souberem_'
'souberam_'
'soubemos_'
'sortudo_'
'sortuda_'
'sorrisos_'
'sophisticated_'
'soothing_'
'sonhava_'
'sonhando_'
'sondagem_'
'sonar_'
'sombras_'
'solteira_'
'soja_'
'socorro_'
'socks_'
'sociais_'
'sobrevivi_'
'sobreviveu_'
'sobrevivente_'
'sobrevive_'
'soaked_'
'snooze_'
'snacks_'
'snack_'
'smoother_'
'smelled_'
'smeared_'
'smashing_'
'smarter_'
'slippers_'
'slipped_'
'slingshot_'
'slightly_'
'slice_'
'sleepyhead_'
'slapping_'
'slapped_'
'slap_'
'skylight_'
'skull_'
'skip_'
'skinny_'
'sketches_'
'skeptical_'
'sixth_'
'situações_'
'sitio_'
'sinned_'
'singer_'
'sincero_'
'sincerely_'
'sinalização_'
'simulações_'
'simulação_'
'simulation_'
'simulated_'
'sigo_'
'signs_'
'significava_'
'significant_'
'significam_'
'significado_'
'signature_'
'sighting_'
'shrink_'
'showers_'
'shoving_'
'shove_'
'shorter_'
'shoots_'
'shirts_'
'shipped_'
'shining_'
'shillings_'
'shields_'
'shelf_'
'sheepdog_'
'shattered_'
'sharks_'
'shape_'
'shampoo_'
'shalt_'
'shakes_'
'shadows_'
'shade_'
'señor_'
'sexually_'
'sexto_'
'settled_'
'serving_'
'servido_'
'serva_'
'serum_'
'serra_'
'series_'
'sequestro_'
'sequestrador_'
'sequence_'
'sepultura_'
'separe_'
'separação_'
'separated_'
'separam_'
'separados_'
'seok_'
'sentindo_'
'sentenced_'
'sentados_'
'sentada_'
'sensors_'
'sensibilidade_'
'senior_'
'senhorita_'
'semester_'
'semelhante_'
'selou_'
'selo_'
'selecção_'
'select_'
'sela_'
'seize_'
'seguras_'
'seguiu_'
'segment_'
'seemingly_'
'seed_'
'seduced_'
'seda_'
'secção_'
'secured_'
'secundária_'
'secrecy_'
'seats_'
'seated_'
'seals_'
'seal_'
'scumbag_'
'scriptum_'
'screwing_'
'screenings_'
'screams_'
'scratched_'
'scourge_'
'scotch_'
'scored_'
'score_'
'scope_'
'scientist_'
'scholars_'
'scenario_'
'scattered_'
'scarlet_'
'scarf_'
'scar_'
'scapegoat_'
'scandals_'
'scam_'
'scalpel_'
'saíste_'
'saí_'
'sayeth_'
'satisfied_'
'satisfeita_'
'satellites_'
'sarilho_'
'sardines_'
'sarcástico_'
'sapatilhas_'
'santo_'
'sanity_'
'sanduíche_'
'sanctioned_'
'salvation_'
'salvador_'
'salva_'
'salute_'
'salts_'
'sally_'
'salary_'
'saires_'
'sailing_'
'sail_'
'saibam_'
'saiam_'
'sagrado_'
'safer_'
'safado_'
'sadly_'
'saddle_'
'sacrifícios_'
'sacrifice_'
'sacola_'
'sabíamos_'
'sabão_'
'sabotagem_'
'saborear_'
'sabor_'
'saberão_'
'saberás_'
'saberá_'
'saberem_'
'sabendo_'
'rápidos_'
'ruínas_'
'ruído_'
'rusty_'
'rushed_'
'ruse_'
'runway_'
'runners_'
'rumour_'
'rumble_'
'rum_'
'ruled_'
'ruiva_'
'ruins_'
'ruining_'
'ruim_'
'ruibarbo_'
'rug_'
'rubber_'
'roulette_'
'roubei_'
'roube_'
'roubaste_'
'roubaram_'
'roubado_'
'rouba_'
'rota_'
'roster_'
'rose_'
'roots_'
'rooting_'
'roommate_'
'ronda_'
'romper_'
'romances_'
'rolls_'
'rolled_'
'rolante_'
'rogue_'
'rods_'
'rodada_'
'rochas_'
'robôs_'
'roaming_'
'rituals_'
'ritmo_'
'risks_'
'risking_'
'rise_'
'riots_'
'rios_'
'rings_'
'ringing_'
'rim_'
'rifle_'
'ridge_'
'rider_'
'riddle_'
'ridden_'
'rhyme_'
'revolver_'
'revoltado_'
'revoir_'
'revive_'
'reverend_'
'revendo_'
'reuniões_'
'reunida_'
'retórica_'
'returns_'
'returning_'
'retreat_'
'retrato_'
'retirá_'
'retirou_'
'retirado_'
'retina_'
'rethink_'
'retarded_'
'resulta_'
'restricted_'
'restrain_'
'restos_'
'restless_'
'restaurar_'
'ressonância_'
'respostas_'
'responsáveis_'
'response_'
'responsabilizado_'
'respondo_'
'responde_'
'respectable_'
'resort_'
'resolvido_'
'resolveu_'
'resolvendo_'
'resistir_'
'resistance_'
'resista_'
'residência_'
'residencial_'
'reservatório_'
'reservas_'
'reservar_'
'resemble_'
'requires_'
'repórteres_'
'representative_'
'representa_'
'reporting_'
'reporter_'
'repor_'
'repleto_'
'replacement_'
'repita_'
'repeated_'
'repay_'
'reparou_'
'reparaste_'
'reparar_'
'repara_'
'rental_'
'rene_'
'renderia_'
'renderam_'
'renda_'
'removeu_'
'removendo_'
'remove_'
'remotely_'
'remoinho_'
'remind_'
'remarried_'
'remarkable_'
'remaining_'
'remained_'
'rely_'
'religious_'
'religiosas_'
'relieved_'
'relaxing_'
'relaxed_'
'relacionadas_'
'rejected_'
'reis_'
'reinforcements_'
'rehearsal_'
'regulations_'
'regra_'
'região_'
'registos_'
'registado_'
'region_'
'regimento_'
'regarding_'
'refused_'
'refund_'
'refrigerator_'
'refrigerantes_'
'refrescos_'
'reflexos_'
'reflexo_'
'reflete_'
'referência_'
'referring_'
'reference_'
'refere_'
'refeições_'
'reel_'
'reeking_'
'reduz_'
'redondo_'
'redhead_'
'recusei_'
'recuse_'
'recursos_'
'recrutamento_'
'recruited_'
'recovered_'
'recording_'
'recordes_'
'recorder_'
'recorded_'
'recordas_'
'recorda_'
'reconheço_'
'recomeçar_'
'recomendada_'
'recomecar_'
'reclama_'
'recital_'
'recife_'
'recepção_'
'recentemente_'
'receipt_'
'recebeste_'
'recebes_'
'recear_'
'recap_'
'rebuçado_'
'reborn_'
'rebento_'
'rebentar_'
'rebels_'
'rebelde_'
'rebel_'
'rebanho_'
'rebaixar_'
'reação_'
'reaver_'
'reasonable_'
'realistas_'
'realise_'
'readings_'
'reacts_'
'reaction_'
'reaches_'
'rays_'
'rastos_'
'rastejar_'
'raptores_'
'rapto_'
'raptada_'
'raped_'
'random_'
'ranch_'
'rampant_'
'ramo_'
'rake_'
'raiva_'
'raising_'
'rainy_'
'raid_'
'raging_'
'radius_'
'rack_'
'racing_'
'rachar_'
'rabbit_'
'químico_'
'quote_'
'quiz_'
'quites_'
'quisesses_'
'quintal_'
'quilómetro_'
'quilos_'
'quietos_'
'quietas_'
'quieta_'
'questionário_'
'quest_'
'queridas_'
'queimados_'
'queimada_'
'quebra_'
'quartel_'
'quarantine_'
'quantum_'
'quantia_'
'quality_'
'qualify_'
'qualified_'
'qualificado_'
'quaisquer_'
'quadros_'
'quadrant_'
'públicos_'
'pões_'
'põem_'
'pólen_'
'péssimo_'
'pénis_'
'pátio_'
'pálidas_'
'pálida_'
'puzzle_'
'putos_'
'puseram_'
'puré_'
'pursuing_'
'purposes_'
'puppy_'
'puppet_'
'punished_'
'punhos_'
'punhado_'
'punching_'
'pulou_'
'pulos_'
'pulmonar_'
'pulls_'
'pulgas_'
'puke_'
'pudéssemos_'
'publicou_'
'publicar_'
'psychology_'
'psicopatas_'
'psicopata_'
'prós_'
'prédios_'
'prédio_'
'práticas_'
'prática_'
'prá_'
'provisions_'
'providência_'
'provided_'
'proveito_'
'provam_'
'protocolos_'
'protocolo_'
'proteção_'
'protestar_'
'protest_'
'proteja_'
'protegido_'
'protected_'
'prostitute_'
'prostituição_'
'prospect_'
'prosecution_'
'propulsão_'
'propriedades_'
'proposition_'
'proposing_'
'properties_'
'propaganda_'
'pronounce_'
'promover_'
'promissória_'
'projects_'
'programmed_'
'programação_'
'profundamente_'
'profile_'
'professionally_'
'profecias_'
'profecia_'
'produziu_'
'produtor_'
'producers_'
'producer_'
'produce_'
'procurava_'
'procuram_'
'procurado_'
'processed_'
'processado_'
'procedures_'
'procedimentos_'
'privileged_'
'privilege_'
'prisões_'
'prisioneira_'
'priority_'
'prints_'
'principles_'
'primitivos_'
'primitive_'
'primavera_'
'primary_'
'prick_'
'preços_'
'previsão_'
'pretendem_'
'pretended_'
'preta_'
'presunto_'
'pressentimento_'
'pressed_'
'presidencial_'
'prescription_'
'preparing_'
'preocupas_'
'prendeu_'
'prenderam_'
'prende_'
'prendam_'
'premises_'
'preliminary_'
'prego_'
'preferência_'
'predictable_'
'predators_'
'predadores_'
'precisão_'
'precisos_'
'precisei_'
'precisando_'
'precipício_'
'preciosa_'
'preces_'
'precauções_'
'preach_'
'prayers_'
'prank_'
'prados_'
'practise_'
'practically_'
'povoação_'
'povoado_'
'poured_'
'pour_'
'pouquinho_'
'pounds_'
'potholes_'
'potencial_'
'potatoes_'
'poster_'
'posted_'
'posta_'
'possíveis_'
'possuído_'
'possibility_'
'positioned_'
'pose_'
'pos_'
'porá_'
'porte_'
'portar_'
'port_'
'porrada_'
'pornografia_'
'popularidade_'
'popping_'
'pope_'
'popcorn_'
'popa_'
'pony_'
'pontas_'
'pomba_'
'politica_'
'polite_'
'policiais_'
'polegadas_'
'polaric_'
'pol_'
'poetry_'
'poet_'
'poema_'
'poderás_'
'poderosos_'
'poderemos_'
'pod_'
'pockets_'
'pocilga_'
'pneus_'
'pneumonia_'
'plumb_'
'pluck_'
'ploy_'
'plop_'
'pleases_'
'pleads_'
'plead_'
'plays_'
'playoffs_'
'platoon_'
'platform_'
'plastic_'
'planície_'
'plants_'
'plantações_'
'planes_'
'planear_'
'planeado_'
'plague_'
'pistol_'
'pisos_'
'pisei_'
'piscinas_'
'pisar_'
'pisa_'
'pirates_'
'pirate_'
'piratas_'
'piolhos_'
'pinch_'
'pincel_'
'pillow_'
'pilha_'
'pile_'
'pigeon_'
'piercing_'
'piela_'
'piedade_'
'picles_'
'picar_'
'picada_'
'piadas_'
'physically_'
'photograph_'
'photo_'
'phenomenon_'
'phasers_'
'phaser_'
'peão_'
'petróleo_'
'petição_'
'petition_'
'peste_'
'pescar_'
'pesa_'
'período_'
'peru_'
'perturbar_'
'perturbados_'
'pertences_'
'pertencer_'
'persuade_'
'personality_'
'personagens_'
'perseguido_'
'persegue_'
'perpétua_'
'permitido_'
'peritos_'
'perguntares_'
'performing_'
'perfeitas_'
'perfeitamente_'
'perdia_'
'perderes_'
'perca_'
'pequei_'
'pepper_'
'pente_'
'pensassem_'
'pensaram_'
'penny_'
'penetrar_'
'penduradas_'
'pendurada_'
'película_'
'peluche_'
'peixes_'
'pegue_'
'pegamos_'
'peep_'
'pediste_'
'pedires_'
'pedindo_'
'pedestal_'
'pecado_'
'peas_'
'peach_'
'pays_'
'payments_'
'paus_'
'pau_'
'patty_'
'patterns_'
'patrulhar_'
'patrick_'
'pathways_'
'path_'
'patches_'
'passport_'
'passionate_'
'passion_'
'passes_'
'passe_'
'passas_'
'passageiros_'
'passageiro_'
'passage_'
'pas_'
'parvoíce_'
'partimos_'
'partidas_'
'particularmente_'
'particularly_'
'parti_'
'partam_'
'parliament_'
'pareço_'
'parent_'
'parecidíssimo_'
'paranóico_'
'paramédicos_'
'parafusos_'
'parados_'
'parade_'
'parada_'
'papos_'
'paperwork_'
'papeis_'
'panties_'
'panquecas_'
'panfletos_'
'panela_'
'pancakes_'
'palpite_'
'palmada_'
'palma_'
'palhaços_'
'palhaça_'
'palerma_'
'palace_'
'pajamas_'
'pagas_'
'pagamentos_'
'pact_'
'pacotes_'
'packages_'
'pa_'
'oxygen_'
'overweight_'
'overnight_'
'ouçam_'
'ouça_'
'outdoors_'
'oscilante_'
'ornaments_'
'originally_'
'origem_'
'oriente_'
'orgulhe_'
'orgasm_'
'organizou_'
'organization_'
'organismo_'
'orelhas_'
'orelha_'
'ordeal_'
'orchestra_'
'oppression_'
'opiniões_'
'operative_'
'operate_'
'operar_'
'operadora_'
'operado_'
'ooh_'
'onions_'
'onboard_'
'omelette_'
'ombro_'
'olhem_'
'olhadela_'
'olds_'
'oldest_'
'oficina_'
'offshore_'
'offers_'
'offering_'
'offender_'
'ofereça_'
'ofendido_'
'ocupar_'
'ocupa_'
'ocorrido_'
'ocorrem_'
'ocorre_'
'occupied_'
'obsessed_'
'observem_'
'observe_'
'observa_'
'oblige_'
'objeto_'
'objetivo_'
'objects_'
'objectos_'
'objectivos_'
'obedecemos_'
'oatmeal_'
'oars_'
'nó_'
'nut_'
'nurturing_'
'numeros_'
'nula_'
'nukes_'
'nuke_'
'nuisance_'
'nudge_'
'noz_'
'novela_'
'novel_'
'novato_'
'noticia_'
'notar_'
'noses_'
'northwest_'
'nomear_'
'nomeado_'
'noises_'
'nocturno_'
'nobre_'
'ninho_'
'nightmares_'
'nightclub_'
'niggers_'
'nickels_'
'nicely_'
'newspaper_'
'newly_'
'net_'
'nest_'
'nerve_'
'neighbours_'
'neighbourhood_'
'neighbour_'
'neighbors_'
'negras_'
'negligence_'
'negativos_'
'negativo_'
'negar_'
'nega_'
'nearest_'
'nearer_'
'nações_'
'navigational_'
'naves_'
'navegação_'
'natas_'
'natal_'
'nasty_'
'nascimento_'
'nasceram_'
'nascem_'
'nasal_'
'narrator_'
'napkin_'
'namorava_'
'namorar_'
'namoradas_'
'nalguns_'
'nalguma_'
'nadador_'
'múmia_'
'módulos_'
'módulo_'
'método_'
'mérito_'
'médium_'
'média_'
'mãezinha_'
'máxima_'
'máscaras_'
'mártir_'
'mutual_'
'mutilação_'
'mute_'
'musician_'
'museu_'
'musculos_'
'murro_'
'muro_'
'murders_'
'murderers_'
'municipal_'
'multimilionária_'
'mudo_'
'mudei_'
'mude_'
'mudasse_'
'mudarás_'
'mudamos_'
'mudado_'
'moxie_'
'mower_'
'mover_'
'movements_'
'mouse_'
'mourn_'
'mountains_'
'mountain_'
'motto_'
'motherfucking_'
'motherfuckers_'
'motherboard_'
'mostrou_'
'mostro_'
'mosquito_'
'mosca_'
'mos_'
'mortinho_'
'mortgage_'
'mortal_'
'morrerá_'
'morreria_'
'morrerem_'
'morphology_'
'moribundo_'
'mordam_'
'moras_'
'moralidade_'
'mora_'
'montão_'
'montarmos_'
'montado_'
'monsters_'
'monitorizar_'
'monitoring_'
'monge_'
'monetário_'
'moi_'
'modify_'
'modificar_'
'moderna_'
'modelos_'
'mocked_'
'mobília_'
'mobile_'
'mob_'
'miudo_'
'miséria_'
'misunderstanding_'
'misturou_'
'misterioso_'
'mistakes_'
'missiles_'
'missile_'
'mira_'
'ministro_'
'miniatures_'
'minded_'
'mimos_'
'milímetros_'
'milénio_'
'millions_'
'millennium_'
'militant_'
'milionários_'
'milionário_'
'milha_'
'milady_'
'mijar_'
'miguel_'
'micróbios_'
'microchips_'
'mexam_'
'meto_'
'metia_'
'methods_'
'method_'
'meth_'
'meteorite_'
'metemos_'
'metas_'
'metades_'
'meta_'
'messes_'
'mereço_'
'merecia_'
'mere_'
'mercury_'
'merchant_'
'mentor_'
'mentiste_'
'menores_'
'memorize_'
'memorial_'
'memorandum_'
'melodia_'
'melhorá_'
'meets_'
'medula_'
'medricas_'
'medir_'
'medidas_'
'mede_'
'medal_'
'mechanism_'
'mechanic_'
'mattress_'
'matrículas_'
'matrimony_'
'mates_'
'materials_'
'materiais_'
'matched_'
'mataria_'
'matança_'
'matando_'
'matador_'
'mashed_'
'masculina_'
'marvelous_'
'martial_'
'marshal_'
'marrying_'
'marmelada_'
'markers_'
'marinho_'
'marines_'
'marine_'
'maridos_'
'marginais_'
'margin_'
'mares_'
'marco_'
'maravilhas_'
'manto_'
'mantivesse_'
'mantimentos_'
'manteve_'
'manpower_'
'manos_'
'manifesto_'
'manifestar_'
'manifest_'
'maneuvers_'
'mandá_'
'mandatory_'
'mandato_'
'mandaram_'
'manchas_'
'mana_'
'mamas_'
'malícia_'
'maluquinho_'
'malignas_'
'malha_'
'males_'
'majority_'
'majesty_'
'magoou_'
'magical_'
'madrugada_'
'madmen_'
'madman_'
'madame_'
'machucar_'
'maca_'
'mac_'
'lógico_'
'línguas_'
'lês_'
'lésbicas_'
'lápide_'
'luxos_'
'luvas_'
'luva_'
'lutem_'
'lutando_'
'lutador_'
'lure_'
'lung_'
'lunar_'
'luggage_'
'lugares_'
'lsto_'
'lsso_'
'lsn_'
'loving_'
'lover_'
'lousy_'
'loucas_'
'lorque_'
'loot_'
'loop_'
'lookie_'
'lonesome_'
'logótipo_'
'logic_'
'localizá_'
'localizaram_'
'localizador_'
'localizado_'
'lobisomem_'
'lobby_'
'loaned_'
'loading_'
'load_'
'ln_'
'lição_'
'lixado_'
'litter_'
'listas_'
'lip_'
'linking_'
'lindas_'
'limusina_'
'limousine_'
'limitações_'
'limitar_'
'limitada_'
'limbo_'
'limb_'
'liking_'
'likelihood_'
'lighter_'
'ligeiro_'
'ligeiramente_'
'ligaste_'
'ligasse_'
'lifted_'
'lifetime_'
'lid_'
'libertará_'
'libertado_'
'liberated_'
'liberal_'
'liars_'
'liaison_'
'lex_'
'levem_'
'levaste_'
'levará_'
'levarmos_'
'levantei_'
'levantando_'
'levanta_'
'levamos_'
'levada_'
'leucemia_'
'lets_'
'letras_'
'letal_'
'lesse_'
'leram_'
'lenta_'
'lenses_'
'leme_'
'lembrou_'
'lembres_'
'lembrares_'
'lembranças_'
'lembrado_'
'leilão_'
'leiam_'
'legalmente_'
'legally_'
'legais_'
'legacy_'
'leather_'
'learnt_'
'learning_'
'leal_'
'leaked_'
'leak_'
'laços_'
'lawsuits_'
'laws_'
'lawmakers_'
'lawful_'
'lavou_'
'laughter_'
'latrina_'
'lateral_'
'lasanha_'
'larry_'
'larilas_'
'largest_'
'larga_'
'lareira_'
'lapso_'
'lançamento_'
'lanterna_'
'landing_'
'lambeu_'
'lambe_'
'lam_'
'lake_'
'lagosta_'
'ladder_'
'lacrimogêneo_'
'lacking_'
'labirinto_'
'knot_'
'knob_'
'kit_'
'kings_'
'kingdom_'
'kindness_'
'kilometers_'
'kidneys_'
'kidney_'
'kidnapped_'
'kidnap_'
'kiddin_'
'kate_'
'justificar_'
'justa_'
'jurar_'
'juramento_'
'jura_'
'juntaram_'
'junior_'
'jumper_'
'julian_'
'julgo_'
'julgado_'
'juggling_'
'judicial_'
'judges_'
'jornalistas_'
'joints_'
'john_'
'joguinhos_'
'jogging_'
'jogasse_'
'jogarem_'
'jogamos_'
'jogam_'
'jogado_'
'jogada_'
'jockey_'
'joalheiro_'
'ji_'
'jeep_'
'jardas_'
'jamming_'
'jagged_'
'ja_'
'italiana_'
'isqueiro_'
'isolation_'
'isolated_'
'irritação_'
'irritante_'
'irrelevantes_'
'irrelevante_'
'irracional_'
'irias_'
'irem_'
'iodine_'
'invólucro_'
'invulgares_'
'involve_'
'invites_'
'invite_'
'investir_'
'investigador_'
'investigadas_'
'inverno_'
'invenção_'
'inventário_'
'inventou_'
'inventaram_'
'invent_'
'intuition_'
'intimidação_'
'intimate_'
'interviews_'
'interruptor_'
'interrompas_'
'internos_'
'interno_'
'internacional_'
'interiores_'
'interferência_'
'interests_'
'interessada_'
'intentionally_'
'intenso_'
'intelligent_'
'inteligentes_'
'integridade_'
'intacta_'
'insulted_'
'instrução_'
'instructions_'
'instintos_'
'instinto_'
'instincts_'
'instantânea_'
'inspirado_'
'inspector_'
'inspected_'
'insistir_'
'insistes_'
'insensível_'
'insecurities_'
'insecto_'
'insanity_'
'inocentes_'
'innocence_'
'inn_'
'ink_'
'injusta_'
'injured_'
'iniquidade_'
'inicio_'
'iniciação_'
'iniciativa_'
'iniciar_'
'inicial_'
'ingénuo_'
'ingrediente_'
'infundadas_'
'infortúnio_'
'informado_'
'info_'
'influência_'
'influence_'
'inflation_'
'infirmary_'
'infinito_'
'infiltrado_'
'inferior_'
'infectado_'
'inevitável_'
'inegável_'
'indústria_'
'indoor_'
'individualmente_'
'individual_'
'indispensável_'
'indication_'
'indicated_'
'indica_'
'indiano_'
'independência_'
'independente_'
'incredibly_'
'increased_'
'increase_'
'inconsistencies_'
'inconsiderate_'
'incompetente_'
'incomodar_'
'incoming_'
'inclusive_'
'inclui_'
'including_'
'include_'
'incisão_'
'incidents_'
'inch_'
'incerteza_'
'incentivo_'
'incapacidade_'
'inappropriate_'
'impulsos_'
'improving_'
'imprisoned_'
'impressive_'
'impressionar_'
'impressionado_'
'impressa_'
'impress_'
'impossíveis_'
'importunar_'
'impediu_'
'impecável_'
'impeachment_'
'imobiliária_'
'immune_'
'imensos_'
'imensas_'
'imensa_'
'imagining_'
'illicit_'
'ilimitados_'
'ilhas_'
'ilegalmente_'
'igualmente_'
'ignorar_'
'ignorant_'
'idioma_'
'ideologia_'
'identify_'
'identificá_'
'identification_'
'id_'
'iceberg_'
'húmida_'
'hóspedes_'
'hálito_'
'hysterical_'
'hyperdrive_'
'husbands_'
'hurts_'
'hunters_'
'hunger_'
'humilhação_'
'humildemente_'
'humilde_'
'humble_'
'humanoid_'
'humanidade_'
'humane_'
'hostil_'
'hostage_'
'host_'
'hospitals_'
'hospitalized_'
'hospitality_'
'hospedeiro_'
'horário_'
'horrorizado_'
'horrivelmente_'
'horizonte_'
'horizontal_'
'hopped_'
'hooker_'
'hooked_'
'hoo_'
'honras_'
'honeymoon_'
'honestos_'
'honestidade_'
'homossexual_'
'homicídios_'
'homicide_'
'homes_'
'homecoming_'
'holograma_'
'holed_'
'hockey_'
'historial_'
'historia_'
'hips_'
'hipoxia_'
'hipoteca_'
'hint_'
'hills_'
'hiccups_'
'heterossexual_'
'hesitate_'
'hers_'
'herpes_'
'heroin_'
'heroes_'
'heresia_'
'hereges_'
'hereby_'
'hemorrhaging_'
'hemisfério_'
'helps_'
'helmet_'
'heights_'
'height_'
'heh_'
'heels_'
'hears_'
'healing_'
'healed_'
'hazy_'
'havendo_'
'hats_'
'hath_'
'hardworking_'
'handy_'
'handling_'
'handgun_'
'handbag_'
'hammer_'
'hambúrguer_'
'hamburgers_'
'hamburger_'
'hallowed_'
'halfway_'
'hairdo_'
'haircut_'
'hah_'
'habituais_'
'habit_'
'habilidades_'
'gyp_'
'guitar_'
'guilt_'
'guiar_'
'guests_'
'guardo_'
'guarded_'
'guardada_'
'groundwork_'
'grounds_'
'groom_'
'groans_'
'grizzly_'
'gripe_'
'grip_'
'grieve_'
'grid_'
'grego_'
'greatness_'
'greatly_'
'greasy_'
'grease_'
'gray_'
'gravidade_'
'gratuitas_'
'grateful_'
'grata_'
'grant_'
'grandeza_'
'granadas_'
'graduation_'
'gracioso_'
'governor_'
'governar_'
'gota_'
'gostavas_'
'gostasse_'
'gostarias_'
'gostaram_'
'gostado_'
'gorila_'
'gorgeous_'
'goose_'
'gook_'
'golpes_'
'golfinhos_'
'golfinho_'
'gole_'
'gloriosa_'
'glare_'
'glance_'
'givin_'
'gig_'
'giddy_'
'giants_'
'getaway_'
'gestão_'
'gesture_'
'gesto_'
'geração_'
'gerador_'
'george_'
'geometria_'
'genuine_'
'gentis_'
'generosity_'
'generosidade_'
'generosa_'
'generations_'
'generation_'
'generais_'
'genealógica_'
'gene_'
'gender_'
'gelatina_'
'gelada_'
'geek_'
'gee_'
'gays_'
'gatos_'
'gathering_'
'gathered_'
'gasto_'
'garrote_'
'garoto_'
'garotas_'
'garanto_'
'garantiu_'
'garantido_'
'ganhe_'
'ganhares_'
'ganharem_'
'ganchos_'
'gambling_'
'gamble_'
'galaxy_'
'gala_'
'gal_'
'gain_'
'gabava_'
'físicas_'
'fêmea_'
'férias_'
'fábricas_'
'fuzileiros_'
'futura_'
'furious_'
'funerais_'
'funcionários_'
'funcionário_'
'funcionaram_'
'funcionamento_'
'fume_'
'fumar_'
'fulo_'
'fulfill_'
'fuja_'
'fugiram_'
'fugimos_'
'fugido_'
'fucks_'
'frágil_'
'frustrante_'
'frustrada_'
'frota_'
'frontal_'
'frog_'
'fritas_'
'frita_'
'frigorífico_'
'frighten_'
'fries_'
'freshman_'
'frescos_'
'frequentar_'
'frequency_'
'freneticamente_'
'freira_'
'freight_'
'freezer_'
'fraternidade_'
'frase_'
'frasco_'
'fraqueza_'
'frank_'
'francs_'
'franco_'
'franceses_'
'francesa_'
'franca_'
'fragmentos_'
'fractures_'
'fracture_'
'fraco_'
'fraca_'
'fox_'
'fotografo_'
'forçou_'
'forçar_'
'forçado_'
'forty_'
'forno_'
'formula_'
'formidável_'
'formação_'
'formatura_'
'formato_'
'formation_'
'formando_'
'formalidades_'
'forge_'
'forfeit_'
'forest_'
'forensics_'
'forca_'
'fooling_'
'fontes_'
'follows_'
'folhas_'
'folga_'
'foguetão_'
'fofo_'
'fodam_'
'focus_'
'fluxo_'
'flutuando_'
'flushed_'
'fluoroscópio_'
'flop_'
'floors_'
'fled_'
'flavor_'
'flatulência_'
'flattering_'
'flattered_'
'flatter_'
'flank_'
'flanco_'
'fixes_'
'fixação_'
'firmeza_'
'firme_'
'firm_'
'fiquem_'
'finjo_'
'fingerprints_'
'fingernails_'
'finest_'
'financeiros_'
'financeiras_'
'filtro_'
'filth_'
'films_'
'filed_'
'filas_'
'figuring_'
'figures_'
'fights_'
'figado_'
'fifty_'
'fields_'
'fiel_'
'ficámos_'
'ficheiro_'
'ficha_'
'ficasses_'
'ficarão_'
'ficarmos_'
'fib_'
'fianças_'
'fiancée_'
'fiancé_'
'fi_'
'feto_'
'ferreiro_'
'ferir_'
'ferimentos_'
'feridos_'
'fera_'
'fenómenos_'
'femur_'
'feminina_'
'females_'
'felon_'
'fellows_'
'felizmente_'
'feiticeiro_'
'feias_'
'fees_'
'feeding_'
'fee_'
'fechá_'
'fecho_'
'features_'
'feature_'
'feast_'
'fearsome_'
'fears_'
'feared_'
'fbi_'
'façamos_'
'fazias_'
'fazeres_'
'fazendeiros_'
'fazendeiro_'
'favourite_'
'favour_'
'favorita_'
'fatos_'
'fathers_'
'faróis_'
'faríamos_'
'farás_'
'fart_'
'farsa_'
'farra_'
'farias_'
'farda_'
'fantásticos_'
'fantásticas_'
'fantasy_'
'fantastico_'
'fantasies_'
'faminto_'
'famine_'
'familiares_'
'familia_'
'fame_'
'falsos_'
'fallen_'
'falha_'
'falecido_'
'falasse_'
'falaram_'
'falante_'
'faked_'
'faithful_'
'faggot_'
'fadas_'
'factor_'
'facilitar_'
'facilidade_'
'facil_'
'faced_'
'facas_'
'eyewitness_'
'eyed_'
'extremo_'
'extraterrestres_'
'extraterrestre_'
'extraordinário_'
'extrair_'
'extract_'
'externa_'
'exterminator_'
'exteriores_'
'extended_'
'extend_'
'expulsaram_'
'exprimir_'
'expressed_'
'express_'
'expose_'
'exploração_'
'exploiting_'
'explodiu_'
'explicações_'
'experts_'
'experiment_'
'experienced_'
'expense_'
'expandir_'
'exit_'
'existisse_'
'existir_'
'existed_'
'exile_'
'exercícios_'
'exemplos_'
'exemplar_'
'executivos_'
'exclusive_'
'excitement_'
'excitação_'
'exceto_'
'exception_'
'excepcional_'
'exams_'
'examinando_'
'exagerar_'
'ew_'
'evolved_'
'evolve_'
'evolution_'
'everyday_'
'eventual_'
'event_'
'evaluations_'
'evacuation_'
'etiqueta_'
'eternas_'
'estável_'
'estática_'
'està_'
'estudante_'
'estudado_'
'estranhas_'
'estragues_'
'estraguei_'
'estragos_'
'estrago_'
'estragada_'
'estibordo_'
'estereótipos_'
'estendo_'
'estações_'
'estatísticas_'
'estatais_'
'estarem_'
'estando_'
'estalo_'
'estalada_'
'estados_'
'estadia_'
'established_'
'essencial_'
'essay_'
'esquisita_'
'esqui_'
'esquecerá_'
'esquecem_'
'espécies_'
'espuma_'
'esposas_'
'espião_'
'espiritual_'
'espetáculo_'
'esperávamos_'
'esperei_'
'esperavas_'
'espelunca_'
'espelhos_'
'específico_'
'especialidade_'
'esparguete_'
'espalhar_'
'espalhados_'
'espalha_'
'espadas_'
'esforçou_'
'esforços_'
'escutá_'
'escuto_'
'escute_'
'escuridão_'
'escuras_'
'escritor_'
'escreve_'
'escreva_'
'escravo_'
'escova_'
'escondê_'
'escondidos_'
'escondido_'
'escondida_'
'escondeu_'
'esconderijo_'
'esconderem_'
'esconderam_'
'escondendo_'
'esconde_'
'escolhida_'
'escolhi_'
'escolhes_'
'escolhas_'
'esclerose_'
'esclarecer_'
'escavando_'
'escapes_'
'escapado_'
'escadaria_'
'escada_'
'errou_'
'error_'
'errei_'
'erradas_'
'err_'
'erm_'
'erase_'
'er_'
'equilíbrio_'
'equals_'
'equally_'
'equality_'
'epidemic_'
'envolvido_'
'envolvem_'
'enviá_'
'environmental_'
'enviados_'
'envergonha_'
'envenenamento_'
'envelhecimento_'
'entrámos_'
'entretanto_'
'entrem_'
'entregue_'
'entregarem_'
'entrarmos_'
'entrarem_'
'entraram_'
'entram_'
'entitled_'
'enters_'
'enterro_'
'enterprises_'
'entered_'
'entendidos_'
'entendido_'
'entendia_'
'entendes_'
'ensinei_'
'enormes_'
'enjoying_'
'enjoyed_'
'engraçadinho_'
'engravidar_'
'engolir_'
'engines_'
'enfim_'
'enfarte_'
'enemies_'
'endure_'
'endireitar_'
'endereço_'
'endangerment_'
'endangered_'
'encurralados_'
'encouraged_'
'encostado_'
'encontros_'
'encontrem_'
'encontrava_'
'encontraste_'
'encontrares_'
'encontramos_'
'enchendo_'
'encarregue_'
'encarrego_'
'encarregar_'
'encaixam_'
'enabler_'
'en_'
'empurrão_'
'empréstimo_'
'employee_'
'employ_'
'emitir_'
'emergências_'
'embuste_'
'embarrassing_'
'embarrassed_'
'embarrass_'
'embaraçoso_'
'embaixo_'
'elástico_'
'eliminate_'
'elevada_'
'elephants_'
'elephant_'
'elemento_'
'eleitores_'
'electronically_'
'electron_'
'electrician_'
'electrical_'
'electric_'
'eleanor_'
'eldest_'
'elaborado_'
'eights_'
'eggs_'
'eficaz_'
'efforts_'
'educação_'
'educada_'
'editorial_'
'edifícios_'
'ed_'
'economic_'
'eccentric_'
'earnest_'
'eagle_'
'dólar_'
'dígitos_'
'déjà_'
'duvido_'
'duvidar_'
'duvida_'
'durou_'
'durmo_'
'duplo_'
'duly_'
'ducks_'
'drums_'
'drum_'
'drowned_'
'drogado_'
'drip_'
'drinks_'
'drills_'
'dribble_'
'dreamed_'
'draws_'
'drawn_'
'drawings_'
'drawer_'
'dramático_'
'drain_'
'dragões_'
'dragon_'
'drag_'
'drabs_'
'doze_'
'dove_'
'doughnuts_'
'dough_'
'doubts_'
'dots_'
'dormirei_'
'dormida_'
'dormem_'
'dorm_'
'dope_'
'doomed_'
'donativo_'
'dona_'
'domination_'
'dominam_'
'dojo_'
'doidas_'
'doeu_'
'doer_'
'documentos_'
'docks_'
'dock_'
'docinho_'
'dobro_'
'diário_'
'diárias_'
'dizê_'
'dizeres_'
'dizerem_'
'divorciar_'
'divorciado_'
'divisions_'
'divirta_'
'divino_'
'diving_'
'ditadores_'
'disturbed_'
'distrito_'
'distorcer_'
'distinção_'
'distintivo_'
'distinguir_'
'distingue_'
'distingo_'
'distinctive_'
'distinct_'
'distantes_'
'distant_'
'dissabores_'
'disruptor_'
'disquete_'
'dispostos_'
'dispositivo_'
'disparo_'
'disparam_'
'dispara_'
'dislocated_'
'dishes_'
'disgust_'
'disgrace_'
'disfarçar_'
'discutimos_'
'discussions_'
'discursos_'
'discretamente_'
'discover_'
'discoteca_'
'discorde_'
'disagree_'
'dirt_'
'dirigida_'
'dirige_'
'directores_'
'directions_'
'dipshit_'
'ding_'
'dine_'
'dimwit_'
'diminui_'
'diligência_'
'digno_'
'digestão_'
'dificil_'
'dictatorship_'
'dice_'
'dica_'
'diarrhoea_'
'diariamente_'
'diamond_'
'diamante_'
'dialling_'
'dialing_'
'diagnóstico_'
'di_'
'devidamente_'
'devices_'
'development_'
'deuses_'
'detê_'
'detido_'
'deter_'
'detectives_'
'detected_'
'detectado_'
'detalhe_'
'desça_'
'destruído_'
'destruiu_'
'destruction_'
'destrua_'
'destination_'
'desprezar_'
'despise_'
'despeço_'
'despertador_'
'desperate_'
'despediste_'
'despede_'
'despachado_'
'desolado_'
'desmoronar_'
'desmascará_'
'deslizarmos_'
'desligado_'
'desistes_'
'desilusão_'
'designs_'
'design_'
'desgraçado_'
'desfaz_'
'desesperados_'
'desesperado_'
'deserved_'
'deserto_'
'deserted_'
'desenvolveu_'
'desenterrar_'
'desenhada_'
'desemprego_'
'desejei_'
'desejamos_'
'desculpar_'
'descubram_'
'described_'
'descreveu_'
'desconhecida_'
'descobriste_'
'desastre_'
'desarmada_'
'desaparecidos_'
'desaparecida_'
'desapareceste_'
'desapareceram_'
'desajeitado_'
'desacreditar_'
'derrubar_'
'derrotado_'
'derramar_'
'dermos_'
'derem_'
'depósitos_'
'depressão_'
'depressed_'
'depravado_'
'deposited_'
'depoimentos_'
'depoimento_'
'dependendo_'
'denunciar_'
'dentista_'
'dental_'
'dentadura_'
'demônios_'
'demônio_'
'demoras_'
'demoram_'
'demonstrou_'
'demonstration_'
'demons_'
'democracia_'
'demo_'
'demitir_'
'demasiada_'
'demanded_'
'deliciosa_'
'delicacy_'
'deliberately_'
'delegacia_'
'deixares_'
'deixarem_'
'deixam_'
'deixada_'
'deitaste_'
'deitares_'
'dehydrated_'
'degraus_'
'defensiva_'
'defendido_'
'defendendo_'
'dee_'
'dedication_'
'decorar_'
'decomposição_'
'decompor_'
'declaração_'
'declarar_'
'deck_'
'decifrar_'
'decido_'
'decidida_'
'decidam_'
'deception_'
'deceived_'
'deceive_'
'decapitation_'
'decade_'
'dean_'
'deadline_'
'deactivate_'
'deacon_'
'datas_'
'darão_'
'dart_'
'darlin_'
'dares_'
'darem_'
'dançarino_'
'dantes_'
'dando_'
'dancer_'
'danca_'
'dame_'
'damaged_'
'dama_'
'cúmplice_'
'cólera_'
'círculo_'
'cínico_'
'cêntimo_'
'câmera_'
'câmaras_'
'cuts_'
'cus_'
'curtas_'
'curtain_'
'cursed_'
'currents_'
'currently_'
'current_'
'curiosidade_'
'curiosa_'
'cured_'
'cumpriu_'
'cume_'
'cultures_'
'cultura_'
'culpo_'
'cuidará_'
'cuida_'
'cubro_'
'cubana_'
'crítica_'
'crystal_'
'crushed_'
'crusade_'
'crunch_'
'crud_'
'crown_'
'crowbar_'
'crooks_'
'crooked_'
'criminals_'
'crimes_'
'criei_'
'criasse_'
'criada_'
'cria_'
'cretino_'
'cresci_'
'crescem_'
'credits_'
'creativity_'
'creative_'
'creation_'
'cream_'
'crappy_'
'cracking_'
'crachá_'
'coça_'
'coágulo_'
'coyotes_'
'coxas_'
'covering_'
'courts_'
'courtesy_'
'counts_'
'countryside_'
'counterintelligence_'
'counted_'
'cough_'
'couch_'
'costs_'
'costeletas_'
'coruja_'
'cortina_'
'cortado_'
'corruption_'
'corridor_'
'corria_'
'corretor_'
'correia_'
'correction_'
'corporate_'
'corcunda_'
'corações_'
'coral_'
'corajoso_'
'corajosa_'
'copos_'
'cooperation_'
'cooler_'
'convém_'
'convocar_'
'convite_'
'convincing_'
'convincente_'
'convidaste_'
'convida_'
'conviction_'
'conversinha_'
'conversas_'
'conventions_'
'convenient_'
'convencidos_'
'controversial_'
'controls_'
'controlada_'
'contribuintes_'
'contratou_'
'contratos_'
'contratempo_'
'contratado_'
'contras_'
'continuou_'
'continued_'
'continuamos_'
'contes_'
'contenção_'
'contato_'
'contam_'
'contains_'
'container_'
'contacted_'
'contabilidade_'
'consume_'
'consulta_'
'consul_'
'construção_'
'constantemente_'
'constante_'
'constant_'
'conspiração_'
'conspirator_'
'consolo_'
'console_'
'consola_'
'conservative_'
'conservadora_'
'conquistar_'
'connections_'
'conk_'
'conjuring_'
'conjuntos_'
'conhecidos_'
'conhecias_'
'conheceres_'
'conhecemo_'
'congestion_'
'confundem_'
'confronto_'
'conforme_'
'confissão_'
'confio_'
'confession_'
'cones_'
'conecta_'
'conduta_'
'condo_'
'condicional_'
'condenados_'
'condemn_'
'concrete_'
'concorrência_'
'concordei_'
'concluímos_'
'conclusão_'
'conclusions_'
'concentrar_'
'concentrado_'
'concelho_'
'concealed_'
'comércio_'
'comunicações_'
'comunicação_'
'compulsiva_'
'comprá_'
'compromisso_'
'comprometido_'
'comprido_'
'compreendem_'
'compramos_'
'compostos_'
'comportar_'
'complicada_'
'complexo_'
'competitors_'
'compensar_'
'compatriotas_'
'compatible_'
'compartimento_'
'companhias_'
'compaixão_'
'communications_'
'commune_'
'commissioner_'
'commercial_'
'comments_'
'comité_'
'comic_'
'comi_'
'comfort_'
'começarmos_'
'começamos_'
'cometemos_'
'comeste_'
'comerem_'
'comentar_'
'comendo_'
'comemoração_'
'comemora_'
'comecem_'
'combustível_'
'combinação_'
'combinam_'
'combinado_'
'comb_'
'comandos_'
'colónias_'
'colónia_'
'colégio_'
'colunas_'
'coluna_'
'colored_'
'colonos_'
'cologne_'
'colocamos_'
'colocam_'
'coloca_'
'collector_'
'collection_'
'collecting_'
'colleague_'
'collage_'
'colidiu_'
'colar_'
'colaborar_'
'coke_'
'coisinha_'
'coiote_'
'coincidences_'
'cogumelos_'
'cocaine_'
'coal_'
'coach_'
'cm_'
'clínico_'
'clínicas_'
'clássica_'
'clubes_'
'clown_'
'clothing_'
'clot_'
'closest_'
'clop_'
'clip_'
'climb_'
'clicking_'
'clearing_'
'clearance_'
'clay_'
'claws_'
'claw_'
'classified_'
'classification_'
'classic_'
'clarity_'
'claramente_'
'clap_'
'clandestinos_'
'claims_'
'civilized_'
'civilians_'
'citar_'
'cisterna_'
'cirúrgica_'
'cirurgias_'
'circulation_'
'cinzento_'
'cintura_'
'ciente_'
'cicatrizes_'
'cianeto_'
'chutar_'
'chuck_'
'chore_'
'chorando_'
'choram_'
'chops_'
'choices_'
'chinesa_'
'chili_'
'chicote_'
'chewed_'
'cherry_'
'cherish_'
'chemistry_'
'cheias_'
'chego_'
'chegares_'
'chegado_'
'cheer_'
'cheep_'
'cheating_'
'chatting_'
'chateie_'
'chateia_'
'chase_'
'charutos_'
'chapter_'
'chapel_'
'chap_'
'chaos_'
'channel_'
'champ_'
'chamemos_'
'chamber_'
'chamarmos_'
'chamaram_'
'chamados_'
'chalé_'
'challenged_'
'chairs_'
'cervejas_'
'certificado_'
'cerebrais_'
'cercado_'
'centímetro_'
'centuries_'
'centre_'
'centavos_'
'cemitério_'
'cement_'
'celular_'
'cellular_'
'celeiro_'
'celebrate_'
'celas_'
'cega_'
'caçar_'
'caçadores_'
'caçada_'
'cavernas_'
'caverna_'
'cavalheiro_'
'cavaleiro_'
'causing_'
'causes_'
'cauda_'
'cateter_'
'category_'
'categoria_'
'catalisador_'
'casualties_'
'castigar_'
'castanhos_'
'castanha_'
'cast_'
'casket_'
'casinos_'
'casca_'
'casando_'
'casados_'
'casadas_'
'carvão_'
'cartridge_'
'carton_'
'cartazes_'
'cartaz_'
'carruagem_'
'carroça_'
'carriages_'
'carregá_'
'carrego_'
'carnaval_'
'cargos_'
'caretaker_'
'cardíaca_'
'cardinal_'
'cardassianos_'
'carbono_'
'caraças_'
'caranguejo_'
'capuz_'
'capturá_'
'capitã_'
'capacity_'
'capa_'
'canções_'
'canteen_'
'cantava_'
'canta_'
'canine_'
'canhão_'
'candidato_'
'candidates_'
'candidata_'
'cancelou_'
'cancelled_'
'canalizador_'
'camuflada_'
'camped_'
'campainha_'
'camiões_'
'caminhos_'
'caminhar_'
'cameraman_'
'camaradas_'
'calms_'
'calendário_'
'calendar_'
'calculava_'
'calcanhares_'
'calados_'
'cakes_'
'caine_'
'cafetaria_'
'cacifo_'
'cachorro_'
'cachimbo_'
'caca_'
'cabrões_'
'cabrãozinho_'
'cabos_'
'cabinet_'
'cabine_'
'cabeludo_'
'cabecinha_'
'cabe_'
'bíblia_'
'bênção_'
'bêbados_'
'básica_'
'buzzed_'
'busting_'
'bush_'
'buscas_'
'busboy_'
'bury_'
'burra_'
'burnt_'
'burgers_'
'burger_'
'bums_'
'bump_'
'bulbs_'
'bugs_'
'buff_'
'budget_'
'budge_'
'buddies_'
'bucket_'
'bruto_'
'brush_'
'britânicos_'
'brisa_'
'brinquedo_'
'brink_'
'brincávamos_'
'brinca_'
'brightest_'
'briefing_'
'brief_'
'breaths_'
'breasts_'
'breakthrough_'
'breaker_'
'breach_'
'brace_'
'bowls_'
'bow_'
'bound_'
'botão_'
'bottoms_'
'bothered_'
'bota_'
'bosques_'
'borracha_'
'boots_'
'bookkeeper_'
'boobs_'
'boo_'
'bonitão_'
'bondade_'
'bond_'
'bomber_'
'bombardeiros_'
'bolinhos_'
'boldly_'
'bolachas_'
'boiled_'
'bode_'
'bocas_'
'boazinha_'
'boats_'
'boatos_'
'boarded_'
'bluff_'
'blows_'
'blossom_'
'bloqueou_'
'bloqueia_'
'bloquear_'
'bloodstream_'
'blokes_'
'bloco_'
'bloated_'
'bleed_'
'blasting_'
'blast_'
'blankets_'
'blackmail_'
'blacklisted_'
'bizarra_'
'bitter_'
'bitten_'
'biografia_'
'bio_'
'bills_'
'bikes_'
'biggie_'
'bidder_'
'bico_'
'bickering_'
'bichos_'
'bicho_'
'bets_'
'betraying_'
'beside_'
'berros_'
'berries_'
'bent_'
'bens_'
'benefit_'
'beneath_'
'belly_'
'bells_'
'believing_'
'believes_'
'believable_'
'beijaste_'
'behalf_'
'beeping_'
'beds_'
'bebo_'
'bebido_'
'bebe_'
'bebas_'
'beba_'
'beaucoup_'
'beau_'
'beaten_'
'beans_'
'baú_'
'battery_'
'batido_'
'batida_'
'baths_'
'bateria_'
'batendo_'
'bat_'
'bastão_'
'bastou_'
'bastasse_'
'bastardo_'
'basquetebol_'
'bases_'
'basebol_'
'barão_'
'barris_'
'barrels_'
'barqueiros_'
'barking_'
'barkeep_'
'barbecue_'
'baratos_'
'baralho_'
'baralhado_'
'banks_'
'banir_'
'bandidos_'
'bandeira_'
'bancadas_'
'banal_'
'balão_'
'ballroom_'
'balloon_'
'baleia_'
'baixem_'
'baixas_'
'bailed_'
'bail_'
'bagagem_'
'bactéria_'
'backyard_'
'backwards_'
'backward_'
'backs_'
'backing_'
'background_'
'babá_'
'babes_'
'aéreo_'
'azuis_'
'awkward_'
'aware_'
'awaken_'
'awaited_'
'avocado_'
'avisado_'
'aves_'
'average_'
'aventura_'
'ave_'
'avançou_'
'avançado_'
'avançadas_'
'avante_'
'avaliação_'
'autópsia_'
'autorização_'
'autorizar_'
'autoritária_'
'autonomia_'
'automático_'
'autodestruição_'
'autodefesa_'
'autocarros_'
'authorization_'
'authorities_'
'ausência_'
'aurora_'
'aura_'
'auge_'
'audição_'
'auditorium_'
'auditoria_'
'au_'
'aturar_'
'attendance_'
'attend_'
'attachment_'
'atribuir_'
'atracção_'
'atractivo_'
'atom_'
'atitude_'
'atirei_'
'atirava_'
'atingiu_'
'atento_'
'atendo_'
'atacaram_'
'atacados_'
'atacado_'
'ataca_'
'astronautas_'
'astronauta_'
'assustou_'
'assuste_'
'assustar_'
'assustadora_'
'assustado_'
'assustada_'
'assombrar_'
'associate_'
'assisting_'
'assinou_'
'assinatura_'
'assimilated_'
'assigned_'
'assentos_'
'assembled_'
'assaltos_'
'asiática_'
'ashes_'
'ashamed_'
'artilharia_'
'artifacts_'
'arterial_'
'artefact_'
'arruinou_'
'arrombou_'
'arrives_'
'arrival_'
'arrisque_'
'arriscar_'
'arrependi_'
'arregaçar_'
'arrastar_'
'arranjei_'
'arranjava_'
'arranjado_'
'armou_'
'armadura_'
'arguing_'
'arguido_'
'argued_'
'arena_'
'arder_'
'arco_'
'arbusto_'
'aranha_'
'aquecimento_'
'apêndice_'
'apurar_'
'aproximou_'
'aproximas_'
'aproximando_'
'aproveitamento_'
'apricot_'
'apresentou_'
'apresento_'
'aprendem_'
'aprende_'
'aprecio_'
'approved_'
'appreciated_'
'appointments_'
'apply_'
'applies_'
'apples_'
'appeared_'
'appearances_'
'appearance_'
'apparent_'
'apontou_'
'apontamentos_'
'apologies_'
'aplausos_'
'apetite_'
'aperto_'
'apertado_'
'apercebi_'
'aperceber_'
'apelo_'
'ape_'
'aparência_'
'aparição_'
'apareçam_'
'aparentemente_'
'aparelhos_'
'aparecido_'
'apareces_'
'apareceram_'
'apanhá_'
'apanhem_'
'apanharem_'
'apanha_'
'apaixonou_'
'apaixonar_'
'apaixonados_'
'apagado_'
'anúncios_'
'anónima_'
'anxiety_'
'anunciasse_'
'anunciar_'
'ants_'
'antigas_'
'antidote_'
'anticorpos_'
'anthropomorphizing_'
'anteriores_'
'anonymously_'
'anonymous_'
'anomalias_'
'anoitecer_'
'announcement_'
'announce_'
'angle_'
'anestesia_'
'anedota_'
'ande_'
'andavas_'
'andaram_'
'ancient_'
'ancestors_'
'ancas_'
'anca_'
'analyze_'
'analysts_'
'analogia_'
'amuleto_'
'amorosa_'
'amongst_'
'amizades_'
'amigáveis_'
'amianto_'
'americanas_'
'ameaçado_'
'ambush_'
'ambulante_'
'ambições_'
'ambição_'
'amber_'
'amazingly_'
'amava_'
'amateur_'
'amamos_'
'amam_'
'amados_'
'amador_'
'amaciador_'
'alí_'
'alérgico_'
'alvorada_'
'alvejou_'
'aluna_'
'alumínio_'
'alugar_'
'alucinações_'
'alternate_'
'altered_'
'alter_'
'altas_'
'alphabetically_'
'almofada_'
'allies_'
'alley_'
'allegro_'
'alinhamento_'
'alignment_'
'alienígenas_'
'algodão_'
'algemas_'
'alfaiate_'
'album_'
'alarms_'
'alarming_'
'alarmado_'
'ajudinha_'
'ajudei_'
'ajudaste_'
'ajudará_'
'ajudaria_'
'ajudares_'
'ajeitar_'
'airborne_'
'aim_'
'agência_'
'aguentou_'
'aguentará_'
'agua_'
'agrícola_'
'agricultor_'
'agressor_'
'agressividade_'
'agrado_'
'agitated_'
'afundar_'
'aftermath_'
'afirma_'
'afflicted_'
'affirmation_'
'affected_'
'afeto_'
'afectar_'
'afecta_'
'afastado_'
'afastada_'
'aerodinâmica_'
'advogada_'
'advocacia_'
'advertência_'
'adversários_'
'adversário_'
'advantages_'
'adults_'
'adulto_'
'adorei_'
'adorar_'
'adorable_'
'adopted_'
'adoptar_'
'adoptado_'
'adoptada_'
'adopt_'
'admitir_'
'admitido_'
'admirer_'
'administração_'
'administration_'
'administrar_'
'adicionais_'
'adiantar_'
'addict_'
'added_'
'acusam_'
'acusado_'
'acts_'
'activities_'
'actividades_'
'actividade_'
'active_'
'activated_'
'activar_'
'acted_'
'acrescentar_'
'acreditou_'
'acreditemos_'
'acreditares_'
'acreditamos_'
'acquitted_'
'acquire_'
'acordos_'
'acordaste_'
'acordas_'
'acordares_'
'acontecesse_'
'acompanho_'
'acompanhante_'
'acompanhado_'
'acidental_'
'acid_'
'achieved_'
'achieve_'
'aches_'
'achaste_'
'achasse_'
'aces_'
'acelerador_'
'acelera_'
'aceitas_'
'aceita_'
'accomplish_'
'accomplice_'
'accessories_'
'accepted_'
'accent_'
'acalme_'
'acabe_'
'acabarmos_'
'acabaria_'
'acabares_'
'acabamos_'
'acabam_'
'abusar_'
'absurd_'
'absolution_'
'absolute_'
'absoluta_'
'abriu_'
'abraço_'
'abras_'
'abrandar_'
'abortion_'
'aborrecido_'
'aborrecida_'
'aborrecer_'
'abilities_'
'abide_'
'abertamente_'
'abençoe_'
'abdominal_'
'abdominais_'
'abater_'
'abandonados_'
'abalou_'
'\u _'
'Zobelle_'
'Zhao_'
'Zeke_'
'Zara_'
'Yul_'
'Yugoslavia_'
'Yuen_'
'Yours_'
'Yorker_'
'Yesterday_'
'Years_'
'Yea_'
'Yazeed_'
'Yay_'
'Yankees_'
'Yang_'
'Yale_'
'Xiao_'
'Wyatt_'
'Wu_'
'Working_'
'Woods_'
'Wonder_'
'Wolowitz_'
'Wo_'
'Winning_'
'Wing_'
'Windy_'
'Windsor_'
'Wilma_'
'Willy_'
'Willing_'
'Wildman_'
'Wilder_'
'Wilbur_'
'Whoo_'
'Whole_'
'Whitey_'
'Wherever_'
'Wheeler_'
'Wha_'
'Wet_'
'Weston_'
'Westminster_'
'Wes_'
'Webster_'
'Wear_'
'Weapons_'
'Weapon_'
'Weak_'
'Warrior_'
'Wanted_'
'Wangler_'
'Wang_'
'Walters_'
'Walsh_'
'Walpole_'
'Wall_'
'Walk_'
'Wagner_'
'WOULDN_'
'WORRIED_'
'WILL_'
'WHY_'
'WANT_'
'Vírus_'
'Vêem_'
'Várias_'
'Vulcans_'
'Vote_'
'Voo_'
'Voltou_'
'Volchok_'
'Vlad_'
'Vivem_'
'Vito_'
'Visto_'
'Vista_'
'Virginia_'
'Virei_'
'Viram_'
'Villa_'
'Viking_'
'Vienna_'
'Veste_'
'Versailles_'
'Vern_'
'Vermont_'
'Venus_'
'Veneza_'
'Vendo_'
'Vendedor_'
'Venceste_'
'Velvet_'
'Velocidade_'
'Vasco_'
'Vance_'
'Valmont_'
'Valium_'
'Valha_'
'Valerie_'
'Valera_'
'Valchek_'
'Vaishali_'
'Vada_'
'Utah_'
'Usou_'
'Us_'
'Urso_'
'Urko_'
'Urgências_'
'Upper_'
'Upon_'
'University_'
'Unable_'
'Un_'
'Umas_'
'Ultimamente_'
'Uhh_'
'USA_'
'UP_'
'UNOS_'
'UH_'
'UAT_'
'Turtle_'
'Tulip_'
'Tstslim_'
'Trágico_'
'Trixie_'
'Trill_'
'Tried_'
'Treze_'
'Trent_'
'Tregennis_'
'Treasury_'
'Trate_'
'Tratam_'
'Transport_'
'Trancou_'
'Traidor_'
'Traduzido_'
'Trabalhou_'
'Trabalhas_'
'Tou_'
'Toto_'
'Totalmente_'
'Total_'
'Toros_'
'Toronto_'
'Tornou_'
'Torah_'
'Tora_'
'Toquem_'
'Toque_'
'Top_'
'Ton_'
'Tomás_'
'Tokyo_'
'Tiveste_'
'Tiveram_'
'Tito_'
'Titan_'
'Tis_'
'Tip_'
'Tinle_'
'Thy_'
'Thunder_'
'Through_'
'Thou_'
'Thornton_'
'Thor_'
'Thompson_'
'Thirteen_'
'Thin_'
'Theresa_'
'Theo_'
'Thankyou_'
'Thai_'
'Teyla_'
'Tess_'
'Terão_'
'Teria_'
'Terence_'
'Teremos_'
'Terek_'
'Tente_'
'Tennessee_'
'Telephone_'
'Tel_'
'Teeger_'
'Teddy_'
'Technically_'
'Technical_'
'Te_'
'Tchau_'
'Taya_'
'Tau_'
'Tarde_'
'Tanya_'
'Tango_'
'Tanaka_'
'Tammy_'
'Tamara_'
'Talking_'
'Takin_'
'Takes_'
'Tais_'
'Taelons_'
'Tae_'
'Taco_'
'Ta_'
'THEORY_'
'TEST_'
'TELL_'
'TEAM_'
'TAKE_'
'TAC_'
'System_'
'Sven_'
'Suíça_'
'Suzie_'
'Sutton_'
'Suspeito_'
'Susie_'
'Surpresa_'
'Surak_'
'Supposed_'
'Superior_'
'Sumo_'
'Summers_'
'Summer_'
'Sugiro_'
'Sugar_'
'Suffolk_'
'Sudan_'
'Subject_'
'Suas_'
'Stuff_'
'Stu_'
'Strip_'
'Stringer_'
'Strange_'
'Stomach_'
'Stokes_'
'Stewart_'
'Station_'
'Starting_'
'Stanfield_'
'Standing_'
'Standby_'
'Standard_'
'Stall_'
'Square_'
'Springs_'
'Spencer_'
'Spare_'
'Sound_'
'Sorte_'
'Sopa_'
'Soo_'
'Sonhei_'
'Somehow_'
'Someday_'
'Soma_'
'Solta_'
'Solomon_'
'Sold_'
'Social_'
'Sobretudo_'
'Sob_'
'Snow_'
'Snickers_'
'Snake_'
'Smurf_'
'Smuggling_'
'Slowly_'
'Sloane_'
'Sleep_'
'Slap_'
'Skynet_'
'Skipper_'
'Skip_'
'Skin_'
'Skeeter_'
'Sixpence_'
'Sissy_'
'Sioux_'
'Singing_'
'Sing_'
'Simões_'
'Simpsons_'
'Simply_'
'Simms_'
'Silêncio_'
'Silk_'
'Signed_'
'Siegfried_'
'Sid_'
'Si_'
'Shuttle_'
'Shore_'
'Shopping_'
'Shop_'
'Shock_'
'Shiny_'
'Shine_'
'Shigure_'
'Sherry_'
'Sherazade_'
'Sheppard_'
'Shepard_'
'Shelby_'
'Sheba_'
'Sharp_'
'Shanti_'
'Shannon_'
'Shan_'
'Shaggy_'
'Shaft_'
'Sexo_'
'Several_'
'Services_'
'Service_'
'Sergei_'
'Sentido_'
'Sentia_'
'Sentes_'
'Senior_'
'Sen_'
'Selma_'
'Segurem_'
'Segure_'
'Segunda_'
'Segui_'
'Seeing_'
'Sede_'
'Sedatela_'
'Secção_'
'Security_'
'Secret_'
'Second_'
'Search_'
'Scotch_'
'Scorpius_'
'Scooby_'
'Scofield_'
'Schroeder_'
'Scavo_'
'Scary_'
'Scarface_'
'Scar_'
'Sayin_'
'Sayid_'
'Saw_'
'Savannah_'
'Saturn_'
'Satch_'
'Satanás_'
'Sarge_'
'Sarajevo_'
'Sapna_'
'Santuário_'
'Sanjay_'
'Sanjana_'
'Salão_'
'Salvo_'
'Sakina_'
'Sad_'
'Sacrifice_'
'Sabrina_'
'SUN_'
'SPUTTERING_'
'SOMETHING_'
'SIR_'
'SHE_'
'SHALL_'
'SG_'
'SDI_'
'SAW_'
'SAVE_'
'Rush_'
'Rubin_'
'Ruben_'
'Rousseau_'
'Roupa_'
'Rosie_'
'Rosenberg_'
'Roscoe_'
'Rosaleen_'
'Ronon_'
'Ronny_'
'Romeo_'
'Romek_'
'Romano_'
'Romance_'
'Roll_'
'Rolex_'
'Roland_'
'Rohit_'
'Rodan_'
'Rocco_'
'Roast_'
'Rite_'
'Riker_'
'Ride_'
'Rico_'
'Richmond_'
'Rich_'
'Rican_'
'Revista_'
'Rev_'
'Reunimo_'
'Retiro_'
'Restaurante_'
'Respondeu_'
'Responda_'
'Respond_'
'Reserva_'
'Republican_'
'Repito_'
'Renée_'
'Rendezvous_'
'Renard_'
'Relaxe_'
'Regressa_'
'Regardless_'
'Reeves_'
'Reed_'
'Reduce_'
'Reconhecimento_'
'Receio_'
'Reborn_'
'Rebadow_'
'Reagan_'
'Read_'
'Raptou_'
'Raptor_'
'Ranger_'
'Range_'
'Ramada_'
'Rama_'
'Raju_'
'Rahul_'
'Raghu_'
'Rafe_'
'Radio_'
'Rabbi_'
'RUF_'
'RO_'
'RISE_'
'RIPLEY_'
'REMEMBER_'
'REAL_'
'Quis_'
'Quince_'
'Quieto_'
'Quickly_'
'Quentin_'
'Quelle_'
'Quarta_'
'Quarenta_'
'Quanta_'
'Qian_'
'Qaeda_'
'QUE_'
'Pólo_'
'Página_'
'Puxem_'
'Puta_'
'Puseste_'
'Purple_'
'Puppies_'
'Punch_'
'Pulitzer_'
'Psi_'
'Príncipe_'
'Prostitutes_'
'Prospect_'
'Prometa_'
'Promenade_'
'Projecto_'
'Programa_'
'Profetas_'
'Profeta_'
'Produção_'
'Procurem_'
'Prize_'
'Prime_'
'Priest_'
'Presley_'
'Preparei_'
'Preferes_'
'Prefeito_'
'Precisamente_'
'Prague_'
'Power_'
'Powell_'
'Potter_'
'Posto_'
'Porto_'
'Porta_'
'Port_'
'Popcorn_'
'Ponto_'
'Pong_'
'Pol_'
'Podiamos_'
'Poderemos_'
'Po_'
'Plenty_'
'Playboy_'
'Plath_'
'Plastique_'
'Plan_'
'Pizza_'
'Pity_'
'Pistachio_'
'Pisces_'
'Pip_'
'Pinta_'
'Ping_'
'Pike_'
'Pierce_'
'Piedade_'
'Piccolomini_'
'Picasso_'
'Photo_'
'Philly_'
'Phillips_'
'Philippe_'
'Philadelphia_'
'Petrelli_'
'Petey_'
'Pesadelos_'
'Perto_'
'Perry_'
'Permita_'
'Perkins_'
'Pergunto_'
'Perguntei_'
'Pergunta_'
'Perder_'
'Percocet_'
'Percebo_'
'Perceberam_'
'Percebemos_'
'Percebe_'
'Per_'
'Pequenos_'
'Pequeno_'
'Pepper_'
'Pentágono_'
'Pentagon_'
'Pensou_'
'Pensilvânia_'
'Pensaste_'
'Penn_'
'Pelos_'
'Pelas_'
'Peggy_'
'Pegasus_'
'Pediu_'
'Pediste_'
'Pecos_'
'Paula_'
'Patton_'
'Patrão_'
'Patrulha_'
'Patrik_'
'Patinhas_'
'Patient_'
'Patch_'
'Passou_'
'Passaram_'
'Passar_'
'Pass_'
'Parvo_'
'Party_'
'Partes_'
'Parte_'
'Parkway_'
'Parkers_'
'Parish_'
'Parecias_'
'Par_'
'Paper_'
'Paolo_'
'Panthers_'
'Pan_'
'Palmer_'
'Palm_'
'Palhaço_'
'Palermo_'
'Paizinho_'
'Pain_'
'Page_'
'Pagas_'
'Padmé_'
'Pack_'
'Pacific_'
'Pa_'
'PUT_'
'PD_'
'PC_'
'PART_'
'Owens_'
'Ouço_'
'Ouçam_'
'Ouviu_'
'Oui_'
'Ouch_'
'Otto_'
'Others_'
'Oswin_'
'Oskar_'
'Oscar_'
'Osama_'
'Organização_'
'Oregon_'
'Order_'
'Ops_'
'Operações_'
'Onze_'
'Onondaga_'
'Olsen_'
'Olimpíadas_'
'Olho_'
'Olhei_'
'Odin_'
'Odie_'
'October_'
'Occupied_'
'Obrigou_'
'Oaks_'
'ONU_'
'Nã_'
'Nâo_'
'Nuño_'
'Nurse_'
'Nothin_'
'Notas_'
'Nose_'
'Norway_'
'Normalmente_'
'Norma_'
'Norm_'
'Norfolk_'
'Noreen_'
'Nor_'
'Nome_'
'Noiva_'
'Noel_'
'Noble_'
'Nixon_'
'Nim_'
'Nikki_'
'Nigga_'
'Nicolai_'
'Nicki_'
'Newcastle_'
'Nevertheless_'
'Neve_'
'Nest_'
'Nervous_'
'Nenhuma_'
'Nelson_'
'Nellie_'
'Nell_'
'Negativo_'
'Neelix_'
'Needs_'
'Need_'
'Neal_'
'Nazi_'
'Nausea_'
'Nature_'
'Naturally_'
'National_'
'Natasha_'
'Nasedo_'
'Naquela_'
'Napoleon_'
'Napa_'
'Nanny_'
'Nandini_'
'Nan_'
'Nadia_'
'NEED_'
'NCIS_'
'NASCAR_'
'NASA_'
'Mónica_'
'Mês_'
'Médica_'
'Média_'
'Má_'
'Myself_'
'Muslims_'
'Muslim_'
'Music_'
'Murray_'
'Murder_'
'Mummy_'
'Mulher_'
'Mudaste_'
'Mudar_'
'Mudança_'
'Mudamos_'
'Much_'
'Mu_'
'Movimento_'
'Movam_'
'Mouse_'
'Motors_'
'Motor_'
'Morto_'
'Morte_'
'Morse_'
'Morrissey_'
'Morrison_'
'Morrer_'
'Morgana_'
'Montesquino_'
'Montes_'
'Monte_'
'Monsenhor_'
'Moira_'
'Moines_'
'Mna_'
'Miúda_'
'Mitchell_'
'Mitchel_'
'Misha_'
'Miriam_'
'Mint_'
'Minnie_'
'Mindy_'
'Minbari_'
'Mina_'
'Milly_'
'Mills_'
'Milliken_'
'Millennium_'
'Milhões_'
'Mika_'
'Mighty_'
'Mifflin_'
'Midge_'
'Michigan_'
'Michel_'
'Mia_'
'Mi_'
'Meyers_'
'Mexican_'
'Mexa_'
'Mette_'
'Messer_'
'Meses_'
'Mero_'
'Meritíssimo_'
'Merge_'
'Mercy_'
'Mentiu_'
'Mentirosa_'
'Meninos_'
'Memorial_'
'Melvin_'
'Melbourne_'
'Mehra_'
'Medo_'
'Mediterrâneo_'
'Medical_'
'Medic_'
'Media_'
'Meaning_'
'McQueen_'
'McNelly_'
'McKenna_'
'McDonald_'
'McCarthy_'
'Mayer_'
'Matá_'
'Matter_'
'Matou_'
'Matilda_'
'Matem_'
'Mataste_'
'Matan_'
'Matam_'
'Masturbation_'
'Massacre_'
'Mart_'
'Marquei_'
'Marlon_'
'Marla_'
'Marine_'
'Marilyn_'
'Marido_'
'Margot_'
'Margarita_'
'Marco_'
'March_'
'Marcas_'
'Marathon_'
'Mar_'
'Maomé_'
'Manson_'
'Manolo_'
'Mandy_'
'Mando_'
'Mandei_'
'Mandaram_'
'Mamãe_'
'Malik_'
'Maior_'
'Main_'
'Mai_'
'Mags_'
'Mago_'
'Magic_'
'Magia_'
'Maggs_'
'Mafia_'
'Maddy_'
'Macy_'
'Macpherson_'
'Mack_'
'Mace_'
'MacPherson_'
'MR_'
'MP_'
'MIND_'
'MIGRA_'
'MA_'
'Líder_'
'Lês_'
'Lê_'
'Luthor_'
'Luther_'
'Lundy_'
'Lukas_'
'Luca_'
'Lua_'
'Lower_'
'Lovejoy_'
'Lots_'
'Lot_'
'Lost_'
'Losing_'
'Lords_'
'Lopez_'
'Loomis_'
'Looked_'
'Lon_'
'Locked_'
'Lock_'
'Loc_'
'Lobo_'
'Livro_'
'Livre_'
'Lives_'
'Liu_'
'Lip_'
'Linus_'
'Ling_'
'Lilo_'
'Liguei_'
'Ligo_'
'Lightyear_'
'Lies_'
'Lick_'
'Libertem_'
'Libby_'
'Liam_'
'Leão_'
'Levin_'
'Levei_'
'Levava_'
'Leu_'
'Leroy_'
'Leonardo_'
'Lenny_'
'Lennon_'
'Lena_'
'Len_'
'Lembrei_'
'Lembre_'
'Lem_'
'Leland_'
'Leia_'
'Legalmente_'
'Lebowski_'
'Lawson_'
'Lawless_'
'Launch_'
'Laugh_'
'Lasse_'
'Larkin_'
'Lao_'
'Lança_'
'Langley_'
'Laney_'
'Landon_'
'Landis_'
'Lancelot_'
'Lance_'
'Lakeside_'
'LOVE_'
'LOT_'
'LOOKS_'
'LONG_'
'LITTLE_'
'Kyra_'
'Kurt_'
'Krypton_'
'Krusty_'
'Kristen_'
'Kristatos_'
'Kraft_'
'Korean_'
'Korea_'
'Konstantin_'
'Kobol_'
'Knox_'
'Knocking_'
'Knight_'
'Klingons_'
'Kiss_'
'Killing_'
'Killed_'
'Ket_'
'Kersey_'
'Kentucky_'
'Kehoe_'
'Keeps_'
'Kay_'
'Kavanaugh_'
'Katz_'
'Katrina_'
'Katherine_'
'Kar_'
'Kako_'
'Kakihara_'
'KIND_'
'KGB_'
'Justiça_'
'Justice_'
'Junuh_'
'Juntar_'
'Jumbo_'
'Julius_'
'Julio_'
'Julho_'
'Juiz_'
'Judeu_'
'João_'
'José_'
'Joshua_'
'Josefina_'
'Jonas_'
'Jonah_'
'Jon_'
'Joker_'
'Johns_'
'Johnnie_'
'Joga_'
'Joelhos_'
'Job_'
'Joanna_'
'Jin_'
'Jimbo_'
'Jew_'
'Jessie_'
'Jeremiah_'
'Jensen_'
'Je_'
'Jasmine_'
'Jared_'
'January_'
'Janeiro_'
'Jamey_'
'Jamaica_'
'Jaffa_'
'Jade_'
'JUSTICEIRO_'
'JP_'
'JJ_'
'Italy_'
'Isabelle_'
'Isabella_'
'Irlanda_'
'Iria_'
'Iraq_'
'Ira_'
'Iowa_'
'Iot_'
'Invid_'
'Internos_'
'Internacional_'
'Interior_'
'Interessante_'
'Intelligence_'
'Institute_'
'Inside_'
'Ingalls_'
'Industries_'
'Indians_'
'Incrível_'
'Incompleteness_'
'Império_'
'Improvável_'
'Impressionante_'
'Impossible_'
'Importo_'
'Immediately_'
'Imaginem_'
'Illuminati_'
'Ilha_'
'Ike_'
'Iike_'
'Iggy_'
'Identifique_'
'Idade_'
'Iast_'
'IV_'
'ISN_'
'III_'
'Hyde_'
'Hush_'
'Hurley_'
'Humphrey_'
'Hubert_'
'Hubbard_'
'Hu_'
'Howl_'
'Houdini_'
'Hotchner_'
'Hot_'
'Hopkins_'
'Hoo_'
'Honour_'
'Hong_'
'Homicídio_'
'Homestead_'
'Holt_'
'Holocausto_'
'Holm_'
'Hollister_'
'Hoffman_'
'Hobbs_'
'Historial_'
'Hiroshima_'
'Himmler_'
'Him_'
'Hilton_'
'Hills_'
'Hill_'
'Highness_'
'Higgins_'
'Hickman_'
'Hewitt_'
'Hes_'
'Hernandez_'
'Herald_'
'Henri_'
'Hendrix_'
'Hen_'
'Helena_'
'Hein_'
'Heil_'
'Heaven_'
'Heath_'
'Health_'
'Hawkins_'
'Hawkes_'
'Hawk_'
'Haverá_'
'Haveis_'
'Havai_'
'Haul_'
'Hassan_'
'Harrod_'
'Harris_'
'Harriet_'
'Harper_'
'Harley_'
'Happiness_'
'Hansen_'
'Hans_'
'Hanging_'
'Hamptons_'
'Hampton_'
'Hammer_'
'Halloran_'
'Hallelujah_'
'Hale_'
'Hal_'
'Haiti_'
'Hair_'
'Haines_'
'Hah_'
'Hadley_'
'Hades_'
'HQ_'
'HOW_'
'HOPE_'
'HIS_'
'HIRL_'
'HBO_'
'HA_'
'HAPPENED_'
'HAD_'
'Gym_'
'Gwildor_'
'Gwen_'
'Gut_'
'Guilty_'
'Grupo_'
'Grubber_'
'Griffith_'
'Gregos_'
'Gregory_'
'Gregor_'
'Greetings_'
'Greer_'
'Greeks_'
'Grandfather_'
'Graiman_'
'Graeme_'
'Gracias_'
'Goza_'
'Governor_'
'Gotcha_'
'Gostávamos_'
'Gostaríamos_'
'Goodwin_'
'Goode_'
'Gonzalo_'
'Gone_'
'Golf_'
'Goku_'
'Global_'
'Glen_'
'Gladstone_'
'Given_'
'Gitarama_'
'Giselle_'
'Gisborne_'
'Giorgio_'
'Gino_'
'Gimme_'
'Gilroy_'
'Gillian_'
'Gillespie_'
'Gill_'
'Giles_'
'Gigi_'
'Gideon_'
'Giacomo_'
'Ghost_'
'Ghetto_'
'Gerry_'
'Geronimo_'
'Georgie_'
'Gente_'
'Genius_'
'Geneva_'
'Genebra_'
'Gene_'
'Gen_'
'Geller_'
'Geez_'
'Gaza_'
'Gavin_'
'Gaudin_'
'Gasps_'
'Garibaldi_'
'Garfield_'
'Garden_'
'Garcia_'
'Ganho_'
'Ganhar_'
'Gancho_'
'Gamma_'
'Gama_'
'Gaius_'
'Gail_'
'Gaeta_'
'Gabinete_'
'Gab_'
'GREEN_'
'GOT_'
'Fé_'
'Fábrica_'
'Fá_'
'Fundação_'
'Funciona_'
'Fun_'
'Fuhrer_'
'Fu_'
'Fritz_'
'Frente_'
'Freed_'
'Freddy_'
'Freddie_'
'François_'
'Francis_'
'Francine_'
'Foxy_'
'Fowler_'
'Fourth_'
'Found_'
'Forty_'
'Fortunately_'
'Fortunate_'
'Forte_'
'Forman_'
'Following_'
'Foley_'
'Flowers_'
'Flint_'
'Flash_'
'Flanders_'
'Fixe_'
'Fish_'
'Fins_'
'Fingers_'
'Finch_'
'Fill_'
'Filipe_'
'Filha_'
'Fielding_'
'Fiddler_'
'Ficas_'
'Ficaria_'
'Ficarei_'
'Ferimento_'
'Fell_'
'Felizmente_'
'Felicity_'
'Feeling_'
'Federation_'
'Fed_'
'Fechou_'
'Fechem_'
'Feche_'
'Fazíamos_'
'Fay_'
'Fausto_'
'Fast_'
'Fascinating_'
'Fascinante_'
'Fanny_'
'Falámos_'
'Faltam_'
'Falou_'
'Fallon_'
'Falem_'
'Faith_'
'Fair_'
'Fabian_'
'FINE_'
'FIGHTER_'
'Eyes_'
'Eye_'
'Explica_'
'Experimente_'
'Expect_'
'Evil_'
'Eventually_'
'Estelle_'
'Esteja_'
'Estate_'
'Estaria_'
'Estaremos_'
'Estar_'
'Estais_'
'Esqueceste_'
'Esquecer_'
'Esperei_'
'Esperança_'
'Especial_'
'Especiais_'
'Espanta_'
'Esmeralda_'
'Escócia_'
'Escobar_'
'Es_'
'Errado_'
'Erica_'
'Eras_'
'Ephram_'
'Enviem_'
'Enviaram_'
'Entrou_'
'Entrez_'
'Entrevistei_'
'Entendo_'
'Entendi_'
'Entendeu_'
'Entendeste_'
'Entendes_'
'Entende_'
'Entenda_'
'Entao_'
'Enright_'
'Engage_'
'Endora_'
'Encontrou_'
'Encontrem_'
'Encontraremos_'
'Encontra_'
'Empresa_'
'Emissário_'
'Emerson_'
'Emerald_'
'Elliott_'
'Elle_'
'Ella_'
'Eliza_'
'Eleonora_'
'Egipto_'
'Egan_'
'Edwardes_'
'Edie_'
'Eden_'
'Easter_'
'Eagle_'
'EXCEPT_'
'EU_'
'ESCAPE_'
'EOE_'
'Dói_'
'Dwight_'
'Dusty_'
'During_'
'Durham_'
'Dunn_'
'Dukat_'
'Duck_'
'Dry_'
'Drummond_'
'Drogas_'
'Drink_'
'Dragon_'
'Dracula_'
'Downtown_'
'Dover_'
'Dourado_'
'Dormi_'
'Doris_'
'Door_'
'Donny_'
'Dominion_'
'Dominic_'
'Dom_'
'Dolores_'
'Dollar_'
'Doing_'
'Doggett_'
'Dodge_'
'Dodd_'
'Doce_'
'Dobbs_'
'Dizzy_'
'Dizer_'
'Dizei_'
'Dixie_'
'Divertido_'
'Dirty_'
'Dirt_'
'Direita_'
'Dio_'
'Dinsdale_'
'Dinastia_'
'Dina_'
'Digamos_'
'Dig_'
'Difícil_'
'Diaz_'
'Diabo_'
'Di_'
'DiNozzo_'
'Dexter_'
'Dewey_'
'Devolve_'
'Deuses_'
'Deusa_'
'Detroit_'
'Detestava_'
'Detecto_'
'Detectives_'
'Desvie_'
'Deste_'
'Desporto_'
'Desperate_'
'Desconhecido_'
'Desce_'
'Descartes_'
'Descansa_'
'Desapareçam_'
'Departamento_'
'Denise_'
'Demon_'
'Democratic_'
'Delko_'
'Delivery_'
'Delinda_'
'Delegado_'
'Deixámos_'
'Deixo_'
'Deixei_'
'Deita_'
'Degra_'
'Definitely_'
'Define_'
'Deep_'
'Deeds_'
'Decidimos_'
'Decididamente_'
'Daí_'
'Dayton_'
'Dawson_'
'Davy_'
'Davey_'
'Darren_'
'Darnell_'
'Darlene_'
'Darkness_'
'Darby_'
'Dar_'
'Daphne_'
'Dança_'
'Danos_'
'Danish_'
'Danila_'
'Damned_'
'Damla_'
'Dalton_'
'Dai_'
'DR_'
'DA_'
'DAY_'
'Código_'
'Céu_'
'Cédric_'
'Cão_'
'Cuthbert_'
'Cummings_'
'Cullen_'
'Cuidados_'
'Cueca_'
'Cuddy_'
'Crystal_'
'Crusoe_'
'Cruchot_'
'Cross_'
'Crockett_'
'Crime_'
'Crick_'
'Crews_'
'Cretino_'
'Cresci_'
'Cresceu_'
'Cremos_'
'Crap_'
'Craig_'
'Cozinhe_'
'Cox_'
'Coward_'
'Cover_'
'Court_'
'Couple_'
'Country_'
'Cotton_'
'Costumava_'
'Costumam_'
'Cortland_'
'Corram_'
'Corra_'
'Corporal_'
'Coreia_'
'Cordelia_'
'Coração_'
'Coraline_'
'Cops_'
'Cookie_'
'Conway_'
'Conversamos_'
'Convence_'
'Controlo_'
'Control_'
'Contra_'
'Conto_'
'Continuum_'
'Constable_'
'Considering_'
'Considere_'
'Conseguiu_'
'Conseguem_'
'Conquer_'
'Conor_'
'Connors_'
'Connie_'
'Connected_'
'Conheci_'
'Conhecem_'
'Congresso_'
'Congress_'
'Confirme_'
'Coney_'
'Compton_'
'Compro_'
'Compreendes_'
'Compreende_'
'Compre_'
'Companhia_'
'Committee_'
'Começas_'
'Começa_'
'Comeu_'
'Comecem_'
'Comece_'
'Colégio_'
'Columbia_'
'Colt_'
'Colorado_'
'Coley_'
'Coke_'
'Coitado_'
'Coca_'
'Coast_'
'Co_'
'Clube_'
'Clooney_'
'Clinton_'
'Clearly_'
'Clear_'
'Claudia_'
'Citizens_'
'Circle_'
'Cigarette_'
'Cidadão_'
'Cidade_'
'Churchill_'
'Church_'
'Chuckles_'
'Chu_'
'Christophe_'
'Chon_'
'Choice_'
'Chitty_'
'Chirping_'
'Chip_'
'Chin_'
'Chimericanos_'
'Chiana_'
'Chester_'
'Chest_'
'Cheiro_'
'Chegámos_'
'Cheguei_'
'Chegou_'
'Chegaste_'
'Chegamos_'
'Checkmate_'
'Charmed_'
'Chapel_'
'Chamou_'
'Chamem_'
'Chamberlain_'
'Chamaste_'
'Chamada_'
'Chairman_'
'Cha_'
'Certifiquem_'
'Certain_'
'Cento_'
'Centauri_'
'Cem_'
'Celia_'
'Cavalheiros_'
'Cats_'
'Castle_'
'Castillo_'
'Casos_'
'Casas_'
'Carver_'
'Carroll_'
'Carrington_'
'Carrega_'
'Carmela_'
'Cardassia_'
'Cap_'
'Canal_'
'Campeonato_'
'Cammie_'
'Came_'
'Cam_'
'Caleb_'
'Cadillac_'
'Cabrão_'
'Cabra_'
'CSI_'
'COURSE_'
'COMING_'
'CBI_'
'CAG_'
'Bélgica_'
'Buzz_'
'Burgundy_'
'Bug_'
'Buda_'
'Buchanan_'
'Bubber_'
'Bruxas_'
'Bruiser_'
'Brodsky_'
'Britannia_'
'Bringing_'
'Brilhante_'
'Brick_'
'Bretanha_'
'Brent_'
'Brennan_'
'Breckenridge_'
'Breck_'
'Breath_'
'Breakers_'
'Bravo_'
'Brandt_'
'Brand_'
'Brain_'
'Braddock_'
'Boys_'
'Botticelli_'
'Booker_'
'Bombay_'
'Bollocks_'
'Blanco_'
'Blake_'
'Blade_'
'Bitsey_'
'Bitch_'
'Bit_'
'Birdy_'
'Birds_'
'Bird_'
'Binky_'
'Bind_'
'Bilko_'
'Bible_'
'Between_'
'Bertie_'
'Berry_'
'Bern_'
'Berlin_'
'Benning_'
'Bennet_'
'Benjy_'
'Belgrado_'
'Beirut_'
'Beijos_'
'Bee_'
'Becca_'
'Beauty_'
'Beauregard_'
'Beaumont_'
'Beatles_'
'Beam_'
'Batman_'
'Bateu_'
'Batalha_'
'Bata_'
'Bass_'
'Basically_'
'Based_'
'Baseado_'
'Barão_'
'Barstow_'
'Barker_'
'Barcelona_'
'Bannister_'
'Banner_'
'Bank_'
'Bangkok_'
'Banco_'
'Baldy_'
'Baldwin_'
'Bajor_'
'Bait_'
'Baghdad_'
'Bag_'
'BW_'
'BOTH_'
'BOTHER_'
'BOOTS_'
'BOLO_'
'BMW_'
'BETTER_'
'BELIEVE_'
'BEFORE_'
'BABY_'
'Azul_'
'Awesome_'
'Avança_'
'Australia_'
'Austin_'
'Auschwitz_'
'Auggie_'
'Au_'
'Attorney_'
'Attack_'
'Atreides_'
'Através_'
'Atende_'
'Ate_'
'Asta_'
'Association_'
'Asshole_'
'Asian_'
'Ash_'
'Aryan_'
'Art_'
'Arruinei_'
'Arranque_'
'Army_'
'Armstrong_'
'Armando_'
'Armageddon_'
'Armadas_'
'Arjun_'
'Arizona_'
'Arav_'
'Aquiles_'
'Aproximação_'
'Aprendi_'
'Aprender_'
'Apoorva_'
'Apollo_'
'Apocalipse_'
'Apetece_'
'Aperte_'
'Apanhaste_'
'Apanharam_'
'Anytime_'
'António_'
'Anton_'
'Antigo_'
'Antigamente_'
'Anteriormente_'
'Answer_'
'Angus_'
'Angie_'
'Anger_'
'Angela_'
'Andámos_'
'Andover_'
'Andou_'
'Andem_'
'Andas_'
'Andaram_'
'Amor_'
'Amigos_'
'Americanos_'
'Amazon_'
'Alvin_'
'Alvarez_'
'Alo_'
'Almighty_'
'Alien_'
'Alfonso_'
'Alf_'
'Alexx_'
'Alert_'
'Alemães_'
'Aleluia_'
'Akron_'
'Akemi_'
'Ajude_'
'Ajudar_'
'Aiden_'
'Ahoy_'
'Ahem_'
'Aguarde_'
'Agradeça_'
'Agrada_'
'Agarrem_'
'African_'
'Aeryn_'
'Adorei_'
'Administração_'
'Adivinhem_'
'Adi_'
'Adeusinho_'
'Address_'
'Acusação_'
'Action_'
'Acredite_'
'Aconselho_'
'Acham_'
'Acerbo_'
'Aceite_'
'Aceita_'
'Accept_'
'Abuso_'
'Abu_'
'Abrir_'
'Abranda_'
'Abrams_'
'Abismo_'
'Abel_'
'Abdul_'
'Abbie_'
'Abandonar_'
'Abaixe_'
'Aah_'
'AROUND_'
'AN_'
'AM_'
'? ..._'
'? ... _'
'? ! _'
'96_'
'9000_'
'8º_'
'88_'
'80m_'
'79_'
'750_'
'74_'
'715_'
'67_'
'64_'
'63_'
'57_'
'56_'
'555_'
'5000_'
'46_'
'3O_'
'36_'
'357_'
'350_'
'3000_'
'280_'
'26th_'
'250_'
'2500_'
'20s_'
'2005_'
'2003_'
'1º_'
'1997_'
'1988_'
'1987_'
'1981_'
'1980_'
'1975_'
'1963_'
'1947_'
'1946_'
'1941_'
'1940_'
'1937_'
'190_'
'1900_'
'181_'
'170_'
'16th_'
'160_'
'15h_'
'14th_'
'142_'
'130_'
'125_'
'08_'
'...? _'
'...."_'
'..., _'
'... -_'
'... (_'
'... # _'
'.. ._'
'.. ..._'
'." - _'
'. ..._'
'. - [_'
'. ( _'
'. '_'
'. $_'
'. #_'
'-- [_'
'- '_'
'- ## [ _'
',.. ..._'
', £_'
'+_'
'*_'
') '_'
'''_'
'# '_'
'# # _'
'"'_'
'! ._'
'! -_'
'! "_'
' ¶_'
' §_'
' ] - _'
' [_'
' : _'
' .._'
' ... ._'
' . _'
' --- _'
' -"_'
' - - _'
' *_'
' * _'
' * * _'
' ) - _'
' '?_'
' # _'
' # # _'
'ﬂowers_'
'ﬁre_'
'ﬁght_'
'♫ _'
'♪_'
'♪ ..._'
'€..._'
'‚ _'
'υs_'
'οver_'
'Εxcuse_'
'Βrisset_'
'Βenoît_'
'Α_'
'óxido_'
'óssea_'
'órfãos_'
'órfão_'
'óptimos_'
'óptimas_'
'ódio_'
'óbvias_'
'óbito_'
'íon_'
'íntimos_'
'índio_'
'ímpar_'
'ímanes_'
'íeis_'
'êxtase_'
'êmbolo_'
'ética_'
'égua_'
'éduos_'
'éa_'
'èudo_'
'è_'
'ägua_'
'ä_'
'ã_'
'ânimo_'
'ângulos_'
'ávidos_'
'átrio_'
'átomo_'
'áspera_'
'árbitro_'
'árabe_'
'ámen_'
'águias_'
'àquilo_'
'àquelas_'
'Über_'
'Úteis_'
'Ørjan_'
'Ômega_'
'Îh_'
'Ítaca_'
'Índia_'
'Êpa_'
'ÉÉ_'
'Étienne_'
'Éramos_'
'Época_'
'Ès_'
'Çéu_'
'Ç_'
'Ã_'
'Âgua_'
'Â_'
'Área_'
'Árbenz_'
'Ángeles_'
'Ándale_'
'ÁGUA_'
'Àjax_'
'´ _'
'© _'
'¨¢_'
'§ _'
'£¬ _'
'£_'
'¢_'
'¡­_'
' _'
' :_'
' !_'
' ! _'
' _'
'{\\_'
'zénite_'
'zurns_'
'zunir_'
'zumbir_'
'zum_'
'zucchini_'
'zu_'
'zoológico_'
'zoo_'
'zonzo_'
'zonas_'
'zombies_'
'zomba_'
'zoe_'
'zit_'
'ziprinex_'
'zipping_'
'ziguezagues_'
'ziguezagueando_'
'zeta_'
'zennis_'
'ze_'
'zaragateámos_'
'zango_'
'zangava_'
'zangaram_'
'za_'
'yummy_'
'yucky_'
'yoυr_'
'youse_'
'yourkey_'
'youngsters_'
'youhaveto_'
'youfrom_'
'youdestroy_'
'york_'
'yoo_'
'yonder_'
'yokus_'
'yogurt_'
'yoghurts_'
'yips_'
'yield_'
'yeux_'
'yersinia_'
'yells_'
'yelling_'
'yearbook_'
'yay_'
'yawning_'
'yate_'
'yarn_'
'yank_'
'yak_'
'xu_'
'xixi_'
'xindi_'
'xerifes_'
'xamanismo_'
'wοnder_'
'wyp_'
'wugie_'
'writs_'
'writings_'
'writ_'
'wristwatch_'
'wrist_'
'wrinkles_'
'wretch_'
'wrecks_'
'wrath_'
'wrapping_'
'wrap_'
'wraiths_'
'wraithonce_'
'wounding_'
'worshipped_'
'worn_'
'workspace_'
'workout_'
'workmen_'
'workaday_'
'wooing_'
'woo_'
'wonderfully_'
'womb_'
'wolf_'
'wobbly_'
'wobble_'
'wits_'
'withholding_'
'withheld_'
'withdraw_'
'wishing_'
'wished_'
'wishbone_'
'wirgin_'
'wires_'
'winters_'
'winnings_'
'wink_'
'wingman_'
'winery_'
'winds_'
'willis_'
'willcontinueoverland_'
'wildlife_'
'wildand_'
'wiggle_'
'widening_'
'widen_'
'widely_'
'wicked_'
'wicca_'
'whу_'
'whο_'
'whoso_'
'whoring_'
'whores_'
'whoppers_'
'whopped_'
'whoop_'
'wholesaler_'
'wholesale_'
'whistling_'
'whispering_'
'whispered_'
'whisper_'
'whiskey_'
'whips_'
'whipped_'
'whiny_'
'whining_'
'whined_'
'whims_'
'whimpering_'
'whimper_'
'whim_'
'whereabouts_'
'whem_'
'wheat_'
'whatsoever_'
'whassup_'
'whales_'
'western_'
'wendy_'
'wellness_'
'welcoming_'
'welcomes_'
'weirdo_'
'weirding_'
'weirdest_'
'weighed_'
'weigh_'
'weeps_'
'weekly_'
'weekendfIautist_'
'wedge_'
'weddings_'
'wedded_'
'webcam_'
'weatherman_'
'weaponry_'
'weaken_'
'waxing_'
'wax_'
'waving_'
'wavered_'
'waved_'
'watchietalkie_'
'wasinthehandsofAsmed_'
'washroom_'
'washis_'
'washer_'
'warship_'
'wars_'
'warriors_'
'warranty_'
'warnings_'
'warmth_'
'warmly_'
'warmer_'
'warlock_'
'warfare_'
'wares_'
'warehouses_'
'wards_'
'warden_'
'wanton_'
'wang_'
'wanders_'
'wandering_'
'wandered_'
'wander_'
'wanda_'
'wand_'
'walrus_'
'wallpaper_'
'wallow_'
'wallop_'
'wallets_'
'waking_'
'wakes_'
'waken_'
'waits_'
'waitresses_'
'waitress_'
'waitin_'
'waiters_'
'waist_'
'wages_'
'wagers_'
'wagered_'
'wager_'
'waffles_'
'wacky_'
'wackiness_'
'vôo_'
'vômitos_'
'vômito_'
'vórtice_'
'vínculo_'
'vídeos_'
'vêr_'
'véio_'
'vãs_'
'válvulas_'
'válvula_'
'válidos_'
'vunerável_'
'vultures_'
'vulnerável_'
'vulgarmente_'
'vulcanos_'
'vs_'
'voçê_'
'voyeur_'
'voyages_'
'vouches_'
'votre_'
'votei_'
'votaram_'
'vorvón_'
'vorta_'
'voodoo_'
'vontades_'
'vomiting_'
'vomitam_'
'vomitado_'
'vomita_'
'voluptuosa_'
'voluntário_'
'volunteered_'
'voluntariosa_'
'voluntariei_'
'voluntariar_'
'voltasses_'
'voltará_'
'voltarmos_'
'voltarem_'
'voltando_'
'voltamo_'
'volley_'
'volcano_'
'volcanic_'
'void_'
'voicing_'
'voiceover_'
'voguing_'
'voem_'
'vodiš_'
'vocés_'
'vocal_'
'vocabulário_'
'vocabulary_'
'voando_'
'voam_'
'voadora_'
'voa_'
'vo_'
'viéssem_'
'viável_'
'vizinhas_'
'vivência_'
'vivre_'
'vivificação_'
'vividly_'
'vivid_'
'vivian_'
'viveste_'
'vivesse_'
'viverás_'
'vivermos_'
'vivam_'
'vittles_'
'vitrine_'
'vitrina_'
'vitorianas_'
'vitimaram_'
'vitamins_'
'visões_'
'visíveis_'
'visualmente_'
'visually_'
'visualizar_'
'visuais_'
'vistoso_'
'vistos_'
'vistes_'
'visor_'
'vislumbro_'
'visivelmente_'
'visited_'
'visitation_'
'visitantes_'
'visitamos_'
'visitam_'
'visionário_'
'visible_'
'viscosa_'
'visceral_'
'viruses_'
'virtually_'
'virtual_'
'virou_'
'viriam_'
'viria_'
'virginicus_'
'virgens_'
'virasse_'
'virando_'
'virados_'
'virado_'
'viradas_'
'violá_'
'violinos_'
'violino_'
'violes_'
'violents_'
'violentos_'
'violento_'
'violently_'
'violentamente_'
'violent_'
'violation_'
'violating_'
'violated_'
'violaram_'
'violar_'
'violador_'
'violado_'
'viol_'
'vintners_'
'vintes_'
'vinnie_'
'vinhas_'
'vingarmos_'
'vingados_'
'vindouras_'
'vina_'
'vilã_'
'villains_'
'villa_'
'vilarejo_'
'viking_'
'vigiá_'
'vigitant_'
'vigilante_'
'vigilant_'
'vigilance_'
'vigiaremos_'
'vigiado_'
'vigarizou_'
'vigaristas_'
'viga_'
'viewing_'
'viewer_'
'vietnamita_'
'viessem_'
'viemo_'
'vidinha_'
'videotaped_'
'videos_'
'vicious_'
'viciados_'
'vibrações_'
'vibração_'
'vibe_'
'viajens_'
'viajei_'
'viajava_'
'viajantes_'
'viajante_'
'viable_'
'vhamo_'
'veux_'
'vetor_'
'veterinary_'
'veteran_'
'vestígio_'
'vestiu_'
'vestimentas_'
'vestida_'
'vestes_'
'vessels_'
'vespa_'
'verás_'
'veryone_'
'versões_'
'versos_'
'versions_'
'verses_'
'versatile_'
'verniz_'
'vernacular_'
'vermes_'
'vermelhos_'
'verify_'
'verifiquei_'
'verifico_'
'verificações_'
'verificasse_'
'verificarmos_'
'verificado_'
'veria_'
'verge_'
'verga_'
'veremos_'
'verdure_'
'verduras_'
'verdor_'
'verdades_'
'verbo_'
'verbais_'
'vents_'
'ventríloquo_'
'ventre_'
'vent_'
'vengeance_'
'venenosos_'
'vendor_'
'vending_'
'vendidos_'
'vendidas_'
'vendida_'
'vendeste_'
'vendergelopelalnternet_'
'venderem_'
'vendem_'
'vendedores_'
'vendedora_'
'vendedor_'
'vendam_'
'vencidos_'
'venci_'
'vencerá_'
'venceremos_'
'venceram_'
'vencemos_'
'velocity_'
'velharia_'
'velejar_'
'veleiro_'
'veins_'
'veil_'
'veia_'
'vehicles_'
'vegetariano_'
'vegetal_'
'vedes_'
'vedek_'
'vechetn_'
'vear_'
'veado_'
'vazío_'
'vazios_'
'vasto_'
'vast_'
'vassoura_'
'vasos_'
'vascular_'
'vary_'
'varrê_'
'varrimento_'
'varrido_'
'varrendo_'
'various_'
'varios_'
'varify_'
'variações_'
'variante_'
'variada_'
'variables_'
'vareta_'
'vaqueiros_'
'vanquish_'
'vanity_'
'vanessa_'
'vampiresco_'
'vampiresa_'
'vampires_'
'vampiras_'
'vampira_'
'vamp_'
'valve_'
'valuables_'
'valsas_'
'valorizado_'
'valon_'
'valiosas_'
'validating_'
'valentões_'
'valedictorian_'
'vain_'
'vaguest_'
'vagueavam_'
'vaginal_'
'vagas_'
'vagabonds_'
'vadiagem_'
'vaccinated_'
'va_'
'uáu_'
'uva_'
'utilizei_'
'utilizações_'
'utilização_'
'utilization_'
'utilizará_'
'utilizam_'
'utilizador_'
'utiliza_'
'utility_'
'utilidades_'
'uterus_'
'utensílios_'
'usávamos_'
'uslly_'
'usassem_'
'usará_'
'usarmos_'
'usares_'
'usarem_'
'usara_'
'usamos_'
'usam_'
'usadas_'
'usada_'
'urânio_'
'ursinho_'
'urnas_'
'urging_'
'urgh_'
'urgently_'
'urgente_'
'urgency_'
'urged_'
'urdidura_'
'urdido_'
'urbe_'
'upstaris_'
'uprising_'
'upright_'
'upperhall_'
'upper_'
'upload_'
'uplinked_'
'upkeep_'
'upgraded_'
'upgrade_'
'updating_'
'updates_'
'updated_'
'update_'
'upcoming_'
'upany_'
'unzips_'
'unwitting_'
'unveiling_'
'unveil_'
'unusually_'
'unusual_'
'unturn_'
'untouched_'
'unto_'
'untimely_'
'unsolved_'
'unsettling_'
'unseen_'
'unscheduled_'
'unruly_'
'unresolved_'
'unraveling_'
'unravel_'
'unquestionedly_'
'unquenchable_'
'unprotected_'
'unprofessional_'
'unpopular_'
'unpleasant_'
'unnerving_'
'unnecessary_'
'unnatural_'
'unmanned_'
'unload_'
'unlimited_'
'unlawful_'
'unjust_'
'universos_'
'universities_'
'universes_'
'universal_'
'unite_'
'unirmos_'
'unirem_'
'union_'
'unintentionally_'
'uninhabitable_'
'unidos_'
'unidentified_'
'unicorns_'
'unicamente_'
'uni_'
'unhealthy_'
'unhappy_'
'unhappiness_'
'ungodliness_'
'unfulfilled_'
'unfriendly_'
'unfortunate_'
'unfailingly_'
'unexpected_'
'unemployed_'
'uneasy_'
'undreamed_'
'undocumented_'
'undisturbed_'
'undignified_'
'underworld_'
'underwears_'
'underway_'
'understudy_'
'understatement_'
'understanding_'
'underst_'
'underpinnings_'
'underneath_'
'undergrowth_'
'undergraduate_'
'undergone_'
'underfoot_'
'underdogs_'
'undercuts_'
'uncovered_'
'uncontrollable_'
'uncontested_'
'unconfirmed_'
'uncompromising_'
'uncomplicated_'
'unclear_'
'unclean_'
'uncensored_'
'uncashed_'
'uncanny_'
'unborn_'
'unbelievably_'
'unbearably_'
'unbated_'
'unarmed_'
'unanimemente_'
'unaffected_'
'ump_'
'umherdsman_'
'ultritium_'
'ultravioleta_'
'ultrapassagem_'
'ultraje_'
'ultra_'
'ultimate_'
'ultima_'
'ulds_'
'uivei_'
'uivava_'
'ucranianos_'
'uazão_'
'uau_'
'tυrned_'
'túnica_'
'túneis_'
'tú_'
'tô_'
'tóxicos_'
'tóxica_'
'tónica_'
'típicas_'
'típica_'
'tíbia_'
'tênis_'
'térmico_'
'térmica_'
'ténue_'
'técnicos_'
'tás_'
'tártaros_'
'táctil_'
'táctica_'
'tyr_'
'typist_'
'typing_'
'typically_'
'typhus_'
'typewriter_'
'types_'
'tyou_'
'tying_'
'twixt_'
'twitter_'
'twitch_'
'twisty_'
'twists_'
'twist_'
'twirl_'
'twinkling_'
'twine_'
'twin_'
'tv_'
'tutu_'
'tutor_'
'tutear_'
'tusk_'
'tush_'
'turnê_'
'turnstiles_'
'turmoil_'
'turmas_'
'turked_'
'turismo_'
'turfa_'
'turco_'
'turca_'
'turbulência_'
'turbulence_'
'tuning_'
'tungsten_'
'tuned_'
'tumulto_'
'tumulo_'
'tumours_'
'tumor_'
'tummy_'
'tuitions_'
'tufão_'
'tubérculos_'
'tubes_'
'tuberculose_'
'tubagens_'
'tsarévitche_'
'trágicos_'
'trágico_'
'tryst_'
'tryagain_'
'truthful_'
'trusts_'
'trump_'
'trucks_'
'trovoada_'
'trouxesse_'
'troubleth_'
'troubles_'
'troubled_'
'trota_'
'trot_'
'troquemos_'
'trophy_'
'trophies_'
'tropeções_'
'tropeçou_'
'tropeçava_'
'troops_'
'troncos_'
'trompete_'
'trombeteiro_'
'trolling_'
'trocadilho_'
'triângulo_'
'triumphal_'
'tristes_'
'tripulante_'
'tripping_'
'triplo_'
'trimestre_'
'trilho_'
'trilha_'
'trigo_'
'triggered_'
'trifle_'
'tries_'
'trident_'
'tricoto_'
'tricking_'
'triciclo_'
'trichloroacetic_'
'tribute_'
'tribbles_'
'triannianos_'
'triangulating_'
'trials_'
'treze_'
'trevor_'
'trespassasse_'
'trenós_'
'trenzinho_'
'trend_'
'tremores_'
'tremor_'
'tremia_'
'tremer_'
'tremendous_'
'tremendas_'
'treinos_'
'treinei_'
'treine_'
'treinarmos_'
'treinaria_'
'treinadora_'
'trecho_'
'trebled_'
'treats_'
'treating_'
'treatable_'
'treasury_'
'treads_'
'treachery_'
'treacherous_'
'traír_'
'traças_'
'trazido_'
'trazida_'
'trazia_'
'trazeres_'
'trazerem_'
'trazemos_'
'trazem_'
'tray_'
'travões_'
'travou_'
'travis_'
'travestis_'
'travesti_'
'traveller_'
'traveling_'
'traveler_'
'trave_'
'traumatizing_'
'traumatizadas_'
'tratà_'
'trator_'
'tratem_'
'tratei_'
'trate_'
'tratariam_'
'trataram_'
'tratando_'
'tratada_'
'trashy_'
'trashed_'
'traseira_'
'trarei_'
'traqueotomia_'
'trapos_'
'trapinho_'
'trapaceei_'
'tranças_'
'transversalmente_'
'transversal_'
'transtornados_'
'transtornado_'
'transtornada_'
'transpõe_'
'transportes_'
'transportador_'
'transportado_'
'transponder_'
'transpiro_'
'transpired_'
'transparente_'
'transparent_'
'transmitter_'
'transmitindo_'
'transmissões_'
'transmissions_'
'translator_'
'transição_'
'transito_'
'transit_'
'transients_'
'transgendered_'
'transfusäo_'
'transformá_'
'transforming_'
'transformed_'
'transformações_'
'transformaçoes_'
'transformará_'
'transformaria_'
'transformam_'
'transformado_'
'transformadas_'
'transforma_'
'transform_'
'transferimo_'
'transferi_'
'transcender_'
'transação_'
'transar_'
'transando_'
'transactions_'
'trans_'
'tranquila_'
'trancá_'
'trancinhas_'
'trance_'
'trancaste_'
'trancas_'
'trancados_'
'trancadas_'
'trancada_'
'trampoline_'
'trampolim_'
'trample_'
'trampas_'
'tramam_'
'tramados_'
'tralha_'
'traje_'
'traiçoeiros_'
'traiçoeiro_'
'trairá_'
'trainer_'
'trailing_'
'trailers_'
'traidores_'
'tragically_'
'tragic_'
'traficantes_'
'traficante_'
'tradução_'
'tradutores_'
'tradições_'
'traditions_'
'traditional_'
'trading_'
'tradicional_'
'trades_'
'traded_'
'tracção_'
'tractores_'
'tract_'
'trackable_'
'traces_'
'trac_'
'trabalhoso_'
'trabalhinhos_'
'trabalhei_'
'trabalhe_'
'trabalhavam_'
'trabalhaste_'
'trabalharmos_'
'trabalhares_'
'toxinas_'
'townspeople_'
'townie_'
'townhouse_'
'towers_'
'tov_'
'tout_'
'tourão_'
'tournée_'
'tourist_'
'tought_'
'toughest_'
'touchy_'
'touches_'
'touchdowns_'
'touchdown_'
'touca_'
'tou_'
'tosser_'
'tosleep_'
'torácico_'
'torácica_'
'torturem_'
'torturar_'
'torturante_'
'tortuoso_'
'tortoises_'
'tortilla_'
'tort_'
'torrou_'
'torreão_'
'torradas_'
'torrada_'
'torpedos_'
'torpedo_'
'torpedeiros_'
'tornámos_'
'torná_'
'tornozelos_'
'tornes_'
'tornem_'
'tornasse_'
'tornas_'
'tornares_'
'tornando_'
'tornamo_'
'tornados_'
'tornado_'
'torn_'
'torments_'
'tormenta_'
'torment_'
'torcidos_'
'torcido_'
'torched_'
'torceu_'
'torce_'
'toquem_'
'tootsies_'
'tooting_'
'toothpaste_'
'tools_'
'tontinho_'
'tonk_'
'tongues_'
'tongs_'
'tong_'
'tonelada_'
'toneis_'
'tonalidade_'
'ton_'
'toms_'
'tomes_'
'tomem_'
'tombaram_'
'tombar_'
'tomatão_'
'tomarmos_'
'tomam_'
'tollway_'
'tollbooth_'
'tolken_'
'tolices_'
'tolice_'
'tolerância_'
'toleres_'
'tolerated_'
'tolerar_'
'tola_'
'tokus_'
'tokens_'
'token_'
'toil_'
'togs_'
'togo_'
'toenails_'
'toddler_'
'tocá_'
'toch_'
'tocava_'
'tocaste_'
'tocasse_'
'tocará_'
'tobacco_'
'toaulkner_'
'toad_'
'tnew_'
'titulos_'
'titular_'
'titanium_'
'tires_'
'tirava_'
'tirasse_'
'tirarmos_'
'tiraria_'
'tiraram_'
'tiranos_'
'tiptoeing_'
'tipper_'
'tipped_'
'tipografia_'
'tios_'
'tini_'
'tinhamos_'
'ting_'
'tinfoil_'
'tin_'
'timesaver_'
'tiles_'
'tijolos_'
'tijolo_'
'tigre_'
'tights_'
'tightening_'
'ties_'
'tidy_'
'tide_'
'ticking_'
'tias_'
'tiara_'
'thίnk_'
'thyself_'
'thweird_'
'thunder_'
'thug_'
'thrusting_'
'thrusters_'
'thruster_'
'thrust_'
'thru_'
'throttled_'
'thrilling_'
'thrilled_'
'thrill_'
'threes_'
'threats_'
'threads_'
'thrash_'
'thoroughly_'
'thoroughfare_'
'thorough_'
'thon_'
'thirst_'
'thirds_'
'thinkingJane_'
'thinkin_'
'thief_'
'thicker_'
'thermo_'
'thereto_'
'therein_'
'therapeutic_'
'theology_'
'thejob_'
'theft_'
'theandromeda_'
'thaw_'
'thattheevan_'
'thatjust_'
'thanking_'
'thanked_'
'thanatoscope_'
'tfind_'
'texts_'
'tetrápodes_'
'teta_'
'tesões_'
'tesão_'
'testículos_'
'testículo_'
'tests_'
'testimonies_'
'testifying_'
'testemunhámos_'
'testemunhou_'
'testemunho_'
'testemunhes_'
'testemunhar_'
'testei_'
'testando_'
'testam_'
'tesouras_'
'tese_'
'terças_'
'terrorismo_'
'terrorism_'
'territories_'
'terrified_'
'terrific_'
'terrenos_'
'terreiro_'
'terramoto_'
'terrain_'
'ternos_'
'terno_'
'termites_'
'terminámos_'
'termine_'
'terminated_'
'terminarmos_'
'terminares_'
'terminaram_'
'terminando_'
'terceira_'
'terbutaline_'
'tequilha_'
'tequila_'
'tentámos_'
'tento_'
'tente_'
'tentava_'
'tentativas_'
'tentaste_'
'tentasse_'
'tentas_'
'tentarias_'
'tentares_'
'tentaremos_'
'tentador_'
'tentada_'
'tenso_'
'tension_'
'tensa_'
'tenra_'
'tennis_'
'tenner_'
'tenentes_'
'tendão_'
'tendonitis_'
'tendista_'
'tender_'
'tendas_'
'tenda_'
'tenciono_'
'tenciones_'
'tencionava_'
'tencionamos_'
'tencionam_'
'tenaz_'
'tenants_'
'temático_'
'tempting_'
'tempt_'
'temporário_'
'temporárias_'
'temporary_'
'temples_'
'templar_'
'temperatures_'
'temperamento_'
'temperamental_'
'temida_'
'temerem_'
'temerei_'
'teme_'
'temam_'
'telégrafo_'
'telly_'
'televised_'
'telespectadores_'
'telepáticas_'
'telephones_'
'telepath_'
'telemóveis_'
'telegrafista_'
'telefones_'
'telefonei_'
'telefonava_'
'telefonas_'
'telefonamos_'
'telefonam_'
'telecomunicações_'
'telecomando_'
'teimosa_'
'teeny_'
'teenagers_'
'teenager_'
'tecnologicamente_'
'tecnicamente_'
'techniques_'
'technique_'
'technician_'
'technical_'
'tech_'
'tecelão_'
'teaspoonful_'
'teaspoon_'
'tearing_'
'tearin_'
'tearful_'
'teambuilding_'
'teaches_'
'teachers_'
'taxas_'
'taverna_'
'tatuarei_'
'tatuagens_'
'tatuada_'
'tattoos_'
'tato_'
'tasty_'
'tastrophe_'
'tasteful_'
'tasks_'
'tasked_'
'tascas_'
'tartaruga_'
'tart_'
'tarps_'
'tarot_'
'taricárdia_'
'targets_'
'targeting_'
'tarefas_'
'tardes_'
'tarados_'
'tapping_'
'tapped_'
'tapeworm_'
'tapete_'
'tapar_'
'tanya_'
'tanks_'
'tangiers_'
'tanga_'
'tampon_'
'tampo_'
'tampering_'
'tambêm_'
'tambor_'
'talões_'
'talves_'
'tallied_'
'talhões_'
'talhar_'
'talhantes_'
'tales_'
'talents_'
'tale_'
'talO_'
'takin_'
'tails_'
'tailor_'
'tagged_'
'tagarelice_'
'tagarelas_'
'taffy_'
'tacto_'
'tactile_'
'tactics_'
'tactical_'
'tacos_'
'tackled_'
'tackle_'
'tack_'
'tachyons_'
'tachyon_'
'tac_'
'tabÉes_'
'tabuleiro_'
'taboos_'
'tabloids_'
'tabled_'
'tablecloth_'
'taberna_'
'tabela_'
'súbito_'
'súbita_'
'sózinho_'
'sótão_'
'sórdida_'
'sólidos_'
'sódio_'
'sócia_'
'sò_'
'síndrome_'
'símbolo_'
'sétima_'
'sérios_'
'sérias_'
'sãos_'
'sálvia_'
'sábia_'
'sábados_'
'sÃ³_'
'szalinski_'
'syndrome_'
'synch_'
'sync_'
'synagogue_'
'sympathize_'
'symbiant_'
'syllable_'
'swordsmanship_'
'swollen_'
'switched_'
'swishes_'
'swinging_'
'swimsuit_'
'swimmer_'
'swig_'
'swift_'
'swell_'
'sweetness_'
'sweethearts_'
'sweetest_'
'sweeteners_'
'sweetened_'
'sweating_'
'sweat_'
'swat_'
'swarming_'
'swapped_'
'swans_'
'swan_'
'swallows_'
'swallowing_'
'swallow_'
'swaggering_'
'swabs_'
'sutura_'
'sutiã_'
'sutileza_'
'suster_'
'sustentares_'
'sustentar_'
'sustenta_'
'sustained_'
'sustain_'
'sussurrar_'
'suspiro_'
'suspirar_'
'suspicion_'
'suspensão_'
'suspensa_'
'suspendê_'
'suspendees_'
'suspend_'
'suspeitávamos_'
'suspeitariam_'
'suspeitaram_'
'suspeitam_'
'suspeita_'
'suspects_'
'susan_'
'survey_'
'surroundings_'
'surrounding_'
'surrendering_'
'surreal_'
'surprises_'
'surpresas_'
'surprendido_'
'surpreendido_'
'surpreendi_'
'surpreenderam_'
'surpreender_'
'surpreende_'
'surgiu_'
'surgiria_'
'surgical_'
'surges_'
'surgeries_'
'surgem_'
'surge_'
'surfistas_'
'surfe_'
'surdos_'
'surdas_'
'supresa_'
'suppress_'
'suppository_'
'supposedly_'
'supports_'
'supporters_'
'supported_'
'supplying_'
'supplied_'
'supplementing_'
'supple_'
'supossed_'
'suposição_'
'suporte_'
'suplicares_'
'suplemento_'
'supervisor_'
'supervisionada_'
'supervision_'
'supervised_'
'superstição_'
'superstition_'
'supersolid_'
'superou_'
'supermax_'
'supermarket_'
'superman_'
'superiores_'
'superintendent_'
'superhuman_'
'superficie_'
'superficiais_'
'superei_'
'superaudição_'
'superar_'
'supera_'
'suor_'
'suns_'
'sunroof_'
'sunk_'
'sunblock_'
'sumos_'
'summon_'
'summit_'
'summers_'
'summarized_'
'sumiu_'
'sumiste_'
'sultan_'
'sulphur_'
'sullen_'
'sulfúrico_'
'sulfur_'
'sulfeto_'
'sujou_'
'sujidade_'
'sujeitos_'
'sujeitar_'
'sujeita_'
'sujeira_'
'sujas_'
'suites_'
'suitable_'
'suing_'
'suicidou_'
'suicidado_'
'sugeriu_'
'sugeriste_'
'sugerimos_'
'sugarcoat_'
'suffocating_'
'suffice_'
'sued_'
'suds_'
'sudeste_'
'sucumbiu_'
'suculento_'
'suculenta_'
'sucos_'
'suckle_'
'sucking_'
'suckers_'
'sucka_'
'sucessão_'
'sucedia_'
'sucedeu_'
'successor_'
'succession_'
'succeeded_'
'subúrbio_'
'subverteu_'
'suburbia_'
'subtitles_'
'subtis_'
'subterrâneo_'
'subsídio_'
'substância_'
'substituído_'
'substituí_'
'substituto_'
'substituted_'
'substitute_'
'substituiu_'
'substituirá_'
'substitua_'
'substances_'
'subservientes_'
'subsequently_'
'subpoena_'
'subornos_'
'suborno_'
'suborne_'
'subordinado_'
'submetidas_'
'submerso_'
'submersas_'
'submarine_'
'submachine_'
'sublime_'
'subleased_'
'subjectivo_'
'subjected_'
'subistes_'
'subires_'
'subirei_'
'subiram_'
'subi_'
'subestimaste_'
'subestimar_'
'subespaço_'
'subespacial_'
'subconscientes_'
'subcommittee_'
'suavizar_'
'suaviza_'
'suaves_'
'suavemente_'
'suave_'
'suado_'
'stylists_'
'stylish_'
'style_'
'sty_'
'stvarno_'
'stupidest_'
'stuntmen_'
'stunning_'
'stunners_'
'stump_'
'stubs_'
'stubbornly_'
'strychnine_'
'strung_'
'struggling_'
'struggles_'
'strongly_'
'stronghold_'
'strolling_'
'stroking_'
'strikers_'
'stretching_'
'stretcher_'
'strep_'
'streamers_'
'stream_'
'strapping_'
'strangled_'
'stranded_'
'straightforward_'
'straightened_'
'straightedge_'
'straightaway_'
'storytellers_'
'storms_'
'storeroom_'
'storehouses_'
'stored_'
'stooper_'
'stoned_'
'stoked_'
'stockpile_'
'stocking_'
'stockade_'
'stitches_'
'stitch_'
'stinky_'
'stink_'
'stinging_'
'stimulates_'
'stills_'
'stillness_'
'stillbattle_'
'stifling_'
'sticks_'
'stickers_'
'stern_'
'stereotype_'
'stereo_'
'stepkids_'
'stenciled_'
'stench_'
'stellar_'
'steering_'
'steamroller_'
'steamer_'
'steamed_'
'stealth_'
'stealing_'
'steaks_'
'staunch_'
'statutory_'
'statues_'
'statue_'
'stations_'
'statewides_'
'statements_'
'stashed_'
'startling_'
'starship_'
'starry_'
'starlight_'
'starfish_'
'stare_'
'starch_'
'stapled_'
'staple_'
'standup_'
'standstill_'
'standpipe_'
'standin_'
'standards_'
'stall_'
'stalking_'
'stalker_'
'stalked_'
'stalk_'
'stalin_'
'stagnant_'
'staggered_'
'staged_'
'stagecoach_'
'stacking_'
'stacie_'
'stables_'
'stabilized_'
'stabb_'
'sra_'
'squished_'
'squirrels_'
'squirrelly_'
'squirrel_'
'squirm_'
'squinching_'
'squibs_'
'squeezing_'
'squeak_'
'squaw_'
'squashed_'
'squares_'
'squared_'
'squandering_'
'squadron_'
'spurt_'
'spurns_'
'spuns_'
'spumoni_'
'sprung_'
'sprouts_'
'sprinkles_'
'springtime_'
'spreads_'
'sprawling_'
'sprang_'
'spout_'
'spotty_'
'sportsman_'
'spooked_'
'spook_'
'spontaneous_'
'sponsored_'
'spongebob_'
'sponge_'
'spoils_'
'spoiled_'
'splitting_'
'splendid_'
'spleen_'
'spiteful_'
'spirited_'
'spinny_'
'spinning_'
'spinners_'
'spine_'
'spinal_'
'spilt_'
'spiderwebs_'
'spic_'
'sphere_'
'spendingmoney_'
'spelling_'
'speedy_'
'speeds_'
'spectrum_'
'spectral_'
'spectacular_'
'spectacle_'
'specs_'
'specimen_'
'specified_'
'specifics_'
'specifically_'
'specialty_'
'specialization_'
'specialist_'
'spec_'
'spears_'
'spear_'
'speaks_'
'speakers_'
'sparrow_'
'sparked_'
'spanked_'
'spangled_'
'spall_'
'spake_'
'spades_'
'spade_'
'spacesick_'
'spaceships_'
'spaces_'
'soçobro_'
'soviéticos_'
'soviéticas_'
'sova_'
'southeast_'
'sources_'
'souls_'
'soufflé_'
'soubéssemos_'
'soubessemos_'
'souberes_'
'sotão_'
'sotaque_'
'sossego_'
'sossegasse_'
'sossegado_'
'sossegada_'
'sosinha_'
'sortudos_'
'sorts_'
'sorteio_'
'sorted_'
'sorrow_'
'sorriu_'
'sorrisse_'
'sorridente_'
'sorri_'
'sordid_'
'sorcerers_'
'sorbitol_'
'sor_'
'soprá_'
'soprei_'
'sopre_'
'sopra_'
'sopita_'
'sophomore_'
'soou_'
'soothe_'
'sonolentos_'
'sonogram_'
'sonny_'
'sonic_'
'sonhas_'
'sonharia_'
'songs_'
'soneto_'
'soneca_'
'sondo_'
'sonata_'
'somethingreal_'
'sombrero_'
'solucei_'
'soltou_'
'solto_'
'solteiras_'
'solte_'
'soltar_'
'soltajunto_'
'solitários_'
'solitária_'
'solitude_'
'solitaire_'
'solidão_'
'solidária_'
'solider_'
'solidariedade_'
'soletrar_'
'solenemente_'
'sole_'
'soldiering_'
'soldador_'
'solarengo_'
'soiled_'
'soil_'
'sogros_'
'sogro_'
'sogra_'
'softball_'
'sofríveis_'
'sofrido_'
'sofria_'
'sofri_'
'sofreram_'
'sofrem_'
'sofram_'
'sofra_'
'sofisticação_'
'soe_'
'sodomized_'
'sodding_'
'sodas_'
'sod_'
'socked_'
'sock_'
'sociologist_'
'sociological_'
'socialist_'
'socialism_'
'socar_'
'sobs_'
'sobrou_'
'sobrolho_'
'sobrevoam_'
'sobrevivia_'
'sobreviverem_'
'sobreviveram_'
'sobrevivem_'
'sobrevimento_'
'sobrepôs_'
'sobrepondo_'
'sobremesas_'
'sobrecarregamos_'
'sobrasse_'
'sobrar_'
'sober_'
'soar_'
'soap_'
'soam_'
'soado_'
'snug_'
'snuck_'
'snowman_'
'snowing_'
'snorkel_'
'snores_'
'snore_'
'snooping_'
'sniveling_'
'snitching_'
'snitch_'
'snipers_'
'sniffs_'
'sniffing_'
'sniff_'
'sneeze_'
'snarling_'
'snare_'
'snaps_'
'snapping_'
'snappin_'
'snap_'
'snakelike_'
'smutty_'
'smuggling_'
'smug_'
'sms_'
'smothering_'
'smoothness_'
'smooth_'
'smoosh_'
'smokes_'
'smoked_'
'smilin_'
'smiles_'
'smashes_'
'smashed_'
'smartest_'
'smalltime_'
'smacks_'
'smack_'
'slut_'
'slurs_'
'slumber_'
'slouch_'
'slots_'
'slot_'
'sloppy_'
'slop_'
'slobs_'
'sloane_'
'slips_'
'slipping_'
'slipper_'
'sling_'
'slime_'
'slightest_'
'sliding_'
'slide_'
'slicks_'
'slick_'
'sliced_'
'sleeve_'
'sleepy_'
'sleepless_'
'sleephold_'
'sleazy_'
'slaying_'
'slay_'
'slavery_'
'slaughtered_'
'slash_'
'slander_'
'slain_'
'slag_'
'slack_'
'skyrocketing_'
'skirts_'
'skirmishes_'
'skins_'
'skimming_'
'skim_'
'ski_'
'skews_'
'skewer_'
'sketchy_'
'sketch_'
'skating_'
'skatery_'
'sizeist_'
'sized_'
'sixty_'
'situaçäo_'
'situadas_'
'sits_'
'sistólica_'
'sissy_'
'sismo_'
'sis_'
'sirva_'
'sirens_'
'sirenes_'
'siren_'
'sire_'
'sippin_'
'sip_'
'sinuses_'
'sinus_'
'sintonizem_'
'sintonizar_'
'sintoma_'
'sintetizou_'
'sintetizar_'
'sintas_'
'sintam_'
'sinners_'
'sinner_'
'sinistre_'
'sings_'
'singles_'
'sindicato_'
'sincronizar_'
'sincronizados_'
'sincronizadas_'
'sinceros_'
'sincerity_'
'sinceridade_'
'sinceras_'
'sinalizador_'
'sinaleiros_'
'sinagoga_'
'sina_'
'simulate_'
'simula_'
'simpáticos_'
'simplório_'
'simplicidade_'
'simpler_'
'simpatizante_'
'simpatiza_'
'similares_'
'simbolizasse_'
'simbiotas_'
'silvestres_'
'silk_'
'silently_'
'silenciosamente_'
'silences_'
'silencer_'
'signore_'
'signof_'
'signify_'
'significavam_'
'significativo_'
'significativa_'
'significar_'
'significantly_'
'significante_'
'siginifca_'
'sigilo_'
'sights_'
'sightings_'
'sighs_'
'sigas_'
'sigam_'
'sieves_'
'siesta_'
'siento_'
'sidewise_'
'sideways_'
'sidewalk_'
'sideshow_'
'sideline_'
'sida_'
'sicker_'
'sickening_'
'siameses_'
'shylock_'
'shutoff_'
'shushed_'
'shush_'
'shrug_'
'shriveled_'
'shrinking_'
'shrinker_'
'shredding_'
'shredded_'
'shrank_'
'showdown_'
'showcase_'
'shoved_'
'shoulders_'
'shoulda_'
'shotgun_'
'shorted_'
'shores_'
'shops_'
'shootin_'
'shone_'
'shol_'
'shocks_'
'shocked_'
'shoals_'
'shiu_'
'shitting_'
'shittin_'
'shitload_'
'shithole_'
'shipwreck_'
'shipment_'
'shipboard_'
'shinunununununs_'
'shines_'
'shiner_'
'shin_'
'shik_'
'sheppard_'
'shells_'
'shellfish_'
'shell_'
'sheet_'
'shedding_'
'shears_'
'shawna_'
'shawn_'
'shaving_'
'shaves_'
'shaved_'
'sharps_'
'shareholders_'
'shareholder_'
'shaped_'
'shanks_'
'shamus_'
'shameless_'
'shamed_'
'shallow_'
'shaky_'
'shakey_'
'shakeup_'
'shady_'
'shading_'
'shades_'
'shackled_'
'shacked_'
'shabby_'
'señora_'
'sexologist_'
'sexista_'
'sewage_'
'severos_'
'severity_'
'severe_'
'severas_'
'severa_'
'seventy_'
'seventh_'
'settlements_'
'settin_'
'sets_'
'setora_'
'setenta_'
'setembro_'
'sesame_'
'seríamos_'
'servo_'
'servindo_'
'servimos_'
'servidores_'
'servida_'
'serves_'
'serventes_'
'servants_'
'serrilha_'
'serpente_'
'sermões_'
'sermão_'
'sermon_'
'seringas_'
'seringa_'
'serfeliz_'
'serendipity_'
'sereias_'
'sequência_'
'sequestrado_'
'sequestered_'
'sequenciais_'
'sequenciados_'
'sequelas_'
'sepultar_'
'sepulcral_'
'separámo_'
'separá_'
'separates_'
'separately_'
'separassem_'
'separamo_'
'separado_'
'sento_'
'sentissem_'
'sentisse_'
'sentiria_'
'sentirem_'
'sentiram_'
'sentinelas_'
'sentiments_'
'sentimental_'
'sentience_'
'sentidos_'
'sentias_'
'sentença_'
'sentavam_'
'sentava_'
'sentaste_'
'sentas_'
'sensoriais_'
'sensor_'
'senso_'
'sensitivo_'
'sensitivity_'
'sensing_'
'sensible_'
'sensibility_'
'senses_'
'sensei_'
'sensation_'
'sensatez_'
'sensacional_'
'seniors_'
'senil_'
'senhorjuiz_'
'senhorio_'
'senhoria_'
'senderos_'
'senate_'
'senadores_'
'sen_'
'semântica_'
'semprequepensonisso_'
'semos_'
'semitismo_'
'seminary_'
'seminario_'
'semicerras_'
'semestre_'
'semente_'
'semelhantes_'
'semblante_'
'semblance_'
'semanalmente_'
'sellout_'
'sellotaping_'
'sellin_'
'selfless_'
'selections_'
'selection_'
'seldom_'
'selados_'
'selado_'
'sejamos_'
'seitas_'
'seios_'
'seguíssemos_'
'segurava_'
'segurassem_'
'seguranças_'
'seguram_'
'seguisse_'
'seguiremos_'
'seguirei_'
'seguiram_'
'seguidas_'
'segregam_'
'seething_'
'seeks_'
'seedy_'
'seeds_'
'sedutor_'
'sedativo_'
'sedative_'
'sedada_'
'secções_'
'securitv_'
'secundárias_'
'secundaria_'
'sectors_'
'sections_'
'secs_'
'secretly_'
'secretive_'
'secreted_'
'seclusion_'
'secessão_'
'secar_'
'secador_'
'sebo_'
'sebastien_'
'seaweed_'
'seato_'
'seasons_'
'seasonal_'
'seasick_'
'seashore_'
'seashells_'
'searching_'
'seaman_'
'scum_'
'sculpture_'
'sculptors_'
'scullery_'
'scuba_'
'scrub_'
'scrimmage_'
'screening_'
'scratching_'
'scrappy_'
'scrape_'
'scrap_'
'scrambling_'
'scour_'
'scorpio_'
'scorched_'
'scorch_'
'scoping_'
'scooped_'
'scoop_'
'scold_'
'scoff_'
'scissors_'
'schoolbunny_'
'schon_'
'scheme_'
'schematics_'
'schedules_'
'sceptical_'
'scent_'
'scenes_'
'scatter_'
'scarves_'
'scaring_'
'scarfs_'
'scares_'
'scarce_'
'scanning_'
'scanners_'
'scanner_'
'scanearia_'
'scalping_'
'scallops_'
'scalloped_'
'scaling_'
'scale_'
'sbeautiful_'
'saíssemos_'
'saísse_'
'saídas_'
'saía_'
'saxophone_'
'savoury_'
'savored_'
'savoir_'
'savings_'
'saveurs_'
'saves_'
'saver_'
'sausages_'
'saunas_'
'sauna_'
'saudita_'
'saudações_'
'saudade_'
'satélites_'
[...]
