'<pad>_'
'<EOS>_'
', _'
'._'
'the_'
'a_'
'_'
'of_'
'to_'
'and_'
'in_'
's_'
'v_'
'se_'
'is_'
'-_'
'na_'
'that_'
'for_'
'y_'
'je_'
'by_'
'o_'
'on_'
'že_'
'i_'
'The_'
'e_'
'u_'
'be_'
' (_'
'. _'
'/_'
'it_'
'with_'
'are_'
'I_'
''_'
'as_'
'pro_'
': _'
'k_'
') _'
't_'
' - _'
'do_'
'not_'
'at_'
'í_'
'was_'
'this_'
'é_'
'm_'
'from_'
'?_'
'or_'
'have_'
'z_'
'you_'
'an_'
'á_'
'we_'
'Hotel_'
'ing_'
've_'
'will_'
'has_'
'ou_'
'which_'
'ch_'
'ed_'
'd_'
' – _'
'hotel_'
'za_'
'’_'
' _'
'ů_'
'ě_'
'all_'
'European_'
'jsou_'
'1_'
'ho_'
'které_'
'their_'
'nebo_'
' ._'
'jako_'
'"_'
'si_'
'can_'
'aby_'
'would_'
'l_'
'2_'
'but_'
'ý_'
'em_'
'its_'
'A_'
'more_'
'ých_'
'EU_'
'also_'
'our_'
'3_'
' , _'
',_'
'ale_'
'(_'
'very_'
'they_'
'one_'
'; _'
'V_'
':_'
'It_'
'should_'
'been_'
'In_'
'být_'
'ní_'
'were_'
'es_'
'This_'
'po_'
'n_'
'4_'
'out_'
'5_'
'there_'
'only_'
'ze_'
'other_'
'no_'
'ly_'
'bude_'
'od_'
'tak_'
'ého_'
'li_'
'must_'
'like_'
'který_'
'!_'
'he_'
';_'
'mi_'
'up_'
'than_'
'me_'
'než_'
'We_'
'Commission_'
'had_'
'his_'
'co_'
'if_'
'která_'
'r_'
')._'
'má_'
'jak_'
'time_'
'about_'
'jsem_'
'so_'
'countries_'
'To_'
'la_'
'who_'
'al_'
'your_'
'ce_'
'us_'
'new_'
'te_'
'), _'
'však_'
'také_'
'my_'
'Europe_'
'musí_'
'into_'
'jejich_'
'room_'
'when_'
'er_'
'ím_'
'such_'
'what_'
'."_'
'Member_'
'States_'
'ým_'
'jeho_'
'Komise_'
'may_'
'good_'
' "_'
'But_'
'této_'
'these_'
'de_'
'jí_'
'people_'
'mezi_'
'most_'
'6_'
'President_'
'them_'
'ům_'
'any_'
')_'
'could_'
'after_'
'byl_'
'bylo_'
'well_'
'use_'
'just_'
'stay_'
'Union_'
'need_'
'rooms_'
'0_'
'může_'
'com_'
'some_'
'jen_'
'byla_'
'mu_'
'world_'
'jsme_'
'en_'
'now_'
'ng_'
'Je_'
'between_'
'při_'
'pokoje_'
'Mr_'
'00_'
'ke_'
'7_'
'10_'
'24_'
'není_'
'years_'
'many_'
'když_'
'economic_'
'% _'
'If_'
'S_'
'Hodnocení_'
'pokud_'
'hostů_'
'where_'
'over_'
'first_'
'two_'
'because_'
'své_'
'way_'
' „_'
'even_'
'let_'
'8_'
'Council_'
'ne_'
'those_'
'země_'
'location_'
'No_'
'nám_'
'ém_'
'make_'
'Booking_'
'bych_'
'před_'
'system_'
'uje_'
'státy_'
'né_'
' “_'
'shall_'
'g_'
'proti_'
'US_'
'staff_'
'," _'
'right_'
'ty_'
'made_'
'už_'
'You_'
'Evropské_'
'toho_'
'said_'
'reviews_'
'podle_'
'market_'
'Parliament_'
'under_'
'report_'
'oblasti_'
'year_'
'work_'
'ání_'
'ovat_'
'important_'
'ky_'
'Article_'
'" _'
'take_'
'budou_'
'policy_'
'c_'
'much_'
'her_'
'EUR_'
' — _'
'against_'
'support_'
'ích_'
'within_'
'Pokud_'
'tím_'
'protože_'
'ještě_'
'2008_'
'country_'
'see_'
'tohoto_'
'ci_'
'financial_'
'9_'
'více_'
'opatření_'
'political_'
'ové_'
'There_'
'long_'
'free_'
'how_'
'being_'
'unie_'
'mají_'
'velmi_'
'tomu_'
'city_'
' / _'
'ion_'
'až_'
'ani_'
'information_'
'He_'
'vám_'
'hotelu_'
'per_'
'him_'
'roce_'
're_'
'další_'
'20_'
' [[_'
'tento_'
'public_'
'kdy_'
'ka_'
'2009_'
'všech_'
'těchto_'
'2007_'
'mohou_'
'kteří_'
'down_'
'ení_'
'day_'
'12_'
'through_'
'cí_'
'byly_'
'ými_'
'tyto_'
'before_'
'able_'
'international_'
'As_'
'ně_'
'již_'
'For_'
'energy_'
'case_'
' ..._'
'kde_'
'When_'
'English_'
'set_'
'roku_'
'nařízení_'
'tomto_'
'own_'
'am_'
'know_'
'then_'
'pouze_'
'centre_'
'same_'
'il_'
'used_'
'či_'
'předsedající_'
'Rooms_'
'případě_'
'le_'
'tom_'
'government_'
'ování_'
'h_'
'ES_'
'rozhodnutí_'
'does_'
'naši_'
'located_'
'15_'
'bez_'
'less_'
'všechny_'
'possible_'
'available_'
'That_'
'great_'
'get_'
'Room_'
'And_'
'tu_'
'ek_'
'area_'
'both_'
'too_'
'rights_'
'„_'
'proto_'
'order_'
'They_'
'China_'
'států_'
'including_'
'global_'
'služba_'
'ech_'
'did_'
'což_'
'All_'
'zemí_'
'zejména_'
'tion_'
'part_'
'Tento_'
'here_'
'C_'
'2006_'
'Regulation_'
'still_'
'st_'
'Service_'
'č_'
'want_'
'law_'
'service_'
'change_'
'USA_'
'ují_'
'power_'
'ku_'
'breakfast_'
'back_'
'' _'
'rámci_'
'p_'
'last_'
'ji_'
'while_'
'Zařízení_'
'What_'
'Na_'
'measures_'
'close_'
'. - (_'
'ému_'
'lo_'
'řízení_'
'think_'
'mít_'
'rád_'
'ry_'
'dne_'
'Rady_'
'development_'
'she_'
'national_'
'social_'
'pobytu_'
'dnes_'
'stále_'
'place_'
'level_'
'guest_'
'ation_'
' | _'
'without_'
'offers_'
'high_'
'United_'
'možné_'
'finanční_'
'ější_'
'Bar_'
'go_'
'tedy_'
'ost_'
'point_'
'pak_'
'non_'
' % _'
'small_'
'access_'
'třeba_'
'..._'
'50_'
'|_'
'submitted_'
'- _'
' & _'
'D_'
'Když_'
'&_'
'example_'
'Community_'
'course_'
'Czech_'
'” _'
'say_'
'number_'
'ám_'
'zákazníci_'
'posílají_'
'growth_'
'160_'
'jež_'
'EC_'
'kterou_'
'její_'
'30_'
'help_'
' _'
'view_'
'today_'
'ers_'
'away_'
'particular_'
'best_'
'členských_'
'2005_'
'far_'
'crisis_'
'costs_'
'ách_'
'services_'
'politiky_'
'Fax_'
'11_'
'state_'
'E_'
'000_'
'pokojů_'
'end_'
'during_'
'customers_'
'tato_'
'products_'
'ním_'
'nbsp_'
'human_'
'each_'
'cannot_'
'means_'
'et_'
'three_'
'den_'
'children_'
'jde_'
'data_'
'společnosti_'
'next_'
'economy_'
'Business_'
'since_'
'another_'
'Pane_'
'Jak_'
'term_'
'lidí_'
'find_'
'ami_'
'měla_'
'&#_'
'“ _'
'osti_'
'informace_'
'friendly_'
'byste_'
'T_'
'nové_'
'life_'
'jste_'
'business_'
'Facilities_'
'future_'
'pane_'
'ble_'
'taken_'
'měli_'
'better_'
'P_'
'strany_'
'put_'
'already_'
'systému_'
'man_'
'comfortable_'
'rovněž_'
'el_'
'trade_'
'rs_'
'2004_'
'security_'
'price_'
'ies_'
'um_'
'lze_'
'again_'
'Společenství_'
'ční_'
'current_'
'citizens_'
'bychom_'
'?"_'
'problem_'
'list_'
'few_'
'around_'
'large_'
'language_'
'State_'
'modern_'
'following_'
' '_'
'really_'
'provide_'
'legal_'
'ný_'
'děti_'
'areas_'
'Guest_'
'Evropská_'
'svou_'
'fact_'
'x_'
'toto_'
'therefore_'
'pod_'
'court_'
'based_'
'řešení_'
'ten_'
'mě_'
'little_'
'form_'
'Všechny_'
'zařízení_'
'heart_'
'zde_'
'například_'
'ment_'
'evropské_'
'come_'
'believe_'
'aid_'
'právní_'
'měl_'
'health_'
'every_'
'excellent_'
'nás_'
'hours_'
'off_'
'ny_'
'night_'
'mnoho_'
'souladu_'
'rules_'
'However_'
'tuto_'
'clear_'
']] _'
'základě_'
'value_'
'práva_'
'b_'
'might_'
'clean_'
'trhu_'
'process_'
'common_'
'air_'
'paní_'
'necessary_'
'America_'
'star_'
'question_'
'přístup_'
'left_'
'least_'
'ensure_'
'Co_'
'minutes_'
'major_'
'main_'
'll_'
'návrh_'
'větší_'
'internet_'
'central_'
'become_'
'Desk_'
'dispozici_'
'abychom_'
'25_'
'ta_'
'old_'
'nyní_'
'musíme_'
'interest_'
'certain_'
'během_'
'Tato_'
'K_'
'real_'
'given_'
'especially_'
'don_'
'avi_'
'včetně_'
'vlastní_'
'pomoci_'
'’ _'
'ts_'
'program_'
'ných_'
'Committee_'
'needs_'
'conditions_'
'whether_'
'using_'
'prostředí_'
'nad_'
'O_'
'situation_'
'krize_'
'ila_'
'helpful_'
'full_'
'food_'
'decision_'
'facilities_'
'protection_'
'parlamentu_'
'jim_'
'however_'
'different_'
'stát_'
'risk_'
'Toto_'
'první_'
'zda_'
'směrnice_'
'ské_'
'further_'
'zemích_'
'money_'
'effective_'
'agreement_'
'Ale_'
'systém_'
'práce_'
'Evropě_'
'Evropského_'
'ons_'
'práv_'
' ( _'
'walk_'
'svých_'
'result_'
'L_'
'. - _'
'role_'
'pomoc_'
'nabízí_'
'km_'
'vlády_'
'něco_'
'nejsou_'
'14_'
'měly_'
'led_'
'ic_'
'důležité_'
'skupiny_'
'regard_'
'problems_'
'going_'
'/ _'
'období_'
'jiné_'
'issue_'
'action_'
'So_'
'řekl_'
'words_'
'veřejné_'
'person_'
'ová_'
'near_'
'kdo_'
'Russia_'
'100_'
'open_'
'mezinárodní_'
'water_'
'podporu_'
'making_'
'Group_'
'služby_'
'Z_'
'Proto_'
'American_'
'nice_'
'vysoké_'
'third_'
'ních_'
'světě_'
'something_'
'sector_'
'proposal_'
'ge_'
'transport_'
'recepci_'
'private_'
'nou_'
'enough_'
'station_'
'ná_'
'nich_'
'neboť_'
'f_'
'always_'
'Kdy_'
'ra_'
'příliš_'
'ions_'
'16_'
' [_'
'provided_'
'pomocí_'
'Treaty_'
'working_'
'authorities_'
'Ve_'
'Pro_'
'Hostelsclub_'
'členské_'
'íme_'
'vás_'
'nt_'
'méně_'
'jeden_'
'ceny_'
' '
'war_'
'terms_'
'climate_'
'přicestoval_'
'právě_'
'local_'
'letech_'
'institutions_'
'done_'
'Smoking_'
'Nekuřácké_'
'Centre_'
'zemi_'
'run_'
'cích_'
'Directive_'
'DE_'
'části_'
'věci_'
'th_'
'short_'
'rate_'
'low_'
'lidé_'
'found_'
'needed_'
'family_'
'check_'
'40_'
'stejně_'
'můžete_'
'možnost_'
'dětí_'
'druhé_'
'Za_'
'These_'
'13_'
'why_'
'ti_'
'svého_'
'second_'
'line_'
'R_'
'M_'
'2010_'
'respect_'
'právo_'
'often_'
'give_'
'building_'
'ící_'
'Úschovna_'
'ubytování_'
'prostřednictvím_'
'problém_'
'name_'
'sociální_'
'politické_'
'debate_'
'banks_'
'account_'
'systems_'
'reception_'
'investment_'
'control_'
'called_'
'Court_'
'B_'
'znovu_'
'writing_'
'town_'
'odst_'
'markets_'
'hodinová_'
'easy_'
'France_'
'2003_'
'rok_'
'region_'
'period_'
'ohledem_'
'never_'
'increase_'
'ají_'
'Komisi_'
'Evropa_'
'.”_'
'naše_'
'možná_'
'ili_'
'having_'
'době_'
'problémy_'
'basis_'
'Germany_'
'ted_'
'mnohem_'
'jící_'
'globální_'
'dále_'
'cases_'
'budget_'
'Safety_'
'Internet_'
'Breakfast_'
'18_'
'š_'
'cílem_'
'among_'
'Trezor_'
'úrovni_'
'stojí_'
'policies_'
'místo_'
'million_'
'centrum_'
'application_'
'On_'
'Evropy_'
'způsobem_'
'vá_'
'nic_'
'matter_'
'issues_'
'force_'
'debt_'
'dalších_'
'Our_'
'Non_'
'Commissioner_'
'At_'
'čl_'
'women_'
'tam_'
'start_'
'růst_'
'ity_'
'ar_'
'Friendly_'
'22_'
'ění_'
'změny_'
'skutečně_'
'prices_'
'jednání_'
'ace_'
'): _'
'reason_'
'general_'
'státech_'
'situated_'
'resources_'
'include_'
'ala_'
'II_'
'zavazadel_'
'vote_'
'sti_'
'single_'
'recent_'
'greater_'
'bar_'
'approach_'
'New_'
'17_'
' $_'
'všichni_'
'téměř_'
'ting_'
'restaurant_'
'náklady_'
'fully_'
'Do_'
'total_'
'site_'
'once_'
'capital_'
'Debian_'
'2000_'
'... _'
'ových_'
'mnoha_'
'já_'
'home_'
'cooperation_'
'billion_'
'She_'
'times_'
'tax_'
'státu_'
'quality_'
'parking_'
'page_'
'key_'
'With_'
'U_'
'.“_'
'Článek_'
'nových_'
'equipment_'
'almost_'
'Výtah_'
'Republic_'
'situaci_'
'safety_'
'orgány_'
'ie_'
'hope_'
'governments_'
'Topení_'
'Check_'
'Bank_'
'Airport_'
'zprávy_'
'svůj_'
'present_'
'face_'
'London_'
'Central_'
'side_'
'several_'
'research_'
'particularly_'
'hospodářské_'
'ever_'
'energie_'
'Western_'
'Parlamentu_'
'oval_'
'mohla_'
'dohody_'
'dobře_'
'date_'
'byli_'
'Storage_'
'Front_'
'ující_'
'seznam_'
'městě_'
'experience_'
'companies_'
'Public_'
'Prádelna_'
'znamená_'
'whole_'
'vůči_'
'though_'
'teď_'
'states_'
'society_'
'look_'
'Pokojová_'
'Gay_'
'60_'
'často_'
'production_'
'ochranu_'
'Půjčovna_'
'One_'
'My_'
'yet_'
'together_'
'především_'
'odvětví_'
'members_'
'either_'
'days_'
'que_'
'poor_'
'environment_'
'dva_'
'da_'
'above_'
'specific_'
'růstu_'
'rather_'
'některých_'
'bank_'
'] _'
'zajistit_'
'situace_'
'práci_'
'programu_'
'pracovní_'
'position_'
'ovi_'
'outside_'
'mohli_'
'group_'
'big_'
'Kopírka_'
'Hour_'
'19_'
'“._'
'žádné_'
'things_'
'subject_'
'foreign_'
'eme_'
'banky_'
'age_'
'ální_'
'velké_'
'trh_'
'regional_'
'několika_'
'ns_'
'hostels_'
'euro_'
'body_'
'appropriate_'
'ally_'
'accordance_'
'týkající_'
'tí_'
'provides_'
'ors_'
'některé_'
'model_'
'men_'
'hand_'
'Box_'
'skutečnosti_'
'rychle_'
'přímo_'
'procedure_'
'podmínky_'
'pay_'
'offer_'
'nikdy_'
'ké_'
'jiných_'
'got_'
'bezpečnosti_'
'accommodation_'
'Deposit_'
'until_'
'schůze_'
'moci_'
'light_'
'hlasování_'
'evropských_'
'cost_'
'B'
'vláda_'
'resolution_'
'rates_'
'prostředky_'
'others_'
'later_'
'itself_'
'continue_'
'TV_'
'Restaurant_'
'ší_'
'quite_'
'proč_'
'otázky_'
'field_'
'developing_'
'changes_'
'century_'
'attention_'
'2002_'
'článku_'
'zprávu_'
'zcela_'
'address_'
'Po_'
' ... _'
'ího_'
'strong_'
'rozvoj_'
'nový_'
'nejen_'
'máme_'
'airport_'
'M'
'zpráva_'
'vždy_'
'taking_'
'soukromé_'
'kterým_'
'kdyby_'
'každý_'
'čas_'
'special_'
'služeb_'
'použití_'
'pool_'
'opportunity_'
'framework_'
'forward_'
'create_'
'chtěl_'
'Heating_'
'H'
'té_'
'type_'
'tisk_'
'světa_'
'ovšem_'
'ni_'
'mohl_'
'military_'
'ise_'
'dokonce_'
'cíle_'
'child_'
'activities_'
'[_'
'Luggage_'
'L'
'Evropský_'
'thing_'
'standard_'
'oil_'
'místě_'
'hard_'
'ful_'
'concerned_'
'celém_'
'bankety_'
'asked_'
'Rental_'
'Private_'
'21_'
'úsilí_'
'views_'
'straně_'
'pánové_'
'několik_'
'nároky_'
'ily_'
'history_'
'Restaurace_'
'Park_'
'Indeed_'
'quiet_'
'product_'
'natural_'
'management_'
'higher_'
'ago_'
'Windows_'
'O'
'zároveň_'
'písemně_'
'návrhu_'
'kind_'
'impact_'
'credit_'
'charged_'
'cena_'
'celkem_'
'Laundry_'
'French_'
'vé_'
'vyšší_'
'tři_'
'show_'
'samozřejmě_'
'politiku_'
'politika_'
'podpory_'
'nce_'
'legislation_'
'dvou_'
'dosáhnout_'
'Podle_'
'Elevator_'
'27_'
'"._'
'sure_'
'organizace_'
'nemůže_'
'lepší_'
'kou_'
'klimatu_'
'call_'
'themselves_'
'os_'
'ive_'
'informací_'
'four_'
'dolarů_'
'democracy_'
'cy_'
'Iran_'
'spolupráce_'
'soudu_'
'share_'
'responsibility_'
'posledních_'
'pan_'
'navíc_'
'longer_'
'leaders_'
'interests_'
'ia_'
'difficult_'
'amount_'
'across_'
'various_'
'towards_'
'red_'
'našich_'
'mělo_'
'individual_'
'income_'
'democratic_'
'concerning_'
'ali_'
'Snídaně_'
'Pokoje_'
'Organizace_'
'80_'
'31_'
'party_'
'parties_'
'milionů_'
'gas_'
'file_'
'care_'
'came_'
'bit_'
'Rezervace_'
'Paní_'
'welcome_'
'text_'
'reduce_'
'případech_'
'nebude_'
'industry_'
'distance_'
'behalf_'
'Rada_'
'D'
'After_'
'90_'
'walking_'
'seems_'
'přes_'
'project_'
'počet_'
'package_'
'nothing_'
'nichž_'
'months_'
'minute_'
'member_'
'extra_'
'efforts_'
'bed_'
'basic_'
'P'
'Linux_'
'2001_'
', "_'
'Čistírna_'
'workers_'
'unii_'
'střední_'
'reach_'
'pravidla_'
'past_'
'nakonec_'
'jej_'
'etc_'
'ent_'
'education_'
'World_'
'Photocopying_'
'How_'
'23_'
'svým_'
'stop_'
'rule_'
'les_'
'funds_'
'class_'
'beautiful_'
'aut_'
'Parlament_'
'Jsem_'
'Chcete_'
'část_'
'true_'
'takové_'
'společenství_'
'představuje_'
'občanů_'
'jednou_'
'hvězdičky_'
'early_'
'Služba_'
'Israel_'
'treatment_'
'stability_'
'připojení_'
'ous_'
'nutné_'
'naší_'
'meeting_'
'likely_'
'j_'
'hlavní_'
'five_'
'ekonomiky_'
'car_'
'Služby_'
'Services_'
'General_'
'East_'
'víc_'
'step_'
'spolupráci_'
'significant_'
'seen_'
'rapporteur_'
'přičemž_'
'opinion_'
'implementation_'
'head_'
'dvě_'
'du_'
'didn_'
'avšak_'
'ate_'
'Při_'
'Paris_'
'Meeting_'
'Madam_'
'House_'
'“_'
'smoking_'
'road_'
'results_'
'postižené_'
'noc_'
'nadále_'
'move_'
'design_'
'apply_'
'\u_'
'International_'
'Denní_'
'Chinese_'
'Annex_'
'zdrojů_'
'values_'
'thought_'
'required_'
'provisions_'
'principle_'
'komise_'
'jedné_'
'ize_'
'finančních_'
'feel_'
'directly_'
'Tyto_'
'India_'
'G_'
'FR_'
'žehlení_'
'základní_'
'ying_'
'století_'
'standards_'
'requirements_'
'prostory_'
'proceedings_'
'nelze_'
'keep_'
'internal_'
'guests_'
'evidence_'
'established_'
'dy_'
'ds_'
'center_'
'bezpečnost_'
'Musíme_'
'By_'
'software_'
'languages_'
'half_'
'důsledku_'
'decisions_'
'Now_'
'Italy_'
'26_'
'všechno_'
'státní_'
'společností_'
'snížení_'
'pokoji_'
'perfect_'
'něj_'
'ního_'
'kontrolu_'
'jménem_'
'VIP_'
'Spojené_'
'Ne_'
'F'
'simply_'
'sice_'
'projects_'
'ness_'
'house_'
'financování_'
'dobu_'
'civil_'
'agree_'
'adopted_'
'Spojených_'
'German_'
'Banquet_'
'Čína_'
'ter_'
'různých_'
'reform_'
'podmínek_'
'ného_'
'mohlo_'
'miliard_'
'known_'
'goods_'
'front_'
'díky_'
'celé_'
'T'
'Design_'
'Bush_'
'většina_'
'vzhledem_'
'voted_'
'usnesení_'
'strategy_'
'souvislosti_'
'solution_'
'národní_'
'nejlepších_'
'města_'
'direct_'
'budeme_'
'bring_'
'act_'
'Není_'
'tělesně_'
'společné_'
'lot_'
'kvůli_'
'complete_'
'ary_'
'ability_'
'X_'
'Very_'
'U'
'R'
' %_'
'serious_'
'remain_'
'progress_'
'pokoj_'
'nuclear_'
'množství_'
'held_'
'doby_'
'choice_'
'ací_'
'Lisbon_'
'HDP_'
'Guests_'
'GDP_'
'City_'
'CD_'
'! _'
'turn_'
'shower_'
'regions_'
'obchodu_'
'mohly_'
'emissions_'
'ať_'
'ad_'
'Minister_'
'w_'
'takže_'
'stránky_'
'soon_'
'prohlášení_'
'population_'
'otázku_'
'obsahuje_'
'jsi_'
'essential_'
'equipped_'
'doing_'
'along_'
'West_'
'N_'
'La_'
'G'
'Enterprise_'
'ECB_'
'A'
'70_'
'údajů_'
'wish_'
'ustanovení_'
'technology_'
'smlouvy_'
'ship_'
'relevant_'
'recently_'
'pana_'
'ový_'
'ostí_'
'nezbytné_'
'network_'
'nekuřácké_'
'ments_'
'ma_'
'looking_'
'levels_'
'lack_'
'kterých_'
'employment_'
'currently_'
'authority_'
'ask_'
'Y_'
'zprávě_'
'regionální_'
'oblastech_'
'nu_'
'meet_'
'idea_'
'hospodářství_'
'existuje_'
'everything_'
'centrální_'
'allow_'
'PL_'
'J'
'British_'
'vůbec_'
'top_'
'stanoví_'
'společně_'
'son_'
'provést_'
'ohledně_'
'níž_'
'nout_'
'land_'
'ků_'
'jejichž_'
'fiscal_'
'drive_'
'community_'
'28_'
'článek_'
'zvláštní_'
'všem_'
'tě_'
'tímto_'
'totiž_'
'told_'
'tady_'
'soud_'
'ská_'
'return_'
'proposals_'
'property_'
'poté_'
'ostatní_'
'negotiations_'
'můžeme_'
'muset_'
'makes_'
'ling_'
'larger_'
'existing_'
'důvodu_'
'dámy_'
'der_'
'deal_'
'coming_'
'charge_'
'Spain_'
'Some_'
'Not_'
'H_'
'Dry_'
'An_'
'zdraví_'
'ways_'
'similar_'
'related_'
'questions_'
'personal_'
'ochrany_'
'lidských_'
'groups_'
'document_'
'cultural_'
'clearly_'
'assistance_'
'Moreover_'
'F_'
'Cleaning_'
'Car_'
'went_'
'upon_'
'ubytoven_'
'týká_'
'try_'
'traditional_'
'thank_'
'tell_'
'ss_'
'společnost_'
'současné_'
'request_'
'range_'
'practice_'
'komfortně_'
'demand_'
'achieve_'
'Newspapers_'
'Ironing_'
'Iraq_'
'1999_'
'velice_'
'understand_'
'ství_'
'sebe_'
'remains_'
'referred_'
'přístupu_'
'procedures_'
'poslední_'
'plně_'
'parts_'
'p'
'návrhy_'
'mean_'
'komfortní_'
'improve_'
'culture_'
'book_'
'behind_'
'asi_'
'americké_'
'agreed_'
'actually_'
'CO2_'
'vání_'
'vytvoření_'
'tions_'
'splňuje_'
'relations_'
'obchodní_'
'former_'
'economies_'
'company_'
'bus_'
'beds_'
'W_'
'Klimatizace_'
'2013_'
'zlepšení_'
'zatímco_'
'těch_'
'thus_'
'svět_'
'street_'
'space_'
'směrem_'
'points_'
'mimo_'
'live_'
'included_'
'final_'
'fight_'
'exchange_'
'entire_'
'developed_'
'border_'
'additional_'
'addition_'
'Office_'
'Kingdom_'
'Exchange_'
'07_'
',” _'
'", _'
' ) _'
'áním_'
'án_'
'vy_'
'spaces_'
'sea_'
'provádění_'
'potential_'
'lead_'
'investice_'
'ilo_'
'export_'
'effect_'
'due_'
'dostupné_'
'availability_'
'according_'
'Of_'
'June_'
'Japan_'
'Express_'
'říci_'
'íte_'
'výsledky_'
'train_'
'svém_'
'setting_'
'response_'
'regulation_'
'předpisy_'
'právních_'
'politických_'
'parlament_'
'nachází_'
'jehož_'
'ideal_'
'dobré_'
'alone_'
'Z'
'Vy'
'K'
'.'_'
'způsob_'
'procesu_'
'platí_'
'm'
'kem_'
'growing_'
'eurozone_'
'environmental_'
'capacity_'
'bad_'
'administration_'
'North_'
'May_'
'December_'
' ('
'činnosti_'
'test_'
'shopping_'
'ses_'
'peace_'
'mg_'
'media_'
'malé_'
'jasně_'
'increased_'
'enable_'
'directive_'
'cen_'
'benefit_'
'ba_'
'Where_'
'NATO_'
'Members_'
'Let_'
'Francie_'
'E'
'získat_'
'zdroje_'
'zapotřebí_'
'whose_'
'vše_'
'výše_'
'udělat_'
'trhy_'
'translation_'
'systémy_'
'ských_'
'skutečnost_'
'shown_'
'předsedo_'
'předsednictví_'
'ohledu_'
'nost_'
'místa_'
'letiště_'
'instituce_'
'historic_'
'fotografii_'
'ené_'
'enjoy_'
'del_'
'bathroom_'
'actions_'
'UN_'
'THE_'
'I'
'Evropskou_'
' : _'
'zásadní_'
'vat_'
'uvedené_'
'ského_'
'self_'
'reasons_'
'přijmout_'
'přihlášení_'
'programme_'
'probably_'
'pracovních_'
'poverty_'
'míst_'
'ice_'
'ha_'
'gentlemen_'
'favour_'
'est_'
'domestic_'
'considered_'
'ca_'
'agricultural_'
'active_'
'V'
'Disabled_'
'--_'
'ž_'
'zvýšení_'
'va_'
'ton_'
'steps_'
'sense_'
'safe_'
'rozvoje_'
'požadavky_'
'positive_'
'plan_'
'nebylo_'
'nebyl_'
'moment_'
'moc_'
'lower_'
'hodnoty_'
'hlediska_'
'finance_'
'features_'
'dítě_'
'ck_'
'benefits_'
'b'
'atmosphere_'
'anti_'
'Why_'
'Terasa_'
'N'
'Greece_'
'C'
'Best_'
'zvětší_'
'word_'
'světové_'
'status_'
'spacious_'
'ský_'
'rest_'
'professional_'
'popular_'
'ového_'
'ovala_'
'osobu_'
'morning_'
'lly_'
'kliknete_'
'jobs_'
'fundamental_'
'cílů_'
'created_'
'competition_'
'Kromě_'
'Ko'
'Grand_'
'Even_'
'%_'
'zboží_'
'ujeme_'
'table_'
'současnosti_'
'size_'
'r'
'předseda_'
'play_'
'peníze_'
'odhlášení_'
'looked_'
'involved_'
'installation_'
'indeed_'
'freedom_'
'ely_'
'dál_'
'computer_'
'carried_'
'although_'
'Směnárna_'
'Mrs_'
'Good_'
'Expresní_'
'život_'
'zajištění_'
'typu_'
'took_'
'style_'
'received_'
'quickly_'
'priority_'
'paid_'
'ovou_'
'mind_'
'ls_'
'limits_'
'leave_'
'knowledge_'
'hold_'
'exkurzí_'
'effort_'
'currency_'
'beach_'
'applicable_'
'Fund_'
'EEC_'
'Airconditioning_'
'žádný_'
'zasedání_'
'un_'
'technical_'
'sustainable_'
'pozornost_'
'omezení_'
'míru_'
'jednoho_'
'extremely_'
'evropského_'
'e'
'double_'
'designed_'
'des_'
'cause_'
'ad'
'َ_'
'čí_'
'území_'
'údaje_'
'works_'
'week_'
'využít_'
'sion_'
'requires_'
'pravděpodobně_'
'plán_'
'perhaps_'
'nature_'
'ings_'
'ete_'
'effects_'
'documents_'
'consumer_'
'conflict_'
'ané_'
'ant_'
'Square_'
'Decision_'
'Agreement_'
'4hvězdičkový_'
'3hvězdičkový_'
'�_'
'ána_'
'zeměmi_'
'supply_'
'success_'
'rise_'
'restaurants_'
'office_'
'málo_'
'living_'
'infrastructure_'
'dosažení_'
'concerns_'
'bezpečnostní_'
'below_'
'balance_'
'Proč_'
'Palace_'
'Já_'
'JavaScript_'
'Jako_'
'žen_'
'ími_'
'zahraniční_'
'young_'
'význam_'
'tomuto_'
't'
'strategie_'
'mail_'
'lety_'
'industrial_'
'aci_'
'York_'
'Vzhledem_'
'Tour_'
'Many_'
'Africa_'
'500_'
'29_'
'won_'
'vzdělávání_'
'veřejných_'
'trying_'
'sts_'
'soudní_'
'snad_'
'sed_'
'risks_'
'režimu_'
'providing_'
'prospěch_'
'pokračovat_'
'patří_'
'paragraph_'
'nástroje_'
'nová_'
'konkrétní_'
'job_'
'hour_'
'hodin_'
'ding_'
'demokracie_'
'd'
'consequences_'
'certainly_'
'brought_'
'added_'
'Star_'
'výši_'
'trhů_'
'spolu_'
'six_'
'rozsahu_'
'require_'
'reached_'
'předpisů_'
'prostředků_'
'potravin_'
'osob_'
'on'
'maintenance_'
'lépe_'
'largest_'
'internetové_'
'consumers_'
'ano_'
'While_'
'Russian_'
'November_'
'Myslím_'
'More_'
'Middle_'
'Currency_'
'Británie_'
'?" _'
'via_'
'ure_'
'ur'
'solidarity_'
'ru_'
'riziko_'
'regionu_'
'příležitost_'
'proposed_'
'pressure_'
'message_'
'late_'
'krizi_'
'jednu_'
'importance_'
'famous_'
'everyone_'
'consider_'
'cké_'
'budete_'
'began_'
'alespoň_'
'Legal_'
'Government_'
'First_'
'Ano_'
'200_'
'zákona_'
'webu_'
'války_'
'vyžaduje_'
'version_'
'třídy_'
'spending_'
'source_'
'skou_'
'regime_'
'proces_'
'opravdu_'
'opportunities_'
'oblastí_'
'nákladů_'
'ine_'
'hosty_'
'historical_'
'ging_'
'events_'
'důvodů_'
'decided_'
'cities_'
'carbon_'
'South_'
'OSN_'
'January_'
'Do'
'Další_'
'45_'
'35_'
',“ _'
'ští_'
'át_'
'zájmu_'
'types_'
'stejné_'
'spíše_'
'použít_'
'ory_'
'obvykle_'
'ným_'
'mám_'
'ká_'
'hot_'
'fo'
'elegant_'
'comfort_'
'comes_'
'War_'
'Staff_'
'III_'
'ímu_'
'video_'
'ties_'
'tic_'
'takes_'
'study_'
'rezervace_'
'protect_'
'prosince_'
'principles_'
'použijte_'
'politics_'
'podniků_'
'ované_'
'otázka_'
'objectives_'
'názoru_'
'možnosti_'
'monetary_'
'leading_'
'kolem_'
'jší_'
'increasing_'
'huge_'
'hodnocení_'
'fine_'
'develop_'
'deep_'
'activity_'
'Microsoft_'
'Is_'
'Click_'
'života_'
'Španělsko_'
'ři_'
'času_'
'ze'
'wide_'
'výboru_'
'vytvořit_'
'users_'
'user_'
'síly_'
'section_'
'purpose_'
'previous_'
'počtu_'
'net'
'nebyla_'
'mého_'
'ladies_'
'každém_'
'integration_'
'gs_'
'forces_'
'f'
'existují_'
'door_'
'death_'
'cut_'
'convenient_'
'contact_'
'commitment_'
'Te'
'Such_'
'Spa_'
'Ri'
'Inn_'
'Díky_'
'Development_'
'Brussels_'
'Book_'
'32_'
' . _'
'“, _'
'úroveň_'
'Ú'
'záležitosti_'
'rich_'
'programy_'
'ping_'
'patients_'
'parkování_'
'nemá_'
'nejlepší_'
'mentioned_'
'jinak_'
'jedna_'
'instead_'
'dní_'
'content_'
'consumption_'
'ans_'
'Yes_'
'Then_'
'Terrace_'
'San_'
'Od_'
'Obama_'
'Německo_'
'!"_'
'účelem_'
'zpoplatněny_'
'zavedení_'
'turned_'
'tolik_'
'starší_'
'snaží_'
'sent_'
'příležitosti_'
'produktů_'
'politik_'
'please_'
'pa'
'ovali_'
'otázce_'
'official_'
'menu_'
'každé_'
'intended_'
'ina_'
'dlouho_'
'di_'
'challenge_'
'Your_'
'S'
'Rusko_'
'Le'
'IT_'
'His_'
'From_'
'Although_'
'300_'
'06_'
'životní_'
'áme_'
'www_'
'wrong_'
'w'
'voice_'
'toward_'
'sám_'
'st'
'sebou_'
'rozpočtu_'
'ring_'
'relating_'
'receive_'
'postup_'
'postavení_'
'poskytnout_'
'plánu_'
'opět_'
'nižší_'
'největší_'
'instantly_'
'ian_'
'emi_'
'elections_'
'decades_'
'chce_'
'challenges_'
'became_'
'avoid_'
'av'
'Ru'
'Jestliže_'
'Ireland_'
'v'
'ter'
'sources_'
'roky_'
'přitom_'
'produce_'
'odpovědnost_'
'nového_'
'lidi_'
'l'
'jednotlivých_'
'jaké_'
'ial_'
'hear_'
'fear_'
'efficient_'
'effectively_'
'despite_'
'courts_'
'celou_'
'average_'
'ati'
'aniž_'
'accept_'
'X'
'Tak_'
'September_'
'Pa'
'Great_'
'Garden_'
'Doprava_'
'%, _'
'ův_'
'změnit_'
'zhruba_'
'up'
'unemployment_'
'und_'
'throughout_'
'tes_'
'te'
'search_'
'reformy_'
'prezidenta_'
'oblast_'
'novou_'
'nesmí_'
'nastavení_'
'např_'
'máte_'
'mis'
'metres_'
'lost_'
'komisaři_'
'innovation_'
'i'
'floor_'
'establishment_'
'entry_'
'enter_'
'důsledky_'
'cover_'
'communication_'
'attractions_'
'answer_'
'add_'
'abych_'
'W'
'Street_'
'Out_'
'Madrid_'
'Hlídání_'
'? _'
''._'
'žádost_'
'životního_'
'Číny_'
'úlohu_'
'é'
'výrobků_'
'viz_'
'violence_'
'u'
'třetí_'
'supported_'
'successful_'
'státům_'
'speak_'
'sektoru_'
'přijetí_'
'prezident_'
'potřeba_'
'pod'
'note_'
'nap'
'minut_'
'matters_'
'laid_'
'labor_'
'jenž_'
'jednat_'
'increasingly_'
'heard_'
'formulář_'
'failed_'
'deficit_'
'damage_'
'connection_'
']]._'
'Turkey_'
'Pod'
'Please_'
'Per'
'Fi_'
'05_'
'žádná_'
'zbraní_'
'ver_'
'students_'
'snadno_'
'ráda_'
'rozvojových_'
'read_'
'prevent_'
'president_'
'později_'
'powerful_'
'používání_'
'peaceful_'
'path_'
'packages_'
'out'
'osoby_'
'měsíců_'
'lives_'
'limited_'
'limit_'
'kroky_'
'jiného_'
'ické_'
'gi'
'g'
'ez'
'efficiency_'
'conference_'
'chvíli_'
'caused_'
'calls_'
'cal_'
'aware_'
'assets_'
'Unie_'
'RE'
'Presidency_'
'Party_'
'Le_'
'Economic_'
'Bo'
'Asia_'
'75_'
'ík_'
'| _'
'zpět_'
'x'
'warm_'
'vést_'
'vody_'
'visit_'
'victims_'
'ves_'
'unique_'
'training_'
'technologií_'
'team_'
'sound_'
'sobě_'
'smyslu_'
'server_'
'reality_'
'photo_'
'n'
'measure_'
'lidem_'
'knew_'
'jedná_'
'inflation_'
'ii_'
'himself_'
'h'
'funding_'
'focus_'
'ej_'
'ec_'
'ců_'
'context_'
'commercial_'
'claims_'
'claim_'
'circumstances_'
'ci'
'centru_'
'celý_'
'budoucnosti_'
'boj_'
'bility_'
'beyond_'
'ations_'
'anything_'
'an'
'Security_'
'March_'
'Just_'
'Iráku_'
'George_'
'Free_'
'EHS_'
'Child_'
'Byl_'
' /_'
'ženy_'
'řešit_'
'ěji_'
'ád'
'znění_'
'změn_'
'zat'
'y'
'volby_'
'vnitřní_'
's'
'pre_'
'potřeby_'
'pleasant_'
'online_'
'obavy_'
'náš_'
'nebudou_'
'naprosto_'
'mar'
'majority_'
'ma'
'learning_'
'hotels_'
'extent_'
'event_'
'dost_'
'domácí_'
'dohodu_'
'disease_'
'compromise_'
'cheap_'
'base_'
']], _'
'Zpráva_'
'Yet_'
'Wi_'
'Výboru_'
'Vý'
'Také_'
'Pen'
'OF_'
'Bu'
'Amsterdam_'
'95_'
'ť_'
'ře_'
'ä'
'Í_'
'změně_'
'window_'
'výdaje_'
'ví_'
'uz'
'umožní_'
'tri'
'threat_'
'shows_'
'seemed_'
'running_'
'podniky_'
'partners_'
'někdy_'
'nýbrž_'
'krok_'
'jte_'
'in'
'fall_'
'důvod_'
'dříve_'
'došlo_'
'dosud_'
'completely_'
'ck'
'ces_'
'ance_'
'aim_'
'Well_'
'Smlouvy_'
'Přesto_'
'Policy_'
'Most_'
'Korea_'
'14'
',' _'
'čtyři_'
'če_'
'září_'
'zase_'
'yt'
'výrobky_'
'vliv_'
'velkou_'
'uji_'
'součástí_'
'rozšíření_'
'reports_'
'release_'
'reforms_'
'reference_'
'recovery_'
'průmyslu_'
'proti'
'pracovat_'
'powers_'
'potřebujeme_'
'pokroku_'
'park_'
'neza'
'nearby_'
'nav'
'myslím_'
'listopadu_'
'lines_'
'jedním_'
'jasné_'
'grounds_'
'green_'
'game_'
'fuel_'
'forms_'
'financí_'
'eyes_'
'ey_'
'expected_'
'ence_'
'desk_'
'dat_'
'complex_'
'competent_'
'built_'
'beginning_'
'begin_'
'advanced_'
'achieved_'
'Ukraine_'
'Popis_'
'July_'
'GNU_'
'Can_'
' -- _'
'če'
'úvahu_'
'ó'
'vztahy_'
'vstupenek_'
'vo'
'velký_'
'terrorism_'
'tehdy_'
'technologies_'
'specified_'
'seem_'
'rizika_'
'prosím_'
'promote_'
'pravidel_'
'potřebné_'
'port_'
'platnost_'
'partnerství_'
'obyvatel_'
'obrovské_'
'násilí_'
'ner_'
'míry_'
'maximum_'
'materials_'
'massive_'
'kernel_'
'kept_'
'jestliže_'
'hor'
'emerging_'
'easily_'
'dopravy_'
'dangerous_'
'daleko_'
'cíl_'
'cross_'
'bot_'
'bodies_'
'ban'
'annual_'
'aly_'
'alternative_'
'agenda_'
'Sta'
'Since_'
'Other_'
'Mo'
'Inter'
'Europeans_'
'2'
'09_'
'%._'
'Č'
'à_'
'věc_'
'uk'
'thinking_'
'ten'
'technologie_'
'swimming_'
'speed_'
'sing_'
'simple_'
'sh_'
'různé_'
'responsible_'
'record_'
'reading_'
'příslušné_'
'processing_'
'pra'
'pom'
'performance_'
'ped_'
'panu_'
'oz'
'ovaly_'
'ou'
'osobní_'
'nějaké_'
'nepo'
'mé_'
'mo'
'kromě_'
'it'
'investic_'
'initiative_'
'felt_'
'establish_'
'else_'
'direction_'
'budoucnost_'
'aspects_'
'Shop_'
'Rodinné_'
'Radě_'
'Před_'
'Prime_'
'Plaza_'
'Pe'
'Family_'
'Evropu_'
'Bylo_'
') (_'
''' _'
'řadě_'
'čím_'
'člověk_'
'zásady_'
'wellness_'
'výzkum_'
'verze_'
'určité_'
'ukáže_'
'tried_'
'task_'
'talk_'
'systémů_'
'stavu_'
'starting_'
'stane_'
'sm_'
'served_'
'sectors_'
'se'
'ru'
'roli_'
'reduction_'
'přesně_'
'produced_'
'phone_'
'okamžitě_'
'offering_'
'občany_'
'obchod_'
'nější_'
'nástroj_'
'nd_'
'lou'
'link_'
'kterém_'
'kontroly_'
'ist_'
'hospodářský_'
'har'
'firmy_'
'era_'
'en'
'emisí_'
'el'
'dělat_'
'dokud_'
'dialogue_'
'contains_'
'card_'
'car'
'Web_'
'Vážený_'
'Ti'
'St_'
'Social_'
'Se'
'No'
'Nej'
'Latin_'
'IMF_'
'Finally_'
'., _'
', “_'
'řekla_'
'členskými_'
'zam'
'vaše_'
'usually_'
'useful_'
'tor_'
'tní_'
'svobody_'
'solutions_'
'rukou_'
'programs_'
'povinnost_'
'op'
'officials_'
'offered_'
'návrhů_'
'nikoliv_'
'nena'
'nedávno_'
'místní_'
'institucí_'
'happy_'
'gone_'
'facing_'
'establishing_'
'dostat_'
'cs_'
'criminal_'
'confidence_'
'changed_'
'cestách_'
'cenu_'
'bazén_'
'at'
'als_'
'UK_'
'Sauna_'
'Rome_'
'Re'
'MMF_'
'Kosovo_'
'Babysitting_'
'Avšak_'
'Arab_'
'01_'
'). _'
' ,,_'
'žádosti_'
'ř'
'ět_'
'čímž_'
'zemědělství_'
'zdá_'
'výsledek_'
'vhodné_'
'veřejného_'
'učinit_'
'ut'
'talking_'
'strategic_'
'stayed_'
'soubor_'
'sometimes_'
'směrnici_'
'sil_'
'serve_'
'saw_'
'rozvojové_'
'ro_'
'problému_'
'pozměňovací_'
'potřebuje_'
'pil'
'pi'
'ot_'
'options_'
'nut'
'net_'
'mění_'
'month_'
'middle_'
'mezinárodních_'
'met_'
'maintain_'
'k'
'justice_'
'inter'
'implemented_'
'ground_'
'fy_'
'formy_'
'fair_'
'external_'
'expect_'
'dvěma_'
'dohoda_'
'demokracii_'
'dan'
'criteria_'
'contribute_'
'buffet_'
'ated_'
'ard_'
'applications_'
'agreements_'
'Ver'
'University_'
'Trek_'
'Therefore_'
'Skupina_'
'Only_'
'Old_'
'Od'
'October_'
'Navíc_'
'Itálie_'
'Fitness_'
'El'
'Du'
'DVD_'
'AR'
'42_'
'196'
'řádu_'
'ň_'
'činnost_'
'června_'
'Čištění_'
'z'
'wanted_'
'výzkumu_'
'výdajů_'
'vin'
'ut_'
'umožňuje_'
'ul_'
'ue_'
'transfer_'
'takový_'
'studies_'
'spojení_'
'selected_'
'regulations_'
'regards_'
'regarding_'
'pět_'
'prvním_'
'pou'
'ováním_'
'ována_'
'original_'
'om'
'ob'
'nikdo_'
'našeho_'
'mas'
'loss_'
'links_'
'j'
'influence_'
'hands_'
'ges_'
'fond_'
'failure_'
'election_'
'ekonomické_'
'dis'
'defined_'
'decide_'
'contribution_'
'board_'
'attack_'
'art_'
'allowed_'
'administrative_'
'Ticket_'
'Pi'
'Možná_'
'Lo'
'Jo'
'Di'
'CA'
'16'
'ány_'
'zájmy_'
'způsoby_'
'zdravotní_'
'worked_'
'významné_'
'vztahů_'
'vede_'
'uses_'
'týče_'
'stí_'
'strana_'
'stran_'
'stalo_'
'soudržnosti_'
'si'
'schopnost_'
'school_'
'sazby_'
'rozdíl_'
'reduced_'
'rady_'
'prepared_'
'podporovat_'
'persons_'
'ovány_'
'němž_'
'nu'
'neod'
'nad'
'movement_'
'moderní_'
'laws_'
'konečně_'
'konci_'
'hospodářskou_'
'ho'
'hle_'
'getting_'
'generally_'
'fixed_'
'finally_'
'expenditure_'
'equal_'
'energetické_'
'ela_'
'dollar_'
'dle_'
'dit_'
'district_'
'den'
'daily_'
'bi'
'avast_'
'aných_'
'amendments_'
'al'
'aimed_'
'Tra'
'Teď_'
'Rád_'
'Rozhodnutí_'
'Rights_'
'PO'
'Nice_'
'Having_'
'Gra'
'EL_'
'Convention_'
'96_'
'92_'
'2015_'
'.)_'
'.'
' ''_'
'whom_'
'vzdělání_'
'vedení_'
've'
'těmto_'
'tool_'
'stávajících_'
'sem_'
'science_'
'scale_'
'ročně_'
'ropy_'
'review_'
'relation_'
'regulatory_'
'properly_'
'programů_'
'používat_'
'places_'
'ova_'
'nimi_'
'mission_'
'material_'
'mapě_'
'learn_'
'includes_'
'implement_'
'hy_'
'hi'
'ght_'
'ge'
'furnished_'
'follow_'
'daně_'
'da'
'concern_'
'chování_'
'choose_'
'centra_'
'anyone_'
'affected_'
'PT_'
'Oh_'
'National_'
'Mám_'
'Ju'
'Jeho_'
'He'
'Description_'
'Da'
'Austria_'
'88_'
'37_'
'08_'
'"'
' –, _'
' ) ._'
'říct_'
'členským_'
'závazky_'
'zone_'
'written_'
'worth_'
'val_'
'ur_'
'uni'
'un'
'ub'
'tě'
'též_'
'taxes_'
'svými_'
'started_'
'stars_'
'spa_'
'ser'
'rt'
'round_'
'přibližně_'
'proper_'
'projektu_'
'problémů_'
'pov'
'post_'
'pokrok_'
'or'
'odpověď_'
'občané_'
'nor_'
'nikoli_'
'nearly_'
'naopak_'
'methods_'
'mal'
'lu'
'ler_'
'kých_'
'ko_'
'highly_'
'guarantee_'
'fiskální_'
'eur_'
'eth'
'ením_'
'diskuse_'
'de'
'cestu_'
'cen'
'applied_'
'aktualizace_'
'Ro'
'Palestinian_'
'NE'
'Ke'
'Jsou_'
'Italian_'
'Gar'
'Britain_'
'Bar'
'1990_'
'ž'
'Ã_'
'změnu_'
'vývoj_'
'vztahu_'
'vr'
'vedoucí_'
'variety_'
'trust_'
'stand_'
'skupin_'
'send_'
'režim_'
'res_'
'průmysl_'
'prosperity_'
'pravdu_'
'posílení_'
'politice_'
'podíl_'
'podporuje_'
'podpora_'
'opening_'
'older_'
'nosti_'
'neo'
'nejvyšší_'
'map_'
'ln'
'latest_'
'lat'
'joint_'
'jestli_'
'issued_'
'intervention_'
'independent_'
'illegal_'
'id_'
'hodnotu_'
'happened_'
'fondu_'
'fishing_'
'ejte_'
'ded_'
'crime_'
'chcete_'
'cesty_'
'bio'
'ba'
'abyste_'
'Zahrada_'
'Villa_'
'Un'
'Suite_'
'Právě_'
'Protože_'
'PPE_'
'Nations_'
'Located_'
'Li'
'Last_'
'Human_'
'Har'
'Ha'
'Během_'
': „_'
'33_'
'!" _'
'ů'
'ří_'
'řadu_'
'úplně_'
'ících_'
'zůstává_'
'zvýšit_'
'wants_'
'využívat_'
'ver'
'van'
'uvedených_'
'utí_'
'unless_'
'ul'
'ukazuje_'
'tro'
'thumbnail_'
'target_'
'stanovení_'
'společného_'
'snížit_'
'slova_'
'shuttle_'
'selection_'
'rámec_'
'reducing_'
'případ_'
'přistýlky_'
'pár_'
'programmes_'
'politickou_'
'plans_'
'parents_'
'ován_'
'o'
'minimum_'
'levé_'
'let'
'ism_'
'inside_'
'granted_'
'giving_'
'ero'
'duty_'
'doubt_'
'domů_'
'distribution_'
'disk_'
'cosy_'
'ce'
'c'
'build_'
'bodu_'
'ato'
'argument_'
'Velká_'
'Ty_'
'Shuttle_'
'Ruska_'
'Resort_'
'Mu'
'Mediterranean_'
'Ještě_'
'Her'
'God_'
'Full_'
'De_'
'Co'
'Church_'
'According_'
'í'
'základních_'
'zařízených_'
'zahájení_'
'wonderful_'
'union_'
'týkajících_'
'tk'
'takto_'
'souboru_'
'ran'
'pu'
'postoj_'
'pon'
'overall_'
'orgánů_'
'ones_'
'občanům_'
'nění_'
'někteří_'
'ná'
'nevy'
'nemají_'
'nejméně_'
'nej'
'minulosti_'
'mikro'
'man'
'li'
'jaký_'
'hy'
'hospodářského_'
'hodinu_'
'hlasovat_'
'han'
'gen'
'garden_'
'files_'
'existence_'
'evropský_'
'ess_'
'enforcement_'
'ena_'
'elements_'
'ed'
'dát_'
'dostatečně_'
'dose_'
'dopad_'
'dob'
'dispute_'
'die_'
'determined_'
'dalším_'
'correct_'
'coffee_'
'closed_'
'cestě_'
'ační_'
'attempt_'
'approved_'
'animal_'
'ani'
'accepted_'
'a'
'Y'
'Station_'
'Software_'
'Shoe_'
'Plný_'
'Me'
'IS'
'Hu'
'Dnes_'
'Cor'
'?'
'55_'
'řečeno_'
'čních_'
'července_'
'Číně_'
'Členské_'
'ít_'
'zvláště_'
'zajistí_'
'zahraničí_'
'zabezpečení_'
'web_'
'veškeré_'
'velkých_'
'travel_'
'touto_'
'stock_'
'slovy_'
'sle'
'ries_'
'religious_'
'rd_'
'původu_'
'příloze_'
'přílohy_'
'před'
'possibility_'
'plus_'
'placed_'
'někdo_'
'názor_'
'no'
'ning_'
'ni'
'nebyly_'
'nat'
'ms_'
'metro_'
'lé'
'ly'
'len'
'kterého_'
'ka'
'ina'
'import_'
'immigration_'
'ha'
'except_'
'ensuring_'
'default_'
'cím_'
'covered_'
'conditioning_'
'cla'
'chtěla_'
'ch'
'celkové_'
'bro'
'appear_'
'anti'
'amerických_'
'Section_'
'Právní_'
'Opera_'
'Nyní_'
'Například_'
'John_'
'IP_'
'Here_'
'Fi'
'Egypt_'
': '
'38_'
'02'
'01'
')'
'е'
'ším_'
'říká_'
'člen_'
'úspěch_'
'íci_'
'áv'
'Á'
'zřejmě_'
'zřejmé_'
'značné_'
'zi'
'wo'
'weeks_'
'věku_'
'voting_'
'vojenské_'
'vládu_'
'uvedeného_'
'uch'
'tools_'
'to'
'thanks_'
'taková_'
'suite_'
'stage_'
'sociálních_'
'smlouva_'
'shops_'
'saying_'
'reakce_'
'produkty_'
'politici_'
'pocit_'
'pacientů_'
'otherwise_'
'ostatních_'
'okamžitou_'
'ok'
'oj'
'og'
'objective_'
'něm_'
'nutí_'
'nit'
'news_'
'nation_'
'monitoring_'
'ledna_'
'leadership_'
'kové_'
'king_'
'jít_'
'instalaci_'
'infrastruktury_'
'implementing_'
'ideální_'
'ical_'
'hen'
'happen_'
'eurozóny_'
'et'
'eri'
'ekonomika_'
'een_'
'dark_'
'convert_'
'chci_'
'cel'
'bod_'
'assessment_'
'ar'
'animals_'
'ana_'
'adequate_'
'Today_'
'Shine_'
'Saint_'
'První_'
'Pri'
'Prague_'
'Ob'
'Lu'
'Instead_'
'April_'
'Affairs_'
'15'
'ština_'
'Š'
'řada_'
'ňuje_'
'účely_'
'Írán_'
'zu'
'zo'
'woman_'
'wine_'
'white_'
'věcí_'
'vlád_'
'vlastně_'
'understanding_'
'tví_'
'tvoří_'
'trans'
'tra'
'telephone_'
'sitting_'
'scope_'
'při'
'přes'
'péče_'
'průběhu_'
'prostoru_'
'pohled_'
'pla'
'oči_'
'nit_'
'neexistuje_'
'nebezpečí_'
'moje_'
'lovely_'
'lov'
'letter_'
'ku'
'království_'
'jinými_'
'investors_'
'independence_'
'improving_'
'image_'
'hranice_'
'ga'
'function_'
'farmers_'
'fa'
'dí_'
'du'
'draft_'
'dlouhodobé_'
'che'
'bu'
'break_'
'bohužel_'
'attacks_'
'appeal_'
'amendment_'
'aj'
'\\_'
'Už_'
'USD_'
'Spanish_'
'Saw_'
'Ra'
'Pot'
'Os'
'Official_'
'Lisabonské_'
'Justice_'
'Jo_'
'Its_'
'Indie_'
'Health_'
'Financial_'
'Děkuji_'
'During_'
'CE_'
'Beach_'
'Barcelona_'
'Apartments_'
'Americans_'
': "_'
'48_'
'34_'
'* _'
'о'
'ěte_'
'ín'
'ární_'
'áno_'
'zůstat_'
'zí'
'zv'
'zemím_'
'zd'
'zaktivujete_'
'whereas_'
'většinu_'
'uvnitř_'
'treated_'
'sítě_'
'su_'
'statement_'
'ski_'
'seznamu_'
'schopnosti_'
'rural_'
'roz'
'rizik_'
'ready_'
'pí'
'pro'
'pri'
'plant_'
'par'
'ovalo_'
'organisations_'
'option_'
'operation_'
'oli'
'okamžiku_'
'obětí_'
'obě_'
'neu'
'nech'
'najdete_'
'mu'
'mp'
'mobility_'
'milk_'
'menší_'
'manage_'
'love_'
'liked_'
'lea'
'la'
'kapitálu_'
'jurisdiction_'
'instruments_'
'impossible_'
'hol'
'hlavních_'
'hip_'
'hal'
'goes_'
'gave_'
'er'
'encourage_'
'discrimination_'
'cuisine_'
'continued_'
'compared_'
'cold_'
'chtějí_'
'apartmá_'
'anebo_'
'allows_'
'ahead_'
'ably_'
'Zá'
'So'
'Sen'
'Q'
'Pak_'
'Má_'
'Jacuzzi_'
'Israeli_'
'Greek_'
'Go'
'Ed'
'Each_'
'Del'
'00'
'...._'
'–_'
'ěl_'
'činí_'
'zvířat_'
'vou_'
'vnější_'
'vnitrostátní_'
'těžké_'
'týden_'
'téma_'
'tu'
'terorismu_'
'tel_'
'svobodu_'
'shared_'
'scheme_'
'rozdělení_'
'ro'
'railway_'
'race_'
'přesto_'
'představují_'
'péči_'
'proof_'
'practices_'
'pot'
'politický_'
'planet_'
'ovací_'
'ochraně_'
'obecně_'
'nts_'
'najít_'
'můj_'
'mid_'
'method_'
'lí'
'lá'
'luxurious_'
'lies_'
'lidské_'
'lidská_'
'kle'
'join_'
'item_'
'is'
'ir_'
'iny_'
'ht'
'he'
'ger_'
'fire_'
'expensive_'
'důležitá_'
'děl'
'dr'
'dobrou_'
'dnešní_'
'combination_'
'chceme_'
'brzy_'
'bohatství_'
'binding_'
'areálu_'
'ara'
'applies_'
'adults_'
'Vol'
'Vi'
'Pro'
'Pos'
'NA'
'Ki'
'IV_'
'Global_'
'Gentoo_'
'GBP_'
'Eastern_'
'ES'
'Don_'
'Be'
'An'
'Al'
'Aby_'
'94_'
'27'
'1994_'
'1'
'ö'
'začít_'
'zaměstnanosti_'
'zacházení_'
'wealth_'
'weak_'
'vět'
'výbor_'
'vážně_'
'využívání_'
'vehicles_'
'um'
'těmito_'
'trzích_'
'transparency_'
'tourist_'
'tomorrow_'
'tit'
'státě_'
'stylish_'
'stránek_'
'správně_'
'spent_'
'speech_'
'sky_'
'ska_'
'sites_'
'represent_'
'relatively_'
'pursuant_'
'pouhých_'
'post'
'poskytuje_'
'podpoře_'
'payment_'
'passed_'
'následující_'
'normal_'
'nicméně_'
'nemusí_'
'nemohou_'
'moved_'
'mode_'
'mm_'
'min'
'manžel'
'ký_'
'konce_'
'ki'
'kar'
'kal'
'jedno_'
'hodně_'
'her'
'fresh_'
'fast_'
'exactly_'
'evening_'
'error_'
'ern'
'ekonomiku_'
'důkazy_'
'dubna_'
'dov'
'doporučení_'
'degree_'
'dar'
'creation_'
'cally_'
'boot_'
'back'
'arrival_'
'akce_'
'agencies_'
'advance_'
'ade'
']._'
'WTO_'
'Výbor_'
'Those_'
'Soukromé_'
'Sa'
'SV_'
'ST'
'Při'
'Putin_'
'Poslední_'
'Manhattan_'
'Ku'
'Ji'
'J_'
'In'
'Evropském_'
'Ben'
'25'
'2012_'
'и'
'že'
'ších_'
'ši'
'zákon_'
'začal_'
'ys_'
'yn'
'vědět_'
'využití_'
'ven_'
'tvrd'
'thereof_'
'territory_'
'summit_'
'ste'
'stav_'
'správné_'
'sociálního_'
'so'
'skupina_'
'series_'
'ry'
'rk'
'raised_'
'příjmy_'
'pěti_'
'prvního_'
'press_'
'practical_'
'potřebují_'
'populace_'
'poprvé_'
'pokojích_'
'podpořit_'
'peněz_'
'ovy_'
'osoba_'
'org_'
'oc'
'obou_'
'nez'
'nedo'
'měst_'
'ml_'
'manner_'
'judicial_'
'jméno_'
'jistě_'
'iv'
'investments_'
'internetu_'
'insurance_'
'ink'
'individuals_'
'http_'
'generation_'
'followed_'
'financing_'
'eva'
'equivalent_'
'ej'
'draw_'
'dluhu_'
'dal_'
'cího_'
'critical_'
'continues_'
'conclusion_'
'competitiveness_'
'committee_'
'chance_'
'carry_'
'by'
'budoucí_'
'box_'
'born_'
'až'
'autor'
'appears_'
'[[_'
'Zvukotěsné_'
'Young_'
'Všichni_'
'Su'
'Sea_'
'Poland_'
'PSE_'
'Obchod_'
'Některé_'
'Mon'
'Izrael_'
'Harry_'
'Dra'
'Domnívám_'
'Berlin_'
'93_'
'72_'
'65_'
'2011_'
','
'října_'
'čního_'
'ón_'
'ál_'
'zástupce_'
'zařízenými_'
'worldwide_'
'wing_'
'wan'
'wait_'
'vý_'
'vím_'
'vyt'
'usi'
'určitě_'
'uplatňování_'
'tří_'
'těm_'
'truth_'
'treaty_'
'tou_'
'terrace_'
'ta'
'studie_'
'structures_'
'strategii_'
'stal_'
'soudního_'
'skupinu_'
'seek_'
'sdělení_'
'rozhodně_'
'republiky_'
'prom'
'projektů_'
'payments_'
'participation_'
'ově_'
'ona_'
'om_'
'okolností_'
'obligation_'
'národů_'
'noise_'
'nes_'
'neh'
'navzdory_'
'míře_'
'mí'
'moral_'
'mohu_'
'medium_'
'le'
'kulturní_'
'ks_'
'kov'
'kompletní_'
'interested_'
'immediately_'
'immediate_'
'ier_'
'hlavním_'
'hit_'
'goals_'
'gar'
'for'
'dárky_'
'domnívám_'
'doesn_'
'determine_'
'details_'
'construction_'
'con_'
'comprehensive_'
'code_'
'chudoby_'
'can'
'budoucnu_'
'budgetary_'
'bra'
'bodě_'
'be'
'banking_'
'analysis_'
'ale'
'ak_'
'Většina_'
'Var'
'Uni'
'Thank_'
'Ten_'
'Stejně_'
'Star'
'SM'
'Royal_'
'Rovněž_'
'Romania_'
'Pří'
'Před'
'Pře'
'Pre'
'Pra'
'Pool_'
'People_'
'PA'
'Ni'
'Nařízení_'
'Euro'
'ER'
'Ci'
'Ca'
'CI'
'Because_'
'Area_'
'Archer_'
'47_'
'39_'
'. '
'),_'
' -_'
'še_'
'ějších_'
'členského_'
'úřadující_'
'účinné_'
'zemědělské_'
'zar'
'zaměstnanců_'
'založení_'
'zachování_'
'weight_'
'waste_'
'výkonu_'
'vyd'
'velká_'
'ujících_'
'tí'
'tvrdí_'
'tur'
'trip_'
'traffic_'
'tor'
'technological_'
'svá_'
'suvenýry_'
'su'
'str'
'slow_'
'ski'
'seeking_'
'satellite_'
'rozpočet_'
'rop'
'reservation_'
'relationship_'
'rad'
'purposes_'
'prostě_'
'prior_'
'povolen'
'považuje_'
'postupu_'
'podobě_'
'plynu_'
'ovn'
'otázek_'
'organizací_'
'opposition_'
'operations_'
'newly_'
'ned'
'multi'
'mother_'
'migration_'
'machine_'
'literature_'
'licence_'
'leader_'
'kon'
'klasifikovaný_'
'keeping_'
'jiný_'
'je'
'ish_'
'io_'
'institutional_'
'institution_'
'ing'
'identity_'
'hned_'
'hl_'
'ger'
'geo'
'eli'
'eb'
'easier_'
'dospělí_'
'dn'
'discussion_'
'corruption_'
'consideration_'
'compensation_'
'cho'
'changing_'
'businesses_'
'burden_'
'atd_'
'approval_'
'apartments_'
'alt'
'Wireless_'
'Val'
'To'
'Ta'
'System_'
'Swimming_'
'Naše_'
'Může_'
'Lake_'
'EHP_'
'Dále_'
'Bro'
'Bre'
'Bel'
'Bal'
'237'
'1998_'
', '
' > _'
'ي_'
'šen'
'číslo_'
'íl'
'áte_'
'zr'
'zor'
'začátku_'
'yk'
'ya'
'worse_'
'willing_'
'vyzývá_'
'vysoce_'
'vybavení_'
'update_'
'tudíž_'
'trochu_'
'tive_'
'tele'
'stv'
'stations_'
'spoke_'
'species_'
'someone_'
'smrti_'
'sm'
'sil'
'sha'
'rž'
'replaced_'
'remove_'
'relaxing_'
'raise_'
'queries_'
'přesvědčen_'
'prvé_'
'producers_'
'presented_'
'povinnosti_'
'poskytování_'
'pop'
'politicians_'
'plné_'
'physical_'
'paměti_'
'origin_'
'operating_'
'normy_'
'neměla_'
'musím_'
'mon'
'mini_'
'millions_'
'metrů_'
'medical_'
'maximální_'
'mainly_'
'luxury_'
'lt'
'listed_'
'kvality_'
'krizí_'
'každého_'
'ju'
'jednoduše_'
'ine'
'hřiště_'
'helped_'
'hair_'
'gro'
'gives_'
'friends_'
'finančního_'
'fantastic_'
'families_'
'fakt_'
'exist_'
'ene'
'dra'
'dialog_'
'decade_'
'dead_'
'closely_'
'click_'
'cht'
'celého_'
'bodem_'
'applicant_'
'alo'
'adoption_'
'Two_'
'Their_'
'Soviet_'
'Si'
'RO_'
'Nicméně_'
'Netherlands_'
'Muslim_'
'Mar'
'Location_'
'Každý_'
'Google_'
'Che'
'Before_'
'African_'
'Ab'
'://_'
'52_'
'3'
'1997_'
'17'
'04_'
'řídí_'
'ře'
'činností_'
'či'
'ü'
'ú'
'ít'
'ál'
'západní_'
'zen'
'zed_'
'východní_'
'válka_'
'vládní_'
'třetích_'
'tr'
'th'
'temporary_'
'targets_'
'takových_'
'structure_'
'star'
'stanovit_'
'standing_'
'sou'
'select_'
'sebe'
'sami_'
'rod'
'rig'
'ri_'
're'
'pří'
'představitelé_'
'přece_'
'published_'
'právního_'
'projekty_'
'produkce_'
'pojištění_'
'plants_'
'pit'
'per'
'ovým_'
'ovaných_'
'osobních_'
'oni'
'notice_'
'neš'
'networks_'
'ned_'
'navržen'
'namely_'
'mention_'
'managed_'
'linked_'
'lidmi_'
'latter_'
'kol_'
'ko'
'ke'
'ji'
'jenom_'
'jelikož_'
'jejích_'
'inform_'
'goal_'
'friend_'
'fe'
'eš_'
'evropskou_'
'es'
'enormous_'
'dá_'
'don'
'do'
'differences_'
'dialogu_'
'dia'
'creating_'
'core_'
'controls_'
'contain_'
'competitive_'
'cars_'
'ca'
'bu_'
'boji_'
'bez'
'bar'
'alo_'
'aims_'
'ah_'
'adopt_'
']_'
'Zároveň_'
'Us'
'USS_'
'Turecko_'
'Svatební_'
'Sm'
'Sal'
'Portugal_'
'Polish_'
'Phlox_'
'Ne'
'Musí_'
'Ma'
'ME'
'La'
'Islamic_'
'Gaza_'
'Fu'
'Dan'
'DI'
'CS_'
'AD'
'91_'
'22'
'11'
'žít_'
'žádnou_'
'ště'
'škody_'
'ěr'
'čním_'
'čist'
'úrovně_'
'áz'
'základ_'
'znám'
'zná'
'zdůraznit_'
'zatím_'
'yourself_'
'widely_'
'všeho_'
'výsledků_'
'vol'
'vlastnictví_'
'var'
'uvádí_'
'une'
'tým_'
'ti'
'takového_'
'státních_'
'structural_'
'strengthen_'
'stood_'
'sti'
'stanovisko_'
'stala_'
'spread_'
'spojen'
'sleep_'
'sen'
'screen_'
'scientific_'
'rom'
'rn'
'rising_'
'resulting_'
'requested_'
'removed_'
'reasonable_'
'rea'
'rapid_'
'příležitostí_'
'příklad_'
'ps'
'productivity_'
'pravomoci_'
'poslanci_'
'politická_'
'pn'
'pleased_'
'pin'
'ot'
'organisation_'
'odpovědi_'
'odi'
'obtained_'
'obtain_'
'obligations_'
'nějaký_'
'ními_'
'národních_'
'neob'
'nejprve_'
'negative_'
'mě'
'mer'
'led'
'largely_'
'labour_'
'jiným_'
'jejím_'
'ič'
'ious_'
'introduction_'
'increases_'
'incentives_'
'hu'
'highest_'
'fund_'
'forced_'
'factors_'
'ered_'
'entered_'
'ekonomice_'
'druhou_'
'dohodě_'
'dly_'
'denně_'
'daní_'
'communities_'
'commitments_'
'carefully_'
'cal'
'bá'
'budu_'
'break'
'bly_'
'berg_'
'ber'
'au_'
'ating_'
'ana'
'XviD_'
'Town_'
'TE'
'Server_'
'Roz'
'Port'
'PC_'
'Ostatní_'
'Německu_'
'Network_'
'Na'
'Mer'
'Kon'
'Jejich_'
'Je'
'IC'
'Ho'
'Gi'
'February_'
'Es'
'En'
'El_'
'Dea'
'David_'
'DO'
'Code_'
'Centrum_'
'Bezdrátové_'
'Ber'
'Articles_'
'Amerika_'
'Also_'
'86_'
'44_'
'39'
'2020_'
'13'
'л'
'škol'
'šel_'
'členy_'
'účinnosti_'
'úrokové_'
'ws_'
'výjimkou_'
'vyn'
'vl'
'village_'
'vaší_'
'us'
'určení_'
'ud'
'touch_'
'tohle_'
'tis'
'testing_'
'technické_'
'subsidies_'
'stávající_'
'stated_'
'staré_'
'spotřebitelů_'
'společný_'
'spoken_'
'současně_'
'sort_'
'slovo_'
'slab'
'sir_'
'sel'
'samo'
'rozprava_'
'renovated_'
'remember_'
'reforem_'
'recommend_'
'recognition_'
'qui'
'příští_'
'přípravku_'
'ps_'
'procent_'
'pracovníků_'
'polo'
'plnění_'
'picture_'
'pan'
'oš'
'ode'
'od'
'obsah_'
'nástrojů_'
'nti'
'nev'
'možností_'
'modified_'
'mo_'
'mi'
'memory_'
'meaning_'
'mate'
'malých_'
'lu_'
'lní_'
'las_'
'kur'
'jakým_'
'introduced_'
'interesting_'
'integrace_'
'installed_'
'iniciativy_'
'informed_'
'imports_'
'ide_'
'humanitarian_'
'hu_'
'hodnot_'
'go'
'ga_'
'fisheries_'
'father_'
'expressed_'
'express_'
'expectations_'
'ets_'
'eti'
'elected_'
'ei'
'děje_'
'dé'
'dos'
'deseti_'
'der'
'definition_'
'ct_'
'contemporary_'
'committed_'
'cení_'
'buď_'
'booking_'
'boje_'
'black_'
'bath_'
'balcony_'
'ay_'
'auto'
'arms_'
'appeared_'
'ant'
'amenities_'
'air'
'Vaše_'
'Ty'
'Thus_'
'Text_'
'Tal'
'Soundproofed_'
'Second_'
'Ol'
'Návrh_'
'Měli_'
'Mezinárodní_'
'Mexico_'
'Journal_'
'Fa'
'Dom'
'Despite_'
'Com'
'Chtěl_'
'Byla_'
'Bruselu_'
'Ba'
'BO'
'B6_'
'Asian_'
'?“_'
'8'
'64_'
'35'
'23'
'02_'
'0'
');_'
'—_'
'ží_'
'Ř'
'členů_'
'účast_'
'áni_'
'zne'
'zahrnuje_'
'yp'
'ware_'
'ward_'
'wall_'
'vývoje_'
'výrazně_'
'válce_'
'vytvořen'
'vynikající_'
'vnitrostátních_'
'vi_'
'ust'
'udržet_'
'typical_'
'syn'
'sufficient_'
'stable_'
'spravedlnosti_'
'společnou_'
'sh'
'seriously_'
'secure_'
'save_'
'sauna_'
'sama_'
'sal'
'ruce_'
'ros'
'rest'
'relative_'
'přispět_'
'přinejmenším_'
'písm_'
'publication_'
'provision_'
'provedení_'
'prop'
'priorities_'
'prime_'
'primary_'
'presence_'
'praxi_'
'počátku_'
'používají_'
'potom_'
'postupy_'
'politického_'
'podstatě_'
'plu'
'over'
'ovaný_'
'ously_'
'oprávněn'
'oproti_'
'odstranění_'
'odp'
'ochotn'
'obědu_'
'ns'
'nově_'
'neměli_'
'nd'
'nations_'
'nam'
'měsíce_'
'ms'
'možno_'
'moře_'
'mn'
'men'
'membership_'
'meant_'
'me'
'majetku_'
'lodi_'
'lo'
'leží_'
'leisure_'
'května_'
'kt'
'krát_'
'kg_'
'jich_'
'jednotlivé_'
'jakou_'
'jaderných_'
'instance_'
'hvězdičkami_'
'ged_'
'funkce_'
'fish_'
'film_'
'fellow_'
'eno_'
'ef'
'důvěru_'
'důvody_'
'dohod_'
'decline_'
'dam'
'couldn_'
'corporate_'
'concrete_'
'combined_'
'collapse_'
'bit'
'bear_'
'bal'
'associated_'
'article_'
'appointed_'
'agentury_'
'accession_'
'Win'
'Vo'
'Sto'
'SA'
'Pu'
'Once_'
'Ka'
'IT'
'Evropským_'
'Ernst_'
'EC'
'Den'
'Cel'
'Bude_'
'Bra'
'Barroso_'
'Bad_'
'BA'
'Až_'
'August_'
'Are_'
'Ameriky_'
'36_'
'30'
'198'
'.._'
'špatně_'
'ňování_'
'ěž'
'ějším_'
'člověka_'
'čil_'
'čen'
'úřadu_'
'ét'
'Í'
'zástupci_'
'změna_'
'zi_'
'zavést_'
'zaměstnanost_'
'weapons_'
'wasn_'
'věd'
'výkon_'
'vzájemně_'
'voters_'
'vid'
'verzi_'
'twice_'
'trading_'
'tours_'
'top'
'sílu_'
'super'
'suitable_'
'substance_'
'strength_'
'stn'
'sport_'
'spolupracovat_'
'spojené_'
'součást_'
'ském_'
'severe_'
'serveru_'
'separate_'
'sch'
'san'
'rozvoji_'
'rozhodla_'
'rh'
'reakci_'
'případů_'
'případně_'
'předtím_'
'pre'
'postupů_'
'pos'
'pohybu_'
'podání_'
'po'
'pages_'
'outcome_'
'ost'
'osi'
'orgán_'
'oh'
'obe'
'obchodování_'
'něn'
'ném_'
'numbers_'
'nic'
'ng'
'nepro'
'mý'
'má'
'muži_'
'music_'
'motor'
'mos'
'mne_'
'mise_'
'malý_'
'lin'
'lhůty_'
'lai'
'kv'
'kontakt'
'kolik_'
'jících_'
'ip'
'integrated_'
'install_'
'industries_'
'indi'
'ie'
'ideas_'
'ici'
'hr'
'hov'
'hospodářská_'
'hood_'
'hodnota_'
'hlavu_'
'hlad'
'governance_'
'gli'
'gain_'
'fruit_'
'fondy_'
'ffe'
'eň'
'exercise_'
'eventually_'
'equality_'
'entirely_'
'emise_'
'duties_'
'doufám_'
'doručení_'
'demands_'
'customs_'
'cu'
'crucial_'
'consensus_'
'comments_'
'colleagues_'
'cohesion_'
'clients_'
'chránit_'
'cestou_'
'causes_'
'byt'
'bankovní_'
'au'
'allowing_'
'acts_'
'Tu'
'Syria_'
'SE'
'Po'
'Pan'
'PE'
'NEW_'
'Mac'
'Irish_'
'Hlavní_'
'Hi'
'Gre'
'Gen'
'Fe'
'Existuje_'
'Conference_'
'Am'
'Ah'
'77_'
'31'
'1995_'
'150_'
'šn'
'š'
'řad'
'Řecko_'
'ěné_'
'částky_'
'čt'
'úřad_'
'én'
'án'
'zab'
'ys'
'warming_'
'vě_'
'východě_'
'vy'
'vp'
'votes_'
'vital_'
'vidět_'
'ven'
'vac'
'učitel'
'usa'
'určitých_'
'ude'
'tik'
'tests_'
'summer_'
'suffered_'
'substances_'
'sis_'
'silně_'
'sights_'
'says_'
'rostoucí_'
'residence_'
'příjmů_'
'prove_'
'požádat_'
'pořádku_'
'používá_'
'potřebu_'
'poněvadž_'
'poly'
'playing_'
'pis'
'pe'
'otázkách_'
'os'
'obzvláště_'
'němu_'
'nějakou_'
'nými_'
'nedávné_'
'named_'
'najevo_'
'musíte_'
'minority_'
'minimální_'
'met'
'lim'
'legislative_'
'leaving_'
'konec_'
'kitchen_'
'každou_'
'ir'
'intellectual_'
'instrument_'
'im_'
'ied_'
'ide'
'hin'
'gre'
'gap_'
'ft_'
'formě_'
'fitness_'
'firms_'
'firem_'
'fer'
'ek'
'eat_'
'dů'
'dosaženo_'
'dny_'
'disaster_'
'dalšími_'
'concept_'
'collective_'
'clo'
'category_'
'bri'
'bound_'
'borders_'
'bonds_'
'bol'
'ber_'
'banka_'
'accounts_'
'Zo'
'Ze'
'Which_'
'Wa'
'Ve'
'Tro'
'Sha'
'Set_'
'Roma_'
'Report_'
'Rep'
'Regional_'
'Prostor_'
'Ph'
'Par'
'PRO'
'Ná'
'Nu'
'Mezi_'
'LI'
'Jsme_'
'Japonsko_'
'Jak'
'IA'
'Hel'
'Hamas_'
'HIV_'
'Gu'
'Given_'
'Furthermore_'
'Fed_'
'Every_'
'Enjoy_'
'EN'
'EF'
'Dobře_'
'De'
'Cap'
'Bicycle_'
'Balíčky_'
'Ať_'
'Auto'
'Ani_'
'Ad'
'Act_'
'87_'
'20'
'195'
'+_'
' "'
'živ'
'è'
'zásad_'
'zodpovědnost_'
'zní_'
'zjistit_'
'začíná_'
'zap'
'výsledkem_'
'váš_'
'vzít_'
'vys'
'vel'
'vedle_'
'uš'
'uznání_'
'uv'
'uns'
'tře'
'tržní_'
'tional_'
'thousands_'
'sy_'
'supposed_'
'subsidiarity_'
'stu'
'strongly_'
'stress_'
'stranu_'
'sr'
'správy_'
'south_'
'soudních_'
'signal_'
'seven_'
'sanctions_'
'samotné_'
'sale_'
'sa'
'rezervovat_'
'reported_'
'ren'
'reg'
'referendum_'
'recession_'
'přip'
'přináší_'
'přestože_'
'prvky_'
'provozu_'
'počítače_'
'povolení_'
'postupně_'
'pol'
'podat_'
'paper_'
'oč'
'oznámení_'
'ovými_'
'otázkou_'
'opi'
'opened_'
'oo'
'občanské_'
'nest'
'neither_'
'natolik_'
'mus_'
'mobile_'
'mnohé_'
'ming_'
'mid'
'mezinárodním_'
'látky_'
'looks_'
'lic'
'levné_'
'lep'
'lad'
'knows_'
'ken'
'jiná_'
'ingly_'
'gon'
'games_'
'fungování_'
'fort'
'foot_'
'fondů_'
'figure_'
'fen'
'eta'
'ese_'
'ent'
'dítěte_'
'des'
'decorated_'
'dealing_'
'cuts_'
'coordination_'
'communications_'
'cky_'
'charming_'
'character_'
'candidate_'
'broad_'
'blood_'
'becoming_'
'asking_'
'arrangements_'
'architecture_'
'ai'
'agriculture_'
'ada'
'absence_'
'Ya'
'Will_'
'US'
'UR'
'Ten'
'Slov'
'Situated_'
'Samozřejmě_'
'Plat'
'Paul_'
'Ok'
'OR'
'Nem'
'NL_'
'Martin_'
'Lebanon_'
'Japanese_'
'Ja'
'Golf_'
'Ge'
'Excellent_'
'Euro_'
'Er'
'EM'
'Dalším_'
'Club_'
'Bulgaria_'
'Bridal_'
'Bor'
'Bez_'
'Any_'
'Africe_'
'?'_'
'43_'
'4'
'24'
'193'
'. _'
'!'
' -, _'
'с'
'šk'
'šest_'
'ří'
'řen'
'členství_'
'čem_'
'čelí_'
'č'
'ús'
'ó_'
'áž'
'ává_'
'át'
'zásadě_'
'zpátky_'
'zemědělských_'
'zan'
'zabránit_'
'win_'
'výroby_'
'vítězství_'
'vztahuje_'
'upgrade_'
'und'
'una_'
'ts'
'tho'
'thereby_'
'television_'
'tebe_'
'tea_'
'síť_'
'spojených_'
'spend_'
'specifically_'
'snižování_'
'significantly_'
'sho'
'rt_'
'rozdíly_'
'restore_'
'regiony_'
'recommended_'
'radio_'
'que'
'právem_'
'prostor_'
'pozitivní_'
'positions_'
'podařilo_'
'personnel_'
'pas'
'označen_'
'oti'
'ore'
'oprav'
'operace_'
'název_'
'nárok_'
'nt'
'novým_'
'noisy_'
'noci_'
'nejvíce_'
'nar'
'nab'
'měnové_'
'mot'
'mor'
'mono'
'meetings_'
'med_'
'mb'
'mark_'
'manželství_'
'lí_'
'lib'
'lev'
'les'
'kop'
'koliv_'
'jaderné_'
'informační_'
'inflace_'
'improved_'
'ik'
'ica'
'há'
'humanitární_'
'hro'
'hotelových_'
'hlavy_'
'globálního_'
'gan'
'ft'
'flu'
'fields_'
'feed_'
'extreme_'
'ext'
'ering_'
'ere'
'ens_'
'english_'
'element_'
'earlier_'
'dění_'
'doma_'
'dinner_'
'detailed_'
'deset_'
'crew_'
'containing_'
'condition_'
'completed_'
'chy_'
'chi'
'cer'
'cable_'
'března_'
'books_'
'bn'
'bet'
'balíčku_'
'am'
'affect_'
'aci'
'Zv'
'Ur'
'Unfortunately_'
'Tri'
'Trade_'
'Tom'
'Světové_'
'Souvenirs_'
'Sou'
'Son'
'Solarium_'
'SO'
'Rom'
'Residence_'
'Přestože_'
'Pov'
'Or_'
'Musím_'
'Minutes_'
'Language_'
'LO'
'Kom'
'Kar'
'Jen_'
'Is'
'Imp'
'Gift_'
'Georgia_'
'Ga'
'Fran'
'Far'
'Doufám_'
'Dis'
'DA'
'Argentina_'
'Another_'
'Afghanistan_'
'99_'
'98_'
'66_'
'46_'
'400_'
'26'
'250_'
'- (_'
') '
'т'
'žije_'
'ěz'
'ěl'
'členský_'
'čele_'
'Úř_'
'Íránu_'
'É'
'zlo'
'zk'
'zing_'
'zavádění_'
'zaměřen'
'yš'
'yl'
'yb'
'xe'
'wider_'
'wi'
'všemi_'
'vyv'
'vysokou_'
'vo_'
'vn'
'uzavřen'
'uta'
'urban_'
'ubytovny_'
'týkají_'
'trend_'
'tan'
'tal_'
'supporting_'
'strengthening_'
'storage_'
'stopped_'
'sse'
'square_'
'spo'
'sol'
'sledovat_'
'skutečností_'
'skills_'
'shift_'
'schválení_'
'rámce_'
'ruš'
'ruku_'
'rol'
'regionů_'
'refugees_'
'recommendations_'
'rch'
'rc'
'raz'
'příspěvek_'
'příjezdu_'
'předložit_'
'problémem_'
'presidential_'
'prepare_'
'pravda_'
'posílit_'
'poslanců_'
'podobné_'
'platit_'
'pl'
'permanent_'
'partnership_'
'panel_'
'oř'
'ow_'
'oteplování_'
'ok_'
'obchodních_'
'nutná_'
'nezaměstnanosti_'
'nepře'
'neměl_'
'našem_'
'naděje_'
'moving_'
'mezi'
'mechanism_'
'kuřáky_'
'kor'
'kami_'
'jazyk_'
'iti'
'invest_'
'instalace_'
'ile'
'ih'
'ideally_'
'hovořit_'
'hostel_'
'host_'
'horší_'
'hlas_'
'hardware_'
'grant_'
'globalizace_'
'furniture_'
'functioning_'
'feet_'
'fan'
'fail_'
'factor_'
'expression_'
'experts_'
'ex_'
'ethnic_'
'era'
'electricity_'
'eight_'
'ech'
'drop_'
'dro'
'dovolit_'
'dojde_'
'dluh_'
'diseases_'
'difficulties_'
'difference_'
'described_'
'demokratické_'
'dal'
'cur'
'creditors_'
'cor'
'contrast_'
'command_'
'cle'
'cit'
'charges_'
'buildings_'
'bin'
'bank'
'arrived_'
'ard'
'aktivity_'
'Za'
'Wi'
'Vice_'
'Tan'
'See_'
'Note_'
'Net'
'Navzdory_'
'Mal'
'MI'
'LA'
'Komisí_'
'Jde_'
'Jaké_'
'Ir'
'Ham'
'Get_'
'Francii_'
'Foreign_'
'Est'
'Earth_'
'Croatia_'
'Afghánistánu_'
'AS'
'ALDE_'
'A6_'
'41'
'29'
'...'
')(_'
' %._'
'řá'
'Ě'
'čínské_'
'členském_'
'účinnost_'
'února_'
'úkol_'
'íš_'
'íz'
'závazné_'
'zvýšen'
'zpráv_'
'zlepšit_'
'zdarma_'
'ya_'
'west_'
'war'
'všechna_'
'věnovat_'
'výrobu_'
'víme_'
'volbách_'
'vi'
'uri'
'ujte_'
'tvář_'
'toilet_'
'theory_'
'talks_'
'supports_'
'submit_'
'strach_'
'stra'
'stop'
'stick'
'stanovené_'
'spočívá_'
'spirit_'
'speaking_'
'související_'
'southern_'
'societies_'
'snahy_'
'sli'
'sko'
'signs_'
'signed_'
'sation_'
'sad'
'sa_'
'rozhraní_'
'rozhodnout_'
'rot'
'resort_'
'republika_'
'represents_'
'rejected_'
'reflected_'
'rating_'
'quarter_'
'případy_'
'předpokladu_'
'pul'
'pt_'
'pr'
'poskytne_'
'pohledu_'
'poděkovat_'
'plány_'
'pen'
'partner_'
'pam'
'pain_'
'ož'
'ováno_'
'ov_'
'ori'
'oral_'
'ora'
'onto_'
'omezit_'
'ole'
'oje'
'odpověděl_'
'ode_'
'occur_'
'oa'
'nucen'
'nem'
'motion_'
'modul'
'miliardy_'
'metody_'
'map'
'látek_'
'list'
'lift_'
'ley_'
'ld'
'kého_'
'kritéria_'
'konfliktu_'
'jedno'
'jat'
'ities_'
'improvements_'
'identified_'
'ian'
'ia'
'helping_'
'heading_'
'guarantees_'
'grow_'
'ght'
'forget_'
'flexible_'
'feature_'
'exports_'
'ený_'
'enlargement_'
'electronic_'
'ele'
'druhů_'
'drink_'
'drawn_'
'download_'
'dodržování_'
'dobrý_'
'doba_'
'dnem_'
'din'
'devices_'
'dent'
'cům_'
'cul'
'cop'
'contrary_'
'congratulate_'
'compliance_'
'chráněn'
'chosen_'
'che_'
'cation_'
'buy_'
'bul'
'bs'
'brát_'
'boy_'
'bor'
'ble'
'bas'
'barv'
'bars_'
'balíček_'
'avi'
'argue_'
'americký_'
'americká_'
'advantage_'
'Zav'
'Vám_'
'Velké_'
'Uv'
'Use_'
'Turkish_'
'TO'
'TI'
'Sch'
'Sar'
'Research_'
'Radou_'
'Q_'
'Potřebujeme_'
'Pakistan_'
'Packed_'
'PC'
'Nech'
'Nad'
'Místo_'
'Mohu_'
'Mil'
'Management_'
'Lunches_'
'Lidé_'
'Kla'
'Hyper_'
'High_'
'Form'
'For'
'Dr_'
'Come_'
'Cho'
'Bud'
'Ar'
'AB'
'85_'
'76_'
'1993_'
'1992_'
'“'
'žení_'
'ža'
'šetření_'
'řízen'
'čemu_'
'České_'
'Če'
'ís'
'ár'
' % _'
'zeptal_'
'zel'
'zbraně_'
'zah'
'yho_'
'windows_'
'většinou_'
'věst_'
'vzor'
'vydání_'
'volného_'
'vln'
'vlastních_'
'virus_'
'vic'
'va'
'uvedl_'
'umožnit_'
'ujete_'
'tvrzení_'
'truly_'
'trouble_'
'terrorist_'
'taky_'
'surrounding_'
'sub'
'střet'
'ster_'
'srdci_'
'správce_'
'sporů_'
'spe'
'soudů_'
'soubory_'
'sorry_'
'slu'
'skutečné_'
'silné_'
'sign_'
'set'
'ser_'
'schopni_'
'savings_'
'sales_'
'ré'
'rokem_'
'ria_'
'respond_'
'representative_'
'regulace_'
'reagovat_'
'rapidly_'
'rank'
'přijata_'
'přijala_'
'předmětem_'
'předchozí_'
'pěšky_'
'právním_'
'prot'
'promoting_'
'požadavek_'
'postupem_'
'pokles_'
'ple'
'planning_'
'perspective_'
'ped'
'pe_'
'partition_'
'para'
'otevřené_'
'ostatními_'
'opposite_'
'operators_'
'oni_'
'odpovídající_'
'objev'
'nímu_'
'nights_'
'nesl'
'negativní_'
'nast'
'nas'
'names_'
'nak'
'nabídky_'
'mír_'
'my'
'muž_'
'mut'
'mnozí_'
'mit'
'miliony_'
'mezinárodního_'
'mel'
'lp'
'losses_'
'lose_'
'lodí_'
'lidu_'
'laying_'
'lar'
'kr'
'kol'
'kla'
'kandidát'
'kam_'
'jo'
'ja_'
'ja'
'io'
'improvement_'
'ig'
'ify_'
'ics_'
'ically_'
'hrad'
'hou'
'hospodářských_'
'heat_'
'harm_'
'gor'
'genuine_'
'gal'
'flat_'
'extensive_'
'explain_'
'exe'
'ených_'
'enjoyed_'
'energii_'
'ended_'
'emi'
'efektivní_'
'dopravu_'
'dopady_'
'dokumenty_'
'dochází_'
'discuss_'
'developments_'
'design'
'dej'
'debtor_'
'crises_'
'contract_'
'continuing_'
'considerable_'
'conflicts_'
'concluded_'
'con'
'comply_'
'client_'
'certificate_'
'calling_'
'bo'
'blue_'
'ben'
'balanced_'
'aspect_'
'amending_'
'alternativ'
'aktiv'
'advokát'
'addressed_'
'absolutely_'
'aa'
'Washington_'
'Wall_'
'Veřejné_'
'Tě'
'Tor'
'Time_'
'Tak'
'TO_'
'Strategy_'
'Stan'
'Spo'
'Ruskem_'
'Radu_'
'Om'
'Mont'
'Masáže_'
'MO'
'Luxembourg_'
'Like_'
'LE'
'Kong_'
'Klingon_'
'Judicial_'
'Island_'
'Hong_'
'Home_'
'FI'
'Executive_'
'Edition_'
'Col'
'Center_'
'C6_'
'Art_'
'Amendment_'
'Agency_'
'AIDS_'
'89_'
'62_'
'6'
'56_'
'5'
'1996_'
'12'
'', _'
'školy_'
'ět'
'čtení_'
'členové_'
'ý'
'účinek_'
'ícím_'
'álně_'
'}}) _'
'zítra_'
'získání_'
'zí_'
'závislosti_'
'zápis_'
'zz'
'zvyšuje_'
'zuje_'
'ztráty_'
'zp'
'zení_'
'wouldn_'
'worst_'
'wl'
'wireless_'
'věřitel'
'významný_'
'vítám_'
'vulnerable_'
'vní_'
'vlastního_'
'uživatele_'
'use'
'ud_'
'typ_'
'trval'
'tru'
'transparent_'
'tha'
'svému_'
'sv'
'story_'
'stor'
'staying_'
'sta'
'ss'
'spotřebitele_'
'sporu_'
'sought_'
'snadné_'
'slouží_'
'sla'
'ships_'
'shed_'
'sharing_'
'sens'
'seeing_'
'see'
'roční_'
'roze'
'ri'
'revenue_'
'representatives_'
'replace_'
'quick_'
'py_'
'prů'
'prováděn'
'promise_'
'precisely_'
'praxe_'
'podaří_'
'pevn'
'owing_'
'ovaná_'
'oficiální_'
'odpovědnosti_'
'námi_'
'nádraží_'
'notably_'
'nezv'
'nezbytná_'
'nepři'
'neb'
'mužů_'
'mutual_'
'musejí_'
'moři_'
'mou'
'mostly_'
'monitor_'
'mladší_'
'ml'
'mk'
'min_'
'léta_'
'los_'
'lli'
'lle'
'lie_'
'lending_'
'launch_'
'kům_'
'ká'
'kul'
'konference_'
'konečném_'
'jo_'
'jediný_'
'ized_'
'initiatives_'
'inform'
'indicated_'
'hyper'
'hot'
'hn'
'hm'
'hledání_'
'het_'
'hand'
'fyzick'
'fre'
'fore'
'flo'
'fle'
'explained_'
'existovat_'
'exclusive_'
'exception_'
'ett'
'ep'
'eny_'
'ents_'
'entitled_'
'eno'
'enc'
'employees_'
'ee'
'ear'
'důležitý_'
'důležitou_'
'dvoulůžkový_'
'dot'
'dokumentu_'
'dk'
'divorce_'
'disku_'
'desetiletí_'
'del'
'daňové_'
'crimes_'
'courses_'
'convinced_'
'consistent_'
'cn'
'cký_'
'cesta_'
'cent_'
'cap'
'campaign_'
'býval'
'bringing_'
'bran'
'bojovat_'
'blo'
'bat'
'ava'
'aplikace_'
'any'
'announced_'
'amounts_'
'ado'
'Zatímco_'
'Would_'
'Wiki'
'Ts'
'Ta_'
'Super'
'Severní_'
'Sea'
'Saudi_'
'Sam'
'SA_'
'Rule_'
'Ren'
'Protocol_'
'Post'
'Perhaps_'
'Open'
'On'
'Name_'
'NO'
'Můžete_'
'Máme_'
'Mor'
'Maria_'
'Lau'
'Kosmetika_'
'Kdo_'
'Její_'
'Jedno_'
'Jack_'
'HA'
'Golden_'
'Frankfurt_'
'Existují_'
'ENT_'
'Director_'
'DE'
'Congress_'
'Ce'
'Bri'
'Bol'
'Board_'
'AND_'
'81_'
'58_'
'37'
'”'
'д'
'žalob'
'šení_'
'ři'
'čelit_'
'účinky_'
'úprav'
'zájem_'
'zrušení_'
'zle'
'zhorš'
'zavr'
'zaveden'
'zation_'
'zast'
'yes_'
'wrote_'
'wor'
'wood_'
'wind_'
'whatever_'
'welfare_'
'website_'
'více'
'vámi_'
'vyřešit_'
'vytvářet_'
'vyjádřit_'
'vyhnout_'
'vstupu_'
'voleb_'
'vision_'
'vehicle_'
'valid_'
'vají_'
'utím_'
'usual_'
'universal_'
'uměl'
'ukončení_'
'události_'
'tá'
'tzv_'
'tv'
'tom'
'tly_'
'tj_'
'tivní_'
'tek_'
'tant'
'sun'
'stává_'
'stvím_'
'student_'
'strom'
'stone_'
'stav'
'state'
'stanovených_'
'stands_'
'ssi'
'soutěž_'
'snažit_'
'ským_'
'skončil'
'ske'
'situations_'
'sets_'
'rán'
'rp'
'rozv'
'rov'
'rodiny_'
'river_'
'rie'
'ret'
'regular_'
'rat_'
'raději_'
'ra'
'příkladem_'
'představit_'
'představ'
'předsedy_'
'pretty_'
'possibly_'
'poptávky_'
'peč'
'perfectly_'
'participate_'
'parliamentary_'
'očekávání_'
'organization_'
'operational_'
'op_'
'ol'
'och'
'obvious_'
'názory_'
'náhradu_'
'nutno_'
'numerous_'
'nul'
'notes_'
'nn'
'nk'
'nezaměstnanost_'
'nehod'
'nc'
'měny_'
'míra_'
'mál'
'mysli_'
'mil'
'mes_'
'meat_'
'marriage_'
'lounge_'
'lik'
'kost'
'konat_'
'ker'
'katastrof'
'jisté_'
'jinou_'
'jejího_'
'jednotky_'
'items_'
'itelné_'
'itel'
'ist'
'isn_'
'involving_'
'investigation_'
'inu_'
'integraci_'
'immigrants_'
'hranici_'
'holiday_'
'holding_'
'here'
'happens_'
'fázi_'
'front'
'formou_'
'focused_'
'flows_'
'fin'
'fi_'
'fi'
'female_'
'feeling_'
'experienced_'
'euro'
'estimated_'
'est'
'eni'
'ement_'
'ekonomik_'
'ejí_'
'educational_'
'dy'
'dou_'
'dou'
'dom'
'dollars_'
'dolaru_'
'dla_'
'dl'
'diskusi_'
'dining_'
'device_'
'depend_'
'declaration_'
'dd'
'cutting_'
'counter'
'continent_'
'ckých_'
'chybí_'
'celo'
'capable_'
'burg_'
'bre'
'bod'
'boasts_'
'bla'
'bl'
'bilateral_'
'autorit'
'automaticky_'
'automatically_'
'audio_'
'articles_'
'apparent_'
'ano'
'and'
'ající_'
'Zaprvé_'
'Yeah_'
'YORK_'
'Wo'
'Who_'
'Vienna_'
'Vie'
'Times_'
'Tel_'
'Ste'
'St'
'Special_'
'Sisko_'
'Sarkozy_'
'SI'
'Reco'
'Project_'
'Pol'
'Pat'
'Nev'
'Neu'
'NI'
'Mus'
'Mat'
'Mari'
'MS_'
'Lou'
'King_'
'Jean_'
'Inf'
'Il'
'HU_'
'Food_'
'File_'
'Federal_'
'Dop'
'Dal'
'Close_'
'Captain_'
'Bank'
'Babylon_'
'Asii_'
'Anti'
'97_'
'67_'
'2014_'
'194'
'žá'
'životě_'
'še'
'řady_'
'ěř'
'čtvrt'
'ček_'
'účtován_'
'úst'
'úmluv'
'úd'
'základního_'
'zně'
'začala_'
'založené_'
'zachovat_'
'yle'
'xi'
'write_'
'widespread_'
'webové_'
'watch_'
'walls_'
'vědí_'
'vědomí_'
'vým_'
'vých_'
'vztah_'
'vyp'
'vych'
'vstoupil'
'von_'
'ving_'
'vašeho_'
'ures_'
'upraven'
'uplatnit_'
'unií_'
'unacceptable_'
'una'
'uj'
'třebaže_'
'tou'
'tn'
'tlačítko_'
'textu_'
'tend_'
'tab'
'surrounded_'
'surprise_'
'supplies_'
'suites_'
'subsequent_'
'stá'
'stri'
'stranou_'
'stol'
'stejný_'
'stabiliz'
'snížil'
'snížen'
'sno'
'službu_'
'složky_'
'shod'
'she'
'settlement_'
'sektor_'
'rá'
'rozšířen'
'revenues_'
'resolve_'
'rese'
'repair_'
'remained_'
'reflect_'
'refer_'
'realit'
'reaching_'
'rd'
'ras'
'působí_'
'přesvědčení_'
'punish'
'primarily_'
'pova'
'police_'
'podnikání_'
'phi'
'pension_'
'ovém_'
'output_'
'outdoor_'
'orgánu_'
'ordinary_'
'ongoing_'
'oe'
'odhad'
'nta'
'nk_'
'nik'
'neustále_'
'nepod'
'nebe'
'native_'
'nal'
'muže_'
'mr'
'mléka_'
'mistr'
'minister_'
'mimořádně_'
'merely_'
'mass_'
'mandate_'
'mail'
'machines_'
'loď_'
'lon'
'lk'
'lis'
'line'
'lie'
'lid_'
'leg'
'leads_'
'land'
'kontextu_'
'konkrétně_'
'klíčové_'
'klad'
'kh'
'kas'
'jn'
'jinde_'
'jednom_'
'jedině_'
'ization_'
'ita_'
'inovace_'
'indoor_'
'ible_'
'hrd'
'heavy_'
'ham_'
'greenhouse_'
'grand'
'glob'
'glass_'
'fur'
'frame'
'fighting_'
'far'
'fal'
'facts_'
'excessive_'
'exceed_'
'ex'
'ená_'
'entrance_'
'emo'
'ekonomického_'
'důkazů_'
'drá'
'druhy_'
'dostanete_'
'dol'
'dokument_'
'dnů_'
'dluhopisů_'
'dle'
'discussed_'
'dial_'
'deaths_'
'daňových_'
'database_'
'dané_'
'cti'
'cru'
'cre'
'copy_'
'controlled_'
'contributions_'
'component_'
'collection_'
'col'
'co'
'chn'
'cem_'
'celá_'
'bon'
'bodů_'
'bezpečnostních_'
'asi'
'ari'
'aný_'
'ante'
'amp_'
'amo'
'amerického_'
'amended_'
'ah'
'affairs_'
'actual_'
'accessible_'
'abroad_'
'] '
'Vy_'
'Va'
'USB_'
'UPS_'
'Tre'
'Tennis_'
'Takže_'
'Takové_'
'Sub'
'Stále_'
'Sit'
'Sie'
'Shi'
'Sat'
'ROM_'
'Poz'
'Pl'
'Obecné_'
'Nat'
'NH_'
'Mas'
'Kor'
'Kadeřnictví_'
'Jer'
'Jadzia_'
'Indian_'
'Hen'
'Ger'
'Fra'
'Finanční_'
'Federation_'
'Employment_'
'Dv'
'DS9_'
'Chci_'
'Canada_'
'Cal'
'Ak'
'AN'
'78_'
'59_'
'55'
'43'
'41_'
'2hvězdičkový_'
'0s_'
'/'
'. (_'
'-'
'); _'
'({{_'
' ?_'
'životy_'
'Ž'
'št'
'řád_'
'ření_'
'ňa'
'četn'
'čení_'
'časov'
'útok_'
'úspěchu_'
'úmluvy_'
'íků_'
'záznam'
'závisí_'
'zy_'
'zvuk'
'zu_'
'zkušenosti_'
'zin'
'zdaleka_'
'zda'
'začlenění_'
'začali_'
'zav'
'zabývat_'
'wer'
'většině_'
'vě'
'výzvy_'
'významně_'
'výraz'
'válku_'
'vznikl'
'vyžadovat_'
'vytváří_'
'vrátit_'
'vod'
'vládě_'
'vit'
'vir'
'vie'
'veřejnosti_'
'vaši_'
'vané_'
'van_'
'uvedená_'
'uti'
'urgent_'
'umístěn'
'ultimately_'
'uli'
'uhl'
'twenty_'
'travellers_'
'transactions_'
'tradiční_'
'tit_'
'tisíc_'
'tia'
'the'
'ters_'
'territorial_'
'tent'
'tely_'
'sí'
'surveillance_'
'stro'
'stanoviska_'
'stabilitu_'
'sta_'
'správní_'
'spory_'
'sports_'
'splňující_'
'soutěže_'
'sor'
'snaze_'
'smu_'
'smlouvu_'
'shot_'
'seri'
'sen_'
'schopen_'
'sazeb_'
'sat_'
'sam'
'rozhodování_'
'rost'
'ric'
'responsibilities_'
'resource_'
'requirement_'
'represented_'
'renewable_'
'relax_'
'rela'
'register_'
'quarters_'
'přistoupení_'
'přispěl'
'přilehlém_'
'přet'
'předložila_'
'předem_'
'pushed_'
'push_'
'pursue_'
'pt'
'protokolu_'
'protected_'
'proměn'
'projekt_'
'profit_'
'profile_'
'produkci_'
'priorit'
'prezident'
'potenciál_'
'postelí_'
'porušení_'
'pick'
'phase_'
'peri'
'peoples_'
'paying_'
'pat'
'past'
'para_'
'pal'
'pad'
'pa_'
'ought_'
'osobně_'
'organizaci_'
'olej'
'ol_'
'odv'
'oddělení_'
'obr'
'nezávislost_'
'ner'
'nel'
'nejdříve_'
'nejd'
'nda'
'napo'
'měsíc_'
'multi_'
'mov'
'mluvit_'
'messages_'
'léčby_'
'loo'
'lobby_'
'kroků_'
'komisařko_'
'komisař_'
'klasifikován_'
'kaz'
'jmen'
'jimž_'
'jeme_'
'indicate_'
'im'
'ice'
'ic'
'hi_'
'hearing_'
'hard'
'guidelines_'
'gra'
'globalization_'
'gel'
'funkci_'
'fungovat_'
'functions_'
'foot'
'fied_'
'ečn'
'eye_'
'extension_'
'exceptional_'
'evropským_'
'eurozóně_'
'ese'
'ery_'
'enjoys_'
'energií_'
'em'
'elsewhere_'
'eh'
'edn'
'děkuji_'
'druhého_'
'dru'
'drah'
'dostupnost_'
'div'
'dit'
'ders_'
'depends_'
'dep'
'delay_'
'defend_'
'danger_'
'dalšího_'
'ctive_'
'couple_'
'conclude_'
'clock_'
'chu'
'chova'
'centrally_'
'brání_'
'br'
'bomb'
'battle_'
'ative_'
'asset_'
'army_'
'ap'
'aná_'
'aktivní_'
'aktiv_'
'adapt_'
'ach_'
'acce'
'Ye'
'West'
'Vysoký_'
'Společn'
'Small_'
'Ski'
'Show_'
'Ron'
'RO'
'RI'
'RA'
'Online_'
'Nedo'
'My'
'Monetary_'
'Min'
'Met'
'Mark'
'Main_'
'MA'
'Lázeňské_'
'Len'
'Key_'
'Kan'
'Jízda_'
'Jižní_'
'Itálii_'
'Frank'
'Environment_'
'Energy_'
'Empire_'
'Dohody_'
'Designated_'
'Debianu_'
'Costa_'
'Civil_'
'Chceme_'
'Belarus_'
'Bay_'
'Asie_'
':'
'83_'
'60'
'1989_'
'1980_'
'120_'
', (_'
'… _'
'ِ_'
'žd'
'ňovat_'
'ěrn'
'ď_'
'částí_'
'částku_'
'čisté_'
'činy_'
'čel'
'účasti_'
'ústav'
'úpravy_'
'él'
'álních_'
'zůstávají_'
'získal_'
'záležitostí_'
'značně_'
'znamenat_'
'změnil'
'zit'
'zb'
'zaměřené_'
'yz'
'wife_'
'warning_'
'waiting_'
'wa'
'vý'
'víte_'
'vá'
'vzd'
'vypl'
'vyjednávání_'
'vybrat_'
'vpřed_'
'vozidel_'
'voz'
'vity_'
'vis_'
'vil'
'uživatelů_'
'určitou_'
'underground_'
'under'
'ue'
'uděl'
'těn'
'tématu_'
'tre'
'travel'
'tradition_'
'tory_'
'titul'
'tin'
'tické_'
'ther_'
'tea'
'tar'
'tam'
'survival_'
'studené_'
'strop'
'stronger_'
'stroj'
'strategií_'
'stornována_'
'standardy_'
'společných_'
'společenstvím_'
'spl'
'sov'
'souvisejících_'
'souborů_'
'sob'
'smaller_'
'slo'
'sledování_'
'skutečný_'
'silnější_'
'silný_'
'sea'
'ráno_'
'rz'
'rybolovu_'
'run'
'ruk'
'roughly_'
'restrictions_'
'repeated_'
'remaining_'
'rem_'
'react'
'ran_'
'qua'
'příštích_'
'přístav'
'pás'
'propo'
'projevu_'
'produktivity_'
'prob'
'preparation_'
'pred'
'pravomocí_'
'potřebovat_'
'postav'
'poskytnutí_'
'politicky_'
'politically_'
'pointed_'
'poděkoval_'
'pochyb'
'personál_'
'orn'
'opo'
'omi'
'omezen'
'ola'
'odstavci_'
'odo'
'odkaz_'
'obs'
'obnovy_'
'ní'
'námořní_'
'nos'
'nespo'
'nemůžeme_'
'naléhavě_'
'naleznete_'
'měsících_'
'musel_'
'mountain_'
'ministers_'
'mini'
'milionu_'
'mechanismus_'
'lots_'
'lived_'
'letecké_'
'ler'
'lem_'
'late'
'kup'
'krá'
'komplexní_'
'klient'
'kill_'
'ket'
'kategorie_'
'jov'
'jk'
'jeví_'
'ií_'
'ivo'
'ivi'
'isation_'
'involvement_'
'initial_'
'ika_'
'hundreds_'
'hum'
'housing_'
'hospitality_'
'hof_'
'hod'
'hnutí_'
'hlavou_'
'healthy_'
'glu'
'gender_'
'flow_'
'ff_'
'fat'
'falling_'
'facilitate_'
'expert_'
'experiment'
'everywhere_'
'eura_'
'equity_'
'equally_'
'enterprises_'
'engine_'
'energetických_'
'ena'
'emergency_'
'edi'
'edge_'
'ec'
'ea'
'druhu_'
'driving_'
'drivers_'
'dočasn'
'dosažen'
'dolů_'
'dokáže_'
'doklad'
'doctor_'
'dm'
'digital_'
'detail_'
'deliver_'
'defense_'
'dee'
'decor_'
'ct'
'cri'
'cou'
'contracts_'
'conditioned_'
'computers_'
'coal_'
'closer_'
'cli'
'chyb_'
'chtěli_'
'cha'
'careful_'
'but'
'bud'
'boost_'
'booked_'
'boj'
'bohat'
'bitv'
'bed'
'barriers_'
'ban_'
'ačkoliv_'
'attractive_'
'assume_'
'asse'
'appreciate_'
'ants_'
'ali'
'ag'
'adresu_'
'ab'
']]_'
']] [[_'
'[ _'
'Zi'
'Without_'
'White_'
'Wellness_'
'Ví'
'Verts_'
'Venkovní_'
'VI_'
'Tím_'
'Tha'
'Tar'
'Stra'
'Starfleet_'
'Sim'
'San'
'Rusku_'
'Roman_'
'Robert_'
'River_'
'Rh'
'Program_'
'Procedure_'
'Peter_'
'Or'
'ON_'
'Nový_'
'Moscow_'
'Mc'
'Man'
'Lze_'
'Kur'
'Kdyby_'
'Kde_'
'Kat'
'Jestli_'
'Jan_'
'Jakmile_'
'Informace_'
'IN'
'HO'
'Gran_'
'Fre'
'Framework_'
'FR'
'FA'
'Ex'
'Ev'
'Dámy_'
'Dokonce_'
'Democrats_'
'Data_'
'Dar'
'DVDRip_'
'Constitution_'
'CH'
'Brazílie_'
'Brazil_'
'Both_'
'Bon'
'Beauty_'
'Bas'
'BE'
'At'
'Ari'
'Americe_'
'Ali'
'74_'
'63'
'57_'
'54_'
'21'
'. „_'
', '_'
'* / _'
'''_'
'– _'
'н'
'žádostí_'
'žn'
'štěstí_'
'škod'
'ěš'
'čí'
'částečně_'
'čas'
'úct'
'ía_'
'ést_'
'éri'
'ávají_'
'álního_'
'závěr_'
'západ'
'zám'
'záležitost_'
'zákonem_'
'zákon'
'zájmů_'
'zpravodaj_'
'zl'
'zjištění_'
'zjevně_'
'zero_'
'zem'
'zdravotnictví_'
'zaručen'
'zada'
'xa'
'winning_'
'welcoming_'
'water'
'vše'
'věděl_'
'vývoji_'
'výp'
'výk'
'výběr_'
'vážn'
'vzniku_'
'vyžadují_'
'vysvětlení_'
'vystaven'
'vyst'
'vra'
'volume_'
'vládou_'
'vlastním_'
'večer_'
'vessels_'
'ute'
'usly_'
'ukazují_'
'tělo_'
'tov'
'totally_'
'tlak_'
'takovou_'
'systémem_'
'sun_'
'suddenly_'
'stránka_'
'strukturální_'
'strategies_'
'stranami_'
'store_'
'stanovena_'
'ssa'
'spolu'
'soukromého_'
'soudem_'
'soil_'
'smě'
'sl'
'skutečnou_'
'sides_'
'setkání_'
'session_'
'sensitive_'
'sek'
'sec'
'sděl'
'schopností_'
'sau'
'sand'
'runs_'
'rti'
'rozsah_'
'rodiče_'
'roads_'
'rio'
'ria'
'revolution_'
'reject_'
'rei'
'regulační_'
'recognise_'
'reco'
'read'
'reaction_'
'rav'
'ram'
'půl_'
'přítomn'
'přiv'
'překážky_'
'put'
'purchase_'
'pryč_'
'provádí_'
'prostorách_'
'prost'
'prohlásil_'
'prodej'
'pp'
'povinností_'
'potraviny_'
'poptávka_'
'polovinu_'
'polohu_'
'polite_'
'policymakers_'
'pole_'
'pokus'
'pok'
'poho'
'podniku_'
'pes_'
'patient_'
'pass_'
'ovoce_'
'ov'
'osvědčení_'
'opa'
'ont'
'ono'
'olo'
'obsahu_'
'objeví_'
'něž_'
'níže_'
'návrat_'
'následujících_'
'národního_'
'náměstí_'
'notified_'
'noted_'
'north_'
'non'
'nimiž_'
'nevz'
'nesmírně_'
'nepřijatelné_'
'neděl'
'nce'
'nač'
'navrhuje_'
'nastaven'
'naj'
'myself_'
'multilateral_'
'motorway_'
'modem_'
'models_'
'mladých_'
'migrants_'
'metr'
'mer_'
'mani'
'log'
'kám_'
'kva'
'kterými_'
'kre'
'kolegové_'
'kapitol'
'kanál'
'jíž_'
'jícího_'
'já'
'judge_'
'jejíž_'
'jednotn'
'jednotliv'
'jedinou_'
'jakékoliv_'
'jakož_'
'iz'
'ite'
'investiční_'
'inu'
'int'
'inflaci_'
'index_'
'inclusion_'
'inc'
'ill_'
'ility_'
'ians_'
'hodnotě_'
'hladin'
'gu'
'globálním_'
'funguje_'
'fossil_'
'format_'
'forest_'
'fli'
'fla'
'ey'
'evaluation_'
'enk'
'emerge_'
'ekonomickou_'
'ejší_'
'eg'
'dělal'
'drž'
'druh_'
'drinks_'
'dor'
'dojít_'
'dodávek_'
'dodavatel'
'dobrovoln'
'discussions_'
'disa'
'depo'
'demonstrated_'
'deficits_'
'def'
'dec'
'dea'
'contained_'
'constitution_'
'connections_'
'conduct_'
'compa'
'comfortably_'
'coa'
'chu_'
'chov'
'cemi_'
'categories_'
'catch_'
'cas'
'byť_'
'bránit_'
'blok'
'awarded_'
'apo'
'apart_'
'ament'
'alle'
'alg'
'aho'
'aga'
'adjustment_'
'adaptation_'
'acceptable_'
'Zb'
'Wolf'
'Více_'
'Vá'
'Vys'
'Ven'
'VI'
'Translation_'
'Take_'
'TA'
'Sweden_'
'Sn'
'Sho'
'Serbia_'
'Sand'
'SS'
'Roman'
'Rem'
'Rea'
'Prob'
'Pom'
'Op'
'Ode'
'Obchody_'
'OS'
'OJ_'
'Název_'
'NT'
'Medi'
'Maintenance_'
'Mad'
'Kr'
'Jeden_'
'Irsku_'
'Ins'
'ID_'
'Has'
'Geneva_'
'Enforcement_'
'EP'
'EN_'
'Dů'
'Dutch_'
'Dovolte_'
'Democratic_'
'Dam'
'Cro'
'Copenhagen_'
'Common_'
'Cer'
'Cat'
'CD'
'Bru'
'BI'
'Az'
'Authority_'
'As'
'Aparthotel_'
'Action_'
'ALE_'
'AL'
'82_'
'800_'
'7'
'51_'
'40'
'38'
'32'
'192'
'03_'
'03'
', [_'
' !_'
'ت_'
'з'
'žena_'
'žen'
'ůd'
'ťan'
'šesti_'
'řádně_'
'řil'
'částka_'
'článkem_'
'čky_'
'činitel'
'úmyslu_'
'íže'
'ív'
'ás'
'závěry_'
'zákony_'
'zvol'
'zvlášť_'
'zt'
'zdr'
'zaměstnání_'
'zahájen'
'zahrnovat_'
'zahraničních_'
'zad'
'yst'
'worry_'
'whi'
'webových_'
'we'
'wake_'
'vždycky_'
'všeobecně_'
'výhody_'
'vého_'
'vzduchu_'
'vyrábě'
'vyjádřen'
'vu_'
'vstup_'
'vlak'
'vet'
'vast_'
'určitá_'
'určené_'
'uran'
'united_'
'une_'
'uncertainty_'
'ume'
'ukázala_'
'ug'
'udělal_'
'udi'
'tém'
'turistika_'
'ture_'
'tul'
'troj'
'tova'
'tourism_'
'tlaku_'
'tie'
'telné_'
'telefon'
'technick'
'takovém_'
'tajemství_'
'sítí_'
'swa'
'supervision_'
'superb_'
'suggested_'
'substantial_'
'středních_'
'stře'
'stál'
'statements_'
'starost'
'sovereign_'
'souč'
'somewhat_'
'some'
'softwaru_'
'soft'
'sni'
'smí'
'smluv_'
'slightly_'
'sit'
'showing_'
'shodn'
'schopna_'
'schopn'
'samy_'
'rychl'
'rse'
'rozsáhlé_'
'rodič'
'rightly_'
'rid'
'rg_'
'resistance_'
'relativně_'
'regularly_'
'rati'
'příslušných_'
'příprav'
'přijde_'
'přijat'
'přeshraniční_'
'písemností_'
'průměru_'
'právními_'
'protokol_'
'prosinci_'
'pros'
'projev'
'prodáva'
'produktu_'
'processes_'
'pravomoc_'
'požadavků_'
'počítači_'
'použije_'
'poskytují_'
'porad'
'poorest_'
'pochopit_'
'players_'
'played_'
'plat'
'pilot_'
'periods_'
'pel'
'pek'
'pea'
'pc'
'partly_'
'oživení_'
'oy'
'operate_'
'ona'
'odůvodnění_'
'odhodlání_'
'odborn'
'oda'
'obil'
'něte_'
'nárůst_'
'nost'
'nejz'
'nejv'
'nejdůležitější_'
'nejde_'
'nef'
'ndi'
'na'
'měření_'
'místnosti_'
'mpe'
'mouth_'
'moment'
'mol'
'mně_'
'mnou_'
'mlad'
'mistake_'
'micro'
'maritime_'
'léčiv'
'log_'
'loans_'
'lla_'
'lit_'
'lhůta_'
'legitimate_'
'learned_'
'lake_'
'kách_'
'kyně_'
'krokem_'
'kos'
'klíčových_'
'kli'
'joined_'
'jm'
'jev'
'jasný_'
'isk'
'impressive_'
'images_'
'ient'
'hodnot'
'greatest_'
'gram'
'globálních_'
'fun'
'fs_'
'folder_'
'flexibility_'
'figures_'
'ffi'
'failing_'
'esi'
'ers'
'emphasis_'
'email_'
'ede'
'dělá_'
'dě'
'dynamic_'
'dveře_'
'dvakrát_'
'dri'
'doors_'
'dobrá_'
'dno'
'dlouhé_'
'divided_'
'disputes_'
'diskutovat_'
'discerning_'
'dimension_'
'dig'
'det'
'dependent_'
'demon'
'deb'
'dealt_'
'cz_'
'cra'
'corner_'
'connected_'
'conclusions_'
'combat_'
'claimed_'
'cká_'
'chemical_'
'chat_'
'celní_'
'brán'
'broken_'
'bridge_'
'bottom_'
'block_'
'biggest_'
'belief_'
'bea'
'autonom'
'author_'
'ator_'
'ater'
'ate'
'aro'
'ann'
'ane_'
'ambitious_'
'ambi'
'allocation_'
'all'
'af'
'adresa_'
'ace'
'Zp'
'Ze_'
'Zadruhé_'
'Wor'
'Vířivka_'
'Vir'
'Vil'
'VST_'
'Under_'
'UP'
'Though_'
'Swiss_'
'Sv'
'Sp'
'Slovensk'
'Secretary_'
'Science_'
'RT'
'Pop'
'Pol_'
'Over'
'Odpověď_'
'OD'
'Nep'
'NS'
'Mur'
'Mos'
'Mi'
'May'
'Massage_'
'Mart'
'Malta_'
'Mag'
'MB_'
'Let'
'Kč_'
'Jen'
'Jedná_'
'Jane'
'Izraelem_'
'Hungary_'
'Go_'
'GE'
'Francisco_'
'Evropané_'
'England_'
'EU'
'EA'
'Dos'
'Children_'
'Chi'
'Char'
'Británii_'
'BR'
'Arabia_'
'Andre'
'Aid_'
'AU'
'?“ _'
'84_'
'49_'
'28'
'215'
'197'
', „_'
', - _'
'#_'
'" '
' –'
' ``_'
' )._'
' &_'
'…'
'в'
'а'
'Žád'
'širší_'
'řin'
'řed'
'ď'
'články_'
'člen'
'čk'
'účetní_'
'údajně_'
'ížení_'
'áh'
'É_'
'závazek_'
'základn'
'záchran'
'zrušen'
'způsobil'
'zpo'
'znatelný_'
'znalost'
'zim'
'zh'
'zdanění_'
'zastavit_'
'zaměřit_'
'zach'
'wal'
'vůli_'
'většiny_'
'výrobce_'
'výjimečn'
'vyšetřování_'
'vysl'
'vym'
'vor'
'vnitřního_'
'vessel_'
'veri'
'velkým_'
'vedou_'
'variable_'
'vali_'
'uvést_'
'ura'
'upřímn'
'unt'
'university_'
'unity_'
'unable_'
'uhlí_'
'událostí_'
'uci'
'uc'
'ual_'
'těmi_'
'těla_'
'trest'
'tree_'
'transition_'
'tongue_'
'tiny_'
'tic'
'thousand_'
'tati'
'tan_'
'sí_'
'sustained_'
'surge'
'supplied_'
'sum'
'suggests_'
'suggest_'
'suffer_'
'succeed_'
'sty_'
'studi'
'stru'
'spá'
'spotřeby_'
'splnění_'
'soustavy_'
'soukromých_'
'sold_'
'solar_'
'snažil_'
'smysl_'
'smlouvě_'
'skvěl'
'sko_'
'sklen'
'shape_'
'sf'
'sedm'
'sco'
'scen'
'saving_'
'různými_'
'ruč'
'ruling_'
'rozhodnutím_'
'rovn'
'rou'
'romantic_'
'rní_'
'riziku_'
'rit'
'ris'
'reálné_'
'restructuring_'
'restauraci_'
'respected_'
'res'
'reklam'
'rek'
'region'
'recognize_'
'rci'
'rat'
'rant'
'ramen'
'rak'
'radi'
'rada_'
'quer'
'působnosti_'
'přísn'
'přizpůsob'
'přep'
'prvotřídního_'
'prokázal'
'proj'
'profil'
'producing_'
'pres'
'praktik'
'pozdě_'
'povinn'
'postoje_'
'poskytovat_'
'porušování_'
'porta'
'port'
'poměr'
'politickým_'
'pole'
'pokusil'
'podobně_'
'pobyt_'
'plays_'
'player_'
'platform'
'pečlivě_'
'pevně_'
'permit_'
'percent_'
'očekává_'
'ováni_'
'overlooking_'
'ova'
'oro'
'organiz'
'orders_'
'ora_'
'odraz'
'occurred_'
'obtížné_'
'obnovitelných_'
'oba_'
'něl'
'northern_'
'none_'
'noc'
'nese_'
'nahl'
'město_'
'mínění_'
'myslí_'
'muy_'
'motor_'
'moderate_'
'mm'
'ministr_'
'meta'
'mask'
'marketing_'
'lists_'
'lig'
'lay_'
'law'
'lan'
'kuj'
'kterému_'
'ks'
'konkurenceschopnosti_'
'konkurence_'
'komunit'
'kin'
'judgment_'
'jemn'
'jejímž_'
'jednoznačn'
'jediným_'
'jakožto_'
'jakmile_'
'ins_'
'ino_'
'indick'
'il'
'ik_'
'ict'
'hur'
'hundred_'
'hrozbu_'
'hrozb'
'households_'
'hing_'
'hem_'
'heim_'
'ham'
'hall_'
'guide_'
'governmental_'
'golf_'
'girl_'
'gets_'
'generace_'
'gate_'
'gas'
'fuels_'
'fu'
'fs'
'fra'
'formu_'
'formed_'
'follows_'
'flood'
'flight_'
'fill_'
'fil'
'extend_'
'explore_'
'exc'
'examination_'
'ew'
'evropští_'
'ev'
'eu'
'escape_'
'epi'
'endo'
'ema'
'ego'
'effectiveness_'
'ee_'
'ede_'
'economists_'
'eastern_'
'eas'
'dí'
'dv'
'drag'
'dovozu_'
'dostatek_'
'dostal_'
'dospěl'
'doporučen'
'dohledu_'
'dni_'
'disket'
'disasters_'
'di'
'determination_'
'depending_'
'demokratů_'
'delivery_'
'define_'
'debian_'
'debat'
'dav'
'cíli_'
'cycle_'
'counter_'
'confirm_'
'conf_'
'cion'
'cin'
'cies_'
'chart'
'ced_'
'běžné_'
'běžn'
'bys_'
'busy_'
'bur'
'boot'
'blízkosti_'
'bezpečné_'
'bb'
'automobil'
'association_'
'asn'
'as'
'armád'
'appro'
'appe'
'ancient_'
'anc'
'ama_'
'allies_'
'aktuální_'
'aki'
'akcií_'
'ak'
'afternoon_'
'acquis_'
'Zu'
'Země_'
'War'
'Vor'
'Up'
'URL_'
'Transport_'
'Tr'
'Tohle_'
'Tab'
'Summit_'
'Stu'
'Silv'
'Ser'
'Sav'
'SP'
'Read'
'Rakousko_'
'Portage_'
'Ov'
'Ot'
'Ner'
'Nepo'
'Nas'
'NG_'
'Měl_'
'Mě'
'Moje_'
'Mnoho_'
'Men'
'Law_'
'Keynes_'
'KO'
'Jedin'
'Ital'
'Islam_'
'Hun'
'Hotels_'
'Hor'
'Hol'
'Hey_'
'Han'
'Green_'
'Gor'
'GUE_'
'GNOME_'
'Funds_'
'Foundation_'
'Fo'
'Florence_'
'Flo'
'Evropskému_'
'Equipment_'
'Em'
'Did_'
'Demo'
'Cur'
'Cons'
'Con'
'CC'
'Brit'
'Br'
'Ben_'
'Barber_'
'Association_'
'Arm'
'Angel'
'Ac'
'AS_'
'AM'
'45'
'42'
'220'
'1991_'
'10'
'('
''''
'''
'" (_'
' - '
'，_'
'м'
'šího_'
'řešením_'
'Řím'
'ňují_'
'členem_'
'čka_'
'činů_'
'čin'
'čern'
'ýš'
'úvěrů_'
'úrok'
'úlohy_'
'íne'
'éz'
'áže'
'átor_'
'áce'
'áb'
'­_'
'zří'
'závazn'
'záruky_'
'zákaz_'
'ztratil'
'zraniteln'
'zovat_'
'znak'
'zločin'
'zdrav'
'začne_'
'zaznamenal'
'zaplatit_'
'založen'
'zahrad'
'yr'
'youth_'
'xo'
'work'
'wars_'
'walked_'
'vů'
'výživ'
'významným_'
'vážné_'
'vyvolává_'
'vysoký_'
'vysoká_'
'vyjádřil_'
'vydat_'
'vstup'
'vost_'
'vlastnosti_'
'visiting_'
'vin_'
'velko'
'uře_'
'unsu'
'unre'
'unlikely_'
'ulici_'
'uit'
'ues_'
'tříd'
'tří'
'těž'
'trpí_'
'trees_'
'tiv'
'title_'
'thro'
'ther'
'tech_'
'taxation_'
'sy'
'svěd'
'superior_'
'summitu_'
'suffering_'
'successfully_'
'stěn'
'stupn'
'streets_'
'sto_'
'stimulus_'
'stag'
'souhlas'
'socialist'
'smluvní_'
'sku_'
'skl'
'ska'
'sit_'
'signál_'
'sightseeing_'
'sight_'
'setkal'
'serving_'
'separation_'
'secret_'
'schedule_'
'rychlost_'
'rusk'
'rre'
'rr'
'rozvíjejících_'
'rozpravy_'
'rozpočtové_'
'rozm'
'root_'
'rg'
'rezerv'
'revoluce_'
'returned_'
'republice_'
'religion_'
'relief_'
'rec'
'rapporteurs_'
'rain'
'radical_'
'půl'
'půdy_'
'pů'
'přínos'
'příjem_'
'přišli_'
'připomínky_'
'připojen'
'přijal_'
'předpokládá_'
'pě'
'pát'
'putting_'
'průzkum'
'průmyslové_'
'propad'
'promotion_'
'professions_'
'prioritou_'
'presidency_'
'precautionary_'
'pořád_'
'povrch'
'povol'
'posouzení_'
'pomůže_'
'pomalu_'
'politikou_'
'podporou_'
'podobn'
'poc'
'planety_'
'pick_'
'performed_'
'percentage_'
'pass'
'parliaments_'
'očí_'
'ove'
'ovanou_'
'ourselves_'
'organizations_'
'organism'
'opinions_'
'ony_'
'oldest_'
'oko'
'of'
'odr'
'odpovědět_'
'odpovědn'
'odborné_'
'obsažen'
'obrátit_'
'objem_'
'nič'
'nin'
'nim_'
'nie'
'nes'
'neměly_'
'negotiating_'
'nedostatek_'
'nde'
'nařízením_'
'nato'
'nalézt_'
'nacházejí_'
'měst'
'mých_'
'místních_'
'mp_'
'moc'
'mladé_'
'mental_'
'materiály_'
'match_'
'maintained_'
'lán'
'luxusní_'
'liv'
'lit'
'liberal_'
'lia'
'legitimacy_'
'lb'
'lah'
'lab'
'kultury_'
'kri'
'konkurenční_'
'kod'
'kinds_'
'ki_'
'jádro_'
'jimiž_'
'jes'
'jednacího_'
'jaká_'
'izraelský'
'izovat_'
'island_'
'ise'
'investorů_'
'inn'
'inde'
'id'
'ici_'
'humans_'
'hrát_'
'hranic_'
'hra'
'houses_'
'hlavního_'
'herself_'
'had'
'gol'
'gne'
'gin'
'gg'
'geni'
'free'
'formal_'
'firm_'
'finding_'
'faster_'
'farm_'
'falls_'
'faith_'
'fai'
'expansion_'
'existenci_'
'enu'
'enhance_'
'end'
'empty_'
'elektro'
'egi'
'důvodem_'
'důstojn'
'důraz_'
'dus'
'dry_'
'druhý_'
'drawing_'
'dotčen'
'dor_'
'dopo'
'dopad'
'doktor'
'dohled_'
'docela_'
'doc'
'dnech_'
'dlouhou_'
'dl_'
'distributed_'
'disk'
'diplomatic_'
'dil'
'died_'
'desire_'
'demonstrate_'
'demo'
'defence_'
'debts_'
'dalo_'
'criticism_'
'credibility_'
'coordinated_'
'considering_'
'complicated_'
'club_'
'chudobě_'
'chl'
'ching_'
'checked_'
'cent'
'celkového_'
'capita_'
'bíl'
'bratr'
'bou_'
'blízko_'
'bezplatn'
'bel'
'bee'
'beauty_'
'aver'
'autobus'
'atn'
'assess_'
'ass'
'aside_'
'architektur'
'approximately_'
'ape'
'aného_'
'akt'
'aging_'
'aged_'
'advice_'
'adult_'
'accompanied_'
'Zejména_'
'Wal'
'Venice_'
'Unii_'
'UT'
'Table_'
'TH'
'Sy'
'Swedish_'
'Sol'
'Smlouvu_'
'Sheraton_'
'SC'
'Rozprava_'
'Quality_'
'Přes'
'Praha_'
'Pokoj_'
'Pok'
'Picard_'
'Pan_'
'Palestinians_'
'Open_'
'OV'
'OT'
'ON'
'New'
'Nes'
'Neo'
'Neb'
'Mimo'
'Maybe_'
'Market_'
'Luc'
'Lord_'
'Lam'
'Lab'
'Kre'
'Konečně_'
'Kata'
'Kas'
'Kam'
'Joint_'
'Jelikož_'
'Irsko_'
'IS_'
'ISO_'
'IF'
'Hyde_'
'Hy'
'Hotel'
'Hand'
'Globální_'
'Gaze_'
'Firefox_'
'Fire'
'Eli'
'EEA_'
'Dun'
'Dre'
'Department_'
'Cílem_'
'Conf'
'Change_'
'Cha'
'COMP_'
'CO'
'Blo'
'Beau'
'Barack_'
'Ačkoliv_'
'Atlantic_'
'Art'
'Ala'
'Al_'
'9'
'71_'
'61'
'54'
'06'
'05'
'.” _'
'*_'
')?_'
') – _'
'( _'
' :_'
'的'
'“ – _'
'žit'
'šť'
'špatný'
'šli_'
'řím'
'řídit_'
'řeší_'
'řel'
'řej'
'ř_'
'ěd'
'čísla_'
'čtí_'
'čtvrti_'
'Česká_'
'úřady_'
'účtu_'
'účinně_'
'územní_'
'útoky_'
'út'
'úpravě_'
'újm'
'ø'
'ír'
'ê'
'áš_'
'áli'
'ák'
'zích_'
'záv'
'zápas'
'zvýšila_'
'zvolen'
'zre'
'zpracování_'
'zov'
'zlat'
'zjistil'
'zil'
'zaž'
'zavádě'
'ye_'
'ye'
'witness_'
'win'
'web'
'wage_'
'všude_'
'věcech_'
'významnou_'
'vítěz'
'vzájemné_'
'vztazích_'
'vze'
'vz'
'vyz'
'vytváření_'
'vytvoří_'
'vysílání_'
'vysvětlit_'
'vyplývá_'
'vykona'
'vu'
'volič'
'viděl_'
'vely_'
'vedla_'
'variant'
'učení_'
'uče'
'uvědom'
'uvedeny_'
'utn'
'urychlen'
'unit_'
'umi'
'ule'
'ular_'
'uh'
'udržitelného_'
'udržiteln'
'ua'
'ty'
'tváří_'
'tržních_'
'trillion_'
'transparentnosti_'
'transfer'
'ton'
'text'
'tem_'
'tel'
'tap'
'tal'
'symbol_'
'svědk'
'survey_'
'subjekty_'
'stránkách_'
'stl'
'stein_'
'stavební_'
'staro'
'stanovil'
'stanoven'
'srpna_'
'srdce_'
'spravedlivé_'
'spr'
'soudnictví_'
'soud'
'sophisticated_'
'solid_'
'sní'
'směru_'
'smus_'
'slušn'
'skryt'
'sized_'
'sex_'
'selhání_'
'sedm_'
'sdružení_'
'rý'
'ryb'
'rozhodn'
'rozhodl_'
'rose_'
'ropo'
'rn_'
'rizikov'
'reserve_'
'remind_'
'refurbished_'
'reform'
'red'
'recognized_'
'recognised_'
'realis'
'rb'
'ratio_'
'rap'
'ral_'
'ral'
'quotas_'
'q_'
'půjč'
'příslušný_'
'přání_'
'přinesl'
'přeprav'
'předá'
'prázdn'
'právech_'
'provinci'
'protest'
'prosazování_'
'professionals_'
'prevention_'
'prakticky_'
'poš'
'pozorovatel'
'považuji_'
'považován'
'potřeb_'
'potíže_'
'potenciálu_'
'potenciální_'
'postavit_'
'postaven'
'poro'
'ponaučení_'
'položky_'
'pohyb_'
'podvod'
'podmínkách_'
'podl'
'pochybnosti_'
'ploch'
'pli'
'pleasure_'
'ple_'
'platnosti_'
'planned_'
'pie'
'personally_'
'pers'
'passenger_'
'očekávat_'
'oxid'
'ovo'
'oucí_'
'ostatním_'
'ort'
'opustit_'
'ologi'
'okolí_'
'oke'
'ohrožení_'
'odle'
'odkazy_'
'odkaz'
'oběti_'
'obyvatelstva_'
'observed_'
'obsahovat_'
'obli'
'objevil'
'object_'
'obecné_'
'obchodního_'
'někoho_'
'ník_'
'ník'
'nás'
'náhle_'
'nis'
'nijak_'
'night'
'neví'
'nepochybně_'
'napříč_'
'mou_'
'mon_'
'mobil'
'minor_'
'minibar_'
'mine_'
'mic'
'ment'
'materiálů_'
'mat'
'lý_'
'lád'
'lova'
'lor'
'logical_'
'lod'
'liší_'
'listen_'
'ling'
'lif'
'lhůt'
'ledn'
'lak'
'koč'
'kontra'
'kont'
'konkurenceschopnost_'
'ken_'
'kd'
'každá_'
'jump'
'jist'
'jednoznačně_'
'jediná_'
'jd'
'iště_'
'ivní_'
'ita'
'iso'
'iro_'
'ire_'
'intensive_'
'inov'
'imposed_'
'ikov'
'ij'
'identify_'
'icí_'
'hus'
'hrozí_'
'hromad'
'hle'
'hl'
'hero'
'hel'
'has'
'hardly_'
'gu_'
'granting_'
'governing_'
'gni'
'glad_'
'gh_'
'generated_'
'generate_'
'fáze_'
'filtr'
'film'
'fees_'
'faktory_'
'facility_'
'exposed_'
'exp'
'excess_'
'examples_'
'eto'
'ept'
'entirety_'
'eni_'
'energetiky_'
'endorse'
'emit'
'eligible_'
'ekt'
'ekonomikách_'
'efekt'
'economics_'
'eco'
'ea_'
'držet_'
'drugs_'
'distribuce_'
'display_'
'discre'
'disco'
'destroyed_'
'destroy_'
'destabiliz'
'delivered_'
'definitely_'
'declared_'
'daň_'
'datem_'
'cry'
'correctly_'
'continental_'
'constitute_'
'considers_'
'cons'
'concentration_'
'comm'
'combating_'
'com'
'ckého_'
'cing_'
'chin'
'characteristics_'
'carrying_'
'capitalism_'
'cancelled_'
'budování_'
'brings_'
'bill_'
'bill'
'bic'
'bi_'
'beside_'
'bes'
'bell'
'believed_'
'beaches_'
'background_'
'bab'
'ačkoli_'
'ay'
'attend'
'atte'
'ath'
'ast'
'arrive_'
'arov'
'arabsk'
'apartment_'
'answers_'
'ang'
'amp'
'ama'
'allo'
'ako'
'ago'
'agentura_'
'afford_'
'adj'
'achieving_'
'accelerated_'
'absorb'
'abo'
']'
'Zam'
'Welcome_'
'Wel'
'Wei'
'Věřím_'
'Víš_'
'Vít'
'Vážená_'
'Váš_'
'VÝ'
'Vr'
'Voyager_'
'Ukrajin'
'Trans'
'Top'
'Tam_'
'TNG_'
'Sr'
'Slovakia_'
'Set'
'Select_'
'Sel'
'See'
'Santa_'
'Sant'
'SK'
'Rus'
'Rules_'
'Ret'
'Res'
'Rad'
'RS'
'Přip'
'Posl'
'Partnership_'
'Over_'
'Organisation_'
'OK_'
'Národní_'
'Nor_'
'Nikdy_'
'Nikdo_'
'Nic_'
'Nez'
'NA_'
'Mill'
'Mel'
'MS'
'Kra'
'Kha'
'Kal'
'Jinými_'
'Information_'
'Hospodářsk'
'Hlasování_'
'Gul'
'GI'
'G20_'
'FE'
'Ei'
'Eco'
'Done_'
'Don'
'Day_'
'DN'
'Communities_'
'Cold_'
'Cit'
'Charter_'
'Charles_'
'Cast'
'Cas'
'Bi'
'Bet'
'Available_'
'Ana'
'Američané_'
'Agriculture_'
'Abychom_'
'AP'
'AI'
'69_'
'63_'
'53_'
'50'
'46'
'44'
'18'
'142_'
' €_'
' = _'
'ْ_'
'к'
'ží'
'šíření_'
'ši_'
'šanci_'
'Řecku_'
'Ře'
'ěst'
'úrokových_'
'óz'
'íž'
'íva'
'ém'
'ão_'
'ář_'
'ával'
'závod'
'zvýší_'
'zved'
'zruš'
'znalosti_'
'zapomínat_'
'zace_'
'za'
'whereby_'
'warm'
'wai'
'všeobecné_'
'věřím_'
'výst'
'výrobců_'
'výl'
'výhrad'
'vyhlídky_'
'vul'
'voj'
'voda_'
'viděli_'
'victory_'
'vest'
'verb'
'vas'
'uto'
'uspořádání_'
'určena_'
'ult'
'uložen'
'té'
'tto'
'tting_'
'trp'
'trial_'
'transmission_'
'totéž_'
'tors_'
'tm'
'tl'
'tky_'
'teplot'
'teln'
'technika_'
'tb'
'tag'
'tablets_'
'sví'
'svobodné_'
'svoboda_'
'svat'
'surplus_'
'surface_'
'sugar_'
'státem_'
'studied_'
'stránku_'
'sto'
'stic_'
'ster'
'stejnou_'
'stages_'
'ssion_'
'spravedlnost_'
'spot_'
'spoj'
'spla'
'speakers_'
'soustav'
'soused'
'sněmovně_'
'skrze_'
'sie'
'shadow_'
'sest'
'sell_'
'seat_'
'sci'
'schůzk'
'schválil'
'ržen'
'rát_'
'rte'
'rozšířit_'
'rozvinutých_'
'rozpočtový_'
'rostlin_'
'rno'
'rf'
'retr'
'resulted_'
'resolutions_'
'remo'
'regulaci_'
'registered_'
'regionech_'
'ree'
'rde'
'raw_'
'rakovin'
'původní_'
'příkaz_'
'přál'
'připraveni_'
'přinese_'
'přidělen'
'přesvědčeni_'
'překvapen'
'představoval'
'předmět'
'py'
'pta'
'průmyslových_'
'protest_'
'prospects_'
'proportion_'
'programming_'
'profits_'
'productive_'
'prefer_'
'pracuje_'
'pozici_'
'pozice_'
'potvrzení_'
'potentially_'
'posílen'
'porovnání_'
'pora'
'poněkud_'
'policie_'
'pokrytí_'
'podpis'
'podob'
'podnik_'
'pochází_'
'plynů_'
'plnou_'
'plenty_'
'placen'
'pk'
'pet'
'pec'
'patent'
'passengers_'
'parental_'
'paliv_'
'pacient'
'oznámen'
'ow'
'ote'
'ostrov'
'onov'
'one'
'omo'
'okamžik_'
'officer_'
'odpad'
'obě'
'obecn'
'němuž_'
'některá_'
'něhož_'
'následn'
'nár'
'náprav'
'nz'
'notification_'
'nodded_'
'nictví_'
'neú'
'nevys'
'nepov'
'nep'
'nen'
'nek'
'nejs'
'nejn'
'nedokáže_'
'nechat_'
'našimi_'
'nationals_'
'napětí_'
'naději_'
'nac'
'městech_'
'měn'
'máš_'
'mzdy_'
'multiple_'
'mocn'
'mnoho'
'mix_'
'mechanisms_'
'maybe_'
'manufacturing_'
'manufacturer_'
'mali'
'magi'
'luv'
'lus'
'loved_'
'loc'
'lling_'
'limit'
'lau'
'lam'
'lac'
'kým_'
'kán'
'kvalitu_'
'kvalifikac'
'kti'
'kot'
'konflikt_'
'kole_'
'kdysi_'
'kce_'
'kapitál_'
'kan'
'kam'
'jí'
'jádra_'
'justify_'
'judges_'
'jel'
'jednáních_'
'jednolůžkový_'
'iční'
'itu'
'ite_'
'ising_'
'iri'
'iona'
'introduce_'
'interven'
'imagine_'
'illa'
'ign'
'ier'
'ich'
'ib'
'hry_'
'hou_'
'hotel'
'hop'
'hoo'
'hole_'
'hodiny_'
'hledat_'
'hlavně_'
'hlav'
'hang'
'gy_'
'grants_'
'gold_'
'gn'
'gen_'
'gains_'
'fór'
'fire'
'finished_'
'financ'
'filled_'
'figur'
'favor_'
'expe'
'exists_'
'evropská_'
'estr'
'erg'
'engaged_'
'ends_'
'ending_'
'enabling_'
'ejme_'
'east_'
'dává_'
'dávky_'
'dán'
'dt'
'ds'
'driver_'
'dostali_'
'dop'
'doda'
'diversity_'
'disc'
'desk'
'desetiletích_'
'datum_'
'dat'
'cts_'
'ction_'
'credible_'
'corresponding_'
'cool_'
'contributed_'
'cond'
'competence_'
'citizen_'
'cia'
'chybn'
'chudých_'
'chud'
'chor'
'checks_'
'channels_'
'chair_'
'centr'
'cash_'
'cards_'
'calculated_'
'běh'
'bou'
'bohatých_'
'boh'
'birth_'
'behavior_'
'beg'
'bedrooms_'
'bedding_'
'baro'
'bare'
'band'
'balíčků_'
'ač'
'azyl_'
'ast_'
'armed_'
'argumenty_'
'argued_'
'antivirus_'
'allocated_'
'ality_'
'alergiky_'
'aktiva_'
'ain_'
'ai_'
'ages_'
'afraid_'
'affects_'
'adu_'
'adn'
'ack'
'Zimbabwe_'
'Vz'
'Type_'
'Tele'
'TA_'
'Subject_'
'Studies_'
'Souhlasím_'
'Socialist_'
'Sk'
'Sin'
'Should_'
'Shops_'
'Sever'
'SK_'
'Rob'
'Right_'
'Pěší_'
'Prov'
'Programme_'
'Poč'
'Pou'
'Port_'
'Popular_'
'Pon'
'Pojď'
'Pil'
'Parties_'
'Palestine_'
'Outdoor_'
'Oddíl_'
'Nová_'
'Neměl'
'Nav'
'NC'
'Mot'
'Mode'
'Mala'
'MP'
'Lod'
'Lim'
'Lig'
'Lang'
'Kin'
'KOM_'
'Jedna_'
'Jaký_'
'Installation_'
'Inst'
'Inforegio_'
'Image_'
'IP'
'ION_'
'IO'
'Hall_'
'Gro'
'Gree'
'Glo'
'GA'
'Fla'
'Fin'
'Fer'
'Evropských_'
'Eva'
'Estonia_'
'Eng'
'EI'
'ED_'
'Doc'
'Dne_'
'Denmark_'
'DPH_'
'Christian_'
'Christ_'
'By'
'Bohužel_'
'Bio'
'Assembly_'
'Arab'
'Apartamentos_'
'Ag'
'AC'
'="_'
'58'
'36'
'34'
'1970_'
'191'
'178'
'04'
' °_'
'“ (_'
'žádá_'
'životů_'
'ži_'
'ší'
'šá'
'ště_'
'špatné_'
'šed'
'řit_'
'řet'
'ňuj'
'ňoval'
'čtyř_'
'čit'
'útoku_'
'íř'
'íka_'
'ída'
'íd'
'zásah'
'zásadu_'
'záp'
'zák'
'zá'
'zvláštních_'
'způsoben'
'zneužívání_'
'značn'
'znalostí_'
'zli'
'zer'
'zdůrazňuje_'
'zdálo_'
'zdroji_'
'zavázal'
'zavedl'
'zas'
'zapla'
'zaměřil'
'zaměstnanci_'
'zamítnut'
'zajišťuje_'
'yo'
'yesterday_'
'wonder_'
'wn_'
'wines_'
'welcomes_'
'vůdce_'
'vývoz'
'výrobní_'
'východ_'
'víz'
'ví'
'vzp'
'vysokého_'
'vyloučen'
'vydán'
'vyb'
'vt'
'vražd'
'vodou_'
'vládních_'
'vize_'
'vis'
'violent_'
'victim_'
'veřejnost_'
'venkova_'
'velmoc'
'veden'
'vd'
'vaz'
'valuable_'
'vala_'
'uzavření_'
'uvedla_'
'utrpení_'
'určen'
'uplatňovat_'
'udělen'
'tů_'
'týdnů_'
'týdn'
'tut'
'tube_'
'trvat_'
'trestných_'
'transform'
'tranquil'
'track_'
'tori'
'tický'
'tepl'
'tah'
'síťov'
'synt'
'světových_'
'světov'
'surprised_'
'sur'
'subjects_'
'sub_'
'stížnost'
'stunning_'
'stránce_'
'stručn'
'struck_'
'strange_'
'stocks_'
'stin'
'stil'
'stem_'
'statut'
'statistik'
'stabilní_'
'společným_'
'spokojen'
'spi'
'sphere_'
'spat'
'současný_'
'současnou_'
'soudy_'
'son'
'soft_'
'snižuje_'
'slowly_'
'sive_'
'silou_'
'sia_'
'showed_'
'serves_'
'sep'
'senát'
'sd'
'schemes_'
'scar'
'saun'
'sankcí_'
'rát'
'ryt'
'rv'
'rs'
'rozb'
'rovno'
'rne'
'residential_'
'renewed_'
'reli'
'released_'
'regula'
'registration_'
'reformá'
'reflects_'
'raž'
'raf'
'radical'
'quota_'
'příčin_'
'příspěvky_'
'přípravek_'
'případu_'
'příkaz'
'příbuzn'
'přistěhovalců_'
'připravit_'
'připraveny_'
'přijatých_'
'předán'
'předn'
'přede'
'pán'
'pá'
'pust'
'pus'
'pub'
'psa'
'prá'
'prvních_'
'prudce_'
'proz'
'provádět_'
'pron'
'prodej_'
'probíhá_'
'problémům_'
'pravo'
'pramen'
'pracovníky_'
'poří'
'pozoruhodn'
'pozornosti_'
'pověřen'
'použitelné_'
'posílil'
'possibilities_'
'pokl'
'podáva'
'podán'
'podv'
'podstatně_'
'podporují_'
'podporoval'
'podmínk'
'poblíž_'
'platební_'
'pit_'
'picturesque_'
'phrases_'
'perform_'
'pala'
'pace_'
'označení_'
'overt'
'our'
'oup'
'otevření_'
'ote_'
'oste'
'oru'
'organ'
'opravdov'
'opakovaně_'
'oma'
'ola_'
'oku'
'oid'
'oi'
'offices_'
'ody_'
'odt'
'odstraněn'
'odráží_'
'odmíta'
'odil'
'odch'
'odbor'
'občanského_'
'obzvlášť_'
'obyvatele_'
'obraz_'
'obranu_'
'obnovit_'
'objemu_'
'obav'
'nč'
'né'
'nákladní_'
'nulov'
'norem_'
'nka_'
'ning'
'nezávisl'
'neznamená_'
'nerv'
'nen_'
'nemáme_'
'nelegální'
'naším_'
'nan'
'nahradit_'
'myšlenky_'
'museli_'
'movie_'
'mountains_'
'mme'
'mixed_'
'mezer'
'mezd_'
'medicines_'
'mechanismy_'
'mad'
'lídři_'
'lv'
'los'
'loni_'
'logi'
'load'
'll'
'liquidity_'
'lh'
'leh'
'laugh'
'lation_'
'lady_'
'kři'
'kód'
'ky'
'kurt_'
'kultur'
'krátkodobé_'
'kontrolovat_'
'kontrole_'
'kontrol'
'kompromisu_'
'knih'
'klidn'
'killed_'
'ker_'
'kee'
'ked_'
'kat'
'kapitán_'
'kapacity_'
'kap'
'jednotk'
'jediné_'
'jazyky_'
'jar'
'iň'
'ivé_'
'ium_'
'ised_'
'involves_'
'intervence_'
'intend_'
'ins'
'innovative_'
'informován'
'iness_'
'ines_'
'indu'
'impa'
'ila'
'iky_'
'ika'
'ida'
'hý'
'hurt_'
'humanity_'
'hovoří_'
'hotelů_'
'histori'
'head'
'hav'
'harmonisation_'
'gym_'
'grown_'
'grew_'
'gna'
'globalizaci_'
'geographical_'
'gem'
'fungoval'
'fro'
'francouzsk'
'fourth_'
'foundations_'
'fit_'
'finančním_'
'fik'
'fell_'
'fallen_'
'faces_'
'extended_'
'exploit'
'exit_'
'exi'
'execution_'
'ety_'
'estimates_'
'ess'
'erov'
'eného_'
'entity_'
'emp'
'emn'
'emb'
'elli'
'elit'
'ekonomických_'
'ekonomická_'
'ease_'
'earth_'
'důvěry_'
'dům_'
'dív'
'dvora_'
'dramatically_'
'down'
'dovol'
'dovnitř_'
'dotčený'
'dosáhly_'
'domu_'
'dojem_'
'dohodnout_'
'doh'
'dog_'
'documentation_'
'dluhů_'
'dlouhý'
'divi'
'diagnos'
'dez'
'desp'
'dera'
'delicious_'
'daňov'
'cro'
'consultation_'
'comment_'
'colour'
'coast_'
'clothes_'
'cial'
'cháp'
'chá'
'chyby_'
'chyb'
'chová'
'chen_'
'ched_'
'cest'
'certainty_'
'cell'
'celkový_'
'castle_'
'care'
'bug_'
'budov_'
'bir'
'bigger_'
'bezpečí_'
'bezd'
'becomes_'
'bal_'
'aze'
'authorised_'
'authorisation_'
'audit_'
'att'
'atel'
'assist_'
'assi'
'art'
'ars_'
'arguments_'
'appropriations_'
'applying_'
'aplikací_'
'alu_'
'alliance_'
'aku'
'age'
'addressing_'
'adapta'
'acting_'
'ach'
'ac'
'Západu_'
'Zn'
'Zdá_'
'Zde_'
'Zap'
'Whether_'
'Vě'
'Vl'
'Um'
'Ul'
'UNI'
'Tv'
'Tou'
'Torre'
'Ti_'
'Taking_'
'Switzerland_'
'Světová_'
'Sunday_'
'Suites_'
'Sti'
'Sna'
'Sau'
'SMEs_'
'SD'
'Regulations_'
'Představ'
'Program'
'Pr'
'Pouze_'
'Palestinci_'
'Náš_'
'NÁ'
'Not'
'Northern_'
'Nemoh'
'Nap'
'Nakonec_'
'Mod'
'Mir'
'Mini'
'Mezi'
'Mercure_'
'MA_'
'License_'
'Lea'
'Las_'
'Lan'
'LD'
'Kri'
'KE'
'KA'
'Jon'
'Indi'
'Hostel_'
'Hos'
'Hea'
'Golfové_'
'Frontex_'
'Fro'
'Fle'
'Firstly_'
'Et'
'Egypt'
'Ea'
'EUROPEAN_'
'Dá'
'Down'
'Dia'
'Cyprus_'
'Conc'
'Cla'
'Chapter_'
'Carl'
'Card'
'Camp'
'Bur'
'Bosnia_'
'Bosn'
'Blízkém_'
'Bill_'
'Ban'
'Ay'
'Arc'
'Ameri'
'Alpha_'
'Airlines_'
'Air'
'Act'
'About_'
'Abb'
'73_'
'700_'
'68_'
'600_'
'33'
'.“ _'
'! '
' »_'
'živo'
'žijí_'
'žel'
'ťov'
'šť_'
'šu'
'štít'
'řít_'
'řez'
'ěn'
'ějšího_'
'čov'
'čné_'
'čn'
'čerpa'
'černo'
'Čínou_'
'ývá_'
'ústavní_'
'úplné_'
'úmrtí_'
'úkolem_'
'údržb'
'ón'
'íra'
'éry_'
'ér'
'áty_'
'ák_'
'Ústav'
'¡_'
'zřetelně_'
'závisl'
'závažn'
'základním_'
'základ'
'zvolit_'
'zodpovědnosti_'
'zmínil_'
'zm'
'zločinu_'
'zemřel'
'zdrojem_'
'zařízen'
'zakr'
'zak'
'zahájit_'
'zahrnut'
'zachránit_'
'zabývá_'
'ykl'
'wm'
'western_'
'wea'
'wat'
'warp_'
'ward'
'vůle_'
'věřitelů_'
'vědč'
'vědeck'
'významu_'
'výpo'
'výkon'
'výklad'
'výhradně_'
'výhledem_'
'výdaj'
'výběru_'
'výborn'
'vída'
'vztahují_'
'vyč'
'využívají_'
'vyhlášení_'
'volební_'
'vlivu_'
'vk'
'vidí_'
'video'
'ves'
'vene'
'vegetables_'
'vedly_'
'var_'
'užit'
'učinil'
'usm'
'určit_'
'ury_'
'uring_'
'ups'
'upl'
'unfortunately_'
'ukázal_'
'ukončena_'
'ujícím_'
'udržitelný_'
'témata_'
'typick'
'turning_'
'tun_'
'trop'
'tras'
'transportation_'
'transatlantic_'
'touh'
'tle_'
'tisíce_'
'tisku_'
'time'
'tick'
'therapy_'
'terrorists_'
'terminal_'
'teprve_'
'tendenc'
'temperature_'
'temp'
'tec'
'taught_'
'tariff_'
'targeted_'
'takovým_'
'tactic'
'tackle_'
'tables_'
'síla_'
'sá'
'svoji_'
'supporters_'
'suppliers_'
'such'
'střel'
'státního_'
'stylu_'
'stupně_'
'struktur'
'strict_'
'strategický'
'stick_'
'steel_'
'starts_'
'stanoveny_'
'spouses_'
'spor_'
'společná_'
'souhlasí_'
'soudce_'
'solidarit'
'slov_'
'slad'
'skutečn'
'skleníkových_'
'sk_'
'sheet_'
'sey_'
'segment'
'scu'
'schválen'
'sb'
'sar'
'rů_'
'rádi_'
'rád'
'rychlé_'
'rum'
'rozšiřování_'
'rozsáhlý'
'rozporu_'
'rozhod'
'rival'
'rip'
'rib'
'reta'
'reporting_'
'rent_'
'remote_'
'rely_'
'reliable_'
'registr'
'regionálních_'
'reas'
'rated_'
'rar'
'qualified_'
'q'
'příčin'
'přízniv'
'přítel'
'přístroje_'
'příjmu_'
'přišel_'
'přizpůsobení_'
'přistěhovalectví_'
'připomenout_'
'přik'
'přijít_'
'přesvědčen'
'přestal'
'přem'
'pís'
'pur'
'ptic'
'proximity_'
'proved_'
'proud_'
'proud'
'prosper'
'prosaz'
'promluvit_'
'prohibit'
'print_'
'press'
'pravd'
'pracovního_'
'požár'
'požádal_'
'považují_'
'použitím_'
'poskytnut'
'položku_'
'pollution_'
'pojist'
'pohr'
'podstatn'
'pochopil'
'pob'
'plyn'
'pln'
'platby_'
'plast'
'path'
'pas_'
'parliament_'
'parlamentní_'
'panoramic_'
'pack'
'označen'
'ownership_'
'ovní'
'ovan'
'otc'
'osp'
'onal_'
'omezené_'
'ology_'
'okna_'
'ohrožen'
'off'
'oddělen'
'oci'
'ochrana_'
'ochot'
'obtížn'
'obnov'
'níky_'
'návštěv'
'nástroji_'
'nástrojem_'
'normální_'
'noi'
'noh'
'nezávislosti_'
'nezá'
'nestačí_'
'nestabilit'
'ners_'
'nepřízniv'
'nepřed'
'nemělo_'
'nejlépe_'
'neje'
'naznačují_'
'naznačuje_'
'naz'
'naturally_'
'namísto_'
'nahoru_'
'nah'
'nabídku_'
'moř'
'movements_'
'motiv'
'monitor'
'mní'
'minulý_'
'mina'
'mes'
'menta'
'manager_'
'malaria_'
'majitel'
'ls'
'lně_'
'lla'
'liti'
'length_'
'legally_'
'lav'
'landscape_'
'kvalitní_'
'kritik'
'kontrolou_'
'kolo'
'koli_'
'kilometrů_'
'kids_'
'kdykoliv_'
'kartu_'
'kart'
'jiho'
'jen'
'jednotné_'
'jednoduché_'
'iče'
'iu'
'istick'
'ira'
'ion'
'invitation_'
'investovat_'
'interior_'
'interface_'
'intelligence_'
'insul'
'insufficient_'
'institut'
'ino'
'iniciativu_'
'inh'
'infa'
'implications_'
'ili'
'igu'
'if'
'idu'
'ido'
'ictví_'
'ick'
'há_'
'hospodářským_'
'hospodářském_'
'holo'
'holidays_'
'hodn'
'hodl'
'hoc_'
'hlás'
'hluboce_'
'hled'
'hlas'
'hed'
'harmoni'
'harmful_'
'happening_'
'handling_'
'han_'
'gradually_'
'gather'
'functional_'
'frequently_'
'frequency_'
'fon'
'fly_'
'fel'
'feed'
'federal_'
'fe_'
'ez_'
'extra'
'experiences_'
'expenses_'
'estate_'
'eso'
'erb'
'entre'
'enti'
'entertainment_'
'engage_'
'encouraged_'
'důležitější_'
'dě_'
'dynami'
'dvou'
'drží_'
'držel'
'dryer_'
'drobn'
'dre'
'dovolte_'
'dotace_'
'dosah'
'doručen'
'doporučuje_'
'dopadů_'
'dominated_'
'distr'
'dishes_'
'discharge_'
'disabled_'
'directed_'
'die'
'detected_'
'description_'
'deposit_'
'dependence_'
'deeply_'
'deco'
'decisive_'
'deci'
'dde'
'dating_'
'currencies_'
'creative_'
'creates_'
'cr_'
'corr'
'cook'
'conveniently_'
'constitutional_'
'constant_'
'confirmed_'
'conducted_'
'components_'
'complain'
'compatible_'
'coc'
'citliv'
'cid'
'chyba_'
'choices_'
'chen'
'centuries_'
'ceiling_'
'causing_'
'cancel'
'bě_'
'bí_'
'broadcast'
'britský'
'britské_'
'breath'
'brain_'
'bach_'
'bac'
'az'
'aw'
'ave'
'auto_'
'audit'
'ata_'
'are'
'api'
'anywhere_'
'anyway_'
'anou_'
'anglick'
'angl'
'ane'
'alive_'
'alin'
'aliance_'
'akci_'
'aircraft_'
'advertising_'
'actors_'
'aco'
'acc'
'absolute_'
'aba'
']] '
'Zd'
'Zač'
'Work'
'Wood'
'Within_'
'William_'
'Wil'
'Wan'
'Vždyť_'
'View_'
'Vic'
'Velmi_'
'Uz'
'Uk'
'Tho'
'Third_'
'Tenisový_'
'Stav'
'Směrnice_'
'Slovenia_'
'Sl'
'Similarly_'
'She'
'ST_'
'Rá'
'Que'
'PŘÍLOHA_'
'Pros'
'Problém_'
'Poznámky_'
'Portuguese_'
'Portugalsko_'
'Polsku_'
'Pin'
'Person'
'Part_'
'Park'
'Para'
'Palm'
'PL'
'Oxford_'
'Organization_'
'Opravdu_'
'Oper'
'Obl'
'Obecně_'
'Někteří_'
'NÍ_'
'Next_'
'Nevertheless_'
'Nemůžeme_'
'Nejs'
'Nei'
'Můj_'
'Mé'
'Myslí'
'Muslims_'
'Monte'
'Mol'
'Mis'
'Ministers_'
'Milan_'
'Metro_'
'Maastricht_'
'Lisboa_'
'Lie'
'Krytý_'
'Kol'
'Jistě_'
'Jin'
'Jim'
'Jenže_'
'Indii_'
'Ib'
'Hug'
'Holiday_'
'Hal'
'Had'
'Germans_'
'Fond_'
'Finland_'
'Fil'
'Father_'
'FI_'
'Exp'
'Ent'
'ET_'
'Dr'
'Dod'
'Des'
'Dej'
'Culture_'
'Cu'
'Course_'
'Conver'
'Control_'
'Cond'
'Comfort_'
'Clinton_'
'Cli'
'Chu'
'Chamber_'
'Can'
'CR'
'Bringing_'
'Bankruptcy_'
'Baltic_'
'Automatic_'
'Asi'
'Applause_'
'Alternative_'
'Ale'
'Alb'
'Air_'
'AT'
':%_'
'59'
'53'
'51'
'19th_'
'1979_'
'125_'
' ] _'
' .'
'…_'
'‘_'
'— _'
'у'
'α'
'žova'
'žné_'
'ži'
'žaloby_'
'ůst'
'šťastn'
'ším'
'štěn'
'šla_'
'šit_'
'ša'
'říkal_'
'říkají_'
'říd'
'ň'
'ěv'
'číta'
'čný'
'členka_'
'čko'
'červ'
'čekal'
'časopis'
'Čt'
'ýt_'
'ýr'
'úředník'
'účastník'
'íč'
'íze'
'ína'
'ín_'
'íma'
'íli'
'íkem_'
'év'
'áp'
'ále'
'Ý'
'´_'
'zón'
'získala_'
'závěru_'
'závažné_'
'zvyšování_'
'zveřejněn'
'způsobuje_'
'znič'
'změ'
'zma'
'zkr'
'zbytečn'
'zařazení_'
'začaly_'
'zaslouží_'
'zaručit_'
'zapojení_'
'zapa'
'založena_'
'yc'
'yard_'
'wood'
'withdrawal_'
'wild_'
'whilst_'
'waters_'
'watching_'
'wards_'
'wages_'
'všeobecn'
'věří_'
'věstníku_'
'věnoval'
'vědecké_'
'výzvu_'
'vývozu_'
'vývoz_'
'výsledku_'
'výrobku_'
'výchov'
'vzrostl'
'vzdělávací_'
'vzal_'
'vyvolan'
'vytr'
'vyro'
'vypr'
'vypadá_'
'vypadal'
'vyjádření_'
'vyberte_'
'vrt'
'vov'
'voluntary_'
'volební'
'vně_'
'visa_'
'viable_'
'veřejný_'
'vesmíru_'
'vent'
'velikosti_'
'velikost_'
'vele'
'vedoucí'
'vašich_'
'uznáva'
'uprostřed_'
'uo'
'univerzit'
'universities_'
'uniform'
'unfo'
'undoubtedly_'
'undertaking_'
'umění_'
'udržovat_'
'ubl'
'ube'
'týdny_'
'tun'
'trvale_'
'trap'
'transform_'
'transfers_'
'tlak'
'tip'
'tim'
'terorismus_'
'technických_'
'tch_'
'tch'
'tax'
'tav'
'tak'
'tabulk'
'síl'
'sz'
'světového_'
'subs'
'stylov'
'stuff_'
'strá'
'strukturálních_'
'strav'
'stažení_'
'stanoveno_'
'stanice_'
'stance_'
'stain'
'srovnateln'
'spě'
'spuštěn'
'spotřebitelé_'
'současných_'
'soul_'
'souhrn'
'souhlas_'
'som'
'sociálním_'
'soa'
'snaž'
'sn'
'smutn'
'smile_'
'sma'
'sly_'
'skými_'
'skoro_'
'skin_'
'sively_'
'sions_'
'sing'
'siln'
'silence_'
'shut_'
'shing_'
'sharp_'
'setup_'
'securities_'
'sdílení_'
'schools_'
'saved_'
'růstem_'
'rys'
'rychlý_'
'rybář'
'rozsáhl'
'rozl'
'rozhodnut'
'roof_'
'ron'
'rok'
'rob'
'rin'
'ril'
'rev'
'retire'
'respekt'
'resp'
'reputation_'
'reproduk'
'regret_'
'regimes_'
'records_'
'raising_'
'rail_'
'radě_'
'quantities_'
'přírodních_'
'přípravy_'
'připraven_'
'připom'
'přinést_'
'přesvědčena_'
'přemýšle'
'předpověd'
'předložil_'
'předešl'
'písmeno_'
'písmen'
'právu_'
'právník'
'providers_'
'prospěšn'
'propr'
'projevil'
'prohl'
'prison_'
'principy_'
'preparing_'
'pping_'
'pped_'
'pozem'
'používán'
'pouhé_'
'postup'
'posl'
'ports_'
'poradenství_'
'populations_'
'poměrně_'
'polit'
'poklesu_'
'pohl'
'podvodn'
'podporován'
'pode'
'platform_'
'plate'
'piece_'
'phenomenon_'
'permitted_'
'peer'
'pau'
'partnery_'
'partitions_'
'ozbrojen'
'oxi'
'overcome_'
'ovatel'
'oss'
'oru_'
'organis'
'opětovné'
'oppose_'
'operací_'
'opakuj'
'ons'
'onemocnění_'
'ome'
'okraj'
'okolní'
'okay_'
'og_'
'odsouzen'
'odkud_'
'odk'
'odhalil'
'obviously_'
'obrázk'
'obrazovk'
'obrany_'
'obo'
'obliged_'
'obdržel'
'nějaká_'
'něj'
'ně'
'národním'
'nutně_'
'nul_'
'nte'
'ností_'
'nko'
'nezm'
'ness'
'nekon'
'největším_'
'nec'
'nebezpečné_'
'nabíze'
'místech_'
'mírn'
'myslet_'
'myln'
'musela_'
'morální_'
'mort'
'mnoh'
'missing_'
'mirror_'
'minut'
'minul'
'minorities_'
'migrant'
'menšiny_'
'meal_'
'mba'
'masa_'
'marked_'
'male_'
'magnificent_'
'líb'
'lékař'
'loud'
'losing_'
'logy_'
'local'
'llo'
'literary_'
'listin'
'lidstv'
'lid'
'license_'
'licenci_'
'levn'
'letters_'
'letos_'
'leto'
'lesson_'
'ld_'
'lag'
'křesťansk'
'kře'
'kční_'
'káv'
'kus'
'kurzu_'
'ktor'
'kritérií_'
'ková_'
'kore'
'konzultace_'
'koloni'
'kolegy_'
'knihovn'
'klasick'
'kit'
'keys_'
'justified_'
'jun'
'jsk'
'jiném_'
'jezd'
'jednotek_'
'jal'
'jakékoli_'
'iž'
'iš'
'ively_'
'ito'
'itelé_'
'iteln'
'issuing_'
'invasion_'
'inte'
'init'
'infe'
'industrializ'
'index'
'impose_'
'ien'
'ický_'
'ich_'
'hoř'
'honor'
'hon'
'historické_'
'hir'
'hill_'
'hes'
'hed_'
'heads_'
'hall'
'habit'
'gy'
'gest'
'gardens_'
'formát'
'formula'
'forecast'
'floors_'
'filter'
'fica'
'fertili'
'fax_'
'fashion_'
'fare_'
'false_'
'faced_'
'extremist'
'expertise_'
'expan'
'eut'
'esti'
'eo'
'enou_'
'enhanced_'
'energetickou_'
'employed_'
'employ'
'emphasize'
'eliminate_'
'ekonomický_'
'eko'
'efektivit'
'ební_'
'eating_'
'důvěrn'
'důležitost_'
'dět'
'dějinách_'
'děj'
'dub'
'dramatic_'
'dostane_'
'dost'
'domov'
'dolar_'
'dokonal'
'dohod'
'discovered_'
'ding'
'diminish'
'digit'
'dev'
'delegace_'
'dek'
'decent_'
'db'
'databáze_'
'dají_'
'cy'
'cus'
'count_'
'constructive_'
'conse'
'configuration_'
'conferences_'
'conf'
'conc'
'colleague_'
'coby_'
'civilní'
'cil'
'chů'
'chtít_'
'cast'
'capture_'
'candidates_'
'cancer_'
'cad'
'břehu_'
'bru'
'browser_'
'broad'
'bright_'
'bread_'
'bral'
'boom_'
'blíž'
'bles'
'blame_'
'bere_'
'bedroom_'
'bate'
'ař'
'ačn'
'az_'
'award_'
'ava_'
'austerity_'
'atur'
'attract'
'attempting_'
'ational_'
'ates_'
'ata'
'assigned_'
'aspekty_'
'ash'
'arn'
'argument'
'aplikaci_'
'apart'
'ank'
'ange'
'analýzy_'
'americkou_'
'alize_'
'alc'
'aktu'
'agentur_'
'agency_'
'adopting_'
'ado_'
'administrativa_'
'adl'
'adjusted_'
'adapted_'
'acknowledged_'
'abuse_'
']]'
'Zemi_'
'Working_'
'Wh'
'Wall'
'Vyp'
'Vezm'
'Van_'
'Van'
'VE'
'UN'
'Tat'
'Taj'
'TP_'
'TOTO_'
'Svět_'
'Sur'
'Stre'
'Steam_'
'Standard_'
'Spojenými_'
'Slovak_'
'Sec'
'School_'
'Saúdsk'
'Ros'
'Republican_'
'Red'
'RIS'
'PŘIJALA_'
'Protection_'
'Prosím_'
'Prop'
'Prom'
'Procedural_'
'Premier_'
'Potlesk_'
'Polsko_'
'Pokr'
'Point_'
'Place_'
'Pie'
'Pic'
'Pension_'
'Pav'
'Parlamentem_'
'Pana'
'PN'
'PM_'
'Osob'
'Několik_'
'Nic'
'News_'
'Ned'
'Naopak_'
'Mun'
'Mid'
'Merc'
'Meanwhile_'
'Matt'
'MU'
'Love'
'Lor'
'Lon'
'Lisabonská_'
'Lar'
'Kulečníky_'
'Kel'
'KI'
'Jun'
'Jedním_'
'Jednou_'
'Jar'
'Japonsku_'
'Int'
'Industrial_'
'High'
'Heathrow_'
'Gua'
'Gardens_'
'Fundamental_'
'Fri'
'Francouz'
'Forum_'
'FS'
'FOR'
'Excel'
'Ele'
'Dominion_'
'Dok'
'Divorce_'
'District_'
'DR'
'Cohesion_'
'Climate_'
'Case_'
'Car'
'CS'
'CON'
'Bulharsk'
'Blair_'
'Black_'
'Bah'
'BER'
'Arabic_'
'Apo'
'And'
'Alp'
'All'
'Alexander_'
'Ada'
'Ach'
'AL_'
'ACP_'
'AA'
'64'
'62'
'240'
'130_'
'/ '
' * _'
' ) , _'
' %, _'
'牌'
'。_'
'• _'
'“)'
'р'
'žk'
'žil'
'Žid'
'Ži'
'Ů_'
'ťte_'
'štění_'
'šní_'
'Ša'
'ňsk'
'ňk'
'ěny_'
'čísle'
'čně_'
'člun'
'účinný_'
'úzce_'
'úlo'
'úkon'
'údaj'
'ór'
'ñ'
'íku_'
'ì'
'éře_'
'és_'
'ér_'
'éa'
'å'
'áně'
'álov'
'áj'
'áhl'
'}}'
'závazků_'
'zvlád'
'způsobů_'
'zpravodaj'
'zpoplatněn_'
'zon'
'zodpovědn'
'zobraz'
'známky_'
'změnám_'
'zkušeností_'
'zjištěn'
'zeměpisn'
'zařazen'
'zaměstnance_'
'zakázán'
'zajist'
'yl_'
'xt'
'wish'
'wise_'
'winter_'
'weigh'
'wei'
'weather_'
'wave_'
'warned_'
'významem_'
'vývojář'
'výstavb'
'výsled'
'výroba_'
'výnosy_'
'výhodn'
'výhled_'
'východu_'
'vír'
'využívá_'
'vyr'
'vynaložen'
'vylepš'
'vydal'
'vstupuje_'
'volném_'
'vodu_'
'vizi'
'vita'
'visi'
'viewed_'
'vidím_'
'versions_'
'venkov'
'vedlo_'
'vc'
'vary_'
'vani'
'vai'
'učn'
'učinila_'
'uvedeno_'
'uskutečnění_'
'urgently_'
'ura_'
'upozornil_'
'unnecessary_'
'unl'
'univerzity_'
'unions_'
'understood_'
'undermine_'
'umbi'
'ulá'
'ula_'
'ui'
'uhlíku_'
'uf'
'třetin'
'tán'
'tz'
'typically_'
'typ'
'trvá_'
'troops_'
'triple_'
'treat_'
'trea'
'translator_'
'traditions_'
'tourists_'
'toli'
'tní'
'tlumoč'
'tle'
'tkví_'
'tid'
'tics_'
'texts_'
'terminál'
'tentokrát_'
'tender_'
'telling_'
'tebou_'
'taste_'
'tank'
'tang'
'tai'
'tac'
'tabák'
'sídl'
'sán'
'surroundings_'
'suc'
'stáhnout_'
'studií_'
'strengthened_'
'stov'
'stored_'
'stisk'
'sten'
'sted_'
'statistics_'
'stanovená_'
'standardní_'
'ssion'
'squa'
'správným_'
'speed'
'speciální_'
'spad'
'sovereignty_'
'současného_'
'sně'
'sním'
'službách_'
'skutečná_'
'skot'
'sjedn'
'simul'
'sigh'
'sic'
'shel'
'senior_'
'sending_'
'semi'
'selling_'
'sehrá'
'seal'
'scénář'
'scr'
'scho'
'sche'
'satisfied_'
'sample_'
'rámc'
'rozvod'
'rozsudku_'
'rozpravu_'
'rozhovory_'
'row_'
'rovné_'
'rove'
'route_'
'rodin'
'rezervní'
'rez'
'revolution'
'reveal'
'resolved_'
'repre'
'replied_'
'repeatedly_'
'repa'
'remarkable_'
'regulators_'
'regardless_'
'refers_'
'recording_'
'realizaci_'
'ray_'
'rave'
'rare_'
'ranging_'
'raj'
'quantity_'
'přírodní_'
'případné_'
'přispívá_'
'přirozen'
'přijímání_'
'převá'
'převod'
'přesn'
'překvapiv'
'přehl'
'předsed'
'předpokláda'
'přednost_'
'předkláda'
'přechod_'
'pře'
'pěkn'
'pád'
'pun'
'pump'
'publish'
'průmyslov'
'proxy_'
'provádě'
'prosazovat_'
'promised_'
'prokázat_'
'program'
'profesionální_'
'probíha'
'prim'
'preceden'
'pravidl'
'pravidelně_'
'pravděpodobn'
'ppe'
'poškození_'
'poč'
'poznámk'
'poskytovatel'
'posilování_'
'poptávku_'
'poo'
'pomal'
'polovině_'
'poli_'
'pokyn'
'pohod'
'podstaty_'
'podporuji_'
'pochopení_'
'plánování_'
'plenary_'
'plav'
'planetu_'
'plain_'
'pipe'
'phone'
'pher'
'pha'
'password_'
'participants_'
'paragraphs_'
'palestinský'
'očima_'
'ověření_'
'ovi'
'ouz'
'otn'
'ostr'
'ose'
'ors'
'opt_'
'opposed_'
'oo_'
'omina'
'ohromn'
'ohled'
'oha'
'offs'
'odvolání_'
'odstranit_'
'odst'
'odpovídá_'
'odpor_'
'odměn'
'ochránce_'
'ochrán'
'oběma_'
'obrovský_'
'obor'
'objects_'
'nů_'
'někde_'
'nějak_'
'nízký'
'nář'
'následně_'
'námitk'
'náklad'
'nsk'
'novel'
'nol'
'nine_'
'nick'
'nezávislý'
'nezas'
'nevě'
'nevyv'
'neve'
'nesou'
'nese'
'neroz'
'nere'
'nepl'
'neop'
'nemocn'
'nemoci_'
'nemo'
'nel_'
'neg'
'nechce_'
'nds_'
'nder'
'nci'
'nb'
'navr'
'narrow_'
'nano'
'nai'
'nadcházejících_'
'nacháze'
'měřítku_'
'mód'
'míst'
'myšlenku_'
'myšlenka_'
'mysl'
'moi'
'modr'
'modelu_'
'mluví'
'mir'
'ministrů_'
'minimálně_'
'minimis'
'mimo'
'milion'
'miles_'
'metra_'
'metal'
'medi'
'mber'
'mant'
'lé_'
'lázeň_'
'logic_'
'lock_'
'lity_'
'lil'
'lights_'
'lidov'
'liberální_'
'lessons_'
'lek'
'legislativní_'
'legislativ'
'legislat'
'lect'
'lc'
'launched_'
'last'
'label_'
'kému_'
'kál'
'kun'
'kum'
'ktn'
'koordinace_'
'koná'
'konkurenci_'
'kom'
'kola_'
'klimatických_'
'kl_'
'kil'
'každoročně_'
'kapacit_'
'kamarád'
'kab'
'jších_'
'jím_'
'judgements_'
'jpg_'
'jme_'
'iv_'
'italsk'
'ismus_'
'invited_'
'intra'
'internetových_'
'interc'
'instructions_'
'insist_'
'informovat_'
'informal_'
'infi'
'inf'
'inequality_'
'imprison'
'imp'
'imo'
'ime_'
'ignore_'
'identifik'
'ická_'
'ickou_'
'iat'
'hrozi'
'household_'
'hostům_'
'hopes_'
'homes_'
'holi'
'hodin'
'hod_'
'hlasoval_'
'hk'
'hide_'
'hes_'
'heritage_'
'helps_'
'heavily_'
'hazard'
'haven_'
'hal_'
'gut'
'guaranteed_'
'greatly_'
'graph_'
'globaliz'
'girls_'
'gh'
'generální_'
'gener'
'gar_'
'gained_'
'funkcí_'
'fundamental'
'freedoms_'
'fraud_'
'francouzské_'
'fosilních_'
'fiskální'
'ffs_'
'federa'
'ečk'
'exporting_'
'explo'
'exclusively_'
'examine_'
'exa'
'ev_'
'eu_'
'ere_'
'entries_'
'ently_'
'engineer'
'enemy_'
'enco'
'employers_'
'emission_'
'emisemi_'
'embar'
'elevator_'
'ekosystém'
'ees_'
'eck'
'důsled'
'důležitým_'
'důležitých_'
'důkaz_'
'dřív_'
'děl_'
'dějin_'
'délk'
'dvůr_'
'dveř'
'dvacet_'
'dur'
'dumping_'
'duchu_'
'dox'
'dostatečné_'
'dopravní_'
'domácnosti_'
'doctors_'
'dnešních_'
'distribu'
'diskriminace_'
'disi'
'directory_'
'dir'
'dil_'
'dictionary_'
'dialog'
'df'
'devi'
'detail'
'dest'
'denní_'
'deflation_'
'decides_'
'decentraliz'
'crack'
'covers_'
'cov'
'count'
'converter_'
'consequence_'
'confe'
'communicate_'
'colour_'
'coalition_'
'climb'
'class'
'cla_'
'civilní_'
'chudé_'
'chlap'
'ches_'
'cher'
'characters_'
'channel_'
'cha_'
'cestující_'
'ces'
'centraliz'
'cel_'
'cease'
'cat'
'běžných_'
'bydl'
'bublin'
'bs_'
'branch_'
'bottle'
'bond_'
'bli'
'bav'
'automobilové'
'automatic_'
'attitude_'
'atmosfér'
'ark'
'arise_'
'arbitra'
'angličtin'
'analýzu_'
'analog'
'amu'
'alise_'
'ake'
'affecting_'
'aff'
'advantages_'
'ache'
'], _'
'Zl'
'Zdrav'
'Yu'
'Web'
'WA'
'Všechno_'
'Vím_'
'Vis'
'Veli'
'VA'
'Using_'
'UC'
'Thanks_'
'Tady_'
'TT'
'Sí'
'Supreme_'
'Sud'
'Subs'
'Střední_'
'Stud'
'Structural_'
'Stri'
'Stability_'
'Spi'
'Space_'
'Sov'
'Slovenian_'
'Simplified_'
'Share'
'Sad'
'Ré'
'Road_'
'Reserve_'
'Qua'
'Přij'
'Pá'
'Putinov'
'Post_'
'Pomoc'
'Poly'
'Polo'
'Pers'
'Parní_'
'Parental_'
'PA_'
'Ovšem_'
'Outlook_'
'Německ'
'Nor'
'Nob'
'Nebo_'
'Mon_'
'Mnozí_'
'Mn'
'Mik'
'Martin'
'Mai'
'ME_'
'MD'
'Life_'
'Lid'
'Libya_'
'Libanonu_'
'Land'
'Ladies_'
'Kypr'
'Ky'
'Kou'
'Kosova_'
'Kodani_'
'Kim_'
'Ken'
'Kdy'
'Joe_'
'Jem_'
'Jednot'
'Interim_'
'Install'
'Innsbruck_'
'Indoor_'
'Inc'
'Hay'
'Have_'
'Gruzii_'
'Gr'
'Goe'
'Games_'
'Galileo_'
'GU'
'GM'
'Filip'
'FOR_'
'Dě'
'Din'
'Dec'
'Cris'
'Cou'
'Coo'
'Compa'
'Comp'
'Communist_'
'Cena_'
'Catholic_'
'CH_'
'Budapest_'
'Brother'
'Bow'
'Big_'
'BS'
'Argument_'
'Anna'
'Ann'
'Andr'
'Američanů_'
'AF'
';'
': “_'
': %_'
'47'
'202'
'200'
'1st_'
'.. _'
'-, _'
'+ _'
'))_'
' -'
'ы'
'п'
'б'
'Žádná_'
'šéf'
'šov'
'šlo_'
'šl'
'škrt'
'široké_'
'Španělsku_'
'Še'
'Řekl_'
'Řecka_'
'ěna_'
'ěn_'
'ěle'
'ďte_'
'červen'
'čekat_'
'čan'
'Čínsk'
'Čl'
'ă'
'üh'
'účet_'
'účel_'
'úvěry_'
'ústřední_'
'úro'
'úp'
'únik'
'ña_'
'íš'
'ítá'
'ík'
'éd'
'áze'
'átory_'
'ární'
'ÝCH_'
'°'
'závislost_'
'zátěž_'
'záplav'
'zákazník'
'záb'
'zvýšil_'
'zvířata_'
'zváž'
'zvyšovat_'
'zrovna_'
'způsobí_'
'zpravodaji_'
'zničit_'
'znečištění_'
'zjevné_'
'zjednoduš'
'zisky_'
'zho'
'země'
'zem_'
'zdo'
'začátek_'
'započ'
'zapojit_'
'zapojen'
'zane'
'založený'
'zakláda'
'zajišťování_'
'zajistily_'
'zahájil'
'zachoval'
'yed_'
'ych'
'yan'
'xu_'
'xeno'
'wre'
'wr'
'wishes_'
'wic'
'wheel'
'webov'
'wear'
'věnuje_'
'včas_'
'výzv'
'výz'
'vývozní_'
'výrobního_'
'výrobci_'
'výrob'
'výnos'
'výměnou_'
'výhodu_'
'výhledu_'
'válečn'
'vál'
'vzk'
'vzdálenost_'
'využíva'
'vypo'
'vymezen'
'vyhrazen'
'vyh'
'vybudovat_'
'vstoupí_'
'vrace'
'voln'
'voličů_'
'volbu_'
'volba_'
'voices_'
'vodní_'
'vnějších_'
'vit_'
'vhodn'
'vakcín'
'vad'
'užíva'
'uživatelům_'
'už'
'uvoln'
'uved'
'uva'
'usilovat_'
'určitý_'
'upozornit_'
'upn'
'uplatnění_'
'upgraded_'
'unwi'
'unsk'
'uncon'
'umírněn'
'umo'
'ukr'
'uklid'
'ujícího_'
'ught'
'udělali_'
'třetím_'
'tř'
'těžko_'
'táv'
'tvorbě_'
'tus_'
'tures_'
'tup'
'tter_'
'tter'
'tte_'
'trvalé_'
'trestní'
'transplant'
'transparentnost_'
'tragedy_'
'tradice_'
'tos'
'tobacco_'
'ting'
'til'
'threats_'
'testování_'
'terrible_'
'term'
'tered_'
'tek'
'teachers_'
'taxpayers_'
'tasks_'
'tape_'
'tane'
'talent_'
'taj'
'tain'
'sweet'
'světu_'
'svi'
'svazk'
'sustainability_'
'surov'
'surely_'
'sum_'
'subt'
'subjektů_'
'stěží_'
'straight'
'stock'
'ste_'
'stand'
'spy'
'spot'
'spolehliv'
'splněny_'
'span'
'sp'
'současn'
'sound'
'souhlasím_'
'sotva_'
'soc'
'snap'
'smu'
'smrt'
'sme'
'sloužil'
'slep'
'skupinami_'
'signál'
'shi'
'sever'
'sestav'
'sess'
'sdělovací'
'rychleji_'
'rva'
'ruské_'
'rui'
'rub'
'rozvíjet_'
'rozumí_'
'rozumn'
'rozr'
'rozpravě_'
'rozma'
'rozhodující_'
'rozhodovat_'
'rozhodovací'
'rozhodli_'
'rozdělen'
'rozdíl'
'roste_'
'roo'
'ront'
'rock_'
'rim'
'rica'
'rgi'
'revoluci_'
'restrukturalizace_'
'restri'
'restored_'
'restaura'
'resi'
'rer'
'rel'
'rejection_'
'registraci_'
'regarded_'
'refused_'
'rect'
'recommendation_'
'rdin'
'ration_'
'quar'
'qu'
'půjčky_'
'příštím_'
'přispě'
'přidá'
'přidat_'
'přeži'
'přev'
'překonat_'
'předsedovi_'
'předložený'
'předložení_'
'přechodné'
'pár'
'průměrný_'
'prv'
'producent'
'prodeje_'
'proda'
'principu_'
'princip_'
'princip'
'pressures_'
'preferences_'
'pracoval'
'požaduje_'
'pož'
'pozv'
'pozor_'
'pozi'
'povahu_'
'použijí_'
'posun'
'por_'
'populistick'
'poplatků_'
'pools_'
'polici'
'pokračování_'
'pokračoval'
'pokr'
'pohyb'
'poe'
'podívat_'
'podrobnost'
'podr'
'planet'
'place'
'pipeline_'
'ph_'
'penalty_'
'pen_'
'pattern_'
'patrn'
'parlamentem_'
'parameters_'
'parallel_'
'ožen'
'oře'
'ozn'
'ovlivnit_'
'outline'
'outl'
'otá'
'osob'
'ose_'
'orov'
'ore_'
'ord'
'opozice_'
'open'
'opatřením_'
'opat'
'onu_'
'okoj'
'odškodnění_'
'odvo'
'odoln'
'odn'
'ocitl'
'ochrann'
'obyvatel'
'obraz'
'obnoven'
'níci_'
'následoval'
'nám'
'náležit'
'nákladn'
'nábo'
'ny'
'ntu'
'ntif'
'nsi'
'noviná'
'novin'
'novel_'
'noti'
'nos_'
'norm'
'nor'
'nky_'
'ničení_'
'nimž_'
'nezletil'
'nezbytný_'
'nesmíme_'
'nerovnost_'
'nera'
'nepřím'
'nepom'
'nepodařilo_'
'nepoch'
'nenap'
'největších_'
'nejistot'
'necháp'
'nebezpečn'
'našim_'
'navrhla_'
'nastol'
'nastav'
'nalezen'
'nainstalova'
'nabízejí_'
'nabídnout_'
'městské_'
'mír'
'média_'
'myšlení_'
'muž'
'mt'
'mra'
'momentálně_'
'module_'
'mládež'
'missed_'
'mine'
'metod_'
'medicinal_'
'measured_'
'master_'
'mandát_'
'malá_'
'mai'
'lídr'
'látk'
'lve'
'lum'
'lowest_'
'love'
'lodge'
'lný'
'ller_'
'listiny_'
'lež'
'lett'
'lel'
'lec'
'leak'
'lde'
'laz'
'lawyer_'
'latin'
'las'
'laptop_'
'kými_'
'káz'
'kupředu_'
'kreditní_'
'kraj'
'kra'
'kouř'
'korupce_'
'kontrolní_'
'konflikty_'
'konferenci_'
'konf'
'konal'
'komisi_'
'komisaře_'
'kombinaci_'
'kombin'
'kolegů_'
'kok'
'kně'
'kne'
'klíčovou_'
'klimatické_'
'klidu_'
'kes'
'každo'
'kat_'
'karty_'
'kapitálových_'
'kapitálové_'
'kana'
'jízd'
'jímž_'
'joining_'
'jižní_'
'jednal'
'jdou_'
'jasná_'
'ičk'
'itost'
'ith'
'isti'
'iron_'
'ione'
'invest'
'internetov'
'intel'
'integrity_'
'instru'
'instability_'
'inspection_'
'inovací_'
'ini'
'informovan'
'infla'
'infections_'
'indic'
'incomp'
'imported_'
'illi'
'ille'
'ihned_'
'ignored_'
'hř'
'hypoték'
'hydrogen'
'husband_'
'hrubé'
'hru'
'hoval'
'house'
'holds_'
'holders_'
'hlášen'
'hlu'
'historick'
'hee'
'headed_'
'haus'
'hau'
'hap'
'hairdryer_'
'hair'
'gth'
'gru'
'grid'
'gr'
'gova'
'gge'
'fying_'
'fuck'
'fren'
'fov'
'fought_'
'foremost_'
'flag_'
'firm'
'fin_'
'fewer_'
'fears_'
'favor'
'fate_'
'fair'
'extremism'
'extraordinary_'
'exploring_'
'explicitly_'
'etik'
'etick'
'esca'
'ert'
'erp'
'erm'
'eren'
'ened_'
'ene_'
'enact'
'elo_'
'elektřiny_'
'ekologické_'
'ein_'
'eden'
'eb_'
'eal'
'důsledn'
'důsledkem_'
'déle_'
'dáv'
'dárc'
'dvojí'
'duch'
'druhém_'
'drives_'
'draw'
'dočasné_'
'dosáhl_'
'dostává_'
'dostala_'
'dosahuje_'
'dorf_'
'done'
'domain_'
'dole'
'doj'
'dohromady_'
'dodáva'
'dobrých_'
'disturb'
'discussing_'
'directions_'
'diplomatick'
'dimen'
'destruction_'
'desktop_'
'deseti'
'democrat'
'definován'
'definice_'
'deeper_'
'date'
'cure_'
'cular'
'cukr'
'crat'
'corp'
'conventional_'
'convenience_'
'contradict'
'consonant'
'coni'
'compulsory_'
'composition_'
'compos'
'communist_'
'coll'
'cleare'
'civilizac'
'cis'
'cereals_'
'cenov'
'celosvětové_'
'captain_'
'calm_'
'cab'
'bývalý_'
'bí'
'bydliště_'
'bubble_'
'brzd'
'broader_'
'breach_'
'boutique_'
'bohaté_'
'bo_'
'blocks_'
'black'
'bezplatné_'
'best'
'beneficial_'
'believes_'
'bek'
'band_'
'balíků_'
'ball'
'badly_'
'backed_'
'aš'
'avo'
'aviation_'
'attentive_'
'aster'
'assum'
'assert'
'assa'
'ask'
'asc'
'aria'
'arch'
'anu_'
'ambiciózní_'
'amat'
'alternativní_'
'alien'
'ald_'
'ail'
'aggressive_'
'agent_'
'ae'
'adi'
'acet'
'Zh'
'Zas'
'Zak'
'XI'
'Wen'
'Vše'
'Východ'
'Vit'
'Verona_'
'Venezuel'
'Vaš'
'Ut'
'Turecká_'
'Tulip_'
'Trump_'
'Thursday_'
'Termini_'
'Stá'
'Spa'
'Soud_'
'Soci'
'Sma'
'Skype_'
'Sign'
'SU'
'SL'
'SIS_'
'Rou'
'Riker_'
'Reg'
'Reform'
'Rec'
'Ram'
'Raf'
'Předmět_'
'Prohl'
'Production_'
'Poznámka_'
'Pozměňovací_'
'Plan'
'Ping_'
'Philip'
'Petit_'
'Paříž'
'Pass'
'PI'
'OS_'
'Někdy_'
'Nov'
'Nord'
'Nizozemsko_'
'Než_'
'Nepř'
'NGL_'
'ND'
'Minist'
'Michel'
'Michael_'
'Marg'
'Mak'
'Mají_'
'MM'
'Lul'
'Los_'
'LingvoSoft_'
'Lin'
'Lei'
'LE_'
'Kurd'
'Kos'
'Korean_'
'Kli'
'Kle'
'Kir'
'Kate'
'Kara'
'KD'
'Jsi_'
'Jordan_'
'James_'
'Iz'
'Israelis_'
'Iranian_'
'Intel'
'Ing'
'Import'
'Honor_'
'Hitler_'
'Hiking_'
'Head'
'Gruzie_'
'Gazy_'
'Free'
'Forge_'
'Following_'
'Fel'
'FT'
'FO'
'Evropanů_'
'Euratom_'
'Emp'
'Earl'
'Dur'
'Dublin_'
'Dosta'
'Dnešní_'
'Dani'
'Credit_'
'Cot'
'Consequently_'
'Computer_'
'Comm'
'Colo'
'Clar'
'Chan'
'Carlos_'
'Carlo'
'Calls_'
'California_'
'COM'
'CN'
'Budeme_'
'Brun'
'Boží'
'Bot'
'Blue_'
'Bla'
'Beh'
'Barb'
'Austrian_'
'Argentin'
'Applicable_'
'Ap'
'Ant'
'Among_'
'Alt'
'Abe'
'AKT_'
'; '
'61_'
'52'
'2030_'
'1950_'
'116_'
'002'
'), '
'''._'
'$_'
' --_'
'”_'
'ّ'
'ع_'
'ر_'
'ст'
'е_'
'žil_'
'šílen'
'šin'
'říkám_'
'řecké_'
'řeck'
'Řík'
'ěč'
'ěti'
'ěme_'
'čínských_'
'člověk'
'čit_'
'čerstv'
'čeho_'
'čaj'
'Číňané_'
'Ča'
'ČL'
'ývající'
'úředn'
'účinnější_'
'účinků_'
'úvěrové_'
'útuln'
'úspor_'
'úkoly_'
'ön'
'ózní_'
'ívá'
'ícího_'
'éra_'
'édl_'
'ça'
'ář'
'ávat_'
'Úředním_'
'ÁN'
'­ _'
'}}) '
'zůstal_'
'zásoby_'
'zásob'
'záruk'
'záloh'
'záleží_'
'základy_'
'zájmem_'
'záh'
'způsobené_'
'zpětn'
'zoufal'
'značnou_'
'znamen'
'znam'
'znal_'
'zkušenost_'
'zkoušk'
'zion'
'zen_'
'zdůrazn'
'zdokonal'
'zbytek_'
'zbož'
'zažil'
'začnou_'
'zač'
'zavře'
'zavádí_'
'zasla'
'zapr'
'zaměstnan'
'zakáza'
'zajímavé_'
'zají'
'zahrnují_'
'ysl'
'yla'
'xist'
'worsen'
'wit'
'wind'
'wid'
'watched_'
'věřit_'
'většího_'
'věrohodn'
'věrn'
'výrobě_'
'výletů_'
'výkonnost'
'výh'
'vítá_'
'vána_'
'vzorku_'
'vzn'
'vzdát_'
'vyšetř'
'využíván'
'vysvětl'
'vyspělých_'
'vyslal'
'vyskyt'
'vypracoval'
'vyko'
'vyho'
'vychází_'
'vybaven'
'vst'
'vozidla_'
'vnitro'
'vist'
'visited_'
'visible_'
'virtu'
'vesnic'
'velkého_'
'vamp'
'valid'
'vak'
'užívání_'
'uši'
'uvědomil'
'utt'
'utility_'
'uss'
'usn'
'ure'
'upře'
'upper_'
'uplynul'
'uplatňuj'
'uplatněn'
'updates_'
'unp'
'units_'
'unfa'
'undertaken_'
'undergo'
'ument'
'udělení_'
'udk'
'třída_'
'třetími_'
'těžký'
'těší_'
'těsně'
'tvar'
'tude_'
'tta_'
'trick'
'travelling_'
'transakcí_'
'towe'
'toky_'
'tičt'
'tito_'
'tisíciletí_'
'tich'
'theo'
'tern'
'termín'
'teri'
'tera'
'tempt'
'tempo_'
'techno'
'techniky_'
'tali'
'takhle_'
'tajn'
'tain_'
'syno'
'symptom'
'sym'
'swift'
'sw'
'světl'
'svaz'
'sus'
'suit'
'suggestions_'
'sud'
'subway_'
'stud'
'struktury_'
'strik'
'strachu_'
'stoupenc'
'steri'
'stejn'
'stati'
'stan'
'stabilit'
'sso'
'spur'
'správnou_'
'společném_'
'společn'
'spa'
'souvisí_'
'soukromí_'
'souhlasit_'
'soudním_'
'somewhere_'
'solve_'
'snah'
'směrnicí_'
'smyslupln'
'smoke_'
'službami_'
'složen'
'slee'
'sled'
'slabé_'
'skr'
'sklo'
'situ'
'sin'
'silnou_'
'silent_'
'side'
'shromáždění_'
'severu_'
'servi'
'sentence_'
'sedmi_'
'scrutiny_'
'screen'
'schod'
'scenario_'
'sce'
'samé'
'samotný'
'samostatně_'
'sake_'
'ruct'
'rtu'
'roční'
'rozvíje'
'rozt'
'rozhodne_'
'rozdíln'
'rozdr'
'rová'
'rovnováhy_'
'rostoucí'
'rma'
'rl'
'ride_'
'rge'
'režimy_'
'revision_'
'reso'
'resign'
'reserves_'
'reserved_'
'republikán'
'reno'
'rend'
'remi'
'remarks_'
'rein'
'regulated_'
'refund_'
'refu'
'reforma_'
'refer'
'redi'
'recip'
'rech'
'recept'
'realizovat_'
'ravi'
'rare'
'race'
'příslušníků_'
'příslušník'
'příslušn'
'přírod'
'přípustn'
'přípravky_'
'přínos_'
'příloh'
'příklad'
'příjemn'
'příběh'
'přátel'
'přijímat_'
'přijíma'
'přijm'
'přijat_'
'přežití_'
'přesun'
'přerušení_'
'přerušen'
'přer'
'přepravy_'
'překr'
'překon'
'přek'
'přejí'
'přehlíže'
'předčasn'
'předsedkyně_'
'předs'
'předložen_'
'předk'
'pák'
'ption_'
'průměrn'
'provoz'
'protecting_'
'prospect_'
'propose_'
'propa'
'pronik'
'produ'
'procháze'
'problematik'
'prisoners_'
'principal_'
'priced_'
'prezidentem_'
'pressing_'
'preserve_'
'prejudice_'
'preferred_'
'prefer'
'pravděpodobné_'
'pravděpodobností_'
'pras'
'pragmatick'
'prací_'
'pp_'
'požadovat_'
'pořad'
'počasí_'
'povahy_'
'potřebných_'
'pota'
'pot_'
'posun_'
'postel'
'poskytn'
'portugalské'
'porozumění_'
'poplatku_'
'poplatek_'
'pong_'
'pone'
'pomáhá_'
'pomáhat_'
'politic'
'pokračuje_'
'pohon'
'podobný_'
'podnět'
'podléha'
'pochopitelně_'
'pobřeží_'
'pobíd'
'plán'
'plod'
'plnit_'
'plic'
'plastic_'
'plasma_'
'planetě_'
'photos_'
'phon'
'pesticides_'
'permanently_'
'pect'
'palác'
'palubě_'
'paliv'
'pachatel'
'očích_'
'oví_'
'ovský'
'ouš'
'ouch'
'ott'
'otevřeno'
'otevřen'
'osvobození_'
'osur'
'originating_'
'orienta'
'orgánům_'
'onsk'
'onem'
'ond'
'omen'
'oli_'
'odůvodněn'
'odstavce_'
'odsou'
'odpovědí_'
'odlišné_'
'odhal'
'odešel_'
'odehrá'
'odd'
'oceán'
'occup'
'občas_'
'obtaining_'
'obrac'
'obnovu_'
'obn'
'objecti'
'obchodním_'
'obchod'
'nějak'
'níků_'
'názvem_'
'následky_'
'násilné'
'nárůstu_'
'náročn'
'nutrition_'
'nsel'
'novém_'
'novo'
'noticed_'
'nobody_'
'nl'
'niteln'
'nil_'
'nil'
'neznám'
'nezměn'
'neuv'
'nesm'
'nepří'
'neprodleně_'
'neom'
'nejspíš_'
'nejm'
'neighbors_'
'neighborhood_'
'negotiat'
'nee'
'nedostatky_'
'nedostatku_'
'nechtěl'
'nechal'
'navštív'
'navzájem_'
'nationalism_'
'nastavit_'
'nahrazuje_'
'nadvlád'
'měsíci_'
'mírový'
'mín'
'mzd'
'muze'
'mur'
'mravní'
'monitorování_'
'moderní'
'modernis'
'modely_'
'mod'
'mobiliz'
'mie'
'meč'
'meters_'
'medic'
'mato'
'married_'
'manu'
'managing_'
'mana'
'malári'
'mala'
'majetek_'
'maje'
'maintaining_'
'lý'
'líž'
'léky_'
'lt_'
'lord'
'logo'
'logick'
'load_'
'lních_'
'lné_'
'livost'
'lively_'
'live'
'litu'
'listic'
'licen'
'leteckých_'
'lei'
'lean'
'lasting_'
'lap'
'lamp'
'labelling_'
'kát'
'kyn'
'kvalitn'
'kuř'
'kter'
'kt_'
'krátkodob'
'krach'
'koš'
'kouz'
'kousek_'
'kou'
'koordinaci_'
'konstruktivní_'
'konsenzu'
'konkurenceschopn'
'komunistick'
'kome'
'kombinace_'
'kolektivní_'
'kolektivní'
'km'
'klíče'
'kers_'
'kampaň_'
'kampaně_'
'kabel'
'jím'
'jichž_'
'jednotný_'
'jednalo_'
'jedinečn'
'jedinc'
'jedin'
'japonsk'
'jan'
'jakých_'
'jack'
'ičky_'
'itu_'
'isté_'
'islámsk'
'ision'
'irské'
'ior_'
'involve_'
'interrupt'
'intentions_'
'intention_'
'institucionální_'
'insti'
'installer_'
'inse'
'initially_'
'ingu'
'infrastruktur'
'incomes_'
'imper'
'ima'
'iká'
'identification_'
'ident'
'icon'
'hrají_'
'hr_'
'hovo'
'hostil'
'host'
'honourable_'
'holder_'
'hlí'
'hluboké_'
'hledn'
'historie_'
'hil'
'heating_'
'heated_'
'hate'
'hat'
'habe'
'gul'
'guide'
'gue'
'guards_'
'gua'
'graph'
'gnome_'
'glo'
'gle'
'gha'
'fá'
'foto'
'foster_'
'fool'
'focusing_'
'flying_'
'flotil'
'fix_'
'finish_'
'fini'
'ff'
'fet'
'fer_'
'fee_'
'fear'
'fairly_'
'facto_'
'eče'
'expert'
'existen'
'executive_'
'excluded_'
'examined_'
'examin'
'evaluat'
'eur'
'ether'
'eter'
'ete'
'ester'
'esta'
'ert_'
'erat'
'equi'
'entrepreneurs'
'enforce'
'ende'
'encouraging_'
'enabled_'
'embrace_'
'elsk'
'elo'
'elektrické_'
'elektrick'
'ein'
'edo'
'edit'
'economically_'
'dž'
'dětská_'
'dávno_'
'dá'
'držitel'
'druh'
'drew_'
'dream_'
'draft'
'dovoz_'
'dostupná_'
'dostalo_'
'dosa'
'dopadu_'
'door'
'dokážou_'
'dodnes_'
'dluhopisy_'
'dlouhodobě_'
'dli'
'distributor'
'displayed_'
'diskriminaci_'
'diktatur'
'digitální_'
'difficulty_'
'dic'
'deva'
'dete_'
'desát'
'destinations_'
'deserve_'
'depth_'
'department_'
'deli'
'defendant_'
'deals_'
'dcer'
'dali_'
'cílov'
'cíl'
'cz'
'custody_'
'cup'
'ctor'
'cow'
'costly_'
'contractual_'
'contest'
'contacts_'
'constantly_'
'conservation_'
'concert'
'comparable_'
'committees_'
'combines_'
'combine_'
'closing_'
'cke'
'cine'
'chorob'
'chem'
'charakter'
'chaos_'
'champion'
'chairs_'
'chain_'
'cestovní_'
'cens'
'cenné_'
'cele'
'caught_'
'cate_'
'cata'
'cart'
'career_'
'campaign'
'bývá_'
'bytost'
'button_'
'bureaucratic_'
'budově_'
'budgets_'
'broj'
'brief_'
'brid'
'breed'
'bot'
'boom'
'bolesti_'
'bolest'
'boat_'
'blow'
'blood'
'bing_'
'bina'
'billions_'
'ben_'
'bear'
'balíky_'
'ažen'
'ařsk'
'ax'
'auc'
'atu'
'attribute'
'atri'
'asylum_'
'ase'
'arm_'
'archiv'
'arb'
'approaches_'
'appointment_'
'appl'
'aným_'
'annulment_'
'ami'
'alongside_'
'alia'
'akcí_'
'agentur'
'agents_'
'agent'
'afrických_'
'acu'
'acr'
'accus'
'academic_'
'`_'
'Zobrazit_'
'Year_'
'Wu'
'Wikipedia_'
'Water'
'Wat'
'WC_'
'Vás_'
'Vytvoř'
'Vas'
'Valley_'
'VA_'
'VAT_'
'Up_'
'Under'
'Uh'
'Té'
'Turn'
'Tradi'
'Tool'
'Timo'
'Thu'
'Thi'
'The'
'Thailand_'
'Ter'
'Takový_'
'TS'
'TION_'
'Systém_'
'Sym'
'Stay_'
'Spojeného_'
'Sor'
'Ski_'
'Situace_'
'Sing'
'Severní'
'Schulz'
'Schl'
'Sara'
'Santiago_'
'Saddam_'
'Rozvoj'
'Rozhod'
'Rozd'
'Rot'
'Roissy_'
'Rich'
'Regionální_'
'Rece'
'Rac'
'Přid'
'Předpoklád'
'Pur'
'Poř'
'Počet_'
'Ple'
'Plan_'
'Pla'
'Pitt'
'Palestin'
'Pact_'
'Orl'
'Operation'
'Opatření_'
'Odv'
'Odk'
'Obs'
'Německa_'
'Nové_'
'Nothing_'
'Nevím_'
'Nelze_'
'Nebylo_'
'Namísto_'
'Máte_'
'Multi'
'Mobil'
'Missi'
'Maďarsk'
'Man_'
'Lot'
'Look_'
'Lit'
'Lisabonskou_'
'Likewise_'
'Leg'
'LC'
'Kore'
'Klin'
'Kabelové_'
'Jurisdiction_'
'José_'
'Jews_'
'Jas'
'Imperial_'
'Holy_'
'Her_'
'Guan'
'Growth_'
'Govern'
'Got'
'Gon'
'Germanic_'
'GP'
'GL'
'Ford_'
'Fol'
'Financ'
'Evropou_'
'Europ'
'En_'
'Eg'
'Education_'
'Economi'
'EIB_'
'ECTACO_'
'Dánsko_'
'Druh'
'Dor'
'Dohoda_'
'Dobrá_'
'Dobr'
'Div'
'Disc'
'Die_'
'Dele'
'Cre'
'Countries_'
'Compensation_'
'Coa'
'Chile_'
'Cham'
'Chai'
'Ch'
'Celkov'
'Catal'
'Cannes_'
'COM_'
'CES_'
'CAMBRIDGE_'
'Bus'
'Boro'
'Berlín'
'Berlusconi_'
'Belgium_'
'Bed'
'Barr'
'Balkans_'
'BL'
'Av'
'Aug'
'Att'
'Athens_'
'Ash'
'Ameriku_'
'Ama'
'Afriky_'
'AN_'
'AM_'
'>'
'=_'
'900_'
'2016_'
'180_'
'139_'
'104'
'100'
', ...'
')|_'
' . . . _'
'”, _'
'от'
'žádn'
'živé_'
'živoči'
'životaschopn'
'žit_'
'žadatel_'
'ůsta'
'ťa'
'šíř'
'štin'
'šok'
'říž'
'říš'
'říč'
'řídil'
'řádn'
'ł'
'ěs'
'ěr_'
'ěno_'
'ěla_'
'ěk'
'čl'
'činu_'
'činit_'
'čet_'
'červnu_'
'čeká_'
'čast'
'časem_'
'ýval'
'ün'
'účt'
'účetn'
'úz'
'úvod'
'úrovní_'
'úrokovým'
'íránské'
'ím'
'íky_'
'íje'
'éž_'
'érie_'
'éc'
'ça_'
'ášen'
'áře_'
'átu_'
'átoru_'
'átor'
'átn'
'ánské'
'ác'
'Ús'
'{{_'
'zůstanou_'
'zřejm'
'získá'
'zásob_'
'záporn'
'zápisu_'
'zákonů_'
'ztrát'
'zrod'
'zprostředkovatel'
'zpoždění_'
'známý'
'známé_'
'znovu'
'znepokojení_'
'změní_'
'zmíněn'
'zmínil'
'zlepší_'
'zjistí_'
'zjistil_'
'zená'
'zemědělců_'
'zemědělc'
'zemního_'
'zemní'
'zelené_'
'zdůraznila_'
'zdvo'
'zdi_'
'zc'
'zbroj'
'zbraň_'
'zba'
'začínají_'
'zavádějí'
'zaruč'
'zaměřuje_'
'zako'
'zajistili_'
'zajistila_'
'zahrnoval'
'zabít_'
'yu'
'yon'
'yn_'
'yd'
'xy_'
'xin'
'wn'
'wha'
'wer_'
'wee'
'weapon_'
'wav'
'wag'
'vězení_'
'vědeckých_'
'včasné'
'výbu'
'víd'
'vážen'
'vázan'
'vát'
'válkou_'
'vzpomínk'
'vzhůru_'
'vzestup_'
'vzdálen'
'vyžadoval'
'vyšším'
'vyvážející'
'vyváž'
'vyvoláva'
'vyvolal'
'vytv'
'vysokých_'
'vyrovnat_'
'vyloučení_'
'vykonáva'
'vyklád'
'vyjedna'
'vyjadřuje_'
'vyhrá'
'vyhledávací_'
'vstupní_'
'vrh'
'vou'
'vot'
'vosti_'
'vojenskou_'
'vodn'
'vlák'
'vládc'
'vlast'
'virtually_'
'virtual_'
'view'
'vice_'
'vhodná_'
'veškerá_'
'veterinární'
'velitel'
'vej'
'vegeta'
'ved_'
'vaš'
'uživatelé_'
'uži'
'uštěn'
'ušn'
'učiněn'
'ux_'
'ux'
'uvedeným_'
'uvedena_'
'ust_'
'uskutečněn'
'uskutečnit_'
'uskutečnil'
'usilov'
'usil'
'uprav'
'upen'
'unw'
'unprecedented_'
'unknown_'
'unfair_'
'unemployed_'
'unav'
'ull'
'ukázalo_'
'ukáz'
'uda'
'ubo'
'třetího_'
'třech_'
'týka'
'týdnech_'
'tábor'
'tvé'
'tvoř'
'tvorbu_'
'turns_'
'tum'
'trvání_'
'trips_'
'trestního_'
'translati'
'transferred_'
'towels_'
'torture_'
'topics_'
'tlin'
'tlan'
'tiz'
'tien'
'thumb_'
'threatened_'
'teoretick'
'tennis_'
'televize_'
'televiz'
'teaching_'
'tched_'
'tand'
'tamní_'
'talent'
'takzvaný'
'takovému_'
'tabled_'
'sílící'
'syst'
'symboli'
'switch_'
'světlo_'
'svět'
'survive_'
'surr'
'supers'
'summary_'
'summ'
'subsidi'
'stří'
'středo'
'středně'
'stál_'
'struggle_'
'stream_'
'stranách_'
'storm_'
'stories_'
'ston_'
'stojí'
'stejném_'
'stačí_'
'staví_'
'stat'
'stared_'
'stanovi'
'stanovenými_'
'standardi'
'stake_'
'srovnání_'
'správc'
'spring_'
'spousta_'
'spous'
'spoléha'
'spojenci_'
'splňují_'
'splnit_'
'split_'
'specify_'
'spare_'
'sousedství_'
'soukromý_'
'souhlasil_'
'solved_'
'solely_'
'sod'
'social'
'sné_'
'snahu_'
'směr'
'smo'
'slá'
'skvělé_'
'sjednocení_'
'sjednocen'
'simplify_'
'ship'
'sharply_'
'seznam'
'sexuální_'
'ses'
'sekc'
'seiz'
'seconds_'
'schopné_'
'scandal_'
'satelitní'
'safely_'
'ráv'
'rámcové'
'rvat'
'rth'
'rozs'
'rozpětí_'
'rozpou'
'rozp'
'rozměr'
'rozděl'
'rovnost_'
'rovna'
'routes_'
'rou_'
'romantic'
'roj'
'robot'
'rises_'
'retain_'
'respective_'
'reply_'
'repl'
'rent'
'reme'
'relevance_'
'rejstřík'
'rej'
'reguláto'
'refunds_'
'ref'
'receiving_'
'reasonably_'
'realizova'
'realise'
'rall'
'raises_'
'rai'
'quietly_'
'původně_'
'původního_'
'půjde_'
'příčinou_'
'příz'
'přítomnosti_'
'přístup'
'přísně'
'přís'
'příp'
'příběh_'
'přinášejí_'
'přijme_'
'přijaté_'
'přijali_'
'přenos_'
'přel'
'představitele_'
'přechodn'
'písemn'
'pí_'
'puzzle'
'právy_'
'právně_'
'prvek_'
'prováděcí_'
'provedena_'
'protests_'
'protect'
'prospě'
'properties_'
'promising_'
'promises_'
'prof'
'produk'
'prod'
'process'
'procent'
'priorit_'
'prin'
'prezidentský'
'preventing_'
'prescribed_'
'premiéra_'
'pregnan'
'predict'
'pravi'
'pravděpodobnost_'
'prav'
'pracuj'
'pracovníci_'
'požád'
'pově'
'potvrzen'
'posuzova'
'postupovat_'
'poslancům_'
'poskytl'
'posil'
'por'
'poměr_'
'pomohl_'
'pomohl'
'polí'
'položka_'
'položen'
'pokut'
'pokusí'
'pokročil'
'pokouš'
'pojmenov'
'pojm'
'pohled'
'podílu_'
'podá'
'podrobně'
'podpor'
'podo'
'podnikatel'
'podlah'
'podkopáv'
'pocházejí'
'pláže_'
'plá'
'platb'
'pir'
'photo'
'phan'
'person'
'perception_'
'pensions_'
'pce_'
'pay'
'pastor'
'parti'
'parku_'
'parent_'
'parametry_'
'par_'
'papír'
'pale'
'pag'
'packaging_'
'pac'
'očil'
'ows'
'owned_'
'overse'
'ouv'
'oun'
'ouk'
'oto'
'ota'
'ostn'
'osm_'
'oslav'
'osl'
'orm'
'orientovan'
'organic_'
'oprávnění_'
'opravy_'
'opl'
'opačn'
'onč'
'okupa'
'okr'
'ohrož'
'ogen'
'odtud_'
'odsud_'
'odsoudil'
'ods'
'odpovídají_'
'odkazu_'
'odh'
'odeb'
'odběr'
'odborníků_'
'ock'
'ochotu_'
'oceň'
'occasions_'
'occasion_'
'oca'
'obnovení_'
'objevil_'
'obal'
'německé_'
'německ'
'něm'
'některý_'
'návratu_'
'nároku_'
'národy_'
'nápad'
'nájem'
'náboženství_'
'náboženské_'
'nte_'
'nst'
'nský'
'now'
'novými_'
'nom'
'nku_'
'nezbytnou_'
'nevyhnuteln'
'neutral'
'neutr'
'nesouhlasí'
'nepřátel'
'nepřij'
'nepředstav'
'nepr'
'neplatn'
'nent'
'nemovitost'
'nejb'
'neighbourhood_'
'nedal'
'nds'
'nding_'
'nazýva'
'navrhovan'
'nau'
'naruš'
'nako'
'nakládání_'
'najednou_'
'nahr'
'měřít'
'měnový_'
'měnového_'
'měnit_'
'místem_'
'médi'
'myšlen'
'myslí'
'museums_'
'mořsk'
'monopol'
'monitorovací'
'mmer'
'mladí_'
'mist'
'mins_'
'ministr'
'minim'
'miliard'
'mic_'
'mexick'
'menšin'
'mens'
'memori'
'mechanismu_'
'mec'
'meaningful_'
'meals_'
'mea'
'mbo'
'matk'
'masov'
'mandatory_'
'manažer'
'magic_'
'machinery_'
'mac'
'lž'
'létě_'
'lá_'
'londýnsk'
'lodě_'
'llen'
'lled_'
'lle_'
'litera'
'lighting_'
'lidského_'
'lidové_'
'licences_'
'liberalizaci_'
'lhůtě_'
'letý'
'lets_'
'letectví_'
'lete'
'lení_'
'len_'
'lem'
'leaves_'
'lawyers_'
'lanc'
'kvalifikovan'
'kurz_'
'kurz'
'kulturu_'
'kultura_'
'kuchyni_'
'kry'
'krv'
'krk'
'krat'
'kový'
'konč'
'konečný'
'koncentrace_'
'komp'
'komerční'
'kniha_'
'kláves'
'kk'
'ket_'
'kes_'
'kel'
'kate'
'kandidátsk'
'jské_'
'journey_'
'jour'
'jní'
'jistou_'
'jistotu_'
'jist_'
'jezer'
'jednak_'
'jc'
'jaký'
'jakého'
'jadern'
'iční_'
'izraelsko_'
'izace_'
'iva'
'itě_'
'ité_'
'ition_'
'iste'
'irs_'
'ique_'
'investoři_'
'invent'
'invaz'
'inva'
'interim_'
'insight'
'insi'
'injury_'
'inis'
'iniciativa_'
'informacím_'
'informaci_'
'iner'
'individuální_'
'inco'
'incentive_'
'impli'
'imme'
'imi'
'ile_'
'ifi'
'ideology_'
'ideologick'
'identif'
'icul'
'ického_'
'icio'
'iable_'
'hvězdn'
'hust'
'hrozba_'
'hranicích_'
'hran'
'hraje_'
'hostitelsk'
'hodnocen'
'hlasů_'
'hladiny_'
'hidden_'
'hedge_'
'harmonised_'
'handed_'
'gue_'
'gs'
'graf'
'gott'
'gonna_'
'generous_'
'gene'
'fun_'
'francouzský'
'formuláře_'
'forma'
'flaw'
'fix'
'firstly_'
'firemní_'
'fift'
'fem'
'fast'
'farms_'
'fam'
'faktorem_'
'factory_'
'fac'
'eš'
'exploitation_'
'expand_'
'exempl'
'excel'
'exceeding_'
'evropském_'
'euros_'
'ette_'
'etn'
'esl'
'esb'
'esa'
'erv'
'erstv'
'ersk'
'erg_'
'epidemi'
'eov'
'enš'
'environmentální_'
'entities_'
'enn'
'enl'
'engineering_'
'energetické'
'emu_'
'emphasise_'
'emotion'
'emerged_'
'ell_'
'ekonomickým'
'echl'
'ební'
'earne'
'ean'
'důvěryhodn'
'důležit'
'důkladně_'
'důchod'
'dře'
'dělá'
'dívk'
'dílo_'
'dávko'
'dávají_'
'dám'
'dw'
'dvoj'
'dst'
'dropped_'
'drinking_'
'dramaticky_'
'downtown_'
'downs'
'dovážen'
'dotyčné'
'dosáhli_'
'dosáhla_'
'dostatečn'
'dostanou_'
'dospělých_'
'doručování_'
'doprava_'
'domén'
'domnívá_'
'dokument'
'dodáv'
'dodržen'
'dobrého_'
'dobr'
'dlouhá_'
'dlouhodobém_'
'divadl'
'discour'
'disadvantage'
'dioxide_'
'diktátor'
'did'
'dge'
'detek'
'dete'
'destru'
'destination_'
'desired_'
'dens'
'democracies_'
'dem_'
'delší_'
'dell'
'delighted_'
'delegation_'
'deleg'
'definitions_'
'defeat_'
'defe'
'decrease'
'debates_'
'daughter_'
'dated_'
'das_'
'damages_'
'daj'
'cí'
'customer_'
'custom'
'cting_'
'cova'
'cord'
'coo'
'consult'
'consistency_'
'considerably_'
'configure_'
'completion_'
'complaints_'
'compe'
'comp'
'commonly_'
'commodity_'
'commen'
'color_'
'coin'
'clon'
'cler'
'cleaned_'
'classes_'
'cház'
'chytr'
'chodb'
'chl_'
'chip'
'charm_'
'chari'
'chao'
'chal'
'chab'
'centres_'
'cenných_'
'cells_'
'cell_'
'celek_'
'cca'
'calculati'
'buying_'
'bust'
'buses_'
'bus'
'bun'
'budovy_'
'budoucích_'
'bt'
'bold_'
'blízko'
'blind_'
'bis'
'biopaliv'
'bere'
'bem_'
'begun_'
'base'
'baru_'
'bankruptcy_'
'bak'
'bag'
'baby_'
'awareness_'
'avec_'
'avan'
'authentic_'
'aus'
'attacked_'
'attached_'
'attach'
'atr'
'assist'
'ase_'
'arro'
'array_'
'armády_'
'architectur'
'appoint'
'appearance_'
'aní'
'anim'
'ambitions_'
'amazing_'
'alto'
'alova'
'alike_'
'alcohol_'
'alarm_'
'ais_'
'agresivn'
'agendy_'
'after'
'affordable_'
'aero'
'admitted_'
'admir'
'adin'
'adhere'
'ada_'
'acknowledge_'
'accordingly_'
'accommodat'
'acceptance_'
'absenci_'
'abl'
'abandoned_'
'``_'
'Západ_'
'Zobraz'
'Zat'
'Zar'
'Zaj'
'Zab'
'ZP'
'You'
'Written_'
'Whi'
'Výrob'
'Výbor'
'Vyh'
'Vulcan_'
'Vu'
'Viz_'
'Vidí'
'Video_'
'Vel'
'VO'
'VIS'
'Ukrajině_'
'USE_'
'UM'
'Termin'
'Term'
'Tell_'
'TC'
'Sýrii_'
'Swa'
'Světov'
'Sus'
'Still_'
'Step'
'Soud'
'Some'
'Slav'
'Sir_'
'Shr'
'Seznam_'
'Sed'
'Scotland_'
'Schi'
'Salzburg_'
'Sab'
'SG'
'Ry'
'Rural_'
'Rumunsko_'
'Ross'
'Romulan'
'Rol'
'Rog'
'Richard_'
'Reli'
'Ref'
'RES'
'Question'
'Quar'
'Příprav'
'Přej'
'PŘÍ'
'Prů'
'Prot'
'Prost'
'Prof'
'Prod'
'Prezident_'
'Prac'
'Požad'
'Porto_'
'Poll'
'Pel'
'Parti'
'Pakt'
'Pad'
'PR'
'PAR'
'Okay_'
'Oc'
'Obam'
'OU'
'OM'
'OI'
'Návr'
'Nás'
'None_'
'Nie'
'Neza'
'Nest'
'Nedávn'
'Naz'
'Navrh'
'Nastavení_'
'Nar'
'Nam'
'Nai'
'Můžeme_'
'Museum_'
'Ms_'
'Mohl'
'Miles_'
'Medical_'
'McC'
'Mars'
'Mahm'
'Machine_'
'MP_'
'Lí'
'Lá'
'Long_'
'Loc'
'Link'
'Lind'
'Liby'
'Lib'
'Leh'
'Latvia_'
'Kru'
'Koreji_'
'Karl'
'Kap'
'Již_'
'Jel'
'Jedno'
'JA'
'Instala'
'Indo'
'Im'
'IM'
'IE'
'ID'
'Human'
'Hra'
'Hoo'
'Holl'
'History_'
'Hill'
'Help'
'Hamásu_'
'HR_'
'HE'
'Gold'
'Gla'
'Genera'
'Gam'
'GR'
'Fortunately_'
'Font'
'Floren'
'Fas'
'Euros'
'Eden_'
'Easy_'
'EX'
'ESF_'
'EP_'
'EG'
'EE'
'Dětské_'
'Due_'
'Domini'
'Dokud_'
'Dig'
'Def'
'Custom'
'Cri'
'Cost'
'Corn'
'Cooperation_'
'Consu'
'Communication_'
'Class'
'Chávez_'
'Chy'
'Chairman_'
'Certifi'
'Casa_'
'Capital_'
'Cam'
'CU'
'CHF_'
'CAR'
'Budu_'
'Bridge_'
'Borde'
'Blanc'
'Billiards_'
'Bene'
'Be_'
'Bath_'
'Bat'
'Ačkoli_'
'Avi'
'Aus'
'Aud'
'Au'
'Assis'
'Ass'
'Arn'
'Ara'
'Appe'
'Annual_'
'Anglo_'
'Američan'
'Alliance_'
'Allergy_'
'Alg'
'Aga'
'Afrika_'
'Af'
'Admiral_'
'Account'
'ALWIL_'
'99'
'79_'
'78'
'75'
'70'
'49'
'236'
'1967_'
'190'
'189'
'103_'
'..."_'
'.)'
'. .'
'-- _'
'+'
'*'
'' '
'% '
'")'
' – „_'
' + _'
' ''[[_'
' " _'
'ق_'
'о_'
'и_'
'žují'
'žní_'
'žili_'
'žijící_'
'židovsk'
'žet'
'žeb'
'Žalob'
'ůstá'
'ůj'
'štá'
'školství_'
'škodlivé'
'šim'
'šer'
'Št'
'Šp'
'Ši'
'říká'
'řem'
'řek'
'ředitel_'
'ňovan'
'ěp'
'ěly_'
'ělo'
'ěhl'
'čtvrtin'
'článků_'
'činil'
'čehož_'
'čase_'
'Čí'
'Či'
'ýva'
'ýk'
'účtován'
'úvěrov'
'úspěšně_'
'úspěšn'
'úloze_'
'úkor_'
'íčk'
'ék'
'ção_'
'äu'
'áčk'
'átní_'
'átkem_'
'átk'
'átek_'
'áko'
'áhnout_'
'áha'
'ádě'
'áci_'
'ácení_'
'Účetní_'
'Úmluv'
'Î'
'~'
'|'
'zůstane_'
'zůsta'
'zřízení_'
'zúčastněné_'
'získali_'
'zásilky_'
'záměr'
'zákazu_'
'zvolil'
'zvolené'
'zve'
'ztratí_'
'zrušit_'
'způsobují_'
'způsob'
'zpracovávání_'
'zotavení_'
'zohlednit_'
'zobrazen'
'znal'
'změněn'
'zlom'
'zlepšil'
'zkušební'
'zkoušek_'
'zko'
'zjednodušen'
'zie'
'zeptat_'
'zený'
'zbytku_'
'zastáva'
'zastáv'
'zastup'
'zastav'
'zasa'
'zao'
'zaměř'
'zamysle'
'založeno'
'zakořeněn'
'zadá'
'yv'
'ylo'
'yield'
'worker_'
'willingness_'
'widen'
'wet_'
'wen'
'welcomed_'
'weaken'
'wd'
'wand'
'vůdčí_'
'vědě_'
'vědom'
'vědecký'
'výš'
'výt'
'výměny_'
'výchozí_'
'vít'
'vážený_'
'vážení_'
'váž'
'ván'
'vzájemné'
'vzdělan'
'vyšší'
'vyšl'
'vyš'
'vyř'
'vyzn'
'vyvážen'
'vyvolá'
'vyvolat_'
'vyvinul'
'vyvinout_'
'vytvářejí_'
'vysí'
'vystoupení_'
'vysokým_'
'vyslov'
'vyma'
'vykazuj'
'vyjednáva'
'vyhovuj'
'vyhotov'
'vyhl'
'vydan'
'vydal_'
'vovat_'
'volné_'
'volno'
'voli'
'volbami_'
'vola'
'vojáků_'
'vnímá'
'vnu'
'vládám_'
'vla'
'visitors_'
'vhodných_'
'venku_'
'vedením_'
'vazby_'
'varování_'
'varoval'
'varov'
'variables_'
'vající_'
'vable_'
'užitečné_'
'učit_'
'uální'
'uznal'
'uvědomit_'
'uváž'
'uvádě'
'uvidí'
'uvi'
'uvedení_'
'uvažovat_'
'usu'
'usti'
'urychlit_'
'urse'
'urge_'
'urg'
'uprchlíků_'
'uplatňován'
'updated_'
'underline'
'umožnil_'
'ultur'
'ukončit_'
'uju_'
'uhlíkov'
'uge'
'udržení_'
'ubi'
'třicet'
'tý'
'táh'
'twi'
'tv_'
'tt'
'truc'
'trpěl'
'trou'
'trhem_'
'trestn'
'tres'
'treati'
'transaction_'
'tran'
'trained_'
'tradičn'
'tracking_'
'toři_'
'tour_'
'tot'
'toll'
'tolerance_'
'tiše_'
'tivně_'
'tin_'
'tif'
'thy_'
'thu'
'throw_'
'theme_'
'tf'
'tet'
'tested_'
'terra'
'termín_'
'tep'
'teorie_'
'tens_'
'tema'
'technic'
'tc'
'tažen'
'taste'
'tari'
'tanc'
'takzvané_'
'tabul'
'syrsk'
'světovém_'
'světovou_'
'světem_'
'svr'
'svobodný'
'svobodného_'
'suverenit'
'sustain'
'suppress'
'sunny_'
'sul'
'suit_'
'suggesti'
'subst'
'submit'
'subjekt_'
'subjekt'
'středu_'
'stěž'
'sté_'
'státním_'
'stán'
'styku_'
'stupeň_'
'studova'
'stuck_'
'strukturu_'
'stroll_'
'strike_'
'stresse'
'stream'
'strategick'
'strategi'
'strat'
'stops_'
'stolu_'
'stepped_'
'stažen'
'stays_'
'statistical_'
'starších_'
'stará_'
'start'
'stanovuje_'
'stanovisk'
'stali_'
'stal'
'srov_'
'srdečně_'
'srd'
'srbsk'
'sq'
'spíš_'
'spustit_'
'správu_'
'spočíva'
'spoustu_'
'specifický'
'specifické_'
'specifick'
'specialist'
'speaker_'
'sour'
'sounds_'
'soudc'
'soubor'
'solving_'
'sníží_'
'snídani_'
'směr_'
'smrt_'
'smooth_'
'smell_'
'smart_'
'službě_'
'slunečn'
'složk'
'slavn'
'skončí'
'sklon_'
'sklad'
'skandál'
'sk'
'sity_'
'sis'
'sir'
'simplified_'
'silách_'
'silnic'
'shu'
'shrnu'
'shook_'
'shift'
'seš'
'sez'
'severo'
'settings_'
'semen'
'sely_'
'selecti'
'sektor'
'sehr_'
'seeks_'
'sebev'
'seats_'
'scheduled_'
'scan'
'sc'
'sběr'
'sav'
'sala'
'sal_'
'různ'
'rč'
'ráž'
'ruled_'
'ruch'
'rozš'
'rozvíjející_'
'rozpor'
'routine'
'rodinn'
'roa'
'rm_'
'risk'
'rish'
'rie_'
'reálných_'
'reálná_'
'reward'
'returns_'
'reti'
'resu'
'respektovat_'
'reservations_'
'requests_'
'republikou_'
'relaxed_'
'relationships_'
'relate_'
'refresh'
'reformě_'
'referring_'
'reductions_'
'redu'
'rede'
'recon'
'recognis'
'recesi_'
'recese_'
'ratn'
'rag'
'raci'
'quo_'
'quit_'
'původním_'
'působící'
'pš'
'příštího_'
'příčiny_'
'přístupem_'
'příslušného_'
'příslušenství_'
'příručk'
'přínosy_'
'přím'
'příjmov'
'příjme'
'přitažliv'
'přistýlce_'
'přispěje_'
'přispívají_'
'přispíva'
'připojit_'
'připada'
'přidán'
'přidružení_'
'přichází_'
'přečt'
'přetrváva'
'přemí'
'přelo'
'překážek_'
'přehnan'
'předv'
'představil'
'předpis_'
'přednes'
'předloží_'
'předch'
'pěst'
'pursuing_'
'pursued_'
'purchase'
'puls'
'pull_'
'publici'
'psycho'
'právům_'
'prvků_'
'prste'
'prozatím_'
'provedl'
'prov'
'prostorn'
'prosecutor'
'propu'
'propojení_'
'prompt'
'projev_'
'profit'
'profession_'
'profesní'
'profese_'
'producer_'
'probíhající'
'privati'
'presum'
'preliminary_'
'preci'
'pragmati'
'pracovním_'
'pper'
'poštovní_'
'poškoz'
'počítač_'
'pozorova'
'poznámka_'
'poznat'
'poz'
'povědomí_'
'použité'
'použil'
'poukázal'
'potvrzuje_'
'potvrdit_'
'posuzování_'
'postar'
'porte'
'popí'
'poplatky_'
'poorer_'
'položek_'
'polož'
'politikami_'
'politik'
'politickými_'
'politickém_'
'policejní_'
'poj'
'pointing_'
'pohledávka_'
'pohlaví_'
'podávání_'
'podstatné_'
'podporujeme_'
'podp'
'podobných_'
'podnikatelsk'
'podnika'
'podklad'
'podan'
'poch'
'pm_'
'plynoucí_'
'plo'
'pleas'
'play'
'platn'
'pilot'
'perspectives_'
'patr'
'passing_'
'papíry_'
'panem_'
'palub'
'oči'
'oznámil_'
'oy_'
'owner_'
'owe'
'ová'
'ovu_'
'ovské_'
'ovk'
'overnight_'
'ovateln'
'outstanding_'
'outr'
'oud'
'otázkám_'
'otevřeně_'
'otevřený'
'otevřená_'
'otevřel'
'osv'
'ostrovy_'
'ostra'
'osláv'
'orů'
'originally_'
'organised_'
'ord_'
'orat'
'opá'
'oppo'
'operac'
'ope'
'opak'
'oon'
'omyl'
'omn'
'omezený_'
'olá'
'ogi'
'offen'
'odvolat_'
'odstavec_'
'odhodl'
'odborník'
'ochr'
'ocen'
'occurs_'
'občanství_'
'občanských_'
'obává'
'obtíž'
'obsahující_'
'obsahují_'
'obrovskou_'
'oble'
'obl'
'objekt'
'objasn'
'obdrží'
'obchodník'
'něko'
'nízké_'
'níku_'
'nému_'
'náz'
'návr'
'nátlak'
'následovat_'
'nápo'
'náhrady_'
'náhrada_'
'náh'
'nádherné'
'nv'
'nutri'
'nutnost_'
'ntro'
'nou'
'notář'
'notion_'
'notify_'
'normally_'
'normaliz'
'nocí_'
'nika'
'ngs'
'nezávislé_'
'nezdar'
'nezbytně_'
'nezbytných_'
'nevěděl'
'nevládní'
'neup'
'nepřátelsk'
'nepok'
'nepodl'
'nenávist'
'nemohla_'
'nemohl_'
'neme_'
'nem_'
'nejvýznamnější'
'nejvý'
'nejsem_'
'nejpo'
'nejnovější_'
'nejlepším_'
'nejedn'
'neja'
'nedovol'
'nedosta'
'nedokázal'
'nedodrž'
'nechce'
'nechal_'
'nebudu_'
'nebudeme_'
'nebezpečný'
'nch_'
'nces_'
'nationality_'
'nasazení_'
'napá'
'napsal_'
'naproti_'
'napr'
'naposledy_'
'nale'
'nainstal'
'nabízen'
'nabídka_'
'naby'
'mírov'
'médií_'
'myslel'
'multip'
'možný'
'monument'
'montáž'
'mont_'
'monet'
'mole'
'mléčn'
'minuty_'
'ministerstv'
'mill'
'mile_'
'midnight_'
'micro_'
'mez'
'mers_'
'mere_'
'menšin_'
'menu'
'meets_'
'mediální_'
'mediat'
'mechanismů_'
'mechanic'
'mbi'
'mati'
'materiálu_'
'massa'
'marks_'
'mand'
'malou_'
'majetkov'
'magnetic'
'mag'
'léčivý'
'lékařsk'
'lásky_'
'lunch_'
'luj'
'lsk'
'loan_'
'loa'
'liš'
'lini'
'lifted_'
'lidskou_'
'liber'
'liabilities_'
'lf'
'leu'
'letní'
'lessly_'
'lej'
'lač'
'latn'
'lang'
'lacking_'
'kůže_'
'kém_'
'káva'
'kvót_'
'kulturní'
'ktu'
'které'
'krátce_'
'krásné'
'královsk'
'krevní'
'kosm'
'končí_'
'konkur'
'konečného_'
'konečn'
'koncipov'
'koncem_'
'konce'
'kompenz'
'komisařka_'
'komentář'
'kolen'
'know'
'knihy_'
'klíč_'
'klá'
'klu'
'klon'
'kladou_'
'king'
'kilomet'
'kace_'
'kac'
'jícím_'
'jíc'
'js'
'jména_'
'jižní'
'jistý_'
'jistoty_'
'jet_'
'jení_'
'jejími_'
'jednotlivými_'
'jednot'
'jednodušší_'
'jasno'
'jako'
'jad'
'ivě_'
'itelno'
'ironi'
'ire'
'ional_'
'invested_'
'interval'
'interpretation_'
'interpret'
'int_'
'insulat'
'instruction_'
'instant_'
'inspektor'
'insolvency_'
'insk'
'innocent_'
'iniciativ_'
'iniciativ'
'inhabitants_'
'informuj'
'infekc'
'individually_'
'indicates_'
'incapa'
'inac'
'impro'
'impos'
'importantly_'
'implies_'
'ilí'
'ilia'
'ight_'
'igen'
'idn'
'idl'
'ideological_'
'ibu'
'hází_'
'hv'
'hunt'
'humani'
'hs_'
'hrůz'
'hraniční'
'hovoříme_'
'hovořil_'
'hotelov'
'hosti'
'hospital_'
'hosp'
'hos'
'horri'
'hopi'
'hope'
'homosexu'
'homel'
'hli'
'hlasy_'
'hlasovali_'
'hire_'
'hic_'
'hesi'
'hell_'
'hei'
'heart'
'heal'
'hd'
'guys_'
'gula'
'guess_'
'gross'
'grati'
'grand_'
'grammatical_'
'grafické'
'governed_'
'gly'
'globalisation_'
'gle_'
'gion'
'ghe'
'ggle'
'genetick'
'genetic_'
'gate'
'gang_'
'fér'
'fyzické_'
'furt'
'fr'
'forum_'
'formov'
'formation_'
'flower'
'finances_'
'fici'
'feat'
'farma'
'farm'
'fami'
'falešn'
'fa_'
'expressing_'
'existující'
'exact_'
'evol'
'evn'
'everybody_'
'eve'
'eurozón'
'etu'
'etnick'
'etic_'
'eten'
'ession'
'esp'
'eo_'
'enza_'
'enz'
'environmentally_'
'entering_'
'ensk'
'enjoyable_'
'enci'
'embryo'
'elné_'
'elle'
'ella_'
'eli_'
'elektřin'
'elektronick'
'elegant'
'ele_'
'ekonomie_'
'ekologick'
'een'
'educated_'
'editor_'
'edito'
'ect'
'ebo'
'džá'
'důvěř'
'důkazní'
'důchodu_'
'děsiv'
'dějiny_'
'dědictví_'
'dávn'
'dálnic'
'duševního_'
'duration_'
'duc'
'drug_'
'driven_'
'dress'
'download'
'dovozní_'
'dovozc'
'dotyčný'
'dotk'
'dos_'
'dopln'
'donor'
'domácností_'
'dokumentů_'
'dokončení_'
'dohodnut'
'dog'
'dodržován'
'dního_'
'dnešním_'
'dluhov'
'diu'
'dite'
'distribuci_'
'displace'
'dispa'
'diskusí_'
'disku'
'discover'
'discard'
'directives_'
'dim'
'dikt'
'different'
'deš'
'devote'
'determining_'
'desítky_'
'destin'
'desperate'
'deserves_'
'demokratických_'
'demokratické'
'demanding_'
'deln'
'defini'
'deadline_'
'dala_'
'cílen'
'cv'
'critics_'
'criminals_'
'credits_'
'creditor_'
'covering_'
'corrupt_'
'contemp'
'constitutes_'
'consent_'
'connect_'
'communism_'
'communi'
'comforts_'
'comb'
'collected_'
'coherent_'
'clu'
'clin'
'cked_'
'civilian_'
'cio'
'chvíle_'
'chop'
'chladn'
'chemické_'
'checking_'
'chat'
'cestovní'
'centrálních_'
'ccm_'
'catering_'
'catch'
'cast_'
'card'
'capabilities_'
'camp_'
'cam'
'cac'
'bře'
'bývalé'
'báj'
'bull'
'budeš_'
'brutal_'
'broke_'
'brat'
'boys_'
'bols'
'biskup'
'bin_'
'bilaterální'
'bij'
'beze_'
'bets_'
'beneficiary_'
'beneath_'
'beautifully_'
'bay_'
'bankéři_'
'balí'
'ačov'
'ači'
'ač_'
'azen'
'automatiz'
'automatick'
'aut'
'aur'
'attended_'
'attempts_'
'att_'
'assurance_'
'assessing_'
'asp'
'artificial_'
'arising_'
'argu'
'arge'
'architekt'
'appa'
'apologi'
'anov'
'ania_'
'analyz'
'ame'
'alleg'
'aliz'
'align'
'algorit'
'ald'
'akční_'
'aktér'
'akcie_'
'airports_'
'agre'
'agr'
'agend'
'adresář'
'adresy_'
'adding_'
'acted_'
'acknowledg'
'achievements_'
'achievement_'
'achi'
'accomplish'
'accidents_'
'accessed_'
'abs'
'abandon_'
'] [/_'
'Zásad'
'Zko'
'ZE'
'XX'
'Wired_'
'Wikimedia_'
'Wie'
'Wer'
'We'
'Věř'
'Výsledky_'
'Výroba_'
'Vzd'
'Vra'
'VIII_'
'UEN_'
'Turk'
'Tun'
'Tru'
'Tour'
'Together_'
'Tisk'
'Thr'
'Theo'
'Temp'
'Teh'
'Technic'
'Tax'
'TR'
'THEMES_'
'THB_'
'TER'
'System'
'Stalin_'
'Stal'
'Slo'
'Sle'
'Skutečnost_'
'Single_'
'Sher'
'Scott'
'Sc'
'SF'
'Roc'
'Rio_'
'Regula'
'Rat'
'Rap'
'Rai'
'R3_'
'Qui'
'Především_'
'Předběžná_'
'Pě'
'Pán'
'Professional_'
'Price_'
'Powe'
'Potřeb'
'Poté_'
'Poskyt'
'Poru'
'Podmínky_'
'Pocket_'
'Playground_'
'Piazza_'
'Pharma'
'Petr'
'Patric'
'Pam'
'PS_'
'PS'
'Ou'
'Ostatně_'
'Oprava_'
'Občan'
'Oby'
'Obviously_'
'Obje'
'Oba_'
'OECD_'
'OC'
'Number_'
'Nova'
'Nou'
'Norw'
'Nejd'
'Near_'
'Naštěstí_'
'Nan'
'Mubarak_'
'Mohl_'
'Modern_'
'Mitt'
'Michel_'
'Micha'
'Mic'
'Manu'
'Manager_'
'Main'
'MT'
'Luk'
'Live'
'Literature_'
'List_'
'Libert'
'Left_'
'Latin'
'Lat'
'Lanc'
'Lag'
'Lac'
'LT'
'LL'
'LAN_'
'Ká'
'Kyoto_'
'Kva'
'Kn'
'Kl'
'Kh'
'Keynes'
'Kensington_'
'Ke_'
'Kaz'
'Judg'
'Jste_'
'Jewish_'
'Jeruzalém'
'Jasně_'
'Jan'
'JE_'
'Investment_'
'Internetu_'
'Institute_'
'Ide'
'IU_'
'IR'
'IL'
'IDE_'
'Hungarian_'
'Hotspot_'
'Host'
'Hongkong'
'Hizballáh'
'Hilton_'
'Hezbollah_'
'Herzegovina_'
'Herna_'
'Hei'
'Harri'
'Hard'
'HO_'
'HL'
'Gy'
'Guide_'
'Gru'
'Gri'
'Glasgow_'
'Gaz'
'GO'
'Fried'
'Fred'
'Fl'
'Federální'
'Fall'
'Fal'
'Face'
'FC'
'Ever'
'Eurostat'
'Esta'
'Enter_'
'Enc'
'Ema'
'Elysées_'
'Ekonomi'
'Egyptian_'
'Edinburgh_'
'EUROPA_'
'ET'
'EB'
'Dáv'
'Duch'
'Druhou_'
'Dri'
'Double'
'Doh'
'Dev'
'Deborah_'
'DNA_'
'DC_'
'DA_'
'Current'
'Cuba_'
'Creative_'
'Consider_'
'Citi'
'Chtěla_'
'Chtě'
'Cathedral_'
'Cargo_'
'Cameron_'
'CO_'
'CIA'
'CB'
'CAL'
'Bělorusk'
'Byly_'
'Burma_'
'Bul'
'Building_'
'Buil'
'Brown_'
'Bin'
'Bak'
'Bai'
'Bag'
'Bab'
'Australia_'
'App'
'Alternativní_'
'Alm'
'Alf'
'Ahmad'
'Access_'
'Acc'
'ANNEX_'
'AKCPE_'
'AG'
'AD_'
'?”_'
'?' _'
'95'
'85'
'80'
'72'
'65'
'322'
'210'
'184'
'183'
'160'
'125'
'1000_'
'%'
'!“'
'!!_'
' {{_'
' ]'
' : '
' *'
'” (_'
'’'
'و'
'ь'
'ο'
'ι'
'žádném_'
'žádal'
'žáda'
'žijící'
'žid'
'ženami_'
'železniční_'
'Žádost_'
'ůže'
'ůsob'
'ůležitější'
'ť'
'šál'
'škál'
'širokou_'
'šest'
'řídící'
'řáde'
'řov'
'řil_'
'řešen'
'řeš'
'řetězec_'
'řejn'
'ředn'
'ředitelství_'
'Ří'
'Řekn'
'ňte_'
'ław_'
'ěli_'
'ějí_'
'ěc'
'čísel'
'číc'
'čtyř'
'čná_'
'čka'
'čisto'
'čej'
'časové_'
'ých'
'ýb'
'úřad'
'účty_'
'územ'
'úvahy_'
'ústavy_'
'úspěšné'
'úspěchem_'
'úsporný'
'úspor'
'úpadk'
'úm'
'úder'
'íránsk'
'íny_'
'íjí_'
'ätt'
'áře'
'ári'
'álním_'
'áhn'
'ádat_'
'áck'
'{'
'zřízen'
'zřídi'
'získává'
'získáva'
'získan'
'zír'
'závazku_'
'záležitostech_'
'zájm'
'zád'
'zvyšují_'
'zvyk'
'zvláštním_'
'zvláštního_'
'zveřejňov'
'zva'
'ztrátu_'
'zrychl'
'způsobený'
'zpř'
'zprostředkov'
'zpravodaje_'
'zničen'
'značný_'
'znač'
'změnami_'
'zlepšuj'
'zlepš'
'zkušen'
'zkrácen'
'zkouše'
'zklam'
'zj'
'ziv'
'zisku_'
'zemědělské'
'zdrojov'
'zdroj_'
'zbavit_'
'zbav'
'zařízením_'
'začína'
'zaz'
'zaved'
'zastánci_'
'zasl'
'zapomněl'
'zakaz'
'zajištěno_'
'zajištěn'
'zajistil'
'zahrnující_'
'zaci_'
'zabíje'
'zabezpeč'
'yšlen'
'yč'
'yte'
'ysi'
'ym'
'yj'
'writers_'
'writer_'
'worr'
'withdraw_'
'with'
'wis'
'wild'
'weight'
'wash'
'vůdc'
'všiml'
'všem'
'vš'
'věřící'
'vězn'
'výzvou_'
'významných_'
'významná_'
'výzkumn'
'vývojem_'
'výtah'
'výrazný'
'výrazné'
'vým'
'výlučně_'
'výcho'
'víry_'
'vín'
'váz'
'vzorků_'
'vzniknou'
'vzdálenosti_'
'vzal'
'vyzývám_'
'vyzval_'
'vyzv'
'vytváře'
'vytvořila_'
'vystř'
'vystav'
'vyrovnání_'
'vypadat_'
'vynaklád'
'vymáhání_'
'vymezení_'
'vyhově'
'vybudování_'
'vybaveny_'
'vte'
'vské'
'vrstv'
'volný_'
'vodě_'
'vocabulary_'
'vnitřn'
'vládne_'
'vloži'
'vlasy_'
'vlajk'
'visual_'
'visit'
'viny_'
'vig'
'vidíme_'
'via'
'veškerých_'
'veter'
'vers'
'vere'
'venture_'
'velik'
'vašem_'
'vatel'
'varie'
'valo'
'uč'
'uzl'
'uvažov'
'utváře'
'utr'
'uter'
'ustil'
'uspokoji'
'usmíření_'
'uskuteční_'
'uskuteč'
'určí_'
'upozornění_'
'uplynulých_'
'upev'
'unu'
'unrea'
'unk'
'unit'
'uniform_'
'ung'
'undertakings_'
'understandable_'
'unde'
'unce'
'unb'
'umožnilo_'
'ulož'
'ukázat_'
'udržitelno'
'udržel'
'ua_'
'tým'
'tý_'
'tématem_'
'tál'
'typy_'
'twin_'
'tváři_'
'tvrdil'
'turist'
'tune'
'tuku_'
'tržního_'
'trvalý_'
'trouble'
'trendy_'
'treatments_'
'transitional_'
'transformace_'
'toxic'
'totali'
'toilet'
'toc'
'tobě_'
'tných_'
'tno'
'tivních_'
'tivn'
'tiskárn'
'tiskov'
'tired_'
'tionali'
'tio'
'tina'
'till_'
'til_'
'thou'
'thick'
'thi'
'thes'
'test'
'terminology_'
'teras'
'teploty_'
'tensions_'
'tenk'
'tene'
'tender'
'temporarily_'
'temn'
'telně'
'telný_'
'telnost'
'tell'
'telefon_'
'teeth_'
'ted'
'tave'
'takový'
'tablet'
'tab_'
'síle_'
'systematic'
'symbol'
'swap_'
'svěřen'
'svát'
'svá'
'svoje_'
'svobod_'
'svo'
'suspended_'
'super_'
'sufficiently_'
'successor'
'substitute_'
'středis'
'střed'
'stárn'
'studii_'
'stroje_'
'strategické'
'stimulate_'
'stimula'
'stimul'
'stejného_'
'steam_'
'stea'
'stavě'
'statk'
'static'
'stall'
'stabilizac'
'stab'
'srovnáv'
'spách'
'spuštění_'
'správný_'
'správná_'
'spravedlivý'
'sportovní'
'sport'
'spolupracuj'
'spolup'
'specifi'
'specialt'
'spec'
'spac'
'sousední'
'song'
'soldiers_'
'sna'
'směs'
'slyší'
'složení_'
'slouč'
'slope'
'slogan'
'slit'
'sky'
'skutečné'
'skop'
'sister_'
'sink'
'sin_'
'sili'
'signal'
'shromažďov'
'shoulder_'
'shortc'
'shop_'
'shoot'
'shody_'
'shocks_'
'shock'
'shipment_'
'shifting_'
'shield'
'shell_'
'serverů_'
'separately_'
'sem'
'sek_'
'sed'
'secular_'
'season_'
'sdílet_'
'schůz'
'schodk'
'sch_'
'sca'
'sbor'
'sbl'
'saw'
'satisfy_'
'san_'
'samospráv'
'salaries_'
'safer_'
'safeguard_'
'rš'
'rání_'
'rá_'
'rychlo'
'rude'
'rtov'
'rta'
'rsi'
'rra'
'rozvojový'
'rozvojovou_'
'rozpočtový'
'rozmanitosti_'
'rozmanitost_'
'rozkl'
'rozhovor'
'rozen'
'rovnováhu_'
'roma'
'roh'
'rodinných_'
'rodina_'
'rodin_'
'rni'
'rna'
'rku_'
'riz'
'ring'
'rid_'
'rezervaci_'
'revize_'
'reviv'
'revised_'
'revis'
'reu'
'restaurace_'
'ress_'
'respondent'
'reside'
'repu'
'repea'
'reor'
'rement'
'relaxation_'
'rekonstrukc'
'registry_'
'registra'
'refusal_'
'refrain_'
'recom'
'recognizes_'
'realize_'
'random'
'rali'
'radost_'
'racov'
'racis'
'racion'
'quote'
'qui_'
'quent'
'původ'
'půdě_'
'přítomnost_'
'přístupy_'
'přílišn'
'příliv'
'přišla_'
'přizpůsobit_'
'přizná'
'připomínk'
'přináše'
'přiměřeno'
'přilož'
'přijímají_'
'přijdou_'
'přijato_'
'přihl'
'přib'
'přeš'
'přezkum_'
'převzal'
'přesvědčiv'
'přeshraničních_'
'přeměn'
'překážkou_'
'přehled_'
'přeh'
'představitel'
'předp'
'předcházející'
'přechodu_'
'přeb'
'pure_'
'pu_'
'ptá'
'pto'
'psychologic'
'prémi'
'pružnost'
'prud'
'prošl'
'provádějí_'
'provozovatel'
'provo'
'provider_'
'provi'
'proven_'
'prostředek_'
'prosté'
'proslul'
'proportiona'
'propaga'
'propadl'
'pronounced_'
'proká'
'projeví_'
'projednáva'
'profound_'
'profesor'
'produktivit'
'procesy_'
'proces'
'proběhl'
'pris'
'previously_'
'preserv'
'premiér'
'prec'
'praktické_'
'poznamena'
'pozn'
'pozměňovacích_'
'pozitivní'
'pozd'
'power'
'povstal'
'povolání_'
'povinný'
'považujeme_'
'používal'
'pour_'
'pound'
'potřebuje'
'potřebnou_'
'potíží_'
'potlač'
'posílí_'
'posu'
'postrád'
'postižen'
'postihuj'
'poslance_'
'poskytován'
'porat'
'popř'
'popu'
'poorly_'
'pomohou_'
'položit_'
'poloviny_'
'polovina_'
'polohy_'
'poll'
'politiků_'
'poko'
'pohybova'
'podíval_'
'podst'
'podporoval_'
'podobným'
'podezřel'
'podepsal'
'pocket'
'pocity_'
'plyne'
'plyn_'
'plea'
'plavidla_'
'pic'
'pia'
'pest'
'persist'
'pero_'
'permission_'
'periphery_'
'perfe'
'perat'
'pent'
'peace'
'pav'
'patřil'
'patri'
'partneři_'
'partnerů_'
'partner'
'participating_'
'partial_'
'parlamentních_'
'paměť_'
'památk'
'palestinsk'
'palace_'
'painful_'
'očekával'
'ověř'
'ově'
'ovo_'
'ovl'
'ovin'
'overwhelming_'
'overr'
'overlook'
'ovací'
'outcomes_'
'otřes'
'otro'
'ostře'
'ostech_'
'ostatně_'
'osobám_'
'osm'
'oslabi'
'ort_'
'oris'
'orin'
'oriented_'
'orgánem_'
'organizova'
'organiza'
'optimism'
'optimis'
'optimal'
'optic'
'opovr'
'operačních_'
'opatřeními_'
'opakova'
'oná'
'ong_'
'omluv'
'omit'
'omez'
'omb'
'oly'
'ologie'
'olin'
'okruh'
'okamžik'
'oin'
'ogl'
'officers_'
'oev'
'odvolací'
'odu'
'odsu'
'odporu'
'odlišný'
'odep'
'oddílu_'
'ocean_'
'occurr'
'occupation_'
'oběť'
'obsluh'
'obsah'
'obsa'
'obohac'
'objections_'
'obecný'
'obdobn'
'oat'
'oasis_'
'něčeho_'
'některým_'
'něji_'
'něho_'
'nízká_'
'návštěvy_'
'nástr'
'násobn'
'následné_'
'nál'
'nákupu_'
'nákupní'
'nákup'
'náboženských_'
'nym'
'nty_'
'ntin'
'nted_'
'nské_'
'nov'
'normá'
'nnect'
'nižším'
'nist'
'nila_'
'nig'
'nie_'
'nia'
'ngt'
'nezbytn'
'news'
'nevěř'
'nevyřeš'
'nevyd'
'nevinn'
'nevertheless_'
'nestan'
'nesn'
'nepřes'
'nemá'
'nemožné_'
'nemovitostí_'
'nemocnic'
'neli'
'nekonečn'
'neko'
'nejpozději_'
'nejp'
'nejist'
'nei'
'negotiated_'
'nedůvě'
'nedávných_'
'nedop'
'necessarily_'
'neboli_'
'nci_'
'nche'
'navrhuj'
'navrhov'
'naviga'
'nata'
'nastal_'
'nasa'
'naráž'
'naro'
'naléhav'
'nadm'
'nach'
'nabídne_'
'mů'
'místopředsed'
'mírové_'
'myš'
'musíš_'
'museum_'
'muselo_'
'murder_'
'mst'
'msk'
'mrtvý'
'mrtvé'
'mortgage_'
'monopoli'
'moji_'
'modules_'
'modest_'
'moderniz'
'mocensk'
'mobilit'
'množ'
'mladý'
'mitigat'
'ministra_'
'minist'
'mining_'
'miliardu_'
'migrace_'
'metoda_'
'mento'
'memora'
'mem_'
'med'
'mean'
'matka_'
'massage_'
'mandát'
'mal_'
'make'
'magn'
'm2_'
'lékařské'
'lásk'
'láka'
'lyží_'
'lož'
'lovn'
'lost'
'longe'
'lokální'
'loděnic'
'locations_'
'llo_'
'llar'
'lič'
'lize_'
'livá_'
'liturgi'
'linie_'
'lings_'
'light'
'license'
'liberalization_'
'liberalism'
'liberalisation_'
'liability_'
'lever'
'letošního_'
'letov'
'letišt'
'leteck'
'lesk'
'ledov'
'laskav'
'lant'
'lace_'
'kříž'
'krou'
'krmiv'
'kritéri'
'kritick'
'kraci'
'kořeny_'
'koupi'
'koupeln'
'kopi'
'koordinova'
'konzum'
'konz'
'konn'
'konkrétních_'
'konkrétní'
'konferenční'
'konečné_'
'kompromis_'
'kompl'
'komor'
'komodit'
'komisař'
'kombinovan'
'kn'
'klíč'
'klid'
'kist'
'kind'
'killing_'
'keyboard_'
'kdybychom_'
'kdekoli'
'každému_'
'kategori'
'katastrofy_'
'kariér'
'kapitoly_'
'kamen'
'jský'
'journalist'
'jn_'
'jim'
'jem'
'jednostrann'
'jednodu'
'jediného_'
'jede'
'jazyků_'
'izo'
'ive'
'itý_'
'itiv'
'iter'
'itat'
'ital'
'isten'
'ish'
'irsk'
'irr'
'iro'
'ipa'
'iov'
'iot'
'ině'
'iná'
'invi'
'investor_'
'investigate_'
'invalid'
'internationally_'
'internal'
'intensity_'
'intends_'
'inteligenc'
'integrovan'
'institute'
'institucemi_'
'inspir'
'injekc'
'injection_'
'indik'
'indication_'
'incu'
'impression_'
'impo'
'impe'
'imit'
'imb'
'iling'
'iku_'
'ije'
'ii'
'ignorov'
'iev'
'iest_'
'iers_'
'ideál'
'ico'
'iam'
'ial'
'hře'
'hání_'
'hvězd'
'hráči_'
'hráč'
'hrá'
'hospodářsk'
'home'
'hlasem_'
'historického_'
'his'
'hind'
'highlights_'
'highlight_'
'het'
'heren'
'hen_'
'helpfull_'
'hat_'
'handle_'
'halt'
'habita'
'gát'
'gus'
'guilt'
'guidance_'
'grant'
'grafi'
'graduate_'
'gové_'
'gov'
'gourmet_'
'gos'
'gla'
'ggi'
'gent'
'generál'
'generací_'
'gaze'
'gau_'
'gases_'
'gari'
'gara'
'gan_'
'gall'
'für'
'fí'
'fusion_'
'fulfil_'
'fri'
'freely_'
'franc'
'fou'
'fot'
'formální_'
'format'
'forgotten_'
'forge'
'fores'
'ford_'
'focuses_'
'fitting'
'finds_'
'financovat_'
'fib'
'federální_'
'fatal'
'fat_'
'farming_'
'familiar_'
'faktick'
'fak'
'extrémn'
'exposure_'
'existoval'
'exhaust'
'exempt'
'exciting_'
'excite'
'exacerbate'
'evropskými_'
'evo'
'evident_'
'eum'
'etic'
'este'
'eras'
'episode_'
'entů'
'ento'
'enic'
'engagement_'
'eng'
'emul'
'empower'
'emoc'
'eln'
'elektrárn'
'eld'
'elb'
'ekonomi'
'ejší'
'eho_'
'ehn'
'eful'
'efficiently_'
'efektivněj'
'edl'
'economist_'
'eche'
'ead_'
'důstojník'
'dětsk'
'dětem_'
'dynamick'
'dvacát'
'dule'
'drought'
'dream'
'dovednost'
'dotčené'
'dostávají_'
'dostupn'
'doruč'
'dorm'
'doprav'
'doporuči'
'domovsk'
'domnívají_'
'dominant_'
'dolož'
'dolar'
'dokázal_'
'dohodou_'
'dohodl'
'dobách_'
'dlouhodobou_'
'dla'
'disseminat'
'dise'
'discount_'
'disagree'
'disabilities_'
'dirty_'
'diplomat'
'dignity_'
'dicta'
'dial'
'dešt'
'devalvac'
'designated_'
'describe_'
'derived_'
'denatur'
'demokraté_'
'demokratický_'
'demografick'
'deme'
'demanded_'
'deliberate'
'dekád'
'definovat_'
'debatu_'
'dce'
'dans_'
'dad_'
'cítil_'
'církve_'
'cykl'
'cun'
'cua'
'ctví'
'ctiv'
'crops_'
'crash_'
'cots_'
'cos'
'correspond'
'convey'
'conventions_'
'conten'
'cont'
'consulting_'
'construct'
'consists_'
'confor'
'confirm'
'confi'
'conducting_'
'condition'
'condemn'
'concentrated_'
'conceal'
'comprises_'
'column_'
'colon'
'college_'
'collect_'
'cokoliv_'
'cloud_'
'clean'
'classic_'
'ción_'
'circulation_'
'circula'
'circle_'
'cino'
'cif'
'chronick'
'chovat_'
'chod'
'chm'
'chill'
'child'
'chemi'
'chapter_'
'chances_'
'chai'
'cenách_'
'centers_'
'celoživotní'
'celní'
'celkov'
'cano'
'camp'
'cali'
'cake_'
'běžně_'
'bě'
'burst'
'brows'
'briefly_'
'bos'
'bojoval'
'boast'
'blue'
'blu'
'blea'
'blahopř'
'biz'
'birds_'
'bien_'
'bezpochyby_'
'bezp'
'bet_'
'bert'
'behaviour_'
'beer_'
'bearing_'
'bc'
'bastard'
'bankrot'
'bankovních_'
'bankou_'
'bankers_'
'balík_'
'bad'
'aři'
'ačního_'
'azn'
'avoiding_'
'aven'
'automatické_'
'authors_'
'authoris'
'audi'
'atom'
'atmosféru_'
'ath_'
'asu'
'asti'
'assure_'
'aspir'
'aso'
'artist'
'arte'
'arrangement_'
'aren'
'approach'
'anz'
'antivirov'
'antiqu'
'antid'
'antic'
'answered_'
'ansk'
'ans'
'angry_'
'analyse'
'alu'
'alizova'
'ala'
'akční'
'aktivní'
'africké_'
'affl'
'advances_'
'adov'
'administrator'
'administrativní_'
'administrativ'
'administered_'
'adjust_'
'addresses_'
'accounting_'
'accommodations_'
'Zás'
'Zvláštní_'
'Zm'
'Women_'
'Wien_'
'Where'
'Whatever_'
'Wea'
'Was_'
'WW'
'WI'
'WHO_'
'Vždy'
'Vst'
'Vláda_'
'Vik'
'Venezuela_'
'VY'
'VII_'
'Upozor'
'Unless_'
'Ukrajina_'
'Tř'
'Typ_'
'Tucker'
'True_'
'Treat'
'Transp'
'Tito_'
'Tibetan_'
'Ther'
'Texas_'
'Technology_'
'Tam'
'Taková_'
'TVs_'
'TN'
'TM'
'Sw'
'Sun_'
'Sudan_'
'Stře'
'Strasbourg_'
'Stor'
'Stockholm'
'Ster'
'Stei'
'Správn'
'Spra'
'Sport_'
'Společnost_'
'Spen'
'Současná_'
'Současn'
'Sol_'
'Sku'
'Simpl'
'Shu'
'Serv'
'Send'
'Secondly_'
'Scho'
'Schengen'
'Saturday_'
'SE_'
'SB'
'Ráda_'
'Rum'
'Roy'
'Rock'
'Rica_'
'Rez'
'Reso'
'Residen'
'Rela'
'Real_'
'Rather_'
'Railway_'
'Radisson_'
'Radi'
'RN'
'Příklad'
'Putin'
'Pus'
'Ps'
'Protokol'
'Procesní_'
'Princip'
'PricewaterhouseCoopers_'
'Pres'
'Pozor'
'Podpora_'
'Picture'
'Paul'
'Pas'
'Parking_'
'Paper_'
'Pac'
'PP'
'POL'
'PLN_'
'PDF_'
'PB'
'Ow'
'Otázk'
'Osv'
'Ost'
'Oct_'
'Obr'
'Objev'
'OLAF_'
'Náh'
'Nort'
'Nobel_'
'Niko'
'Nebud'
'Najd'
'Nac'
'NT_'
'NAŘÍZENÍ_'
'Můž'
'Mozilla_'
'Moskv'
'Morocco_'
'Monitor'
'Mnohé_'
'Ministry_'
'Mig'
'Memory_'
'Mem'
'Mark_'
'Marb'
'Manuel_'
'Mano'
'Mali'
'Mah'
'Mac_'
'MEPs_'
'MC'
'Luce'
'Louis_'
'Lev'
'Leon'
'Latinské_'
'Land_'
'LS'
'Kub'
'Kreml'
'Kongres'
'Kirk_'
'Ker'
'Každá_'
'Kanad'
'Jordán'
'Johnson'
'John'
'Jiné_'
'Jes'
'Jedn'
'JP'
'Ivan'
'It'
'Irák_'
'Irska_'
'Iraqi_'
'Investi'
'Indians_'
'Imm'
'Imag'
'IPC'
'Hou'
'Horn'
'Hop'
'Holocaust_'
'Hlasoval_'
'Hlas'
'Hl'
'Henry_'
'Haiti_'
'Gordon'
'GmbH_'
'Gates_'
'Gal'
'Further_'
'Friday_'
'Four_'
'Fort'
'Force'
'Fan'
'Exten'
'Explorer_'
'Evi'
'Everyone_'
'Emi'
'Ell'
'Elect'
'Eff'
'EURO'
'ESS'
'ER_'
'ED'
'Dub'
'Doručování_'
'Disk'
'Director'
'Directives_'
'Dictionary_'
'Det'
'Deep_'
'Dax_'
'Dav'
'Das_'
'Darfur_'
'DVD'
'DS'
'DEM_'
'Criminal_'
'Cra'
'Corr'
'Convenient'
'Cont'
'Congr'
'Compl'
'Communi'
'Commons_'
'Chief_'
'Chem'
'Charl'
'Chad_'
'Cest'
'Cent'
'Care'
'Call'
'CZ_'
'CM'
'CL'
'CK'
'Bůh_'
'Býval'
'Burg'
'Boutique_'
'Bos'
'Boj_'
'Blízk'
'Bit'
'Bil'
'Bh'
'Berna'
'Bara'
'Bajor'
'BIOS_'
'Automatické_'
'Aut'
'Atlanti'
'Arts_'
'Arr'
'Ard'
'Appar'
'Anne'
'Angli'
'Ahoj_'
'Agent'
'Agenda_'
'Administrat'
'Address'
'Add_'
'Academy_'
'Abu_'
'AH'
'ACT'
';&_'
': …_'
'69'
'48'
'21st_'
'2050_'
'1990s_'
'159'
'150'
'126'
'110_'
'. ({{_'
'- '
',,_'
') , _'
''', _'
'%)'
'!'_'
' …'
' ...'
' ---'
' '%_'
' #'
'��'
'” – _'
'ف_'
'ض_'
'د_'
'، _'
'ра'
'ан'
'žuje'
'žov'
'živý'
'životně_'
'životn'
'železn'
'žděn'
'žadatel'
'ůjč'
'švédsk'
'ští'
'šsk'
'šp'
'šné_'
'šle'
'široký'
'říka'
'řádné_'
'řik'
'řeč_'
'řetězc'
'ń'
'ı'
'ěných_'
'ěný_'
'ěním_'
'ěno'
'ěni'
'ěmi_'
'ěj'
'ěděl'
'ě'
'číst_'
'čínská_'
'čnost_'
'činn'
'čer'
'čelní'
'Ček'
'Čast'
'ýt'
'ýho'
'úředníci_'
'účtů_'
'účastníků_'
'úvěrových_'
'úvah'
'úv'
'úspěchy_'
'ún'
'úhrad'
'ôte'
'ño_'
'íta'
'ínu_'
'íkov'
'är'
'â'
'ášk'
'ávání_'
'ává'
'átoři_'
'átorů_'
'áti'
'árně'
'ály_'
'álen'
'ádění_'
'áda'
'Ó'
'Å'
'Á_'
'zůstaly_'
'zůstali_'
'zčásti_'
'zúčastněných_'
'zóny_'
'získá_'
'závěrečn'
'závažný'
'zásadá'
'zásadním'
'západní'
'zál'
'zákonn'
'záchranný'
'zzo_'
'zvýšily_'
'zvan'
'zur'
'ztracen'
'způsobilý'
'zpro'
'zpravodajka_'
'zpracováv'
'zobrazení_'
'známe_'
'zneužív'
'znepokojuj'
'znemožn'
'zna'
'změnou_'
'zmat'
'zkoumání_'
'ziskov'
'zisk_'
'zic'
'zes'
'zemědělskou_'
'zek_'
'zdůraznil_'
'zdů'
'zdál'
'zdravotních_'
'zdravotnické_'
'zdravotn'
'zbývá_'
'zbývající_'
'začleněn'
'zaznamenán'
'zaujmout_'
'zastupuj'
'zastavení_'
'zasaz'
'zasah'
'zamít'
'zale'
'zajišťovací_'
'zajišť'
'zahrnout_'
'zaha'
'zachránil'
'zabl'
'zabij'
'yšsk'
'ym_'
'ylu'
'ychl'
'xp'
'xic'
'worried_'
'works'
'will'
'weekly_'
'wed_'
'weakness_'
'weaker_'
'way'
'was'
'warrant_'
'větším_'
'vědc'
'včera_'
'výzkumných_'
'výročí_'
'výrobek_'
'výrobc'
'výnosů_'
'výměn'
'vína_'
'vár'
'vác'
'vztek'
'vzr'
'vzpom'
'vzniká_'
'vzhl'
'vyzýva'
'vyvr'
'využila_'
'využi'
'vytáhl'
'vysvětlova'
'vyrovnáva'
'vypočít'
'vyplacen'
'vyjm'
'vyhlídk'
'vybavené_'
'vsk'
'vs'
'vrá'
'vous_'
'volně_'
'volatility_'
'vojenských_'
'vojensk'
'vnější'
'vná'
'vnitrostátními_'
'vnit'
'vládní'
'vlož'
'vlastník'
'violation_'
'viditeln'
'veřejném_'
'večer'
'verz'
'versa'
'verify'
'venkovských_'
'vedl_'
'vděčn'
'vaším_'
'vatelé_'
'vatel_'
'vat'
'vari'
'vané'
'vale'
'vací_'
'vaccine_'
'užívá'
'uživateli_'
'ušk'
'uř'
'učinil_'
'učil'
'uznává_'
'uznat_'
'uza'
'uvádění_'
'uvolnit_'
'uté'
'uty_'
'utin'
'ute_'
'utan'
'ustí'
'ustav'
'uspě'
'usp'
'usk'
'urá'
'urn'
'uriti'
'urgency_'
'urg_'
'ured_'
'upu'
'upr'
'uno'
'unm'
'unlike_'
'univerzální'
'unf'
'underpin'
'uncomfortable_'
'umožňující_'
'umožnil'
'ult_'
'ulos'
'ulin'
'ulate'
'ukončen'
'uje'
'uil'
'uh_'
'uchová'
'třemi_'
'těhotenství_'
'týkajícím'
'tuj'
'ttle'
'tt_'
'tsi'
'très_'
'trestu_'
'travelers_'
'transi'
'transforma'
'transak'
'tram'
'trafficking_'
'tradičních_'
'trac'
'toy'
'továrn'
'tol'
'tlakem_'
'tka_'
'tiš'
'tile'
'tifi'
'tible_'
'ths_'
'thrown_'
'throat_'
'threshold_'
'threatening_'
'threaten_'
'thre'
'thoroughly_'
'thir'
'thin_'
'them'
'thea'
'teroristický'
'terate'
'teor'
'tempe'
'televizní'
'televizi_'
'technická_'
'taxi_'
'tate'
'targeting_'
'tar_'
'talked_'
'sť'
'síti_'
'systémové'
'systémech_'
'symbolick'
'sword_'
'swe'
'světla_'
'svědky_'
'sve'
'susp'
'surviv'
'surpluses_'
'surovin_'
'suppl'
'supp'
'supervis'
'subc'
'středomořsk'
'stín'
'stáhl'
'sty'
'stun'
'studiích_'
'strann'
'stranick'
'straight_'
'stones_'
'stické_'
'stejná_'
'steady_'
'stačit_'
'stavb'
'starý_'
'stanovov'
'stamp'
'stahov'
'stabiln'
'ssor'
'spust'
'správě_'
'správn'
'správa_'
'spotřebitelsk'
'spotřebitel'
'spolupracov'
'spojit_'
'spit'
'spin'
'spekula'
'spekt'
'specialized_'
'specialit'
'soustřed'
'soup'
'soudn'
'sooner_'
'sona'
'solarium_'
'socio'
'socialistick'
'sněmovn'
'sní_'
'snižovat_'
'snaha_'
'směnn'
'slyšel_'
'slowe'
'slowdown_'
'slov'
'slibn'
'sledoval'
'skř'
'skému_'
'skupin'
'sku'
'skromn'
'sklon'
'skeptic'
'situací_'
'simulat'
'simpli'
'similarly_'
'significance_'
'sible_'
'should'
'shir'
'shar'
'shaped_'
'sexuální'
'sexual_'
'separated_'
'seldo'
'sekund'
'seemingly_'
'secondary_'
'scéně_'
'scream'
'schodky_'
'schi'
'scan_'
'saz'
'satisfactory_'
'sarge_'
'samostatn'
'sak'
'safeguarding_'
'sad_'
'sacrifice_'
'sac'
'růst'
'rysy_'
'rybolov_'
'rusti'
'rrh'
'rozšířené_'
'rozvr'
'rozvodu_'
'rozvinuté_'
'rozumě'
'rozumně'
'rozsudek_'
'rozpočt'
'rozliš'
'rozkaz'
'rozhl'
'rovná_'
'rovnová'
'roval'
'round'
'rostl'
'ropný'
'root'
'rolle'
'roll_'
'rodn'
'rocket'
'roc'
'rné'
'rizik'
'risky_'
'ridi'
'rians_'
'rian'
'rhetoric_'
'rgen'
'rezerv_'
'revizi_'
'revealed_'
'retain'
'restrukturalizaci_'
'restriction_'
'restrain'
'respects_'
'resident_'
'researchers_'
'rescue_'
'representing_'
'repo'
'repeat_'
'ren_'
'removal_'
'remembered_'
'rele'
'rekord'
'reimburse'
'regain'
'refuse_'
'refle'
'referenční_'
'reduk'
'recorded_'
'reconstruct'
'reciproc'
'recipient_'
'rebuild'
'rear'
'realized_'
'realitu_'
'realistick'
'realistic_'
'raze'
'rational'
'ratio'
'ratifik'
'ratification_'
'ramp'
'rain_'
'rael'
'radikáln'
'quie'
'quet'
'quantitative_'
'qualit'
'qualifications_'
'působil'
'působ'
'půjčov'
'příslušná_'
'příslušnost_'
'přírodní'
'příměří_'
'příloha_'
'příkazu_'
'příjemce_'
'přícho'
'přátelsk'
'přišl'
'přivíta'
'připomíná_'
'přinesla_'
'přine'
'přiměřené_'
'přikývl_'
'přijí'
'přijatelné_'
'přihlédn'
'přidan'
'přeží'
'přezkoumá'
'převzít_'
'přesunul'
'přesta'
'přesahují'
'překonáv'
'přeje'
'přej'
'předvol'
'přední_'
'předchozího_'
'předběžn'
'pěti'
'píse'
'puts_'
'pustil'
'puri'
'purely_'
'pulled_'
'publikac'
'pták'
'pte'
'pso'
'průměrné_'
'průměr_'
'prý_'
'prvkem_'
'prs'
'prováz'
'provedl_'
'provedené'
'proveden'
'protein'
'prostu'
'prosadit_'
'prosad'
'propriet'
'promluvil'
'prolo'
'prohr'
'prohléd'
'prohlás'
'prohloub'
'prohlaš'
'programov'
'produktivní_'
'produkt'
'prodejn'
'procenta_'
'procedural_'
'procedur'
'privileged_'
'preven'
'prev'
'presti'
'presidents_'
'preserved_'
'prepar'
'predict_'
'precio'
'pravé'
'pravidly_'
'practis'
'požad'
'poškozen'
'počáte'
'pozorně_'
'poznámky_'
'poznamenal_'
'pozměňovací'
'pověd'
'povolit_'
'povede_'
'považovat_'
'použiteln'
'použit'
'potřebná_'
'potřebn'
'potěšen'
'potýk'
'postu'
'postižení'
'posledním_'
'posla'
'poskytl_'
'position'
'posiluje_'
'posilova'
'popsán'
'popsaný'
'popla'
'popisuje_'
'popis_'
'pono'
'ponecháv'
'pomyslel_'
'pomocn'
'policejní'
'poli'
'pokrok'
'pokračoval_'
'pokles'
'poklad'
'pojišťovn'
'pojiš'
'pojem_'
'pohybuj'
'podílel'
'podíl'
'podává_'
'podvodům_'
'podstat'
'podrobné_'
'podporovan'
'podnikům_'
'podniknout_'
'podni'
'podmíněn'
'podep'
'pocház'
'pochyb_'
'poba'
'plánů_'
'plánovan'
'plodin_'
'plný_'
'platný_'
'platná_'
'plateb_'
'pig'
'physic'
'phy'
'philosoph'
'pes'
'perv'
'penzi'
'pens'
'pend'
'penalties_'
'patnáct'
'passion'
'partic'
'parlament'
'pari'
'paral'
'paradox'
'papírů_'
'panel'
'paliva_'
'palestinského_'
'pacienti_'
'ožn'
'oznámit_'
'označov'
'ovládá'
'ovláda'
'ovladače_'
'ovladač'
'overh'
'ous'
'otočil_'
'oth_'
'otevřený_'
'otevře'
'osvět'
'osvědčen'
'osvoj'
'ostní_'
'ostmi_'
'ostem_'
'oslaben'
'osk'
'osad'
'orts_'
'orti'
'organizacemi_'
'ordered_'
'opustil'
'opozi'
'opis'
'operační'
'operator_'
'oper'
'openness_'
'opatřeních_'
'opatrně_'
'omezuje_'
'omezil'
'olí'
'olympi'
'olt'
'okra'
'okov'
'oka'
'ohrom'
'oho'
'ogram'
'oděv'
'odstu'
'odob'
'odmě'
'odmítnout_'
'odhaduje_'
'odejít_'
'oddíl_'
'odd_'
'ochu'
'ocel'
'obětov'
'občanskou_'
'občan'
'obý'
'obyvatelé_'
'oby'
'obstacles_'
'obrátil_'
'obrátil'
'obrá'
'oboru_'
'obnovil'
'obje'
'obchodovat'
'nějakého_'
'nímž_'
'následují'
'náročný'
'nároků_'
'národ'
'nápad_'
'námě'
'námi'
'nutný'
'nue'
'nto'
'nstal'
'novému_'
'nová'
'novi'
'nouz'
'norma'
'nomin'
'nikoho_'
'ngen'
'nf'
'neří'
'nezo'
'nevyp'
'neur'
'nespr'
'nesmějí_'
'nesmysl'
'neschopnosti_'
'nerea'
'nepřip'
'nepřetržitě_'
'nepa'
'nemůž'
'nemusel'
'nemocí_'
'nejvyššího_'
'nejt'
'nejh'
'nejbližší_'
'nefung'
'needle'
'nedá'
'nedostatečn'
'nearest_'
'nea'
'ndo'
'nda_'
'nct'
'nařízen'
'nazva'
'navrhované_'
'navigation_'
'naučil'
'nato_'
'napravi'
'napomáh'
'naléhavo'
'naléha'
'nakaž'
'nahrazen'
'nade'
'nabídkové'
'městsk'
'měnu_'
'místním'
'místního_'
'mé'
'mán'
'myšlenek_'
'myslíš_'
'muslim'
'musc'
'mus'
'mud'
'mpa'
'mozk'
'motions_'
'most'
'mood_'
'mont'
'modification'
'modif'
'moderním_'
'mit_'
'missile_'
'miss_'
'misi_'
'minulého_'
'minu'
'minors_'
'minimaliz'
'ming'
'minate'
'mil_'
'mezinárodn'
'metro'
'metabolit'
'metaboli'
'mess'
'melt'
'mediá'
'mc'
'matr'
'matis'
'mateřsk'
'maso_'
'marke'
'marginal'
'margin_'
'manželů_'
'mann_'
'mann'
'manipula'
'malé'
'makers_'
'mad_'
'lů_'
'lň'
'léčbu_'
'léta'
'látka'
'lám'
'lying_'
'luggage_'
'loňské'
'lování_'
'louva'
'lot'
'logistic'
'logik'
'lock'
'lno'
'lise_'
'lis_'
'lighte'
'lidský'
'licencí_'
'libovoln'
'liberaliz'
'leč_'
'leti'
'less'
'lehk'
'lehce_'
'legitimní'
'legitim'
'legali'
'ledvin'
'lednu_'
'ledge'
'lati'
'landing_'
'kč'
'kula'
'krátké_'
'krátkodobý'
'kryt'
'krajin'
'kosmick'
'koru'
'koně_'
'kontrola_'
'kontrol_'
'koncept'
'komfort'
'kolaps'
'koho_'
'kodi'
'kní'
'kni'
'kmen'
'klád'
'klo'
'klinických_'
'klima_'
'klesající'
'klesa'
'klepněte_'
'klam'
'kilogram'
'kid_'
'kdykoli_'
'kdežto_'
'kb'
'každodenní'
'katal'
'kapitána_'
'kapitálov'
'kapitalistick'
'kapacitu_'
'kali'
'jším_'
'jug'
'joy'
'jnásob'
'jménu_'
'jisti'
'jiní_'
'jet'
'jednotného_'
'jednotlivců_'
'jednom'
'jed'
'jazy'
'jakém'
'jakkoli_'
'jak'
'jaderného_'
'iř'
'ivity_'
'iva_'
'itt'
'itr'
'ista'
'ismu_'
'invites_'
'investoval'
'investičních_'
'introducing_'
'introduc'
'inter_'
'intenzivní'
'intenzi'
'intense_'
'intelektuální_'
'insu'
'institucím_'
'instalovat_'
'instal'
'inspired_'
'insiste'
'inova'
'inou'
'innovat'
'inhibit'
'inha'
'infrastructures_'
'informac'
'individuali'
'indicators_'
'imun'
'importer'
'imply'
'impair'
'immuni'
'imbalances_'
'iluz'
'iki'
'ignor'
'igli'
'igat'
'idia'
'ideologi'
'identit'
'hč'
'háze'
'hypot'
'hydro'
'hurr'
'hudební'
'htm'
'ht_'
'hs'
'hrál'
'hrub'
'hrozn'
'hromadného_'
'hrab'
'hotovo'
'hotelové_'
'hospodářskému_'
'horní'
'hori'
'honest_'
'hodlá_'
'hněv'
'hni'
'hlubší_'
'hluboko_'
'hla_'
'highway_'
'hid'
'hibi'
'hezk'
'heri'
'hereby_'
'harmon'
'guvernér'
'gum'
'guestrooms_'
'grip'
'grim'
'grave'
'grate'
'gr_'
'gir'
'gio'
'gesture'
'geopolitical_'
'geografick'
'geneticky_'
'generov'
'generat'
'generaci_'
'gee'
'gant'
'gallery_'
'gage'
'fus'
'funded_'
'func'
'fruit'
'frozen_'
'frequent_'
'fran'
'forg'
'forests_'
'font'
'firmly_'
'fiction_'
'fication_'
'fia'
'ffic'
'fest'
'feld'
'feels_'
'favour'
'fault_'
'faktur'
'fakt'
'faithful_'
'failures_'
'eř'
'eč'
'ezpeč'
'ezen'
'extract'
'externí'
'express'
'exporters_'
'experiencing_'
'expense_'
'expecta'
'exercise'
'exemption_'
'excuse'
'exceptions_'
'evolution'
'evidentn'
'everyday_'
'even'
'etri'
'etnický'
'essentially_'
'eru'
'erin'
'eria_'
'entitlement'
'entar'
'enst'
'enrich'
'enin'
'enge'
'eness_'
'endur'
'enables_'
'empt'
'emis'
'emergenc'
'ements_'
'eme'
'elu'
'elný'
'elity_'
'elen'
'elektronický'
'elektronické_'
'electric_'
'electoral_'
'elderly_'
'ekonomů_'
'ekonomové_'
'eir'
'eds_'
'edit_'
'eda_'
'ection'
'ect_'
'eci'
'earning'
'earn_'
'dřevo_'
'dětské'
'dělají_'
'dých'
'dívat_'
'díl_'
'díl'
'dávku_'
'dávat_'
'dár'
'dvoji'
'dvanáct'
'dvaceti_'
'dun'
'dsk'
'druhým_'
'drastic'
'dož'
'doš'
'dozor'
'dozen_'
'dovozy_'
'dovoluj'
'dovat_'
'double'
'dostupných_'
'dopředu_'
'doprovod'
'dopravě_'
'doplňuj'
'doplňkov'
'doplňk'
'domě_'
'domácích_'
'dominantní'
'dome'
'dokáza'
'dokončen'
'doje'
'dogma'
'dodávky_'
'dodržovat_'
'dodrž'
'dodatk'
'dodat_'
'dobro'
'dobou_'
'dní'
'dlužníka_'
'dluhové'
'dlouhodob'
'dlouho'
'divo'
'dividend'
'divide_'
'diversif'
'dition'
'distort'
'distinct_'
'diss'
'disregard'
'dispose'
'disposal_'
'diskutova'
'director_'
'dip'
'dio'
'din_'
'dif'
'dies_'
'dh'
'developers_'
'devalu'
'dev_'
'deteriorat'
'detention_'
'detection_'
'dere'
'depress'
'deploy'
'dependency_'
'demonstrat'
'demonstra'
'demographic_'
'delight'
'delicate_'
'dela'
'deg'
'definovan'
'defending_'
'declined_'
'dece'
'debi'
'deadl'
'daňovým'
'day'
'dare'
'daném_'
'dable_'
'cítím'
'cyber'
'cut'
'cukru_'
'cted_'
'crus'
'crowd_'
'cross'
'crit'
'creati'
'cot'
'cosm'
'correcti'
'copie'
'cope_'
'coordinate'
'controversial_'
'contributes_'
'constraints_'
'constituen'
'conservative_'
'connect'
'confuse'
'confront_'
'configur'
'config_'
'confidential'
'confident_'
'concepts_'
'complimentary_'
'complicat'
'comple'
'competing_'
'compensat'
'compar'
'comf'
'collect'
'coe'
'codes_'
'cod'
'clinical_'
'classification_'
'clarity_'
'cken'
'cizinc'
'civilist'
'cist'
'cien'
'chyt'
'chudobou_'
'chole'
'chic'
'chemic'
'cheese_'
'chamber'
'chal_'
'cest_'
'cement_'
'celosvětové'
'cations_'
'běží_'
'běžet_'
'byte'
'butter_'
'burn_'
'bureau'
'buck'
'brit'
'breath_'
'brand_'
'brand'
'bouř'
'book'
'bons'
'bond'
'boli'
'bojov'
'boil'
'boards_'
'biomas'
'biologick'
'bilit'
'bilion'
'bili'
'bian_'
'bezv'
'bezpo'
'bezpečno'
'beta_'
'berou_'
'bei'
'bec_'
'bathtub_'
'bathrooms_'
'bariér'
'balíčk'
'ball_'
'bali'
'balances_'
'baj'
'backward_'
'azyl'
'azov'
'azil'
'azi'
'axi'
'awful_'
'await'
'automobilů_'
'authoritarian_'
'aus_'
'audiovi'
'attacking_'
'ats_'
'atmosféře_'
'ativ'
'ateln'
'aspoň_'
'asijský'
'arra'
'aris'
'archive'
'archa'
'ara_'
'approve_'
'appreciated_'
'app'
'aparát'
'aně'
'aní_'
'anticipate'
'antib'
'anniversary_'
'anger_'
'ances_'
'analy'
'americkým_'
'aliza'
'alen'
'alb'
'alarming_'
'akty_'
'aktivně_'
'aine'
'afo'
'affi'
'adventure'
'admit'
'administrativní'
'acute_'
'actively_'
'activat'
'accountable_'
'abu'
'abi'
']]"'
'Změn'
'Zelen'
'Začn'
'Zan'
'ZA'
'Yugoslav'
'Word_'
'Wit'
'Wed'
'Watch_'
'WLAN_'
'Věděl'
'Věc_'
'Výkon_'
'Vítám_'
'Vypadá_'
'Vulkán'
'Vlády_'
'Vipassana_'
'Villa'
'Via_'
'Vedle_'
'Ved'
'Vatican_'
'VR'
'VP'
'Until_'
'Una'
'Uděl'
'UNESCO_'
'Tvů'
'Tuto_'
'Turi'
'Trev'
'Travel'
'Topics_'
'Tony_'
'Throughout_'
'Thomas_'
'Test'
'Tchaj_'
'Taiwan_'
'TAR'
'Sá'
'Systém'
'Syn'
'Swi'
'Support_'
'Středo'
'Students_'
'Stub'
'Standard'
'Spee'
'Specifi'
'Smlouva_'
'Smlouv'
'Smith_'
'Several_'
'Seri'
'Senate_'
'Secure_'
'Se_'
'Scien'
'Schengen_'
'Sche'
'Sca'
'Say'
'Saxon_'
'STR'
'SH'
'SEK_'
'Rü'
'Rub'
'Round_'
'Rose'
'Robert'
'Rie'
'Reu'
'Rest'
'Rein'
'Registr'
'Region'
'Regi'
'Reception_'
'Reagan'
'RU'
'RAID'
'Přitom_'
'Předseda_'
'Pákistánu_'
'Proti_'
'Propo'
'Proce'
'Press'
'Použij'
'Použ'
'Politick'
'Political_'
'Politi'
'Podobně_'
'Plán'
'Pha'
'Petro'
'Pest'
'Personal_'
'Pek'
'Peace_'
'Partner'
'Pap'
'Panorama_'
'Pali'
'PRI'
'Očekáv'
'Otázka_'
'Otherwise_'
'Otevře'
'Ort'
'Ord'
'Oprav'
'Olympic_'
'Ole'
'Ods'
'Odpověd'
'Obrá'
'OP_'
'OL'
'Němci_'
'Nos'
'Norway_'
'Nevi'
'Never_'
'Neus'
'Nen'
'Nemá'
'Near'
'Naši_'
'Naproti_'
'Nabucco_'
'NX_'
'NP'
'NG'
'Máš_'
'Mr'
'Montáž_'
'Monta'
'Mlad'
'Meta'
'Merkel_'
'Meli'
'Media'
'Mea'
'Maxim'
'Mav'
'Mauri'
'Marco_'
'Mao_'
'Mandel'
'Mand'
'Malé_'
'Make_'
'Macedonia_'
'MAP'
'MAN'
'Lucembursk'
'Londýna_'
'Logi'
'Local'
'Litv'
'Lithuania_'
'Line'
'Limited_'
'Liber'
'Leto'
'Legislati'
'Lee_'
'Lead'
'Labour_'
'LU'
'LONDON_'
'LB'
'Kosovu_'
'Kontrol'
'Kai'
'Jonathan_'
'Jednodu'
'Jed'
'Jav'
'Jackson'
'JE'
'Izraeli_'
'Izraele_'
'Islands_'
'Isla'
'Iron'
'Instrument'
'Initia'
'Inform'
'Indií_'
'Id'
'IND_'
'Hon'
'Home'
'Hof'
'Hill_'
'Herm'
'Have'
'Harv'
'Hans'
'Hammam_'
'HTML_'
'HN'
'Gui'
'García_'
'Galway_'
'Francis'
'Foun'
'Find_'
'Federac'
'Fac'
'Expe'
'Eth'
'Estonian_'
'EVROPSK'
'Dw'
'Dum'
'Dubrovnik_'
'Druhým_'
'Druhý_'
'Dru'
'Download_'
'Douf'
'Dohod'
'Dlouh'
'Di_'
'Democracy_'
'Dem'
'Defini'
'Deco'
'Dau'
'Datum_'
'Data'
'DD'
'Cycling_'
'Crowne_'
'Conce'
'Colon'
'Clintonov'
'Clearly_'
'Clea'
'Circu'
'Christi'
'Chris_'
'Chorvatsko_'
'Cav'
'Carol'
'Cara'
'Calla'
'COD_'
'CE'
'Bíl'
'Bus_'
'Brin'
'Brazil'
'Bour'
'Boh'
'Bob'
'Boasting_'
'Bill'
'Bezp'
'Bes'
'Bernanke_'
'Bell'
'Beck'
'Base'
'Bankomat_'
'BY'
'BU'
'BB'
'Awa'
'Automati'
'Asse'
'Arábie_'
'Arg'
'Application_'
'Annexes_'
'Animal_'
'Angela_'
'Analy'
'Alo'
'Alex'
'Aktu'
'Ai'
'Afri'
'Ae'
'Adria'
'Adres'
'Activ'
'Abra'
'Abbás'
'AVA'
'= _'
'96'
'79'
'76'
'5hvězdičkový_'
'56'
'450_'
'350_'
'296_'
'1973_'
'1960_'
'170'
'135'
'105'
'. ) _'
'* ..._'
'):_'
') - _'
'" - _'
' • _'
' %'
'х'
'не'
'г'
'κ'
'žím'
'žádá'
'žádoucí_'
'žu'
'žive'
'žené'
'ženu_'
'žensk'
'žene'
'ždi'
'žalobc'
'žalo'
'Žen'
'Že_'
'Ů'
'ťá'
'ťova'
'Ťi'
'šířit_'
'špičkový'
'školách_'
'širším_'
'šil'
'šesti'
'šené'
'šej'
'Švédsku_'
'řát'
'řuje_'
'řský'
'řiv'
'řečn'
'řadou_'
'ětí_'
'ěrem_'
'ějšími_'
'ěje_'
'ěhoval'
'ďm'
'čínský_'
'čín'
'částečn'
'částek_'
'čten'
'čili_'
'černé_'
'častější'
'Čínu_'
'Čím_'
'ýž'
'ýšle'
'ýs'
'úřední_'
'účinn'
'účeln'
'účastníc'
'účastnil'
'účastni'
'úzké'
'útvar'
'útoků_'
'úte'
'ústup'
'ústn'
'úspěchů_'
'únoru_'
'úmysln'
'úmysl'
'úloha_'
'úlev'
'úk'
'úhrn'
'ör'
'íše_'
'íře'
'íval'
'írání_'
'ídl'
'ícími_'
'ích'
'ícen'
'íben'
'éta'
'éna'
'éhá_'
'än'
'áš'
'ářsk'
'ázal'
'áza'
'áte'
'ásn'
'árn'
'ánu_'
'ánský'
'áni'
'áka'
'ácí_'
'áct'
'ß'
'Účin'
'Účetní'
'Úspě'
'Úpadek_'
'«'
'§ _'
'zúčastněnými_'
'záva'
'zásil'
'zásadně'
'zásada_'
'západním'
'zálož'
'zákoníku_'
'zákonodárc'
'základními_'
'zác'
'zábav'
'zvykl'
'zvy'
'zvažov'
'zum'
'ztráta_'
'ztrát_'
'zrad'
'způsobit_'
'způsobilosti_'
'zpomal'
'zovan'
'zohledňova'
'zohledněn'
'zodpovědný'
'zní'
'znečišťov'
'znepokojen'
'znep'
'znamení_'
'změnil_'
'zmínit_'
'zlato_'
'zl_'
'zky_'
'zkus'
'zkum'
'zeď_'
'zet'
'zeni'
'zdánlivě_'
'zdržen'
'zdravotnických_'
'zdravotnick'
'zde'
'zbytečné_'
'zažíva'
'zaše'
'zaš'
'zařa'
'zaznamen'
'zaujím'
'zatčen'
'zase'
'zaručuje_'
'zapříčin'
'zapojil'
'zaměřený_'
'zaměstnavatele'
'zaměstnavatel'
'zamezení_'
'založi'
'zajíma'
'zadrže'
'zadlužení_'
'zac'
'zabýval'
'zabránil'
'zabra'
'zabezpečit_'
'yse'
'ynul'
'yni'
'ych_'
'yards_'
'xima'
'xia'
'xed_'
'wski_'
'ws'
'writ'
'wri'
'wound'
'worth'
'wooden_'
'wondered_'
'wonder'
'witnessed_'
'winner'
'wiki'
'wie'
'who'
'whenever_'
'wes'
'waves_'
'warn_'
'waite'
'vším'
'věř'
'větr'
'věk'
'věděl'
'vědom_'
'výživné_'
'výzvám_'
'výzva_'
'významn'
'výzkum'
'vývozních_'
'výstup_'
'výstav'
'výslovně_'
'výsad'
'výrobních_'
'výrazněj'
'výměně_'
'výměnu_'
'východním_'
'výbore'
'váv'
'vzá'
'vzore'
'vznik_'
'vzestupu_'
'vzdálené'
'vyžádá'
'vyzvat_'
'vyvíjejí'
'vyvíje'
'využit'
'vytvořili_'
'vytvořil_'
'vytvořený'
'vysvětluje_'
'vystupuj'
'vystupova'
'vysokými_'
'vyslechn'
'vysle'
'vyskytn'
'vypracovat_'
'vypořádat_'
'vypořád'
'vyplývající_'
'vypa'
'vynes'
'vyloučit_'
'vyl'
'vykr'
'vykonat_'
'vyk'
'vyjádřili_'
'vyje'
'vyjasn'
'vyhnul'
'vyhlási'
'vydává'
'vydané_'
'vybrané'
'vstřícn'
'vrátí_'
'vrcholu_'
'vrchol'
'vowels_'
'voják'
'vodík'
'vocation'
'vnímání_'
'vné_'
'vliv'
'vlasů_'
'vlastními_'
'vlastni'
'vlastn'
'vlakového_'
'vky_'
'vkladů_'
'vitamin_'
'vise'
'violations_'
'viol'
'ville_'
'vik'
'vidn'
'vhodnou_'
'veškerý'
'veřejným'
'veto'
'verzí'
'ventilat'
'veni'
'venc'
'velvyslan'
'velkém_'
'velení_'
'veil'
'vchod'
'valy_'
'vali'
'vacation'
'učí_'
'uznávání_'
'uznávaný'
'uzavírá'
'uts_'
'utl'
'ustanoveními_'
'ustanov'
'usta'
'usnadnění_'
'usnadnil'
'usnadn'
'uskutečňova'
'usiluje_'
'ush'
'usal'
'určuj'
'urs_'
'uprchli'
'unstable_'
'unse'
'unifi'
'undo'
'undert'
'unders'
'underlying_'
'umístění_'
'umožňují_'
'umožnila_'
'uly_'
'ultra_'
'ultra'
'uložit_'
'ulov'
'ulice'
'ulation_'
'ulat'
'ukončil'
'ujiš'
'uin'
'uhe'
'ugh_'
'uga'
'udělám'
'udov'
'ucí_'
'uct'
'ubí'
'uby'
'ub_'
'třes'
'těžit_'
'těl_'
'těhotn'
'týmy_'
'týmu_'
'týkat_'
'týden'
'tón'
'tyran'
'twentieth_'
'twe'
'tvý'
'tvrzením_'
'tvorby_'
'turb'
'tuc'
'tua'
'tti'
'trá'
'truck'
'trub'
'trn'
'trigger_'
'trigger'
'tries_'
'tribes_'
'trib'
'trials_'
'trestné_'
'trends_'
'trat'
'transpose'
'transporte'
'transparentní_'
'transmit'
'transformation_'
'tram_'
'toxic_'
'towns_'
'tová'
'tough_'
'torp'
'topic_'
'tool'
'toni'
'tone_'
'toleranc'
'tokr'
'tná_'
'tisíc'
'tisk'
'timber_'
'tila_'
'tighten_'
'tické'
'there'
'theori'
'thank'
'textov'
'testu_'
'terén'
'terror_'
'territories_'
'teroristické_'
'tended_'
'temperatures_'
'telekomunika'
'technologii_'
'techniku_'
'tall_'
'takt'
'tajný'
'tailor'
'sň'
'sý'
'série_'
'sér'
'sáz'
'sympath'
'swin'
'swea'
'swap'
'svol'
'svobodně_'
'suverénní'
'sure'
'sura'
'suprem'
'supervisory_'
'supermarket'
'subve'
'substantially_'
'subparagraph_'
'sté'
'stávají_'
'státním'
'styl_'
'stupid'
'studios_'
'ström'
'stráž'
'strip'
'string'
'strict'
'stres'
'strašn'
'stores_'
'stole'
'stle'
'stic'
'stejným'
'statistick'
'startu'
'starship_'
'stara'
'standard'
'staly_'
'stake'
'stairs_'
'stagnation_'
'stadt'
'srozumiteln'
'spu'
'spravedlivě'
'spouště'
'spotřebitelům_'
'spotřeb'
'spon'
'společensk'
'spol'
'spojence'
'splněn'
'spis'
'spiritual'
'spekulativní'
'spectr'
'specifikac'
'special'
'spar'
'spadají'
'sovětské'
'současném_'
'současná_'
'souvisejí'
'soustředit_'
'sousedy_'
'soudržnost_'
'sort'
'sons_'
'solid'
'soli'
'socialism'
'snídaně_'
'sná'
'snižov'
'snažili_'
'snack'
'směrnic_'
'smell'
'slyšeli_'
'služebn'
'službám_'
'slunc'
'složku_'
'složito'
'složit'
'slovinské'
'sledoval_'
'sledova'
'slav'
'slat'
'slan'
'sl_'
'skvělou_'
'skvrn'
'skutk'
'skutečným_'
'skupině_'
'skončení_'
'skal'
'simultaneously_'
'simp'
'silver_'
'silná_'
'silniční_'
'signi'
'sie_'
'sian_'
'shout'
'shipping_'
'sheets_'
'shares_'
'shareholders_'
'sfér'
'sev'
'setkáv'
'setká'
'servant'
'sentiment'
'sensiti'
'secretar'
'sdělit_'
'sdílené'
'sdíl'
'script_'
'script'
'scrap'
'score_'
'scientists_'
'schůzce_'
'schválený'
'scene'
'scanning_'
'sbír'
'sazbá'
'sazba_'
'sat'
'sanita'
'sand_'
'sampl'
'salon'
'sag'
'sacred_'
'ržel_'
'rána_'
'rychlosti_'
'rybářské'
'rw'
'ručně_'
'ruského_'
'rush'
'rulers_'
'rukama_'
'ruj'
'ruin'
'rty_'
'rtis'
'rozšířil'
'rozvojové'
'rozumné_'
'rozpr'
'rozlo'
'rozhodnou_'
'rozes'
'rovat_'
'rout'
'rous_'
'rooftop_'
'ron_'
'román'
'rog'
'rodičů_'
'rodičovské_'
'rně_'
'rní'
'rm'
'rizikem_'
'riti'
'rich'
'rice_'
'reward_'
'reverse'
'restaurací_'
'respect'
'resort'
'resolving_'
'residents_'
'requiring_'
'repro'
'representation_'
'renowned_'
'renew'
'rema'
'relevantní'
'relativní_'
'regulati'
'regulate_'
'refin'
'reci'
'receives_'
'recei'
'realiz'
'reakcí'
'reagoval'
'readin'
'reactions_'
'rational_'
'ratifikaci_'
'raketov'
'raid'
'rací_'
'question'
'ques_'
'působit_'
'působení_'
'přív'
'přít'
'přístupn'
'příst'
'příspěvků_'
'příslušnými_'
'příslušným_'
'příslušnosti_'
'přípravě_'
'přímých_'
'přímý_'
'přímé_'
'příkladu_'
'příjemc'
'přátelé_'
'přist'
'připravova'
'připomína'
'přimět_'
'přidr'
'přich'
'přiblíži'
'přibl'
'přez'
'převážně_'
'převa'
'přesunout_'
'přesouv'
'přesné_'
'přesahuje_'
'přerušit_'
'přenosu_'
'překážk'
'překvap'
'překroč'
'překlad'
'přeje_'
'přehráv'
'představitelů_'
'předsednictvím_'
'předložil'
'předl'
'předejít_'
'předchozích_'
'přebytky_'
'písemnosti_'
'pursu'
'purchasing_'
'psi'
'průvod'
'prům'
'průk'
'průběh_'
'právnick'
'prvotřídní'
'pružn'
'prst'
'proše'
'prozatímní_'
'prozatímní'
'provin'
'protějšk'
'protection'
'prosto'
'prosi'
'proposing_'
'propojen'
'proof'
'proměnné_'
'promí'
'projednává'
'projedna'
'prohlížeče_'
'prohlížeč'
'profesionál'
'profes'
'prodluž'
'prodloužení_'
'procesů_'
'procentních_'
'proceed_'
'problematic_'
'prima'
'priest'
'pren'
'premiér_'
'precise_'
'pray'
'pracujících_'
'pracující_'
'pracují_'
'pracovní'
'prach'
'ppi'
'požadavku_'
'pošt'
'pořádn'
'pořád'
'počítačů_'
'počítat_'
'počíta'
'pozoru'
'pozměněn'
'pozdější'
'pověst'
'pový'
'povinné_'
'použitelnost'
'použita_'
'poukáz'
'poukazuje_'
'pouhým_'
'pouhý'
'potřebo'
'potýkají_'
'potíž'
'potvrdí_'
'potrav'
'potlačov'
'potka'
'potenciál'
'posíl'
'postupuj'
'postih'
'posta'
'posou'
'posledního_'
'poslanec'
'poselství_'
'porušov'
'porovná'
'porodnost'
'populism'
'popisu'
'pomáhal'
'polymer'
'polské'
'polov'
'pokyny_'
'pokusy_'
'pokus_'
'poje'
'pohá'
'pohn'
'pohlíž'
'poh'
'podívej'
'podíle'
'podrobn'
'podpoří_'
'podpořila_'
'podpořil'
'podnít'
'podnikov'
'podezření_'
'podepsán'
'podd'
'pocho'
'pobřežní'
'pobo'
'plánuj'
'ploš'
'plodn'
'plein_'
'platný'
'platné_'
'planes_'
'plane_'
'placebo_'
'pivo'
'pira'
'pin_'
'phrase_'
'phobi'
'pho'
'pesticidů_'
'pert'
'perspektivy_'
'persistent_'
'perp'
'period'
'perif'
'performing_'
'peněž'
'pena'
'pedia'
'paye'
'pati'
'passes_'
'passage_'
'panuj'
'pani'
'palm'
'palivov'
'painting'
'paint_'
'padl'
'padesát'
'očkov'
'očekávan'
'označ'
'ozen'
'owners_'
'ověři'
'ovsk'
'ovna_'
'overl'
'ovc'
'ovaného_'
'outskirts_'
'oupil'
'otř'
'otis'
'oth'
'otevřel_'
'otevírá'
'otel'
'otec_'
'osto'
'osam'
'originate'
'orientation_'
'ordina'
'orde'
'opíra'
'optim'
'opt'
'opravn'
'opodstatněn'
'operační_'
'operated_'
'openly_'
'oně'
'onic'
'omy'
'omu'
'olov'
'ologické'
'olivov'
'olen'
'okresní'
'okolo_'
'okno_'
'ografi'
'oft'
'odárn'
'odstr'
'odrážejí'
'odpov'
'odpoledne_'
'odmítá'
'odmítli_'
'odlišno'
'odlišn'
'odli'
'odkláda'
'odhalen'
'odhadů_'
'odej'
'oddíl'
'ocitn'
'oceněn'
'oceli_'
'oce'
'občanskoprávní'
'obu'
'obtížně_'
'obt'
'obsahem_'
'obrovským'
'obrovské'
'obrazu_'
'obran'
'obra'
'obojí'
'obod'
'obklop'
'obezřetn'
'obey'
'obdob'
'obd'
'obav_'
'nů'
'nějších_'
'nízkouhlíkov'
'nízko'
'návod'
'nást'
'následk'
'náležito'
'nálež'
'nálad'
'náhodn'
'nábožensk'
'nynějš'
'nw'
'nutnosti_'
'nuj'
'ntation'
'noun'
'not'
'normální'
'noon'
'nonetheless_'
'node'
'noble_'
'nna'
'nment'
'nke'
'nizozemsk'
'nitr'
'nish'
'nga'
'nežádoucích_'
'neč'
'neúspěch'
'nezna'
'nezn'
'nezk'
'nezaměstnan'
'newspaper_'
'new'
'nevyhnutelné_'
'nevid'
'neutraliz'
'neum'
'neudělá'
'nete'
'nesta'
'nesporn'
'nesouhlasi'
'nesou_'
'nesmírn'
'nerozum'
'nerovnováh'
'nepříjemn'
'nepřin'
'neposl'
'neoch'
'neo_'
'nemohli_'
'nemluv'
'nelíb'
'nejrůznější'
'nejenže_'
'neighbor'
'neglect'
'negativní'
'negativ'
'nedošlo_'
'nedokážou_'
'nedaleko_'
'necessity_'
'ndl'
'nder_'
'ncy_'
'naštěstí_'
'naš'
'naznač'
'naváz'
'navrh'
'narůstající'
'narůst'
'narození_'
'namít'
'najde'
'nahra'
'nadšení'
'nadřazen'
'nadějí_'
'nadcházející'
'nadac'
'nacionalismu'
'můž'
'měři'
'měřen'
'mět'
'měnový'
'měnová_'
'mém_'
'más_'
'myšlenko'
'myslel_'
'mysl_'
'muni'
'multilaterální'
'mp3_'
'mount_'
'moudrost'
'mora'
'monst'
'monopoly_'
'mode'
'moda'
'mmi'
'mlh'
'mistakes_'
'misle'
'ministry_'
'minds_'
'mimořádný'
'miluj'
'militant'
'microsoft_'
'microb'
'mezní'
'metric'
'metodu_'
'metod'
'meri'
'merger'
'merge'
'menším'
'menších_'
'mene'
'mem'
'mechaniky_'
'meantime_'
'md'
'maximálně_'
'maxima'
'maxim'
'matc'
'marking_'
'marin'
'mari'
'managers_'
'malým_'
'malicious_'
'mais_'
'maintain'
'mainstream'
'maa'
'lč'
'líto_'
'léčbě_'
'léků'
'lék'
'lázn'
'lát'
'lude'
'loy'
'loving'
'lob'
'livý'
'litr'
'lish'
'liquid_'
'linuxov'
'link'
'likvidit'
'likvidac'
'lidským_'
'lidsk'
'lich'
'library_'
'liberalizace_'
'lge'
'levných_'
'lete_'
'letadla_'
'letad'
'lesní'
'lera'
'lend'
'legitimit'
'lecture'
'lce_'
'lays_'
'lari'
'lands_'
'laboratoř'
'label'
'křesťan'
'kř'
'kódy_'
'kódu_'
'kání_'
'krátký'
'krátko'
'krás'
'král'
'kruh'
'kru'
'krok'
'krev_'
'kovn'
'kouření_'
'koule_'
'kori'
'korejsk'
'konvergen'
'konvenční'
'kontinentu_'
'kontaktní_'
'konstrukce_'
'konstatova'
'konso'
'konfigurac'
'koneckonců_'
'kona'
'komunit_'
'komunikaci_'
'komunik'
'komu_'
'komponent'
'kompletn'
'komodit_'
'komisařk'
'komfortním_'
'komfort_'
'kolo_'
'kolegům_'
'kok_'
'kob'
'koa'
'knout_'
'kno'
'klíčovým_'
'kly_'
'klub'
'klientů'
'kladně'
'kladen'
'kit_'
'key'
'kavárn'
'katol'
'kapitalismu_'
'kampan'
'kamene'
'kal_'
'kají'
'jš'
'jídlo_'
'jícími_'
'justification_'
'jointly_'
'jmenován'
'jmenovat'
'jin'
'jemuž_'
'jazycích_'
'jasn'
'jam'
'jakéhokoli_'
'jakákoli_'
'ičn'
'ió'
'izolaci'
'izola'
'izing_'
'ize'
'izaci_'
'ives_'
'itý'
'itor'
'italské'
'isu'
'istů_'
'iss'
'isolated_'
'islámské_'
'irregular'
'investuj'
'investory_'
'investing_'
'investicím_'
'investic'
'inv'
'intr'
'inti'
'interm'
'intera'
'integrované'
'installations_'
'inspector'
'input_'
'inner_'
'initiate_'
'ini_'
'infringement_'
'inex'
'inet'
'incorporated_'
'incorporat'
'incident'
'inary_'
'imunit'
'impress'
'impr'
'implement'
'immi'
'imigra'
'imate'
'ilo'
'illusion'
'ilis'
'ikace_'
'ignorovat_'
'ideálním_'
'identical_'
'icích_'
'ication_'
'ibe'
'iba'
'iate_'
'hä'
'hyp'
'hydroc'
'hung_'
'hub'
'hrozby_'
'hromadn'
'horizontal_'
'honour'
'hone'
'hodnotn'
'hodil'
'hnu'
'hmotn'
'hlíd'
'hlo'
'hledá'
'hlavními_'
'hit'
'historii_'
'hemat'
'hars'
'harmoniz'
'harm'
'harbour_'
'hange'
'hae'
'habitación_'
'gé'
'gz'
'guy_'
'guin'
'guard_'
'grou'
'gravit'
'grass'
'grasp_'
'grap'
'gran'
'grafick'
'gradual_'
'gradi'
'gma'
'gm'
'gly_'
'globálním'
'glance'
'glamo'
'geno'
'generations_'
'genc'
'gear'
'gard'
'garan'
'gad'
'fut'
'funkční'
'fum'
'fulfilled_'
'fulfil'
'fuel'
'frustra'
'frie'
'francouzského_'
'fragment'
'fraction_'
'founded_'
'fotbalov'
'forthcoming_'
'forth_'
'formátu_'
'formulá'
'formi'
'formerly_'
'forma_'
'floppy_'
'flame'
'fixing_'
'finger_'
'fines'
'findings_'
'finančně_'
'finančními_'
'filmy_'
'filesystem'
'filed_'
'festival'
'ferr'
'favourabl'
'fas'
'farmer_'
'fakta_'
'fabulous_'
'ež'
'eře_'
'expos'
'exporte'
'expla'
'expir'
'exchanges_'
'exceeds_'
'evrop'
'eviden'
'eves_'
'ever'
'europa_'
'etický'
'ethical_'
'etern'
'esát'
'está'
'essi'
'esse'
'esk'
'erl'
'eria'
'eradicat'
'equip'
'epš'
'epo'
'epic'
'epa'
'eným_'
'enzym'
'environmentální'
'env'
'entra'
'enter'
'enta'
'ensures_'
'enství_'
'ense'
'enhancing_'
'energeticky_'
'enera'
'enemies_'
'enda'
'ency'
'embrac'
'embark'
'elov'
'elně'
'elegantní_'
'elegance_'
'ekonom_'
'ekologický'
'ejn'
'eight'
'egyptsk'
'efektivně_'
'editi'
'eding'
'ecological_'
'echo'
'důrazn'
'dědi'
'děd'
'dý'
'dítět'
'dávka'
'dál'
'duševní'
'dump'
'duchovní'
'ducha_'
'dské'
'držitele_'
'druhá_'
'drop'
'drog'
'drai'
'dp'
'dozvěděl'
'dozví'
'doze'
'downturn_'
'dováž'
'dován'
'dova'
'doubts_'
'dotáz'
'dosáhneme_'
'dostáva'
'dostupnosti_'
'dostav'
'dospělý_'
'dosahova'
'dore'
'doraz'
'dopravních_'
'doplňující'
'doplněn'
'dopis'
'domníval'
'dom_'
'dokázala_'
'dokončit_'
'dokaz'
'docháze'
'dobyt'
'dobrým_'
'dobrovolné_'
'dně_'
'dluž'
'dluhy_'
'dlouhodobým'
'dlouhodobého_'
'divok'
'diverzifik'
'distant_'
'disponuj'
'diskutuje'
'diskrimin'
'disko'
'disintegrat'
'disciplin'
'disappeared_'
'dis_'
'director'
'diplomacie_'
'diplom'
'dilem'
'differ_'
'diet_'
'diesel_'
'dictionaries_'
'dictator'
'devět_'
'determin'
'designat'
'deser'
'describes_'
'derogation_'
'derogat'
'deregula'
'departure_'
'deny_'
'denie'
'demonstration'
'demi'
'delete_'
'dele'
'defining_'
'defende'
'deepen'
'deemed_'
'decree'
'decl'
'dech'
'debaty_'
'darkness_'
'dance'
'dad'
'cítí_'
'cími_'
'czech'
'cyklu_'
'cycli'
'curio'
'curi'
'cs'
'crowd'
'criticis'
'crip'
'cred'
'cream_'
'crats_'
'craft_'
'courtyard_'
'council'
'cott'
'corridors_'
'conversion_'
'conver'
'convention_'
'controlling_'
'contrac'
'continua'
'container'
'constructed_'
'consolidati'
'conju'
'congress_'
'confronted_'
'concentrate_'
'comprising_'
'compress'
'complie'
'complexit'
'compl'
'compete_'
'comma'
'colors_'
'colla'
'coat_'
'cluster'
'clos'
'clearance_'
'clash'
'claim'
'ckým'
'ckém_'
'ckou_'
'cizí'
'civilians_'
'cite'
'cia_'
'chápe_'
'chysta'
'chybě_'
'chv'
'chudší'
'chudoba_'
'chroni'
'chlapec_'
'chief_'
'charakter_'
'challenged_'
'cet_'
'certifikát'
'ceremon'
'ceně_'
'centráln'
'celosvětově_'
'celosvětov'
'celku_'
'celkovou_'
'celebration'
'cargo_'
'capitali'
'cani'
'camera_'
'bů'
'břemeno_'
'byrokracie_'
'burk'
'bug'
'budov'
'budouc'
'brutáln'
'bright'
'breathtaking_'
'brea'
'branches_'
'bowl'
'bov'
'bought_'
'bother'
'borrowe'
'borne_'
'bojuj'
'blíže_'
'blízk'
'blur'
'blunt'
'blocked_'
'blister_'
'blind'
'blic'
'blend'
'bk'
'bitter'
'bish'
'bilis'
'bilance_'
'bil_'
'bezprostřední_'
'bezpečný'
'bezo'
'bers'
'berger_'
'benz'
'bent_'
'belong'
'belie'
'batteries_'
'bath'
'basic'
'bankovní'
'bam'
'bailout_'
'aňsk'
'azí'
'awa'
'avil'
'aux_'
'autom'
'aute'
'auta_'
'atý'
'ators_'
'atic_'
'asto'
'assistant'
'asisten'
'ascen'
'arts_'
'ars'
'arrest_'
'arre'
'arranged_'
'arl'
'aren_'
'ards_'
'appr'
'appea'
'apparently_'
'ao'
'antn'
'antidumpingov'
'annually_'
'anne'
'animat'
'angažova'
'ang_'
'ande'
'amongst_'
'amic'
'amen'
'alternatives_'
'alter_'
'alarm'
'aktivit_'
'akcionář'
'akc'
'akademi'
'aka'
'aje_'
'ain'
'aid'
'agree'
'afl'
'adí'
'advertisement'
'adve'
'adu'
'ads'
'admirál'
'administrativy_'
'adjustments_'
'adem'
'ade_'
'adal'
'activists_'
'act'
'acid_'
'accused_'
'accurate'
'acco'
'accessi'
'accepting_'
'ac_'
'abuses_'
'absurd'
'abe'
'abb'
']]'''
'\\'
'Závěr'
'Západní'
'Zákon_'
'Zpráv'
'Změna_'
'Zkouš'
'Zim'
'Zen'
'ZO'
'ZIP_'
'Yorku_'
'XII'
'Worf'
'Wir'
'Washington'
'Was'
'WOT_'
'WASHINGTON_'
'Všechna_'
'Výz'
'Výsledkem_'
'Výs'
'Vyživovací_'
'Využi'
'Vyd'
'Volb'
'Vladim'
'Vietnam_'
'VL'
'Upř'
'Upp'
'Upon_'
'Ult'
'Ukazatel_'
'Uka'
'UTC_'
'Téměř_'
'Turkmenist'
'Turecka_'
'Translate_'
'Train'
'Tower_'
'Tourism_'
'Tokyo_'
'Tim'
'Thy'
'Three_'
'Things_'
'Tau'
'TRA'
'TL'
'TF'
'TEL'
'TB'
'Sz'
'Surve'
'Sure'
'Sun'
'Stro'
'Strategic'
'Strana_'
'Stop_'
'Ston'
'Start_'
'Srov'
'Srbsko_'
'Srbsk'
'Správ'
'Speak'
'Sparhawk'
'Soval_'
'Soudního_'
'Soudní_'
'Something_'
'Snad_'
'Smí'
'Sli'
'Slavic_'
'Skutečně_'
'Ska'
'Simon_'
'Silk'
'Sile'
'Sid'
'Seve'
'Semi'
'Samuel'
'Saf'
'Sac'
'STA'
'SR_'
'SQL_'
'SL_'
'SDR_'
'Rozpočet_'
'Rit'
'Rese'
'Repair_'
'Remarks_'
'Rei'
'Ree'
'Red_'
'Rambla'
'RT_'
'RE_'
'RD'
'RAM'
'Quadra'
'Qa'
'Příst'
'Případ'
'Překlad_'
'Prv'
'Provozovatel'
'Proje'
'Prez'
'Později_'
'Power_'
'Potom_'
'Poor_'
'Poli'
'Poi'
'Podívej'
'Podí'
'Podrobn'
'Playa_'
'Peti'
'Pete'
'Papa'
'Pale'
'Pala'
'PU'
'PM'
'PD'
'Oz'
'Osobní_'
'Order_'
'Opti'
'Offer'
'Off'
'Odškodnění_'
'Odpo'
'Někdo_'
'Ně'
'Nástroj_'
'Následn'
'Norma'
'Nobelovy_'
'Nicola'
'Nesmíme_'
'Nemůže'
'Nel'
'Necht'
'Nebude_'
'Nal'
'NUT'
'NIC'
'Měst'
'Mělo_'
'Mü'
'Mí'
'Muž'
'Mul'
'Mugabe'
'Mountain'
'Mou'
'Motiv'
'Mori'
'Monti'
'Montenegro_'
'Monday_'
'Mitchell_'
'Milo'
'Millennium_'
'Mexiku_'
'Mexiko_'
'Medici'
'Med'
'Mechani'
'Max'
'Mass'
'Mario'
'Marine'
'Mara'
'Mant'
'Makedoni'
'Maj'
'Magi'
'Made'
'Lyž'
'Ly'
'Luxu'
'Lui'
'Ltd_'
'Londýně_'
'List'
'Lip'
'Lh'
'Leve'
'Letter_'
'Letos_'
'Leidse'
'Large_'
'Lady_'
'LON'
'Kód'
'Kro'
'Kremlin_'
'Korej'
'Konz'
'Kons'
'Kongresu_'
'Konečn'
'Konec'
'Kapitán'
'KL'
'Jug'
'Jistěže_'
'Janeway_'
'Jaká_'
'Jad'
'Jac'
'JI'
'Iv'
'Islamist_'
'Iráčan'
'Introduction_'
'Internetové_'
'Integrat'
'Institut'
'Indonési'
'Inde'
'Ign'
'Ideally_'
'INI'
'ICT'
'House'
'Hotelový_'
'Hostal_'
'Hollande_'
'Hold'
'Hodnot'
'Hit'
'Historie_'
'Hej_'
'Hap'
'HD'
'Guine'
'Guard'
'Gros'
'Graz'
'Gran'
'Governments_'
'Gore_'
'Gol'
'Globaliza'
'Gl'
'Gau'
'Gast'
'Fue'
'Florida_'
'Five_'
'Fisheries_'
'Fischer_'
'Fen'
'Fea'
'Fat'
'FF'
'FD'
'FAR'
'Explo'
'Except'
'Exc'
'Everything_'
'Eurojust_'
'Equal'
'Editor_'
'Eddie_'
'Eb'
'EO'
'ENS'
'EA_'
'Dž'
'Důvod'
'Děl'
'Dí'
'Drive'
'Dov'
'Donald'
'Does_'
'Dobrý_'
'Dimas'
'Dialog'
'Dete'
'Der'
'Declaration_'
'Date_'
'Dat'
'Daniel_'
'DU'
'DS_'
'DP'
'DHCP_'
'DER'
'DAT'
'Cít'
'Cy'
'Cut'
'Cože_'
'Covent_'
'Count'
'Could_'
'Copa'
'Contra'
'Constan'
'Conn'
'Config'
'Conditions_'
'Compo'
'Complete'
'Competiti'
'Clos'
'Clo'
'Clean_'
'Claud'
'Cl'
'Chr'
'Chce'
'Chart'
'Cau'
'Castel'
'Cann'
'Canc'
'Canadian_'
'Campo'
'Camb'
'CT'
'CSA_'
'CP'
'CONT'
'COMMISSION_'
'Bělorusko_'
'Bushovy_'
'Bund'
'Buc'
'Britsk'
'Brexit_'
'Brea'
'Bou'
'Bli'
'Bled_'
'Bilbao_'
'Bie'
'Bia'
'Bett'
'Bern'
'Benjamin_'
'Bee'
'Bea'
'Bay'
'Basic_'
'Basi'
'Barn'
'Bang'
'Balkán'
'Bali_'
'Bach'
'Audit'
'Ast'
'Asi_'
'Asad'
'Apart_'
'Ande'
'Amo'
'Ame'
'Amb'
'Am_'
'Alternativ'
'Agr'
'Age_'
'Adam_'
'Aa'
'ATM_'
'ATI'
'APT_'
': +_'
'92'
'90'
'84'
'77'
'74'
'66'
'3hvězdičkovém_'
'300'
'214'
'20th_'
'1982_'
'181'
'162'
'155'
'138_'
'118'
'115_'
'112'
'111'
'00000'
'. ... _'
'***'
'*)'
'* '
')) '
') .'
'" | _'
' · _'
' § _'
' ='
' ; _'
' : +_'
' : + _'
' . .'
' --> _'
' +'
' ( '
'€'
'”._'
'ُ'
'ل_'
'я_'
'ч'
'по'
'ж'
'ер'
'ρ'
'η'
'žo'
'žný'
'žnou_'
'žl'
'žky_'
'žiteln'
'žený'
'ženou_'
'železnic'
'Ženev'
'ůž'
'ťování_'
'švédské_'
'šv'
'štěd'
'šti'
'šte'
'špič'
'špatného_'
'špatná_'
'škole_'
'škol_'
'škodu_'
'širok'
'šach'
'řů'
'říva'
'řív_'
'řádný'
'řádku_'
'řské_'
'řidiče_'
'řešil'
'řekli_'
'Řekl'
'ňován'
'ěřen'
'ěné'
'ěli'
'ěk_'
'ědom'
'čít'
'čínsk'
'čím'
'částic'
'částech_'
'čár'
'čuj'
'čtvrtek_'
'čování'
'čno'
'četl'
'čestn'
'čest_'
'český'
'čelil'
'čel_'
'čeká'
'častěji_'
'Český'
'Čern'
'ýv'
'ýma_'
'ýli'
'ück'
'účinněj'
'účinných_'
'účinná_'
'účinku_'
'účetních_'
'účel'
'účast'
'ústní_'
'úspěšný_'
'úspory_'
'úprava_'
'úkolů'
'úkolu_'
'úhl'
'údajn'
'ú_'
'ös'
'ózy_'
'ózn'
'ód'
'íst_'
'írat_'
'ídá'
'íbil'
'ény_'
'éka'
'édn'
'ère_'
'â_'
'áší_'
'ářský'
'ázel'
'áve'
'árensk'
'áren_'
'ánn'
'álu_'
'álním'
'áků_'
'ádí_'
'ádn'
'ácen'
'Účel'
'Účastníci_'
'Úv'
'Íránem_'
'Írán'
'ÍC'
'ÁT'
'© _'
'}'
'zřeteln'
'zřetel'
'zú'
'získaných_'
'získal'
'zím_'
'záš'
'záři'
'záření_'
'záviset_'
'zátěže_'
'zát'
'zásobov'
'zání_'
'základem_'
'zájmům_'
'zzl'
[...]
