'<pad>_'
'<EOS>_'
', _'
'._'
'the_'
'a_'
'de_'
'of_'
'to_'
'and_'
'şi_'
'în_'
'in_'
'-_'
'să_'
'_'
'la_'
'is_'
'that_'
'din_'
'pentru_'
's_'
'for_'
'că_'
'care_'
'o_'
'on_'
'cu_'
'este_'
'The_'
'are_'
'un_'
''_'
'I_'
'nu_'
'be_'
'with_'
'European_'
'as_'
'au_'
'mai_'
'pe_'
'this_'
'/_'
'have_'
'will_'
'it_'
' (_'
'we_'
'se_'
'e_'
'not_'
'by_'
'"_'
'al_'
'has_'
'an_'
') _'
'va_'
' - _'
'which_'
'fost_'
'i_'
'at_'
'fi_'
'from_'
'EU_'
'sunt_'
'said_'
'ca_'
': _'
'ce_'
'Kosovo_'
' "_'
'ar_'
'also_'
'ă_'
'În_'
'trebuie_'
' -- _'
'acest_'
'would_'
'was_'
'UE_'
'its_'
'or_'
'Serbia_'
'am_'
'le_'
'been_'
'," _'
'all_'
'", _'
'declarat_'
'President_'
'(_'
'but_'
'their_'
'această_'
'We_'
'important_'
'ale_'
'more_'
'our_'
'must_'
'should_'
'Commission_'
'new_'
'In_'
'vor_'
'they_'
'country_'
'?_'
'It_'
'can_'
']_'
'; _'
'Union_'
'one_'
'lor_'
'asemenea_'
'you_'
'ne_'
'countries_'
'who_'
'toate_'
'Mr_'
'he_'
'about_'
'ul_'
'This_'
'BiH_'
'prin_'
'do_'
'lucru_'
't_'
'people_'
'dintre_'
'Europe_'
'. [_'
'Parliament_'
'privind_'
'there_'
')_'
'States_'
'asupra_'
'sau_'
'ing_'
'Macedonia_'
'fie_'
'foarte_'
'government_'
'year_'
'"._'
'were_'
'Minister_'
'economic_'
'report_'
'other_'
'very_'
'% _'
'euro_'
'his_'
'unei_'
'only_'
'Times_'
'Member_'
'these_'
'De_'
'trebui_'
'time_'
'political_'
'like_'
'într_'
'ani_'
'SETimes_'
'ed_'
'two_'
'd_'
'Council_'
'membre_'
'ceea_'
'l_'
'10_'
',_'
'so_'
'după_'
'acestea_'
'cele_'
'up_'
'mod_'
'dacă_'
'mult_'
'lui_'
'unui_'
'iar_'
'support_'
'Southeast_'
'1_'
'no_'
'dar_'
'NATO_'
'between_'
'A_'
'because_'
'us_'
'Turkey_'
'" _'
'timp_'
'm_'
'putea_'
'first_'
'face_'
'need_'
'către_'
'cadrul_'
'Europeană_'
'state_'
'noi_'
'mare_'
'out_'
'into_'
'cum_'
'000_'
'than_'
'poate_'
'such_'
'Europa_'
'y_'
'), _'
'Comisiei_'
'Comisia_'
'when_'
'some_'
'Bulgaria_'
'public_'
'despre_'
'aceste_'
'acum_'
'special_'
'până_'
'now_'
'international_'
'11_'
'years_'
'my_'
'' _'
'când_'
'multe_'
'faptul_'
'doar_'
'area_'
'what_'
'Uniunea_'
'acord_'
'way_'
'precum_'
'rights_'
'over_'
'aceasta_'
'against_'
'well_'
'crisis_'
'afirmat_'
'sa_'
'if_'
'două_'
'cel_'
'being_'
')._'
'îşi_'
'însă_'
'work_'
'rea_'
'Albania_'
'them_'
'există_'
'preşedinte_'
'împotriva_'
'ţări_'
'those_'
'luni_'
'made_'
'citizens_'
'astfel_'
'had_'
'after_'
're_'
'say_'
'Cu_'
'take_'
'policy_'
'any_'
'12_'
'parte_'
'ei_'
'dori_'
'acesta_'
'make_'
'during_'
'financial_'
'last_'
'part_'
'most_'
'2_'
'încă_'
'faţă_'
'Serbian_'
'. _'
'fără_'
'energy_'
'avea_'
'cât_'
'ului_'
'deoarece_'
'could_'
'între_'
'ţi_'
'Prime_'
' – _'
'5_'
'process_'
'Europene_'
'told_'
'alte_'
'."_'
'many_'
'issue_'
'situation_'
'Croatia_'
'agreement_'
'social_'
'Turkish_'
'Belgrade_'
'privire_'
'security_'
'Nu_'
'Uniunii_'
'Bosnia_'
'el_'
'muncă_'
'Turcia_'
'loc_'
'Parlamentul_'
'where_'
'UN_'
'However_'
'Este_'
'3_'
'europene_'
'market_'
'region_'
'co_'
'priveşte_'
'stat_'
'sale_'
'under_'
'both_'
'future_'
'development_'
'Getty_'
'see_'
'20_'
'05_'
'cea_'
'atât_'
'Images_'
'urmare_'
'te_'
'measures_'
'său_'
'nou_'
'good_'
'ele_'
'acestei_'
'nevoie_'
'n_'
'right_'
'04_'
'vom_'
'think_'
'statele_'
'level_'
'By_'
'09_'
'vote_'
'through_'
'operation_'
'end_'
'place_'
'es_'
'decât_'
'aş_'
'6_'
'human_'
'timpul_'
'law_'
'including_'
'general_'
'ci_'
'Pristina_'
'ţară_'
'pot_'
'fiind_'
'continue_'
'cei_'
'acestui_'
'There_'
'Romania_'
'As_'
'Greece_'
'system_'
'same_'
'national_'
'believe_'
'want_'
'vedere_'
'trei_'
'use_'
'euros_'
'able_'
'within_'
'three_'
'ii_'
'sector_'
'nivel_'
'even_'
'08_'
' '_'
'world_'
'talks_'
'plan_'
'reprezintă_'
'politică_'
'order_'
'He_'
'proposal_'
'prezent_'
'just_'
'2009_'
'unor_'
'next_'
'ea_'
'ai_'
'That_'
'Reuters_'
'since_'
'possible_'
'US_'
'4_'
'war_'
'economică_'
'debate_'
'07_'
'ând_'
'Commissioner_'
'AFP_'
'clear_'
'still_'
'spus_'
'much_'
'how_'
'Dle_'
'2008_'
'15_'
'raport_'
'economice_'
'before_'
'ONU_'
'u_'
'noastre_'
'legal_'
'ţările_'
'therefore_'
'meeting_'
'crime_'
'Aceasta_'
'procesul_'
'partea_'
'celor_'
'Montenegro_'
'03_'
'while_'
'fact_'
'avem_'
'Consiliului_'
'Am_'
'today_'
'does_'
'îi_'
'Parlamentului_'
'problem_'
'si_'
'ly_'
'făcut_'
'O_'
'30_'
'recent_'
'progress_'
'local_'
'guvernul_'
'îl_'
'persoane_'
'cannot_'
'avut_'
'r_'
'issues_'
'authorities_'
'former_'
'elections_'
'06_'
'putem_'
'politice_'
'ng_'
'change_'
'already_'
'says_'
'number_'
'decision_'
'cred_'
'Consiliul_'
'8_'
'. - _'
'ţării_'
'institutions_'
'taken_'
'măsuri_'
'me_'
'towards_'
'moment_'
'know_'
'case_'
'United_'
'Belgrad_'
'sub_'
'rând_'
'police_'
'long_'
'] _'
' [_'
'ui_'
'probleme_'
'particular_'
'further_'
'vă_'
'per_'
'high_'
'help_'
'global_'
'deja_'
'Croaţia_'
'Acest_'
'și_'
'regional_'
'here_'
'based_'
'Acesta_'
'problems_'
'primul_'
'however_'
'hope_'
'tă_'
'areas_'
'Prin_'
'point_'
'Monday_'
'noastră_'
'budget_'
'Grecia_'
'2007_'
'chiar_'
'2010_'
'your_'
'power_'
'ic_'
'european_'
'efforts_'
'economy_'
'They_'
'statelor_'
'put_'
'Trebuie_'
'La_'
'question_'
'domeniul_'
'On_'
'Croatian_'
'urma_'
'transport_'
'project_'
'own_'
'may_'
'far_'
'Party_'
'International_'
'situaţia_'
'role_'
'nici_'
'major_'
'7_'
'25_'
'information_'
'clar_'
'bine_'
'If_'
'Din_'
'why_'
'respect_'
'protection_'
'negotiations_'
'ia_'
'drepturile_'
'aplicare_'
'El_'
'punct_'
'without_'
'particularly_'
'months_'
'aţi_'
'atunci_'
'aici_'
'unul_'
'exemplu_'
'current_'
'cazul_'
'aşa_'
'among_'
'For_'
'trecut_'
'then_'
'resolution_'
'members_'
'freedom_'
'crimes_'
'ţara_'
'trade_'
'preşedintele_'
'aproximativ_'
'set_'
'ile_'
'different_'
'câteva_'
'conditions_'
'called_'
'Un_'
'Greek_'
'Albanian_'
'ăm_'
'înainte_'
'problemă_'
'party_'
'foreign_'
'become_'
'Potrivit_'
'Herzegovina_'
'2004_'
'problema_'
'member_'
'Unite_'
'General_'
'27_'
'too_'
'relations_'
'internaţionale_'
'inclusiv_'
'europeană_'
'come_'
'action_'
'women_'
'puţin_'
'milioane_'
'cauza_'
'bună_'
'According_'
'parties_'
'needs_'
'drept_'
'dată_'
'course_'
'State_'
'Europei_'
'Dacă_'
'means_'
'mari_'
'given_'
'border_'
'again_'
'16_'
'climate_'
'anul_'
'Committee_'
'week_'
'una_'
'reforms_'
'omului_'
'deal_'
'billion_'
'result_'
'regiune_'
'peste_'
'mulţumesc_'
'example_'
'ate_'
'acestor_'
'acelaşi_'
'Treaty_'
'După_'
'At_'
'02_'
'dl_'
'acestora_'
'AP_'
'necessary_'
'month_'
'include_'
'importance_'
'externe_'
'România_'
'ării_'
'strategy_'
'mă_'
'media_'
'done_'
'consider_'
'comisar_'
'children_'
'Tadic_'
'Preşedintele_'
'January_'
'spune_'
'position_'
'membership_'
'impact_'
'drepturilor_'
'c_'
'December_'
'nouă_'
'group_'
'give_'
'did_'
'democratic_'
'day_'
'astăzi_'
'Madam_'
'tuturor_'
'together_'
'război_'
'non_'
'ensure_'
'according_'
'accession_'
'real_'
'legate_'
'health_'
'criză_'
'cooperation_'
'common_'
'But_'
'18_'
'permite_'
'parliament_'
'naţionale_'
'integration_'
'held_'
'force_'
'final_'
'fel_'
'er_'
'doresc_'
'Foreign_'
'working_'
'whether_'
'viitor_'
'rii_'
'programme_'
'numele_'
'expected_'
'companies_'
'Tuesday_'
'unele_'
'unde_'
'sârb_'
'financiare_'
'doi_'
'better_'
'aderare_'
'What_'
'Wednesday_'
'Lisabona_'
'provide_'
'preşedintă_'
'move_'
'faţa_'
'dezvoltare_'
'control_'
'cetăţenilor_'
'cent_'
'află_'
'Muntenegru_'
'numai_'
'increase_'
'declară_'
'added_'
'RS_'
'Ministrul_'
'Group_'
'17_'
'”, _'
'states_'
'raportul_'
'politic_'
'money_'
'key_'
'going_'
'aproape_'
'14_'
'01_'
'specific_'
'sociale_'
'signed_'
'sfârşitul_'
'scris_'
'prima_'
'miercuri_'
'membru_'
'informaţii_'
'fiecare_'
'May_'
'Macedonian_'
'început_'
'votat_'
'ministrul_'
'leaders_'
'her_'
'go_'
'fapt_'
'aceea_'
'Russia_'
'DE_'
'Balkans_'
'visit_'
'urmă_'
'reform_'
'mn_'
'implementation_'
'every_'
'dezvoltarea_'
'baza_'
'another_'
'Lisbon_'
'Aş_'
'9_'
'zile_'
'adopted_'
'trecută_'
'tot_'
'terms_'
'second_'
'ilor_'
'decembrie_'
'Statele_'
'Parlament_'
'Mladic_'
'March_'
'June_'
'13_'
'officials_'
'main_'
'importantă_'
'November_'
'view_'
'sectorul_'
'orice_'
'military_'
'martie_'
'luna_'
'24_'
'19_'
'publice_'
'positive_'
'politica_'
'k_'
'groups_'
'anului_'
'Domnule_'
'voted_'
'step_'
'status_'
'several_'
'prim_'
'less_'
'growth_'
'funds_'
'court_'
'aibă_'
'Zagreb_'
'23_'
'thank_'
'term_'
'statement_'
'society_'
'saying_'
'regard_'
'head_'
'forward_'
'ago_'
'EC_'
'2006_'
'zi_'
'services_'
'opportunity_'
'iunie_'
'independent_'
'ianuarie_'
'asigura_'
'Thursday_'
'Serbiei_'
'Serb_'
'Barroso_'
'succes_'
'standards_'
'sprijinul_'
'nostru_'
'importante_'
'guvernului_'
'best_'
'Sunt_'
'2005_'
'împreună_'
'ri_'
'mi_'
'involved_'
'great_'
'find_'
'down_'
'domnilor_'
'data_'
'cerut_'
'caz_'
'Turciei_'
'Cred_'
'Community_'
'Ankara_'
'siguranţă_'
'she_'
'period_'
'past_'
'măsură_'
'ministru_'
'making_'
'locuri_'
'leader_'
'cooperare_'
'conflict_'
'2020_'
'încât_'
'termen_'
'serious_'
'projects_'
'opposition_'
'matter_'
'majority_'
'large_'
'gas_'
'free_'
'framework_'
'comune_'
'call_'
'back_'
'ales_'
'agree_'
'Skopje_'
'Presidency_'
'21_'
'used_'
'solution_'
'problemele_'
'necesare_'
'ion_'
'gentlemen_'
'each_'
'dumneavoastră_'
'due_'
'business_'
'allow_'
'access_'
'Rusia_'
'Pentru_'
'Pe_'
'open_'
'five_'
'community_'
'autorităţile_'
'afaceri_'
'Bulgarian_'
'înseamnă_'
'resources_'
'octombrie_'
'fundamental_'
'favour_'
'favoarea_'
'Sunday_'
'Sofia_'
'Cyprus_'
'third_'
'securitate_'
'proiect_'
'once_'
'news_'
'mea_'
'legătură_'
'left_'
'especially_'
'corruption_'
'cetăţenii_'
'Tirana_'
'Bank_'
'April_'
'suntem_'
'spun_'
'sources_'
'mulţi_'
'million_'
'met_'
'creştere_'
'bun_'
'Erdogan_'
'Democratic_'
'50_'
'. - (_'
'reduce_'
'pas_'
'meu_'
'era_'
'October_'
'Kostunica_'
'president_'
'legislation_'
'few_'
'eze_'
'ethnic_'
'doilea_'
'days_'
'cases_'
'aprilie_'
'Herţegovina_'
'Bruxelles_'
'” _'
'results_'
'posibil_'
'piaţa_'
'official_'
'nivelul_'
'necesar_'
'locul_'
'investment_'
'guvern_'
'four_'
'cooperarea_'
'altă_'
'aid_'
'Istanbul_'
'China_'
'safety_'
'rules_'
'patru_'
'oferă_'
'following_'
'cultural_'
'company_'
'certain_'
'calitate_'
'bune_'
'aceştia_'
'September_'
'Romanian_'
'February_'
'won_'
'uri_'
'start_'
'responsibility_'
'private_'
'population_'
'opinion_'
'oameni_'
'joint_'
'full_'
'fight_'
'elor_'
'eforturile_'
'dreptul_'
'domeniu_'
'criza_'
'cinci_'
'anumite_'
'aderarea_'
'acesteia_'
'Serbs_'
'Mrs_'
'Deşi_'
'ze_'
'workers_'
'sârbi_'
'jobs_'
'internaţional_'
'facă_'
'dialogue_'
'comună_'
'announced_'
'SUA_'
'500_'
'28_'
'spre_'
'products_'
'proces_'
'ori_'
'off_'
'minister_'
'iulie_'
'him_'
'get_'
'ează_'
'direct_'
'da_'
'basis_'
'adevărat_'
'acestuia_'
'violence_'
'toţi_'
'something_'
'sistem_'
'remain_'
'potrivit_'
'plus_'
'line_'
'extrem_'
'democracy_'
'date_'
'cursul_'
'approach_'
'Totuşi_'
'22_'
'welcome_'
'probabil_'
'printre_'
'miliarde_'
'locale_'
'internaţională_'
'interest_'
'initiative_'
'difficult_'
'defence_'
'concerns_'
'CE_'
'wish_'
'until_'
'tribunal_'
'situaţie_'
'provinciei_'
'proposed_'
'production_'
'privinţa_'
'motiv_'
'lume_'
'join_'
'election_'
'crizei_'
'around_'
'acţiune_'
'With_'
'Security_'
'Balkan_'
'B92_'
'40_'
'începutul_'
'top_'
'summit_'
'small_'
'received_'
'pare_'
'noştri_'
'itself_'
'februarie_'
'europeni_'
'diferite_'
'creşterea_'
'centre_'
'bring_'
'behalf_'
', "_'
'ţărilor_'
'şase_'
'reason_'
'policies_'
'look_'
'led_'
'hand_'
'essential_'
'energie_'
'doamnelor_'
'crearea_'
'civil_'
'capital_'
'aspect_'
'always_'
'Court_'
'Brussels_'
'Athens_'
'Această_'
'show_'
'serie_'
'present_'
'needed_'
'momentul_'
'meet_'
'marţi_'
'legislative_'
'interests_'
'independence_'
'directive_'
'dezbatere_'
'continuă_'
'anunţat_'
'Social_'
'Sarajevo_'
'New_'
'July_'
'propunerea_'
'proposals_'
'priority_'
'politicii_'
'măsurile_'
'food_'
'fac_'
'effective_'
'early_'
'duminică_'
'discuţiile_'
'create_'
'ajuns_'
'agenda_'
'acordul_'
'Western_'
'Members_'
'26_'
'100_'
'yet_'
'urmează_'
'urile_'
'ultimii_'
'times_'
'strong_'
'really_'
'potential_'
'posibilitatea_'
'ers_'
'context_'
'assistance_'
'ask_'
'anti_'
'World_'
'Mai_'
'Doamnă_'
'ţii_'
'vot_'
'vederea_'
'total_'
'tax_'
'significant_'
'septembrie_'
'politici_'
'least_'
'ladies_'
'industry_'
'condiţiile_'
'commitment_'
'adoptat_'
'Rights_'
'Rehn_'
'EUR_'
'0_'
'young_'
'vorba_'
'viitorul_'
'tion_'
'surse_'
'risk_'
'relaţiile_'
'office_'
'joi_'
'employment_'
'education_'
'currently_'
'agreed_'
'S_'
'Acestea_'
'whole_'
'took_'
'taking_'
'schimb_'
'regulation_'
'referendum_'
'rapporteur_'
'prezentat_'
'parliamentary_'
'internal_'
'h_'
'event_'
'developing_'
'confruntă_'
'challenges_'
'address_'
'addition_'
'These_'
'IMF_'
'Boris_'
'2011_'
'„_'
'răspuns_'
'rămâne_'
'rol_'
'referitoare_'
'rapid_'
'provided_'
'presă_'
'mici_'
'menţionat_'
'crucial_'
'ază_'
'attention_'
'act_'
'Tratatul_'
'House_'
'various_'
'semnat_'
'remains_'
'protecţia_'
'primit_'
'peace_'
'li_'
'exprimat_'
'ajuta_'
'aflat_'
'adevăr_'
'Avem_'
'Agreement_'
'”._'
've_'
'things_'
'rather_'
'membri_'
'improve_'
'financiară_'
'eu_'
'doing_'
'curând_'
'concerned_'
'concern_'
'account_'
'One_'
'KFOR_'
'Israel_'
'IT_'
'zone_'
'terrorism_'
'socială_'
'six_'
'perioada_'
'organizat_'
'organised_'
'ministry_'
'mediu_'
'life_'
'job_'
'instituţiile_'
'financiar_'
'est_'
'climatice_'
'bază_'
'You_'
'Republic_'
'Iran_'
'Agency_'
'turc_'
'strategic_'
'stability_'
'road_'
'press_'
'package_'
'os_'
'noiembrie_'
'forces_'
'conform_'
'conference_'
'Bosnian_'
'subliniat_'
'soon_'
'raportului_'
'quality_'
'pune_'
'prea_'
'mission_'
'interne_'
'g_'
'criminal_'
'consumers_'
'considerare_'
'clearly_'
'chief_'
'chestiune_'
'central_'
'atenţie_'
'activities_'
'acordat_'
'Guvernul_'
'29_'
'victims_'
'team_'
'punctul_'
'produse_'
'personal_'
'pay_'
'ovic_'
'majoritatea_'
'lack_'
'doua_'
'dle_'
'ceva_'
'bilateral_'
'Minutes_'
'2003_'
'1999_'
'întreaga_'
'z_'
'voi_'
'săptămâna_'
'sprijin_'
'soluţie_'
'reuşit_'
'representatives_'
'old_'
'modul_'
'lung_'
'fully_'
'forţei_'
'facem_'
'discuţii_'
'discuss_'
'came_'
'asked_'
'achieve_'
'PKK_'
'ICTY_'
'întâlnit_'
'rândul_'
'review_'
'prevent_'
'offer_'
'negocierilor_'
'lead_'
'internet_'
'greater_'
'family_'
'enough_'
'eforturi_'
'continua_'
'aspecte_'
'Secretary_'
'Hague_'
'EULEX_'
'). [_'
'zona_'
'words_'
'stop_'
'response_'
'părţi_'
'opened_'
'ment_'
'festival_'
'declaraţie_'
'comes_'
'close_'
'calea_'
'agreements_'
'adăugat_'
'Primul_'
'OSCE_'
'Milosevic_'
'Internet_'
'Czech_'
'%._'
'întrucât_'
'Însă_'
'verbal_'
'vedea_'
'text_'
'solidarity_'
'rs_'
'multă_'
'instrument_'
'infrastructure_'
'grave_'
'found_'
'expect_'
'environment_'
'director_'
'construction_'
'chestiuni_'
'afirmă_'
'across_'
'Partidul_'
'Gul_'
'Friday_'
'Affairs_'
'though_'
'strengthen_'
'reports_'
'regarding_'
'pus_'
'principle_'
'post_'
'points_'
'plans_'
'oamenii_'
'nuclear_'
'markets_'
'lupta_'
'leading_'
'field_'
'devenit_'
'croat_'
'autorităţilor_'
'alegerile_'
'alegeri_'
'aimed_'
'Zoran_'
'UNMIK_'
'Russian_'
'Preşedinte_'
'Our_'
'Jovanovic_'
'Haga_'
'Există_'
'ta_'
'reducerea_'
'recently_'
'reached_'
'quite_'
'noua_'
'mediului_'
'liderii_'
'laws_'
'justice_'
'dlui_'
'decizia_'
'decided_'
'câştigat_'
'continuare_'
'cadru_'
'bani_'
'altor_'
'along_'
'ajutor_'
'activitatea_'
'Therefore_'
'Nikola_'
'France_'
'During_'
'Austria_'
'Atena_'
'- _'
'înalt_'
'ându_'
'ultimele_'
'steps_'
'scopul_'
'rolul_'
'research_'
'requirements_'
'related_'
'rate_'
'province_'
'procesului_'
'politicians_'
'oficial_'
'necesară_'
'nd_'
'increasing_'
'ies_'
'having_'
'feel_'
'everyone_'
'economiei_'
'aprobat_'
'agricultural_'
'abordare_'
'Vest_'
'Republica_'
'Italy_'
'Government_'
'BBC_'
'1995_'
'întotdeauna_'
'Într_'
'sistemului_'
'putut_'
'principles_'
'prime_'
'play_'
'others_'
'organisation_'
'negocierile_'
'ministers_'
'kind_'
'idea_'
'domenii_'
'document_'
'decide_'
'curs_'
'credit_'
'city_'
'changes_'
'cetăţeni_'
'Various_'
'Se_'
'Schengen_'
'Saraievo_'
'National_'
'Gotovina_'
'Germany_'
'Consider_'
'Comisie_'
'After_'
'şte_'
'încheiat_'
'writing_'
'weeks_'
'visa_'
'values_'
'themselves_'
'responsible_'
'regions_'
'questions_'
'publică_'
'principal_'
'participat_'
'pace_'
'organisations_'
'oferi_'
'natural_'
'management_'
'lua_'
'later_'
'labour_'
'implementarea_'
'illegal_'
'form_'
'film_'
'expressed_'
'eficient_'
'discuţiilor_'
'dintr_'
'deşi_'
'decizie_'
'decisions_'
'competition_'
'coming_'
'ciuda_'
'building_'
'administrative_'
'While_'
'Skopie_'
'Roma_'
'Grupului_'
'Croaţiei_'
' „_'
'v_'
'ts_'
'travel_'
'sustainable_'
'subject_'
'sens_'
'seen_'
'regiunea_'
'propunere_'
'promote_'
'price_'
'preşedintelui_'
'nothing_'
'nation_'
'name_'
'luat_'
'looking_'
'fostul_'
'focus_'
'discussion_'
'deveni_'
'deficit_'
'criteria_'
'având_'
'ation_'
'anume_'
'agency_'
'administration_'
'additional_'
'actions_'
'Vă_'
'Slovenia_'
'Office_'
'Marea_'
'Karadzic_'
'Development_'
'Dar_'
'200_'
'2002_'
'trafficking_'
'susţine_'
'statutul_'
'simplu_'
'short_'
'service_'
'securitatea_'
'ruling_'
'responsabilitatea_'
'receive_'
'protect_'
'privinţă_'
'piaţă_'
'perioadă_'
'often_'
'nimic_'
'never_'
'nations_'
'na_'
'minority_'
'lunii_'
'lea_'
'intenţionează_'
'increased_'
'doreşte_'
'dat_'
'costs_'
'cost_'
'condiţii_'
'concrete_'
'candidate_'
'ajunge_'
'achieved_'
'Srpska_'
'Representative_'
'Iraq_'
'FMI_'
'Economic_'
'Central_'
'Ashton_'
':_'
'70_'
'începe_'
'valoare_'
'toată_'
'statului_'
'single_'
'required_'
'regională_'
'referitor_'
'publicaţiei_'
'prices_'
'pressure_'
'poziţia_'
'oficiali_'
'near_'
'movement_'
'model_'
'mentioned_'
'men_'
'little_'
'libertatea_'
'instituţii_'
'hold_'
'governments_'
'fundamentale_'
'extremely_'
'comun_'
'communities_'
'coalition_'
'brought_'
'aduce_'
'above_'
'To_'
'Partidului_'
'Human_'
'Balcanii_'
'unemployment_'
'st_'
'rezoluţie_'
'return_'
'procedure_'
'previous_'
'oferit_'
'niciun_'
'living_'
'let_'
'individual_'
'history_'
'guarantee_'
'esenţial_'
'entry_'
'draft_'
'dorim_'
'condus_'
'asistenţă_'
'amendments_'
'air_'
'Yugoslavia_'
'When_'
'USD_'
'Socialist_'
'Ministru_'
'Macedoniei_'
'High_'
'Germania_'
'Although_'
'Africa_'
'Aceste_'
'2001_'
'îmbunătăţirea_'
'zece_'
'viitoare_'
'value_'
'utilizarea_'
'true_'
'thing_'
'systems_'
'sistemul_'
'scurt_'
'reformă_'
'quickly_'
'proiectul_'
'programul_'
'poverty_'
'poată_'
'permanent_'
'opinia_'
'objectives_'
'nicio_'
'man_'
'lucruri_'
'keep_'
'huge_'
'controlul_'
'conformitate_'
'concerning_'
'combaterea_'
'cazuri_'
'campaign_'
'begin_'
'atenţia_'
'Justice_'
'DPA_'
'America_'
'vizită_'
'transparency_'
'subiect_'
'speech_'
'run_'
'punerea_'
'propuneri_'
'presidency_'
'presei_'
'oil_'
'nt_'
'longer_'
'km_'
'instituţiilor_'
'copii_'
'consideră_'
'complet_'
'ambele_'
'aim_'
'acţiuni_'
'Vojislav_'
'News_'
'Gruevski_'
'Gaza_'
'Euro_'
'Balcani_'
'Association_'
'And_'
'AKP_'
'!_'
'ultimul_'
'stand_'
'simply_'
'rule_'
'rile_'
'referă_'
'promis_'
'pieţei_'
'performance_'
'oficialii_'
'numără_'
'ni_'
'motive_'
'liber_'
'late_'
'largest_'
'home_'
'hard_'
'fonduri_'
'effect_'
'economia_'
'creation_'
'created_'
'contribution_'
'comunităţii_'
'centrul_'
'aşteaptă_'
'ată_'
'allowed_'
'actually_'
'Tayyip_'
'Sanader_'
'Recep_'
'Ponte_'
'Italia_'
'Grupul_'
'Fund_'
'FR_'
'Doresc_'
'C_'
'August_'
'Agenţia_'
'31_'
'2013_'
' … _'
'şti_'
'şeful_'
'voting_'
'vigoare_'
'understand_'
'troops_'
'trial_'
'totuşi_'
'thus_'
'teritoriul_'
'sure_'
'success_'
'session_'
'ridicat_'
'regulations_'
'regionale_'
'pierdut_'
'persoanelor_'
'partners_'
'outside_'
'opoziţie_'
'număr_'
'low_'
'investments_'
'integrarea_'
'industria_'
'included_'
'grup_'
'globală_'
'gaze_'
'făcute_'
'femei_'
'earlier_'
'discussed_'
'deputaţi_'
'delegation_'
'available_'
'august_'
'apply_'
'alternative_'
'adoptarea_'
'Sud_'
'Radio_'
'Ivo_'
'Dnă_'
'Diverse_'
'Bucharest_'
'Berisha_'
'60_'
'îndoială_'
'viaţa_'
'technical_'
'talking_'
'stressed_'
'ski_'
'serviciile_'
'rilor_'
'regime_'
'proiecte_'
'programmes_'
'priorities_'
'prezintă_'
'practice_'
'passed_'
'obiectivele_'
'northern_'
'nordul_'
'live_'
'levels_'
'ka_'
'instead_'
'implement_'
'goods_'
'goal_'
'fim_'
'faptului_'
'existat_'
'exista_'
'efficiency_'
'draw_'
'debt_'
'cross_'
'crea_'
'counterpart_'
'committed_'
'aware_'
'ască_'
'arată_'
'appropriate_'
'aplicarea_'
'Washington_'
'Tratatului_'
'TV_'
'Muntenegrului_'
'Let_'
'Hungary_'
'Greciei_'
'George_'
'Democrat_'
'Atlantic_'
'2000_'
'Şi_'
'threat_'
'test_'
'supply_'
'subliniez_'
'stage_'
'stabilit_'
'share_'
'scop_'
'reasons_'
'pur_'
'provides_'
'protecţie_'
'procedures_'
'organizate_'
'obligations_'
'numărul_'
'lege_'
'importanţă_'
'imediat_'
'evident_'
'establish_'
'entire_'
'energetice_'
'domnule_'
'contribuie_'
'constitution_'
'conferinţă_'
'comerciale_'
'combat_'
'away_'
'alţi_'
'ajutorul_'
'affected_'
'Tot_'
'Thaci_'
'Some_'
'Securitate_'
'Printre_'
'East_'
'Democrats_'
'Convention_'
'Consiliu_'
'votul_'
'trying_'
'ted_'
'susţin_'
'supporting_'
'statutului_'
'similar_'
'sign_'
'shows_'
'semnificativ_'
'rezultatele_'
'rezultate_'
'resolve_'
'relaţii_'
'ready_'
'poziţie_'
'operations_'
'noul_'
'niciodată_'
'militare_'
'might_'
'list_'
'light_'
'independenţa_'
'importanţa_'
'grec_'
'effort_'
'domestic_'
'discrimination_'
'devină_'
'described_'
'deplin_'
'demand_'
'compromise_'
'cere_'
'capăt_'
'application_'
'ahead_'
'Solana_'
'Reprezentant_'
'No_'
'My_'
'Many_'
'Franţa_'
'Banca_'
'Alliance_'
'Acum_'
' % _'
'ăţii_'
'întâmplă_'
'încredere_'
'urilor_'
'săi_'
'suficient_'
'sper_'
'solicită_'
'realizat_'
'property_'
'pro_'
'populaţiei_'
'organizată_'
'ons_'
'obţine_'
'network_'
'negocieri_'
'negative_'
'lângă_'
'legii_'
'launched_'
'known_'
'industrial_'
'includes_'
'higher_'
'femeilor_'
'families_'
'failed_'
'experts_'
'ensuring_'
'energetică_'
'emissions_'
'eficientă_'
'efficient_'
'develop_'
'del_'
'decis_'
'cont_'
'comunitatea_'
'completely_'
'committee_'
'capacity_'
'bid_'
'benefit_'
'approved_'
'anual_'
'amount_'
'alegerilor_'
'albanezi_'
'aims_'
'acţiunile_'
'actual_'
'Today_'
'Ratko_'
'G20_'
'Externe_'
'Deputy_'
'Also_'
''._'
'%, _'
'whose_'
'using_'
'try_'
'treilea_'
'training_'
'throughout_'
'săptămâni_'
'supported_'
'sud_'
'statul_'
'solutions_'
'series_'
'reduction_'
'reality_'
'reach_'
'quoted_'
'păcii_'
'produselor_'
'produce_'
'pleased_'
'partnership_'
'paid_'
'opening_'
'obiective_'
'muncii_'
'monitoring_'
'mention_'
'membrii_'
'mean_'
'latest_'
'land_'
'j_'
'ions_'
'introduce_'
'internă_'
'institutional_'
'growing_'
'funding_'
'funcţie_'
'evidence_'
'eight_'
'discutat_'
'culture_'
'critical_'
'considered_'
'compromis_'
'closed_'
'build_'
'borders_'
'bloc_'
'behind_'
'began_'
'avoid_'
'apoi_'
'almost_'
'aceeaşi_'
'So_'
'SE_'
'Raportul_'
'People_'
'P_'
'NL_'
'Energy_'
'ES_'
'An_'
'. (_'
'îmi_'
'wants_'
'tourism_'
'ting_'
'ties_'
'strengthening_'
'sc_'
'ry_'
'reported_'
'putere_'
'prioritate_'
'presented_'
'pozitiv_'
'plant_'
'perhaps_'
'partide_'
'p_'
'objective_'
'naturale_'
'lumea_'
'lot_'
'likely_'
'libertate_'
'issued_'
'investiţii_'
'followed_'
'finanţarea_'
'fellow_'
'fair_'
'established_'
'element_'
'dispute_'
'desigur_'
'consolidarea_'
'consequences_'
'complete_'
'communication_'
'colleagues_'
'clară_'
'bugetul_'
'beginning_'
'balance_'
'asigure_'
'although_'
'age_'
'active_'
'acolo_'
'accesul_'
'Suntem_'
'Republicii_'
'Igor_'
'Copenhagen_'
'Ca_'
'Bulgariei_'
'Ahtisaari_'
'90_'
'300_'
'ţia_'
'vital_'
'viaţă_'
'venit_'
'turci_'
'technology_'
'sârbe_'
'sides_'
'side_'
'seems_'
'schimbările_'
'pună_'
'provisions_'
'progresul_'
'printr_'
'oraşul_'
'oficială_'
'obţinerea_'
'minorities_'
'mine_'
'message_'
'mechanism_'
'matters_'
'lipsa_'
'liderul_'
'implicate_'
'implementing_'
'firm_'
'express_'
'ever_'
'events_'
'etnice_'
'environmental_'
'dă_'
'dna_'
'diplomatic_'
'continued_'
'constitutional_'
'commitments_'
'closely_'
'celelalte_'
'businesses_'
'articolul_'
'apărării_'
'ambitious_'
'albanez_'
'activity_'
'Traian_'
'South_'
'Last_'
'Internaţional_'
'French_'
'Despite_'
'D_'
'Cypriot_'
'Conform_'
'Cei_'
'All_'
'încearcă_'
'ză_'
'views_'
'tul_'
'trust_'
'treaty_'
'traficului_'
'town_'
'tor_'
'tocmai_'
'th_'
'table_'
'strategie_'
'started_'
'standardele_'
'sprijini_'
'speak_'
'situaţiei_'
'shall_'
'securităţii_'
'schimbărilor_'
'reformelor_'
'reforme_'
'reforma_'
'providing_'
'progrese_'
'program_'
'procedură_'
'principalele_'
'preşedinţia_'
'possibility_'
'partid_'
'ofere_'
'nearly_'
'naţional_'
'legislaţia_'
'judicial_'
'heard_'
'half_'
'forum_'
'fiscale_'
'finanţare_'
'fighting_'
'factor_'
'dreapta_'
'dovadă_'
'corect_'
'contribui_'
'conduce_'
'companiei_'
'body_'
'bank_'
'annual_'
'adresa_'
'T_'
'Srebrenica_'
'Since_'
'Până_'
'PL_'
'Olli_'
'Now_'
'Moldova_'
'Finally_'
'Băncii_'
'British_'
'Belarus_'
'BH_'
'Ar_'
'Albaniei_'
'Action_'
'ţa_'
'worth_'
'vizelor_'
'vieţii_'
'următoarele_'
'turn_'
'treatment_'
'toţii_'
'task_'
'talk_'
'sâmbătă_'
'successful_'
'strongly_'
'solicitat_'
'sitting_'
'shown_'
'round_'
'relating_'
'recognition_'
'raised_'
'prevede_'
'poliţia_'
'parlament_'
'luăm_'
'kosovar_'
'intrarea_'
'influence_'
'humanitarian_'
'financing_'
'everything_'
'erau_'
'dvs_'
'dezvoltării_'
'declaration_'
'decizii_'
'daily_'
'cut_'
'consumer_'
'congratulate_'
'carry_'
'calls_'
'bosniac_'
'accept_'
'Under_'
'Ukraine_'
'Secondly_'
'României_'
'PIB_'
'Obama_'
'Ne_'
'Article_'
'Another_'
'Acordul_'
'Abdullah_'
' $_'
'’_'
'întrebări_'
'vreme_'
'vineri_'
'unii_'
'tip_'
'thousands_'
'ten_'
'tell_'
'săptămână_'
'susţinut_'
'structures_'
'spirit_'
'rise_'
'relaţiilor_'
'rejected_'
'recognise_'
'păcate_'
'puncte_'
'propus_'
'produsele_'
'posibilă_'
'populaţia_'
'planul_'
'path_'
'partidului_'
'participation_'
'noted_'
'noile_'
'măsurilor_'
'munca_'
'mondial_'
'launch_'
'intermediul_'
'integrare_'
'ie_'
'hours_'
'generale_'
'follow_'
'farmers_'
'facing_'
'experience_'
'existing_'
'esenţială_'
'enter_'
'en_'
'cuvânt_'
'corupţiei_'
'copiilor_'
'cercetare_'
'cale_'
'bulgar_'
'ble_'
'biggest_'
'avertizat_'
'arrested_'
'arrest_'
'afectează_'
'acorduri_'
'acordului_'
'Yugoslav_'
'VOA_'
'Olympic_'
'Nabucco_'
'Meanwhile_'
'Italian_'
'II_'
'How_'
'Festival_'
'Directive_'
'Defence_'
'Curtea_'
'Canada_'
'80_'
'2012_'
'. „_'
'', _'
'înregistrat_'
'Între_'
'urged_'
'targets_'
'sprijină_'
'specifice_'
'seeking_'
'seek_'
'scăzut_'
'rezoluţia_'
'requires_'
'relation_'
'regulament_'
'regiuni_'
'poliţiei_'
'person_'
'persoanele_'
'parts_'
'ous_'
'oamenilor_'
'mind_'
'luate_'
'lives_'
'legi_'
'leave_'
'lansat_'
'kosovari_'
'interesul_'
'improving_'
'greu_'
'fondurilor_'
'finally_'
'externă_'
'enterprises_'
'either_'
'dovedit_'
'documents_'
'depinde_'
'cărora_'
'convenit_'
'closer_'
'certainly_'
'cererea_'
'carbon_'
'cabinet_'
'buildings_'
'boost_'
'big_'
'average_'
'adoptate_'
'University_'
'Spanish_'
'Preşedinţia_'
'Mă_'
'Georgia_'
'GDP_'
'Centre_'
'înaintea_'
'îmbunătăţi_'
'wanted_'
'tribunalul_'
'solidaritate_'
'setting_'
'servicii_'
'serve_'
'separate_'
'rezultat_'
'regiunii_'
'raise_'
'protest_'
'prosecutor_'
'privitoare_'
'pregătită_'
'positions_'
'participate_'
'overall_'
'obiectivul_'
'nature_'
'mandate_'
'managed_'
'lost_'
'loan_'
'judiciary_'
'ive_'
'ity_'
'involvement_'
'happened_'
'gravă_'
'gen_'
'exact_'
'establishing_'
'elected_'
'destul_'
'democratice_'
'death_'
'copiii_'
'competitiveness_'
'civile_'
'citat_'
'circumstances_'
'capacitatea_'
'benefits_'
'basic_'
'army_'
'anterior_'
'altele_'
'agriculture_'
'afara_'
'adopt_'
'administraţia_'
'adding_'
'Va_'
'Uniune_'
'Sper_'
'She_'
'Secretarul_'
'Sea_'
'Saturday_'
'Montenegrin_'
'Ministry_'
'Middle_'
'File_'
'Curţii_'
'Crvenkovski_'
'Christian_'
'Al_'
': "_'
'1992_'
'ţie_'
'şapte_'
'ări_'
'vorbim_'
'totul_'
'tions_'
'target_'
'suplimentare_'
'stress_'
'standarde_'
'soldiers_'
'societăţii_'
'siguranţa_'
'seven_'
'sense_'
'sectors_'
'seama_'
'rural_'
'resursele_'
'reportedly_'
'relevant_'
'refer_'
'reducing_'
'puternic_'
'propriile_'
'prezenta_'
'presence_'
'poor_'
'poliţie_'
'politicilor_'
'pericol_'
'passengers_'
'parlamentului_'
'oraşului_'
'opt_'
'opportunities_'
'obiectiv_'
'numeroase_'
'north_'
'nord_'
'modern_'
'mii_'
'mele_'
'majore_'
'macedonean_'
'lucrurile_'
'ja_'
'implemented_'
'immediately_'
'highly_'
'grupul_'
'ground_'
'finance_'
'equality_'
'enlargement_'
'energiei_'
'duty_'
'duce_'
'drepturi_'
'documente_'
'difficulties_'
'dialog_'
'despite_'
'consumatorilor_'
'constituie_'
'confirmed_'
'cohesion_'
'charges_'
'banks_'
'aşteptăm_'
'assessment_'
'arestat_'
'angajamentul_'
'alt_'
'adăugând_'
'adoption_'
'adecvate_'
'York_'
'Statelor_'
'Slobodan_'
'Situaţia_'
'Papandreou_'
'Oficialii_'
'More_'
'Ministerul_'
'M_'
'Belgradul_'
'Basescu_'
'Acordului_'
'ştiri_'
'ştim_'
'încheierea_'
'zonă_'
'za_'
'văzut_'
'vârstă_'
'voturi_'
'urgent_'
'upon_'
'traffic_'
'totală_'
'threats_'
'sănătăţii_'
'sănătate_'
'statements_'
'stated_'
'standard_'
'sport_'
'sine_'
'sigur_'
'sfârşit_'
'sectorului_'
'school_'
'schimbare_'
'rămas_'
'rezultatul_'
'resurse_'
'reporters_'
'reformele_'
'realitate_'
'părere_'
'puse_'
'presa_'
'politicile_'
'participarea_'
'parlamentare_'
'odată_'
'obţinut_'
'naţională_'
'municipalities_'
'lumii_'
'largă_'
'language_'
'kovic_'
'jumătate_'
'interes_'
'institution_'
'innovation_'
'initiatives_'
'hit_'
'grupuri_'
'felicit_'
'failure_'
'exchange_'
'encourage_'
'economies_'
'don_'
'discuţie_'
'directly_'
'dificile_'
'depuse_'
'departe_'
'deosebit_'
'datorită_'
'creating_'
'contribute_'
'consecinţele_'
'chance_'
'carried_'
'candidates_'
'beyond_'
'azil_'
'anniversary_'
'absolutely_'
'Toate_'
'Proiectul_'
'Noi_'
'Luka_'
'India_'
'Dragan_'
'Djukanovic_'
'Centrul_'
'B_'
'Albanians_'
'35_'
'şomajului_'
'weapons_'
'village_'
'ulterior_'
'târziu_'
'thanks_'
'terrorist_'
'tehnice_'
'suggested_'
'suficiente_'
'study_'
'salutat_'
'rămân_'
'religious_'
'promovarea_'
'producers_'
'planned_'
'petrol_'
'perspective_'
'ongoing_'
'oare_'
'nine_'
'neighbouring_'
'militar_'
'maritime_'
'majoritate_'
'lower_'
'limited_'
'lider_'
'legea_'
'killed_'
'journalists_'
'joined_'
'island_'
'investigation_'
'historic_'
'helping_'
'happen_'
'goals_'
'forţele_'
'equal_'
'eliminarea_'
'effects_'
'economie_'
'easy_'
'dezbaterea_'
'dea_'
'contextul_'
'considerat_'
'conducted_'
'complex_'
'compania_'
'commercial_'
'cheie_'
'changed_'
'cauză_'
'caused_'
'car_'
'bringing_'
'bosniaci_'
'binding_'
'aspects_'
'answer_'
'agricole_'
'agencies_'
'adopte_'
'Tomislav_'
'Sali_'
'Podgorica_'
'PPE_'
'Ohrid_'
'M'
'His_'
'German_'
'Chamber_'
'Cel_'
'Business_'
'Bucureşti_'
'Army_'
'Apărării_'
'Annan_'
'Afghanistan_'
'400_'
'. "_'
'- (_'
'închisoare_'
'zarea_'
'vine_'
'umane_'
'transparent_'
'takes_'
'standardelor_'
'speră_'
'spending_'
'severe_'
'senior_'
'semnificative_'
'scheduled_'
'sanctions_'
'rest_'
'representative_'
'represent_'
'protejarea_'
'prosecutors_'
'principiul_'
'preşedinţiei_'
'politics_'
'partidul_'
'ors_'
'ocuparea_'
'minute_'
'materie_'
'mandat_'
'makes_'
'maintain_'
'mainly_'
'll_'
'invest_'
'iniţiativă_'
'generală_'
'fund_'
'front_'
'fiscal_'
'fall_'
'emphasise_'
'eficiente_'
'effectively_'
'educaţie_'
'direcţia_'
'directorul_'
'dificilă_'
'dezbateri_'
'developed_'
'deschis_'
'democraţiei_'
'căreia_'
'cuvântul_'
'cuvinte_'
'corupţie_'
'constructive_'
'comprehensive_'
'comercial_'
'colegii_'
'chestiunea_'
'challenge_'
'centru_'
'cause_'
'believes_'
'banii_'
'attacks_'
'armatei_'
'anii_'
'ally_'
'alleged_'
'afla_'
'aderării_'
'acces_'
'Sejdiu_'
'Police_'
'Naţional_'
'Moreover_'
'Mondiale_'
'F'
'Europeans_'
'Copenhaga_'
'Chiar_'
'Britain_'
'şef_'
'întâi_'
'întrebare_'
'îndeplini_'
'îndeplinească_'
'warned_'
'union_'
'terorismului_'
'technologies_'
'tabled_'
'sârbă_'
'străine_'
'stabilite_'
'specială_'
'sometimes_'
'soluţii_'
'solicit_'
'sent_'
'scale_'
'ring_'
'responsabil_'
'relationship_'
'regards_'
'recovery_'
'record_'
'rata_'
'părţile_'
'publicat_'
'profit_'
'producţie_'
'problemelor_'
'primele_'
'pass_'
'partner_'
'organizaţii_'
'normal_'
'multor_'
'mobile_'
'miniştrii_'
'minimum_'
'menţinerea_'
'meanwhile_'
'majoră_'
'je_'
'investors_'
'introducerea_'
'ideea_'
'green_'
'governance_'
'formă_'
'forced_'
'fondurile_'
'faces_'
'extinderea_'
'establishment_'
'ere_'
'equipment_'
'electricity_'
'căruia_'
'crize_'
'criticism_'
'crescut_'
'connection_'
'confidence_'
'concluded_'
'companiilor_'
'companiile_'
'companii_'
'child_'
'asigurăm_'
'arătat_'
'apel_'
'animal_'
'aflate_'
'advantage_'
'Vom_'
'Vladimir_'
'Strategy_'
'Stabilisation_'
'Service_'
'S'
'Programul_'
'Of_'
'ONG_'
'Kurdish_'
'Is_'
'E_'
'Dezvoltare_'
'Charter_'
'Centrală_'
'Ce_'
'Băsescu_'
'Ambassador_'
'ştirile_'
'îndeplinirea_'
'water_'
'vizează_'
'violations_'
'veţi_'
'urgenţă_'
'understanding_'
'transition_'
'territory_'
'stabilitate_'
'sprijinit_'
'son_'
'serviciilor_'
'serios_'
'scientific_'
'risks_'
'reuniunea_'
'regret_'
'refugees_'
'reală_'
'reale_'
'rating_'
'range_'
'published_'
'proteja_'
'prospects_'
'proiectului_'
'precedent_'
'popular_'
'pipeline_'
'phase_'
'persons_'
'permită_'
'patients_'
'partidele_'
'parteneriat_'
'parcursul_'
'ordinea_'
'operate_'
'omologul_'
'ocazia_'
'ns_'
'noului_'
'necesită_'
'minorităţilor_'
'militară_'
'mic_'
'medium_'
'lună_'
'ling_'
'legislaţie_'
'leadership_'
'justiţiei_'
'justiţie_'
'istoria_'
'introduced_'
'informat_'
'il_'
'găsit_'
'guvernele_'
'grupului_'
'gives_'
'factors_'
'ez_'
'expert_'
'experienţă_'
'eficienţa_'
'efectuate_'
'doubt_'
'domnul_'
'disponibile_'
'discuta_'
'degrabă_'
'deciziile_'
'dealing_'
'customs_'
'croaţi_'
'creat_'
'cooperării_'
'contribuit_'
'concept_'
'comisarul_'
'bugetare_'
'board_'
'became_'
'authority_'
'attempt_'
'atea_'
'american_'
'amendment_'
'alături_'
'albaneze_'
'aerian_'
'adesea_'
'actuala_'
'activităţile_'
'acordă_'
'acorde_'
'absolut_'
'Two_'
'Să_'
'Swedish_'
'Radovan_'
'Partnership_'
'Netherlands_'
'NGOs_'
'Institute_'
'Fondul_'
'Film_'
'Even_'
'Europă_'
'Director_'
'Cypriots_'
'Aşa_'
'Autorităţile_'
'Ashdown_'
'10th_'
'ţine_'
'întâlnirea_'
'încercat_'
'zonele_'
'zonei_'
'went_'
'welcomed_'
'uşor_'
'unacceptable_'
'tribunalului_'
'transportul_'
'tehnologii_'
'structure_'
'strict_'
'starting_'
'stabilitatea_'
'site_'
'similare_'
'seriously_'
'send_'
'sea_'
'respond_'
'respins_'
'respectiv_'
'reprezentanţii_'
'reglementare_'
'reconstruction_'
'provocări_'
'professional_'
'producţia_'
'prison_'
'pre_'
'plenary_'
'planning_'
'perspectivă_'
'online_'
'note_'
'nor_'
'meetings_'
'lucrătorilor_'
'lines_'
'legislaţiei_'
'legislativ_'
'introduction_'
'instruments_'
'instrumente_'
'iniţial_'
'indeed_'
'implicarea_'
'găsi_'
'granted_'
'format_'
'ferm_'
'faced_'
'extent_'
'explicat_'
'exerciţiu_'
'envoy_'
'entities_'
'energetic_'
'enable_'
'ecologice_'
'ding_'
'dificil_'
'differences_'
'deputy_'
'democratică_'
'datelor_'
'conştienţi_'
'convins_'
'consensus_'
'comunitar_'
'campanie_'
'bugetului_'
'asigurarea_'
'appear_'
'allowing_'
'afecta_'
'adus_'
'adoptată_'
'add_'
'abroad_'
'Stat_'
'Se'
'SV_'
'SDP_'
'Regulamentul_'
'RL_'
'RFE_'
'Mitrovica_'
'Milan_'
'Mediterranean_'
'Karamanlis_'
'Ireland_'
'From_'
'Federation_'
'Fatmir_'
'Est_'
'Eastern_'
'Dodik_'
'Bosniei_'
'Ali_'
'Aceştia_'
'29th_'
'1991_'
'1990_'
'15th_'
' ... _'
'ţiei_'
'ările_'
'întâlnire_'
'wrong_'
'voters_'
'utilizate_'
'ultima_'
'trebuit_'
'taxes_'
'spatele_'
'solicita_'
'societate_'
'singurul_'
'singura_'
'scope_'
'schools_'
'safe_'
'respectarea_'
'regiunile_'
'recognised_'
'ratification_'
'puternică_'
'propria_'
'prepared_'
'pozitive_'
'powers_'
'played_'
'permis_'
'parents_'
'ov_'
'outcome_'
'ore_'
'offers_'
'noilor_'
'necesitatea_'
'namely_'
'misiunea_'
'ministrului_'
'mică_'
'lucrează_'
'juridic_'
'joining_'
'investiţiile_'
'interesele_'
'integrării_'
'iniţiativa_'
'independenţă_'
'inclusion_'
'implică_'
'iei_'
'hundreds_'
'hopes_'
'highest_'
'găsească_'
'guarantees_'
'folosesc_'
'fear_'
'eveniment_'
'estimated_'
'emisiilor_'
'elaborat_'
'descris_'
'deplină_'
'demands_'
'decenii_'
'danger_'
'culturale_'
'creşte_'
'condusă_'
'completed_'
'carne_'
'bărbaţi_'
'buget_'
'bear_'
'bad_'
'approval_'
'alimentară_'
'albaneză_'
'adecvat_'
'actuală_'
'activitate_'
'aceşti_'
'acela_'
'accused_'
'Vice_'
'Scheffer_'
'Republika_'
'Peace_'
'Noul_'
'Mesic_'
'Jeremic_'
'Iugoslavie_'
'Hoop_'
'EL_'
'Do_'
'Ciprului_'
'Britanie_'
'Aşadar_'
'Afganistan_'
'120_'
'ţă_'
'ţilor_'
'ştiu_'
'ways_'
'vrea_'
'vizitei_'
'vizitat_'
'victime_'
'tried_'
'tranziţie_'
'tackle_'
'supports_'
'suffering_'
'substantial_'
'submitted_'
'structurale_'
'stabilirea_'
'spokesman_'
'solve_'
'soluţionarea_'
'settlement_'
'schimbul_'
'responsabilitate_'
'request_'
'represents_'
'reglementări_'
'regimului_'
'reducere_'
'rapporteurs_'
'părerea_'
'publicului_'
'promoting_'
'promised_'
'programului_'
'programe_'
'product_'
'prezinte_'
'practici_'
'places_'
'peaceful_'
'paying_'
'pachet_'
'opoziţiei_'
'opinie_'
'obstacol_'
'obligaţiile_'
'obligation_'
'networks_'
'mei_'
'measure_'
'luptă_'
'locurile_'
'linked_'
'limba_'
'legături_'
'legată_'
'judiciare_'
'intended_'
'image_'
'guvernământ_'
'guvernare_'
'greci_'
'giving_'
'garanta_'
'functioning_'
'fosta_'
'finding_'
'facilitate_'
'eşte_'
'external_'
'existe_'
'evenimente_'
'et_'
'electoral_'
'eforturilor_'
'echipa_'
'discutăm_'
'discussions_'
'discharge_'
'diplomatice_'
'dialogul_'
'desfăşoară_'
'depus_'
'câţiva_'
'criticat_'
'crimei_'
'continuing_'
'continues_'
'consens_'
'conflictului_'
'confirmat_'
'commander_'
'comerţul_'
'comerţ_'
'combating_'
'coeziune_'
'choice_'
'candidat_'
'calling_'
'bugetar_'
'attack_'
'asylum_'
'asking_'
'anything_'
'amendamente_'
'alone_'
'alegerea_'
'aduse_'
'acts_'
'activităţilor_'
'acea_'
'accepted_'
'acceptable_'
'Trade_'
'Thank_'
'R_'
'Plan_'
'Peste_'
'Other_'
'Noua_'
'Milorad_'
'Irish_'
'Georgi_'
'Fondului_'
'First_'
'Finance_'
'FT_'
'Dayton_'
'Comisarul_'
'Cipru_'
'Beta_'
'Asia_'
'American_'
'34_'
'1998_'
'înţelegere_'
'întreprinderile_'
'încheia_'
'worked_'
'win_'
'văd_'
'violenţei_'
'victimelor_'
'vechi_'
'urmăreşte_'
'urmat_'
'unfortunately_'
'trăiesc_'
'trimis_'
'te'
'tate_'
'summer_'
'sufficient_'
'students_'
'strategice_'
'stay_'
'stable_'
'stabilităţii_'
'stabili_'
'sprijinirea_'
'source_'
'singur_'
'semnarea_'
'self_'
'secure_'
'science_'
'războiului_'
'român_'
'rezolva_'
'respective_'
'reprezenta_'
'repede_'
'reflectă_'
'reduse_'
'red_'
'rates_'
'rapidă_'
'ra_'
'propune_'
'produs_'
'problemei_'
'primi_'
'presidential_'
'practică_'
'pieţele_'
'partenerii_'
'ourselves_'
'orii_'
'organizarea_'
'offered_'
'obţină_'
'numărului_'
'naţiuni_'
'mutual_'
'motion_'
'mid_'
'membră_'
'membrilor_'
'medicale_'
'macedoneni_'
'liberalisation_'
'ko_'
'juridică_'
'itatea_'
'integrated_'
'individuals_'
'indiferent_'
'improvement_'
'improved_'
'imposed_'
'impose_'
'impactul_'
'houses_'
'hear_'
'got_'
'generally_'
'funcţia_'
'forma_'
'fishing_'
'figures_'
'f_'
'extindere_'
'excellent_'
'evaluare_'
'esenţiale_'
'esc_'
'equally_'
'ent_'
'em_'
'elements_'
'efect_'
'economii_'
'duties_'
'durabilă_'
'dreptului_'
'dorit_'
'discursul_'
'dificultăţi_'
'developments_'
'demanding_'
'declaraţia_'
'cărui_'
'costurile_'
'consumatorii_'
'construirea_'
'constant_'
'conflicts_'
'conclusions_'
'celei_'
'bineînţeles_'
'bile_'
'balcanice_'
'aplică_'
'ant_'
'amid_'
'afectate_'
'advance_'
'acuzat_'
'activ_'
'acte_'
'accounts_'
'ability_'
'Why_'
'War_'
'Vuk_'
'V'
'Ungaria_'
'Unele_'
'Ucraina_'
'U'
'T'
'Special_'
'Speaking_'
'Spain_'
'SAA_'
'Paul_'
'Parvanov_'
'Novi_'
'Manuel_'
'Laura_'
'Javier_'
'Ivan_'
'Hashim_'
'Enlargement_'
'Danube_'
'Culture_'
'Criminal_'
'Comunităţii_'
'Civil_'
'Care_'
'8th_'
'2015_'
'.”_'
'): _'
'ştiţi_'
'ştie_'
'întreprinderi_'
'înfiinţarea_'
'Înaltul_'
'youth_'
'wing_'
'votes_'
'voiced_'
'victimele_'
'via_'
'vehicles_'
'van_'
'utilizare_'
'uităm_'
'turceşti_'
'traficul_'
'track_'
'terţe_'
'sărăciei_'
'suspects_'
'studiu_'
'străinătate_'
'station_'
'stance_'
'speed_'
'singură_'
'significantly_'
'sectoare_'
'sarcina_'
'reprezentat_'
'religioase_'
'released_'
'release_'
'regular_'
'reformei_'
'redresare_'
'recunoscut_'
'puterea_'
'punem_'
'prisoners_'
'premierul_'
'pozitivă_'
'planului_'
'pescuitului_'
'operating_'
'oferite_'
'noii_'
'negativ_'
'named_'
'mondială_'
'misiune_'
'merge_'
'menţine_'
'mediul_'
'medical_'
'mass_'
'ls_'
'limită_'
'ki_'
'jurul_'
'judges_'
'irea_'
'intrat_'
'interview_'
'infrastructură_'
'individuale_'
'ina_'
'homes_'
'holding_'
'hands_'
'goes_'
'gaz_'
'gave_'
'forţelor_'
'finanţelor_'
'exports_'
'exercise_'
'evita_'
'ev_'
'ended_'
'ely_'
'elemente_'
'dreptate_'
'double_'
'dnă_'
'deţine_'
'depend_'
'criteriile_'
'crede_'
'coordonarea_'
'coordonare_'
'coordination_'
'continuarea_'
'consolida_'
'considerable_'
'consecinţă_'
'confruntăm_'
'conducerea_'
'condiţiilor_'
'condamnat_'
'conclusion_'
'comerţului_'
'circulaţie_'
'cineva_'
'buy_'
'burden_'
'aspectele_'
'apă_'
'appeal_'
'animale_'
'administraţiei_'
'activităţi_'
'[_'
'Unfortunately_'
'UNDP_'
'Tribunalul_'
'Tribunal_'
'Stabilizare_'
'Split_'
'Rule_'
'Radic_'
'RO_'
'Paris_'
'Pa'
'O'
'Ne'
'Natasa_'
'Michael_'
'Ljajic_'
'Ladies_'
'Hasani_'
'HDZ_'
'Georgiev_'
'G_'
'Furthermore_'
'Festivalul_'
'Ea_'
'E'
'Dutch_'
'Decizia_'
'Criza_'
'Borisov_'
'Aţi_'
'Applause_'
'Anul_'
'A'
'600_'
'36_'
'1st_'
'11th_'
'înceapă_'
'z'
'yes_'
'wide_'
'violenţă_'
'următoarea_'
'trecere_'
'thought_'
'susţinerea_'
'suferit_'
'submit_'
'staff_'
'ss_'
'sprijinim_'
'sprijine_'
'specifically_'
'speciale_'
'southern_'
'sought_'
'semn_'
'ridică_'
'ridicate_'
'rezolvarea_'
'restrictions_'
'respecte_'
'remember_'
'reflect_'
'recunoaşterea_'
'recommendations_'
'realizarea_'
'rapoarte_'
'rail_'
'propunerile_'
'propunerii_'
'propose_'
'procedura_'
'probably_'
'privatisation_'
'priorităţile_'
'principalii_'
'presupune_'
'precisely_'
'practices_'
'pieţelor_'
'pieţe_'
'phone_'
'origin_'
'oficiale_'
'numerous_'
'numelui_'
'nul_'
'ness_'
'negotiating_'
'negociere_'
'motivul_'
'monitorizare_'
'misiunii_'
'ministerul_'
'mechanisms_'
'manner_'
'ma_'
'losses_'
'loans_'
'libertăţii_'
'letter_'
'lawmakers_'
'jucat_'
'intra_'
'interested_'
'instance_'
'infrastructurii_'
'industriei_'
'independentă_'
'increasingly_'
'impune_'
'implicaţi_'
'ilegale_'
'ilegal_'
'ică_'
'housing_'
'house_'
'globale_'
'ge_'
'fulfil_'
'firme_'
'fire_'
'femeile_'
'federal_'
'expression_'
'export_'
'exist_'
'entity_'
'enforcement_'
'energia_'
'emis_'
'else_'
'educaţiei_'
'dus_'
'doamnă_'
'divided_'
'directivă_'
'direction_'
'determine_'
'details_'
'depune_'
'definitely_'
'declarând_'
'decisive_'
'cărei_'
'currency_'
'critică_'
'creşterii_'
'corespunzătoare_'
'conclude_'
'comunităţi_'
'clare_'
'claims_'
'cererile_'
'ceremony_'
'celui_'
'cancer_'
'b_'
'attended_'
'armed_'
'anumitor_'
'analysts_'
'ală_'
'alimentare_'
'alege_'
'adecvată_'
'acele_'
'abordarea_'
'W'
'UK_'
'Sarkozy_'
'Putin_'
'Programme_'
'Premierul_'
'Polonia_'
'Poliţia_'
'Palestinian_'
'PT_'
'P'
'Over_'
'Le'
'Latin_'
'Islamic_'
'Irak_'
'Investment_'
'Hungarian_'
'Goran_'
'Freedom_'
'Former_'
'Evenimentul_'
'Ei_'
'EP_'
'Di'
'Cele_'
'Cehă_'
'CO2_'
'Branko_'
'Both_'
'Astfel_'
'Asociere_'
'Ante_'
'Ahmet_'
'ştiinţă_'
'şcoli_'
'înţelege_'
'întâmplat_'
'întâmpla_'
'îngrijorare_'
'încheie_'
'încerca_'
'începând_'
'whom_'
'vorbesc_'
'visited_'
'vin_'
'vedem_'
'utilizării_'
'urging_'
'turcă_'
'trece_'
'traditional_'
'topic_'
'tomorrow_'
'ti_'
'thereby_'
'teroriste_'
'tatea_'
'sărace_'
'sugerează_'
'stronger_'
'south_'
'sosit_'
'sexual_'
'se'
'scrise_'
'safeguard_'
'rău_'
'răspunde_'
'ro'
'riscul_'
'rightly_'
'ridica_'
'restul_'
'respectat_'
'resolved_'
'resolutions_'
'regimul_'
'refused_'
'referred_'
'redus_'
'reduced_'
'reciproc_'
'realiza_'
'raportorului_'
'raportor_'
'puteţi_'
'provincia_'
'propriul_'
'proper_'
'producătorii_'
'pro'
'principii_'
'preţurile_'
'prezentate_'
'preluat_'
'preconizează_'
'potenţial_'
'playing_'
'players_'
'participă_'
'parlamentul_'
'option_'
'opoziţia_'
'ones_'
'obtain_'
'numbers_'
'nimeni_'
'net_'
'murder_'
'menţinere_'
'ments_'
'locală_'
'lista_'
'liberă_'
'li'
'juridice_'
'judiciar_'
'involving_'
'invited_'
'investiţiilor_'
'interior_'
'ings_'
'informaţiilor_'
'independenţei_'
'imports_'
'ice_'
'ica_'
'ian_'
'hour_'
'honour_'
'heavy_'
'healthcare_'
'grupurile_'
'ga_'
'fundamentală_'
'funcţionează_'
'freedoms_'
'folosit_'
'focused_'
'figure_'
'facility_'
'extended_'
'exprim_'
'expectations_'
'existence_'
'employees_'
'emergency_'
'electricitate_'
'elaborarea_'
'efortul_'
'efort_'
'determined_'
'demonstrat_'
'criminals_'
'credibility_'
'conţine_'
'convinced_'
'contributions_'
'consultaţi_'
'condiţie_'
'companie_'
'collective_'
'code_'
'civilă_'
'cited_'
'cine_'
'choose_'
'chairman_'
'bill_'
'bilaterale_'
'beneficia_'
'below_'
'becoming_'
'bazează_'
'base_'
'ban_'
'aur_'
'atras_'
'ations_'
'atacuri_'
'art_'
'arestarea_'
'apărut_'
'apărare_'
'appears_'
'aplice_'
'anterioare_'
'ambasadorul_'
'alţii_'
'ajungă_'
'afectat_'
'acuzaţi_'
'Written_'
'W_'
'Verheugen_'
'Una_'
'USAID_'
'Street_'
'SMEs_'
'Regulation_'
'Prima_'
'Policy_'
'OHR_'
'N_'
'Muslim_'
'Mijlociu_'
'Majoritatea_'
'London_'
'Liberal_'
'LDK_'
'L'
'Irlanda_'
'I'
'Haiti_'
'Guantánamo_'
'Fundamental_'
'Following_'
'Doha_'
'D'
'Când_'
'Cum_'
'Bush_'
'ALDE_'
'700_'
'45_'
'12th_'
') (_'
'ţinut_'
'încrederea_'
'word_'
'w_'
'vizite_'
'vic_'
'valorilor_'
'valorile_'
'ut_'
'unable_'
'transportului_'
'totodată_'
'totalitate_'
'tinerilor_'
'tem_'
'ta'
'summitul_'
'subiecte_'
'străini_'
'structurile_'
'streets_'
'strategii_'
'spoke_'
'speranţa_'
'spent_'
'spaţiul_'
'space_'
'software_'
'societatea_'
'smaller_'
'situaţii_'
'showing_'
'schimbări_'
'sancţiuni_'
'salută_'
'rămână_'
'rundă_'
'rul_'
'rich_'
'reuşi_'
'restructuring_'
'respectă_'
'reprezentant_'
'represented_'
'remove_'
'remind_'
'putting_'
'purtătorul_'
'prove_'
'propuse_'
'profesionale_'
'proceduri_'
'primarily_'
'prezenţi_'
'prezenţa_'
'presiuni_'
'polls_'
'pointed_'
'pledged_'
'plants_'
'pescuit_'
'participating_'
'participants_'
'partener_'
'oraş_'
'ocazie_'
'obligaţia_'
'ning_'
'nevoia_'
'mâine_'
'movie_'
'morning_'
'monitorizarea_'
'ministerului_'
'mecanism_'
'lucrat_'
'limit_'
'liberal_'
'laid_'
'knowledge_'
'journalist_'
'itate_'
'interviu_'
'inter_'
'inflation_'
'ine_'
'industrie_'
'income_'
'improvements_'
'immigration_'
'gestionarea_'
'friends_'
'fostului_'
'folosi_'
'fiscală_'
'executive_'
'exclusion_'
'evaluarea_'
'dezvoltate_'
'dezvolta_'
'dezbaterii_'
'detention_'
'destinate_'
'desfăşurat_'
'deschisă_'
'deschiderea_'
'deputaţii_'
'defend_'
'datoriei_'
'datoria_'
'cuprinde_'
'croată_'
'consumption_'
'comunităţilor_'
'comunitare_'
'competitive_'
'commission_'
'comments_'
'claim_'
'cerinţele_'
'causes_'
'built_'
'budgetary_'
'believed_'
'bazată_'
'atins_'
'armata_'
'apropiat_'
'ană_'
'anterioară_'
'ansamblu_'
'animalelor_'
'anilor_'
'angajat_'
'analysis_'
'acţioneze_'
'acuzaţiile_'
'actuale_'
'activităţii_'
'ab'
'West_'
'Vujanovic_'
'Van_'
'Unit_'
'Transport_'
'Totodată_'
'Those_'
'Then_'
'Talat_'
'TVA_'
'Sweden_'
'Spania_'
'Slovakia_'
'Poland_'
'Plus_'
'Only_'
'Olympics_'
'Olimpice_'
'Nord_'
'Mulţi_'
'Monetary_'
'Mondială_'
'MEPs_'
'Jocurilor_'
'Herţegovinei_'
'Hamas_'
'Fără_'
'FBiH_'
'Dnevnik_'
'Desigur_'
'Cuba_'
'Ceku_'
'CNN_'
'Buckovski_'
'Before_'
'Au_'
'Astăzi_'
'ASA_'
'7th_'
'62_'
'41_'
'37_'
'150_'
' _'
'ți_'
'ţiilor_'
'şcoală_'
'întrebarea_'
'înfiinţat_'
'îndeaproape_'
'încercăm_'
'încep_'
'written_'
'worst_'
'works_'
'widely_'
'welfare_'
'vulnerable_'
'voturilor_'
'vorbit_'
'voinţa_'
'victory_'
'vicepreşedinte_'
'useful_'
'urban_'
'unique_'
'unic_'
'uni'
'uncertainty_'
'turism_'
'truth_'
'transmite_'
'transfer_'
'territorial_'
'temporary_'
'taxpayers_'
'targeted_'
'sârbilor_'
'sute_'
'supervision_'
'sumă_'
'sudul_'
'stă_'
'stânga_'
'structural_'
'stepped_'
'star_'
'solidaritatea_'
'soldaţi_'
'sing_'
'simple_'
'signing_'
'showed_'
'sets_'
'rog_'
'risc_'
'responsibilities_'
'respectively_'
'reporterilor_'
'religion_'
'reiterated_'
'reference_'
'reducă_'
'realizate_'
'provision_'
'protecting_'
'properly_'
'promotion_'
'progres_'
'procurement_'
'procedurilor_'
'procedurile_'
'principiu_'
'principală_'
'preţ_'
'prevenirea_'
'pregătirea_'
'powerful_'
'posibile_'
'poporului_'
'perspectiva_'
'parliaments_'
'parlamentar_'
'opus_'
'opposed_'
'opiniile_'
'operaţiune_'
'operational_'
'officially_'
'offering_'
'ocupă_'
'nucleară_'
'negotiation_'
'mo'
'minutes_'
'meat_'
'marea_'
'lungul_'
'link_'
'lideri_'
'legally_'
'legale_'
'largely_'
'lansarea_'
'ism_'
'investigate_'
'interese_'
'intention_'
'intend_'
'industriale_'
'indictees_'
'indicted_'
'independente_'
'inculpaţi_'
'idee_'
'highlight_'
'happy_'
'greceşti_'
'grav_'
'governing_'
'go'
'făcând_'
'friendly_'
'fourth_'
'fotbal_'
'forţă_'
'forţa_'
'football_'
'fond_'
'finances_'
'films_'
'failing_'
'fa'
'expecting_'
'evic_'
'eri_'
'emphasis_'
'electorale_'
'efectele_'
'dăm_'
'ds_'
'drawn_'
'diverse_'
'dispoziţie_'
'devreme_'
'detained_'
'desfăşurare_'
'descoperit_'
'deschise_'
'demonstrated_'
'degree_'
'declared_'
'de'
'd'
'curent_'
'creăm_'
'creeze_'
'credem_'
'cover_'
'courts_'
'content_'
'contact_'
'construcţia_'
'considerată_'
'conducere_'
'concluzie_'
'comunicare_'
'compared_'
'colleague_'
'chi'
'ch_'
'cer_'
'centrală_'
'ceilalţi_'
'catre_'
'cars_'
'calităţii_'
'bănci_'
'bit_'
'award_'
'autonomy_'
'atmosphere_'
'atitudine_'
'asigurări_'
'arrived_'
'armate_'
'arestaţi_'
'apărea_'
'apropiere_'
'applies_'
'applied_'
'anumit_'
'angajament_'
'altfel_'
'agricultură_'
'afacerile_'
'adere_'
'adera_'
'addressed_'
'ad_'
'actualul_'
'acordată_'
'achieving_'
'accordance_'
'abuse_'
'Universitatea_'
'Such_'
'Stream_'
'Strasbourg_'
'Speaker_'
'Sad_'
'SOLVIT_'
'Robert_'
'Research_'
'Protection_'
'Pro'
'Planul_'
'Petersen_'
'Penal_'
'Orientul_'
'Officials_'
'Mării_'
'Mustafa_'
'Most_'
'Moscow_'
'Mondial_'
'Mirko_'
'Media_'
'Markovic_'
'Mar'
'Linda_'
'Li'
'Karadaku_'
'Jose_'
'John_'
'Jessen_'
'Jaap_'
'Interior_'
'Greeks_'
'Gra'
'Games_'
'Ga'
'Frontex_'
'Foniqi_'
'Firstly_'
'F_'
'Extindere_'
'Dorim_'
'Dinkic_'
'Croats_'
'Ceea_'
'Brazil_'
'Blerta_'
'Black_'
'Beijing_'
'Balcanilor_'
'B'
'Având_'
'Alianţei_'
'Alexander_'
'Afaceri_'
'Adriatic_'
'800_'
'55_'
'16th_'
'… _'
'ţei_'
'şedinţei_'
'şansă_'
'întregul_'
'întreb_'
'înapoi_'
'Înainte_'
'yesterday_'
'x_'
'willing_'
'weekend_'
'vision_'
'vecinătate_'
'val_'
'utilizat_'
'urmări_'
'upcoming_'
'unilateral_'
'transporturilor_'
'transferred_'
'tradiţionale_'
'tonnes_'
'toare_'
'textile_'
'termeni_'
'sârbii_'
'suspendarea_'
'sugerat_'
'substances_'
'subliniază_'
'sts_'
'struggle_'
'strategia_'
'statistics_'
'sperăm_'
'solicitare_'
'sistemelor_'
'siguranţei_'
'shared_'
'sensitive_'
'semnificativă_'
'sell_'
'seem_'
'scene_'
'satul_'
'salaries_'
'ră_'
'resurselor_'
'representing_'
'regulatory_'
'reglementarea_'
'regardless_'
'reconciliation_'
'recommendation_'
'realistic_'
'realise_'
'reaction_'
'ran'
'purtate_'
'provocare_'
'protecţiei_'
'professor_'
'privitor_'
'prior_'
'primary_'
'preţul_'
'prepare_'
'pregătit_'
'practical_'
'politically_'
'personnel_'
'participe_'
'par_'
'paper_'
'ou_'
'orul_'
'observed_'
'obiectivelor_'
'numărat_'
'nucleare_'
'ni'
'nevoile_'
'neighbours_'
'musulmani_'
'murit_'
'monetary_'
'mijloace_'
'mesajul_'
'mesaj_'
'material_'
'masă_'
'magazine_'
'lucreze_'
'lose_'
'lectură_'
'kg_'
'ke_'
'italian_'
'investigations_'
'intre_'
'intereselor_'
'intensive_'
'intelligence_'
'instituţie_'
'insist_'
'informare_'
'informal_'
'influenţa_'
'inclus_'
'host_'
'honourable_'
'headed_'
'guidelines_'
'graniţa_'
'gold_'
'gain_'
'făcută_'
'furnizarea_'
'ful_'
'forms_'
'forget_'
'findings_'
'fi'
'felt_'
'fast_'
'familiile_'
'false_'
'explained_'
'ex_'
'evening_'
'eni_'
'eastern_'
'drug_'
'dorinţa_'
'directed_'
'diferitelor_'
'devine_'
'deputat_'
'deosebită_'
'democraţie_'
'deliver_'
'damage_'
'criticised_'
'covering_'
'coup_'
'controls_'
'contracts_'
'contract_'
'continent_'
'contained_'
'consumatori_'
'considering_'
'conferinţa_'
'competenţe_'
'comisiei_'
'combatere_'
'colegi_'
'centres_'
'cazurilor_'
'cazurile_'
'calitatea_'
'bunuri_'
'bodies_'
'bg_'
'azi_'
'awareness_'
'attempts_'
'atingerea_'
'atinge_'
'asă_'
'ari_'
'anyone_'
'amendamentele_'
'altceva_'
'alocate_'
'agriculturii_'
'aflată_'
'affect_'
'acţiunilor_'
'acceptat_'
'accelera_'
'Z'
'Without_'
'Wall_'
'Stefan_'
'Scopul_'
'River_'
'Public_'
'Procesul_'
'Problema_'
'Prim_'
'Press_'
'Portugal_'
'Pakistan_'
'Pact_'
'Organisation_'
'Omului_'
'North_'
'Nikolovski_'
'Nikolic_'
'Nevertheless_'
'Nations_'
'Merkel_'
'Mer'
'Libya_'
'Le_'
'Lajcak_'
'K'
'Israeli_'
'IMM_'
'Guardian_'
'Go'
'Given_'
'Gi'
'Free_'
'Eurovision_'
'Doamnelor_'
'Djindjic_'
'Democracy_'
'DP_'
'Cvetkovic_'
'Comunitatea_'
'Co_'
'Carla_'
'CS_'
'Because_'
'Banja_'
'Auditors_'
'Arctic_'
'Aplauze_'
'Agenda_'
'75_'
'5th_'
'43_'
'24th_'
') -- _'
'ţin_'
'ştii_'
'Şeful_'
'înţeleg_'
'Îmi_'
'za'
'ying_'
'worse_'
'winner_'
'votului_'
'vota_'
'voice_'
'viză_'
'vizita_'
'vize_'
'visiting_'
'valori_'
'ut'
'urgently_'
'universal_'
'unity_'
'united_'
'unit_'
'unfair_'
'turned_'
'tro'
'tratat_'
'transparenţa_'
'tool_'
'tic_'
'theatre_'
'textul_'
'sârbeşti_'
'suspected_'
'surselor_'
'sul_'
'succesul_'
'strategies_'
'story_'
'stations_'
'stabilim_'
'sports_'
'spoken_'
'sound_'
'solid_'
'sm_'
'skills_'
'sized_'
'situations_'
'situat_'
'sit_'
'sisteme_'
'sion_'
'shadow_'
'sh_'
'serviciul_'
'semnal_'
'sectoarele_'
'search_'
'scientists_'
'schimbarea_'
'sation_'
'san'
'rurale_'
'revizuire_'
'revenue_'
'reuniune_'
'rescue_'
'requirement_'
'reprezentanţi_'
'repeated_'
'renewable_'
'remarks_'
'remaining_'
'reiterat_'
'regulate_'
'regiunilor_'
'refuzat_'
'read_'
'r'
'puţine_'
'push_'
'provocările_'
'provincie_'
'protocol_'
'protests_'
'proprii_'
'proceedings_'
'principalul_'
'principala_'
'preveni_'
'preocupările_'
'practic_'
'populaţie_'
'poporul_'
'player_'
'persoană_'
'permit_'
'peacekeeping_'
'participa_'
'parteneri_'
'pachetul_'
'pacea_'
'overcome_'
'origine_'
'original_'
'oportunităţi_'
'operator_'
'om_'
'obstacole_'
'observat_'
'normele_'
'norme_'
'nişte_'
'nefericire_'
'măsura_'
'moving_'
'monetare_'
'monedei_'
'modernisation_'
'missions_'
'minorităţile_'
'millions_'
'migration_'
'metri_'
'menţionez_'
'match_'
'marketing_'
'mark_'
'mandatului_'
'losing_'
'locurilor_'
'limita_'
'libere_'
'libera_'
'ks_'
'k'
'juca_'
'joace_'
'item_'
'intră_'
'internaţionali_'
'interesting_'
'intenţia_'
'intensifice_'
'integrate_'
'insurance_'
'insistă_'
'initial_'
'ine'
'includ_'
'impuse_'
'immediate_'
'im_'
'ieri_'
'ie'
'idei_'
'ideas_'
'iau_'
'highlighted_'
'heritage_'
'grupurilor_'
'graniţele_'
'grad_'
'globalisation_'
'gender_'
'garanteze_'
'furniza_'
'fuel_'
'freely_'
'formarea_'
'formal_'
'firmly_'
'fine_'
'feroviar_'
'felul_'
'falls_'
'fails_'
'facilities_'
'extraordinary_'
'experţi_'
'exhibition_'
'excessive_'
'exactly_'
'eurozone_'
'etnic_'
'estimează_'
'ene_'
'eliminate_'
'ediţie_'
'edition_'
'easily_'
'domeniile_'
'dnei_'
'distribution_'
'directe_'
'dimension_'
'destinat_'
'designed_'
'depună_'
'demonstrează_'
'demonstrate_'
'defined_'
'ded_'
'deci_'
'debates_'
'dau_'
'dangerous_'
'damaged_'
'dairy_'
'creează_'
'counter_'
'council_'
'corupţia_'
'corectă_'
'controversial_'
'contributed_'
'continuăm_'
'contains_'
'consistent_'
'considerăm_'
'considerate_'
'consecinţe_'
'conflictul_'
'comunicarea_'
'comise_'
'combate_'
'cheltuielile_'
'celorlalte_'
'ce'
'capable_'
'candidaţi_'
'avertizează_'
'automobile_'
'auto'
'asume_'
'assure_'
'associated_'
'ară_'
'arms_'
'apropierea_'
'appointment_'
'appeared_'
'aplicată_'
'animals_'
'ajute_'
'aj_'
'agrees_'
'affects_'
'affairs_'
'adresez_'
'adresat_'
'adopta_'
'addressing_'
'acquis_'
'acorda_'
'accepta_'
'aborda_'
'Yet_'
'Xinhua_'
'V_'
'Unii_'
'Tu'
'Stockholm_'
'Slovacia_'
'Second_'
'Salut_'
'SEE_'
'Rusiei_'
'Rompuy_'
'Ri'
'Re'
'Rama_'
'Pre'
'Peter_'
'Paddy_'
'PE_'
'PASOK_'
'Orthodox_'
'Once_'
'Not_'
'Nicosia_'
'Me'
'Madeira_'
'Local_'
'Liderii_'
'La'
'L_'
'Kyoto_'
'Kosor_'
'Justiţiei_'
'Justiţie_'
'Jean_'
'Israelul_'
'Iranian_'
'Indeed_'
'H_'
'HU_'
'H'
'External_'
'Europol_'
'EIB_'
'Draskovic_'
'Doar_'
'Department_'
'Costas_'
'Compania_'
'Co'
'Christofias_'
'Chief_'
'Cetăţenii_'
'Ce'
'Blic_'
'Biroul_'
'Bi'
'Belgradului_'
'Be'
'Bar'
'Bakoyannis_'
'Arab_'
'Ar'
'Antonio_'
'Agim_'
'About_'
'ACP_'
'72_'
'20th_'
'1993_'
'17th_'
' ..._'
'ştiinţifice_'
'şansa_'
'ăţi_'
'întâlnirii_'
'întreprinderilor_'
'întreg_'
'încălcare_'
'încercarea_'
'împrumut_'
'îmbunătăţire_'
'îmbunătăţească_'
'ân'
'Înaltului_'
'watch_'
'waste_'
'vreau_'
'votare_'
'veto_'
'ves_'
'version_'
'util_'
'următorii_'
'următoare_'
'unions_'
'uni_'
'treia_'
'treated_'
'tranzit_'
'tradition_'
'trading_'
'tourist_'
'totally_'
'tone_'
'teritorială_'
'tensions_'
'temeiul_'
'tehnică_'
'supraveghere_'
'suggests_'
'sub'
'strânsă_'
'structuri_'
'structura_'
'strike_'
'strengthened_'
'stare_'
'standing_'
'spunem_'
'spori_'
'solicităm_'
'smuggling_'
'sistemele_'
'significance_'
'signal_'
'ses_'
'seră_'
'seeks_'
'scădere_'
'rolului_'
'ro_'
'rising_'
'respectul_'
'require_'
'requests_'
'repetat_'
'regretabil_'
'reglementările_'
'refugiaţi_'
'recunoaşte_'
'reaching_'
'rapidly_'
'puteri_'
'pusă_'
'purpose_'
'punerii_'
'punctele_'
'provin_'
'promise_'
'profesională_'
'principiile_'
'primesc_'
'primească_'
'prezidenţiale_'
'prevention_'
'preventing_'
'prelua_'
'pregătire_'
'pre'
'possibilities_'
'politician_'
'plătească_'
'plen_'
'perioade_'
'penale_'
'penal_'
'payments_'
'partidelor_'
'participated_'
'organizaţiilor_'
'ordered_'
'ora_'
'optimistic_'
'opinions_'
'nic_'
'nere'
'neither_'
'natura_'
'măcar_'
'music_'
'moved_'
'mostly_'
'mor'
'monitor_'
'modalitate_'
'minorităţi_'
'mijlocii_'
'mers_'
'merită_'
'medicală_'
'mediator_'
'materiale_'
'marking_'
'mar'
'manieră_'
'mandatul_'
'lu'
'locali_'
'lly_'
'links_'
'liberalizarea_'
'legat_'
'le'
'kosovară_'
'knows_'
'judge_'
'jevic_'
'ite_'
'involves_'
'informed_'
'indirect_'
'indicated_'
'incident_'
'inacceptabilă_'
'imposibil_'
'importanţi_'
'implicare_'
'ilegală_'
'ilegali_'
'ignore_'
'identity_'
'happens_'
'happening_'
'găzduit_'
'guilty_'
'guaranteed_'
'grant_'
'generation_'
'game_'
'foster_'
'for'
'folosite_'
'follows_'
'floor_'
'fază_'
'familie_'
'eşuat_'
'extensive_'
'extending_'
'exprimare_'
'explain_'
'existente_'
'examples_'
'eventually_'
'estul_'
'erea_'
'entirely_'
'enjoy_'
'engage_'
'encouraging_'
'elsewhere_'
'electrică_'
'electrice_'
'electric_'
'ele'
'egal_'
'ec'
'easier_'
'domnului_'
'doamna_'
'diversity_'
'disasters_'
'direcţie_'
'diferit_'
'dialogului_'
'dezvoltat_'
'dezbatem_'
'detalii_'
'describing_'
'dependent_'
'delays_'
'declare_'
'declaraţii_'
'deciziei_'
'decade_'
'dealt_'
'căror_'
'câştiga_'
'croate_'
'criterii_'
'crises_'
'credite_'
'crească_'
'contribuţie_'
'construcţie_'
'constituţională_'
'considers_'
'considerabil_'
'confident_'
'conferinţei_'
'condition_'
'concurenţă_'
'concurenţei_'
'comply_'
'compete_'
'compensation_'
'coaliţie_'
'clarify_'
'civilians_'
'civilian_'
'citing_'
'cipriot_'
'charged_'
'chapters_'
'cercetării_'
'century_'
'carrying_'
'carefully_'
'capture_'
'campania_'
'britanic_'
'block_'
'bilă_'
'behaviour_'
'battle_'
'banking_'
'bancar_'
'balanced_'
'ba'
'author_'
'attitude_'
'atrag_'
'association_'
'asistenţa_'
'ase_'
'ary_'
'arrangement_'
'arme_'
'angajamente_'
'amendament_'
'alimente_'
'ajutorului_'
'airport_'
'agricolă_'
'aeriene_'
'aduc_'
'adjunct_'
'adequate_'
'acuzare_'
'acordăm_'
'acordate_'
'acordarea_'
'acoperă_'
'acknowledged_'
'ac_'
'WTO_'
'Vienna_'
'Vi'
'Unul_'
'USA_'
'UNESCO_'
'Tetovo_'
'Te'
'Syria_'
'Summit_'
'Sri_'
'Socialists_'
'Slovenian_'
'Siria_'
'Serviciul_'
'Science_'
'SWIFT_'
'SIS_'
'Rugova_'
'R'
'Propunerea_'
'Prizren_'
'Politica_'
'Parliamentary_'
'Na'
'Muslims_'
'Moscova_'
'Microsoft_'
'Mediapool_'
'Mayor_'
'Lanka_'
'Labour_'
'Journal_'
'Iraqi_'
'Hurriyet_'
'G17_'
'G'
'Fe'
'Faptul_'
'Egypt_'
'Earlier_'
'ECR_'
'EBRD_'
'Dubrovnik_'
'Directivei_'
'Dimitris_'
'Deutsche_'
'Day_'
'DUI_'
'DS_'
'Cup_'
'Cultural_'
'Brammertz_'
'Bloomberg_'
'Belgium_'
'Barrot_'
'Ban_'
'Baltic_'
'Atunci_'
'Assembly_'
'Argentina_'
'Anti_'
'Amendment_'
'Aleksandar_'
'Airlines_'
'ANA_'
': '_'
'9th_'
'5m_'
'32_'
'28th_'
'21st_'
'1997_'
'149_'
'ţină_'
'ţele_'
'ştirilor_'
'şe'
'ărilor_'
'înţeles_'
'întâlniri_'
'îngrijorătoare_'
'îndeplinit_'
'încălcarea_'
'încrederii_'
'începerea_'
'ya_'
'wine_'
'willingness_'
'wider_'
'waiting_'
'wages_'
'vski_'
'visas_'
'vis'
'video_'
'vicepreşedintele_'
'verde_'
'veni_'
'uşoară_'
'utilizeze_'
'urges_'
'urge_'
'units_'
'un'
'u'
'ty_'
'tu'
'trupele_'
'treat_'
'tratament_'
'train_'
'tourists_'
'ton_'
'tive_'
'tineri_'
'thinking_'
'terror_'
'terorism_'
'tender_'
'tells_'
'televiziune_'
'television_'
'taxe_'
'taxation_'
'suspended_'
'sus_'
'supporters_'
'sume_'
'suffered_'
'suffer_'
'succeeded_'
'subiectul_'
'stipulează_'
'spaţiu_'
'someone_'
'soluţionată_'
'ship_'
'serviciu_'
'served_'
'serioasă_'
'semne_'
'seeing_'
'sed_'
'schimbat_'
'scandal_'
'salut_'
'salariile_'
'români_'
'roads_'
'rezoluţiei_'
'revizuirea_'
'respecta_'
'resort_'
'residents_'
'requested_'
'representation_'
'registered_'
'reflected_'
'recunoaştem_'
'recente_'
'reamintesc_'
'radio_'
'ra'
'quarter_'
'părăsească_'
'proven_'
'protejeze_'
'protected_'
'profesor_'
'producţiei_'
'procesele_'
'preţurilor_'
'prezentată_'
'presus_'
'pregăteşte_'
'poziţii_'
'posibilul_'
'port_'
'poorest_'
'poll_'
'politicieni_'
'poartă_'
'planuri_'
'placed_'
'piracy_'
'pierde_'
'perspectivele_'
'personalului_'
'pasagerilor_'
'parlamentele_'
'paragraph_'
'pa'
'organe_'
'operaţiunile_'
'operators_'
'opens_'
'oferim_'
'obstacles_'
'obligatorii_'
'ntă_'
'nts_'
'nta'
'nr_'
'night_'
'nce_'
'natură_'
'n'
'mul_'
'motivele_'
'mondiale_'
'mobility_'
'milk_'
'micro_'
'mi'
'mereu_'
'merely_'
'menţionate_'
'meant_'
'materials_'
'mas'
'm'
'lă_'
'lungă_'
'lucra_'
'listă_'
'limbă_'
'libertăţile_'
'leads_'
'larg_'
'lactate_'
'l'
'kosovare_'
'ist_'
'irlandez_'
'ire_'
'introducing_'
'internationally_'
'interimar_'
'inter'
'instability_'
'insisted_'
'includă_'
'inaugurat_'
'inacceptabil_'
'immigrants_'
'imagine_'
'illegally_'
'ho'
'heads_'
'handed_'
'granting_'
'gone_'
'gathered_'
'gap_'
'g'
'funcţionarea_'
'fugitive_'
'formării_'
'folosească_'
'fiu_'
'firms_'
'finanţate_'
'finală_'
'fenomen_'
'female_'
'felicitat_'
'feature_'
'favorabil_'
'expressing_'
'expoziţie_'
'exploitation_'
'experienţa_'
'expects_'
'expand_'
'exemple_'
'evski_'
'estimat_'
'elimina_'
'electronic_'
'elect_'
'egalitate_'
'ească_'
'drumul_'
'drugs_'
'dropped_'
'dro'
'dramatic_'
'door_'
'documentelor_'
'doamnei_'
'diferitele_'
'determinat_'
'des_'
'democraţia_'
'delay_'
'decades_'
'datele_'
'cy_'
'criminalităţii_'
'criminale_'
'cre'
'cotidianului_'
'costurilor_'
'coopereze_'
'continuat_'
'consultation_'
'construi_'
'consideration_'
'cons'
'confirm_'
'concluziile_'
'concentrate_'
'comunicat_'
'compliance_'
'competitivităţii_'
'communist_'
'commissioner_'
'comandant_'
'citizen_'
'cing_'
'ci'
'chestiunile_'
'cheltuielilor_'
'charge_'
'ces_'
'cer'
'census_'
'cealaltă_'
'career_'
'capitala_'
'capacităţii_'
'bunăstarea_'
'bucură_'
'bucur_'
'break_'
'bil_'
'ber'
'beneficieze_'
'becomes_'
'bazat_'
'banned_'
'backed_'
'aştepta_'
'aviation_'
'auzit_'
'autonomie_'
'ard'
'apei_'
'anumită_'
'announcement_'
'analyst_'
'ameninţări_'
'altul_'
'alternativă_'
'allocated_'
'ajutat_'
'ajungem_'
'affecting_'
'adopting_'
'actors_'
'acordurile_'
'acel_'
'accident_'
'Ze'
'Zaman_'
'Yes_'
'VAT_'
'Tourism_'
'Telekom_'
'Telecom_'
'Suedia_'
'Strategia_'
'Stability_'
'Serviciului_'
'SNSD_'
'SL_'
'SK_'
'Roundup_'
'Rexhepi_'
'Reprezentantul_'
'Report_'
'Regional_'
'Regatul_'
'Protocol_'
'Pri'
'Permiteţi_'
'Papoulias_'
'Pace_'
'PDK_'
'Oz'
'Organizaţiei_'
'Ombudsman_'
'Numărul_'
'Negocierile_'
'Naţiunilor_'
'Moisiu_'
'Mir'
'Mehmet_'
'Londra_'
'Libyan_'
'Law_'
'Kofi_'
'Kabashi_'
'Interne_'
'Instead_'
'Ho'
'He'
'Gazprom_'
'Fer'
'Durres_'
'Dora_'
'Dl_'
'Deoarece_'
'Daniel_'
'Croat_'
'Corruption_'
'Convenţia_'
'Contact_'
'Conferinţa_'
'Ciocoiu_'
'Ci'
'Centrale_'
'Cea_'
'Ca'
'Bogdanovic_'
'Bineînţeles_'
'Berlin_'
'Berişa_'
'BERD_'
'Authorities_'
'As'
'Ari'
'Aproximativ_'
'Anadolu_'
'Among_'
'Americii_'
'AKI_'
'85_'
'6th_'
'61_'
'47_'
'26th_'
'2014_'
'1990s_'
'13th_'
'12'
' -_'
' %._'
'ţiile_'
'şedere_'
'ăţile_'
'însemna_'
'înregistrate_'
'înaintate_'
'y'
'wrote_'
'withdraw_'
'warning_'
'war'
'wait_'
'vânzarea_'
'vreo_'
'violent_'
'violation_'
'viitorului_'
'victim_'
'ven'
'vecinii_'
'vară_'
'valoarea_'
'utilizează_'
'utiliza_'
'users_'
'următorul_'
'unite_'
'unitatea_'
'unitate_'
'unică_'
'unea_'
'una'
'ultimately_'
'tăţii_'
'turişti_'
'tre'
'transparenţă_'
'transmis_'
'transfrontaliere_'
'transferul_'
'titlul_'
'terrorists_'
'technological_'
'teams_'
'tasks_'
'tangible_'
'suveranitatea_'
'sursă_'
'surrounding_'
'sur'
'suma_'
'subsidiarity_'
'studenţi_'
'strategică_'
'statut_'
'stabileşte_'
'sta_'
'sta'
'spite_'
'spitale_'
'spend_'
'speakers_'
'speaker_'
'spaniolă_'
'sovereignty_'
'soluţionare_'
'socio_'
'so'
'slow_'
'sex_'
'serioase_'
'secret_'
'seats_'
'seara_'
'scă_'
'scrie_'
'schimba_'
'scena_'
'salvare_'
's'
'ră'
'rus_'
'running_'
'ruled_'
'rotating_'
'ri'
'respectivă_'
'respectiva_'
'respected_'
'reprezentând_'
'reprezentantul_'
'regulile_'
'reguli_'
'refugee_'
'realizeze_'
're'
'rare_'
'rapide_'
'raising_'
'race_'
'quick_'
'păstra_'
'păr'
'provocate_'
'promises_'
'prominent_'
'proiectele_'
'produced_'
'prioritare_'
'primirea_'
'prevăzut_'
'permanentă_'
'perfect_'
'peoples_'
'paşi_'
'payment_'
'organizeze_'
'oraşele_'
'oral_'
'opri_'
'opinii_'
'operaţiuni_'
'operaţionale_'
'officers_'
'ocupării_'
'occasion_'
'obviously_'
'obvious_'
'oase_'
'numit_'
'nivelului_'
'nii_'
'newspaper_'
'nea'
'naţiunilor_'
'măr'
'municipalităţi_'
'mulţumit_'
'modului_'
'moderate_'
'menţionează_'
'memorandum_'
'mecanisme_'
'mb'
'massive_'
'marks_'
'map_'
'lăsăm_'
'lucrătorii_'
'luarea_'
'looks_'
'logical_'
'location_'
'located_'
'lies_'
'lie_'
'liderului_'
'legitimate_'
'legilor_'
'leaving_'
'lansate_'
'ko'
'killing_'
'kic_'
'ja'
'ir'
'investi_'
'interzice_'
'interpretation_'
'interim_'
'intense_'
'integrată_'
'insulei_'
'instrumentele_'
'iniţiative_'
'initially_'
'informaţiile_'
'incluse_'
'incapacitatea_'
'impossible_'
'implementare_'
'impactului_'
'imigranţilor_'
'ik_'
'ia'
'i'
'hi'
'hearing_'
'headquarters_'
'ha'
'găsirea_'
'guvernelor_'
'guverne_'
'guvernamentale_'
'greacă_'
'getting_'
'geographical_'
'gazelor_'
'function_'
'francez_'
'founded_'
'fondul_'
'fo'
'firmele_'
'fields_'
'farms_'
'fans_'
'fairly_'
'factory_'
'facilita_'
'eye_'
'extinderii_'
'exporturile_'
'experienced_'
'excelent_'
'evaluation_'
'es'
'entered_'
'ente_'
'enormous_'
'enhance_'
'engagement_'
'ends_'
'employ_'
'egalitatea_'
'eficienţei_'
'efecte_'
'educaţia_'
'ed'
'economically_'
'echilibru_'
'east_'
'durabile_'
'drop_'
'dovedeşte_'
'doubts_'
'documentul_'
'do'
'disputes_'
'diseases_'
'dis'
'directivei_'
'directiva_'
'di_'
'deţinute_'
'determination_'
'detaliu_'
'desire_'
'der_'
'depends_'
'deosebire_'
'demisia_'
'deep_'
'decidă_'
'decent_'
'da'
'cuvintele_'
'crimele_'
'couple_'
'corespunzător_'
'cooperate_'
'contribuţia_'
'constatat_'
'consolidării_'
'considerabile_'
'conferinţe_'
'concurenţa_'
'competitivitatea_'
'comparaţie_'
'communications_'
'com_'
'collection_'
'clause_'
'cities_'
'chosen_'
'changing_'
'chain_'
'ch'
'centrale_'
'ceară_'
'capitală_'
'bulgară_'
'bulgari_'
'broad_'
'blocked_'
'bio'
'belief_'
'bazele_'
'bar'
'b'
'aveau_'
'autorităţi_'
'autoritatea_'
'atâta_'
'atlantice_'
'ascultat_'
'arăta_'
'artă_'
'articolului_'
'argue_'
'apărarea_'
'ap'
'anticipate_'
'annually_'
'angajaţi_'
'ance_'
'analizăm_'
'amintim_'
'americani_'
'amendamentul_'
'alocat_'
'aleagă_'
'agricol_'
'agenţii_'
'agenţia_'
'afirma_'
'afford_'
'afacerilor_'
'advanced_'
'admit_'
'acţiunea_'
'aceleaşi_'
'Y'
'Women_'
'Votul_'
'Voi_'
'Ve'
'Tunisia_'
'Transparency_'
'Toţi_'
'Tocmai_'
'Tihic_'
'Ti'
'Thus_'
'Thessaloniki_'
'Their_'
'Sârb_'
'Stipe_'
'SDSM_'
'Relaţiile_'
'Putem_'
'Progress_'
'Prize_'
'Petar_'
'Pan'
'PSD_'
'Os'
'Ol'
'N'
'Museum_'
'Mu'
'Movement_'
'Mostar_'
'Miroslav_'
'Maria_'
'Malmström_'
'Makfax_'
'Ma'
'Lupta_'
'Labus_'
'Kurdistan_'
'Kovacevic_'
'Korea_'
'Klaus_'
'KSF_'
'Josipovic_'
'Japan_'
'Jankovic_'
'Ivica_'
'Islanda_'
'Integration_'
'In'
'IC'
'Haradinaj_'
'Goldstone_'
'Fundaţia_'
'Fostul_'
'Euro'
'Eu_'
'ESE_'
'Du'
'Documentul_'
'Discuţiile_'
'Directorul_'
'Dezvoltarea_'
'Dezbaterea_'
'Declaraţii_'
'Davutoglu_'
'David_'
'DSS_'
'Conference_'
'Citizens_'
'Chairman_'
'Cameră_'
'CHP_'
'Brazilia_'
'Beqiri_'
'Barack_'
'Bania_'
'Babacan_'
'Almunia_'
'Agenţiei_'
'ACTA_'
'900_'
'8'
'51_'
'3rd_'
'23rd_'
'1989_'
'18th_'
'130_'
'.)_'
'." _'
',” _'
' - (_'
'întregului_'
'întreagă_'
'îndeplinesc_'
'încetarea_'
'încercare_'
'înaintat_'
'în'
'împotrivă_'
'Întrucât_'
'În'
'zeci_'
'zare_'
'xi'
'worldwide_'
'withdrawal_'
'wealth_'
'weak_'
'warn_'
'wage_'
'votăm_'
'voteze_'
'vorbeşte_'
'visits_'
'vină_'
'villages_'
'verdict_'
'var'
'unless_'
'unităţi_'
'une_'
'under'
'umanităţii_'
'ui'
'ucis_'
'uciderea_'
'tărie_'
'type_'
'tului_'
'transit_'
'trains_'
'torii_'
'tipuri_'
'texts_'
'tes_'
'termenul_'
'teren_'
'ter_'
'telling_'
'tehnologie_'
't'
'survival_'
'suitable_'
'suggest_'
'suferă_'
'successfully_'
'succeed_'
'substanţială_'
'studies_'
'strâns_'
'strategiei_'
'sto'
'stands_'
'stake_'
'stabilească_'
'sovereign_'
'sort_'
'socialist_'
'sky_'
'sites_'
'sin'
'shift_'
'sesiunii_'
'sentences_'
'sending_'
'selected_'
'securing_'
'secolul_'
'seară_'
'scurtă_'
'scheme_'
'scară_'
'scan'
'savings_'
'save_'
'sat_'
'sarcini_'
'salariilor_'
'riscuri_'
'reţelei_'
'rezolve_'
'rezoluţii_'
'rezerve_'
'reunification_'
'returned_'
'resulted_'
'restore_'
'restaurants_'
'resolving_'
'replaced_'
'religioasă_'
'relaţia_'
'relativ_'
'reject_'
'regenerabile_'
'referire_'
'referinţă_'
'referendumul_'
'redusă_'
'recognising_'
'receiving_'
'reading_'
'reacţie_'
'ratificat_'
'radical_'
'qualified_'
'purchase_'
'pun_'
'publicly_'
'ps_'
'provocat_'
'provocarea_'
'proved_'
'prosperity_'
'prospect_'
'prosecution_'
'promovează_'
'proiectelor_'
'progresele_'
'programelor_'
'profundă_'
'processes_'
'privatizarea_'
'privat_'
'priorităţi_'
'principale_'
'primei_'
'prevăzută_'
'pressures_'
'preparing_'
'premiul_'
'pregătiţi_'
'predarea_'
'post'
'po'
'plată_'
'planurile_'
'placing_'
'pi'
'physical_'
'personally_'
'personale_'
'permiteţi_'
'pension_'
'penalties_'
'patrulea_'
'paralel_'
'para'
'owned_'
'ovski_'
'organizaţie_'
'organise_'
'ore'
'ordinary_'
'oraşe_'
'or'
'opţiuni_'
'options_'
'optimism_'
'oportunitatea_'
'oportunitate_'
'og'
'ofiţeri_'
'offices_'
'observers_'
'obligatorie_'
'nte_'
'noaptea_'
'nivelurile_'
'nevoilor_'
'ned_'
'ndu_'
'na'
'myself_'
'moral_'
'modificarea_'
'modificare_'
'misiuni_'
'miniştrilor_'
'militari_'
'mijloacele_'
'migrants_'
'merg_'
'menţină_'
'meets_'
'medie_'
'med_'
'lupte_'
'lucrările_'
'locuitori_'
'lipsă_'
'limits_'
'ley_'
'les_'
'legală_'
'languages_'
'labelling_'
'la'
'keeping_'
'jurnaliştilor_'
'ju'
'joacă_'
'iugoslave_'
'involve_'
'investigaţii_'
'introduse_'
'interiorul_'
'interesaţi_'
'intends_'
'intellectual_'
'instituţional_'
'inside_'
'innovative_'
'ini'
'industrială_'
'indică_'
'includerea_'
'imigranţi_'
'iilor_'
'ignored_'
'ieşire_'
'identitate_'
'identify_'
'identification_'
'identificat_'
'ial_'
'hunger_'
'honest_'
'historical_'
'himself_'
'hel'
'heart_'
'gă'
'greatest_'
'graniţei_'
'german_'
'funcţiona_'
'fulfilling_'
'frontieră_'
'fraud_'
'forţe_'
'formată_'
'fisheries_'
'firstly_'
'fiecărei_'
'fer'
'fe'
'famous_'
'familiei_'
'familia_'
'fail_'
'f'
'eţi_'
'extinse_'
'experţii_'
'exp'
'evenimentelor_'
'evenimentele_'
'etnică_'
'etapă_'
'ero'
'entering_'
'engaged_'
'en'
'employed_'
'emisii_'
'egale_'
'economiile_'
'echipă_'
'du'
'drum_'
'doesn_'
'disputa_'
'discutate_'
'discussing_'
'discriminarea_'
'discovered_'
'diplomat_'
'dincolo_'
'dimineaţă_'
'dignity_'
'digital_'
'died_'
'determina_'
'deserves_'
'deseori_'
'deschide_'
'depăşit_'
'depusă_'
'department_'
'deocamdată_'
'delegaţia_'
'dedicated_'
'decisiv_'
'debated_'
'deasupra_'
'deadline_'
'câte_'
'cunoscut_'
'cultură_'
'cs_'
'critics_'
'criteriilor_'
'crimelor_'
'creării_'
'correct_'
'corecte_'
'coordinated_'
'contrary_'
'contacts_'
'consum_'
'consolidat_'
'conflicte_'
'concert_'
'concentrat_'
'competences_'
'comisie_'
'comis_'
'combaterii_'
'colaborare_'
'coastal_'
'coaliţia_'
'clădirilor_'
'closure_'
'clean_'
'class_'
'che_'
'chapter_'
'cerere_'
'ceh_'
'caută_'
'carte_'
'card_'
'ca'
'businessmen_'
'brings_'
'bo'
'bi'
'beneficiază_'
'bearing_'
'bat'
'aştept_'
'aveţi_'
'attend_'
'ati'
'at'
'assist_'
'assess_'
'asigură_'
'articol_'
'arrival_'
'arrangements_'
'aprobarea_'
'approaches_'
'aplicate_'
'aparţin_'
'apart_'
'answers_'
'ana_'
'ameninţat_'
'ameninţarea_'
'allegedly_'
'allegations_'
'alimentelor_'
'alegătorii_'
'albanezilor_'
'airports_'
'airlines_'
'agricultura_'
'agenţiile_'
'aflăm_'
'adverse_'
'administraţie_'
'adică_'
'ade'
'actualei_'
'accusations_'
'Ziua_'
'Year_'
'X'
'Vlado_'
'VMRO_'
'Următorul_'
'Trans'
'Tra'
'Tibet_'
'Ta'
'Structural_'
'Sta'
'Sprijin_'
'Sa'
'Război_'
'Rules_'
'Ro'
'Reprezentanţii_'
'Representatives_'
'Reconstrucţie_'
'Qaeda_'
'Primului_'
'Poate_'
'Par'
'Pamuk_'
'Organizaţia_'
'Nobel_'
'Ministerului_'
'Ministers_'
'Milovanovic_'
'Mi_'
'Mi'
'Marovic_'
'Man'
'Lu'
'Lehne_'
'Legal_'
'LT_'
'Krasniqi_'
'Kostelic_'
'Kingdom_'
'Kallas_'
'Jocurile_'
'Je'
'Islam_'
'Investiţii_'
'Internaţională_'
'Institutul_'
'Informaţii_'
'Im'
'Iar_'
'Honduras_'
'Heads_'
'Haris_'
'HINA_'
'GERB_'
'Funds_'
'Fu'
'Frattini_'
'Financial_'
'Filip_'
'Facebook_'
'Fa'
'Ergenekon_'
'Er'
'Environment_'
'Election_'
'Do'
'Diplomatic_'
'Democraţilor_'
'Cultură_'
'Crăciun_'
'Coreea_'
'Cor'
'Control_'
'Cohesion_'
'Ciprul_'
'Centrului_'
'CEC_'
'CE'
'Breviar_'
'Bos'
'Bojana_'
'Board_'
'Austrian_'
'Alfred_'
'African_'
'Ac'
'7'
'6'
'57_'
'56_'
'46_'
'2nd_'
'27th_'
'250_'
'19th_'
'14th_'
'142_'
'..._'
', '_'
'ții_'
'ţinând_'
'ţe_'
'ătorii_'
'ătoare_'
'întregi_'
'întrebării_'
'încurajăm_'
'închiderea_'
'înalţi_'
'îmbunătăţit_'
'Împreună_'
'zând_'
'zero_'
'worrying_'
'woman_'
'witness_'
'wishes_'
'waters_'
'vremuri_'
'volume_'
'voie_'
'vo_'
'vizitează_'
'vieţi_'
'vice_'
'verdictul_'
'vecine_'
'va'
'utmost_'
'urmăriţi_'
'urmărit_'
'ura_'
'up'
'universităţi_'
'unice_'
'unemployed_'
'undermine_'
'uli'
'ule'
'ue_'
'types_'
'tutun_'
'trecerea_'
'transposition_'
'transforma_'
'trai_'
'tra'
'towns_'
'tors_'
'threatened_'
'theme_'
'teritoriu_'
'terenurilor_'
'temeri_'
'tei_'
'tehnologia_'
'taxelor_'
'tasked_'
'talked_'
'suspecţi_'
'suspect_'
'supus_'
'sunteţi_'
'suggestions_'
'suficientă_'
'subliniind_'
'subliniem_'
'street_'
'spuse_'
'spring_'
'spread_'
'sporirea_'
'specii_'
'speaking_'
'somewhat_'
'solved_'
'sold_'
'societies_'
'ska_'
'sions_'
'simplă_'
'shot_'
'ships_'
'secolului_'
'scut'
'scandals_'
'sav'
'satisfaction_'
'sarcină_'
'sa'
'răspunsul_'
'route_'
'rock_'
'riscă_'
'reţele_'
'rezervă_'
'revină_'
'revi'
'restricţii_'
'reserves_'
'replace_'
'repeat_'
'relevante_'
'relatively_'
'reinforce_'
'regulat_'
'register_'
'regarded_'
'redresarea_'
'recunoască_'
'recession_'
'recentă_'
'readiness_'
'react_'
'rată_'
'proud_'
'protejăm_'
'protectionism_'
'proof_'
'prompt_'
'progresului_'
'programele_'
'profits_'
'professionals_'
'producer_'
'procese_'
'privacy_'
'principiilor_'
'primă_'
'previously_'
'prevederile_'
'preocupă_'
'preocuparea_'
'premier_'
'preluarea_'
'precise_'
'praised_'
'poziţiei_'
'potenţialul_'
'postului_'
'postpone_'
'posibilităţile_'
'politicienii_'
'pofida_'
'plasat_'
'petrecut_'
'permitem_'
'parţial_'
'parlamentarilor_'
'parlamentari_'
'parcurs_'
'pacienţilor_'
'p'
'ownership_'
'owners_'
'out'
'otherwise_'
'oricărei_'
'ori'
'organizaţiei_'
'organiza_'
'omi'
'ol_'
'oficialilor_'
'oferind_'
'of'
'ocupat_'
'ocupare_'
'occurred_'
'obţinute_'
'obstacle_'
'obliged_'
'obligaţiilor_'
'obiectul_'
'ob'
'nu'
'noting_'
'normelor_'
'none_'
'negotiate_'
'muntenegrean_'
'multilateral_'
'multi_'
'moves_'
'mother_'
'monitored_'
'moneda_'
'modificări_'
'mişcare_'
'misiunile_'
'minor_'
'miniştri_'
'ministries_'
'minim_'
'ming_'
'metode_'
'massacre_'
'marked_'
'marile_'
'marcat_'
'managing_'
'manage_'
'man'
'maintained_'
'macedonene_'
'macedoneană_'
'ma'
'lul_'
'logic_'
'locului_'
'locuitor_'
'locuinţe_'
'lobby_'
'lo'
'lipsei_'
'linii_'
'lent_'
'legătura_'
'learn_'
'launching_'
'lansată_'
'lansa_'
'ku'
'kov_'
'kept_'
'ked_'
'ka'
'justiţia_'
'joc_'
'j'
'items_'
'isolation_'
'isa'
'intervention_'
'intern_'
'insufficient_'
'instanţă_'
'insists_'
'iniţiat_'
'infrastructura_'
'industries_'
'ind_'
'incidents_'
'in'
'impus_'
'implementării_'
'immunity_'
'imaginea_'
'ied_'
'identified_'
'ht'
'hotărât_'
'hin'
'helps_'
'helped_'
'harmful_'
'ha_'
'guard_'
'guaranteeing_'
'gu'
'grounds_'
'greenhouse_'
'gre'
'glad_'
'gets_'
'germană_'
'genocid_'
'generalul_'
'gata_'
'garantarea_'
'gal'
'functions_'
'fugari_'
'fra'
'foşti_'
'forthcoming_'
'flexibility_'
'filme_'
'fees_'
'feed_'
'fears_'
'favorabile_'
'familiilor_'
'falling_'
'faith_'
'factorii_'
'facto_'
'eşti_'
'ez'
'extend_'
'expresie_'
'expansion_'
'executiv_'
'excuse_'
'excepţia_'
'excelentă_'
'eventual_'
'et'
'ement_'
'eligible_'
'elderly_'
'eficace_'
'effectiveness_'
'editor_'
'ease_'
'e'
'drafted_'
'dra'
'domniei_'
'division_'
'distrugerea_'
'disposal_'
'discurs_'
'discriminării_'
'diplomats_'
'dimineaţa_'
'di'
'dezbătute_'
'destination_'
'desfăşurată_'
'desfăşurate_'
'desemnat_'
'depline_'
'depind_'
'delegations_'
'del'
'definition_'
'define_'
'deficitul_'
'deficits_'
'defending_'
'defenders_'
'defeated_'
'def'
'deeply_'
'deals_'
'cărţi_'
'cuts_'
'curţii_'
'curtea_'
'crucială_'
'crossings_'
'crossing_'
'critice_'
'covered_'
'core_'
'contributing_'
'contribuabililor_'
'contrar_'
'continuation_'
'consumul_'
'construcţii_'
'confruntat_'
'confrunta_'
'condemned_'
'con'
'comunitate_'
'comunist_'
'complicată_'
'completion_'
'competence_'
'comment_'
'comisia_'
'comentarii_'
'comandantul_'
'collapse_'
'collaboration_'
'colegilor_'
'coherent_'
'coeziunea_'
'cod_'
'co'
'climă_'
'climat_'
'civili_'
'cipriote_'
'church_'
'cereri_'
'centuries_'
'caught_'
'cast'
'car'
'capabilă_'
'can'
'campanii_'
'campaniei_'
'calendar_'
'cal_'
'cal'
'c'
'băncile_'
'bulgare_'
'bor'
'blocks_'
'beneficii_'
'bel'
'bazate_'
'band_'
'banca_'
'ban'
'backs_'
'back'
'aşadar_'
'avantaj_'
'auto_'
'attract_'
'atrage_'
'atlantică_'
'atent_'
'ated_'
'atac_'
'asumat_'
'asociere_'
'armelor_'
'ari'
'argues_'
'aprobată_'
'aprobate_'
'aplica_'
'anticorupţie_'
'angajaţii_'
'ane_'
'ancient_'
'analiză_'
'analizeze_'
'aminte_'
'americană_'
'americane_'
'amending_'
'amendamentului_'
'ambiţioase_'
'alăturat_'
'alongside_'
'alliance_'
'airspace_'
'aircraft_'
'afirmând_'
'aeriană_'
'adăugată_'
'adviser_'
'adusă_'
'adresate_'
'aderat_'
'acţionăm_'
'acţionat_'
'acuzaţii_'
'activists_'
'accord_'
'accepte_'
'acasă_'
'abordat_'
']._'
'Welle_'
'Wa'
'Thirdly_'
'Tanjug_'
'TI'
'Staff_'
'Spre_'
'So'
'Silajdzic_'
'Si'
'Sh'
'Sandzak_'
'Sal'
'SP_'
'SE'
'Romanians_'
'Richard_'
'Rasim_'
'Ramadan_'
'Radovanovic_'
'Pu'
'Preşedinţiei_'
'Pres'
'Political_'
'PfP_'
'Perhaps_'
'Operation_'
'Obiectivul_'
'Oamenii_'
'Northern_'
'Nine_'
'Nici_'
'Nebojsa_'
'Neagră_'
'Naţionale_'
'Multe_'
'Mo'
'Misiunea_'
'Miroljub_'
'Miniştrii_'
'Milososki_'
'Meta_'
'Membrii_'
'Martti_'
'Market_'
'Mari'
'MPs_'
'MPA_'
'Ke'
'KLA_'
'Jusuf_'
'Jos_'
'J'
'Iranul_'
'Health_'
'Gre'
'Foundation_'
'Forum_'
'Forces_'
'Fiecare_'
'Fena_'
'Federaţia_'
'Experţii_'
'ES'
'Dusan_'
'Drepturilor_'
'Diyarbakir_'
'Directiva_'
'Democrată_'
'Del'
'Dacic_'
'Da'
'DPMNE_'
'Cur'
'Constitutional_'
'Constitution_'
'Comerţ_'
'CoE_'
'Cha'
'Cer'
'Catherine_'
'C6_'
'Bri'
'Boyko_'
'Bosniaks_'
'Bo'
'Belgia_'
'Award_'
'Assistant_'
'Asociaţia_'
'Arhivă_'
'Analysts_'
'An'
'Ali'
'Ak'
'Against_'
'Adunării_'
'95_'
'750_'
'73_'
'54_'
'52_'
'38_'
'2050_'
'1996_'
'110_'
'10'
', [_'
'" -- _'
' & _'
' '
'ştilor_'
'şedinţe_'
'învăţământ_'
'întrerupt_'
'întrebările_'
'întreabă_'
'întoarce_'
'înlocui'
'încântat_'
'încalcă_'
'înalte_'
'împiedică_'
'împiedica_'
'ziua_'
'zi'
'ys_'
'yourself_'
'xe'
'ws_'
'wonder_'
'whilst_'
'welcomes_'
'website_'
'web_'
'vulnerabile_'
'vowed_'
'vo'
'visitors_'
'violente_'
'viitoarea_'
'victorie_'
'vi_'
'vi'
'vestul_'
'vest_'
'vehicle_'
've'
'vamală_'
'vamale_'
'valabil_'
'următor_'
'următoarei_'
'urii_'
'urgentă_'
'urgente_'
'ure_'
'unresolved_'
'unnecessary_'
'undoubtedly_'
'umanitar_'
'um_'
'ug'
'ucişi_'
'ucise_'
'ub'
'turmoil_'
'turismului_'
'tur_'
'truly_'
'tripartite_'
'trip_'
'tri'
'treime_'
'tratamentul_'
'transitional_'
'transactions_'
'tragic_'
'trafic_'
'tools_'
'to'
'tin'
'tii_'
'thirds_'
'teritoriile_'
'ter'
'tensiunile_'
'tension_'
'tennis_'
'tendinţă_'
'temerile_'
'tema_'
'telefonie_'
'tehnic_'
'teamă_'
'taxele_'
'tarea_'
'tan_'
'sănătatea_'
'suspension_'
'suplimentar_'
'superior_'
'style_'
'studii_'
'student_'
'strânse_'
'stricte_'
'stresses_'
'storage_'
'stabil_'
'split_'
'spiritul_'
'specifică_'
'spaniol_'
'soluţiona_'
'solely_'
'societăţi_'
'sloven_'
'sk'
'size_'
'situează_'
'similară_'
'sim'
'sigură_'
'shortly_'
'sharing_'
'serves_'
'sentence_'
'sees_'
'secrete_'
'scăderea_'
'saw_'
'satisfied_'
'sales_'
'răspunsuri_'
'rs'
'rose_'
'room_'
'romilor_'
'rob'
'river_'
'ritmul_'
'ridicată_'
'rg'
'rezultatelor_'
'rezonabil_'
'revision_'
'revenues_'
'returns_'
'retired_'
'restrictive_'
'responsabilă_'
'respectate_'
'reprezentanţilor_'
'reporting_'
'removal_'
'relaţie_'
'rejecting_'
'regulamentului_'
'regim_'
'refugiaţilor_'
'redactat_'
'realizată_'
'realizare_'
'rat'
'qua'
'părţilor_'
'puternice_'
'purta_'
'pursuing_'
'purposes_'
'punishment_'
'proves_'
'proprietăţi_'
'promovăm_'
'promovat_'
'promova_'
'promising_'
'programată_'
'profund_'
'producerea_'
'probe_'
'privim_'
'prezenţă_'
'presiune_'
'preia_'
'pregătite_'
'poţi_'
'potentially_'
'possibly_'
'politicienilor_'
'plenară_'
'platform_'
'plata_'
'pilot_'
'pierderea_'
'pie'
'picture_'
'pi_'
'personală_'
'permiţând_'
'peri'
'percentage_'
'participanţi_'
'parlamentară_'
'ovi'
'oricând_'
'ordonat_'
'ord'
'opun_'
'oppose_'
'operaţional_'
'on'
'ol'
'oi'
'occasions_'
'oc'
'obtained_'
'obligatoriu_'
'obicei_'
'nţa_'
'numi_'
'numeroasele_'
'nume_'
'nti'
'notes_'
'noroc_'
'nit'
'newly_'
'nerăbdare_'
'nci'
'naştere_'
'nav'
'muzică_'
'municipality_'
'multiple_'
'motions_'
'modernizarea_'
'moderne_'
'mld_'
'mir_'
'metodă_'
'methods_'
'method_'
'menţionând_'
'medicines_'
'medal_'
'maximum_'
'masive_'
'martorii_'
'maritimă_'
'marine_'
'manager_'
'makers_'
'maintaining_'
'lăsat_'
'lucrători_'
'luată_'
'loss_'
'listen_'
'linie_'
'limitat_'
'license_'
'libertăţilor_'
'lemn_'
'lea'
'label_'
'kurdă_'
'king_'
'ki'
'justified_'
'jos_'
'je'
'iunea_'
'iu_'
'ită_'
'ities_'
'it'
'istoric_'
'irre'
'intitulată_'
'interzicerea_'
'innocent_'
'injured_'
'informaţiei_'
'inform_'
'incentive_'
'imposing_'
'implice_'
'imediate_'
'im'
'ible_'
'humanity_'
'households_'
'hospital_'
'holds_'
'hing_'
'hand'
'grijă_'
'gri'
'greşit_'
'graniţă_'
'globalizare_'
'girls_'
'gi'
'gestionare_'
'ges_'
'ger'
'genocide_'
'gener'
'gan'
'gamă_'
'gained_'
'ga'
'fum'
'fugitives_'
'fugar_'
'friend_'
'freight_'
'franceză_'
'franc'
'foundation_'
'formed_'
'focusing_'
'focuses_'
'flag_'
'finish_'
'finanţării_'
'filed_'
'femeii_'
'feeling_'
'features_'
'față_'
'favourable_'
'faster_'
'factori_'
'faceţi_'
'extinde_'
'exprimă_'
'exprima_'
'exploatarea_'
'explicit_'
'expertise_'
'experiencing_'
'expenditure_'
'exclusive_'
'evităm_'
'evasion_'
'eti'
'estimates_'
'ering_'
'eran'
'er'
'equipped_'
'environmentally_'
'engleză_'
'endorsed_'
'ending_'
'encouraged_'
'emisiile_'
'emerging_'
'embassy_'
'electorală_'
'egalităţii_'
'efectuat_'
'ect'
'ecologică_'
'eb'
'ea'
'durata_'
'dumnealui_'
'ducă_'
'drafting_'
'documentele_'
'districts_'
'distanţă_'
'displaced_'
'disease_'
'discriminare_'
'directives_'
'diplomacy_'
'dioxide_'
'diferită_'
'diferenţe_'
'diaspora_'
'dezvolte_'
'dezbaterile_'
'dezastru_'
'dezastre_'
'desfăşurarea_'
'denied_'
'demonstrates_'
'demonstra_'
'demi'
'deloc_'
'delayed_'
'deficitului_'
'defendants_'
'dedicat_'
'decurs_'
'declaraţiile_'
'declaraţiei_'
'deciziilor_'
'deceniu_'
'dare_'
'cuprinzătoare_'
'ctul_'
'critic_'
'crimă_'
'cra'
'conştientă_'
'convingerea_'
'controversy_'
'contracte_'
'contra'
'continuu_'
'consultations_'
'constă_'
'constituţionale_'
'consolidăm_'
'consolidate_'
'considerably_'
'conservative_'
'conflictelor_'
'conflictele_'
'confirmă_'
'conduse_'
'concret_'
'conceput_'
'concentreze_'
'concentra_'
'completă_'
'comparativ_'
'command_'
'comisii_'
'comisarului_'
'comentariile_'
'colegul_'
'coach_'
'clock_'
'climei_'
'clarity_'
'claritate_'
'ck_'
'cic_'
'chemical_'
'che'
'centralei_'
'cehă_'
'cat_'
'casele_'
'capete_'
'bărbat_'
'băncii_'
'bunurilor_'
'bu'
'broke_'
'broadband_'
'britanici_'
'brief_'
'bridge_'
'breaking_'
'bra'
'born_'
'boli_'
'begun_'
'be'
'bazeze_'
'bancare_'
'ba_'
'awards_'
'await_'
'automobilelor_'
'authors_'
'atribuţiile_'
'ato'
'assured_'
'aspru_'
'asociate_'
'asigurării_'
'aside_'
'as'
'architecture_'
'apropie_'
'appreciate_'
'appointed_'
'applicable_'
'apar'
'anticipează_'
'ano'
'ani'
'angajeze_'
'analizate_'
'analiza_'
'amânat_'
'ameninţare_'
'ambiţios_'
'ama'
'am'
'alter'
'allows_'
'alineatul_'
'aleşi_'
'al'
'ajută_'
'ajustare_'
'ai'
'agenţiilor_'
'afternoon_'
'aflaţi_'
'afl'
'afară_'
'advice_'
'advances_'
'aducă_'
'adoptă_'
'acţiona_'
'acuza'
'actively_'
'acoperi_'
'ace'
'accountable_'
'accesului_'
'absolută_'
'abordăm_'
'], _'
'Zapatero_'
'Za'
'Will_'
'Who_'
'Well_'
'We'
'Vo'
'Vicepremierul_'
'Valentin_'
'UNICEF_'
'UNHCR_'
'Tăriceanu_'
'Turks_'
'Tri'
'Tratat_'
'Tor'
'Though_'
'Theatre_'
'TPII_'
'Svetozar_'
'Summer_'
'Sub'
'Strategic_'
'Stra'
'Still_'
'Ste'
'Stankovic_'
'Sports_'
'Soviet_'
'Socialiştilor_'
'Slovak_'
'Several_'
'Schulz_'
'Rohan_'
'Rice_'
'Resolution_'
'Regarding_'
'Red_'
'Ramadanovic_'
'Ram'
'Radical_'
'Progresul_'
'Procedure_'
'Preşedintelui_'
'Premiul_'
'Polish_'
'Pi'
'Paper_'
'Papa'
'PIC_'
'PAC_'
'Orice_'
'Orhan_'
'Oficiul_'
'OMC_'
'Nigeria_'
'Ni'
'Network_'
'Nano_'
'Milo_'
'Mexico_'
'Marţi_'
'Martin_'
'Marko_'
'Marie_'
'Major_'
'Macedonians_'
'Luxemburg_'
'Luxembourg_'
'Liderul_'
'Ku'
'Kemal_'
'Kat'
'Karolos_'
'Ka'
'K_'
'Just_'
'Jo'
'Jelena_'
'Japonia_'
'Jadranka_'
'J_'
'Izetbegovic_'
'Ivanovic_'
'Ivana_'
'Irakului_'
'Inzko_'
'Inter'
'Information_'
'Industry_'
'Independent_'
'Il'
'Ibrahim_'
'IP'
'Home_'
'Hi'
'Haideţi_'
'HIV_'
'Gru'
'Green_'
'Great_'
'Gordana_'
'Germaniei_'
'Finland_'
'Europeana_'
'Embassy_'
'Eli'
'Education_'
'Economy_'
'Echo_'
'Echipa_'
'Djelic_'
'Demetris_'
'Dell_'
'Datorită_'
'Dan'
'Daily_'
'Currently_'
'Cooperarea_'
'Cooperare_'
'Conturi_'
'Considerăm_'
'Company_'
'Communist_'
'Commissioners_'
'Coelho_'
'City_'
'Church_'
'Chinese_'
'Catholic_'
'Car'
'Can_'
'Biden_'
'Besa_'
'Barcelona_'
'Bajram_'
'Australia_'
'Assad_'
'Asociaţiei_'
'Armenian_'
'Ap'
'Analiştii_'
'Alianţa_'
'Alegerile_'
'Al'
'Ade'
'Ad'
'?" _'
'9'
'66_'
'53_'
'44_'
'42_'
'33_'
'31st_'
'3'
'25th_'
'197'
'18'
'... _'
'., _'
'. -_'
'". _'
'ţi'
'Ţările_'
'şomaj_'
'ş_'
'Ştiu_'
'Ş'
'ö'
'învăţat_'
'întâlni_'
'întrebărilor_'
'însăşi_'
'îndoieli_'
'încuraja_'
'înaltă_'
'îmbunătăţiri_'
'é'
'âr'
'Încă_'
'zării_'
'zin'
'zilei_'
'zeze_'
'ys'
'ye'
'winter_'
'wind_'
'widespread_'
'whereby_'
'whatever_'
'western_'
'warrant_'
'wake_'
'vreodată_'
'vrem_'
'vina_'
'vigilant_'
'vieţile_'
'viable_'
'vet'
'venituri_'
'val'
'vadă_'
'uz_'
'utilizatorilor_'
'ute_'
'usual_'
'us'
'ură_'
'urne_'
'urmând_'
'uriaşe_'
'urbane_'
'ur_'
'uns'
'unprecedented_'
'uniune_'
'unităţii_'
'unification_'
'uneori_'
'underlined_'
'umanitară_'
'uman_'
'ultimilor_'
'ue'
'turistice_'
'trupe_'
'trimite_'
'trials_'
'trend_'
'trea'
'travelling_'
'tratate_'
'transplant_'
'transatlantic_'
'trans'
'tranche_'
'tragedy_'
'tradiţional_'
'touch_'
'tis'
'tinerii_'
'timpului_'
'thorough_'
'thermal_'
'the'
'tha'
'testing_'
'telecom_'
'tele_'
'teatru_'
'tea_'
'sustainability_'
'suspendat_'
'survey_'
'surgery_'
'supravegherea_'
'supposed_'
'supplies_'
'super'
'substanţial_'
'subsidies_'
'subsidiarităţii_'
'su'
'strategiile_'
'stra'
'stimulente_'
'stimulate_'
'ste'
'stau_'
'starea_'
'stabilă_'
'sprijinului_'
'sportive_'
'sporit_'
'speculation_'
'speaks_'
'southeast_'
'sondaj_'
'son'
'solicite_'
'sole_'
'sociali_'
'slovenă_'
'slabă_'
'sla'
'sincere_'
'sigure_'
'signs_'
'si'
'she'
'sexuală_'
'settle_'
'separat_'
'seized_'
'secured_'
'secretary_'
'season_'
'sea'
'scăzută_'
'score_'
'schi'
'scar'
'scanners_'
'sc'
'salary_'
'sadly_'
'sad_'
'rândurile_'
'run'
'rum'
'rului_'
'ru'
'romi_'
'riscurile_'
'reţelelor_'
'reţeaua_'
'reţea_'
'rezolvate_'
'reuniunii_'
'ret'
'resulting_'
'restored_'
'restaurante_'
'responsabili_'
'responded_'
'republics_'
'republic_'
'reprezinte_'
'repetate_'
'repair_'
'rent'
'renewed_'
'ren'
'removed_'
'remained_'
'rele_'
'relatives_'
'referring_'
'reducerii_'
'recomandările_'
'reciproce_'
'realitatea_'
'rea'
'ratified_'
'raportorul_'
'rapoartele_'
'que_'
'părăsit_'
'puţină_'
'puterii_'
'pursue_'
'publication_'
'publicate_'
'publicarea_'
'pu'
'propriu_'
'proprietăţile_'
'proportion_'
'promovării_'
'promoted_'
'profile_'
'profesionişti_'
'producătorilor_'
'productive_'
'producing_'
'produc'
'proceselor_'
'procedural_'
'privată_'
'privatizare_'
'prioritatea_'
'principiului_'
'prin'
'primăvară_'
'primite_'
'primar_'
'preţuri_'
'preşedinţie_'
'prezentare_'
'prevăzute_'
'prevederilor_'
'pretext_'
'presiunea_'
'preda_'
'pra'
'potrivită_'
'postul_'
'popularity_'
'plătit_'
'plăcere_'
'plenare_'
'plecat_'
'please_'
'planificată_'
'piardă_'
'perioadei_'
'perform_'
'perfectly_'
'per'
'pensii_'
'pen'
'pe'
'pay'
'passports_'
'passing_'
'pas'
'parti'
'pal'
'pa_'
'owner_'
'over'
'ov'
'outstanding_'
'ou'
'orientările_'
'organs_'
'organizaţiile_'
'ordinii_'
'ordine_'
'ora'
'oni'
'oli'
'oglu_'
'officer_'
'offences_'
'ocupa_'
'oară_'
'născut_'
'ny_'
'nurses_'
'nor'
'no'
'neo_'
'negocia_'
'nede'
'nec'
'neagră_'
'nd'
'nationals_'
'nationality_'
'names_'
'mărit_'
'mân'
'mus'
'municipal_'
'mulţumită_'
'multi'
'mounting_'
'modernizare_'
'modelul_'
'mixed_'
'missing_'
'mis'
'minoritare_'
'minime_'
'mines_'
'mijloc_'
'metoda_'
'mes_'
'mer'
'mental_'
'menită_'
'meaning_'
'me'
'maxim_'
'managers_'
'male_'
'majorităţii_'
'macroeconomic_'
'lumină_'
'lucrăm_'
'luaţi_'
'lt'
'lovitură_'
'lovit_'
'looked_'
'locuiesc_'
'lit'
'limitate_'
'liderilor_'
'liberties_'
'legăturile_'
'legislativă_'
'learning_'
'lasă_'
'lasting_'
'land'
'ker_'
'keen_'
'jel'
'jan_'
'iţi_'
'izbucnit_'
'ivă_'
'iu'
'iti'
'ists_'
'invitaţia_'
'invitat_'
'invested_'
'introdus_'
'intr_'
'interzis_'
'intervenţia_'
'interventions_'
'interference_'
'interetnice_'
'intenţiile_'
'intensify_'
'inspection_'
'insisting_'
'inovaţie_'
'injuries_'
'initiated_'
'indirectly_'
'indictment_'
'indicate_'
'indicat_'
'ind'
'increases_'
'inclusă_'
'incidente_'
'incentives_'
'inc'
'inadequate_'
'impunity_'
'impozite_'
'imported_'
'importate_'
'implicată_'
'implicat_'
'implementat_'
'implementa_'
'imobiliare_'
'imi'
'ili'
'ieşit_'
'ieşirea_'
'idi'
'ideal_'
'hotărâre_'
'hotel_'
'hosts_'
'highway_'
'hiding_'
'her'
'harmonisation_'
'har'
'halt_'
'hal'
'h'
'găsite_'
'gândim_'
'guvernării_'
'greatly_'
'graniţelor_'
'globally_'
'gestiune_'
'genuine_'
'gambling_'
'furnizori_'
'fulfilled_'
'frozen_'
'frontierei_'
'frequently_'
'frecvent_'
'fraudei_'
'forme_'
'formation_'
'fon'
'folosirea_'
'flo'
'flexible_'
'flexibilitate_'
'firmelor_'
'firma_'
'festivalului_'
'feroviare_'
'facts_'
'fabricii_'
'extins_'
'extension_'
'exists_'
'existenţa_'
'exclusively_'
'exchanges_'
'exc'
'examina_'
'evidenţă_'
'everyday_'
'eu'
'ete'
'eta_'
'estimată_'
'estic_'
'essence_'
'ess_'
'ere'
'ep'
'eng'
'endorse_'
'employers_'
'emp'
'emite_'
'emisă_'
'emise_'
'emerge_'
'el'
'ei'
'educaţional_'
'educational_'
'edi'
'economiilor_'
'ecologic_'
'dă'
'durată_'
'dura_'
'dumneaei_'
'dovezi_'
'donors_'
'doctors_'
'divizarea_'
'distruse_'
'distribuţie_'
'diss'
'dispoziţia_'
'disp'
'dismissed_'
'discută_'
'disappear_'
'dimensiuni_'
'dig'
'dificultate_'
'difficulty_'
'difference_'
'dia'
'dezvoltăm_'
'dezbate_'
'devin_'
'detail_'
'destruction_'
'deployment_'
'dependency_'
'demarat_'
'delighted_'
'delicate_'
'deeper_'
'decline_'
'dece'
'debts_'
'dead_'
'datorii_'
'câştigă_'
'cutting_'
'cuprinzător_'
'cup'
'cunoscută_'
'cunoscute_'
'cunosc_'
'culturii_'
'ct_'
'cruciale_'
'credible_'
'cotidianul_'
'costuri_'
'core'
'cor'
'controlled_'
'contest_'
'consultarea_'
'consultare_'
'constructivă_'
'constructiv_'
'constituit_'
'constantly_'
'connected_'
'conceptul_'
'complicated_'
'complexe_'
'competiţia_'
'competenţă_'
'commit_'
'comisari_'
'comanda_'
'col'
'coastă_'
'coasta_'
'club_'
'cli'
'claimed_'
'ciprioţii_'
'cin'
'cifră_'
'cifre_'
'cies_'
'chestiunii_'
'cheap_'
'certainty_'
'cererii_'
'centrului_'
'centrele_'
'cea'
'cautioned_'
'cau'
'categorii_'
'cas'
'capitole_'
'capita_'
'capacităţi_'
'capacitate_'
'cap_'
'cand_'
'camps_'
'campaigns_'
'camp_'
'calm_'
'cally_'
'bur'
'bucura_'
'broader_'
'briefly_'
'brand_'
'boundaries_'
'bot'
'bosniace_'
'book_'
'blocat_'
'blamed_'
'birth_'
'biometric_'
'biodiversity_'
'bin_'
'bills_'
'beneficial_'
'bal'
'background_'
'aşteptat_'
'awa'
'avizul_'
'autor_'
'autonome_'
'austerity_'
'austeritate_'
'attractive_'
'atentă_'
'atacurile_'
'asta_'
'assume_'
'assembly_'
'aspirations_'
'asistenţei_'
'asistat_'
'asigurare_'
'asi'
'ascunde_'
'artişti_'
'arti'
'arrive_'
'arrests_'
'armonizarea_'
'armată_'
'apăra_'
'aplicării_'
'apar_'
'anuală_'
'ant'
'aniversare_'
'angajaţilor_'
'angajare_'
'angajamentele_'
'amploare_'
'amintesc_'
'ameninţă_'
'ambelor_'
'alt'
'albanezii_'
'afirmaţia_'
'afectaţi_'
'afectată_'
'adăuga_'
'adunat_'
'admission_'
'admis_'
'adds_'
'ada'
'acuzaţiilor_'
'actualului_'
'activă_'
'acquired_'
'achievements_'
'achievement_'
'accountability_'
'accompanied_'
'acceptă_'
'acceptabilă_'
'accelereze_'
'absurd_'
'abordări_'
'Zu'
'Zo'
'Zivkovic_'
'Zenica_'
'Z_'
'Youth_'
'X_'
'White_'
'Where_'
'Watch_'
'Vukovar_'
'Vreau_'
'Verts_'
'Venezuela_'
'Ukrainian_'
'U_'
'Turkmenistan_'
'Tribunalului_'
'Transnistria_'
'Together_'
'Timpul_'
'Tele'
'Tariceanu_'
'Tar'
'Tan'
'Talks_'
'TA_'
'Săptămâna_'
'Sutanovac_'
'Susţin_'
'Sur'
'Sulejman_'
'Struga_'
'Str'
'Sistemul_'
'Simsek_'
'Sha'
'Sezer_'
'Sekerinska_'
'Sch'
'Sava_'
'Sar'
'SP'
'SI'
'SFOR_'
'SA'
'Robertson_'
'Rezoluţia_'
'Relations_'
'Reinfeldt_'
'Recovery_'
'Rec'
'RA'
'Professor_'
'Principalul_'
'Preşedinţii_'
'Predrag_'
'Prague_'
'Portugalia_'
'Popular_'
'Popescu_'
'Politică_'
'Plovdiv_'
'Palestinians_'
'Otherwise_'
'Odată_'
'Numai_'
'Nokia_'
'Nis_'
'Nimetz_'
'Naţională_'
'Muzeul_'
'Mus'
'Muhamet_'
'Mladen_'
'Marina_'
'Marii_'
'Mag'
'MOL_'
'Lo'
'Libia_'
'Latvia_'
'Latină_'
'Lastly_'
'Kurds_'
'Kosova_'
'Konjikusic_'
'Koci_'
'Kl'
'Kalfin_'
'Jonilda_'
'Joint_'
'Its_'
'Integrarea_'
'INA_'
'ICT_'
'Her'
'Harbour_'
'Hadzic_'
'Had'
'HRW_'
'Guinea_'
'Guenter_'
'Growth_'
'Gordon_'
'Google_'
'Golden_'
'Georgievski_'
'Geneva_'
'GSP_'
'Fuele_'
'Force_'
'For'
'Fondurile_'
'Focus_'
'Fo'
'FYROM_'
'FA'
'Experts_'
'Executive_'
'Es'
'En'
'Eg'
'Edi_'
'Economi'
'Each_'
'EM'
'ED'
'EA'
'Dublin_'
'Drepturile_'
'District_'
'Dink_'
'Diary_'
'Des'
'Departamentului_'
'Deci_'
'De'
'Davor_'
'Corridor_'
'Cooperation_'
'Congo_'
'Commerce_'
'Col'
'Che'
'Cartea_'
'Carta_'
'CT'
'CD'
'Brcko_'
'Bran'
'Bozidar_'
'Bowis_'
'Bor'
'Blair_'
'Bitola_'
'Biroului_'
'Belene_'
'Bel'
'Barnier_'
'BEI_'
'Artă_'
'Any_'
'Ambele_'
'Ambasadorul_'
'Air_'
'Ace'
'ALE_'
'AE'
'99_'
'83_'
'78_'
'76_'
'65_'
'5'
'4th_'
'48_'
'3m_'
'24'
'1m_'
'1980_'
'1974_'
'195'
'16'
'140_'
'14'
'&_'
'“_'
'ție_'
'ția_'
'ța_'
'ţională_'
'ţional_'
'ţe'
'Ţara_'
'şedinţa_'
'şcolile_'
'şansele_'
'ć_'
'ătorul_'
'ăs'
'ăr'
'ăn'
'înţeleagă_'
'învăţăm_'
'învins_'
'întârziere_'
'întreprinde_'
'înregistrarea_'
'înregistra_'
'îngrijorarea_'
'îngrijire_'
'îndreptăm_'
'îndreaptă_'
'îndeplinirii_'
'îndată_'
'închis_'
'închide_'
'încet_'
'îmb'
'á'
'Între'
'zăm_'
'zia_'
'zh'
'zen'
'yo'
'witnesses_'
'wins_'
'wi'
'wed'
'weather_'
'wan'
'vârste_'
'vândut_'
'vrut_'
'vreun_'
'voter_'
'vorbi_'
'voluntary_'
'viziune_'
'vizate_'
'viz'
'vitală_'
'violenţa_'
'violated_'
'ving_'
'viitoarele_'
'victoria_'
'vicepremierul_'
'vica_'
'veniturilor_'
'veniturile_'
'vehiculele_'
'varia'
'v'
'ută_'
'utilă_'
'utilizată_'
'usually_'
'urmată_'
'urez_'
'urc'
'unt'
'unlikely_'
'universities_'
'uniunea_'
'unilaterală_'
'understood_'
'understandable_'
'underlying_'
'umană_'
'umanitare_'
'uk'
'tăţi_'
'tun'
'trends_'
'treimi_'
'trecem_'
'tragedie_'
'tori'
'toamna_'
'title_'
'tis_'
'tip'
'tia_'
'ti'
'threshold_'
'th'
'ters_'
'terenul_'
'ten'
'temă_'
'temporară_'
'temporare_'
'temporar_'
'telor_'
'telecomunicaţii_'
'tehnologiei_'
'teachers_'
'tan'
'tab'
'sărăcia_'
'symbols_'
'symbol_'
'susţinută_'
'susţinute_'
'surveillance_'
'surrender_'
'surprised_'
'supuşi_'
'supusă_'
'supuse_'
'suplimentară_'
'sumele_'
'sufficiently_'
'suedeză_'
'substanţiale_'
'subs'
'sublinia_'
'subjects_'
'stu'
'struck_'
'stro'
'stringent_'
'strikes_'
'stri'
'stood_'
'stoc'
'stipulates_'
'stin'
'stimaţi_'
'stepping_'
'stea'
'staying_'
'statu'
'sporite_'
'sporească_'
'spokeswoman_'
'spokesperson_'
'speeches_'
'specialised_'
'spar'
'soluţioneze_'
'soluţionate_'
'solicitanţii_'
'societăţilor_'
'societăţile_'
'smoking_'
'slogan_'
'slabe_'
'simplify_'
'shooting_'
'shipping_'
'shed_'
'sesiune_'
'sentiment_'
'sensul_'
'semnării_'
'seekers_'
'sediul_'
'section_'
'secretarul_'
'secretar_'
'sealed_'
'scăzute_'
'scu_'
'schimbe_'
'scenă_'
'saved_'
'sancţiunile_'
'sake_'
'safeguarding_'
'răspundă_'
'răspund_'
'runs_'
'rti'
'roa'
'rl'
'rival'
'rio'
'rezervele_'
'revised_'
'revenit_'
'retragă_'
'retain_'
'restrict_'
'responsabilităţile_'
'responsabilităţi_'
'resistance_'
'resigned_'
'resignation_'
'resident_'
'rer'
'reprezentată_'
'repression_'
'rep'
'renunţe_'
'renunţa_'
'religie_'
'relate_'
'reinforcing_'
'regulamentul_'
'registration_'
'regimes_'
'refuză_'
'refuz'
'refusing_'
'reforming_'
'reform'
'refers_'
'referendums_'
'ref'
'redundancies_'
'reduceri_'
'reduc_'
'recon'
'recommend_'
'reciprocă_'
'recesiune_'
'recenta_'
'recast_'
'rec'
'reasonable_'
'realised_'
'read'
'razboi_'
'ratei_'
'ranks_'
'ranging_'
'rang_'
'railways_'
'quotas_'
'quo_'
'părinţi_'
'păcat_'
'pă'
'puterile_'
'purtat_'
'purchasing_'
'publicităţii_'
'pte'
'proteste_'
'prosperitate_'
'proprietăţilor_'
'proprietatea_'
'propriei_'
'promisiunea_'
'programate_'
'producători_'
'procurorul_'
'procuraturii_'
'procent_'
'problematic_'
'prizonieri_'
'privit_'
'primăvara_'
'primii_'
'primeşte_'
'primară_'
'prezentarea_'
'preventive_'
'prevented_'
'pretinde_'
'presents_'
'presenting_'
'pres'
'preparation_'
'practicile_'
'positively_'
'pon'
'pol'
'plăţi_'
'plătite_'
'plăti_'
'plăteşte_'
'plătesc_'
'pla'
'pit'
'petrolului_'
'personalul_'
'persecution_'
'permanente_'
'performing_'
'pere'
'pensions_'
'ped_'
'pat'
'partnerships_'
'partially_'
'partenerilor_'
'pacienţi_'
'ow_'
'ously_'
'ought_'
'ot'
'os'
'ory_'
'orilor_'
'organismele_'
'organisers_'
'organi'
'ordination_'
'opune_'
'opoulos_'
'opiniei_'
'operaţiunii_'
'openness_'
'op'
'onto_'
'ofiţer_'
'ofi'
'oferta_'
'od'
'occupation_'
'obligaţi_'
'oasă_'
'oarecum_'
'oarecare_'
'oarea_'
'oar'
'numirea_'
'nului_'
'novic_'
'normală_'
'nobody_'
'niveluri_'
'neîn'
'nevoi_'
'nevertheless_'
'neg'
'nee'
'ne'
'naţiune_'
'naturally_'
'nationalism_'
'nat'
'mări_'
'mâna_'
'musulmane_'
'munţii_'
'mosque_'
'mos'
'monthly_'
'monopoly_'
'mon'
'models_'
'mix_'
'mit'
'minoritate_'
'ministerial_'
'mining_'
'minat'
'min'
'mijlocul_'
'migraţiei_'
'micro'
'messages_'
'menite_'
'men'
'medicine_'
'medalii_'
'maşini_'
'marginea_'
'marginalised_'
'maghiară_'
'macro_'
'lă'
'luptei_'
'luptat_'
'lumina_'
'love_'
'lli'
'literatur'
'listele_'
'listed_'
'liquidity_'
'lin'
'limitarea_'
'lift_'
'lie'
'lice'
'lev'
'let'
'legile_'
'lay_'
'lawyers_'
'lav_'
'laundering_'
'latter_'
'late'
'las'
'lapte_'
'lansării_'
'lag'
'lacking_'
'lac'
'kurzilor_'
'kurzi_'
'kos_'
'kinds_'
'kilo'
'jurisdiction_'
'judgment_'
'judecată_'
'judecarea_'
'ji'
'jazz_'
'ităţii_'
'istorică_'
'istorice_'
'issuing_'
'ish'
'isc'
'is'
'iron'
'ir_'
'ip'
'invite_'
'invitation_'
'investitorilor_'
'introducă_'
'intitulat_'
'intervenţie_'
'intenţie_'
'intentions_'
'intensificarea_'
'integral_'
'inta'
'insult'
'insula_'
'instituirea_'
'insistat_'
'insa_'
'inovare_'
'iniţiativei_'
'influenţă_'
'inex'
'inat'
'impuls_'
'impozit'
'imposibilă_'
'implica_'
'implementeze_'
'imigraţia_'
'imense_'
'ily_'
'illustration_'
'ill'
'iile_'
'if'
'identificarea_'
'ident'
'ideii_'
'ide_'
'id_'
'icit'
'ical_'
'hr'
'hospitals_'
'hor'
'hoping_'
'hood_'
'holidays_'
'hol'
'hoc_'
'hed_'
'head'
'he'
'hatred_'
'găsim_'
'gândesc_'
'gross_'
'grija_'
'grand'
'gradul_'
'gradually_'
'gradual_'
'gra'
'governmental_'
'governed_'
'gos'
'ging_'
'ghi'
'gestiona'
'generations_'
'gen'
'ge'
'gathering_'
'garantată_'
'fă'
'funcţioneze_'
'fuels_'
'frumoasă_'
'fostei_'
'forming_'
'formaţiunea_'
'formally_'
'folosim_'
'fly_'
'fizice_'
'fines_'
'finanţat_'
'finalizat_'
'finalizarea_'
'filmul_'
'fifth_'
'fied_'
'fewer_'
'festivalul_'
'fermă_'
'fermitate_'
'fericire_'
'feasibility_'
'faza_'
'favorabilă_'
'far'
'familii_'
'familiar_'
'fals'
'eşecul_'
'eyes_'
'extra'
'extinsă_'
'exprimăm_'
'exporturilor_'
'exported_'
'exploatare_'
'explică_'
'explains_'
'expensive_'
'expenditures_'
'excepţionale_'
'exceptional_'
'ew'
'evidente_'
'evi'
'everybody_'
'evaluări_'
'eva_'
'euro'
'etnici_'
'etichetarea_'
'etic_'
'etc_'
'establishes_'
'enţi'
'entităţi_'
'enti'
'entertainment_'
'enta'
'enorme_'
'enorm_'
'end'
'emphasised_'
'emo'
'emergente_'
'ema'
'els_'
'eliminating_'
'eli'
'elaboreze_'
'elabora_'
'eficienţă_'
'efectiv_'
'ee'
'economist_'
'economics_'
'echitabil_'
'echipei_'
'echipe_'
'echipamente_'
'eau_'
'eas'
'earthquake_'
'dynamic_'
'dure_'
'durabil_'
'duc_'
'droguri_'
'driving_'
'driven_'
'drive_'
'dor'
'doors_'
'divizat_'
'divertisment_'
'district_'
'disponibilitatea_'
'discuţia_'
'disaster_'
'disagree_'
'directă_'
'dimensiunea_'
'digitală_'
'deţin_'
'deza'
'devenind_'
'detrimentul_'
'determining_'
'determinate_'
'deterioration_'
'destinations_'
'destin'
'desfăşura_'
'desfăşoare_'
'descriind_'
'descrie_'
'describe_'
'der'
'depăşi_'
'depo'
'deployed_'
'dependence_'
'dem_'
'declined_'
'declarations_'
'declara_'
'decese_'
'decentralisation_'
'debating_'
'deaths_'
'deadlines_'
'datoriilor_'
'datorează_'
'căutare_'
'căr'
'că'
'câştige_'
'câtorva_'
'cycle_'
'customers_'
'cunoaşte_'
'cumva_'
'cumpără_'
'cu'
'cro'
'criminali_'
'credeţi_'
'creative_'
'covers_'
'counting_'
'copyright_'
'copil_'
'coordonate_'
'cooperări_'
'conventions_'
'contrast_'
'construim_'
'construct_'
'constituţional_'
'constituţie_'
'constitui_'
'consolideze_'
'consolidată_'
'consistently_'
'consequence_'
'confirms_'
'conducă_'
'conductei_'
'condemn_'
'concura_'
'concluding_'
'concerte_'
'complaints_'
'competiţie_'
'competenţele_'
'competenţa_'
'competente_'
'competent_'
'compatible_'
'committees_'
'commissioners_'
'colective_'
'colectare_'
'colaborarea_'
'codecizie_'
'coast_'
'coaliţiei_'
'coal_'
'coa'
'climatul_'
'clas'
'civililor_'
'citată_'
'ciprioţi_'
'cho'
'ched_'
'check_'
'chances_'
'chamber_'
'chair'
'cevic_'
'cerinţă_'
'cerinţe_'
'cerem_'
'celălalt_'
'cauze_'
'cauzat_'
'cat'
'cards_'
'caracterul_'
'caracter_'
'capitol_'
'candidată_'
'candidacy_'
'cabinetului_'
'cabinetul_'
'buna_'
'bul'
'bugete_'
'budgets_'
'brut_'
'bronze_'
'broadcasting_'
'broadcast_'
'bro'
'boycott_'
'bought_'
'bon'
'bly_'
'blocking_'
'blame_'
'binevenit_'
'belongs_'
'belonging_'
'bea'
'baze_'
'bars_'
'barriers_'
'badly_'
'avertizând_'
'avantajele_'
'autonomia_'
'authorised_'
'atului_'
'attempting_'
'atrocities_'
'ates_'
'atacurilor_'
'ata_'
'ast'
'assurances_'
'aspectul_'
'asigurărilor_'
'asigurat_'
'asigur_'
'asasinarea_'
'asa_'
'aruncat_'
'arii_'
'aprovizionare_'
'approximately_'
'applying_'
'applications_'
'apparent_'
'app'
'aparţine_'
'ants_'
'angajamentului_'
'analyse_'
'analişti_'
'an'
'amplu_'
'ample_'
'amounts_'
'ambitions_'
'ambassadors_'
'alegători_'
'alarming_'
'ak_'
'ajutăm_'
'ajungând_'
'ah_'
'ae'
'adoptării_'
'admi'
'adequately_'
'adaugă_'
'adapted_'
'ad'
'acting_'
'actelor_'
'acordurilor_'
'acoperite_'
'acopere_'
'acelor_'
'acceptăm_'
'accepting_'
'acceptarea_'
'accelerarea_'
'abţinut_'
'abstained_'
'absolute_'
'absence_'
'abordată_'
'Zimbabwe_'
'Yemen_'
'Ya'
'Workers_'
'Within_'
'Vor_'
'Vlora_'
'Vis'
'Viena_'
'Verhofstadt_'
'Ver'
'Van'
'Val'
'Va'
'Ultimul_'
'Ul'
'Time_'
'Three_'
'Ter'
'Ten'
'Technology_'
'Taiwan_'
'Sârbii_'
'System_'
'Switzerland_'
'Swiss_'
'Surse_'
'Support_'
'Subject_'
'Strategiei_'
'Sto'
'Sperăm_'
'Somalia_'
'Solidarity_'
'Society_'
'Sin'
'Sim'
'Serghei_'
'Serge_'
'Schwarz_'
'Schilling_'
'Sand'
'Sami_'
'Samardzic_'
'SRS_'
'Ru'
'Rome_'
'Roman_'
'Rezultatul_'
'Rei'
'Region_'
'Reform_'
'Rece'
'Rather_'
'Raportorul_'
'Racan_'
'Ra'
'Presa_'
'Pope_'
'Po'
'Plan'
'Pie'
'Peres_'
'Per'
'Partidele_'
'Palestine_'
'Pactului_'
'PNL_'
'Or'
'Operaţiunea_'
'Opel_'
'Op'
'Online_'
'Năstase_'
'Nu'
'Nov'
'Norvegia_'
'Negre_'
'Ned'
'Mon'
'Mol'
'Mladjan_'
'Min'
'Memorial_'
'Mediafax_'
'Mas'
'Marija_'
'Mal'
'MIA_'
'MEP_'
'Luând_'
'Lithuania_'
'Like_'
'Liberals_'
'Liber_'
'Kurti_'
'Kon'
'Koc'
'Kermabon_'
'Kara'
'Kar'
'Jerusalem_'
'Jacques_'
'Israelului_'
'Is'
'Internaţionale_'
'Internal_'
'Institutului_'
'Ilic_'
'III_'
'Hu'
'Hay'
'Having_'
'Greens_'
'Generale_'
'Gaddafi_'
'Franco_'
'Four_'
'Food_'
'Fischer_'
'Fin'
'Fi'
'Euronews_'
'Euobserver_'
'Equality_'
'England_'
'Emi'
'El'
'EUFOR_'
'ER'
'EC'
'Dunării_'
'Două_'
'Documents_'
'Directorate_'
'Dezvoltării_'
'Departamentul_'
'Dep'
'Democraţie_'
'Del_'
'Declaraţia_'
'Declaration_'
'Daskalaki_'
'Danish_'
'DTP_'
'DPS_'
'DA_'
'Cup'
'Cu'
'Creşterea_'
'Credit_'
'Cr'
'Consequently_'
'Congres'
'Concerning_'
'Con'
'Cine_'
'Chávez_'
'Christians_'
'Chinei_'
'Chancellor_'
'Cercetare_'
'Capital_'
'Can'
'Camera_'
'CITES_'
'CA'
'Buzek_'
'Burns_'
'Bur'
'Bulgarians_'
'Bugetul_'
'Budgetary_'
'Bu'
'Brown_'
'Brajshori_'
'Bosniak_'
'Bol'
'Biljana_'
'Bildt_'
'Bil'
'Besides_'
'Berlusconi_'
'Belgian_'
'Bay_'
'Bakir_'
'Ba'
'BSP_'
'BG_'
'Authority_'
'At'
'Armatei_'
'Are_'
'Aproape_'
'Angela_'
'Ana_'
'Americans_'
'Am'
'Alţi_'
'Alianţă_'
'Ale'
'Albert_'
'Albanezii_'
'Agriculture_'
'Adrian_'
'Aderarea_'
'?"_'
';_'
'98_'
'81_'
'71_'
'58_'
'35'
'30th_'
'2m_'
'27'
'25'
'22nd_'
'170_'
'17'
'15'
'11'
'0m_'
'-- _'
'''_'
'!'
'– _'
'țiile_'
'țe'
'ţiune_'
'ţintă_'
'ţinem_'
'ţ_'
'Ţ'
'şu'
'şomeri_'
'şomajul_'
'şii_'
'şcoala_'
'şanse_'
'Ştiinţă_'
'ăt'
'ăre'
'ăm'
'înţelegerea_'
'întâmpinat_'
'întreprinse_'
'întors_'
'îns'
'înlocuirea_'
'îngrijorează_'
'îngrijoraţi_'
'îndeplineşte_'
'încălcărilor_'
'încurajeze_'
'încurajează_'
'încuraj'
'înconjurător_'
'înco'
'închisă_'
'încheiere_'
'încheiate_'
'înainteze_'
'împărtăşesc_'
'împuşcat_'
'împrumuturi_'
'è'
'ând'
'â'
'Întrebarea_'
'Îi_'
'zz'
'zu'
'zo'
'zis'
'zilnic_'
'zel'
'ze'
'zată_'
'zate_'
'yield_'
'yan'
'worries_'
'wor'
'websites_'
'waves_'
'warnings_'
'warming_'
'wa'
'w'
'vă'
'vân'
'vul'
'vit'
'visible_'
'virus_'
'virtually_'
'virtu'
'vinovaţi_'
'viitoarelor_'
'vic'
'veteran_'
'versiunea_'
'veri'
'veni'
'vehicule_'
'vast_'
'variety_'
'vamal_'
'valuable_'
'valid'
'uti'
'uta_'
'urs_'
'urmări'
'urmeze_'
'uriaşă_'
'uri'
'ure'
'ura'
'unora_'
'unlike_'
'unită_'
'unfortunate_'
'unde'
'unconditional_'
'uncertain_'
'ultimă_'
'ul'
'uc'
'tânăr_'
'tz'
'turneului_'
'turn'
'turismul_'
'turco_'
'tur'
'trăieşte_'
'trup'
'tru'
'trimise_'
'treptată_'
'trebuia_'
'treaties_'
'tratatul_'
'tranziţia_'
'transportation_'
'transport'
'transmit_'
'transmise_'
'transformarea_'
'trans_'
'tour_'
'tou'
'tortura'
'topics_'
'tonul_'
'tongue_'
'tom'
'toll_'
'tolerate_'
'tly_'
'titled_'
'timetable_'
'ticket_'
'throw_'
'threatening_'
'testa'
'terrible_'
'teroriştii_'
'teritoriale_'
'teri'
'tensiuni_'
'telephone_'
'telefoanele_'
'tel'
'tec'
'tara_'
'tar_'
'tam'
'talent'
'tackling_'
'sărăcie_'
'sărbători'
'să'
'sârbo_'
'suverane_'
'susţină_'
'suspendate_'
'suspectat_'
'surprins_'
'surplus_'
'supra'
'suport'
'supervisory_'
'sun_'
'sum'
'substance_'
'străzile_'
'stru'
'striking_'
'strictă_'
'strength_'
'storm_'
'stone_'
'stolen_'
'stic'
'sti'
'statală_'
'stat'
'starts_'
'stand'
'stabilise_'
'stabilire_'
'stabilind_'
'stabile_'
'spuneţi_'
'spreading_'
'sporită_'
'sponsored_'
'spi'
'speranţe_'
'specula'
'specify_'
'species_'
'speciali'
'sparked_'
'sov'
'sorry_'
'soluţia_'
'solidă_'
'solicitări_'
'solicitarea_'
'soldaţilor_'
'solar_'
'soil_'
'slightly_'
'ski'
'sive_'
'sistematic_'
'sindicatele_'
'simplificarea_'
'sil'
'sie'
'sic_'
'shut_'
'shortcomings_'
'sho'
'sharp_'
'shares_'
'shape_'
'shameful_'
'sfera_'
'settled_'
'set'
'sesiunea_'
'serving_'
'serveşte_'
'semnul_'
'sem'
'sel'
'secularism_'
'sectoarelor_'
'secondly_'
'scrutiny_'
'scrisoare_'
'scri'
'screening_'
'scopuri_'
'saving_'
'sal_'
'răs'
'răniţi_'
'rămânem_'
'răbdare_'
'ruşi'
'rutiere_'
'rut'
'rup'
'rumours_'
'ruin'
'roşu_'
'rov'
'rotaţie_'
'ros'
'rooted_'
'română_'
'rni'
'riz'
'rival_'
'rit'
'rin'
'ridic'
'rid'
'reţelele_'
'rez'
'revolution_'
'revolte_'
'revizui'
'revise_'
'revealed_'
'reuniuni_'
'reunit_'
'reuni_'
'restaura'
'restabilirea_'
'respectăm_'
'respectivul_'
'respecting_'
'reserve_'
'reprezentarea_'
'reprezentantului_'
'repet_'
'repeatedly_'
'reme'
'rely_'
'religios_'
'relevat_'
'rela'
'reiterate_'
'regăsesc_'
'regulilor_'
'regulated_'
'reglementărilor_'
'refuzul_'
'refuse_'
'reflecta_'
'referendumului_'
'reductions_'
'recur'
'recunosc_'
'reconstrucţia_'
'reconcilierea_'
'recomandărilor_'
'recomandări_'
'reci'
'receives_'
'realising_'
'reafirmat_'
'reacţiona_'
'rc'
'ratingul_'
'ratificarea_'
'ran_'
'ram'
'rally_'
'ral'
'railway_'
'raids_'
'raid_'
'radicală_'
'rachete_'
'qui'
'quantity_'
'qualifications_'
'pătraţi_'
'păstreze_'
'părinţilor_'
'păreri_'
'punish'
'publicul_'
'pta'
'pt_'
'provocărilor_'
'provoacă_'
'protestors_'
'propusă_'
'propunerilor_'
'propun_'
'proprietăţii_'
'proposing_'
'properties_'
'promovare_'
'proliferation_'
'profite_'
'profitabil'
'profesori_'
'produsul_'
'procurorii_'
'proceed_'
'procedurii_'
'procedat_'
'proba_'
'primului_'
'primarul_'
'prezint_'
'prevenire_'
'prevederi_'
'presupusa_'
'presidents_'
'presentation_'
'premii_'
'preliminary_'
'pregătirile_'
'pregăti_'
'prefer_'
'precondition_'
'precizat_'
'prec'
'pozi'
'postponed_'
'ports_'
'pornography_'
'porni'
'por'
'populară_'
'pop_'
'poluarea_'
'pointing_'
'plă'
'plo'
'pledges_'
'pledge_'
'plays_'
'platformă_'
'plastic_'
'planificat_'
'pierderile_'
'piece_'
'phenomenon_'
'ph'
'petiţii_'
'pesticidelor_'
'persuade_'
'perspectivelor_'
'pers'
'permanenţă_'
'performers_'
'performed_'
'pending_'
'penalty_'
'ped'
'passport_'
'pasi'
'pasageri_'
'participării_'
'parteneriatul_'
'parlamente_'
'parallel_'
'pan_'
'palestinian_'
'pagină_'
'pagini_'
'pagina_'
'page_'
'pact_'
'pachetului_'
'ova'
'outright_'
'outlined_'
'outermost_'
'ost'
'orului_'
'oro'
'orientate_'
'oricât_'
'organism_'
'organising_'
'ordinated_'
'oppression_'
'opposes_'
'operează_'
'operaţiunilor_'
'operaţiunea_'
'oo'
'onală_'
'onale_'
'ona'
'omorâ'
'om'
'olandez_'
'ofertă_'
'ofer'
'ode'
'ocupe_'
'ochii_'
'occidentale_'
'ocazii_'
'obţinerii_'
'obţinem_'
'observaţii_'
'observ_'
'obligaţii_'
'obiectivului_'
'oane_'
'nţii_'
'nă'
'numeroşi_'
'notion_'
'noticed_'
'notably_'
'norms_'
'non'
'nomination_'
'nk'
'nik_'
'ng'
'nes'
'neoficiale_'
'nen_'
'negotiated_'
'negociat_'
'negat_'
'nde'
'ncy_'
'naţiunile_'
'navale_'
'nas'
'narrow_'
'nar'
'mână_'
'mâinile_'
'muta'
'mur'
'mulţumi'
'mulţime_'
'multora_'
'mp'
'moreover_'
'morală_'
'monitorizeze_'
'monitoriza_'
'monedă_'
'momente_'
'modernă_'
'modalităţi_'
'mobilizarea_'
'mobilitatea_'
'moartea_'
'mo_'
'missile_'
'minut_'
'mil'
'mijloacelor_'
'metodele_'
'mergem_'
'mer_'
'menit_'
'meargă_'
'mea'
'maximă_'
'maturity_'
'maritim_'
'marii_'
'marele_'
'manufacture'
'mam'
'mal'
'maintenance_'
'luând_'
'lucrul_'
'luare_'
'lu_'
'logi'
'locuinţelor_'
'loc'
'lla_'
'lini'
'linguistic_'
'limbile_'
'limbi_'
'liberali'
'lessons_'
'les'
'legitimitatea_'
'legislaţii_'
'legislature_'
'lawyer_'
'laudă_'
'larger_'
'lanseze_'
'lan'
'lab'
'kurde_'
'ks'
'kova_'
'kov'
'kicked_'
'ker'
'justifică_'
'jurnalist_'
'judiciară_'
'judecătorii_'
'judecători_'
'jo'
'jev'
'ize'
'iza'
'ivo'
'itu'
'itan'
'istorie_'
'islamice_'
'iri_'
'iraniene_'
'ip_'
'iona'
'investitor_'
'investing_'
'investească_'
'inundaţii_'
'intrare_'
'intervene_'
'interesate_'
'integrity_'
'instruire_'
'instituţionale_'
'instituţia_'
'institui_'
'installed_'
'inspir'
'insi'
'ins_'
'ino_'
'iniţiativele_'
'iniţială_'
'ining_'
'ing'
'infringement_'
'infracţiuni_'
'indigenous_'
'indicators_'
'indicating_'
'independenţi_'
'incumbent_'
'inclusive_'
'inca_'
'ina'
'impresia_'
'importurilor_'
'importanţei_'
'importantly_'
'imm'
'imensă_'
'ila'
'il'
'ific'
'ier'
'icul_'
'ici'
'ice'
'icat'
'ib'
'ians_'
'ial'
'hy'
'hur'
'hotărârea_'
'hotels_'
'hot_'
'hosted_'
'hos'
'highlights_'
'hem'
'hectare_'
'heated_'
'harmonised_'
'harmonise_'
'harm_'
'handling_'
'handicap_'
'găzduieşte_'
'gândească_'
'guests_'
'grown_'
'gro'
'greşeală_'
'grenade_'
'grele_'
'grassroots_'
'gram'
'gov_'
'glo'
'gesture_'
'genuinely_'
'generate_'
'generals_'
'generali_'
'ged_'
'garantează_'
'games_'
'gaining_'
'fying_'
'furnizate_'
'funded_'
'frustration_'
'frontierelor_'
'fresh_'
'founder_'
'fostele_'
'formularea_'
'formeze_'
'formare_'
'forgotten_'
'foreseen_'
'flow_'
'floods_'
'flight_'
'fixing_'
'fired_'
'financed_'
'finalul_'
'fighters_'
'fiecărui_'
'ferme_'
'fel'
'federală_'
'featured_'
'fe_'
'fate_'
'fata_'
'fashion_'
'farming_'
'fan_'
'familiale_'
'facilitating_'
'extremists_'
'extreme_'
'extraordinare_'
'extraordinar_'
'extindă_'
'extern_'
'exprimate_'
'exposed_'
'exploit_'
'explanations_'
'experiences_'
'existent_'
'exi'
'execut'
'exclusiv_'
'exclude_'
'exception_'
'examination_'
'evoluţia_'
'evenimentul_'
'evalua_'
'eva'
'europenilor_'
'etnie_'
'etic'
'ethnically_'
'ese'
'escape_'
'ert_'
'error_'
'err'
'entităţile_'
'entitled_'
'enterprise_'
'ensured_'
'enjoys_'
'enii_'
'eni'
'ence_'
'enabling_'
'employee_'
'emphasises_'
'eliberarea_'
'electrical_'
'electoratului_'
'elaborate_'
'ek_'
'egală_'
'efectuată_'
'ede'
'economists_'
'echoed_'
'earmarked_'
'dând_'
'dupa_'
'dublu_'
'du_'
'drumului_'
'drawing_'
'dozen_'
'downturn_'
'dosar_'
'donation_'
'domeniului_'
'dom'
'doctor_'
'dly_'
'diz'
'diversitate_'
'distribuţia_'
'discipline_'
'disc'
'disappointment_'
'disappointed_'
'disa'
'directors_'
'dinamică_'
'dimensiune_'
'dil'
'differ_'
'dic'
'dez'
'devi'
'devastat'
'detainees_'
'detailed_'
'destroyed_'
'desp'
'designated_'
'desc'
'derivate_'
'depăşirea_'
'deputaţilor_'
'depl'
'dependenţa_'
'deny_'
'den_'
'democratisation_'
'demisionat_'
'delivery_'
'delivered_'
'delegaţiilor_'
'definitive_'
'definite_'
'defining_'
'defini'
'deepening_'
'decrease_'
'dar'
'dan'
'căuta_'
'călători_'
'cuvântului_'
'cur'
'cumpere_'
'cul'
'cuiva_'
'crowd_'
'critica'
'crima_'
'cresc_'
'creditele_'
'credinţă_'
'creată_'
'courage_'
'counts_'
'cou'
'costisitoare_'
'correspondent_'
'copy_'
'coordonat_'
'conţinut_'
'convin'
'convicted_'
'conven'
'controlling_'
'controlează_'
'controla_'
'conte'
'contacte'
'conta'
'consumului_'
'construit_'
'construiască_'
'construcţiilor_'
'constitutes_'
'constitute_'
'consortium_'
'consolidation_'
'consiliului_'
'consilier_'
'connecting_'
'congratulated_'
'confusion_'
'confrunte_'
'confirmation_'
'confirm'
'conf'
'conducte_'
'conduct'
'conduc_'
'condamne_'
'concentr'
'conce'
'comunitară_'
'computer_'
'compulsory_'
'complicate_'
'complexă_'
'communicate_'
'commanders_'
'comm'
'comercială_'
'combined_'
'combinată_'
'com'
'coloni'
'colegului_'
'colabora_'
'coerenţă_'
'codecision_'
'clădiri_'
'clubs_'
'closing_'
'clo'
'clan'
'cla'
'cite'
'cifra_'
'chose_'
'ches_'
'cev_'
'cetăţean_'
'ces'
'cerând_'
'celorlalţi_'
'celebration_'
'cauzate_'
'categoria_'
'cast_'
'casa_'
'careful_'
'capturarea_'
'capacities_'
'canton'
'cantităţi_'
'candidatura_'
'calcul_'
'bă'
'bus_'
'bureaucracy_'
'burdens_'
'bugetară_'
'bucurat_'
'britanică_'
'bre'
'boosting_'
'bombă_'
'bombing_'
'bol'
'blo'
'birouri_'
'birocratice_'
'binele_'
'bility_'
'bilaterală_'
'bil'
'ben'
'beings_'
'begins_'
'beautiful_'
'bases_'
'bas'
'barierele_'
'banilor_'
'ball_'
'balcanică_'
'bag'
'ay_'
'awarded_'
'awaiting_'
'avoiding_'
'avoided_'
'avocat_'
'avia'
'avertisment_'
'avansat_'
'avansa_'
'ava'
'autovehiculelor_'
'autostrăzi_'
'automat_'
'autentic'
'austriac_'
'audit_'
'audience_'
'attending_'
'attacked_'
'ator_'
'atmosfer'
'ating_'
'athletes_'
'aten'
'assets_'
'aspre_'
'arătăm_'
'artistic_'
'arte'
'armonizare_'
'arguments_'
'argumentează_'
'argument_'
'arch'
'ara_'
'ar'
'apărat_'
'apro'
'appropriations_'
'appoint_'
'apare_'
'anunţ'
'anti'
'angajarea_'
'ang'
'ampl'
'amended_'
'amend_'
'ambassador_'
'ambasador_'
'altora_'
'alta_'
'als_'
'alis'
'alimentar_'
'ali'
'ak'
'airline_'
'agricultorii_'
'agenţiei_'
'agendă_'
'ag'
'afterwards_'
'afirm_'
'afi'
'advertising_'
'aducem_'
'adresează_'
'adresată_'
'adoptăm_'
'administrarea_'
'adaug_'
'acţionează_'
'actori_'
'actor_'
'acquire_'
'accurate_'
'accomplish_'
'acceptance_'
'acceptabil_'
'accept'
'absenţa_'
'abordeze_'
'abile_'
'Zemun_'
'Zeljko_'
'Zagrebul_'
'Wil'
'Waldner_'
'Voting_'
'Visa_'
'Vin'
'Viitorul_'
'Venizelos_'
'Vel'
'Vatican_'
'Ungariei_'
'UPI_'
'UN'
'Turc'
'Ts'
'Tribune_'
'Tre'
'Trai'
'Tr'
'Top_'
'Top'
'Tol'
'To'
'Tito_'
'Thailanda_'
'Textul_'
'Tem'
'Tarculovski_'
'Taleski_'
'Tab'
'Syrian_'
'Supreme_'
'Sudan_'
'Studiul_'
'Stu'
'Stojanovska_'
'Stephen_'
'Statute_'
'Star'
'Standard_'
'Stan'
'St_'
'Srbija_'
'Spa'
'Sor'
'Son'
'Slav'
'Similar_'
'Ser'
'Sen'
'Sc'
'Saxe_'
'Santa_'
'Salonic_'
'SN'
'SDS_'
'SDA_'
'Rwanda_'
'Rum'
'Ruecker_'
'Round_'
'Ros'
'Rolul_'
'Rod'
'Rocen_'
'Rijeka_'
'Ridicarea_'
'Rezultatele_'
'Rena'
'Regulamentului_'
'Regiunea_'
'Reformele_'
'Ras'
'Qatar_'
'Prosecutors_'
'Prosecutor_'
'Progresiste_'
'Problemele_'
'Principala_'
'PpP_'
'Poverty_'
'Pot_'
'Poporul_'
'Poor_'
'Polo'
'Pol'
'Plat'
'Pittsburgh_'
'Piaţa_'
'Pia'
'Petro'
'Pet'
'Personal_'
'Pen'
'Pat'
'Parteneriat_'
'Para'
'Papadopoulos_'
'Pale'
'Pactul_'
'Pac'
'PNR_'
'Ora'
'Oliver_'
'Olanda_'
'Nor'
'No'
'Nis'
'Nimeni_'
'Nicolas_'
'Nicio_'
'Nicholas_'
'Nearly_'
'Nav'
'NGL_'
'NB'
'Măsurile_'
'Măsura_'
'Motors_'
'Mor'
'Misko_'
'Mis'
'Mircea_'
'Miniştri_'
'Ministrului_'
'Mil'
'Mihai_'
'Mic'
'Mexic_'
'Mercosur_'
'Merc'
'Medvedev_'
'Maystadt_'
'Mark_'
'Mark'
'Marian_'
'Mara'
'Management_'
'Malta_'
'Mak'
'Madagascar_'
'MP_'
'Ly'
'Luni_'
'Ljubljana_'
'Lip'
'Liberă_'
'Liberties_'
'Lib'
'Leg'
'Lebanon_'
'League_'
'Law'
'Lab'
'LA'
'Kra'
'Kozloduy_'
'Kou'
'Komsic_'
'Ko'
'King_'
'Ki_'
'Ker'
'Kampschror_'
'Kam'
'KEK_'
'Ju'
'José_'
'Joseph_'
'Jas'
'Japanese_'
'JAT_'
'Iugoslavia_'
'Iranului_'
'Investiţia_'
'Intel'
'Industria_'
'Ilir_'
'Id'
'Iată_'
'IS'
'INS'
'IN'
'IG'
'Holkeri_'
'Holding_'
'Here_'
'Har'
'Ha'
'Guineea_'
'Gucht_'
'Gu'
'Gro'
'Gri'
'Gracanica_'
'God_'
'Gl'
'Ger'
'Gen'
'GUE_'
'Frank'
'Fosta_'
'Fil'
'Festivalului_'
'Fatos_'
'Far'
'FI_'
'Extinderea_'
'Externă_'
'Erd'
'Era_'
'Employment_'
'EU'
'ECB_'
'Dulic_'
'Doilea_'
'Dna_'
'Dimas_'
'Dick_'
'Dia'
'Denmark_'
'Dejan_'
'Dec'
'Daul_'
'Darik_'
'DNA_'
'Culturii_'
'Croatians_'
'Crimes_'
'Cri'
'Corporation_'
'Convenţiei_'
'Cont'
'Construction_'
'Cons'
'Conferinţei_'
'Comisii_'
'Com'
'Columbia_'
'College_'
'Code_'
'Coburg_'
'Cicek_'
'Chile_'
'Children_'
'Child_'
'Chi'
'Chestiunea_'
'Cedomir_'
'Catania_'
'Cartei_'
'Cap'
'Canadian_'
'Cana'
'CEFTA_'
'CB'
'Băncile_'
'Bus'
'Budgets_'
'Budapesta_'
'Bra'
'Bot'
'Beth_'
'Ber'
'Ben'
'Basha_'
'Bas'
'Banka_'
'Aur_'
'Au'
'Att'
'Atalanta_'
'Armata_'
'Arheologii_'
'Apoi_'
'Annual_'
'Angelopoulos_'
'Amnesty_'
'Along_'
'Aici_'
'Ahmed_'
'Ag'
'Adunarea_'
'Adnan_'
'Administration_'
'Activitatea_'
'Accord_'
'Abruzzo_'
'Above_'
'AC'
'9m_'
'79_'
'63_'
'59_'
'49_'
'47'
'450_'
'39_'
'301_'
'20'
'1984_'
'02'
'01'
'00_'
','
')'
'''
' -,_'
' -, _'
'ță_'
'țu'
'ști'
'ţinte_'
'ţinta_'
'ţile_'
'şă'
'şul_'
'şte'
'şi'
'şefilor_'
'şefii_'
'şefi_'
'şedinţă_'
'şcolar_'
'şa'
'Şedinţa_'
'ăţilor_'
'ăz'
'ări'
'ăd'
'ó'
'întări_'
'întâmple_'
'întrunit_'
'întru_'
'întreţin'
'întreprindă_'
'întreprindem_'
'întregii_'
'între'
'întoarcă_'
'întoarcerea_'
'întinde_'
'însoţit_'
'însemnat_'
'înm'
'îngrijorat_'
'înfiinţeze_'
'îndelungată_'
'înde'
'încălcările_'
'încălcat_'
'încurajarea_'
'încrezători_'
'închisoarea_'
'închise_'
'încheiată_'
'închei_'
'înceteze_'
'încet'
'încercând_'
'încerc'
'începem_'
'înc'
'împărtăşim_'
'îmbunătăţirile_'
'îmbunătăţirii_'
'ã'
'án_'
'Înalt_'
'zones_'
'zonelor_'
'ziunea_'
'zil'
'zd'
'zahăr_'
'ya'
'worry_'
'workplace_'
'wo'
'whi'
'wellbeing_'
'we'
'wars_'
'warns_'
'wall_'
'văzută_'
'vârf_'
'vânzările_'
'vândă_'
'vând_'
'vulnerabili_'
'vremea_'
'vr'
'vorbitori_'
'vorbitor_'
'voluntarily_'
'volumul_'
'vol'
'voce_'
'vis_'
'vinde_'
'vin'
'viitoarei_'
'victimă_'
'vici'
'via'
'veşti_'
'vessels_'
'ves'
'verzi_'
'versions_'
'vern'
'verify_'
'verificarea_'
'verifica_'
'ver_'
'vel'
'ved'
'vecină_'
'vecin'
'vas'
'varietate_'
'vara_'
'valută_'
'valu'
'vag'
'uşura'
'uş'
'uz'
'uv'
'ust'
'usage_'
'ură'
'urmăresc_'
'urma'
'uring_'
'urgency_'
'ured_'
'ups'
'upgrade_'
'unusual_'
'unrest_'
'uno'
'uniunii_'
'unfo'
'uneia_'
'underline_'
'undergo_'
'unclear_'
'unc'
'unanimous_'
'ume'
'uma'
'um'
'ultimelor_'
'ult'
'ula'
'uar'
'twice_'
'turns_'
'turnout_'
'turning_'
'ture_'
'turcească_'
'turce_'
'tting_'
'tt'
'trupelor_'
'troika_'
'trimisă_'
'trecutul_'
'trecute_'
'treacă_'
'travellers_'
'tratează_'
'transparentă_'
'transparente_'
'transnational_'
'transmission_'
'transfrontalieră_'
'transforme_'
'transformation_'
'transferate_'
'transaction_'
'trained_'
'tradiţiile_'
'traditions_'
'tough_'
'totalul_'
'totale_'
'total'
'torture_'
'tor'
'tolerance_'
'tobacco_'
'toamnă_'
'tm'
'tit'
'tine'
'tim'
'til'
'tightening_'
'tight_'
'tică_'
'thoroughly_'
'ther'
'thanked_'
'testimony_'
'territories_'
'terorişti_'
'terminal_'
'termen'
'teori'
'tensiunilor_'
'tendinţa_'
'tend'
'teme_'
'tele'
'tehnologiilor_'
'tehnologică_'
'tea'
'taxa_'
'tat'
'tari_'
'tari'
'tare_'
'tal_'
'tai'
'săraci_'
'symbolic_'
'sy'
'swa'
'susţinere_'
'sus'
'survive_'
'sursele_'
'surround'
'suprafaţă_'
'supporter_'
'suppliers_'
'sun'
'successor_'
'subway_'
'subvenţii_'
'substantive_'
'subsequently_'
'submission_'
'submin'
'stul_'
'studiul_'
'studenţilor_'
'stră'
'structură_'
'strongest_'
'strive_'
'store_'
'stopped_'
'stones_'
'sting_'
'stimulating_'
'steri'
'stem_'
'statisticile_'
'statistici_'
'statistical_'
'stagna'
'stagi'
'staged_'
'stadiu_'
'stabilită_'
'sso'
'square_'
'spur_'
'spunând_'
'spu'
'sprin'
'spot_'
'sportiv_'
'sponsorizat_'
'speranţă_'
'specific'
'specialists_'
'spaţiului_'
'spare_'
'sor'
'song_'
'somewhere_'
'solide_'
'solidarităţii_'
'solicitanţi_'
'sni'
'smul_'
'slowly_'
'situația_'
'sit'
'sincerely_'
'sincer_'
'simtă_'
'simte_'
'simt_'
'simplification_'
'simbol_'
'sic'
'shop_'
'shocks_'
'ship'
'sha'
'sexuale_'
'sesi'
'separation_'
'separarea_'
'separare_'
'separ'
'senzaţi'
'sentimentul_'
'sensibil_'
'sen_'
'semnificaţia_'
'semneze_'
'seminar_'
'semi'
'selling_'
'selection_'
'sele_'
'segment_'
'sed'
'secţi'
'secondary_'
'scor'
'scopurile_'
'sco'
'schimburilor_'
'schi_'
'sca'
'satisfăcătoare_'
'satisfactory_'
'salvgardare_'
'salvat_'
'saluta'
'salariul_'
'salariu_'
'sal'
'răspunderea_'
'răspundere_'
'rănit_'
'rutier_'
'rusă_'
'ruseşti_'
'rudele_'
'rt_'
'rromă_'
'rre'
'row_'
'routes_'
'rounds_'
'roughly_'
'român'
'riscurilor_'
'riots_'
'ril'
'rien'
'rie_'
'rie'
'ridiculous_'
'ridice_'
'rhetoric_'
'reţinuţi_'
'rezolvăm_'
'rezidenţi'
'revistă_'
'revine_'
'reveni_'
'reven'
'reunificarea_'
'reunificare_'
'reu'
'retras_'
'retragerea_'
'retra'
'retorica_'
'rete'
'retail_'
'resumed_'
'restructurare_'
'restricted_'
'responsabile_'
'respinge_'
'respectată_'
'rese'
'res_'
'requesting_'
'republici_'
'repressive_'
'repo'
'reply_'
'renovation_'
'renewal_'
'rena'
'remarcabilă_'
'relief_'
'reliable_'
'reliability_'
'relevantă_'
'relaţiei_'
'relates_'
'regularly_'
'regulamente_'
'regrettable_'
'registru_'
'regenerabilă_'
'reg'
'refuzului_'
'referit_'
'referendumuri_'
'refere'
'redi'
'recurs_'
'recunoscute_'
'recunoaştere_'
'rector'
'recorded_'
'reconstrucţie_'
'recommended_'
'recomandă_'
'recomandare_'
'recall_'
'reca'
'reap'
'reaminti_'
'realizăm_'
'realist_'
'reali'
'reacţia_'
'rd'
'raţi'
'rati'
'ratele_'
'raporta'
'rapoartelor_'
'radio'
'radicali'
'que'
'q'
'părinţii_'
'pâr'
'puts_'
'putinţă_'
'puterilor_'
'pus'
'pursued_'
'purchased_'
'punere_'
'punctelor_'
'pul'
'ption_'
'provoke_'
'protejare_'
'protective_'
'prosperous_'
'propriilor_'
'proprietarii_'
'proprie_'
'proposes_'
'prompted_'
'promoveze_'
'promotes_'
'productions_'
'procurorului_'
'procurorilor_'
'processing_'
'prob'
'proaste_'
'proactive_'
'prize_'
'privesc_'
'privatizării_'
'principalului_'
'primarii_'
'primare_'
'prilejul_'
'pri'
'preşedinţilor_'
'prezidenţial_'
'prezentă_'
'prezente_'
'prevedere_'
'presupuse_'
'presiunile_'
'presedintele_'
'prerogative_'
'preparations_'
'preocupări_'
'premierului_'
'premiat'
'predominantly_'
'preda'
'precis_'
'precedente_'
'prealabilă_'
'pragul_'
'practica_'
'pp'
'poulos_'
'posturi_'
'posted_'
'possession_'
'pose_'
'pos'
'portu'
'populations_'
'populare_'
'popor_'
'poli'
'plângeri_'
'pluralism_'
'plu'
'plecare_'
'pleasure_'
'ple'
'platform'
'plasează_'
'planet_'
'plan'
'pist'
'pipelines_'
'pierderi_'
'pic'
'phi'
'pharmaceutical_'
'petition'
'persist'
'periodic'
'performanţă_'
'pensiilor_'
'penală_'
'pedepse'
'peacekeepers_'
'paşnică_'
'paz'
'patrol'
'partition_'
'parteneriate_'
'parlamentarii_'
'pare'
'parc'
'paramount_'
'parad'
'par'
'panel_'
'pana_'
'pan'
'pain'
'pagubele_'
'oz'
'owe'
'ovo_'
'overhaul_'
'ova_'
'outrageous_'
'output_'
'outlook_'
'outdoor_'
'outbreak_'
'ot_'
'oră_'
'organisme_'
'oraşelor_'
'orat'
'opună_'
'optimist'
'optimi'
'oprească_'
'operaţională_'
'operatorii_'
'openly_'
'onis'
'ong'
'oned_'
'one'
'onal_'
'omologului_'
'omin'
'ome'
'ombudsman_'
'omagiu_'
'ologi'
'offshore_'
'oferirea_'
'odo'
'odds_'
'oci'
'occidentală_'
'occ'
'oca'
'observe_'
'observaţie_'
'observation_'
'oblige_'
'obligat_'
'objections_'
'numi'
'nume'
'ntu'
'nte'
'nse'
'ns'
'notă_'
'normale_'
'nominated_'
'noise_'
'noapte_'
'nji'
'nilor_'
'nică_'
'nia_'
'ngs_'
'ngi'
'nez'
'neutrality_'
'net'
'ners_'
'nep'
'nenumărate_'
'nent'
'nei_'
'negativă_'
'neclar_'
'necessity_'
'necesari_'
'neapărat_'
'neal'
'ndr'
'nc'
'naţionali_'
'naviga'
'nave_'
'naturii_'
'naturală_'
'nationalists_'
'nationalist_'
'nal'
'nai'
'mândri_'
'murdered_'
'municipalităţile_'
'munci'
'mulţumim_'
'ms_'
'mountain_'
'motor_'
'morat'
'moon_'
'monument_'
'monetară_'
'moderat'
'model'
'mod'
'mobilă_'
'mobilităţii_'
'mobilisation_'
'moarte_'
'mite'
'mistakes_'
'mistake_'
'miss'
'minorităţii_'
'miner'
'militant_'
'miliard_'
'mili'
'migrat'
'migranţi_'
'mie_'
'mie'
'metal'
'merge'
'mere_'
'merc'
'menţiona_'
'menţinut_'
'mentioning_'
'menta'
'ment'
'mediteraneană_'
'medici'
'medicamente_'
'medalie_'
'mayor_'
'maternă_'
'maternitate_'
'matern'
'mat'
'masa_'
'marilor_'
'manufacturing_'
'mann_'
'mandatory_'
'manages_'
'majorarea_'
'magazin_'
'mag'
'mafia_'
'lăsând_'
'lăsa_'
'lux'
'lunile_'
'lungi_'
'lun'
'lucrări_'
'lp'
'lovitura_'
'love'
'lor'
'lop'
'loo'
'lon'
'loială_'
'locuinţele_'
'locally_'
'lle'
'lla'
'lja'
'livr'
'literar'
'listened_'
'lipsită_'
'lipsit_'
'lipseşte_'
'lipsesc_'
'liniile_'
'linia_'
'limitată_'
'limit'
'like'
'licitaţie_'
'liberalizare_'
'liability_'
'lez'
'less'
'ler_'
'lem_'
'lele_'
'legitim'
'legend_'
'lega_'
'leg'
'ld_'
'lb'
'lays_'
'lat'
'lansează_'
'lak'
'lacks_'
'kr'
'kl'
'kilometri_'
'killings_'
'kill_'
'kers_'
'kar'
'kan_'
'justify_'
'jurnalişti_'
'jun'
'jumătatea_'
'judecător_'
'jucăm_'
'jobless_'
'ji_'
'ject'
'jana_'
'ić_'
'izola'
'izat'
'iz'
'iva'
'iv_'
'iului_'
'iul_'
'ităţile_'
'italiană_'
'istoriei_'
'israelian_'
'isolated_'
'ismul_'
'isi_'
'isation_'
'irresponsible_'
'irregularities_'
'iresponsabil'
'iranieni_'
'inţ'
'investigated_'
'invest'
'invasion_'
'intru'
'introduc_'
'interpret'
'interna'
'interdicţia_'
'intenţionaţi_'
'intensity_'
'intensified_'
'intensifica_'
'intens_'
'inteligente_'
'integrat_'
'inte'
'insulele_'
'insuficiente_'
'instruct'
'instituie_'
'inspired_'
'inspections_'
'inovaţia_'
'iniţiale_'
'initiate_'
'ini_'
'infrastructures_'
'informaţie_'
'informa_'
'influx_'
'influenţe'
'influenced_'
'inflaţiei_'
'infected_'
'inf'
'inel'
'indivizi_'
'indicatori_'
'indication_'
'inculpare_'
'incorporated_'
'incomes_'
'incluzând_'
'incidentul_'
'inacceptabile_'
'imprisoned_'
'impozitare_'
'importurile_'
'import_'
'implementată_'
'implement'
'imediată_'
'ilu'
'ile'
'ije'
'igi'
'ified_'
'iet'
'ier_'
'ieni'
'iene_'
'ieftine_'
'identifying_'
'identificate_'
'identificare_'
'identifica_'
'id'
'ico'
'iana_'
'ian'
'hârtie_'
'hus'
'hte'
'hs'
'hove'
'hostage_'
'hl'
'hitting_'
'hi_'
'helpful_'
'heavily_'
'hazardous_'
'harsh_'
'hardest_'
'harassment_'
'haos_'
'ham_'
'ham'
'găzdui'
'găsesc_'
'gur'
'gue'
'greşelile_'
'grey_'
'greva_'
'grea_'
'grati'
'graf'
'grade_'
'glu_'
'gl'
'git'
'gin'
'gift_'
'ght_'
'gh'
'gent'
'generating_'
'generat_'
'genera_'
'gates_'
'garantăm_'
'gar'
'fut'
'furnizării_'
'furnizorii_'
'furnizeze_'
'fur'
'funcţiune_'
'functional_'
'fun'
'fugit_'
'fug'
'ft'
'fruit_'
'fruit'
'front'
'friendship_'
'fric'
'fre'
'frankly_'
'franceze_'
'forţată_'
'forţat_'
'forge'
'forest_'
'foremost_'
'fondatorul_'
'foamei_'
'flu_'
'flooding_'
'flights_'
'fled_'
'flags_'
'finanţa_'
'finaliz'
'finalised_'
'finale_'
'fin'
'file_'
'fiinţ'
'fiindcă_'
'ff_'
'fezabilitate_'
'femeie_'
'fell_'
'fee_'
'favoriz'
'fat'
'farmer_'
'fare'
'fallen_'
'fairness_'
'fai'
'facilitat'
'facilitarea_'
'fa_'
'ezi'
'extrădarea_'
'extremism_'
'extradition_'
'extra_'
'explicaţie_'
'explica_'
'expense_'
'existenţă_'
'exerciţiului_'
'exercita_'
'execution_'
'excesiv_'
'excepţional_'
'except_'
'evite_'
'everywhere_'
'evalueze_'
'evaluate_'
'evade_'
'etnicilor_'
'ethical_'
'estice_'
'ester'
'esenţă_'
'erul_'
'erit'
'erii_'
'era'
'epi'
'entrepreneurship_'
'entrepreneurs_'
'enthusiasm_'
'entail_'
'ent'
'enforced_'
'ene'
'ency_'
'enci'
'empty_'
'emite'
'emerged_'
'ements_'
'elite_'
'elimination_'
'eliminat_'
'eliminare_'
'elic'
'elevi_'
'elementele_'
'electing_'
'ela'
'egr'
'eficientizarea_'
'efectul_'
'editori'
'eco'
'echitabile_'
'eat'
'earn_'
'dur_'
'dumping_'
'dre'
'drastic_'
'drag'
'dozens_'
'downtown_'
'donatori_'
'domnia_'
'dominant_'
'divisions_'
'distrus_'
'disruption_'
'dispută_'
'dispunem_'
'dispune_'
'disponibilizaţi_'
'discute_'
'diplomaţii_'
'dina'
'din'
'differently_'
'die_'
'didn_'
'dictatorship_'
'diagnostic'
'dezbaterilor_'
'devo'
'devastating_'
'destroying_'
'destinaţie_'
'dest'
'design_'
'descurc'
'descrisă_'
'deschidă_'
'deschidere_'
'descentralizării_'
'derula'
'deri'
'dere'
'deportation_'
'depend'
'deo'
'dent'
'deno'
'demonstrators_'
'demonstrations_'
'demonstration_'
'demographic_'
'democra'
'demers_'
'demanded_'
'delivering_'
'deli'
'delegaţie_'
'definiţie_'
'definit_'
'definirea_'
'default_'
'decursul_'
'declaraţiilor_'
'decisively_'
'decides_'
'deca'
'daune_'
'dates_'
'database_'
'dam'
'cţi'
'căzut_'
'căutăm_'
'călătorie_'
'câtă_'
'câmp'
'cyanide_'
'cutremur_'
'custody_'
'cursa_'
'curat'
'curajul_'
'cunoştinţe_'
'cunoaştere_'
'cunoaştem_'
'cumpărături_'
'cumpărat_'
'cumpăra_'
'culturală_'
'cultura_'
'cultivat'
'cult'
'cul_'
'cry'
'crud'
'croat'
'crizelor_'
'criticii_'
'criminalitatea_'
'cri'
'creşteri_'
'creând_'
'creditelor_'
'crackdown_'
'court'
'counterfeiting_'
'count'
'cote_'
'costa_'
'corrupt_'
'corp'
'copie'
'copi'
'cope_'
'cop'
'coordonată_'
'coopera_'
'cooper'
'coo'
'conţină_'
'convenţii_'
'controlate_'
'contribuind_'
'contribuabili_'
'contradict'
'contractual_'
'continu'
'containing_'
'construcţiei_'
'constituţiei_'
'consolidare_'
'consiliul_'
'consi'
'consent_'
'congratulating_'
'conducting_'
'conduct_'
'condu'
'condamnă_'
'concursul_'
'concluzii_'
'concetăţenii_'
'concentrează_'
'concentration_'
'concedia'
'comunităţile_'
'comuniste_'
'comunicaţiilor_'
'computers_'
'comprises_'
'completing_'
'competitivă_'
'competitivitate_'
'comparable_'
'comisiilor_'
'combustibil_'
'combin'
'combatem_'
'comandă_'
'collecting_'
'coleg'
'colectivă_'
'colaboreze_'
'coincide'
'coherence_'
'coeziunii_'
'coexistenţ'
'clădire_'
'cleared_'
'cle'
'clauses_'
'clasificate_'
'clasa_'
'ck'
'cit'
'circulă_'
'cipriotă_'
'cii_'
'choices_'
'chi_'
'chet'
'cher'
'cheltuit_'
'checks_'
'champion_'
'cetăţenie_'
'cererilor_'
'ceremonie_'
'ceremonia_'
'cerea_'
'cercetarea_'
'celebrations_'
'cauzată_'
'causing_'
'category_'
'categori'
'cate'
'catch_'
'catastrophe_'
'catastrof'
'catal'
'cash_'
'caselor_'
'cart'
'care'
'capitalism_'
'capitalei_'
'capital'
'capacităţilor_'
'capabili_'
'capabile_'
'cap'
'candidaturii_'
'candidat'
'cancerul_'
'cancelarul_'
'cameras_'
'cam'
'calculatoare_'
'calculat'
'cadrului_'
'băncilor_'
'by'
'buried_'
'bureaucratic_'
'bucuros_'
'brutale_'
'bru'
'bridges_'
'bribe'
'boom_'
'books_'
'boi'
'bo_'
'blow_'
'blood_'
'bla'
'biroul_'
'birds_'
'bir'
'biological_'
'bids_'
'beneficiile_'
'beneficiat_'
'bell'
'bed_'
'beat_'
'bb'
'barricades_'
'bar_'
'banning_'
'bankruptcy_'
'bailout_'
'backdrop_'
'aşteptările_'
'aşteptaţi_'
'aşteptare_'
'azi'
'ay'
'avion_'
'avansăm_'
'avansează_'
'av'
'auzim_'
'autumn_'
'autovehicule_'
'autoritate_'
'austriece_'
'atur'
'attracting_'
'attitudes_'
'attaches_'
'atitudinea_'
'atenţiei_'
'asumate_'
'asuma_'
'assumed_'
'associate_'
'assassination_'
'aspectelor_'
'asks_'
'artists_'
'artificial_'
'aro'
'armă_'
'arme'
'arising_'
'arise_'
'arilor_'
'arheologi'
'argued_'
'arestare_'
'are'
'ard_'
'archaeologists_'
'arate_'
'ara'
'apt'
'aprovizionării_'
'aprobare_'
'approve_'
'approaching_'
'approached_'
'appealing_'
'apparently_'
'aplicat_'
'apele_'
'aparţin'
'apară_'
'aparent_'
'ao'
'anu_'
'ante_'
'ans'
'anov_'
'ann'
'angajate_'
'angajamentelor_'
'ane'
'anchetă_'
'analizarea_'
'analist_'
'ana'
'amânate_'
'aminti'
'ami'
'ameninţările_'
'amendamentelor_'
'ameliorat'
'ambiţioasă_'
'ambiguit'
'ambi'
'alătur'
'alternativi_'
'alocarea_'
'aloca_'
'allocate_'
'alle'
'alit'
'alie'
'alia_'
'ala_'
'aki'
'ajutoare_'
'ajung_'
'aiming_'
'agricultorilor_'
'african'
'affordable_'
'affair_'
'aff'
'afacere_'
'af'
'aeroporturi_'
'advisory_'
'advise_'
'adv'
'administrator'
'administrativă_'
'adj'
'adi'
'adevărul_'
'adel'
'adaptation_'
'adaptarea_'
'actorii_'
'activează_'
'act'
'acoperit_'
'aci'
'achiziţionarea_'
'aceleiaşi_'
'accusing_'
'accounting_'
'accessible_'
'accentua_'
'accelerate_'
'abuses_'
'abordării_'
'abordează_'
'abordate_'
'abolish_'
'ably_'
'abil_'
'abia_'
'abandonat_'
'abandon_'
'Zlatko_'
'Zilei_'
'Zastava_'
'Zar'
'Zannier_'
'Ye'
'Y_'
'Wor'
'Wo'
'Wi'
'West'
'Wat'
'Vondra_'
'Vol'
'Vlad'
'Vizita_'
'Vijesti_'
'Vid'
'Vetevendosje_'
'Verzi'
'Vasil'
'Us'
'Unemployment_'
'Un'
'Uganda_'
'Tz'
'Tuzla_'
'Tru'
'Tro'
'Trec'
'Trafficking_'
'Trabzon_'
'Tom'
'Tibetan_'
'Third_'
'Terzic_'
'Telegraph_'
'Tat'
'Tanja_'
'Tai'
'TA'
'Sănătăţii_'
'Subiect_'
'Su'
'Studies_'
'Statul_'
'Statistics_'
'Stanişev_'
'Stabilitate_'
'Sre'
'Square_'
'Spring_'
'Snezana_'
'Simic_'
'Simeon_'
'Siguranţa_'
'Shar'
'Shan'
'Services_'
'See'
'Scor'
'Sala'
'Sakharov_'
'SPS_'
'SM'
'SC'
'SB'
'Rou'
'Reţeaua_'
'Regi'
'Reg'
'Reducerea_'
'Red'
'Reacţia_'
'Ran'
'Radmanovic_'
'Rad'
'Qa'
'Pulaj_'
'Pula_'
'Public'
'Protestatarii_'
'Protecţia_'
'Prop'
'Prlenda_'
'Prin'
'Primele_'
'Praga_'
'Poziţia_'
'Poz'
'Popovski_'
'Pla'
'Pl'
'Photo_'
'Phil'
'Petr'
'Persoanele_'
'Permanent_'
'Pel'
'Pekusic_'
'Pe'
'Passy_'
'Pass'
'Pas'
'Parties_'
'Participanţii_'
'Pack_'
'PSE_'
'PM'
'Others_'
'Ot'
'Osama_'
'Ori'
'Organizat'
'Or_'
'Opposition_'
'Opoziţia_'
'Operaţiuni'
'Opera_'
'Open_'
'Om'
'Olimpiada_'
'Og'
'Of'
'Obiectivele_'
'OP'
'OLAF_'
'OIM_'
'Novosti_'
'Noile_'
'Nikola'
'Neither_'
'Nedjeljko_'
'Necdet_'
'Nea'
'Nas'
'NGO_'
'NE'
'My'
'Mur'
'Muc'
'Mubarak_'
'Moldovan_'
'Mobile_'
'Mişcarea_'
'Mission_'
'Minorit'
'Mik'
'Met'
'Membership_'
'Meeting_'
'Mc'
'Mart'
'Marin'
'Marco_'
'Making_'
'Madrid_'
'Mad'
'Mac'
'Maastricht_'
'MI'
'ME'
'López_'
'Lukovic_'
'Lukoil_'
'Lukic_'
'Lucas_'
'Ljiljana_'
'Liv'
'Lituania_'
'Lista_'
'Lin'
'Libertatea_'
'Libera'
'Liban_'
'Legea_'
'Laure'
'Lau'
'Lat'
'Lan'
'Lad'
'Kyrgyzstan_'
'Krajina_'
'Koz'
'Ki'
'Kale'
'Kadare_'
'Kab'
'KPS_'
'KCK_'
'KA'
'Jurnal_'
'Jur'
'Judge_'
'Jocic_'
'Ji'
'Jarinje_'
'Ivanov_'
'Iv'
'Islamist_'
'Ion_'
'Intr'
'Initiative_'
'Indiferent_'
'Index_'
'Ideea_'
'Ia'
'ISP'
'ICJ_'
'Hy'
'Hospital_'
'Hos'
'Hor'
'Herman_'
'Herald_'
'Helsinki_'
'Hal'
'HA'
'Gr'
'Gor'
'Gnjilane_'
'Global_'
'Georgieva_'
'Geoana_'
'Gender_'
'Ge'
'Gashi_'
'Gan'
'Fried_'
'Frank_'
'Framework_'
'Fra'
'Foarte_'
'Fl'
'Finanţelor_'
'Ferrero_'
'Federal_'
'Fatih_'
'Fair_'
'FDI_'
'FAO_'
'Express_'
'Expoziţia_'
'Export'
'Exact_'
'Every_'
'Eurozone_'
'EurActiv_'
'Et'
'Ericsson_'
'Eng'
'End'
'Emil_'
'Em'
'Elveţia_'
'Elektroprivreda_'
'Electronic_'
'Ele'
'Egipt_'
'Edward_'
'Ed'
'Economiei_'
'EUobserver_'
'ET_'
'ECOFIN_'
'Dunărea_'
'Due_'
'Dra'
'Dr_'
'Downer_'
'Dou'
'Donald_'
'Don'
'Dol'
'Doi_'
'Dobr'
'Dintre_'
'Dimpotrivă_'
'Dimitrova_'
'Dimitrov_'
'Dif'
'Deutsch'
'Deschiderea_'
'Depunerea_'
'Denktash_'
'Darfur_'
'Damir_'
'Daci_'
'DOS_'
'DC_'
'DC'
'Cristian_'
'Credem_'
'Costul_'
'Costa_'
'Corectările_'
'Continu'
'Constituţională_'
'Constituţia_'
'Conflict'
'Condoleezza_'
'Comunitate_'
'Comp'
'Common_'
'Combating_'
'Combaterea_'
'Club_'
'Closure_'
'Clinton_'
'Cli'
'Cla'
'Citi'
'Chisinau_'
'Cheney_'
'Championship_'
'Ceric_'
'Cemil_'
'Celsius_'
'Cel'
'Cehe_'
'Cazul_'
'Cat'
'Cashman_'
'Cari'
'Campionatul_'
'Camere_'
'Camara_'
'Calin_'
'Cali'
'CO'
'CI'
'CAP_'
'C7_'
'C'
'Burk'
'Bun'
'Bull'
'Buhler_'
'Bud'
'Brok_'
'Bro'
'Britanii_'
'Bre'
'Book_'
'Bla'
'Bl'
'Bir'
'Belgiei_'
'Bedrana_'
'Bat'
'Baroness_'
'Barbu_'
'Bank'
'Banc'
'Ban'
'Bal'
'Bajrami_'
'BR'
'BA'
'Azil_'
'Azerbaijan_'
'Az'
'Ayhan_'
'Atât_'
'Ataturk_'
'Astr'
'Asta_'
'Ass'
'Asi'
'Ardi_'
'Ara'
'Apărare_'
'Angel_'
'Amin'
'Alte_'
'Alt'
'Alo'
'Airport_'
'Adv'
'Addressing_'
'Ada'
'Acţiunile_'
'Actuala_'
'Actual'
'Act'
'Abdul'
'AT'
'AI'
'AB'
'92_'
'89_'
'87_'
'77_'
'74_'
'69_'
'67_'
'64_'
'58'
'50'
'46'
'40'
'4'
'36'
'350_'
'33'
'30'
'26'
'21'
'202'
'196'
'193'
'192'
'160_'
'13'
'1244_'
'100'
'1'
'0'
'.'_'
'.'
'-'
'+_'
'"[_'
'" (_'
'” (_'
'țiilor_'
'ției_'
'ște_'
'ș'
'ţu'
'ţite_'
'ţion'
'ţial'
'ştiinţific_'
'şin'
'şcolii_'
'şar'
'şantaj'
'ş'
'Şti'
'Şef'
'Şa'
'ător_'
'ăra'
'ăl'
'ăc'
'înşelă'
'învăţământului_'
'învăţa_'
'învăţa'
'întâlni'
'întâlnesc_'
'întâlnească_'
'întruniri_'
'întreprins_'
'întregime_'
'întrebat_'
'întreb'
'întorc_'
'însoţită_'
'înscri'
'înregistreze_'
'înregistrează_'
'înregistrată_'
'înregistrare_'
'îngrozitoare_'
'îngrijorată_'
'îngrijiri'
'îngrijirea_'
'înfrunt'
'înfiinţată_'
'înf'
'îndrepte_'
'îndreptate_'
'îndrepta_'
'îndoiesc_'
'îndeplinite_'
'îndeplinire_'
'îndemn_'
'încălzirii_'
'încălcări_'
'încheiem_'
'încetare_'
'încercări_'
'încerca'
'înarma'
'înaint'
'împărtăşit'
'împăr'
'împiedicat_'
'îmbunătăţeşte_'
'í'
'é_'
'ât'
'âm'
'à_'
'Întotdeauna_'
'Înce'
'Îl_'
'zy'
'zul_'
'ziţi'
'zit'
'zim'
'zic_'
'zec'
'zează_'
'zboruri_'
'zat_'
'zahărului_'
'ymous_'
'yer_'
'xt'
'xha'
'x'
'write_'
'wrestling_'
'wrapped_'
'worthy_'
'workforce_'
'worker_'
'withdrawn_'
'withdrawing_'
'wines_'
'wife_'
'whe'
'whatsoever_'
'wer'
'welcoming_'
'weight'
'weighing_'
'weigh'
'weekly_'
'wave_'
'wartime_'
'warmly_'
'ward'
'wan_'
'wal'
'văr'
'vâr'
'vs_'
'vremurile_'
'vre'
'votez_'
'vorbitorul_'
'vorbind_'
'voluntar_'
'voinţă_'
'voices_'
'voia'
'voci_'
'vizând_'
'viziteze_'
'viteză_'
'vitale_'
'vision'
'violenţele_'
'violenţe_'
'viola'
'vinovat_'
'viitori'
'viewed_'
'vie'
'video'
'vicepreşedintă_'
'vicepre'
'viabil_'
'veterinary_'
'veste'
'verdict'
'venue_'
'vent'
'venitului_'
'venir'
'venind_'
'vei'
'vehiculelor_'
'vehicul'
'vegeta'
'vedeţi_'
'vede_'
'vechile_'
'vat'
'vastă_'
'varea_'
'van'
'vai'
'vac_'
'uşurinţă_'
'uşi'
'uzi'
'utilizator'
'utility_'
'ute'
'urs'
'următori_'
'urm'
'ures_'
'upt'
'uprising_'
'updated_'
'unsustainable_'
'unofficial_'
'unknown_'
'unjust'
'unităţilor_'
'unitar_'
'uniform_'
'unified_'
'undertaken_'
'underground_'
'und'
'unch'
'unb'
'unanimously_'
'unanimitate_'
'umpl'
'ultra'
'ultimate_'
'ulo'
'ull'
'ular'
'uk_'
'uj'
'uita'
'uit'
'ucide'
'uci'
'uale_'
'tăţile_'
'tăc'
'tă'
'turi_'
'turcilor_'
'tunnel_'
'tuna_'
'tter'
'tte_'
'tt_'
'ts'
'trăim_'
'tră'
'triple'
'trimită_'
'triggered_'
'tric'
'tribute_'
'tribunalele_'
'treabă_'
'tratăm_'
'tratatelor_'
'tratatele_'
'tras_'
'transp'
'translated_'
'transformed_'
'transformat_'
'transferat'
'transfer'
'tram'
'trage'
'trafica'
'trafficked_'
'trad'
'tracking_'
'toxic'
'totdeauna_'
'totalitarianism_'
'totalitarian_'
'tore'
'tonului_'
'ton'
'toleranţă_'
'toa'
'tle_'
'tipul_'
'tional_'
'tion'
'tinere'
'timing_'
'time'
'tig'
'tied_'
'tie'
'tice_'
'tib'
'tial_'
'tia'
'ths_'
'thrown_'
'threatens_'
'teze_'
'tez'
'tests_'
'teste'
'teroriştilor_'
'terorist_'
'tero'
'terminat'
'termenele_'
'tere'
'tentativă_'
'tendinţele_'
'tendinţe_'
'tendency_'
'telefon_'
'tehnici_'
'technically_'
'tat_'
'tas_'
'tar'
'tali'
'sălbatice_'
'syn'
'sweeping_'
'swe'
'suveranităţii_'
'susţinând_'
'suspicious_'
'suspend'
'suspecţii_'
'surely_'
'supremaţia_'
'supravegherii_'
'supplier_'
'supplied_'
'supplementary_'
'supplement_'
'suporteri_'
'supervised_'
'supermarket'
'summitului_'
'sului_'
'suit_'
'suggesting_'
'sugera'
'suferi_'
'suf'
'suddenly_'
'successes_'
'succese_'
'subvenţiile_'
'subterane_'
'submarin'
'subcontract'
'stârnit_'
'strămutate_'
'struggling_'
'structurilor_'
'structurii_'
'strig'
'stricter_'
'stressing_'
'strat'
'strain'
'storm'
'stopa'
'stimul'
'stil_'
'stem'
'stele_'
'steel_'
'stea_'
'ste_'
'stati'
'standpoint_'
'stan'
'stakeholders_'
'stadiul_'
'stabilizarea_'
'stabilizare_'
'stabiliz'
'stabilising_'
'stabilisation_'
'stabili'
'ssion'
'ssin'
'sse'
'ssa'
'ss'
'spună_'
'sprijinită_'
'sprijinirii_'
'sprijinire_'
'spotlight_'
'sport'
'spor'
'spital'
'spiritual_'
'speculative_'
'spectacole_'
'specta'
'specializat_'
'specializa'
'specialist_'
'spe'
'sou'
'sondajele_'
'soluţionat_'
'solicitării_'
'solicitând_'
'soldier_'
'sol'
'socialiştii_'
'socialişti_'
'soare'
'smart_'
'sm'
'slowdown_'
'slo'
'sli'
'slab_'
'skiing_'
'siuni'
'sity_'
'situaţiile_'
'sistemic'
'sio'
'singurii_'
'singur'
'sinceri_'
'sin_'
'simţi_'
'simplifica_'
'simplific'
'silver_'
'siguri_'
'signals_'
'shorter_'
'shortage_'
'shocked_'
'shifting_'
'shi'
'shell'
'shaping_'
'sf'
'severely_'
'settlements_'
'sessions_'
'seriozitate_'
'seri'
'ser'
'separării_'
'separatist'
'sens'
'senator'
'sen'
'semnate_'
'semnatar'
'semnare_'
'semi_'
'seize_'
'segmente'
'sediului_'
'secund'
'secular_'
'secret'
'scuze_'
'scu'
'scourge_'
'scos_'
'scorul_'
'schimbării_'
'schimbăm_'
'schem'
'sceptic'
'scenario_'
'scandal'
'scad_'
'sb'
'satisfacerea_'
'satisface_'
'sati'
'sarcinii_'
'sancţiunilor_'
'salvarea_'
'salutăm_'
'sali'
'salarii_'
'safer_'
'safeguards_'
'răni'
'rânduri_'
'rus'
'rui'
'rte'
'rsa'
'rromilor_'
'rrom'
'roz'
'round'
'rough'
'rooms_'
'ron'
'rom'
'roll_'
'roles_'
'rol'
'rocket_'
'robber'
'roadmap_'
'rivali_'
'riul_'
'ritm_'
'rism_'
'riscului_'
'rin_'
'rigo'
'ries_'
'ridicarea_'
'ric'
'rh'
'rge'
'rezultă_'
'rezonabilă_'
'rezistenţă_'
'rezerv'
'revive_'
'revista_'
'revisi'
'revin_'
'revers'
'retrospectivă_'
'retro'
'retaining_'
'resur'
'resu'
'restricting_'
'restoring_'
'rest'
'responsibly_'
'responsabilităţilor_'
'responsabilităţii_'
'resign_'
'res'
'requiring_'
'reprezentate_'
'repetarea_'
'repercusiuni_'
'renov'
'renew_'
'remarcat_'
'remarcabil_'
'remarc'
'reluarea_'
'relevan'
'relaxarea_'
'rel'
'reiter'
'reintroduce'
'rein'
'reiese_'
'reglementează_'
'regizorului_'
'regionali'
'regimuri_'
'refugiaţii_'
'refuge_'
'reflects_'
'referindu_'
'referi'
'ree'
'reducând_'
'reducem_'
'redactor'
'recuperarea_'
'recruit'
'recover_'
'records_'
'recomand_'
'recognises_'
'reco'
'reciprocity_'
'recensământ_'
'rebuilding_'
'reamintit_'
'realizării_'
'realizări_'
'realizează_'
'reafirm'
'reads_'
'readmission_'
'reacted_'
'rde'
'rda'
'rce'
'raw_'
'ratings_'
'ratify_'
'raportoare_'
'raportat_'
'rape_'
'ranked_'
'rand'
'ral_'
'raises_'
'rad'
'ract'
'racist_'
'raci'
'quota_'
'quarter'
'pţi'
'păstrăm_'
'păstrat_'
'părea_'
'pământ_'
'putin_'
'putea'
'pushed_'
'purely_'
'punct'
'pun'
'publici_'
'ptă'
'pt'
'psi'
'ps'
'provi'
'protest'
'protejate_'
'protej'
'protecţionismul_'
'protects_'
'protectionist_'
'prost_'
'prosperităţii_'
'prosper'
'prosecuted_'
'propunem_'
'propri'
'proporţie_'
'proportionate_'
'proportionality_'
'propaganda_'
'prop'
'promovate_'
'promit'
'promisiuni_'
'progressive_'
'programming_'
'programat_'
'profunda_'
'profiturile_'
'profita_'
'profession'
'profesorul_'
'prof'
'productivity_'
'produc_'
'procurori_'
'proclaim'
'procentul_'
'procedurale_'
'procedeze_'
'proactivă_'
'privească_'
'prisons_'
'pris'
'prind'
'principali_'
'principalelor_'
'prieten'
'prezenta'
'prezent'
'prezece_'
'preze'
'prevăd_'
'prevedea_'
'prev'
'presupunem_'
'prest'
'presiunilor_'
'preserving_'
'preserve_'
'preocupare_'
'prelungite_'
'preliminare_'
'preferred_'
'preferen'
'predicti'
'predecessor_'
'prede'
'preciz'
'pragmatism_'
'poziţiilor_'
'poziţiile_'
'poveste_'
'pove'
'povară_'
'povara_'
'potenţialului_'
'potenţiale_'
'posibilităţii_'
'posibilitate_'
'porţile_'
'portughez_'
'portfolio_'
'porta'
'porn'
'pope_'
'polo_'
'poliţist_'
'poi'
'poe'
'poarte_'
'plănui'
'plină_'
'plecarea_'
'pleca_'
'pleaded_'
'plea_'
'plat'
'plasa_'
'plas'
'planurilor_'
'plante'
'planetei_'
'plac'
'pity_'
'pion'
'ping_'
'pin'
'pillars_'
'pierdem_'
'pierd_'
'pick'
'pic_'
'pian'
'physic'
'phy_'
'photograph'
'photo_'
'phones_'
'pho'
'petrece_'
'petiţi'
'pesticides_'
'pest'
'personalităţi'
'persoana_'
'persistence_'
'persecut'
'permis'
'periculoase_'
'pericolul_'
'periclita'
'performanţa_'
'pensionari'
'pensi'
'peni'
'penetration_'
'penalităţi_'
'penali'
'pea'
'paşnice_'
'paşnic_'
'paşii_'
'paşaport_'
'paşapoarte_'
'paved_'
'pauză_'
'patriarh'
'patient_'
'pat_'
'passes_'
'passage_'
'pasagerii_'
'participanţii_'
'participante_'
'parteneriatului_'
'parlamentelor_'
'pardon'
'paralele_'
'paragraphs_'
'paradisurile_'
'pakistanez'
'pain_'
'packages_'
'pack'
'oziţi'
'oxi'
'owing_'
'overlooked_'
'ovac_'
'outs'
'outline_'
'outgoing_'
'otoman'
'otic'
'ote'
'ota'
'osti'
'ort'
'orn_'
'oriu_'
'orin'
'originea_'
'origina'
'oriented_'
'orientată_'
'orientation_'
'oric'
'organizează_'
'organizaţia_'
'organizare_'
'organ_'
'org'
'orel'
'ordinul_'
'ordinator_'
'ordin_'
'opţiune_'
'optimă_'
'optat_'
'opposite_'
'oponenţii_'
'opo'
'opia'
'opi'
'operatorilor_'
'operatori_'
'operative_'
'onului_'
'onorabil'
'onora'
'onali'
'olv'
'olo'
'olimpic_'
'ole'
'oldest_'
'older_'
'oj'
'oin'
'offensive_'
'oferită_'
'oe_'
'ocoli'
'oce_'
'obţinând_'
'obţinută_'
'obţin_'
'obstacolele_'
'observator_'
'observator'
'observa'
'obligaţie_'
'object_'
'obişnuit_'
'obi'
'oa'
'nţe_'
'nă_'
'nz'
'nur'
'numărându_'
'numită_'
'numitului_'
'numitei_'
'nter'
'novel'
'nou'
'notori'
'notice_'
'note'
'normalisation_'
'nominal_'
'nol'
'noc'
'nist'
'nin'
'nie'
'nicăieri_'
'nice_'
'nge_'
'newspapers_'
'neu'
'nest'
'nesiguranţă_'
'nes_'
'neoficial'
'neli'
'nejustificat'
'neighbourhood_'
'neighbour_'
'negocieze_'
'negatively_'
'need'
'nedrept'
'necessarily_'
'necesita_'
'neajunsuri_'
'nda_'
'nce'
'navele_'
'native_'
'nationwide_'
'nano'
'mărturie_'
'mărirea_'
'mări'
'mă'
'my'
'muzeu_'
'mutually_'
'murders_'
'muncitorilor_'
'mulţimea_'
'mului_'
'multiethnic_'
'mul'
'mpet'
'moţiunii_'
'mov'
'mountains_'
'motrice_'
'motivaţi'
'mothers_'
'monopolies_'
'modificările_'
'modificată_'
'modificate_'
'modifica_'
'modernise_'
'modele_'
'moda'
'mobilitate_'
'mobilised_'
'mne'
'mna'
'mixte_'
'minu'
'minoritatea_'
'minore_'
'minimiz'
'minim'
'mine'
'militaris'
'militants_'
'mier'
'midnight_'
'middle_'
'met'
'mesc'
'menţionată_'
'menţion'
'menţinem_'
'mente_'
'mena'
'memoria_'
'membr'
'mediteraneene_'
'medii_'
'mediate_'
'medalia_'
'mecanismele_'
'measured_'
'meantime_'
'maşina_'
'mayors_'
'maybe_'
'maturi'
'matic'
'material'
'mate'
'matches_'
'masacrul_'
'marş_'
'martor_'
'margin_'
'marcaj'
'marca_'
'manufacturers_'
'manipulat'
'manifestat'
'manifest'
'mane'
'mamă_'
'malul_'
'mali'
'majoritară_'
'majoritar_'
'majora'
'mail_'
'mae'
'lţi'
'lăsate_'
'lur'
'luptăm_'
'lum'
'lucrărilor_'
'lower'
'lovic_'
'lou'
'logy_'
'logică_'
'log'
'locuitorii_'
'locuinţ'
'locals_'
'loa'
'ller'
'lived_'
'liti'
'literally_'
'lists_'
'listening_'
'listei_'
'liste_'
'lish'
'lira_'
'linie'
'limitele_'
'limite_'
'limitations_'
'light'
'lifted_'
'lift'
'life'
'lichid'
'libertăţi_'
'lia_'
'lia'
'lf'
'leu'
'lesson_'
'lera'
'len'
'lement'
'legitimitate_'
'legitime_'
'legislatură_'
'legi'
'legend'
'legatura_'
'legali'
'legacy_'
'leftist_'
'lecţie_'
'leak'
'leagă_'
'ld'
'lc'
'laying_'
'lation'
'lase_'
'las_'
'lare_'
'lar_'
'lant'
'lansare_'
'lans'
'landscape_'
'lan_'
'lacrimogene_'
'kurd_'
'kie'
'kes_'
'kel'
'ke'
'justification_'
'justifica'
'jurisdicţia_'
'jur'
'jump_'
'judecat_'
'judec'
'jointly_'
'jocurile_'
'jlo'
'jic_'
'jes'
'jen'
'jan'
'iţi'
'iştii_'
'iunii_'
'itut'
'ita'
'iste_'
'ista'
'iso'
'isla'
'ious_'
'io_'
'ină_'
'invocând_'
'invit_'
'invit'
'investiţie_'
'investitori_'
'investit'
'investim_'
'investigaţie_'
'investigating_'
'inva'
'inutil_'
'inundaţiilor_'
'introducerii_'
'intra'
'into'
'intimida'
'intervină_'
'intervenţiile_'
'interveni'
'interpreted_'
'interoperabilit'
'internetului_'
'internetul_'
'internationale_'
'interesat_'
'interesant_'
'interes'
'interdicţie_'
'intenţii_'
'intentat_'
'intent_'
'integrăm_'
'insur'
'insulă_'
'instrumental_'
'instrui'
'instituţională_'
'institute_'
'institut'
'instituit_'
'install'
'instalat'
'instabilitate_'
'inspect'
'insistăm_'
'insisten'
'inovării_'
'inovaţiei_'
'inova'
'ino'
'iniţieze_'
'infrastructuri_'
'informing_'
'informeze_'
'influenţează_'
'inflaţia_'
'infi'
'infantilă_'
'infant'
'infa'
'ineficient_'
'ined_'
'industrii_'
'industrializate_'
'individually_'
'indictee_'
'indicator_'
'inculpatul_'
'inculpat_'
'inculpa'
'incom'
'includerii_'
'incit'
'ince'
'inaugurată_'
'inaugural_'
'inamic'
'inadecvată_'
'inad'
'impună_'
'impun_'
'impu'
'impression_'
'impr'
'impotriva_'
'implicării_'
'implications_'
'implic'
'impe'
'imparţial'
'impact'
'imigranţii_'
'imens_'
'ime'
'imagina_'
'ils_'
'ility_'
'ija_'
'igu'
'ignorat_'
'ign'
'igh'
'igen'
'ig'
'iere_'
'ien'
'iect'
'ideology_'
'identitatea_'
'identifică_'
'ideile_'
'ideals_'
'ics_'
'ick'
'icii_'
'ich'
'ically_'
'iat_'
'iarnă_'
'iala_'
'hul'
'ht_'
'hotărârile_'
'hotar_'
'hopefully_'
'honour'
'honesty_'
'honestly_'
'homosexualit'
'hn'
'hle'
'hire_'
'hip_'
'hie'
'hia'
'heroin'
'hen'
'hei'
'hearings_'
'heading_'
'hea'
'havens_'
'hardly_'
'handle_'
'hamper'
'halted_'
'hai'
'găsiţi_'
'gy'
'guvernamental_'
'guverna'
'guns_'
'gun_'
'gun'
'guide_'
'gs_'
'grid_'
'grew_'
'greve_'
'greet'
'greco_'
'gor'
'gol'
'gne'
'gn'
'gir'
'gia'
'gge'
'gest_'
'germane_'
'geographic_'
'geografice_'
'generaţii_'
'generaţie_'
'generali'
'gel'
'gazoduct'
'gasoline_'
'gas'
'garanţii_'
'garant'
'gains_'
'fâ'
'furnizează_'
'furnizat_'
'furioşi_'
'fundamentally_'
'fund'
'funcţii_'
'fulfil'
'frumuseţea_'
'frumoase_'
'frontiera_'
'freeze_'
'free'
'frecvente_'
'fraudă_'
'frauda_'
'fragilă_'
'foştii_'
'foundations_'
'fou'
'fossil_'
'forţaţi_'
'forţate_'
'formulat'
'formerly_'
'formaţi'
'formate_'
'forever_'
'foreigners_'
'fore'
'forcing_'
'footing_'
'fondului_'
'folosită_'
'folosind_'
'fol'
'focului_'
'flying_'
'flu'
'flotilla_'
'flot'
'flee_'
'fla'
'fixed_'
'fit_'
'fish_'
'finanţe_'
'finanţată_'
'financially_'
'finalizeze_'
'finalizată_'
'finaliza_'
'finalis'
'filmului_'
'fil'
'fiinţe_'
'fii'
'figuri_'
'fier'
'fiecăruia_'
'ficat'
'fic'
'fibre'
'ffe'
'ff'
'festiv'
'fest_'
'feroviară_'
'fermierii_'
'fermieri_'
'feminină_'
'feminin_'
'feed'
'fed_'
'farmaceutic'
'facilită'
'facilitând_'
'fabrica'
'eşu'
'eşec_'
'extrădare_'
'extremişti_'
'extremiste_'
'extremis'
'extraordinară_'
'exterior_'
'expuse_'
'expunerea_'
'expu'
'exprimându_'
'explore_'
'explorat'
'explaining_'
'experienţe_'
'expanding_'
'exonera'
'exit_'
'existenţei_'
'exhibit_'
'exhibit'
'exercite_'
'exemplul_'
'execuţi'
'executed_'
'executaţi_'
'excluded_'
'excise_'
'excepţie_'
'exceptionally_'
'examined_'
'examine_'
'examinate_'
'examinat_'
'ex'
'evoluţiile_'
'evolu'
'evidentă_'
'eve'
'evaluează_'
'europenii_'
'eur_'
'etichetare_'
'ethnicity_'
'etapele_'
'eta'
'estimate_'
'estate_'
'essentially_'
'escalation_'
'ern_'
'erm'
'eric'
'eri'
'ered_'
'equi'
'epurare_'
'enţă_'
'envisions_'
'entul_'
'ents_'
'enters_'
'ens'
'enhanced_'
'engineering_'
'energi'
'enduring_'
'encourages_'
'encountered_'
'ence'
'enc'
'enables_'
'ena_'
'emigran'
'emigr'
'emergence_'
'embr'
'embargo_'
'emba'
'elu'
'eliberării_'
'eli_'
'electorate_'
'elect'
'egi'
'ege'
'efficiently_'
'efectelor_'
'ees_'
'ee_'
'ediţia_'
'ecţi'
'ecological_'
'ecologi'
'echitabilă_'
'echipament_'
'echilibrată_'
'echilibrat_'
'eat_'
'ear'
'ean_'
'ean'
'dăunătoare_'
'dz'
'duration_'
'durat_'
'dur'
'duce'
'duc'
'dublă_'
'dubious_'
'ds'
'drumurile_'
'drum'
'drought_'
'dream_'
'draws_'
'dovede'
'dossier_'
'doriţi_'
'dorit'
'dorinţă_'
'doream_'
'dore'
'donations_'
'donat_'
'don'
'dominated_'
'dominat_'
'domestice_'
'dolari_'
'documentary_'
'dizabilităţi_'
'divizare_'
'diviz'
'divides_'
'divide_'
'diversiune_'
'dite'
'distr'
'distincţi'
'distance_'
'dist'
'disrupti'
'dispărut_'
'disputei_'
'dispusă_'
'dispun_'
'disponibilitate_'
'disperată_'
'disparit'
'disi'
'discut'
'discre'
'disarmament_'
'disappeared_'
'dis_'
'diplomaţie_'
'diplomaţi_'
'dioxid_'
'dinamica_'
'dim'
'dificultăţile_'
'differing_'
'diferiţi_'
'diferenţele_'
'diferenţa_'
'diferenţ'
'diferendelor_'
'diet'
'die'
'dica'
'dic_'
'deţină_'
'deţinut_'
'dezvoltă_'
'dezm'
'dezastruoase_'
'dezastrelor_'
'determinarea_'
'determinare_'
'detenţie_'
'detenţi'
'det'
'despăgubiri'
'desperate_'
'desired_'
'designate_'
'desfiinţa'
'deserve_'
'desemna'
'descurajat'
'descuraj'
'descoperiri'
'descoperi'
'deschiderii_'
'derulat_'
'ders_'
'dera'
'depăşite_'
'depăşim_'
'depăşeşte_'
'depăşesc_'
'depăşească_'
'depun_'
'depth_'
'depozite'
'deploy_'
'dependent'
'dep'
'den'
'demonstreze_'
'demonstrating_'
'democratizare_'
'democratically_'
'demersuri_'
'demararea_'
'delicat_'
'delegaţiei_'
'deg'
'deforestation_'
'definitivă_'
'definească_'
'deficitelor_'
'defense_'
'defen'
'dee'
'deco'
'declining_'
'declanşa_'
'deciding_'
'decedat_'
'daţi_'
'datează_'
'dat'
'dark_'
'dangers_'
'dali'
'dal'
'căutarea_'
'călătoriile_'
'călătoresc_'
'căi_'
'cădea_'
'câştigând_'
'cyber'
'cy'
'cus'
'curţi_'
'cure'
'cuprinse_'
'cunoştinţă_'
'cului_'
'cultures_'
'cular'
'cui'
'ctu'
'cted_'
'crossroads_'
'criticise_'
'criminalilor_'
'credits_'
'creditors_'
'creditare_'
'credibilă_'
'credibilitatea_'
'credibilitate_'
'crea'
'crat'
'counter'
'cotelor_'
'cotele_'
'costly_'
'corresponding_'
'correctly_'
'cooperarii_'
'conţinutul_'
'conţin_'
'convocat'
'convinşi_'
'convinge_'
'convey_'
'controverse_'
'controversată_'
'controlului_'
'contribuţiile_'
'contributes_'
'contrazice_'
'contractors_'
'contractele_'
'contracta'
'contracara_'
'contra_'
'continually_'
'contingent_'
'contain_'
'consumatorului_'
'consum'
'consultări_'
'consulting_'
'consultat'
'consular'
'constructi'
'constructed_'
'constraints_'
'constitui'
'constituents_'
'constau_'
'consolidated_'
'consistency_'
'consiliu_'
'considerations_'
'consensul_'
'consecinţelor_'
'conscience_'
'connect_'
'confrontation'
'conformit'
'confiscate_'
'confirmată_'
'confi'
'conecta'
'condolences_'
'condiţia_'
'condemning_'
'concuren'
'concur'
'concluzionat_'
'concessions_'
'concepts_'
'concentrăm_'
'concentrare_'
'conc'
'comunistă_'
'comunica_'
'compromisuri_'
'composed_'
'components_'
'component_'
'complot_'
'complete'
'complet'
'complement_'
'complain'
'compl'
'competenţelor_'
'competen'
'compensate_'
'compensat'
'compel'
'comparison_'
'comparabil'
'compara'
'comp'
'commerce_'
'comitology_'
'comfortable_'
'comercianţi'
'comerciali_'
'comentariu_'
'comenta'
'combination_'
'colect'
'coincided_'
'coerenţ'
'clădirea_'
'cluster'
'clonate_'
'clinici'
'climatului_'
'clienţii_'
'clients_'
'cles_'
'clarified_'
'clarifica'
'clarific_'
'cke'
'ciu'
'citizenship_'
'citit_'
'circumvent'
'circumstanţele_'
'circumstan'
'circulaţia_'
'circuit'
'cinema_'
'cincea_'
'cimitir'
'cifrele_'
'choosing_'
'chestiunilor_'
'checking_'
'characteristics_'
'characterise'
'character_'
'char'
'chaos_'
'championship_'
'cha'
'cetățeni'
'cerute_'
'ceremonies_'
'centrala_'
'cen'
'celebrated_'
'celebrate_'
'celebr'
'cel'
'ceasefire_'
'caţi'
'cauze'
'caute_'
'categoric_'
'catastrophic_'
'casei_'
'cartier_'
'cartel'
'carieră_'
'cari'
'caracteristicile_'
'capul_'
'captured_'
'capt'
'capitalului_'
'capitalul_'
'capabilities_'
'capabil_'
'cancerului_'
'cancell'
'cancel'
'campionatul_'
'calificat'
'băt'
'buying_'
'buyer_'
'but'
'busi'
'bus'
'burn'
'buni_'
'bun'
'bui'
'broken_'
'bri'
'break'
'breaches_'
'branch_'
'boys_'
'boundary_'
'bound_'
'bottom_'
'borne_'
'bordul_'
'boosted_'
'bombings_'
'bolilor_'
'boicota'
'bogate_'
'boat_'
'boast'
'bloody_'
'blog'
'blocului_'
'blocarea_'
'bloc'
'blind_'
'ble'
'blan'
'birocraţiei_'
'biodiversităţii_'
'binevenite_'
'bilit'
'bili'
'bi_'
'besi'
'berg_'
'ber_'
'benefică_'
'benefic_'
'beef_'
'bed'
'bariere_'
'banc'
'ballots_'
'bal_'
'bail_'
'bac'
'aţiile_'
'aţi'
'aşte'
'aw'
'aviz_'
'avi'
'aver'
'ave'
'avantaje_'
'avantaj'
'avansa'
'avans_'
'availability_'
'autorizate_'
'autorilor_'
'automotive_'
'autobuz'
'authentic_'
'audits_'
'audieri'
'aud_'
'atul_'
'attracted_'
'attempted_'
'attacking_'
'atric'
'atribui'
'ativ'
'atic_'
'ati_'
'ath'
'atenţi_'
'atel'
'atare_'
'atacul_'
'asumă_'
'asuma'
'assurance_'
'associations_'
'assisted_'
'assistants_'
'assign'
'assessments_'
'aspir'
'asociaţiilor_'
'asociaţii_'
'asociaţi'
'aso'
'asistent'
'asigurată_'
'ascunse_'
'ascun'
'asculta_'
'asasinate_'
'asalt'
'asa'
'arăta'
'arts_'
'article_'
'arriving_'
'armat_'
'arm_'
'arises_'
'arestările_'
'aren'
'arctică_'
'arabă_'
'arabe_'
'aproba_'
'apreciat_'
'aprecia'
'apprehend'
'appreciation_'
'appeals_'
'appealed_'
'apologise_'
'apologis'
'aplicabil'
'apela'
'ape_'
'ape'
'apariţia_'
'anywhere_'
'anunţul_'
'anunţ_'
'anuntat_'
'anularea_'
'antic_'
'antic'
'answered_'
'anski_'
'ans_'
'ano_'
'announce_'
'annex'
'anihila'
'anic_'
'anger_'
'angajat'
'anex'
'ande'
'anda'
'and'
'anchor'
'anchetei_'
'ancheta'
'ances_'
'anali'
'amânarea_'
'amânare_'
'amploarea_'
'aminteşte_'
'amiază_'
'amia'
'ameninţ'
'amen'
'ameliorarea_'
'ame'
'ambasade'
'amb'
'amabil'
'alăture_'
'aluzie_'
'aloc'
'allies_'
'alleg'
'alimentele_'
'alimentează_'
'aliaţi_'
'ali_'
'alerg'
'alegătorilor_'
'alegere_'
'ald'
'alb_'
'ala'
'aka_'
'aju'
'aja'
'aj'
'ain'
'ah'
'agres'
'agreeing_'
'ager'
'agent_'
'aga_'
'afraid_'
'afirma'
'afgană_'
'affi'
'aferente_'
'afecteze_'
'aeroport_'
'adăpost'
'advise'
'adunare_'
'aducând_'
'adreseze_'
'ado'
'admir'
'administrativ_'
'administered_'
'adjustment_'
'adevărată_'
'adaptare_'
'adapta_'
'ada_'
'acțion'
'acţi'
'acă_'
'acvacultură_'
'acuzându_'
'acumul'
'actul_'
'actualizat'
'actualele_'
'actorilor_'
'actele_'
'acres_'
'acr'
'acordare_'
'aco'
'acknowledging_'
'acknowledge_'
'achiziţion'
'achiziţii_'
'achi'
'aceluiaşi_'
'acelei_'
'accordingly_'
'accesibile_'
'accentul_'
'accentuează_'
'accent_'
'acce'
'ac'
'abstain_'
'absent'
'abortion_'
'abilă_'
'abate'
'Zoric_'
'Zona_'
'Zi'
'Zen'
'Zelaya_'
'Yves_'
'Yilmaz_'
'Yan'
'Xi'
'Xh'
'XX_'
'Wolfowitz_'
'Wolfgang_'
'Wisner_'
'Win'
'Week_'
'Web'
'Warsaw_'
'Wallis_'
'Vuj'
'Votarea_'
'Vorbi'
'Vlasic_'
'Visegrad_'
'Victor_'
'Vicepreşedintele_'
'Vară_'
'Vamal'
'Ur'
'Up'
'Unit'
'Uni'
'Undersecretary_'
'Unde_'
'Ultima_'
'Ult'
'Ucrainei_'
'US'
'UM'
'UDF_'
'Turk'
'Tur'
'Tudjman_'
'Trichet_'
'Transp'
'Trajkovski_'
'Topolánek_'
'Tir'
'Thomas_'
'Th'
'Teodor_'
'Television_'
'Tehran_'
'Tehnologi'
'Tassos_'
'Tas'
'Tal'
'Tajani_'
'Tadjikistan_'
'TR'
'TFTP_'
'Søndergaard_'
'Sârbe_'
'Sâ'
'Svetla_'
'Susţin'
'Sup'
'Subs'
'Subliniind_'
'Stoi'
'Steiner_'
'Stefanovic_'
'Stavr'
'Status_'
'Statistică_'
'Statisticile_'
'Statistical_'
'Starting_'
'Spun'
'Spiric_'
'Sp'
'Soren_'
'Soon_'
'Sondajele_'
'Som'
'Solidaritate_'
'Sol'
'Sokol'
'Societăţii_'
'Slovaciei_'
'Slo'
'Ska'
'Sistemului_'
'Sioufas_'
'Simitis_'
'Sie'
'Shkodra_'
'Shi'
'Shalit_'
'Shafak_'
'Ses'
'Sep'
'Senate_'
'Sel'
'Securitatea_'
'Sector_'
'Section_'
'Sect'
'Secretarului_'
'Sec'
'Sea'
'Schuman_'
'School_'
'Sche'
'Sas'
'Sara'
'San'
'Sam'
'Salutăm_'
'Sai'
'SH'
'SEPA_'
'SEECP_'
'Răzvan_'
'Rü'
'Rus'
'Rural_'
'Rupel_'
'Rudovic_'
'Rr'
'Road'
'Rist'
'Rie'
'Rh'
'Rest'
'Respect'
'Republican_'
'Reporting_'
'Ref'
'Reding_'
'Reconstruction_'
'Recent_'
'Rauf_'
'Rat'
'Rah'
'Radmila_'
'Radio'
'Radicals_'
'Rac'
'RTS_'
'ROL_'
'RECOM_'
'Qua'
'Qimonda_'
'Pă'
'Pur'
'Pun'
'Protocolul_'
'Protecţie_'
'Programului_'
'Program'
'Proeski_'
'Producătorii_'
'Prodi_'
'Procurorul_'
'Problem'
'Privi'
'Primarul_'
'Prim'
'Premier'
'Prelec_'
'Portuguese_'
'Port'
'Popovic_'
'Polit'
'Poli'
'Pole'
'Please_'
'Platform'
'Pir'
'Philipp'
'Petre_'
'Petitions_'
'Paul'
'Participants_'
'Parteneriatul_'
'Pand'
'Paliadeli_'
'Pahor_'
'Pagina_'
'Pachetul_'
'PE'
'PD_'
'Over'
'Out_'
'Oslo_'
'Ortodoxe_'
'Orest'
'Ore'
'Oraşul_'
'Opt_'
'Ombudsmanului_'
'Oil_'
'Oh'
'Od'
'Obviously_'
'Obradovic_'
'OMV_'
'ODIHR_'
'Nowadays_'
'Novak_'
'Nou_'
'Non_'
'Neza_'
'Nen'
'Nazi_'
'Nat'
'Nastase_'
'Nada_'
'Nad'
'NTV_'
'Muzic'
'Mun'
'Mount'
'Mos'
'Morocco_'
'Moratinos_'
'Mora'
'Montenegrins_'
'Monetar_'
'Mode'
'Mobi'
'Mit'
'Mini'
'Miller_'
'Millennium_'
'Military_'
'Milanovic_'
'Meron_'
'Men'
'Mediu_'
'Medi'
'Med'
'Matthew_'
'Mat'
'Marty_'
'Maroc_'
'Marnhac_'
'Mario_'
'Marinescu_'
'Mare_'
'Manager_'
'Mam'
'Malev_'
'Male'
'Mala'
'Majko_'
'Main'
'Mail_'
'Macovei_'
'MT_'
'MD'
'MAP_'
'Lukashenko_'
'Love_'
'Lor'
'Ljubo'
'Ljubljanska_'
'Lithuanian_'
'Lit'
'List_'
'Lis'
'Limaj_'
'Lil'
'Libert'
'Leterme_'
'Leon'
'Legătur'
'Lebanese_'
'Leakey_'
'Lazic_'
'Lazarova_'
'Lavrov_'
'Lamberto_'
'Lagumdzija_'
'Laden_'
'Kus'
'Kur'
'Kuneva_'
'Kumanovo_'
'Krst'
'Kroes_'
'Kr'
'Kosovars_'
'Kosanovic_'
'Kor'
'Kohavision_'
'Koha_'
'Kn'
'Kir'
'Ken'
'Kare'
'Kalan'
'Kal'
'KADEK_'
'Juncker_'
'Jud'
'Jov'
'Jon'
'Johnson_'
'Jen'
'Jansa_'
'Jankulovska_'
'James_'
'Jagodina_'
'Ja'
'Iz'
'Ivanic_'
'Iugoslavă_'
'Iu'
'Italiei_'
'Isa'
'Irakul_'
'Ira'
'Io'
'Introducerea_'
'Intelligence_'
'Integrare_'
'Insulele_'
'Insu'
'Implementation_'
'Iceland_'
'ISAF_'
'IRE'
'IF'
'ID'
'ICC_'
'Hus'
'Heritage_'
'Her_'
'Hen'
'Hein'
'Hara'
'Hans_'
'Han'
'Hama'
'Ham'
'Hali'
'Had_'
'HS'
'Gând'
'Gue'
'Gross'
'Grand_'
'Gok'
'Goals_'
'Gj'
'Gheorghe_'
'Geo'
'Genc_'
'Gates_'
'Gar'
'GN'
'GA'
'G8_'
'Future_'
'Furtuna_'
'Franţei_'
'Fot'
'Forţa_'
'Ford_'
'Flori'
'Five_'
'Fisheries_'
'Finnish_'
'Finci_'
'Fighting_'
'Ferr'
'Ferate_'
'Femeile_'
'Feith_'
'Federaţiei_'
'Fashion_'
'FRONTEX_'
'FENA_'
'Explo'
'Exit_'
'Evident_'
'Everyone_'
'Evaluarea_'
'Eri'
'English_'
'Emp'
'Eight_'
'Eforturile_'
'Efforts_'
'Edi'
'Economist_'
'Ecolabel_'
'Ec'
'EVN_'
'EUPM_'
'ETA_'
'ESF_'
'ERDF_'
'EPP_'
'EL'
'EF'
'Dz'
'Durão_'
'Dumneavoastră_'
'Duminică_'
'Dum'
'Dre'
'Dozens_'
'Dori'
'Dom'
'Does_'
'Documentar'
'Djordjevic_'
'Dj'
'Ditore_'
'Disputa_'
'Disp'
'Discu'
'Direcţi'
'Director'
'Diploma'
'Dim'
'Dez'
'Deve'
'Design'
'Desc'
'Denis_'
'Democraţii_'
'Democratice_'
'Delta_'
'Delegaţia_'
'Davidovic_'
'Dat_'
'Danemarca_'
'Da_'
'DI'
'DG_'
'DEM_'
'Că'
'Czechs_'
'Customs_'
'Cuban_'
'Croată_'
'Crisis_'
'Cre'
'Could_'
'Cotonou_'
'Corupţia_'
'Cop'
'Controlul_'
'Contra'
'Construcţia_'
'Constituţionale_'
'Constantin'
'Conse'
'Confedera'
'Concordia_'
'Comun'
'Componenţa_'
'Companiile_'
'Compa'
'Comitetului_'
'Comitetul_'
'Comandantul_'
'Cohn_'
'Coaliţia_'
'Clark_'
'Civil'
'Christo'
'Christmas_'
'Christie_'
'Chişinău_'
'Chiarini_'
'Chan'
'Championships_'
'Cea'
'Caspian_'
'Case'
'Cas'
'Carte_'
'Captain_'
'Campania_'
'Cal'
'Cairo_'
'CIJ_'
'CF'
'CEO_'
'CEDO_'
'CC'
'Bă'
'Bytyci_'
'Buyukanit_'
'Butmir_'
'Burs'
'Bujar_'
'Budapest_'
'Brahimaj_'
'Br'
'Bou'
'Boel_'
'Boeing_'
'Blo'
'Bli'
'Bisericii_'
'Bin'
'Bill_'
'Bilgi_'
'Best_'
'Besim_'
'Bern'
'Beri'
'Bendit_'
'Barbutov_'
'Baran_'
'Baltică_'
'Ball'
'Baj'
'BTA_'
'BDP_'
'BCE_'
'B7_'
'Austr'
'Assistance_'
'Asked_'
'Asian_'
'Arts_'
'Articolul_'
'Arta_'
'Arrest'
'Armenians_'
'Arena_'
'Arch'
'Arben_'
'Aquila_'
'Aprobarea_'
'Apo'
'Anu'
'Antonela_'
'Antic_'
'Antalya_'
'Ant'
'Anna_'
'Angelilli_'
'Angel'
'Ang'
'Andy_'
'Andreas_'
'Analiz'
'Amariei_'
'Alţii_'
'Alp'
'Allow_'
'Alina_'
'Alic_'
'Alegătorii_'
'Albaneze_'
'Ala'
'Aktar_'
'Aid_'
'Ahmeti_'
'Agron_'
'Agenţiile_'
'Adresându_'
'Acţiune_'
'Acord_'
'Ab'
'APE_'
'AMBO_'
'A1_'
'?''
'?", _'
'97_'
'94_'
'91_'
'88_'
'75'
'67'
'66'
'4m_'
'38'
'29'
'2030_'
'1994_'
'1988_'
'175_'
'120m_'
'116_'
'00'
'...'
'. '
') - _'
'' '
'%'
'"'
' “_'
' ._'
' -(_'
' -'
'”: _'
'”'
'ționa'
'științ'
'șit'
'ţărmu'
'ţă'
'ţând_'
'ţul_'
'ţione'
'ţionar'
'ţinuţi_'
'ţin'
'ţie'
'ţelu'
'ţel_'
'ţea'
'ţare_'
'ţa'
'Ţinând_'
'Ţicău_'
'ştiinţ'
'ştiau_'
'şti'
'şter'
'şomer'
'şoca'
'şoc'
'şit_'
'şit'
'şilor_'
'şefului_'
'şea'
'şe_'
'şcolar'
'şat_'
'şantierele_'
'Ştir'
'Ştim_'
'Ştiinţe'
'Şo'
'ň'
'ățil'
'ăş'
'ătu'
'ători_'
'ăto'
'ăru'
'ământul_'
'ă'
'își_'
'înţelept'
'înţelegem_'
'înţele'
'înşişi_'
'înălţimea_'
'înveţe_'
'înverşuna'
'învecinate_'
'înv'
'întărirea_'
'întări'
'întărească_'
'întâmpină'
'întâmpina_'
'întâmpina'
'întâlneşte_'
'întâ'
'întruni'
'întreruperi'
'întreba'
'întor'
'întocmit_'
'întoarce'
'întemeiază_'
'întemeiat'
'înte'
'însănătoşire_'
'însuşi_'
'înse'
'înrăutăţi'
'înregistrări'
'înr'
'înmormânta'
'înlocuie'
'îngheţat'
'îngheţarea_'
'înflori'
'înfiin'
'îndrăzne'
'îndrept'
'îndo'
'îndepărteze_'
'îndeosebi_'
'îndelungate_'
'îndelungat_'
'îndelung_'
'îndator'
'încălzirea_'
'încălcate_'
'încântaţi_'
'încântată_'
'încurajaţi_'
'încurajato'
'încurajat_'
'închiderii_'
'închid'
'încheierii_'
'încetă'
'încetini'
'încetinea'
'încep'
'încadr'
'înaintată_'
'înainta_'
'împărţite_'
'împărtăşi'
'împu'
'împrumutul'
'împrumut'
'împrejur'
'împovăra'
'împo'
'împiedice_'
'împ'
'îmbunătăţită_'
'îmbunătăţim_'
'îmbunătăţi'
'î'
'état_'
'én'
'ä'
'âng'
'ác'
'Întreruperea_'
'Înde'
'Înalt'
'Îna'
'Împărtăşesc_'
'Împ'
'Îmbunătăţirea_'
'zător'
'zări_'
'zur'
'zoni'
'zon'
'ziu'
'zio'
'zie'
'zidului_'
'zice'
'ziare_'
'ziar_'
'zia'
'zer'
'zb'
'zaţi_'
'zar'
'yours'
'youngest_'
'yle_'
'yev'
'ych'
'yc'
'xp'
'xo'
'xa'
'www_'
'wri'
'wound'
'worsen'
'worried_'
'workshops_'
'wne'
'wl'
'wit'
'wishing_'
'wise'
'winning_'
'window_'
'win'
'wild_'
'wic'
'wholly_'
'who'
'whereabouts_'
'west_'
'weapon_'
'wealth'
'weakening_'
'weakened_'
'weak'
'wb'
'watch'
'warm_'
'waiver_'
'wai'
'vânzare_'
'vândute_'
'vulnerabilă_'
'vul_'
'vu'
'vow'
'voturile_'
'votează_'
'votarea_'
'vota'
'vorbit'
'vorb'
'volunteer_'
'volunteer'
'voluntariatul_'
'volatil'
'vola'
'vocal'
'voca'
'voastră_'
'voa'
'vni_'
'viziuni'
'viziunea_'
'vizitatori_'
'vizele_'
'viza_'
'visi'
'vir'
'violating_'
'vinului_'
'vill'
'vil'
'vii_'
'viewing_'
'vid'
'victorie'
'victor'
'vich_'
'veterinar'
'vestică_'
'versu'
'versiune_'
'versi'
'verii_'
'verificări_'
'verific'
'ver'
'veniţi'
'venitul_'
'venite_'
'venezuel'
'vely_'
'veli'
'ved_'
'vecinătatea_'
'vechi'
'vec'
'vasele_'
'vas_'
'varying_'
'varie'
'valutar'
'valoro'
'vaccin'
'vacanţă_'
'uţi_'
'uza'
'utiliz'
'utilised_'
'utile_'
'usly_'
'ush'
'uses_'
'urt_'
'uro'
'urne'
'urn'
'următorului_'
'următoarelor_'
'urmărire_'
'urmărească_'
'urmaţi_'
'urmau_'
'uris'
'uria'
'urg'
'urcat_'
'urbani'
'urat'
'ur'
'ups_'
'uphold_'
'upgrades_'
'upe'
'unăt'
'unz'
'unwilling_'
'unu'
'unsuccessful_'
'unstable_'
'unspe'
'unsa'
'unpre'
'unl'
'universităţil'
'university_'
'universale_'
'universal'
'unităţile_'
'unit'
'unis'
'uniquely_'
'unilor_'
'unile_'
'unifying_'
'uniforme_'
'uniform'
'unificat'
'unificarea_'
'unh'
'ung'
'unfa'
'uneşte_'
'unequ'
'undă'
'undertaking_'
'undert'
'underpin'
'undermines_'
'underdeveloped_'
'undemocratic_'
'und_'
'uncover'
'uncontrolled_'
'unconst'
'unco'
'uncertainties_'
'unce'
'unauthorised_'
'unanim_'
'umul'
'umit'
'umi'
'umbr'
'ultranaţionali'
'ultim_'
'ulterioară_'
'ulterioare_'
'ula_'
'uka'
'uitat'
'uin'
'ughts_'
'uge'
'ues_'
'uer'
'ud_'
'uct'
'ucrainene_'
'ucraine'
'ucigaş'
'uce'
'uare'
'uali'
'ual'
'ua'
'tăţe'
'tării_'
'tăi'
'tăcere_'
'tânără_'
'tând_'
'tz_'
'tyres_'
'tyr'
'typical_'
'twin_'
'turistic_'
'turi'
'turci'
'turcesc_'
'turbulent'
'tunelu'
'tuberculo'
'tto_'
'trăit_'
'trăin'
'trăiască_'
'truck'
'truc'
'trivi'
'triumf'
'trio'
'trimişi_'
'trimitem_'
'trimestr'
'trim'
'tril'
'trigger_'
'tribunalelor_'
'trezi'
'trenu'
'tremor_'
'tremendous'
'tree_'
'trecutului_'
'trec_'
'travelled_'
'travele'
'trataţi_'
'tratată_'
'trata_'
'trasă_'
'tras'
'trap'
'tranşe_'
'tranzitori'
'transpunerea_'
'transportă'
'transporturile_'
'transplantu'
'transplantation_'
'transparenţei_'
'transnaţionale_'
'transn'
'transmitem_'
'transmite'
'transmisi'
'translate'
'transformă'
'transform_'
'transferurilor_'
'transfere_'
'transferarea_'
'transfera_'
'transcri'
'transatlantică_'
'trail'
'tragedii_'
'tragedie'
'traficanţilor_'
'traducere'
'tradiţională_'
'tradiţii_'
'tradiţie'
'trace'
'tp'
'toți_'
'towers_'
'torul'
'tori_'
'torch_'
'topi'
'tonight_'
'tomat'
'toleranţ'
'tol'
'toarea_'
'toamnei_'
'tl'
'tiţ'
'tizare'
'titut'
'titular'
'titluri_'
'titl'
'tira'
'tir'
'tio'
'tint'
'tini'
'tineret_'
'tind'
'timpuri'
'tiil'
'tighter_'
'tif'
'tie_'
'tid'
'tici'
'tica'
'thw'
'throwing_'
'thri'
'thousand_'
'tho'
'thirdly_'
'thinks_'
'theft_'
'tezi'
'textiles_'
'textelor_'
'testify_'
'testele_'
'terr'
'terorismul_'
'termină_'
'termination_'
'terminare'
'termin'
'teritoriului_'
'terea_'
'teoretic'
'tenta'
'tent_'
'tens_'
'tendencies_'
'tempt'
'temperature_'
'temperatur'
'temp'
'temer'
'temele_'
'temei_'
'teme'
'tematic'
'telecomunica'
'telecommunications_'
'tehnologiile_'
'tehnologice_'
'tehnici'
'teen'
'techn'
'team'
'teaching_'
'teaches_'
'teacher_'
'taxei_'
'taught_'
'tatii_'
'tară_'
'taril'
'tariffs_'
'tarife'
'targeting_'
'tapping_'
'tapped_'
'tap'
'tant'
'tank_'
'tandem_'
'tanc'
'talented_'
'tale_'
'tail'
'tactics_'
'tackled_'
'tabling_'
'tables_'
'tabere_'
'tabe'
'sătur'
'sări'
'sărbători_'
'sărbătoresc_'
'săr'
'săptămânii_'
'sârb'
'sz'
'systematic_'
'synergies_'
'symp'
'swift_'
'sweep_'
'suveranitate_'
'susţinător_'
'susţinem_'
'sustenabil'
'sustain_'
'sustain'
'suspending_'
'suspendată_'
'suspend_'
'suspecte_'
'suspectaţi_'
'suspectate_'
'susp'
'survived_'
'surprise_'
'surpris'
'surprinzăto'
'suprima'
'suprem'
'supravieţuirea_'
'supravieţuir'
'supraveghea_'
'supraveghe'
'supra_'
'supplement'
'suporter'
'suportat'
'supervis'
'supermarketuri_'
'superioare_'
'superi'
'sumbră_'
'sul'
'suit'
'suicide_'
'sui'
'suggestion_'
'sugestii'
'sugestia_'
'sugerez_'
'sugerau_'
'suferite_'
'suferinţă_'
'suedez_'
'sued'
'sudică_'
'succeso'
'succesi'
'succes'
'subvenţion'
'subvenţiilor_'
'suburb_'
'suburb'
'subt'
'substanţă_'
'substanţe_'
'subsidis'
'subsidiary_'
'subsidiaritate_'
'subsidiari'
'subsid'
'subord'
'subminează_'
'sublinieze_'
'subiectului_'
'subestima'
'stătea'
'stăpânire_'
'stârne'
'stâ'
'sty'
'studying_'
'studiului_'
'studiile_'
'studia'
'studentă_'
'stuck_'
'străzi_'
'străinilor_'
'străin'
'străduim_'
'strigăt'
'stretch'
'streamlining_'
'strategi'
'strange_'
'strained_'
'stradă_'
'stor'
'stops_'
'stocks_'
'stock_'
'stocare'
'stitui'
'stipulated_'
'stipulate_'
'stimulus_'
'stimuleze_'
'stimulentel'
'stimulent_'
'stimul_'
'sticlă_'
'stick_'
'ster'
'stemming_'
'steering_'
'staţie_'
'statisticilor_'
'statistice_'
'statesm'
'statale_'
'standstill_'
'standby_'
'stan_'
'stalled_'
'stakes_'
'stages_'
'st'
'ssn'
'ssit'
'ssi'
'ssed_'
'spusel'
'spunea_'
'sprijiniţi_'
'sprijinite_'
'spots_'
'sportivi_'
'sporind'
'sponsori'
'spon'
'spiritu'
'spheres_'
'sphere_'
'speranţele_'
'sperant'
'speed'
'speculati'
'spectatori_'
'spectacul'
'spectacolul_'
'specified_'
'specialişti_'
'spate_'
'spaniole_'
'spa'
'sp'
'sovietic'
'sors_'
'sop'
'sooner_'
'songs_'
'sondaj'
'somebody_'
'solving_'
'solul'
'solu'
'solicitărilor_'
'solicitările_'
'solicitanţilor_'
'solicit'
'soli'
'soldat_'
'solară_'
'socoteală_'
'sociologist'
'social'
'soar'
'snow_'
'sna'
'smului_'
'smoothly_'
'smokers_'
'smen'
'sman'
'slujbe_'
'slu'
'slovene_'
'slogans_'
'sle'
'slave_'
'slav_'
'slav'
'slaughter_'
'slalom_'
'slaba_'
'sixth_'
'sively_'
'situată_'
'situa'
'sittings_'
'sistematice_'
'sistemati'
'sis_'
'sis'
'sirian_'
'sinucideri'
'singure_'
'sinergie_'
'sindicatului_'
'sinceritate'
'simţit'
'simţ_'
'simula'
'simplifying_'
'simpler_'
'simpl'
'simbolic'
'silent_'
'silence_'
'sigura'
'signatures_'
'signatory_'
'sign'
'sided_'
'side'
'sib'
'sia_'
'shr'
'shout'
'shot'
'shortages_'
'shopping_'
'shoot'
'shocking_'
'shin'
'shelve'
'shelter'
'sheet'
'sheep_'
'shar'
'sham'
'shal'
'shake_'
'sh'
'sfa'
'sezon_'
'severă_'
'sever_'
'seventh_'
'sesiunile_'
'servi_'
'servească_'
'servants_'
'seriousness_'
'serii_'
'separated_'
'separat'
'sentenced_'
'sent'
'sensible_'
'sensibilă_'
'sensibiliz'
'sensibilit'
'semnătur'
'semnifica'
'semnează_'
'semn'
'semifinal'
'selective_'
'selectiv'
'selecta'
'sein'
'segments_'
'seful_'
'sef_'
'securi'
'seculari'
'secu'
'sections_'
'sect'
'secretariat_'
'seconds_'
'seco'
'searching_'
'seals_'
'sd'
'scăpa'
'scăde'
'scă'
'scutirea_'
'scrutinul'
'scrutin_'
'scrisă_'
'scriitor'
'screen'
'scored_'
'scoate_'
'schimbului_'
'schemes_'
'schedule_'
'sch_'
'sceptics_'
'sceptici_'
'scene'
'scenari'
'scandaloas'
'scade'
'satellite_'
'sat'
'sarcinilor_'
'sanitar_'
'sanitar'
'sanct'
'sam'
'salveze_'
'salv'
'războiul_'
'războaie'
'răsturnarea_'
'răspândite_'
'răspândire'
'răspândi'
'răspunsurile_'
'răspun'
'răscruce_'
'răpi'
'rămase_'
'răm_'
'rută_'
'rusesc_'
'rupem_'
'runde_'
'rulings_'
'ruine'
'rug'
'ruc'
'rtă'
'rtului_'
'rto'
'rromi_'
'root_'
'românii_'
'roman_'
'robust_'
'rnat'
'rn_'
'rmed_'
'rma'
'rm'
'rko'
'rizarea_'
'rivali'
'rises_'
'risc'
'ringe'
'rimi'
'rim_'
'rim'
'rigid_'
'rift_'
'ridicol'
'richer_'
'rica'
'ric_'
'rian_'
'ria'
'reţin'
'rezonabil'
'rezolvare_'
'rezolv'
'rezistenţ'
'rezervate_'
'revoluţie'
'revoluţia_'
'revoltă'
'revoltele_'
'revoke_'
'revocarea_'
'revizuită_'
'revizuite_'
'reviste_'
'reviewed_'
'reve'
'rev_'
'reuşită_'
'reuşim_'
'reuşesc_'
'reuneşte_'
'retr'
'reta'
'resume_'
'restrâns'
'restructurării_'
'restructurarea_'
'restricţionat'
'restriction_'
'restrain'
'restitui'
'restaurant_'
'restabil'
'ress_'
'responsabili'
'respingând'
'respingerea_'
'resping'
'respi'
'respectând_'
'respectului_'
'respectful'
'respectare_'
'resource_'
'resorts_'
'resolute'
'resilience_'
'residing_'
'residential_'
'reside'
'resi'
'reservations_'
'researchers_'
'republică_'
'republicii_'
'rept'
'reproductive_'
'reprodu'
'reprezentăm_'
'reprezentan'
'reprezenta'
'repetă'
'repete_'
'reopening_'
'reopen'
'renumit_'
'rene'
'remunera'
'remo'
'remittances_'
'reminded_'
'remembering_'
'remembered_'
'remarcile_'
'remarci_'
'rem'
'reluctan'
'reluat_'
'relo'
'religii_'
'religia_'
'relie'
'rele'
'relax'
'relationships_'
'relati'
'relatat_'
'reject'
'reiterez_'
'reint'
'reinsta'
'reimbursement_'
'reia_'
'regulă_'
'regulată_'
'regulat'
'regularitate_'
'regula_'
'regretabilă_'
'regret'
'reglementării_'
'reglementată_'
'regizorul_'
'regizată_'
'registering_'
'regina_'
'regi'
'rege'
'rega'
'refuzat'
'refugiat_'
'reformist_'
'reflecte_'
'reflect'
'refinanţa'
'references_'
'reexamin'
'reduces_'
'reducerile_'
'redress_'
'redres'
'redactarea_'
'red'
'recâştiga'
'recurge'
'recuperare_'
'recunoscută_'
'recunos'
'recunoaşterii_'
'recunoa'
'recover'
'recording_'
'reconstruirea_'
'reconfigura'
'reconciliere_'
'recomand'
'recolt'
'recogni'
'reclama'
'recipients_'
'recicla'
'reception_'
'recentele_'
'recall'
'recali'
'rebuild_'
'rebels_'
'rebeli'
'rează_'
'reassure_'
'reasse'
'realizările_'
'realizabil'
'realit'
'realiste_'
'realism_'
'realis'
'real'
'reaffirmed_'
'reacţii_'
'reacţi'
'reactions_'
'reacti'
'rdin'
'rdani'
'rci'
'rch'
'rca_'
'rca'
'rb'
'rationale_'
'rational'
'ration'
'ratifice_'
'ratificare_'
'ratel'
'rated_'
'rat_'
'ras'
'rar'
'raportorilor_'
'raportori_'
'raportoarei_'
'ranking_'
'ramifica'
'rama'
'rain_'
'rai'
'raged_'
'radiodifuziune_'
'radioactive_'
'rac'
'rab'
'quote_'
'questioning_'
'quantities_'
'quantitative_'
'qualify_'
'qi'
'păsări_'
'păstrate_'
'părăsi_'
'părut_'
'puţini_'
'puşi_'
'puternic'
'put'
'pushing_'
'purtător_'
'pursu'
'pure_'
'pur'
'punând_'
'pull'
'publish_'
'publicată_'
'publica_'
'public'
'pto'
'pti'
'ptare'
'psychological_'
'psychologi'
'psy'
'prăbuşire'
'prăbuş'
'provocation'
'proving_'
'provine_'
'provenite_'
'provenind_'
'protocolului_'
'protestul'
'protesting_'
'protestelor_'
'protestează_'
'protestatari'
'protejează_'
'protecţionism_'
'protectorate_'
'protect'
'prot'
'prosperitatea_'
'prospecti'
'prosecutions_'
'prosecut'
'propună_'
'propun'
'proprietate_'
'proprietar'
'pronunţată_'
'prompti'
'promot'
'promiţând_'
'promite_'
'promisiunile_'
'promi'
'prolifer'
'prohibited_'
'prohibit_'
'progresa_'
'progres'
'program'
'profunde_'
'profound_'
'profituri_'
'profitul_'
'profita'
'profit'
'profesorii_'
'profeso'
'profesionist'
'profesion'
'profesii'
'produsă_'
'produsului_'
'producător'
'producătoare_'
'producem_'
'produce'
'procuratura_'
'proclamă'
'proclamat'
'proceeds_'
'procedăm_'
'proce'
'proc'
'proastă_'
'prize'
'priviţi_'
'privinta_'
'privileges_'
'privilege'
'privi_'
'privește_'
'prive'
'pripite_'
'prioriti'
'priorita'
'printing_'
'primir'
'primind_'
'primim_'
'primi'
'prime'
'primarului_'
'prima'
'prim'
'prietenie_'
'prieteni_'
'președinte_'
'preţui'
'preţ'
'preşedinţii_'
'preziden'
'prezidat_'
'prezentării_'
'prezentei_'
'prevenim_'
'prevail'
'pretind'
'pretenţi'
'prete'
'presupusul_'
'presupuse'
'presupu'
'prestigio'
'presiunii_'
'presid'
'preserv'
'prerogative'
'prepar'
'preocupaţi_'
'pren'
'premiu_'
'premature_'
'prele'
'prejudici'
'prejudice'
'pregătiri'
'pregătesc_'
'pregnan'
'preferinţ'
'predominant'
'predicted_'
'predic'
'predecesorul_'
'predat'
'pred'
'preconiz'
'precizez_'
'precipit'
'precious_'
'precauţie_'
'precauţi_'
'preca'
'pragmatic'
'practici'
'practically_'
'practicality_'
'practi'
'pping_'
'pped_'
'povestea_'
'poultry_'
'posturile_'
'posts_'
'poster'
'posibilităţi_'
'posi'
'poses_'
'posed_'
'pose'
'portul_'
'portughez'
'portofoliu_'
'porto'
'portfolios_'
'populaţiilor_'
'popular'
'popoarelor_'
'popoarele_'
'pompieri_'
'pom'
'poluării_'
'poloneză_'
'pollution_'
'polluting_'
'polluters_'
'polling_'
'poliţişti'
'poliţienească_'
'politie'
'politici'
'policemen_'
'poduri_'
'poarta_'
'pneuril'
'plăţilor_'
'plăţile_'
'plângerile_'
'plângere'
'pluralist'
'pluralismul_'
'plot'
'plin_'
'pli'
'pled'
'platforme_'
'plaseze_'
'plasate_'
'planificări'
'planificare_'
'planific'
'planetă_'
'plain'
'plafon'
'pl'
'pk'
'pitali'
'pirate'
'pira'
'piloni_'
'pillar_'
'pill'
'piete'
'piesă_'
'piese_'
'piesa_'
'pierdute_'
'pierdere_'
'picture'
'picior_'
'piatră_'
'physicians_'
'phy'
'phrase'
'photos_'
'pher'
'phe'
'phase'
'pharmac'
'phant'
'phan'
'petrec_'
'petrec'
'pet_'
'pesticide_'
'pessimistic_'
'pescari'
'pes_'
'pes'
'perturba'
'personaj'
'persistent'
'perpetrators_'
'permiterea_'
'permit'
'permisiunea_'
'perio'
'periculos_'
'periculoasă_'
'performanţelor_'
'performanţe_'
'perfect'
'perete_'
'perceput'
'percep_'
'pensioners_'
'pensiile_'
'pensa'
'peninsula_'
'penaliza'
'pelicul'
'peisajul'
'pedepse_'
'pedeapsa_'
'peacefully_'
'paşapo'
'pavilion_'
'paves_'
'pav'
'pau'
'pattern_'
'patron'
'patriot'
'patri'
'patience_'
'pati'
'patern'
'pasă_'
'past'
'passion'
'passenger_'
'partly_'
'participativ'
'participare_'
'part'
'parliamentarian'
'parlamentarul_'
'paras'
'paran'
'paramilitary_'
'pap'
'pair_'
'painful_'
'pagube_'
'pact'
'pacienţii_'
'pacient'
'pachete_'
'oşi_'
'oş'
'oys_'
'owe_'
'overwhelmingly_'
'oversight_'
'oversee'
'overs'
'overlo'
'outset_'
'outs_'
'outla'
'ouri_'
'our'
'ound'
'oulos_'
'oul_'
'oul'
'ough'
'ots'
'otis'
'osul_'
'oste'
'ostatici'
'osit'
'osi'
'ose'
'osa'
'ortu'
'ortodo'
'orte'
'orn'
'orm'
'oriunde_'
'ories_'
'orientarea_'
'orientare_'
'orient'
'oricărui_'
'oricum_'
'oricine_'
'organizării_'
'organization'
'organizat'
'organelor_'
'ordinat'
'ordinar'
'orders_'
'oral'
'opţiunile_'
'opus'
'optimismul_'
'optim'
'opti'
'opted_'
'opt'
'oprire'
'opri'
'opoulou_'
'oportunităţilor_'
'oportunităţile_'
'opol'
'opere'
'operativ'
'operare_'
'opera_'
'ope'
'op_'
'onwards_'
'onorat'
'onoarea_'
'onoare_'
'ong_'
'oneze_'
'onest'
'ond'
'onat'
'onary_'
'onar'
'omite'
'olul'
'ologică_'
'oll'
'olive_'
'ole_'
'ola'
'oko'
'ok_'
'oiu'
'ografi'
'ogic'
'oga'
'offender_'
'offence_'
'ofertele_'
'oferte_'
'oferte'
'ofensiv'
'oes_'
'ods'
'odi'
'oda_'
'ocup'
'ocrat'
'ocr'
'ock_'
'ock'
'occur_'
'occupied_'
'occidentali_'
'oc_'
'obstrucţion'
'obsession_'
'observăm_'
'observer_'
'observatori_'
'observations_'
'observare'
'obsc'
'obligaţiunilor_'
'obligate_'
'obliga'
'objection_'
'objected_'
'obişnuiţi_'
'obiecte'
'obe'
'oat'
'oarel'
'oanele_'
'o'
'nţă_'
'nţi_'
'nţi'
'nţele_'
'nţ'
'născuţi_'
'nun'
'numiţi_'
'numita_'
'numerar_'
'numer'
'ntur'
'ntul_'
'nto'
'ntl'
'nting_'
'nt'
'nsă'
'nsul'
'nstr'
'nst'
'now'
'noticeable_'
'noti'
'not'
'normalising_'
'normali'
'nordic'
'nonsens'
'nonetheless_'
'nominaliza'
'nomin'
'nom'
'nob'
'nne'
'nn'
'nja'
'nj'
'nis_'
'nis'
'nimănui_'
'niilor_'
'niei_'
'niciuneia_'
'ngu'
'nge'
'neînţeles_'
'newest_'
'nevoiţi_'
'nevoit_'
'nevoit'
'nevoii_'
'nevinovat_'
'nevinova'
'neutral_'
'ness'
'nesoluţionate_'
'nesatisfăcătoare_'
'nerezolvate_'
'nerabil'
'ner'
'nepro'
'nepo'
'neoliberal_'
'nen'
'nemulţumit'
'nel_'
'nel'
'neighbourly_'
'neighboring_'
'negotiators_'
'negociem_'
'neglija'
'negl'
'nefericit'
'nef'
'necorespunzător_'
'necondiţionată_'
'necon'
'neco'
'necl'
'necesităţile_'
'necesităţii_'
'necesitate_'
'necesarul_'
'neau'
'nească_'
'nearby_'
'nea_'
'nding_'
'ndi'
'nde_'
'nch_'
'nca'
'naționale_'
'naţionaliştii_'
'naţionalit'
'naţionaliste_'
'naţionalist_'
'naţionalismul_'
'navigation_'
'naval'
'national'
'nate'
'natală_'
'natal_'
'narcotic'
'nan'
'nam'
'nali'
'naiv'
'nac'
'nabil'
'măsura'
'mărime_'
'mării_'
'mândru_'
'mând'
'mâncare_'
'muzica'
'mutila'
'mut'
'musulmană_'
'musicians_'
'muri'
'muntenegreană_'
'municipalit'
'municipale_'
'munic'
'muni'
'muncitoare_'
'munce'
'mun'
'mulți_'
'mulţumiri_'
'mulţumi_'
'multitud'
'multilingvism'
'multilateral'
'multietnice_'
'multicultural'
'multianual_'
'multiannual_'
'mpi'
'moţiune_'
'moştenit'
'moştenirea_'
'moş'
'mount'
'motto_'
'motor'
'motives_'
'motivated_'
'motivate_'
'mot'
'mortal_'
'mormântul_'
'moratorium_'
'moral'
'mood_'
'monumentul'
'monopolul_'
'mono'
'moniu'
'monitors_'
'monitorizat_'
'moni'
'monede_'
'mona'
'moduri_'
'modified_'
'modificării_'
'modifications_'
'modest'
'modes_'
'moderniza'
'modela'
'mode'
'mobilise_'
'mmi'
'mişcării_'
'mişcă'
'mişcarea_'
'miting_'
'mitigat'
'miti'
'missiles_'
'misgivings_'
'miracle_'
'mira'
'minţi'
'minte_'
'minte'
'minors_'
'minorităților_'
'ministerial'
'minimă_'
'mini_'
'minerit'
'minded'
'mind'
'minciuni'
'mina'
'min_'
'mim'
'miliar'
'milestone_'
'mile'
'mila_'
'miilor_'
'migra'
'midst_'
'micil'
'mic'
'metres_'
'metre_'
'metr'
'metodei_'
'metal_'
'mes'
'merit'
'menţiun'
'menţinute_'
'menţin'
'meni'
'memorial_'
'memori'
'memorand'
'membrul_'
'melodi'
'mel'
'meg'
'mediere'
'medicamentelor_'
'medic'
'mediatorul'
'meci_'
'mecanismul'
'mec'
'measuring_'
'meal_'
'mble'
'mbe'
'mba'
'maşină_'
'mată_'
'math'
'maternity_'
'materialelor_'
'mat_'
'masuri_'
'master'
'mass'
'masacru'
'martorilor_'
'martor'
'marr'
'marin'
'mari'
'marginal'
'marfă_'
'mara'
'manual'
'mant'
'manipulation_'
'manifesta'
'manier'
'mani'
'manevră_'
'mandate'
'managementul_'
'mala'
'maker_'
'mak_'
'majorări'
'majori_'
'maintains_'
'mainstream'
'magnific'
'maghiari'
'magazin'
'mafi'
'mad'
'machines_'
'lăudabilă_'
'lăsată_'
'lăr'
'lăcomie'
'ly'
'lva'
'lv'
'lustra'
'luptător'
'lupt'
'lung'
'lucrând_'
'lucrez'
'lucrat'
'lucrare_'
'lowest_'
'lovituri'
'lovi'
'lova'
'lov'
'lots_'
'loose_'
'loopholes_'
'longest_'
'loial'
'logica_'
'locuitorilor_'
'locuieşte_'
'locui'
'locaţii_'
'locat'
'local'
'ln'
'lm'
'll'
'ljevic_'
'lje'
'liz'
'litre_'
'literacy_'
'litera'
'listing_'
'lise'
'lis_'
'lis'
'lipsite_'
'lion_'
'lio'
'linişti'
'lingvistică_'
'lingu'
'ling'
'lina_'
'lin_'
'limp'
'limitări'
'lilor_'
'lija_'
'licenţă_'
'licenţe'
'library_'
'libian_'
'libert'
'liberei_'
'liberalizări'
'liberaliza'
'liberalism'
'leti'
'lente_'
'lent'
'lene'
'lend'
'lej'
'legăturii_'
'legitimacy_'
'legislatura_'
'legislati'
'legifera'
'lecţii_'
'lecturi_'
'lect'
'learned_'
'lax_'
'lau'
'latitudinea_'
'latin'
'lasted_'
'larg'
'lar'
'lap'
'lanţul_'
'lanţ_'
'lagăr'
'lad'
'lacului_'
'lacul_'
'lacked_'
'laborator'
'labor'
'kta'
'kt'
'kovski_'
'koti'
'knew_'
'kne'
'kli'
'kle_'
'kle'
'kir'
'kings_'
'kind'
'kick_'
'kh'
'ket_'
'ken_'
'ken'
'kan'
'kad'
'justificate_'
'just'
'jurispruden'
'jurisdicti'
'juri'
'jur_'
'jul_'
'jug'
'judecăţi'
'judecătorul_'
'judecătorilor_'
'judecă'
'jud'
'jucătorii_'
'jucători_'
'jucării'
'jovic_'
'journey_'
'jli'
'jeopard'
'jefui'
'jar'
'japonez_'
'janov'
'jam'
'jail_'
'jaf'
'jad_'
'iţe'
'işti'
'iză'
'izolarea_'
'izo'
'ized_'
'izat_'
'izarea_'
'iz_'
'iy'
'ivi'
'ives_'
'ively_'
'iveală_'
'ive'
'iugoslav_'
'iubi'
'iubesc_'
'itoare_'
'ito'
'itionally_'
'iting_'
'itati'
'italieni_'
'ital'
'istori'
'isti'
'iss'
'ispăş'
'isn'
'islav_'
'islamiste_'
'islamică_'
'ising_'
'isi'
'ishi'
'ises_'
'ised_'
'ise'
'irose'
'iro_'
'iril'
'ireversibilă_'
'ired_'
'iranian_'
'ira_'
'ira'
'ione'
'ionale_'
'ioa'
'io'
'invo'
'invitaţie'
'invitate_'
'invita_'
'investiţi_'
'investigaţiilor_'
'investiga_'
'invent'
'invad'
'inutile_'
'inutil'
'inundaţiile_'
'inundat'
'inul_'
'inu'
'intrări'
'introdusă_'
'introduces_'
'introduc'
'intre'
'interzică_'
'interviu'
'interviewed_'
'interr'
'interpretations_'
'interpretare'
'interp'
'interogaţi_'
'internationalis'
'internationala_'
'internally_'
'interm'
'interi'
'interguvernamental'
'intergovernmental_'
'interf'
'interethnic_'
'interesantă_'
'interdependen'
'interconnections_'
'interconecta'
'intercon'
'intenţionat_'
'intensiv_'
'intensificat_'
'intensificare_'
'intelligent_'
'intellectuals_'
'inteligentă_'
'inteligen'
'intelectuali'
'intele'
'integritatea_'
'integrating_'
'integra_'
'integr'
'inte_'
'insulta'
'insular'
'insuficientă_'
'insu'
'instituti'
'instalarea_'
'instal'
'instabilă_'
'insta'
'inst'
'inspira_'
'inspecţii_'
'insol'
'insistând_'
'insem'
'insec'
'inse'
'inou_'
'inl'
'ink'
'iniţiată_'
'iniţiate_'
'iniţia'
'inima_'
'inim'
'inhabitants_'
'inhabit'
'ingredientel'
'ingly_'
'infringing_'
'infracţionalit'
'informează_'
'informaţionale_'
'informale_'
'informa'
'influential_'
'influent'
'influencing_'
'inflict'
'inflaţie_'
'inflammatory_'
'inflam'
'infiltrat'
'inferioară_'
'inferioare_'
'infec'
'inevitable_'
'inevitabil_'
'inevitabil'
'iner'
'inegalităţile_'
'industriil'
'indu_'
'indivizilor_'
'indivizii_'
'individuali'
'indivi'
'indispensable_'
'indif'
'indictments_'
'indiciu_'
'indice'
'indicatorilor_'
'indicato'
'indicati'
'indic'
'index_'
'independently_'
'independenta_'
'indep'
'indemnizaţi'
'inde'
'incur'
'incriminează_'
'incredibil_'
'incorectă_'
'incomprehensible_'
'incompatib'
'inclu'
'inciden'
'inci'
'incertitudine_'
'incert'
'inceput'
'incep'
'incendiilor_'
'incendi'
'incapable_'
'inaugur'
'inar'
'inability_'
'imunităţii_'
'imunitate_'
'impunerea_'
'impun'
'impuls'
'improves_'
'improper_'
'impri'
'impress'
'impozitul_'
'importu'
'importat'
'import'
'implicit_'
'impi'
'impetus_'
'imperi'
'imperativă_'
'imperativ'
'impasul'
'impas_'
'impart'
'impa'
'immigrant_'
'imit'
'imir_'
'imigraţiei_'
'iment'
'imb'
'imat'
'images_'
'ilustrat'
'ilo'
'iko'
'ij'
'ih'
'ignoră'
'ignoring_'
'ignorat'
'ight'
'ificarea_'
'ifi'
'ieşi_'
'ieşi'
'ies'
'ierarhi'
'identităţi'
'identifi'
'ide'
'icult'
'icu'
'icia'
'ican'
'ica'
'ic'
'ibilitatea_'
'ibil'
'iarna_'
'iar'
'hăr'
'hârti'
'hypocritical_'
'hydro'
'husband_'
'hunt'
'hungry_'
'humans_'
'hum'
'hu'
'hro'
'household_'
'hotărâtă_'
'hotărâ'
'hotel'
'hot'
'hostil'
'horror'
'hopeful_'
'hoped_'
'hon'
'homosexual'
'homo'
'homeland_'
'holy_'
'holl'
'holiday_'
'hodo'
'hiu_'
'hit'
'historian'
'hired_'
'hinges_'
'hing'
'hinder_'
'hierarchy_'
'hidrogen_'
'hid'
'het'
'hest_'
'hes_'
'herd'
'hence_'
'hen_'
'helm_'
'helicopter'
'hec'
'heating_'
'heat_'
'healthy_'
'haven_'
'haus'
'hau'
'hate_'
'hat_'
'has'
'harmonious'
'harm'
'harge'
'hardship_'
'hard'
'hang'
'han'
'hail'
'habi'
'gă_'
'gândi_'
'gândi'
'gând_'
'guvernator'
'gul'
'guilt_'
'grăbit_'
'grăbi_'
'grăbe'
'grupări_'
'groundwork_'
'grip'
'greşite_'
'grevă_'
'grecilor_'
'grecii_'
'grece'
'graţie_'
'gratitude_'
'grateful_'
'graph'
'grafi'
'gradu'
'govern'
'golf'
'goale_'
'goa'
'gnos'
'glu'
'globe_'
'gle_'
'glass_'
'glas_'
'girl_'
'gimnast'
'gil'
'gii_'
'gigant'
'gie'
'gic_'
'giant_'
'ghid'
'ghet'
'ghea'
'gh_'
'gestion'
'gerii_'
'geri'
'ger_'
'geografică_'
'geografi'
'geo'
'genul_'
'genu'
'generează_'
'generated_'
'generat'
'geam'
'gea_'
'gazului_'
'gazoductului_'
'gard'
'garbage_'
'garanţiile_'
'garanţi'
'gar_'
'gaps_'
'gangs_'
'gang_'
'gallery_'
'făptaşi'
'făc'
'fy_'
'furthermore_'
'furt'
'furnizare_'
'furniz'
'furio'
'furi'
'furat_'
'furaje_'
'funeral_'
'fundaţiile_'
'fundamentalist_'
'fundament'
'funcţionarilor_'
'funcţionare_'
'funcţionale_'
'funcţional_'
'ful'
'fuel'
'ft_'
'frustra'
'fructe'
'fru'
'frontul_'
'frig'
'fri'
'frequent_'
'frequency_'
'fraţi'
'fraud'
'fratele_'
'francezi_'
'founder'
'fotograf'
'fot'
'foste_'
'fost'
'fosili_'
'forţ'
'forum'
'forte'
'forta'
'fort'
'formular'
'formula_'
'formul'
'formaţiunii_'
'formală_'
'forest'
'forensic_'
'forefront_'
'footage_'
'foot_'
'foodstuffs_'
'fondată_'
'folosir'
'folosi'
'folk_'
'foc'
'foai'
'fluxuril'
'flows_'
'flotele_'
'flori'
'flexibilă_'
'flexibilitatea_'
'fleet_'
'flee'
'flats_'
'flag'
'fiul_'
'fit'
'fishery_'
'fires_'
'finlandez_'
'finished_'
'finanţărilor_'
'finanţele_'
'finanţ'
'finalizate_'
'fina'
'film'
'filling_'
'fill_'
'fili'
'fift'
'ficial'
'fication_'
'fiabil'
'ffi'
'fezabil'
'fete_'
'fes'
'fertile_'
'fericit_'
'feri'
'fem'
'feluri'
'felicita_'
'feels_'
'federation_'
'federa'
'faze_'
'favorite_'
'favo'
'fauna_'
'fault_'
'fault'
'fathers_'
'fatalities_'
'fart'
'fantomă_'
'fantas'
'fan'
'fami'
'falsificat'
'falsific'
'faliment_'
'failures_'
'factories_'
'facilităţil'
'faciliteze_'
'facilitează_'
'facilitator_'
'facilitare_'
'faci'
'fac'
'fabrică_'
'fabrici'
'fabricate_'
'fabric_'
'eşecuri_'
'ezia'
'ezi_'
'eza_'
'ey'
'extremist_'
'extracţi'
'extind'
'extern'
'extends_'
'ext'
'expus_'
'expuner'
'exprime_'
'exprima'
'expresia_'
'expres'
'expos'
'exportă'
'exporter_'
'exportator'
'export'
'explozibil'
'explosion_'
'exploited_'
'explod'
'exploatării_'
'exploatat'
'explicitly_'
'explicaţi'
'explanation_'
'expirat_'
'expert'
'experiments_'
'experienţel'
'experien'
'expecta'
'exhibited_'
'exerciţiul_'
'exercită_'
'exercitat_'
'exercis'
'exemptions_'
'executiv'
'excluziunii_'
'exclusiv'
'exclus_'
'exclus'
'excluderii_'
'excluderea_'
'excess_'
'exces'
'exceptions_'
'except'
'excep'
'excellence_'
'exceeded_'
'exceed_'
'excava'
'examinări'
'examining_'
'examinează_'
'examinarea_'
'exam'
'exactă_'
'exacte_'
'exacerbat'
'evoluţii_'
'evoluţie_'
'evoluti'
'evo'
'evita'
'evil_'
'evidenţiez_'
'evidenţie'
'evidenţiază_'
'evidenţiat_'
'evident'
'eventual'
'evaziunea_'
'evaluăm_'
'europarlamentar'
'eurocent'
'etă_'
'etul_'
'ett'
'etni'
'eticheta'
'eth'
'etano'
'estre'
'estimărilor_'
'estimati'
'estim'
'estică_'
'este'
'eso'
'eski_'
'esenţa_'
'esca'
'erupt'
'eru'
'erson'
'erode'
'eroare_'
'erilor_'
'eria_'
'erg_'
'erg'
'eren'
'erat'
'eram_'
'eradicate_'
'eradicarea_'
'equivalen'
'equate'
'equal'
'eol'
'enţa_'
'enă_'
'envisaged_'
'envis'
'enu'
'entuziast'
'entuziasm_'
'entu'
'entrust'
'entităţilor_'
'entitatea_'
'entitate_'
'ense'
'ensa'
'ens_'
'enov'
'enormă_'
'enormously_'
'enko_'
'enjoying_'
'enjoyed_'
'ening_'
'enhanc'
'engines_'
'engine_'
'eness_'
'energiilor_'
'energic_'
'ened_'
'endless'
'encounter_'
'enclave'
'enact'
'enabled_'
'empt'
'employing_'
'emphatically_'
'emphasising_'
'emoţiona'
'emoţi'
'emotion'
'emit'
'emis'
'emin'
'emer'
'emen'
'eme'
'embassies_'
'embark'
'emat'
'em'
'elli'
'elle'
'elimină_'
'eliminated_'
'elimina'
'elicoptere_'
'eliberat_'
'elibera_'
'elevii_'
'elen'
'electronic'
'eld'
'elb'
'ela_'
'ek'
'ega'
'eg'
'efo'
'efectueze_'
'efectuează_'
'efectuarea_'
'efectu'
'efectivă_'
'efe'
'een_'
'educaţionale_'
'educated_'
'educat'
'educa'
'ediţi'
'ecul'
'ecosystems_'
'ecosistem'
'economişti'
'economisir'
'economici_'
'economica_'
'eci_'
'echivalent'
'echit'
'echilibrului_'
'echilibre'
'ech'
'easi'
'eas_'
'ead'
'dăunează_'
'dăuna_'
'dy'
'duly_'
'dul_'
'dubla_'
'dubi'
'dubbed_'
'dual_'
'drumuri_'
'drove_'
'drive'
'drink'
'dri'
'drew_'
'dreadful_'
'drastically_'
'drastic'
'dramatică_'
'dragul_'
'dragging_'
'doz'
'downs'
'dovedi_'
'douăzeci_'
'doubt'
'double'
'dorinţe'
'donor_'
'donatorilor_'
'donare'
'dominantă_'
'dominan'
'domina'
'dollars_'
'dogs_'
'documentat'
'documenta'
'doctori_'
'dobânzilor_'
'dobânzii_'
'dobândit'
'dne'
'dle'
'dji'
'dividend'
'divi'
'diversităţii_'
'diversitatea_'
'diversify_'
'diversi'
'diver'
'distrugeri'
'distruge'
'district'
'distribuirii_'
'distribuirea_'
'distribuie_'
'distribui'
'distins'
'distinguished_'
'distinction_'
'dissolve'
'dissatisfied_'
'disregard'
'disputele_'
'disput'
'dispună_'
'disproportionate_'
'dispoziţiile_'
'disponibili'
'display_'
'dispersa_'
'dispară_'
'dispariţia_'
'dismissals_'
'disintegration_'
'disguised_'
'dise'
'discuți'
'discuţiei_'
'discutând_'
'discusses_'
'discursuril'
'discursuri_'
'discriminat'
'discredita'
'disciplinar'
'disciplin'
'discern'
'disappointing_'
'disagreed_'
'disadvantage'
'disabilit'
'direcţi'
'directoare_'
'directivele_'
'dinner_'
'ding'
'dinamic'
'diminu'
'dim_'
'dilemma_'
'digitale_'
'dificultăţilor_'
'dif'
'diesel_'
'dictate'
'dict'
'dial'
'dia_'
'dh'
'deţinător'
'deţinuţi_'
'deţinuţi'
'deţiner'
'deţine'
'deţin'
'dezvăluite_'
'dezvăluit'
'dezvăluie_'
'dezechilibrelor_'
'dezbătută_'
'dezbătut_'
'dezavantaj'
'dezastru'
'dezastrele_'
'dezarmare'
'dezacord_'
'devoted_'
'devote_'
'deve'
'devastatoare_'
'devast'
'deturnat_'
'detriment_'
'determină'
'determines_'
'deteriorării_'
'deteriorat_'
'deter'
'detect'
'detaşa'
'detaliate_'
'deta'
'destr'
'destinaţii_'
'destabiliza'
'destabili'
'desfăşurăm_'
'desf'
'deser'
'descărcarea_'
'descoperite_'
'desconsider'
'deschişi_'
'deschi'
'descentralizare_'
'des'
'deriv'
'deregulation_'
'derea_'
'deranj'
'depune'
'depista'
'departure_'
'departamentului_'
'depart'
'deoparte_'
'denţi'
'denunţ'
'denumire'
'denounced_'
'denies_'
'dena'
'demonstraţiile_'
'demonstraţii_'
'demonstraţie_'
'demonstrată_'
'demonstra'
'democraţilor_'
'democraţii_'
'democraţi'
'democrati'
'democrat_'
'demnitar'
'demiterea_'
'demisiona_'
'demisi'
'demagog'
'dema'
'deliver'
'deliberată_'
'deliberat'
'delegat'
'dele'
'dei_'
'definiţi'
'definită_'
'definitiv_'
'definitiv'
'defineşte_'
'definesc_'
'deficienţel'
'deficienţe_'
'defian'
'defensiv'
'defeating_'
'defe'
'defavorizate_'
'defavorabil'
'dedicată_'
'dedicate_'
'dedica'
'decret'
'decree_'
'declaring_'
'declarat'
'declar_'
'decişi_'
'decisă_'
'decisivă_'
'deci'
'decesul_'
'debloc'
'deb'
'dear_'
'dealer'
'deal'
'dea'
'dd'
'daunele_'
'dau'
'datorie_'
'datorat'
'dated_'
'das'
'darea_'
'dans'
'dane'
'dance'
'damaging_'
'damages_'
'dam_'
'daca_'
'căsătoriil'
'cărţile_'
'căp'
'călătorii_'
'călători'
'căl'
'câştigătorul_'
'câştigă'
'câştigată_'
'cântăreţi_'
'cântat_'
'câin'
'cz'
'cynic'
'cv'
'cuv'
'cuti'
'custodi'
'curs'
'curio'
'curi'
'curentă_'
'cure_'
'curbing_'
'curat_'
'curaj_'
'cuprins_'
'cuprindă_'
'cunoască_'
'cuno'
'cumpărare_'
'cump'
'culturil'
'culo'
'culminat'
'culmina'
'cubi_'
'ctive_'
'ctiv_'
'ction_'
'cting_'
'cti'
'ctele_'
'ct'
'cruc'
'cru'
'crosse'
'crizele_'
'criticile_'
'critica_'
'critic'
'criteri'
'criminală_'
'criminalitate_'
'criminalii_'
'creştin'
'crezut_'
'crescândă_'
'creditor'
'credinţ'
'credincioşi'
'credi'
'creaţi'
'creativit'
'creativ'
'creates_'
'creare_'
'cr'
'cow'
'covârşitoare_'
'cov'
'counterproductive_'
'counterfeiter'
'count_'
'cott'
'cot'
'costisitor_'
'cost'
'cos'
'corupte_'
'corresponds_'
'correcti'
'corporate_'
'corespunde_'
'corespund'
'corespondentului_'
'coresponden'
'corela'
'corectitudin'
'corecta'
'copilului_'
'coordonării_'
'coordona_'
'coordinat'
'cooperative_'
'conţinutului_'
'conţin'
'conştiinţ'
'conştient_'
'convinsă_'
'convingă_'
'convingeri_'
'convingere_'
'convince_'
'conversaţi'
'convenţionale_'
'conventional_'
'convention_'
'convenite_'
'controversat_'
'controvers'
'controleze_'
'control'
'contribuţiei_'
'contrar'
'contractului_'
'contractelor_'
'contracted_'
'continuous'
'continuitate'
'continual_'
'contingent'
'continentală_'
'contested_'
'contesta'
'contentio'
'contemporary_'
'contemp'
'contaminat'
'consumator'
'consultaţii'
'consulta'
'consult_'
'constrân'
'constituţia_'
'constitutions_'
'constitu'
'constată'
'constata'
'constant'
'consta'
'conspira'
'consorţiu_'
'consolidează_'
'consisting_'
'consilierul'
'considerabilă_'
'considera_'
'conservatori'
'conservat'
'conserv'
'consensu'
'consecvent'
'consecutive_'
'consec'
'conse'
'conscript'
'conjunction_'
'congres'
'congratulations_'
'congestion_'
'confuzie_'
'confuz'
'confruntări'
'confront_'
'confiscated_'
'confiscat_'
'confidenţialitate'
'confidenţiale_'
'conferă_'
'conexiuni_'
'conectare_'
'cone'
'conducători'
'conducerii_'
'condamnă'
'condamnaţi_'
'condamn'
'cond'
'concurează_'
'concur_'
'concretă_'
'concluziilor_'
'concession_'
'concepţi'
'concepute_'
'conceptu'
'conceive'
'concediul'
'concedi'
'conceal'
'comunita'
'comunismului_'
'comunice_'
'computerizat'
'computere'
'compu'
'compromises_'
'compromis'
'comprised_'
'comprehensi'
'compound_'
'composition_'
'composer_'
'comportă_'
'comportament'
'componenţa_'
'componentă_'
'component'
'compo'
'complicaţii_'
'compli'
'complexity_'
'complex'
'completat_'
'completare'
'complain_'
'competitors_'
'competing_'
'compatriot'
'como'
'communi'
'comment'
'commen'
'commemorati'
'comitologie_'
'comercializează_'
'comercializarea_'
'comercializa'
'comemora'
'combustibili'
'combina'
'comandament'
'colours_'
'collected_'
'collect_'
'colegiu'
'colege'
'colectarea_'
'colaborării_'
'colaborăm_'
'cola'
'coexist'
'coerentă_'
'coerent_'
'coe'
'codu'
'codes_'
'cocaine_'
'coadă_'
'climb'
'climatică_'
'climat'
'clienţi_'
'clearing_'
'clearer_'
'cle_'
'clauz'
'clasificare'
'clasic'
'clasat_'
'clasament'
'clarifying_'
'clarificăm_'
'clarification_'
'clari'
'cker_'
'cker'
'civilizat'
'civilised_'
'civili'
'civic_'
'ciudat_'
'citând_'
'citi'
'citate_'
'cis'
'circulation_'
'circula'
'circle_'
'cip'
'cio'
'cina_'
'cilo'
'cilia'
'cigarette'
'cif'
'ciclul'
'ciclu'
'cibernetic'
'ciat'
'cianur'
'cial'
'cia_'
'chiro'
'ching_'
'chinezi'
'chimice_'
'chimic'
'childcare_'
'child'
'chev_'
'cheltuiţi_'
'cheltuieli_'
'check'
'cheaper_'
'charging_'
'channels_'
'chan'
'champions'
'chambers_'
'chairmanship_'
'cetăţeni'
'cetăţe'
'cerută_'
'certitudine_'
'certification_'
'cercetători_'
'cercetări_'
'cercet'
'centre'
'centralizat'
'centralis'
'centralel'
'center_'
'cement_'
'celule'
'cells_'
'ceda'
'cease_'
'cazare_'
'caz'
'cautious_'
'caution'
'catolic'
'cateva_'
'categorie'
'catch'
'casă_'
'carrier_'
'cariera_'
'cardio'
'card'
'caracteristici_'
'caracter'
'cara'
'capturi'
'capta'
'capitolul_'
'capitalist_'
'capitalismului_'
'cape'
'capacităţile_'
'capability_'
'cantităţi'
'cantitate'
'cana'
'campioană_'
'campaniile_'
'campa'
'cameră_'
'camere_'
'calitativ'
'calificărilor_'
'califica'
'calculel'
'calculator_'
'calculation_'
'calculated_'
'cadouri_'
'cabl'
'cab'
'bărbaţilor_'
'bănui'
'băieţi_'
'burse'
'burg_'
'bunăstare_'
'bunu'
'bulk_'
'bugetelor_'
'bucăţi'
'bucătăria_'
'bucur'
'buc'
'brutalit'
'brutal_'
'brut'
'bruscă_'
'broade'
'bright_'
'briefed_'
'breaks_'
'bread_'
'brea'
'brain_'
'boy_'
'box_'
'bour'
'bottle'
'bosniacă_'
'borrow_'
'bord_'
'book'
'bonus'
'bond_'
'bombe'
'bolster_'
'bogăţi'
'bogată_'
'boga'
'bod'
'boală_'
'blueprint_'
'bluefin_'
'blu'
'blochează_'
'blocate_'
'blocaje'
'bloca_'
'bli'
'blessing_'
'blast'
'blackmail_'
'black_'
'bite'
'biserică_'
'biseric'
'bis_'
'birou'
'birocraţie_'
'birocraţi'
'birocratic_'
'biometrice_'
'biomass_'
'bioc'
'binevenită_'
'bin'
'biletele_'
'bilet'
'bila'
'bigger_'
'bie'
'bias_'
'bia'
'bes'
'beneficiul_'
'beneficii'
'beneficiary_'
'belgian_'
'belgi'
'behavioural_'
'behave_'
'beg'
'bef'
'beating_'
'beat'
'bbl'
'bazăm_'
'bazi'
'basket'
'basically_'
'barrel'
'bargain_'
'bands_'
'bande'
'bancă_'
'ballot_'
'bale'
'balcanic_'
'balanţ'
'balan'
'bail'
'backlog_'
'backing_'
'ați_'
'așa_'
'aţă_'
'aţional'
'aţii_'
'aşteptărilor_'
'aşteptate_'
'az'
'axe'
'axa'
'ax'
'awaited_'
'avertizare_'
'avantajoas'
'avansate_'
'autorul_'
'autorizarea_'
'autoriz'
'autoritățile_'
'autorităţii_'
'autori_'
'autonom'
'automobil'
'autoare_'
'authorisation_'
'australi'
'aust'
'aur'
'audiovizual'
'audiovisual_'
'audi'
'au'
'attached_'
'attach_'
'att'
'ats_'
'atrocităţi'
'atragă_'
'atractivit'
'atr'
'atorii_'
'atori_'
'atol'
'atl'
'atitudini'
'atic'
'atest'
'atentat'
'atacului_'
'atacat_'
'ataca'
'ata'
'asumăm_'
'aste'
'assuming_'
'assisting_'
'assistant_'
'assi'
'asset_'
'assess'
'assault_'
'ass'
'aspirant'
'aspira'
'asociaţie'
'asociat_'
'asistăm_'
'asista_'
'asim'
'asigurând_'
'asemănătoare_'
'asediul'
'ase'
'ascund'
'ascultă'
'ascult'
'asca_'
'asasin'
'arătând_'
'aruncă_'
'arunca'
'artişti'
'artist'
'articole_'
'artelor_'
'artele_'
'arr'
'armonizate_'
'armi'
'arl'
'arhive'
'arhitec'
'argumentele_'
'argumente_'
'argumentat_'
'argument'
'arguing_'
'arguably_'
'arestări_'
'arestat'
'aresta_'
'arena_'
'arelor_'
'archi'
'arc'
'arbur'
'arbitrar'
'arbitr'
'arat'
'aranjament'
'apără_'
'aprovizionarea_'
'apropiată_'
'apropia_'
'apropia'
'aprobării_'
'aprob'
'apreciere_'
'appreciated_'
'appointments_'
'appointing_'
'appli'
'apparatus_'
'appalling_'
'apelul_'
'apathy_'
'apartments_'
'apartment_'
'apartamente_'
'apartament'
'aparate_'
'anymore_'
'any'
'anxiety_'
'anunţă_'
'anunţarea_'
'anunţa_'
'anumiţi_'
'anuleze_'
'anulat_'
'anuale_'
'anu'
'antreprenorii_'
'antrena'
'antitero'
'antis'
'antif'
'antid'
'anticipates_'
'anticipated_'
'anta'
'anonime_'
'annul'
'announcing_'
'ank'
'anivers'
'anist'
'animat'
'animală_'
'animalele_'
'ange'
'angajăm_'
'anc'
'analiştii_'
'analizează_'
'analizat'
'analistul_'
'amâne_'
'amândo'
'amprent'
'amplific'
'amplasată_'
'amounted_'
'amongst_'
'amn'
'amical'
'amestec_'
'amer'
'amenzil'
'ameninţată_'
'amend'
'ameliora'
'ambiţioşi_'
'ambiţiil'
'ambiţii_'
'ambition_'
'ambigu'
'alului_'
'alul_'
'altogether_'
'alovic_'
'alocată_'
'allu'
'allocation_'
'allo'
'allied_'
'alitatea_'
'alism_'
'alimentat'
'alimentarea_'
'align'
'alianţe'
'alia'
'alele_'
'aleg'
'ale'
[...]
