'<pad>_'
'<EOS>_'
'._'
'_'
''_'
', _'
'?_'
'the_'
'you_'
'。_'
'i_'
'、_'
's_'
'to_'
'a_'
'it_'
'that_'
'and_'
'of_'
'. _'
'!_'
'is_'
't_'
'in_'
'？_'
'..._'
'we_'
'this_'
'what_'
'　_'
'は_'
'me_'
'（_'
'for_'
'was_'
'の'
'だ_'
'・_'
'- _'
'on_'
'I_'
'are_'
'my_'
'have_'
'he_'
'do_'
'm_'
'）_'
'よ_'
'your_'
'not_'
'... _'
'be_'
're_'
'with_'
'can_'
'は'
'so_'
'? _'
'に'
'を'
'が_'
'all_'
'but_'
'there_'
'が'
'know_'
'just_'
'they_'
'don_'
'no_'
'! _'
'd_'
'at_'
'「_'
'like_'
'か_'
'about_'
'here_'
'if_'
'」_'
'の_'
'll_'
'で_'
'です_'
'"_'
'ね_'
'と'
'！_'
'get_'
'right_'
'た_'
'。 _'
'as_'
'up_'
'る_'
'one_'
'out_'
'go_'
'from_'
'で'
'she_'
'に_'
'を_'
'will_'
'now_'
'an_'
'him_'
'her_'
've_'
'y_'
'な_'
'も'
'who_'
'ed_'
'e_'
'think_'
'did_'
'want_'
'got_'
'see_'
'how_'
'when_'
'と_'
'も_'
'この'
'ing_'
'our_'
'time_'
'his_'
'by_'
'わ_'
'well_'
'or_'
'why_'
'going_'
'us_'
'were_'
'good_'
'した_'
'その'
'come_'
'んだ_'
'から'
'let_'
'て_'
'から_'
'す_'
'って_'
'back_'
'や'
'them_'
'then_'
'really_'
'ます_'
'had_'
'would_'
'people_'
'need_'
'oh_'
'way_'
'ない_'
'な'
'has_'
'been_'
'more_'
'yeah_'
'because_'
'okay_'
'し_'
'some_'
'where_'
'something_'
'take_'
'say_'
'look_'
'私は'
'man_'
'大'
'could_'
'down_'
'very_'
'You_'
'ら_'
'too_'
'n_'
'ろ_'
'yes_'
'彼は'
'お'
'った_'
'た'
'hey_'
'gonna_'
',_'
'please_'
'The_'
'する_'
'tell_'
'make_'
'-_'
'ぞ_'
'ました_'
'でも_'
'these_'
'る'
'only_'
'ああ_'
'work_'
'私の'
'doing_'
'should_'
'even_'
'didn_'
'two_'
'over_'
')_'
'て'
'には'
'said_'
'am_'
'い_'
'any_'
'es_'
'their_'
'He_'
'でも'
'する'
'sorry_'
'、 _'
'into_'
'little_'
' (_'
'...。_'
'than_'
'It_'
'first_'
'thing_'
'けど_'
'ある_'
'off_'
'』_'
'r_'
'のか_'
'さ_'
'いる_'
'never_'
'『_'
'world_'
'もう'
'mean_'
'一'
'after_'
'help_'
'して'
'した'
'er_'
'day_'
'other_'
'なら_'
'still_'
'o_'
'much_'
'give_'
'君の'
'って'
'years_'
'sure_'
'い'
'before_'
'・・・_'
'find_'
'ly_'
'anything_'
'We_'
'thought_'
'いや_'
'things_'
'これは'
'ー_'
'はい_'
'あの'
'私が'
'く'
'those_'
'thank_'
'して_'
'away_'
'じゃない_'
'again_'
'彼の'
'ら'
'さん_'
'love_'
'life_'
'talk_'
'(_'
'last_'
'あなたの'
'call_'
'だった_'
'本'
'り_'
'として'
'which_'
' - _'
'new_'
'l_'
'nothing_'
'である_'
'same_'
'put_'
'不'
'だろ_'
'だよ_'
'made_'
'それは'
'う_'
'home_'
'around_'
'kind_'
'彼女は'
'だから_'
'wait_'
'や_'
'か'
'り'
'また'
'には_'
'しかし_'
'told_'
'found_'
'まだ'
'must_'
'being_'
'のは_'
'keep_'
'father_'
'上'
'では'
'place_'
'night_'
'より'
'という'
'あなたは'
'old_'
'lot_'
'long_'
'always_'
': _'
'高'
'山'
'だが_'
'し'
'looking_'
'What_'
'君は'
'mr_'
'中'
'ん_'
'today_'
'believe_'
'かった_'
'田'
'小'
'won_'
'guy_'
'stop_'
'kill_'
'では_'
'ある'
'《_'
'長'
'国'
'wanted_'
'came_'
'uh_'
'every_'
'ever_'
'新'
'great_'
'）、_'
'いい'
'➡_'
'leave_'
'doesn_'
'俺の'
'った'
'だろう_'
'そして'
'next_'
'course_'
'ah_'
'able_'
'的'
'ル'
'く_'
'someone_'
'ng_'
'見'
'まで'
'き'
'wrong_'
'through_'
'actually_'
'俺は'
'ー'
'might_'
'isn_'
'ご'
'went_'
'use_'
'most_'
'left_'
'does_'
'う'
'may_'
'everything_'
'also_'
'?!_'
'？ _'
'maybe_'
'のよ_'
'だな_'
'います_'
'own_'
'[_'
'正'
'三'
'ですか_'
'coming_'
'私は_'
'生'
'手'
'元'
'そう_'
'ありがとう_'
'son_'
'done_'
'天'
'また_'
'ている_'
'そして_'
'understand_'
'big_'
'better_'
'野'
'彼らは'
'内'
'人'
'れば_'
'え_'
'talking_'
'person_'
'name_'
'mother_'
'h_'
'al_'
'自分の'
'ない'
'おい_'
'ええ_'
'many_'
'bad_'
'神'
'何か'
'ト'
'そうだ_'
'あなたが'
'school_'
'money_'
'killed_'
'girl_'
'年'
'なぜ'
'でしょ_'
'three_'
'remember_'
'k_'
'本当に'
'日'
'がある_'
'once_'
'huh_'
'She_'
'2_'
'川'
'分'
'ねえ_'
'いた_'
'あ_'
'live_'
'もっと'
'なかった_'
'どんな'
'それを'
'お前は'
'try_'
'its_'
'happened_'
'的な'
'ス'
'まで_'
'くれ_'
'else_'
'ago_'
'3'
'リ'
'なんだ_'
'でしょう_'
'》_'
'used_'
'ask_'
'already_'
'3年_'
'彼女の'
'カ'
'それが'
'うん_'
'such_'
'friend_'
'called_'
'another_'
'And_'
'法'
'東'
'前'
'下'
'saw_'
'feel_'
'同じ'
'れ_'
'お前の'
'―_'
'ion_'
'1'
'um_'
'god_'
'enough_'
'dead_'
'best_'
'）。_'
'今'
'ア'
'あっ_'
'trying_'
'together_'
'pretty_'
'dad_'
'This_'
'御'
'平'
'和'
'名'
'前に'
'出'
'への'
'なの_'
'while_'
'1_'
'無'
'水'
'君が'
'もし'
'します_'
'された_'
'u_'
'job_'
'house_'
'重'
'後'
'俺が'
'今_'
'ラ'
'よし_'
'にも'
'real_'
'nice_'
'heard_'
'care_'
'2年_'
'子'
'じゃ_'
'ください_'
'without_'
'took_'
'guys_'
'g_'
'end_'
'西'
'年_'
'家'
'のは'
'とは_'
'working_'
'wasn_'
'sir_'
'rs_'
'' _'
'義'
'よう_'
'もう_'
'そんな'
'すか_'
'これを'
'p_'
'" _'
'よね_'
'ません_'
'それで_'
'ぜ_'
'thanks_'
'room_'
'knew_'
'everyone_'
']_'
':_'
' "_'
'彼が'
'へ'
'だから'
'show_'
'fine_'
'case_'
'金'
'原'
'ン_'
'へ_'
'なら'
'つ'
'これが'
'yet_'
'stay_'
'mind_'
'That_'
'時'
'ノ'
'す'
'problem_'
'hear_'
'hard_'
'我'
'他の'
'二'
'これは_'
'― _'
'play_'
'different_'
'alone_'
'道'
'木'
'新しい'
'全'
'僕の'
'・・_'
'タ'
'み'
'ちょっと'
'woman_'
'A_'
'同'
'公'
'ン'
'ロ'
'てる_'
'~_'
'whole_'
'start_'
'le_'
' '
'真'
'有'
'明'
'安'
'yourself_'
'move_'
'hell_'
'getting_'
'family_'
'boy_'
'body_'
'ジ'
'なんて_'
'とても'
'でした_'
'じゃあ_'
'かな_'
'since_'
'power_'
'men_'
'listen_'
'days_'
'c_'
'4年_'
'んです_'
'のです_'
'year_'
'seen_'
'head_'
'anyone_'
'They_'
'No_'
'2'
' （_'
'直'
'日本'
'方'
'実'
'学'
'合'
'マ'
'コ'
'part_'
'morning_'
'die_'
'4'
'私に'
'一緒に'
'ナ'
'イ'
'わよ_'
'ろう_'
'たら_'
'それは_'
'いつも'
'turn_'
'true_'
'st_'
'saying_'
'lost_'
'hand_'
'friends_'
'change_'
'become_'
'!?_'
'通'
'私を'
'気'
'我々は'
'宗'
'カー'
'む'
'looks_'
'information_'
'bit_'
'If_'
' _'
'市'
'今は'
'んだよ_'
'るんだ_'
'よく'
'している_'
'ts_'
'matter_'
'fight_'
'car_'
'0'
' ..._'
'彼を'
'僕は'
'信'
'何'
'ち'
'け_'
'、「_'
'story_'
'run_'
'idea_'
'happy_'
'brother_'
'3_'
'間'
'白'
'寺'
'外'
'ん'
'とは'
'だと_'
'ずっと'
'され_'
'さあ_'
'こんな'
'until_'
'soon_'
'point_'
'Oh_'
' ... _'
'行'
'良い'
'石'
'海'
'時_'
'大丈夫_'
'土'
'ム'
'みんな'
'だが'
'された'
'ここで'
'け'
'いる'
'te_'
'san_'
'inside_'
'四'
'光'
'万'
'ミ'
'ス_'
'わね_'
'ば'
'ty_'
'happen_'
'ers_'
'both_'
'8年_'
'...。 _'
' -_'
'美'
'発'
'松'
'月'
'旧'
'宮'
'定'
'何_'
'中に'
'モ'
'チ'
'ク'
'オ'
'どうして'
'である'
'せ_'
'こ'
'あなたは_'
'says_'
'high_'
'child_'
'6'
'5年_'
'5_'
'5'
' '_'
'立'
'私たちは'
'地'
'全部'
'何を'
'下さい_'
'ツ'
'いい_'
'あ'
'n'
'ic_'
'fucking_'
'business_'
'bring_'
'My_'
'6年_'
'院'
'部'
'誰が'
'清'
'戦'
'多くの'
'回'
'南'
'ダ'
'れ'
'ように_'
'ため_'
'ず'
'すぐに'
'under_'
'thinking_'
'myself_'
'ce_'
'的に'
'流'
'歌'
'旧暦_'
'彼に'
'多'
'城'
'千'
'バ'
'キ'
'second_'
'question_'
'meet_'
'later_'
'7年_'
'村'
'朝'
'文'
'彼女が'
'口'
'取り'
'別の'
'代'
'ニ'
'シ'
'より_'
'のに_'
'しかし'
'wouldn_'
'seems_'
'light_'
'less_'
'A'
'彼は_'
'女'
'君を'
'北'
'会'
'久'
'ズ'
'ように'
'として_'
'ちょっと_'
'しろ_'
'される_'
'いた'
'young_'
'ok_'
'number_'
'making_'
'late_'
'between_'
'誰も'
'要'
'王'
'書'
'家_'
'在'
'ボ'
'ブ'
'ディ'
'グ'
'るの_'
'どう'
'ために'
'それに'
'しました_'
'wife_'
'stuff_'
'means_'
'haven_'
'five_'
' 「_'
'開'
'用'
'体'
'人_'
'リー'
'ほら_'
'はない_'
'とか_'
'しょう_'
'えっ_'
'いいえ_'
'safe_'
'red_'
'read_'
'important_'
'hope_'
'goes_'
'each_'
'couldn_'
'Well_'
'花'
'私_'
'着'
'島'
'屋'
'事'
'ります_'
'など_'
'これ_'
'whatever_'
'probably_'
'phone_'
'guess_'
'few_'
'eat_'
'4_'
')（_'
'相'
'性'
'心'
'引き'
'少し'
'人の'
'ハ'
'ド'
'ト_'
'サ'
'なさい_'
'ず_'
'かも_'
'あり_'
'started_'
'side_'
'shit_'
'death_'
'So_'
'But_'
'/_'
'：_'
'頭'
'藤原'
'良'
'来'
'日_'
'後_'
'家の'
'君_'
'十'
'人が'
'京都'
'ウ'
'ば_'
'なんて'
'ちゃん_'
'こと_'
'♪ _'
'ry_'
'met_'
'ies_'
'9年_'
'者_'
'県'
'番'
'悪'
'入'
'保'
'ゴ'
'ぶ'
'どの'
'との'
'つまり_'
'だ'
'いいか_'
'あります_'
'worry_'
'ted_'
'taking_'
'open_'
'ons_'
'minutes_'
'human_'
'hold_'
'having_'
'gotta_'
'face_'
'eyes_'
'doctor_'
'company_'
'children_'
'against_'
'Yeah_'
') _'
'！ _'
'頼'
'血'
'者の'
'私も'
'知'
'町'
'理'
'数'
'我々の'
'太'
'何も'
'主'
'レ'
'び'
'など'
'ですが_'
'だった'
'たんだ_'
'ために_'
'それで'
'ことを'
'ことは_'
'ありません_'
'あった_'
'あぁ_'
'♪_'
'x_'
'tomorrow_'
'th_'
'knows_'
'kids_'
'hospital_'
'alive_'
'藤'
'自'
'能'
'経'
'政'
'所'
'居'
'寺_'
'好'
'勝'
'力'
'別'
'中の'
'フ'
'ター'
'ガ'
'エ'
'ると_'
'について_'
'なる'
'ですよ_'
'だって_'
'ただ'
'すぐ'
'されている_'
'ここに'
'き_'
'え'
'water_'
'wanna_'
'times_'
'team_'
'taken_'
'police_'
'mom_'
'gets_'
'gave_'
'far_'
'exactly_'
'comes_'
'baby_'
'There_'
'1年_'
'１'
'身'
'目'
'物'
'早く'
'市_'
'化'
'六'
'ビ'
'ソ'
'まあ_'
'であり_'
'っている_'
'じゃ'
'trust_'
'ready_'
'quite_'
'plan_'
'line_'
'least_'
'fact_'
'cause_'
'解'
'日本_'
'悪い'
'強'
'度'
'子_'
'全て'
'五'
'パ'
'ネ'
'どうぞ_'
'そう'
'される'
'ここは'
'watch_'
'truth_'
'set_'
'running_'
'rest_'
'excuse_'
'E'
'間_'
'誰か'
'空'
'死'
'武'
'最も'
'日本の'
'当'
'官'
'先'
'今日は'
'コン'
'ひ'
'ね'
'ですね_'
'できる_'
'ていた_'
'してる_'
'お前が'
'あなたに'
'week_'
'waiting_'
'order_'
'ma_'
'hit_'
'hands_'
'gone_'
'ation_'
'） _'
'造'
'親'
'津'
'治'
'業'
'教'
'対'
'君'
'取'
'利'
'何の'
'わかった_'
'め'
'により'
'なぜ_'
'ています_'
'ていた'
'だけ_'
'じ'
'ことは'
'々'
'tion_'
'though_'
'shut_'
'ne_'
'game_'
'four_'
'da_'
'cut_'
'close_'
'ck_'
'buy_'
'book_'
'aren_'
'000_'
'%_'
' ?_'
'～_'
'氏_'
'最後の'
'断'
'成'
'式'
'師'
'前の'
'前に_'
'僕が'
'世'
'ッ_'
'ケ'
'ましょう_'
'ほど'
'ふ'
'できる'
'っ_'
'いて'
'いう'
'あなたを'
'wants_'
'ting_'
'system_'
'stand_'
'somebody_'
'hurt_'
'died_'
'check_'
'blood_'
'ate_'
'anymore_'
'S'
'O'
'How_'
'10_'
'金を'
'近'
'私'
'楽'
'彼女を'
'彼らの'
'家に'
'君は_'
'分かった_'
'先生_'
'中_'
'世界'
'ル_'
'ヤ'
'メ'
'アー'
'んな'
'もある_'
'ま'
'ので_'
'などの'
'たの_'
'かい_'
'いて_'
'あの_'
'あなた'
'≪_'
'~ _'
'women_'
'sit_'
'sister_'
'ship_'
'nt_'
'ns_'
'million_'
'ment_'
'lives_'
'king_'
'ie_'
'himself_'
'cool_'
'city_'
'beautiful_'
'answer_'
'30_'
'20'
'10'
'２'
'食'
'霊'
'門'
'配'
'進'
'軍'
'貞'
'誰かが'
'記_'
'計'
'死んだ'
'次の'
'格'
'後に'
'君に'
'円'
'わ'
'め_'
'によって'
'とも'
'っ'
'ただの'
'さ'
'ことが'
'からの'
'tonight_'
'minute_'
'mine_'
'makes_'
'lie_'
'half_'
'front_'
'door_'
'damn_'
'country_'
'b_'
'Mr_'
'Don_'
'C'
'9_'
'6_'
'0_'
'面'
'青'
'酒'
'連'
'車'
'足'
'私たちの'
'永'
'民'
'母'
'持ち'
'愛'
'忠'
'向'
'吉'
'前_'
'全ての'
'元年_'
'佐'
'七'
'ロー'
'バー'
'んですか_'
'んで'
'ろ'
'ような'
'みんな_'
'なんか'
'たが_'
'たい_'
'せ'
'ぐ'
'wish_'
'town_'
'sleep_'
'president_'
'pick_'
'miss_'
'ls_'
'en_'
'dr_'
'daughter_'
'card_'
'break_'
'behind_'
'asked_'
'anyway_'
'I'
'0年_'
'.._'
'黒'
'馬'
'違う_'
'特に'
'為'
'徳'
'後の'
'国の'
'半'
'再'
'作'
'何か_'
'プ'
'ヒ'
'もの_'
'む_'
'のね_'
'ど'
'すが_'
'さて_'
'これで'
'これ'
'きた'
'お前_'
'telling_'
'save_'
'possible_'
'office_'
'moment_'
'husband_'
'fuck_'
'deal_'
'chance_'
'ble_'
'amazing_'
'ain_'
'Let_'
'8'
'7_'
'老'
'竹'
'画'
'火'
'手を'
'宝'
'味'
'兵'
'先に'
'俺は_'
'何で'
'何が'
'井'
'之'
'丸'
'ワ'
'ベ'
'んだ'
'れる'
'なった_'
'ついて'
'だぞ_'
'そこで'
'すみません_'
'しょ_'
'させる'
'walk_'
'using_'
'ss_'
'reason_'
'months_'
'monster_'
'future_'
'full_'
'forget_'
'food_'
'fire_'
'control_'
'1年'
'駅'
'集'
'違う'
'言う'
'言い'
'行け_'
'私には'
'盛'
'我々が'
'思い'
'形'
'常'
'八'
'僕は_'
'俺に'
'今の'
'人を'
'一番'
'ヨ'
'ドル'
'らない_'
'よう'
'ますか_'
'どうやって'
'どうして_'
'となる_'
'だと'
'だけど_'
'だけだ_'
'すよ_'
'ぎ'
'かった'
'strong_'
'return_'
'pay_'
'hello_'
'heart_'
'field_'
'ds_'
'building_'
'ant_'
'ahead_'
'Do_'
'All_'
'? - _'
'" "_'
'風'
'退'
'谷'
'表'
'藩'
'紀'
'病'
'男'
'次'
'志'
'弾'
'力を'
'京都市'
'マー'
'ナ_'
'ジョン_'
'ひどい'
'について'
'ても_'
'ってる_'
'だわ_'
'そうね_'
'すべて'
'こと'
'きた_'
'える'
'あなたと'
'あった'
'sort_'
'small_'
'ring_'
'looked_'
'ions_'
'fast_'
'black_'
'agent_'
'8_'
'顔'
'都'
'福'
'町_'
'熱'
'満'
'春'
'意'
'強い'
'左'
'守'
'園'
'古'
'仏'
'中国'
'上の'
'マン'
'パパ_'
'ット'
'サン'
'クソ'
'を見'
'やめろ_'
'もちろん_'
'による'
'なんで'
'どうした_'
'とか'
'という_'
'たい'
'その後_'
'ければ_'
'いました_'
'white_'
'supposed_'
'special_'
'living_'
'john_'
'girls_'
'easy_'
'drink_'
'ch_'
'almost_'
'M'
'首'
'館'
'音'
'電'
'銃を'
'銃'
'言'
'見た'
'行く'
'若'
'色'
'興'
'者'
'線'
'結'
'素晴らしい'
'私と'
'百'
'権'
'根'
'是'
'早く_'
'方が'
'持'
'急'
'巻'
'変'
'場'
'命'
'各'
'友'
'加'
'制'
'俺を'
'修'
'何だ_'
'仕'
'ダメだ_'
'シュ'
'アル'
'ないと_'
'となった_'
'てる'
'だね_'
'それ'
'その_'
'そこに'
'そうだな_'
'すね_'
'ごめんなさい_'
'いつ'
'〈_'
'trouble_'
'ten_'
'somewhere_'
'send_'
'se_'
'outside_'
'kid_'
'hurry_'
'gun_'
'dinner_'
'clear_'
'] _'
'20_'
'） - _'
'香'
'非常に'
'雪'
'達'
'路'
'豊'
'調'
'総'
'研究'
'物を'
'沢'
'気が'
'様_'
'末'
'曲'
'星'
'早'
'善'
'号'
'反'
'初'
'中で'
'キー'
'よかった_'
'まさか_'
'べ'
'のを'
'ぬ'
'なのか_'
'と思う_'
'ている'
'たわ_'
'せん_'
'しています_'
'くて_'
'がある'
'word_'
'teacher_'
'speak_'
'six_'
'ous_'
'news_'
'ness_'
'needs_'
'murder_'
'moving_'
'mistake_'
'evidence_'
'everybody_'
'eh_'
'dream_'
'age_'
'B'
'7'
'00'
'. - _'
'遠'
'遊'
'超'
'話'
'証'
'見て'
'葉'
'結婚'
'立ち'
'異'
'片'
'河'
'極'
'最初の'
'攻撃'
'得'
'彼女に'
'士'
'右'
'台'
'動'
'切り'
'位'
'伝'
'ュ'
'ピ'
'デ'
'セ'
'シー'
'ザ'
'れば'
'ぼ'
'の人'
'のに'
'のが'
'のか'
'なる_'
'どう_'
'できない_'
'ちゃんと'
'ちゃ'
'すれば_'
'じゃないか_'
'さんの'
'お前'
'w_'
'meeting_'
'master_'
'married_'
'hours_'
'fun_'
'free_'
'fall_'
'eye_'
'em_'
'data_'
'cannot_'
'brought_'
'boss_'
'attack_'
'When_'
'Now_'
'!!_'
'））_'
'見る'
'絵'
'私達は'
'社'
'目を'
'産'
'玉'
'無い_'
'森'
'広'
'尊'
'大きな'
'員'
'君と'
'名_'
'共'
'他'
'人は'
'事は'
'上に'
'ヘ'
'ハン'
'ズ_'
'イン'
'れた'
'るわ_'
'るか_'
'られた'
'よ'
'やめて_'
'やった'
'のように'
'なった'
'なかった'
'ど_'
'とする'
'てくれ_'
'ったら_'
'たちの'
'ただ_'
'してる'
'していた'
'げ'
'きました_'
'あなた_'
'」（_'
'war_'
'test_'
'situation_'
'security_'
'parents_'
'machine_'
'ding_'
'de_'
'brain_'
'Why_'
';_'
'12'
'骨'
'防'
'関'
'那'
'速'
'返'
'護'
'記'
'行こう_'
'聖'
'系'
'精'
'移'
'私が_'
'神社_'
'現'
'明日'
'思う_'
'従'
'失'
'大丈夫だ_'
'品'
'参'
'務'
'写真'
'傷'
'使'
'人間の'
'下に'
'・・・ _'
'ンの'
'リー_'
'ラー'
'パン'
'ハイ'
'ダー'
'ジー'
'ク_'
'オー'
'れる_'
'られる_'
'られる'
'よって'
'ほ'
'の大'
'のお'
'になる_'
'になる'
'なのです_'
'ないわ_'
'ではない_'
'つまり'
'ってる'
'たら'
'それから_'
'している'
'これらの'
'ことを_'
'ここ'
'おう_'
'あれは'
'〉_'
'worked_'
'strange_'
'shouldn_'
'sent_'
'sense_'
'protect_'
'promise_'
'playing_'
'learn_'
'ive_'
'ity_'
'happens_'
'figure_'
'f_'
'earth_'
'co'
'accident_'
'Yes_'
'R'
'Please_'
'Just_'
'50_'
'15'
'隆'
'郡'
'輪'
'語'
'船'
'破'
'父の'
'点'
'温'
'江戸'
'氏の'
'毒'
'放'
'打ち'
'廃'
'岡'
'室'
'好きな'
'大学'
'国_'
'判'
'全く'
'京'
'交'
'一人'
'ラン'
'ティ'
'ジェ'
'ゲーム'
'ィ'
'アイ'
'ると'
'やる_'
'やあ_'
'ほとんど'
'はい'
'なく'
'としての'
'であった_'
'っと'
'だけ'
'それが_'
'そ'
'すると'
'しい'
'さらに'
'ごめん_'
'こう'
'がない_'
'いいわ_'
'あり'
'z_'
'worth_'
'works_'
'wonder_'
'welcome_'
'stupid_'
'state_'
'ran_'
'ra_'
'pull_'
'piece_'
'nobody_'
'lose_'
'longer_'
'ha_'
'ge_'
'dog_'
'class_'
'changed_'
'captain_'
'Hey_'
'Come_'
''
'領'
'難しい'
'転'
'諸'
'角'
'観'
'見て_'
'行き'
'華'
'茶'
'考え'
'習'
'羽'
'置'
'等'
'端'
'科'
'神経'
'物_'
'源'
'派'
'江'
'氏'
'殿'
'殺人'
'死ぬ'
'正しい'
'欲しい_'
'機'
'橋'
'横'
'東京'
'本当に_'
'未'
'映画'
'捜査'
'想'
'待って_'
'引'
'尾'
'就'
'子の'
'坂'
'地球'
'取引'
'列'
'供'
'人に'
'事_'
'ホ'
'プロ'
'ビー'
'ニー'
'ド_'
'ッ'
'ガー'
'れて'
'りました_'
'ょう_'
'なって'
'どうも_'
'たか_'
'そんなこと'
'そういう'
'されて'
'ことに'
'があります_'
'お願い_'
'おり_'
'うちの'
'、『_'
'yesterday_'
'wow_'
'street_'
'store_'
'sound_'
'sometimes_'
'shoot_'
'seem_'
'seeing_'
'relationship_'
'perfect_'
'party_'
'pain_'
'others_'
'm'
'les_'
'leaving_'
'key_'
'imagine_'
'hot_'
'hi_'
'gas_'
'entire_'
'early_'
'crazy_'
'completely_'
'chief_'
'calm_'
'books_'
'battle_'
'art_'
'ally_'
'Where_'
'P'
'...?_'
'-　_'
'養'
'里'
'道を'
'通り'
'警察'
'論'
'薬'
'落'
'自分で'
'脳'
'職'
'美しい'
'絶'
'科学'
'神の'
'皆'
'現在の'
'牛'
'然'
'消'
'決して'
'死に'
'林'
'服'
'時間を'
'待て_'
'幕府'
'将軍'
'富'
'客'
'完全に'
'婚'
'奪'
'命を'
'可'
'厳'
'副'
'切'
'九'
'乗'
'上_'
'レイ'
'リア'
'パー'
'バイ'
'ハー'
'テ'
'チャ'
'スタン'
'アメリカ'
'やり'
'み_'
'の手'
'どこで'
'てた_'
'つく'
'たか'
'そうよ_'
'そうです_'
'すごく'
'じゃあ'
'しか'
'これに'
'ことです_'
'いない_'
'いで'
'あれ_'
'ありがとうございます_'
'−_'
'terrible_'
'soul_'
'so'
'sick_'
'shot_'
'sh_'
'seven_'
'serious_'
'report_'
'public_'
'percent_'
'ones_'
'nce_'
'lady_'
'jo'
'ice_'
'i'
'ho'
'energy_'
'el_'
'during_'
'dollars_'
'cold_'
'clean_'
'choice_'
'caught_'
'bed_'
'air_'
'Your_'
'His_'
'G'
'9'
'3年'
'）'
'鳥'
'長_'
'銀'
'過'
'逃げ'
'赤'
'責任'
'言った'
'者は'
'者が'
'組織'
'素'
'納'
'約'
'第一'
'秋'
'礼'
'皆_'
'由'
'特'
'無理'
'為に'
'比'
'案'
'時の'
'敵'
'指'
'承'
'所に'
'感じ'
'思う'
'役'
'寝'
'実際に'
'女を'
'夜'
'基'
'告'
'初めて'
'刀'
'出て'
'全部_'
'僧'
'個'
'余'
'住'
'他に'
'仕事を'
'介'
'事を'
'両'
'ポ'
'バン'
'バカ'
'タン'
'スパイ'
'ギ'
'をする'
'れた_'
'らない'
'よい'
'にも_'
'にして'
'なんだ'
'なく_'
'どこだ_'
'ですから_'
'ても'
'だって'
'そんなに'
'すべての'
'すごい'
'こちら'
'くない'
'きます_'
'がい'
'かなり'
'yours_'
'ya_'
'win_'
'ure_'
'turned_'
'train_'
'touch_'
'top_'
'tired_'
'student_'
'step_'
'space_'
'shooting_'
'shall_'
'quiet_'
'problems_'
'past_'
'na_'
'ling_'
'le'
'jack_'
'history_'
'health_'
'glad_'
'giving_'
'est_'
'd'
'car'
'born_'
'asking_'
'afraid_'
'Who_'
'Then_'
'30'
'2年'
'３'
'魔'
'雄'
'車を'
'越'
'行くぞ_'
'自然'
'腹'
'聞き'
'米'
'節'
'立て'
'私たちが'
'秀'
'知る'
'知ってる'
'男性'
'現在'
'無い'
'波'
'母は'
'板'
'来て_'
'来た'
'期'
'文化'
'感'
'情報'
'応'
'彼女は_'
'彼らが'
'弟'
'建'
'店'
'岩'
'山の'
'少'
'家を'
'子供'
'如'
'天皇の'
'塩'
'型'
'唐'
'出来る'
'偽'
'倉'
'保護'
'何が_'
'今日の'
'京都府'
'事に'
'主に'
'一つ'
'ワー'
'ピー'
'ジャ'
'るよ_'
'るが_'
'よりも'
'ようだ_'
'みたい_'
'まだ_'
'は無'
'はない'
'はありません_'
'の一'
'ねえ'
'ねぇ_'
'などに'
'なあ_'
'とき'
'での'
'そうか_'
'さん'
'さえ'
'こで'
'ここから'
'があり_'
'かね_'
'あんたは'
'zed_'
'za'
'weeks_'
'va'
'tv_'
'tried_'
'talked_'
'stopped_'
'single_'
'present_'
'often_'
'lived_'
'led_'
'ke_'
'id_'
'ia_'
'group_'
'finally_'
'felt_'
'fell_'
'explain_'
'either_'
'dy_'
'du'
'drive_'
'difficult_'
'decided_'
'da'
'cute_'
'along_'
'address_'
'6日_'
'17'
'13'
'５'
'魚'
'髪'
'雨'
'難'
'除'
'間に'
'都市'
'郷'
'部屋に'
'部の'
'軽'
'話した'
'裏'
'蔵'
'脱'
'肉'
'聞いた'
'組'
'窓'
'種'
'秘密'
'禁'
'祭'
'社会'
'知ってる_'
'現実'
'演'
'歳'
'欠'
'最後に'
'最初に'
'日に'
'改'
'戸'
'心配'
'強く'
'年に'
'布'
'実は_'
'学校'
'天皇'
'売'
'図'
'区'
'包'
'分かってる_'
'出る'
'備'
'俺_'
'你'
'何でも'
'仲'
'令'
'付け'
'仕事'
'今日'
'人は_'
'事は_'
'了'
'一度'
'ンド'
'ロック'
'ベル'
'ブラ'
'ノー'
'ソン'
'シャ'
'サー'
'サイ'
'カン'
'エル'
'アン'
'をした'
'るのは'
'るな_'
'よる'
'よな_'
'やっぱり_'
'まま'
'に対する'
'なのに_'
'ないの_'
'ないか_'
'どうやって_'
'と呼ばれる'
'ところ'
'ただし_'
'してた'
'ざ'
'さんは_'
'これから'
'ける'
'お願いします_'
'お前は_'
'おお_'
'うまく'
'いいよ_'
'あんた_'
'→_'
'weapon_'
'video_'
'vi'
'tu'
'secret_'
'rather_'
'poor_'
'picture_'
'personal_'
'park_'
'music_'
'mi_'
'land_'
'ka_'
'interesting_'
'hour_'
'government_'
'gi'
'follow_'
'floor_'
'final_'
'fighting_'
'fault_'
'ey_'
'experience_'
'detective_'
'definitely_'
'dark_'
'contact_'
'became_'
'alright_'
'al'
'N'
'Look_'
'D'
'6年'
'5日_'
'1つ'
'100_'
'４'
'類'
'頼む_'
'頭を'
'階'
'遺'
'運'
'連絡'
'込んで'
'車の'
'起'
'説'
'覚'
'自分が'
'給'
'第1'
'私たちは_'
'砂'
'知らない'
'生き'
'治療'
'殺した'
'最近'
'景'
'時間が'
'教育'
'撃'
'投げ'
'手に'
'房'
'想像'
'復'
'後に_'
'当時の'
'延'
'寺の'
'密'
'寄'
'家族'
'守る'
'孫'
'女_'
'変な'
'増'
'城_'
'史'
'分かってる'
'典'
'兄'
'以上'
'付'
'今日_'
'事だ_'
'中で_'
'ルー'
'ルの'
'ライ'
'ママ_'
'ペ'
'ナー'
'トリ'
'タイ'
'シン'
'わかる'
'らの'
'よかった'
'やる'
'やって'
'または'
'はずだ_'
'になった'
'です'
'たと'
'それから'
'それ_'
'そのまま'
'しない'
'したら_'
'さい_'
'こういう'
'くる_'
'きっと'
'からね_'
'かよ_'
'あんな'
'あらゆる'
'あまり'
'あと'
'ya'
'words_'
'voice_'
'ver_'
'unless_'
'ter_'
't'
'spend_'
'sea_'
'scene_'
'scared_'
'ra'
'pass_'
'p'
'middle_'
'lly_'
'level_'
'ki_'
'island_'
'impossible_'
'happening_'
'green_'
'feeling_'
'earlier_'
'director_'
'careful_'
'bo'
'blue_'
'ass_'
'angry_'
'act_'
'T'
'Get_'
'F'
'50'
'3日_'
'25'
'11'
' ♪_'
'高い'
'駅_'
'飯'
'非'
'院_'
'限り_'
'闘'
'量'
'選択'
'送'
'追'
'負'
'誰にも'
'話す'
'話し'
'言って'
'街'
'胸'
'終'
'紙'
'税'
'程'
'確かに'
'知っている'
'目の'
'痛'
'滅'
'気に'
'歯'
'栄'
'来い_'
'条'
'更に'
'暦'
'時に'
'明治'
'族'
'斎'
'支配'
'持つ'
'我が'
'心の'
'張'
'寛'
'宿'
'実は'
'子に'
'夫'
'大丈夫か_'
'周'
'口を'
'十分'
'割'
'優'
'会社'
'仕事が'
'仁'
'人間'
'交通'
'亡'
'事を_'
'与'
'ーに'
'ム_'
'ポー'
'ボス'
'ドア'
'ック'
'ダメ_'
'スト'
'スの'
'ジョン'
'ガン'
'んで_'
'わからない_'
'るのは_'
'るのか_'
'やった_'
'もの'
'もし_'
'める'
'みたいな'
'ぼく'
'ほど_'
'べき'
'の中に'
'のように_'
'のために'
'なお_'
'と言う'
'とき_'
'であった'
'てた'
'ついて_'
'つ_'
'ったんだ_'
'だったら_'
'ださい_'
'ため'
'たぶん'
'たのか_'
'その後'
'すいません_'
'じゃない'
'され'
'ここを'
'ここに_'
'こ_'
'お前を'
'いわ_'
'いま'
'いって'
'いく'
'いいな_'
'あんたの'
'あれ'
'』（_'
'x'
'whether_'
'w'
'ves_'
'ti'
'takes_'
'surprised_'
'smart_'
'short_'
'ps_'
'pre'
'position_'
'planet_'
'pa'
'ms_'
'lord_'
'list_'
'likely_'
'learned_'
'lead_'
'l'
'ju'
'inter'
'ii_'
'however_'
'forgot_'
'forever_'
'following_'
'feelings_'
'escape_'
'difference_'
'ce'
'beginning_'
'bank_'
'bag_'
'ated_'
'ance_'
'U'
'L'
'Did_'
'15_'
'100'
'!? _'
'･_'
'）・_'
'食べる'
'陽'
'陸'
'限'
'開発'
'閉'
'鎮'
'金が'
'部隊'
'過去'
'貴'
'調査'
'調べ'
'訳'
'見える'
'荒'
'若い'
'芸'
'良かった_'
'自由'
'臣'
'綱'
'続'
'経験'
'皇'
'町の'
'男の'
'生物'
'父は'
'父'
'湯'
'深い'
'活'
'決'
'残'
'止'
'検'
'村_'
'本当の'
'最'
'智'
'時間'
'易'
'早い'
'散'
'捜査官'
'情'
'必ず'
'彼らは_'
'彼'
'当て'
'帯'
'岸'
'局'
'小さな'
'容'
'害'
'奴らは'
'奴は'
'団'
'商'
'名を'
'司'
'受'
'勢'
'列車'
'分かる_'
'出す'
'処'
'内の'
'内に'
'側'
'偉大な'
'値'
'便'
'任'
'仮'
'今まで'
'人と'
'也'
'上で'
'ール'
'ード'
'ヴィ'
'レベル'
'メン'
'マリ'
'バス'
'トの'
'ジャー'
'キャ'
'ガス'
'カード'
'んの_'
'わし'
'られた_'
'やっと'
'ものだ_'
'もない'
'みたいに_'
'まず'
'ますよ_'
'ばかり'
'の本'
'の子'
'に対して'
'なり_'
'などを'
'などが'
'なって_'
'と同じ'
'とも_'
'っている'
'たちは'
'せて'
'しら_'
'しょうか_'
'しまった_'
'されている'
'ぎ_'
'お前に'
'お_'
'えて'
'いの'
'いえ_'
'いう_'
'いいぞ_'
'y'
'wrote_'
'worried_'
'within_'
'un'
'type_'
'ton_'
'third_'
'sky_'
'sing_'
'ses_'
'seconds_'
'relax_'
'perhaps_'
'peace_'
'ourselves_'
'north_'
'needed_'
'mark_'
'manager_'
'lying_'
'loved_'
'large_'
'ko_'
'known_'
'join_'
'instead_'
'her'
'hate_'
'ful_'
'fish_'
'fe'
'ess_'
'draw_'
'dis'
'destroy_'
'department_'
'de'
'date_'
'couple_'
'certain_'
'catch_'
'calling_'
'area_'
'anybody_'
'amount_'
'Is_'
'In_'
'Ha'
'Can_'
'Al'
'7日_'
'2つの'
'1人'
'0日_'
'... ..._'
'... '
'６'
'験'
'鉄'
'運動'
'通り_'
'逆'
'軍の'
'跡'
'資'
'訓練'
'見つけた'
'製'
'裕'
'術'
'聞く'
'縁'
'統'
'細'
'精神'
'築'
'突然'
'積'
'称'
'私達の'
'矢'
'省'
'症'
'略'
'界'
'王_'
'爆発'
'焼'
'為に_'
'渡'
'深'
'注'
'法律'
'没'
'殺'
'歳_'
'検査'
'来た_'
'条件'
'本の'
'明日_'
'既に'
'旅'
'方_'
'技術'
'打'
'戻る'
'念'
'彼女'
'彼らを'
'影響'
'彦'
'当然'
'弓'
'府'
'幸'
'常に'
'州'
'山_'
'姿'
'姉'
'夢'
'夏'
'塔'
'報'
'地下'
'圧'
'国に'
'唯一の'
'同年'
'古い'
'勅'
'到'
'分かりました_'
'分かって'
'冗談'
'入り'
'党'
'兄弟'
'僕を'
'俺も'
'企業'
'レー'
'レス'
'リン'
'メイ'
'テスト'
'んだけど_'
'を見た'
'をお'
'わからない'
'れを'
'られている_'
'らが'
'ものを'
'みたいに'
'まるで'
'の後'
'にある'
'なのよ_'
'なに_'
'ないで_'
'と思います_'
'とにかく'
'ではなく_'
'ではありません_'
'でしょうか_'
'できない'
'ちゃん'
'だい'
'そんな_'
'そりゃ'
'せる'
'すると_'
'しばらく'
'したと'
'さんに'
'こんにちは_'
'こに'
'ことだ_'
'ことが_'
'ここの'
'がいる_'
'があった_'
'かん'
'かに'
'かけ'
'えッ_'
'えた'
'うち'
'あるいは'
'ぁ_'
'」'
'。」_'
'“_'
'z'
'wa'
'v_'
'ur'
'u'
'tri'
'tra'
'technology_'
'te'
'sun_'
'suddenly_'
'sub'
'station_'
'ride_'
'research_'
'quickly_'
'pro'
'numbers_'
'moon_'
'liked_'
'kun_'
'ks_'
'je'
'hair_'
'general_'
'gar'
'ga'
'form_'
'fear_'
'fair_'
'ent_'
'dropped_'
'dangerous_'
'crime_'
'computer_'
'chan_'
'cars_'
'c'
'busy_'
'box_'
'bor'
'bitch_'
'bar'
'attention_'
'als_'
'H'
'Are_'
'21'
'200'
'14'
'00_'
'...'
')'
'食べ'
'飛行'
'顔を'
'頭に'
'面白い'
'電気'
'降'
'長く'
'鍵'
'銀行'
'適'
'近代'
'車に'
'質問'
'請'
'誰でも'
'認'
'記録'
'視'
'補'
'装'
'行った'
'衆'
'虫'
'苦'
'舞'
'自分を'
'自分'
'聞いて'
'継'
'絶対に'
'終わり'
'範'
'県_'
'目に'
'登'
'男が'
'生活'
'率'
'獣'
'状'
'物に'
'物が'
'焼き'
'瀬'
'源氏'
'殿_'
'歩'
'柄'
'来る'
'最高の'
'書き'
'料理'
'料'
'文字'
'所を'
'所_'
'慶'
'恋'
'彼には'
'弱い'
'年の'
'巨大な'
'寒'
'字'
'子供を'
'姫'
'奴が'
'奉'
'失敗'
'天皇_'
'多く'
'多い_'
'夕食'
'堂'
'執'
'嘘'
'問'
'命令'
'周辺'
'吹'
'印'
'医療'
'剣'
'分の'
'分からない_'
'再び'
'兼'
'兵士'
'入れ'
'入って'
'億'
'僕も'
'俺'
'俊'
'使う'
'作る'
'会議'
'会社の'
'以上の'
'今度は'
'今すぐ'
'人物'
'争'
'世紀'
'ート'
'レン'
'ユ'
'モー'
'マル'
'ファン'
'パイ'
'ップ'
'ター_'
'ジャック_'
'シア'
'コー'
'クロ'
'カラ'
'オレ'
'アラ'
'アイツ'
'ア_'
'んだろ_'
'を取り'
'わない_'
'られない_'
'もちろん'
'もしれない_'
'みな'
'まったく'
'ましたか_'
'の日'
'になって'
'ないよ_'
'どうする_'
'とにかく_'
'となる'
'とって'
'だし_'
'たとえ'
'そこ'
'すれば'
'しよう_'
'しましょう_'
'されて_'
'させて'
'させ'
'このような'
'くの'
'くない_'
'があると'
'うと'
'いで_'
'いか_'
'あると'
'ways_'
'watching_'
'tells_'
'ta_'
'support_'
'sounds_'
'seriously_'
'road_'
'rate_'
'prison_'
'ow_'
'normal_'
'necessary_'
'ne'
'mrs_'
'month_'
'mo'
'message_'
'lucky_'
'luck_'
'la'
'killer_'
'ine_'
'il_'
'ian_'
'humans_'
'hero_'
'helped_'
'h'
'ground_'
'gra'
'g'
'funny_'
'fo'
'figured_'
'example_'
'enjoy_'
'eight_'
'cra'
'cover_'
'code_'
'charge_'
'built_'
'build_'
'bought_'
'army_'
'absolutely_'
'Okay_'
'?'
'<_'
'7年'
'4日_'
'40_'
'40'
'2人'
'10年'
'...!_'
'ｱﾙﾏﾝ_'
'？ '
'７'
'１０'
'）」_'
'雲'
'雑'
'隠し'
'際'
'阿'
'間の'
'道路'
'込む'
'農'
'身を'
'走'
'賞'
'賀'
'話して'
'話_'
'言った_'
'覚え'
'見せ'
'製造'
'行動'
'行って_'
'良く'
'艦'
'背'
'考える'
'罪'
'緊急'
'筋'
'移動'
'禅'
'確認'
'真実'
'直接'
'盗んだ'
'男_'
'犯'
'特別'
'爆弾'
'浜'
'流れ'
'泉'
'段'
'歳で'
'武器を'
'様'
'梅'
'杯'
'望'
'書を'
'暴'
'暗'
'時代_'
'日の'
'施設'
'方の'
'新聞'
'故'
'政権'
'掛け'
'我々を'
'情報を'
'息'
'急いで'
'忘れ'
'心を'
'徳川'
'後で'
'弁'
'康'
'底'
'崎'
'少女'
'小さい'
'射'
'宗教'
'宇宙'
'存在'
'存'
'女の'
'女が'
'大阪'
'大きく'
'多分'
'声'
'場所'
'域'
'坊'
'地方'
'国家'
'営'
'問題'
'呼吸'
'君たち'
'名前は'
'名は'
'取る'
'反対'
'去'
'医'
'化学'
'功'
'初めて_'
'出来ない_'
'写'
'元に'
'僕に'
'俺たちは'
'何とか'
'体の'
'会って'
'他の人'
'予'
'下で'
'一部'
'一緒に_'
'・・ _'
'ヶ月'
'リーダー'
'ランド'
'ュー'
'ドー'
'トル'
'データ'
'ダン'
'ダメ'
'タイム'
'ソー'
'センター'
'スを'
'ジョ'
'ション'
'サラ'
'ゲ'
'グラ'
'クス'
'ギー'
'キス'
'ウソ'
'イ_'
'をし'
'わない'
'わたし'
'わずか'
'ろよ_'
'ろう'
'るのよ_'
'りません_'
'らせ'
'らしい'
'ような_'
'ゆ'
'やつ'
'も見'
'ものです_'
'もう一度'
'めて'
'までの'
'まい'
'ばか'
'はなく_'
'の神'
'の家'
'の地'
'のもの'
'のみ'
'のある'
'により_'
'において'
'なんです_'
'なんだよ_'
'なんか_'
'なければ_'
'なぁ_'
'どこに'
'と共に'
'となり_'
'できた'
'でき'
'てん'
'ったと'
'だけで_'
'それとも'
'そうな'
'するのは_'
'しま'
'してくれ_'
'したんだ_'
'したの_'
'したい'
'しい_'
'させた'
'さあ'
'この_'
'こう_'
'けて'
'くる'
'からです_'
'かけて'
'かい'
'うの'
'うこと'
'いよ_'
'いや'
'あい'
'ze_'
'ying_'
'wonderful_'
'weird_'
'wall_'
'walking_'
'victim_'
'usually_'
'universe_'
'tree_'
'to'
'tic_'
'suspect_'
'surgery_'
'su'
'study_'
'straight_'
'sta'
'song_'
'smile_'
'simple_'
'si'
'shop_'
'shi'
'share_'
'sha'
'ro'
'risk_'
'rich_'
'quit_'
'putting_'
'pressure_'
'ou'
'nature_'
'natural_'
'na'
'mm_'
'mar'
'lu'
'leader_'
'ko'
'kept_'
'ise_'
'is'
'in'
'huge_'
'holding_'
'global_'
'glass_'
'fu'
'force_'
'for'
'ff'
'feels_'
'fbi_'
'ei'
'education_'
'design_'
'decide_'
'created_'
'coffee_'
'club_'
'chi_'
'chi'
'cha'
'cell_'
'camera_'
'bs_'
'bri'
'birthday_'
'bi'
'beyond_'
'began_'
'b'
'agree_'
'across_'
'access_'
'a'
'\u(_'
'One_'
'Good_'
'Co'
'Be'
'300_'
'188'
'12_'
'--_'
' − _'
'鹿'
'願'
'頂'
'音楽'
'電話'
'陰'
'陣'
'関係'
'間違い'
'門_'
'道は'
'道_'
'運転'
'週間'
'送り'
'追跡'
'込み'
'辺'
'辞'
'費'
'買って'
'負け'
'警察に'
'誰だ_'
'読'
'詩'
'証言'
'見つけ'
'裂'
'被'
'衛星'
'衛'
'行為'
'草'
'聞いてくれ_'
'聞いて_'
'者を'
'群'
'罰'
'線_'
'絶対'
'経済'
'終わる'
'細胞'
'糸'
'答え'
'第2'
'立って'
'確かに_'
'確'
'看'
'目的'
'生きてる'
'犬'
'照'
'煙'
'激'
'減'
'毛'
'殺害'
'殺す'
'止める'
'欲しい'
'次に'
'機械'
'樹'
'様々な'
'楽しみ'
'札'
'最高'
'暴力'
'時間は'
'時間の'
'時期'
'時は'
'時に_'
'昇'
'方が_'
'政治'
'政府'
'支'
'撃つ'
'採'
'戦争'
'我々に'
'憲'
'意味'
'恐怖'
'性の'
'必要な'
'必要'
'律'
'張り'
'弘'
'建設'
'庭'
'座'
'帰る'
'席'
'市民'
'対する'
'対して'
'子供が'
'子は'
'嫌な'
'妹'
'奴を'
'大丈夫よ_'
'売り'
'報告'
'堂_'
'因'
'器'
'名前を'
'取った'
'友人'
'及び'
'危険'
'医師'
'助けて_'
'助け'
'劇'
'則'
'分かる'
'分_'
'出血'
'出し'
'共に'
'全然'
'全員'
'免'
'先生'
'働いて'
'健'
'停'
'信じる'
'使い'
'作品'
'何故'
'何かを'
'会を'
'会う'
'休'
'伊'
'仲間'
'人生を'
'人生'
'人で'
'人だ_'
'事故'
'事件'
'了解_'
'了_'
'乱'
'中に_'
'中だ_'
'一人で'
'ヴァ'
'レストラン'
'ラ_'
'ヤツ'
'ボール'
'ペン'
'ベイ'
'ブリ'
'フォー'
'ファ'
'バレ'
'ニュース'
'ニック'
'トラ'
'ティー'
'チ_'
'スーパー'
'ショー'
'アップ'
'わかってる'
'れない_'
'るもの'
'るから_'
'りに'
'やれ_'
'ものが'
'ほう'
'ひとつ'
'は大'
'は一'
'はどう'
'はその'
'の男'
'の名'
'の中で'
'のス'
'のような'
'のため'
'に行く'
'になると'
'なよ_'
'ながら'
'どうしたの_'
'どういう'
'ともに'
'とした'
'とこ'
'でい'
'っていた'
'ちょうだい_'
'だけで'
'たよ_'
'たのは_'
'ぞ'
'するのは'
'するな_'
'するために'
'じゃないわ_'
'じ_'
'しない_'
'さんと'
'さま'
'させる_'
'さぁ_'
'くし'
'きな'
'かり'
'かし'
'および'
'いに'
'いな'
'いつか'
'あんた'
'ぁ'
'」「_'
'york_'
'worse_'
'wearing_'
'village_'
'victims_'
'ties_'
'throw_'
'tel_'
'tea_'
'sur'
'suppose_'
'star_'
'star'
'spent_'
'showed_'
'sed_'
'science_'
'sake_'
's'
'ru'
'rd'
'quick_'
'places_'
'per_'
'over'
'os'
'or'
'on'
'no'
'ni'
'nes_'
'near_'
'named_'
'moved_'
'miles_'
'mid'
'market_'
'man'
'lunch_'
'lo'
'laughter_'
'ku'
'ked_'
'ke'
'ka'
'k'
'ji_'
'ji'
'ist_'
'ish_'
'involved_'
'internet_'
'interested_'
'ial_'
'hungry_'
'honey_'
'ha'
'games_'
'forgive_'
'fore'
'fi'
'eventually_'
'effect_'
'ea'
'di'
'danger_'
'dan'
'daddy_'
'crying_'
'choose_'
'cho'
'can'
'broken_'
'billion_'
'beat_'
'ating_'
'air'
'ai'
'activate_'
'Z'
'V'
'S_'
'Re'
'Not_'
'Na'
'M_'
'7月'
'2月'
'198'
'195'
'000'
'!'
' $_'
'９'
'鬼'
'飛行機'
'頃_'
'電話して'
'集_'
'関東'
'間で'
'金の'
'野郎_'
'部に'
'邪魔'
'還'
'通りに'
'軍は'
'赤ちゃん'
'賢'
'豪'
'議員'
'調べて'
'課'
'誰かに'
'誰_'
'話を'
'話は'
'試験'
'試'
'許可'
'規則'
'見つける'
'見つけた_'
'衣'
'行って'
'行_'
'薬を'
'落ち着け_'
'落ち'
'良い_'
'舎'
'自殺'
'自己'
'育て'
'聴'
'者に'
'羅'
'織'
'細川'
'紫'
'等の'
'竜'
'秒'
'神社'
'石_'
'知らない_'
'目が'
'盤'
'皆が'
'疑'
'甲'
'生の'
'球'
'準備'
'派の'
'活動'
'油'
'永遠に'
'気持ち'
'毎日'
'殺した_'
'殺し'
'歴史'
'此'
'次は'
'構'
'核'
'枚'
'条約'
'束'
'本物の'
'朝廷'
'最終'
'書いて'
'時には'
'昨日'
'方を'
'教会'
'捕まえ'
'拠'
'折'
'技'
'我々'
'患者'
'徒'
'彼と'
'座って_'
'希望'
'工'
'層'
'寿'
'室に'
'実験'
'安全'
'学生'
'子を'
'嫌'
'妙'
'女性'
'奥'
'契約'
'奈良県'
'大和'
'壁'
'場_'
'地獄'
'地に'
'固'
'名前は_'
'合う'
'号_'
'可能'
'博物館'
'博士_'
'卒業'
'動物'
'労働'
'努力'
'助ける'
'利益'
'利用'
'刑務所'
'出来事'
'出た'
'出して'
'冷'
'冬'
'具'
'兵器'
'働き'
'借り'
'倒'
'倍'
'俺達は'
'修理'
'保険'
'俗'
'作り'
'何度も'
'何を_'
'何だよ_'
'以降_'
'他にも'
'今日は_'
'事業'
'事が'
'乗り'
'中心'
'中央'
'世界を'
'世界は'
'下の'
'一つの'
'一_'
'ンを'
'ロシア'
'ルド'
'リッ'
'ライン'
'ャ'
'メール'
'ボー'
'フェ'
'ビール'
'ビー_'
'パパは'
'パス'
'バラ'
'ニア'
'ディ_'
'テン'
'ダイ'
'ゾンビ'
'セント'
'ジン'
'ジ_'
'コンピューター'
'クリ'
'キン'
'オレの'
'エン'
'アナ'
'んて_'
'をして'
'るか'
'りの'
'られて'
'らしい_'
'よりも_'
'やっぱり'
'みた'
'までは'
'は最'
'はや'
'の死'
'の方'
'のを_'
'のだ_'
'ねぇ'
'に出'
'によって_'
'にする'
'なこと'
'どこか'
'どうだ_'
'と言った'
'と思った_'
'となった'
'とともに'
'ところで_'
'てない_'
'つの'
'つけて'
'ったこと'
'ちょっと待って_'
'ち_'
'たもの'
'たった'
'たくさん'
'それも'
'それぞれ'
'ずっと_'
'するわ_'
'すべき'
'じゃん_'
'じゃなかった_'
'していた_'
'したこと'
'しく'
'こんなこと'
'ころ'
'これら'
'この地'
'こっちだ_'
'こそ_'
'ここが'
'くれた_'
'くらい'
'くて'
'かしら_'
'おく'
'おいて'
'いと_'
'あら_'
'あの子'
'あたし'
'”_'
'~!_'
'yu'
'wi'
'waste_'
'war'
'vo'
'understood_'
'under'
'um'
'track_'
'the'
'ter'
'tar'
'summer_'
'stick_'
'states_'
'stage_'
'social_'
'sla'
'signal_'
'service_'
'saving_'
'ry'
'rules_'
'river_'
'ri'
'release_'
'rea'
'process_'
'points_'
'pieces_'
'pi'
'paid_'
'orders_'
'od'
'nu'
'nd_'
'mouth_'
'mis'
'micro'
'mal'
'magic_'
'mad_'
'ma'
'li'
'ley_'
'law_'
'jail_'
'ja'
'issues_'
'interest_'
'ill_'
'ik'
'ig'
'ie'
'ia'
'hmm_'
'hide_'
'guard_'
'gotten_'
'go'
'given_'
'forward_'
'fly_'
'finding_'
'faster_'
'except_'
'ele'
'ee'
'drop_'
'dna_'
'details_'
'den'
'decision_'
'dear_'
'dar'
'cy_'
'create_'
'continue_'
'common_'
'col'
'clu'
'clearly_'
'broke_'
'board_'
'base_'
'az'
'attacked_'
'ary_'
'action_'
'ability_'
'Ta'
'Me'
'Maybe_'
'L_'
'Go'
'?」_'
'? '
'; _'
'9年'
'500'
'3人'
'24'
'1月'
'11_'
', '_'
'？ - _'
'８'
'－_'
'飛び'
'額'
'電話を'
'離'
'隠'
'陸軍'
'鏡'
'鎖'
'重要な'
'郎'
'選'
'遣'
'運転手'
'逆に'
'車で'
'身体'
'距離'
'足利'
'質'
'資料'
'貨'
'誰かを'
'読んで'
'読み'
'説_'
'評'
'記憶'
'観音'
'見ろ_'
'裁判'
'芸術'
'興味深い'
'脱出'
'脚'
'肌'
'者は_'
'者で'
'緑'
'続ける'
'米国'
'籠'
'籍'
'管'
'算'
'秘'
'禁止'
'祝'
'祖'
'示'
'知り合い'
'知らせ'
'監督'
'的_'
'発見'
'生きて'
'理由は_'
'猫'
'状況'
'満足'
'港'
'浮'
'汚'
'気分'
'氏は'
'母の'
'死んで'
'死んだ_'
'止め'
'権限'
'様の'
'様に'
'楽しい'
'楽し'
'株'
'校'
'柳'
'来て'
'本を'
'本_'
'未来を'
'期待'
'書_'
'晴'
'普通の'
'時は_'
'昔の'
'敷'
'敗'
'換え'
'提供'
'押し'
'抗'
'戦い'
'恵'
'息子を'
'息子'
'恩'
'怪'
'急に'
'忘れて'
'待ち'
'弁護士'
'建物'
'床'
'幕'
'帰って'
'工業'
'察'
'寝て'
'宮_'
'官_'
'宅'
'子供たち'
'始'
'好きだ'
'奴の'
'女性が'
'大切な'
'大事な'
'外に'
'場所を'
'場所に'
'場合_'
'堀'
'城に'
'商品'
'同時に'
'可能性'
'収'
'博士'
'博'
'午後'
'効果'
'創'
'刻'
'別に'
'判断'
'切れ'
'切って'
'分からない'
'出した'
'冠'
'公園'
'全てを'
'入る'
'光の'
'元気'
'健康'
'俺には'
'価値'
'何も_'
'低'
'位_'
'会った'
'以'
'代_'
'仙'
'二度と'
'二人の'
'事も'
'上手く'
'万ドル'
'ーク'
'ーの'
'ヶ'
'ング'
'ルを'
'モンスター'
'モン'
'ボーイ'
'ボル'
'プラ'
'ブ_'
'フランス'
'フランク_'
'ピア'
'ビン'
'ビデオ'
'ヒーロー'
'バル'
'ハッ'
'ニューヨーク'
'ニュー'
'ナン'
'トー'
'トン'
'デン'
'デス'
'ティ_'
'チョ'
'タ_'
'セル'
'スラ'
'ジュ'
'シャー'
'シャン'
'サム'
'ケー'
'グリ'
'キング'
'カル'
'インド'
'を殺した'
'を持つ'
'を受け'
'れない'
'るの'
'ること'
'りを'
'らを'
'らず_'
'ようこそ_'
'ものと'
'もいい_'
'みの'
'まり'
'までに'
'ませんでした_'
'ませんか_'
'まぁ_'
'ほぼ'
'ほしい_'
'へ行く'
'へと'
'は見'
'はどこだ_'
'はずです_'
'は2'
'の指'
'の国'
'の前'
'の上に'
'のマ'
'のため_'
'のこと_'
'のこと'
'になります_'
'にした'
'における'
'にいた'
'にい'
'なるほど_'
'なので_'
'なし_'
'ないで'
'どっち'
'どうする'
'どうか'
'と思って'
'と思う'
'てない'
'てください_'
'ており_'
'つもりだ_'
'って言った'
'っても'
'ちょうど'
'だぜ_'
'だけです_'
'ための'
'たま'
'たち'
'たこと'
'それと'
'そうと'
'そうする'
'せい'
'ずに'
'するんだ_'
'したが_'
'さっき'
'ごく'
'こんなに'
'これまで'
'ことで_'
'ことで'
'こっち'
'ここにいる'
'けた'
'ぐらい'
'くなる_'
'きに'
'が必要だ_'
'がら'
'があ'
'かれ'
'からは'
'からな_'
'かない'
'お願い'
'お前ら'
'お互い'
'おい'
'えない'
'ぇ_'
'うな'
'いわ'
'いろいろ'
'いと'
'いっぱい'
'いだ_'
'いだ'
'いいから'
'あッ_'
'あん'
'あれば_'
'あれは_'
'あるか_'
'あの人'
'あと_'
'あげ'
'あいつ'
'〜_'
'」 _'
'。 '
'·_'
'write_'
'weapons_'
'ward_'
'view_'
'usual_'
'ura_'
'uk'
'tro'
'totally_'
'tions_'
'tan'
'table_'
'swear_'
'swa'
'stu'
'south_'
'slow_'
'sho'
'sell_'
'rice_'
'regret_'
'realized_'
'reach_'
'rd_'
'ray_'
'questions_'
'queen_'
'private_'
'prince_'
'press_'
'pleasure_'
'patient_'
'out'
'none_'
'ning_'
'neither_'
'national_'
'nation_'
'nar'
'murdered_'
'mu'
'mon'
'mission_'
'mer'
'ments_'
'mas'
'marriage_'
'local_'
'letter_'
'lab_'
'knife_'
'kidding_'
'ki'
'keeping_'
'itself_'
'issue_'
'investigation_'
'ings_'
'hiding_'
'hadn_'
'grow_'
'gentlemen_'
'foot_'
'flu'
'finished_'
'expected_'
'everywhere_'
'enemy_'
'drunk_'
'des'
'delicious_'
'deep_'
'cru'
'count_'
'cop_'
'cons'
'con'
'cle'
'changes_'
'center_'
'calls_'
'bye_'
'bur'
'bunch_'
'boys_'
'bottom_'
'blow_'
'bet_'
'based_'
'ba'
'aw'
'ard_'
'apologize_'
'apartment_'
'ans_'
'among_'
'ama'
'ad'
'account_'
'T_'
'Lo'
'English_'
'500_'
'2つ'
'25_'
'20年'
'201'
'1日'
'199'
'197'
'187'
'17_'
'16'
'150'
'0年'
'. (_'
'０'
'龍'
'黙って'
'魔法'
'馬鹿'
'飲み'
'食事'
'風に'
'頭が'
'順'
'静'
'階段'
'鉄道'
'邸'
'遇'
'遅'
'逮捕'
'通常'
'逃げた'
'追い'
'近い'
'辛'
'赤ん坊'
'賢い'
'貸'
'議'
'警官'
'講'
'謀'
'詞'
'証拠'
'記念'
'計画を'
'計画'
'言ってた'
'言ったの'
'見つかった'
'見た_'
'見える_'
'西洋'
'街の'
'蜂'
'藩主'
'茂'
'舞台'
'臭い'
'腕'
'脈'
'職員'
'聞け_'
'者が_'
'習慣'
'美術'
'繁'
'縛'
'線の'
'級'
'約2'
'粉'
'筆'
'第'
'立派な'
'空間'
'程度'
'私達'
'私たち'
'知っている_'
'眼'
'登録'
'痛み'
'病院に'
'番号'
'留'
'男を'
'申し'
'生まれ'
'環境'
'現場'
'玄'
'猛'
'犯罪'
'特別な'
'物は'
'物の'
'父_'
'混乱'
'浄'
'活躍'
'泳'
'法_'
'決断'
'決め'
'求'
'水を'
'毎年'
'死体'
'死を'
'歩く'
'武士'
'機関'
'様な'
'東西'
'材'
'机'
'木_'
'望む'
'替え'
'曜'
'時代の'
'時代に'
'時代'
'方に'
'教授'
'攻め'
'探'
'振'
'指示'
'担当'
'抜'
'才'
'手術'
'手の'
'手が'
'所有'
'所で'
'戦闘'
'戒'
'懐'
'悪魔'
'恐れ'
'怖い'
'微'
'後ろに'
'後は'
'征'
'彼女と'
'影'
'当時'
'弱'
'弥'
'建築'
'庵'
'度の'
'幅'
'市の'
'差し'
'島に'
'屋敷'
'屋_'
'少年'
'少なくとも'
'寺と'
'家族の'
'室_'
'実に'
'学ぶ'
'子供の'
'威'
'姿を'
'始めた'
'奈良'
'大人'
'夜の'
'外の'
'夕'
'壇'
'墨'
'場に'
'国で'
'囲'
'喜んで'
'啊_'
'味方'
'君達'
'受け入れ'
'取って'
'厳しい'
'危険な'
'半分'
'動いて'
'助'
'刑事'
'分析'
'全員_'
'児'
'僕と'
'像'
'傷つけ'
'俺たちの'
'依頼'
'例'
'使用'
'使って'
'使った'
'何人'
'何で_'
'体に'
'位置'
'伝承'
'伝える'
'以後'
'以外の'
'以前の'
'代表'
'仕事に'
'今から'
'京都の'
'交換'
'二人'
'予想'
'九州'
'丘'
'世界の'
'一般'
'ワイ'
'ロ_'
'ルが'
'モデル'
'マジ'
'マイク_'
'マイ'
'プリ'
'プ_'
'ブラック'
'フラ'
'フォ'
'フィ'
'ピーター'
'ピン'
'バック'
'ノート'
'ネル'
'ネット'
'ドリ'
'ドイツ'
'ドを'
'テロ'
'チュー'
'チャー'
'ゼ'
'セン'
'ステ'
'ジョー'
'システム'
'サム_'
'サイン'
'グループ'
'キー_'
'ガイ'
'カス'
'オン'
'エイ'
'イル'
'イギリス'
'アレ'
'アメリカ人'
'アス'
'んでしょ_'
'を追'
'を行'
'を持って'
'を受けて'
'わかる_'
'わかってる_'
'ろうか_'
'ればいい'
'る事'
'りな'
'りと'
'りだ'
'られない'
'らに'
'らか'
'ようと'
'ょう'
'ゆっくり'
'やってる'
'もん'
'ものは_'
'ものだ'
'もな'
'もっと_'
'もしもし_'
'みんなで'
'まれた'
'まる'
'ま_'
'へん'
'ひと'
'は誰'
'は今'
'はまだ'
'はな'
'はお'
'は1'
'の発'
'の女'
'の公'
'の件'
'の中'
'のフ'
'のア'
'のことを'
'のが_'
'に乗'
'に一'
'によると_'
'になった_'
'につ'
'にあ'
'な人'
'なんで_'
'なん'
'なぜなら'
'なくて_'
'なきゃ_'
'ないと'
'どれだけ'
'ですよね_'
'てい'
'ついに'
'ったら'
'だろう'
'だめだ_'
'たんだ'
'たちに'
'それを_'
'それに_'
'その人'
'そのような'
'そっち'
'そうだね_'
'そ_'
'せる_'
'せない'
'せた'
'すばらしい'
'すでに'
'すっ'
'すこと'
'じて'
'しても_'
'さを'
'されています_'
'さら'
'さい'
'これで_'
'このまま'
'こそ'
'ここで_'
'ければ'
'くなる'
'くなって'
'くせに_'
'が大'
'が一'
'かもしれない_'
'かな'
'かけた'
'おまえ'
'おはよう_'
'えば_'
'ええと_'
'いません_'
'いない'
'いつでも'
'いくつか'
'あー_'
'あること'
'あたり'
'。➡_'
'—_'
'yo'
'yen_'
'wor'
'west_'
'weren_'
'wake_'
'virus_'
'unt'
'uns'
'university_'
'un_'
'ul'
'treat_'
'transfer_'
'tor'
'till_'
'ta'
'sweet_'
'sudden_'
'starting_'
'ss'
'speed_'
'somehow_'
'size_'
'sion_'
'simply_'
'sign_'
'shin'
'search_'
'rock_'
'respect_'
'realize_'
'push_'
'proof_'
'project_'
'program_'
'price_'
'prepared_'
'po'
'planning_'
'per'
'pe_'
'passed_'
'partner_'
'paper_'
'ors_'
'ok'
'og'
'noticed_'
'nor_'
'non'
'ned_'
'movie_'
'medical_'
'meaning_'
'mc'
'match_'
'ly'
'lies_'
'ler_'
'legs_'
'kar'
'hotel_'
'hor'
'hearing_'
'handle_'
'gs_'
'gro'
'gri'
'grandma_'
'goodbye_'
'forest_'
'flight_'
'fit_'
'fired_'
'f'
'expect_'
'ex'
'evening_'
'en'
'empty_'
'ed'
'eb'
'dying_'
'dude_'
'disappeared_'
'device_'
'destroyed_'
'damage_'
'cou'
'conversation_'
'clo'
'che'
'ch'
'certainly_'
'cash_'
'cancer_'
'bus_'
'bu'
'bridge_'
'bra'
'bird_'
'bill_'
'besides_'
'basically_'
'ations_'
'arm_'
'ar_'
'appreciate_'
'anywhere_'
'according_'
'accept_'
'Wait_'
'Sa'
'Po'
'O_'
'OK_'
'Mi'
'As_'
'>_'
'9日_'
'8日_'
'5年'
'3月'
'3日'
'3つ'
'1週間'
'194'
'190'
'...》_'
' ...._'
'！ '
'高速'
'食べ物'
'食い'
'風の'
'顕'
'頼み'
'雷'
'隠れ'
'隔'
'隊'
'陵'
'長の'
'長い'
'鎌倉'
'銅'
'金庫'
'部分'
'部下'
'部_'
'郡_'
'違'
'道具'
'過去に'
'運命'
'遅い'
'連れて'
'迎え'
'身の'
'貴方は'
'貴方の'
'警察が'
'警備'
'諸国'
'誰の'
'語で'
'試し'
'設立'
'言葉'
'言ってる'
'言って_'
'言う_'
'覚えて'
'襲'
'複'
'装備'
'袖'
'行く_'
'行かない'
'蔵_'
'葬'
'著'
'菜'
'荘'
'船の'
'至'
'自らの'
'腰'
'脳の'
'胤'
'聞いてる'
'耳'
'考えて'
'置いて'
'終わった'
'素晴らしい_'
'簡単に'
'箱'
'策'
'突'
'私たちに'
'石油'
'短'
'瞬間'
'督'
'相当'
'皆さん_'
'発明'
'疑問'
'用意'
'生産'
'生命'
'生きている'
'理解'
'理由'
'現場に'
'現在_'
'現れる'
'王子'
'王は'
'玄関'
'狭'
'独'
'狩'
'狂'
'犯人'
'爆'
'熟'
'無理だ'
'漢'
'漁'
'測'
'浄土'
'流_'
'決定'
'氷'
'気_'
'殺された'
'残りの'
'死の'
'歴'
'歩いて'
'正直に'
'次第'
'機能'
'権利'
'権を'
'模'
'概要_'
'染'
'来る_'
'来たの'
'本部'
'本気で'
'木の'
'望み'
'服を'
'有名な'
'月_'
'更'
'明治1'
'日本語'
'政策'
'政府は'
'攻'
'撃ち'
'摂'
'探して'
'授業'
'捜索'
'指揮'
'持ってる'
'持って'
'押'
'投'
'手紙'
'扉'
'我々は_'
'態'
'感謝'
'感染'
'感を'
'愛する'
'愛してる'
'悪い_'
'性を'
'急いで_'
'思った'
'怒'
'忍'
'心配するな_'
'心臓'
'心に'
'復讐'
'御所'
'彼が_'
'広く'
'幸せな'
'将軍_'
'将'
'家族を'
'家庭'
'室町幕府'
'宇治'
'学者'
'孝'
'子供は'
'子ども'
'娘を'
'娘_'
'娘'
'始める'
'奴隷'
'女性の'
'奏'
'奇'
'失礼します_'
'太郎'
'天皇に'
'大統領_'
'大正'
'大丈夫'
'大の'
'夜_'
'変化'
'増え'
'塚'
'場合'
'図書館'
'回_'
'喜び'
'咲'
'君が_'
'向かう'
'后'
'名誉'
'合い'
'可愛い'
'古代'
'受ける'
'受けた'
'又'
'原因'
'印刷'
'医学'
'勘'
'効'
'力に'
'力が'
'剤'
'別に_'
'出来ない'
'処理'
'凍'
'内で'
'入れる'
'優しい'
'僕達'
'側に'
'個人'
'俺と'
'信じてる'
'係'
'例えば'
'作業'
'何て'
'住んでる'
'伝え'
'会社を'
'以来_'
'以前'
'以下'
'代わり'
'仕事は'
'仏教'
'人形'
'人だ'
'人が_'
'人々は'
'事務所'
'事件の'
'争い'
'予定'
'亀'
'乗って'
'中です_'
'並'
'下が'
'丈'
'ール_'
'ーを'
'ーと'
'ンス'
'ロン'
'リンの'
'リン_'
'ライト'
'ユー'
'メートル'
'ミー'
'ミス'
'マシ'
'マイル'
'ホーム'
'ホントに'
'プル'
'ブロディ'
'ブレ'
'ブル'
'ブランド'
'フロ'
'フレ'
'ファイ'
'パーティー'
'パワー'
'パパ'
'ヌ'
'ニック_'
'トを'
'デイ'
'テレビ'
'ッド'
'ット_'
'ックス'
'チン'
'ダ_'
'ソン_'
'セー'
'センチ'
'セックス'
'スーツ'
'スパ'
'スター'
'サ_'
'コート'
'コロ'
'ゲイ'
'ケイ'
'グレ'
'クラス'
'クの'
'カリ'
'オリ'
'ウェル'
'イヤ'
'アリ'
'アの'
'んの'
'んな_'
'んと'
'を連れて'
'を調べ'
'を解'
'を表'
'を発'
'をした_'
'わかった'
'れて_'
'らん'
'よって_'
'よし'
'ょ'
'やすい'
'ゃ'
'も無'
'もしくは'
'もう一度_'
'めた'
'むこと'
'みに'
'みたいだ'
'までは_'
'まって'
'ます'
'は地'
'は何'
'はどうだ_'
'はしない_'
'はこの'
'の方が'
'の所'
'の上'
'の一部'
'の一つ'
'の1'
'に関する'
'に行った'
'において_'
'なんとか'
'ならない_'
'ならない'
'なのに'
'なに'
'どんどん'
'どのように'
'と呼んで'
'とし'
'ところに'
'というのは_'
'でね_'
'できません_'
'てみ'
'つか'
'ついた'
'ったか'
'っか'
'ちょ'
'ちま'
'た事'
'たん'
'たり'
'たって'
'たが'
'たから_'
'それだけ'
'その時'
'すん'
'する気'
'するもの'
'することが'
'するか'
'すら'
'すべてを'
'すぎる'
'じる'
'じゃないよ_'
'してください_'
'しているの'
'しか_'
'されました_'
'さっさと'
'ごめん'
'ごと'
'この時'
'この子'
'ことに_'
'ことがある_'
'こうして'
'けん_'
'けど'
'けだ_'
'くれた'
'きれい'
'が自'
'があるの'
'かを'
'かもしれません_'
'お金を'
'お金'
'お母さん_'
'おっ'
'おそらく_'
'おか'
'おお'
'おいしい'
'うまい'
'いわゆる_'
'いますか_'
'いの_'
'いち'
'いたと'
'いたい'
'いけ'
'いいね_'
'いいと'
'あるの_'
'あら'
'あまりに'
'あいつら'
'』'
'‐_'
'ye'
'willing_'
'whose_'
'whenever_'
'visit_'
'ver'
'ures_'
'up'
'united_'
'uncle_'
'una'
'turns_'
'training_'
'threat_'
'text'
'temp'
'teeth_'
'taught_'
'taste_'
'taka'
'sword_'
'suit_'
'success_'
'stole_'
'sensei_'
'sen'
'scar'
'rooms_'
'rn'
'ris'
'rig'
'responsibility_'
'remains_'
'red'
'reading_'
'rain_'
'qui'
'purpose_'
'prop'
'professor_'
'prepare_'
'post'
'possibility_'
'plans_'
'pen'
'ory_'
'obviously_'
'oa'
'nti'
'nt'
'nk_'
'new'
'ner_'
'nan'
'names_'
'mountain_'
'mor'
'mit'
'missing_'
'missed_'
'mi'
'memories_'
'major_'
'lines_'
'leaves_'
'ld_'
'lawyer_'
'laws_'
'laugh_'
'la_'
'ky_'
'jobs_'
'iti'
'ing'
'imp'
'immediately_'
'ho_'
'herself_'
'hardly_'
'hal'
'growth_'
'growing_'
'grade_'
'giant_'
'fully_'
'flowers_'
'flower_'
'fla'
'finish_'
'fellow_'
'favorite_'
'fate_'
'event_'
'et_'
'emp'
'el'
'een_'
'eating_'
'dro'
'dragon_'
'doubt_'
'do'
'disc'
'dep'
'dealing_'
'david_'
'criminal_'
'crew_'
'court_'
'corner_'
'copy_'
'condition_'
'concerned_'
'college_'
'cla'
'changing_'
'challenge_'
'cc'
'ca_'
'ca'
'burn_'
'bomb_'
'ben'
'bel'
'bear_'
'bb'
'ball_'
'asleep_'
'ash'
'ap'
'allow_'
'Y'
'Un'
'Su'
'Si'
'De'
'Ca'
'Bo'
'An'
'8月'
'80_'
'80'
'76'
'300'
'2日_'
'26'
'1時間'
'196'
'19'
'180'
'133'
'120'
'- '
' ? _'
' !_'
'）（_'
'（『_'
'黙'
'麻薬'
'麻'
'駄目'
'飲んだ'
'食べた'
'韓国'
'青い'
'障'
'隊長_'
'限界'
'限り'
'降り'
'阪'
'間を'
'間に_'
'鎌倉幕府'
'鈴'
'釣り'
'金持ち'
'里_'
'醤油'
'配置'
'違った'
'違うわ_'
'達は_'
'連れて行'
'通_'
'途中'
'途'
'送って'
'这'
'返し'
'込め'
'路線'
'足利義'
'趣味'
'財'
'負けた'
'豚'
'譲'
'謎'
'調整'
'誰に'
'誰か_'
'説明して'
'誤解'
'誘'
'話が'
'許して'
'設'
'解釈'
'解決する'
'規制'
'見てい'
'見せて'
'被害者'
'表記'
'行きましょう_'
'血を'
'藩の'
'蓮'
'落ち着いて_'
'菩薩'
'英雄'
'英国'
'自分自身'
'自ら'
'聞いた_'
'考えてる'
'考'
'美咲_'
'置き'
'練習'
'編纂'
'網'
'維持'
'続き'
'結果を'
'結婚して'
'組み'
'紋'
'簡'
'範囲'
'第二'
'秘密の'
'私はその'
'神は'
'神_'
'祐'
'石を'
'知りたい_'
'知られる'
'知ってた'
'知って'
'着て'
'相手を'
'相手'
'目覚め'
'目_'
'監'
'益'
'白い'
'田_'
'生きる'
'王の'
'狩り'
'物質'
'物語'
'熊'
'火を'
'滑'
'源義'
'消えた'
'浪'
'洗'
'泰'
'沖'
'毎日_'
'母さん'
'残り'
'歳の'
'正義'
'次_'
'構成'
'構わない'
'桂'
'査'
'果'
'本当_'
'未来'
'朝鮮'
'最大の'
'書いた'
'暮れ'
'暮らし'
'晩'
'時で'
'昭和'
'昔'
'明け'
'日本書紀_'
'旅行'
'方法'
'敬'
'散歩'
'撮'
'撃った'
'携帯'
'握'
'探し'
'捜査官_'
'振り'
'担'
'手段'
'手で'
'戦士'
'戦う'
'懸'
'意識'
'情報は'
'息子の'
'思想'
'思ってた'
'快'
'忘れる'
'得る'
'後を'
'待てよ_'
'待って'
'彼らに'
'引っ越し'
'年間'
'平等'
'帳'
'帰ってきた'
'山に'
'居る'
'尻'
'少ない'
'寺院'
'寺を'
'家が'
'守_'
'学校に'
'学校で'
'子と'
'子が'
'嬉しい'
'娘の'
'始めて'
'妻'
'奴らが'
'女性を'
'奇跡'
'失礼_'
'失った'
'夫婦'
'天文'
'大将'
'多分_'
'墓'
'基準'
'基地'
'地域'
'地区'
'国を'
'図_'
'回復'
'回し'
'嘉'
'喜'
'問題を'
'問題に'
'君には'
'向き'
'向かって'
'即'
'危ない'
'単'
'協'
'医者'
'匹'
'匂い'
'力で'
'創造'
'刺激'
'別れ'
'初め'
'刑'
'内容'
'兵衛'
'入れて'
'元年'
'優先'
'倭'
'信長'
'依'
'例の'
'例えば_'
'併'
'体が'
'伴'
'代の'
'付き合って'
'今朝_'
'今朝'
'今夜_'
'今夜'
'今回は'
'二条'
'予測'
'乙'
'主な'
'主_'
'中心に'
'中世'
'中でも'
'世間'
'下り'
'上手'
'三つ'
'丁'
'ーは'
'ヴァン'
'ンが'
'ワイン'
'リスト'
'リス'
'ョン'
'メートル_'
'ムー'
'マーク'
'ママの'
'マスク'
'マク'
'マイケル_'
'ポイント'
'ボン'
'ボロ'
'ホー'
'ホテル'
'ベン'
'プログラム'
'ブロ'
'フル'
'フリー'
'パパの'
'ハッピー'
'ニー_'
'ナイ'
'ドラゴン'
'ドライブ'
'ドアを'
'トロ'
'トリック'
'トラブル'
'トラック'
'トム_'
'トイレ'
'トに'
'デート'
'データを'
'デュ'
'デザイン'
'テープ'
'テル'
'テキ'
'ツ_'
'ダメよ_'
'タイプ'
'セキュリティ'
'ズの'
'スタ'
'スに'
'ジョージ_'
'ジャン'
'ジャック'
'ジム_'
'シッ'
'システムを'
'シの'
'サラ_'
'ゴー'
'ケツ'
'グル'
'クール'
'クル'
'クリスマス'
'クラブ'
'キャン'
'キミ'
'エディ'
'ウィン'
'イエス'
'アンナ'
'んじゃない_'
'を送'
'を見つけ'
'を渡'
'を殺す'
'を打'
'を分'
'を作る'
'を一'
'わけ'
'わかりました_'
'るつもり'
'るだろう_'
'るぞ_'
'るし_'
'られ_'
'らせて'
'らず'
'ようやく'
'ようになった_'
'ようと_'
'やぁ_'
'も大'
'もり'
'もない_'
'もしも'
'もう一'
'もういい_'
'もい'
'もある'
'めた_'
'みのり_'
'みたいだ_'
'まず_'
'ましたが_'
'まさに'
'まあ'
'ほんとに'
'は不'
'はず_'
'はす'
'の高'
'の道'
'の話'
'の行'
'の特'
'の力'
'の前に'
'の体'
'の世界'
'のない'
'のために_'
'のことで'
'に帰'
'によ'
'にお'
'なります_'
'なもの'
'などで'
'なっ_'
'なた'
'ながら_'
'どれ'
'どこ'
'と言った_'
'と同'
'としては_'
'としては'
'ときに'
'ということです_'
'で見'
'でや'
'ではない'
'でした'
'であるが_'
'であり'
'てくれる'
'てきた'
'ていく'
'づ'
'つも'
'つけた'
'つけ'
'ってた'
'っていう'
'っち'
'ったわ_'
'ったの'
'ったか_'
'ちゃう'
'だと思う'
'だったんだ_'
'だったの_'
'だけの'
'たのは'
'たくない_'
'たくさんの'
'そろそろ'
'それでも'
'そりゃ_'
'そこで_'
'そこから'
'そうだ'
'せん'
'すっかり'
'じゃなくて_'
'じい'
'しません_'
'してい'
'しっかり'
'したのは_'
'しが'
'しかない'
'さんが'
'させて_'
'ご主人'
'ごろ'
'ごとに'
'これらは'
'このように'
'ことも'
'ことだ'
'ことから_'
'こっちに'
'ここは_'
'けどね_'
'くれる'
'くり'
'きる'
'きみ'
'が死んだ'
'が必要'
'が出'
'がん'
'がお'
'があるの_'
'からだ_'
'かもしれない'
'かも'
'かは'
'かない_'
'かせ'
'かす'
'かかる'
'お前も'
'おそらく'
'える_'
'いもの'
'いな_'
'いたら_'
'いけない'
'いくら'
'いいんだ_'
'いいや_'
'あんたは_'
'あなた達'
'あなたが_'
'』、『_'
'」。_'
'」 「_'
'。'
'、'
'→ _'
'―'
'zi'
'wood_'
'wo'
'witness_'
'wedding_'
'wear_'
'vol'
'vis'
've'
'v'
'ut'
'uses_'
'us'
'ur_'
'une'
'twice_'
'twi'
'truck_'
'trip_'
'tough_'
'total_'
'thousand_'
'ther_'
'theory_'
'term_'
'tas'
'super_'
'students_'
'stuck_'
'strength_'
'stories_'
'ster_'
'starts_'
'staff_'
'ssi'
'spoke_'
'spirit_'
'speech_'
'spe'
'society_'
'smoke_'
'smell_'
'sm'
'sleeping_'
'ski'
'sitting_'
'several_'
'sel'
'seat_'
'sau'
'sad_'
'sad'
'sa'
'ruin_'
'rt_'
'rt'
'ron_'
'reality_'
're'
'que'
'pu'
'prove_'
'protecting_'
'plate_'
'plane_'
'ping_'
'picking_'
'patients_'
'path_'
'pass'
'para'
'oy'
'otherwise_'
'operation_'
'one'
'oil_'
'oi'
'nk'
'nine_'
'naka'
'mm'
'mil'
'meters_'
'mb'
'map_'
'managed_'
'low_'
'locked_'
'lle'
'lit'
'listening_'
'lin'
'likes_'
'len'
'lea'
'language_'
'kon'
'kim_'
'killing_'
'jin_'
'james_'
'introduce_'
'int'
'ied_'
'ideas_'
'ical_'
'ib'
'ht'
'horse_'
'honest_'
'hole_'
'henry_'
'hen'
'held_'
'hei'
'he'
'hang_'
'han_'
'guest_'
'greatest_'
'gold_'
'gla'
'girlfriend_'
'gg'
'gen'
'further_'
'fur'
'fresh_'
'fra'
'forces_'
'finch_'
'fin'
'fbi'
'favor_'
'far'
'famous_'
'families_'
'falling_'
'failed_'
'fa'
'experiment_'
'exce'
'es'
'ended_'
'enc'
'ely_'
'duty_'
'drug_'
'dor'
'disease_'
'dirty_'
'dic'
'dia'
'der_'
'del'
'dance_'
'current_'
'ct_'
'crush_'
'cross_'
'countries_'
'count'
'cor'
'cops_'
'conf'
'complete_'
'companies_'
'clock_'
'cks_'
'ck'
'ci'
'chu'
'charlie_'
'caused_'
'cat_'
'cart'
'cal_'
'bright_'
'brand'
'bon'
'begin_'
'bed'
'bat'
'bastard_'
'ay_'
'au'
'ati'
'ari'
'america_'
'although_'
'allowed_'
'To_'
'Thank_'
'Ri'
'K'
'Ho'
'For_'
'Fa'
'Do'
'DNA'
'C_'
'Ba'
'?"_'
'90'
'6月'
'4年'
'45'
'42'
'35'
'31'
'23'
'192'
'191'
'18_'
'189'
'186'
'18'
'10月'
'. ._'
'# _'
'"'
'Ａ'
'？"_'
'＞_'
'＜_'
'２人'
'２_'
'）　_'
''
''
'鼻'
'黄'
'鳥羽'
'髪の'
'高校'
'駅で'
'首を'
'飼'
'頭の'
'頃から'
'靴'
'面倒'
'離れて'
'雑誌'
'集団'
'雅'
'隣の'
'障害'
'闘い'
'闇'
'関連'
'関して'
'間が'
'開催'
'開けて'
'閉じ込め'
'鍵を'
'鍋'
'重要文化財_'
'重要'
'酸'
'違い'
'達の'
'達が'
'道が'
'過ぎる'
'進め'
'逮捕され'
'連れ'
'通信'
'逃れ'
'逃げる'
'逃'
'迷'
'近衛'
'軍事'
'軍を'
'軍と'
'軍が'
'起源'
'起動'
'資源'
'貴様'
'貴族'
'貰'
'議論'
'警察は'
'識'
'論_'
'談'
'調べる'
'読んだ'
'語_'
'誘拐'
'認識'
'認め'
'詳しい'
'話を_'
'話だ'
'詰め'
'討'
'親の'
'覚えてない'
'見捨て'
'見つけて'
'要求'
'西郷'
'製品'
'袋'
'行方不明'
'行った_'
'行け'
'藩主_'
'葛'
'落ちる'
'英'
'船を'
'自由に'
'自分に'
'自信'
'脇'
'育'
'肩'
'者として'
'考えてい'
'罪の'
'練'
'続く'
'続いて'
'経営'
'経_'
'組み合わせ'
'純'
'納得'
'約束'
'系_'
'管理'
'笑顔'
'章_'
'空の'
'稼'
'稲'
'種の'
'神様_'
'祈'
'社の'
'確かめ'
'硬'
'研究所'
'砂糖'
'知った'
'相談'
'相続'
'直す'
'直ぐに'
'監視'
'皮'
'的に_'
'発電'
'痛い'
'病気'
'疲れた'
'異なる'
'番_'
'町に'
'申'
'用の'
'用する'
'生活を'
'理論'
'現金'
'現地'
'現代'
'班'
'王朝'
'王に'
'猿'
'独り'
'状況を'
'状態に'
'犯罪者'
'犯人が'
'犬を'
'物で'
'父さん_'
'父さん'
'燃え'
'点を'
'点で'
'潰'
'準'
'渡せ_'
'済'
'洞'
'注文'
'法を'
'河内'
'沈'
'決まった'
'池'
'江戸時代の'
'気を'
'母が'
'残念だ'
'残ってる'
'武田'
'武家'
'武器'
'正面'
'正直'
'様が'
'構造'
'棒'
'桜'
'案内'
'格好'
'村の'
'期間'
'期の'
'月に'
'暗号'
'暗い'
'時計'
'昭和3'
'昨日_'
'日本に'
'日が'
'施'
'方向'
'方で'
'方がいい'
'文書'
'数え'
'教師'
'教えて'
'救う'
'操作'
'損傷'
'援助'
'提'
'探偵'
'掘'
'捕まえた'
'捕'
'捉え'
'挨拶'
'持った'
'抱'
'投資'
'扱う'
'手伝'
'手_'
'戻れ_'
'戻った'
'戦を'
'成_'
'憎'
'感情'
'愛してる_'
'愚'
'意見'
'悲しみ'
'悲しい'
'悪夢'
'悪党'
'悪く'
'恐ろしい'
'怪我'
'思い出'
'思'
'必要だ_'
'徹'
'徳川家'
'後期'
'後半'
'彼女には'
'彼女_'
'彼ら'
'役を'
'店の'
'庁'
'帽子'
'帝国'
'帖'
'工場'
'川_'
'嵐'
'崩壊'
'島の'
'岐'
'届け'
'屈'
'小路'
'寸'
'審'
'守護'
'子で'
'嫁'
'婦'
'妻は'
'妙な'
'奴ら'
'奴に'
'女性_'
'女子'
'女の子'
'女と'
'奥さん'
'奇妙な'
'夫が'
'太陽'
'大臣'
'大統領'
'大した'
'多数'
'外国'
'夏美_'
'変える'
'声を'
'城を'
'地図'
'土地'
'国際'
'問題は'
'品を'
'呼んで'
'吹き'
'吸'
'吧_'
'君も'
'吗_'
'向け'
'吐'
'名前が'
'名前'
'司_'
'口に'
'口_'
'受けて'
'受け'
'友達'
'参加'
'単位'
'協力して'
'半年'
'化した'
'勤'
'勝利'
'勝つ'
'制限'
'制度'
'初の'
'出来て'
'出来'
'出せ_'
'出す_'
'出し_'
'写真を'
'写真_'
'其'
'公家'
'入った'
'光を'
'先生の'
'候補'
'信頼'
'信仰'
'信じられない'
'信じて_'
'信じて'
'作った'
'何千'
'何をする'
'何だ'
'体制'
'伝説'
'伝えた'
'伊勢'
'以外に'
'以上_'
'付近'
'今夜は'
'人類'
'人生の'
'人たち'
'二人は'
'乳'
'主張'
'中毒'
'中村'
'中には'
'両親'
'両方'
'与え'
'不思議'
'上げ'
'三人'
'一部の'
'一杯'
'一条'
'一族'
'一定'
'一体'
'ーン'
'ント'
'ンダ'
'ンジ'
'ロンドン'
'ロボット'
'ロケット'
'レッド_'
'ルに'
'リズ'
'ラス'
'ャー'
'モン_'
'モリ'
'メーカー'
'メー'
'メディア'
'マン_'
'マス'
'マイケル'
'ボート'
'ボブ'
'ボク'
'ホッ'
'ページ'
'プロジェクト'
'プレゼント'
'ブース'
'フィル_'
'ビリー_'
'ヒー'
'パリ'
'パッ'
'バッ'
'ハハハ_'
'ハハ'
'ネス'
'ニング'
'ナス'
'ドル_'
'トップ'
'デラ'
'ディー'
'ディア'
'ック_'
'チャンス'
'チップ'
'チェ'
'チを'
'タル'
'タリ'
'タマ'
'ゼロ'
'セイ'
'スー'
'スコット'
'スで'
'ジー_'
'ジェーン_'
'ジェーン'
'ジェイ'
'ジア'
'シティ'
'シェル'
'サマ'
'ケガ'
'グリーン'
'クレ'
'キリ'
'ガ_'
'カール'
'カ_'
'ォー'
'ェル'
'ウェ'
'ウィ'
'イー'
'アンタ'
'アニ'
'んて'
'んだから_'
'を開'
'を通'
'を見て_'
'を生'
'を取って'
'を使って'
'を中心に'
'をこ'
'わり'
'わかったわ_'
'れてる'
'るように'
'るような'
'るのを'
'るのです_'
'りは'
'りたい'
'りが'
'らと'
'らで'
'らし'
'ょ_'
'やり方'
'やってみ'
'も出'
'もん_'
'もらった'
'もので_'
'もので'
'もって'
'もしかして_'
'もう少し'
'もういい'
'もあります_'
'めない'
'までに_'
'またね_'
'ませ'
'ますね_'
'ますが_'
'ました'
'まぁ'
'ぽ'
'ほら'
'ほどの'
'ほか'
'べきだ_'
'ばし'
'は私'
'は俺'
'はずよ_'
'はこれ'
'の開'
'の長'
'の資'
'の記'
'の第'
'の生'
'の様'
'の娘'
'の問題'
'の内'
'の事を'
'の事_'
'の事'
'の下'
'のパ'
'のデ'
'のシ'
'のク'
'のですか_'
'のでしょう_'
'のことを_'
'ねえよ_'
'に移'
'に来た'
'に従'
'に居'
'に向か'
'に取り'
'に入'
'にな'
'にする_'
'にあった'
'なと'
'なか'
'ないの'
'ないか'
'どこの'
'どこ_'
'どうなって'
'と見'
'とり'
'となって'
'ところが_'
'とい'
'とあ'
'ですが'
'できます_'
'であると'
'てるの'
'ては'
'てくれ'
'てきた_'
'づく'
'つらい'
'つける'
'ついては'
'ってや'
'だったが_'
'たぶん_'
'たちを'
'たちが'
'たた'
'そんなことは'
'それは私'
'それでも_'
'そばに'
'その子'
'その事'
'そうした'
'そうさ_'
'ぜ'
'せんか_'
'する事'
'するように'
'するよ_'
'するの_'
'することに'
'すること'
'するが_'
'すまない_'
'すの'
'すぎる_'
'すぎ'
'じゃなく_'
'じゃないの_'
'しょ'
'しの'
'しちゃ'
'したもの'
'しかしながら_'
'さで'
'さて'
'させ_'
'こんなの'
'こら_'
'この女'
'このため_'
'この2'
'こな'
'ことになる_'
'ここには'
'ここから出'
'こうした'
'こいつ'
'けで'
'くん'
'きり'
'きゃ_'
'きは'
'きて_'
'きっと_'
'きたい'
'が発'
'が生'
'が有'
'が何'
'が不'
'がない'
'ができ'
'がこの'
'がいい_'
'があって_'
'があった'
'かる'
'からは_'
'かもな_'
'かと_'
'かつて'
'かく'
'お金が'
'お話'
'お父さん'
'お母さん'
'おまえは'
'おと'
'おっ_'
'おじさん'
'おかげで'
'おいで_'
'ぇ'
'うし'
'うか'
'いんだ_'
'いるか'
'いつもの'
'いつも_'
'いつまで'
'いった'
'いずれ'
'いこと'
'いくつかの'
'いか'
'いうの'
'いいの_'
'いいですか_'
'あるが_'
'ありません'
'あなたも'
'あなたには'
'ああ'
'々と'
'─ _'
'− _'
'※_'
'――_'
'~。_'
'~! _'
'~'
'zu'
'zero_'
'yn'
'yama_'
'writing_'
'worst_'
'window_'
'wind_'
'whoa_'
'wherever_'
'web_'
'weak_'
'wave_'
'walter_'
'walked_'
'vers'
'van_'
'upon_'
'tre'
'travel_'
'trap_'
'tly_'
'tiny_'
'tight_'
'thousands_'
'thats_'
'tes'
'teach_'
'target_'
'tan_'
'systems_'
'sy_'
'switch_'
'surely_'
'summon_'
'stomach_'
'stars_'
'spring_'
'spot_'
'sold_'
'snow_'
'ske'
'sil'
'shows_'
'shoes_'
'shape_'
'self_'
'section_'
'sal'
'roy_'
'round_'
'rou'
'rob'
'ro_'
'rl'
'ridiculous_'
'rick_'
'revenge_'
'ret'
'responsible_'
'rec'
'ram'
'rain'
'progress_'
'prints_'
'powerful_'
'picked_'
'pha'
'par'
'owe_'
'ori'
'opportunity_'
'op'
'online_'
'ole'
'oi_'
'oc'
'object_'
'o'
'ny_'
'ny'
'net_'
'nee'
'monsters_'
'michael_'
'mess_'
'media_'
'meat_'
'marry_'
'marc'
'mama_'
'mad'
'lt'
'lots_'
'load_'
'leg_'
'lam'
'ladies_'
'knowledge_'
'kin'
'kick_'
'ken'
'justice_'
'joke_'
'jan'
'iss'
'ip'
'ious_'
'image_'
'ila'
'ichi'
'hy_'
'hunt_'
'hi'
'hat'
'gu'
'gives_'
'gift_'
'ged_'
'freedom_'
'fool_'
'fle'
'fit'
'fie'
'feet_'
'fallen_'
'expe'
'eu'
'er'
'environment_'
'enti'
'ence_'
'emb'
'drugs_'
'dreams_'
'don'
'dom'
'deco'
'dd'
'culture_'
'cs_'
'cry_'
'cri'
'cost_'
'correct_'
'comm'
'cli'
'cit'
'church_'
'christmas_'
'cent'
'cards_'
'burg'
'bullshit_'
'buddy_'
'bru'
'brothers_'
'booth_'
'bones_'
'blame_'
'bit'
'bigger_'
'ber_'
'barry_'
'audience_'
'at'
'art'
'ars'
'arrest_'
'ar'
'appears_'
'apparently_'
'and'
'ame'
'ale'
'afternoon_'
'advice_'
'acting_'
'ac'
'Vi'
'To'
'St'
'Sorry_'
'Se'
'Sc'
'Ro'
'R_'
'Pa'
'Our_'
'No'
'Ma'
'Ki'
'John_'
'Here_'
'Have_'
'God_'
'Give_'
'Dr_'
'Ar'
'75'
'6時'
'5月2'
'5月'
'4月2'
'45_'
'32'
'30年'
'2人の'
'29'
'27'
'24_'
'1人で'
'16_'
'122'
'. -_'
'%'
' [_'
'［_'
'３０'
'１人'
'．．．_'
''
''
'魂'
'首相'
'餅'
'飲んで'
'飲む'
'飛んで'
'風邪'
'願って'
'顔_'
'面を'
'面に'
'面で'
'露'
'電子'
'離れ'
'隊の'
'院の'
'陛下_'
'阿弥'
'関係の'
'関係ない_'
'関係ない'
'関する'
'間も'
'鎌倉時代'
'野郎'
'重要なこと'
'釈放'
'釈'
'部屋'
'遭'
'達を'
'達に'
'過去の'
'遊び'
'遅れ'
'進化'
'進む'
'連中'
'這'
'迷惑'
'近江'
'过'
'込んだ'
'輝'
'載って'
'軍隊'
'軍に'
'車は_'
'身に'
'蹴'
'踏'
'赴'
'走り'
'赤い'
'贈'
'買'
'貴方'
'責'
'貧しい'
'財産'
'財政'
'警'
'調子'
'誰かが_'
'説明'
'誠'
'語に'
'詳しく'
'話そう_'
'評価'
'訴'
'設計'
'討ち'
'言葉を'
'言葉で'
'解決'
'親王'
'覚悟'
'覚えてる'
'規定'
'規'
'見えない'
'複雑な'
'裁'
'融'
'虎'
'蘭'
'菌'
'荷物'
'英語'
'良かった'
'舟'
'舞い'
'臨'
'腕を'
'肺'
'職を'
'職_'
'聞きたい'
'聞'
'耐え'
'織田信長'
'縄'
'線を'
'緒'
'統計'
'終え'
'素敵な'
'約束して'
'約1'
'系統'
'糞'
'簡単な'
'答えは'
'第3'
'笑い'
'突き'
'種類の'
'私も_'
'私には_'
'祭り'
'社長'
'示す'
'磁'
'砲'
'眠'
'相棒_'
'目で'
'皇子_'
'皇后'
'皆に'
'皆さんの'
'登場する'
'発生'
'留守'
'男子'
'申し訳ない_'
'申し訳ありません_'
'用いる'
'生_'
'甘く'
'甘'
'理由に'
'現在では'
'狼'
'独立'
'狙撃'
'犯人は'
'犬は'
'犬の'
'犬が'
'物語_'
'版'
'燃料'
'焼け'
'無線'
'無理だ_'
'無理_'
'無事'
'無し'
'災'
'潜'
'演奏'
'湖'
'渡す'
'深く'
'海賊'
'浦'
'浅'
'注意'
'汚い'
'求め'
'水に'
'気に入った'
'気な'
'毎'
'殺して'
'殺され'
'死亡'
'歩き'
'正式に'
'正しく'
'止まれ_'
'次第に'
'様子'
'槍'
'楽に'
'楽しんで'
'植物'
'椅子'
'棟'
'棚'
'柴'
'来ました_'
'本物'
'本が'
'最悪の'
'普通_'
'時々'
'昼食'
'昨日は'
'映像'
'明治時代'
'明日は'
'方面'
'方針'
'方法が'
'方は'
'斬'
'敵の'
'教授_'
'教えてくれ_'
'教え'
'救'
'放送'
'改善'
'撮影'
'摩'
'揚げ'
'接'
'採用'
'持って行'
'持っている'
'拾'
'抵抗'
'批判'
'扱い'
'手に入れた'
'戻って'
'戻'
'戦いに'
'我们'
'慈悲'
'感が'
'愛の'
'意味を'
'悪くない'
'息が'
'恐らく'
'性格'
'性_'
'思ってる_'
'思ってい'
'怒り'
'必要ない'
'必'
'得意'
'待て'
'待ってる'
'彼等'
'彼は私'
'当初'
'張って'
'弟子'
'廻'
'建て'
'座って'
'度_'
'幸せに'
'平安時代'
'帰れ'
'師_'
'市場'
'巡'
'嶋'
'屋根'
'局の'
'尼'
'尊敬'
'対策'
'対処'
'寺に'
'寝る'
'寄って'
'家は'
'室町時代'
'実際_'
'実際'
'宗の'
'完璧な'
'安心'
'安全に'
'安全な場所'
'孫_'
'学校の'
'学の'
'子だ'
'娘が'
'好き'
'奴だ_'
'奴_'
'女性に'
'女に'
'失う'
'夫人_'
'夫人'
'夫_'
'大路'
'大夫'
'大変な'
'大名'
'大佐'
'夢が'
'多い'
'変わった'
'売って'
'声_'
'壁の'
'塞'
'塗り'
'場合は_'
'垂'
'地震'
'地の'
'国立'
'国内'
'団体'
'回って'
'噛'
'営業'
'問題で'
'問題_'
'商人'
'品の'
'命の'
'命が'
'呪'
'向こう'
'名の'
'同僚'
'同じく'
'吉田'
'合衆国'
'叙'
'取れ'
'叔父'
'反応'
'去る'
'厚'
'卵'
'即位'
'危険に'
'卜'
'南部'
'千葉'
'区の'
'北野'
'勝負'
'力_'
'削'
'制_'
'初代'
'刑務所に'
'切る'
'分を'
'分かった'
'刃'
'出版'
'出た_'
'凡'
'准'
'凄い'
'全体'
'入れ_'
'光_'
'先輩'
'先の'
'兄貴'
'元禄'
'元の'
'優秀な'
'儀'
'働'
'俺達の'
'俺達'
'信じ'
'信_'
'保安官'
'侍従'
'作られた'
'作って'
'何年'
'何処'
'何の話'
'何があった_'
'何かあった'
'体を'
'住んでい'
'住む'
'伸'
'伝_'
'件'
'仰'
'以降の'
'付いて'
'仕事の'
'今回'
'人間は'
'人口'
'人です_'
'人々に'
'京阪'
'五十'
'互いに'
'事実'
'事件を'
'事な'
'事で'
'乾'
'之_'
'主人'
'主の'
'丹波国'
'丹波'
'中将'
'世に'
'不安'
'三年'
'一致'
'一年'
'一体何'
'一体_'
'一の'
'・ _'
'ワード'
'ワン'
'レベッカ'
'レッ'
'リース'
'リング'
'ラフ'
'ラッ'
'ラジオ'
'ヤツは'
'モア'
'メッ'
'マーフィー'
'ポンド'
'ボス_'
'ホワイト'
'ヘイ'
'プール'
'ブロック'
'フィールド'
'フィン'
'ファー'
'ファック_'
'ピッ'
'ビル'
'ビッ'
'ビア'
'ヒュー'
'パートナー'
'バカな'
'ハル'
'ハ_'
'ナー_'
'ドロ'
'ドレス'
'ドラ'
'トウ'
'テー'
'ティング'
'ティブ'
'チャンスを'
'チャン'
'ダンス'
'ダル'
'ダメだ'
'ダニー_'
'タン_'
'ゾ'
'ゼル'
'セリ'
'スク'
'スキー'
'スキ'
'ジュリア'
'ザー'
'サイト'
'ゴミ'
'コーン'
'コンピュータ'
'ゲート'
'ゲー'
'ケース'
'グ_'
'クラ'
'クソ_'
'クを'
'ギリ'
'ギャ'
'キュ'
'キ_'
'カメラ'
'カット'
'オレは'
'オス'
'オ_'
'エー'
'エネルギー'
'エド'
'エス'
'エイリアン'
'エア'
'ウス'
'ウォーカー'
'ウォルター'
'ウイ'
'イド'
'イエ'
'アンド'
'アル_'
'アム'
'アフリカ'
'ァ'
'んない'
'んでる'
'んですよ_'
'んですね_'
'んだって_'
'んだが_'
'を見て'
'を殺'
'を放'
'を持'
'を引き'
'を下'
'をも'
'をさ'
'わる'
'わせ'
'ろし'
'れに'
'るんだ'
'るよう'
'るな'
'ることが'
'りで'
'りたい_'
'りし'
'らは'
'らだ_'
'ようとした_'
'ようとした'
'ようで'
'ゆる'
'も行'
'ものを_'
'ものは'
'ものの'
'もなく'
'もだ_'
'もう少し_'
'もうすぐ'
'もいい'
'めに'
'めな'
'むの'
'むしろ'
'みんなが'
'みる'
'みて'
'まな'
'まずは'
'まずい'
'べて'
'べきだ'
'ぶち'
'ぴ'
'ひとり'
'は長'
'はもう'
'はっきり'
'はそれ'
'はず'
'はある'
'はぁ_'
'の関係'
'の間_'
'の言葉'
'の色'
'の者'
'の時'
'の意味'
'の役'
'の天'
'の原因'
'の出'
'の入'
'の乱'
'の主'
'の中で_'
'のベ'
'のト'
'のダ'
'のカ'
'のも'
'のところ'
'のと'
'のである_'
'のための'
'に関して'
'に同'
'に反'
'に入る'
'になるの'
'にならない'
'にと'
'については_'
'に1'
'なると_'
'なり'
'ならば_'
'なのか'
'などと'
'なっている'
'なさ'
'なお'
'ないように'
'ないだろう_'
'どうでも'
'どうした'
'どうか_'
'どういう意味だ_'
'と言われ'
'と思って_'
'と思った'
'と一緒に'
'とめ'
'となっている_'
'とな'
'とする_'
'とした_'
'ところだ_'
'ところ_'
'で死'
'で出'
'で会'
'でも今'
'ではなく'
'でに'
'でさ'
'できないの'
'でいる'
'てま'
'てね_'
'ているの'
'ていました_'
'つもり_'
'つけた_'
'つけ_'
'つき'
'つい'
'ってた_'
'ってくれ_'
'ってい'
'っちゃ'
'ったな_'
'ちょう'
'だろうと'
'だよな_'
'だったと'
'だけは'
'たんです_'
'たる'
'たに'
'たちは_'
'たちが_'
'ただし'
'そんな事'
'それ以上'
'それ以'
'それが何'
'その通りだ_'
'その通り_'
'そのために'
'そのため_'
'そうじゃない_'
'そいつ'
'せな'
'ずに_'
'ずつ'
'するために_'
'するため'
'することを'
'すと'
'すぎた'
'じゃないんだ_'
'しん'
'しなさい_'
'しと'
'してるの_'
'してきた'
'してお'
'していました_'
'したよ_'
'しき'
'しかない_'
'さんは'
'さんが_'
'さんから'
'されない'
'さよなら'
'さま_'
'さが'
'こん'
'この部屋'
'この国'
'こに_'
'ことがある'
'ここにいる_'
'こいつは'
'こい_'
'ければならない_'
'ける_'
'くれて'
'くれ'
'くても_'
'くっ'
'きを'
'きたの'
'が開'
'が下'
'がる'
'があれば_'
'か月'
'かわいい'
'かれた'
'かつては'
'お茶'
'お前と'
'お前たち'
'おける'
'おいて_'
'えない_'
'うわ_'
'うれしい'
'うに'
'いん'
'いるの'
'いると'
'いらない'
'いつ_'
'いって_'
'いし'
'いかな'
'いいんです'
'ありました_'
'あの時'
'あなたに_'
'あって_'
'あっち'
'あったの'
'あげた'
'々に'
'　'
'━ _'
'zz'
'zo'
'za_'
'yt'
'yoshi'
'yo_'
'xi'
'wondering_'
'wolf_'
'whi'
'ving_'
'ut_'
'ura'
'ui'
'ug'
'ue_'
'ua'
'truly_'
'tour_'
'tokyo_'
'tis'
'threatened_'
'thi'
'themselves_'
'tha'
'th'
'tche'
'swi'
'surprise_'
'suffering_'
'sto'
'st'
'spo'
'some'
'soc'
'site_'
'sit'
'silly_'
'ships_'
'shame_'
'serial_'
'se'
'sco'
'sat'
'sand'
'sam'
'sacrifice_'
'rv'
'rough_'
'rot'
'role_'
'rin'
'rid_'
'ric'
'ri_'
'reverse_'
'returned_'
'restaurant_'
'rest'
'rescue_'
'res_'
'rent'
'remain_'
'rem'
'record_'
'receive_'
'rag'
'radio_'
'py_'
'pur'
'pulled_'
'pt'
'promised_'
'pri'
'pregnant_'
'pp'
'population_'
'popular_'
'pool_'
'pon'
'political_'
'ple'
'pho'
'ped_'
'pc'
'passing_'
'parts_'
'papa_'
'pan'
'osan_'
'original_'
'opponent_'
'opinion_'
'oo'
'oni'
'onal_'
'offer_'
'notice_'
'note_'
'nit'
'ng'
'mut'
'motion_'
'mori'
'mol'
'model_'
'mobile_'
'mini'
'ming_'
'milk_'
'meta'
'memory_'
'me'
'material_'
'mac'
'luc'
'loves_'
'lor'
'long'
'lock_'
'lights_'
'lieutenant_'
'lied_'
'license_'
'lay_'
'lau'
'lan'
'kinda_'
'kid'
'ker_'
'kat'
'jump_'
'judge_'
'joe_'
'jesus_'
'j'
'isan_'
'invent'
'indeed_'
'ina'
'im_'
'ile_'
'ic'
'hus'
'hurts_'
'hum'
'how'
'hom'
'hol'
'hin'
'hill_'
'higher_'
'high'
'hidden_'
'helping_'
'heaven_'
'heading_'
'head'
'hat_'
'har'
'han'
'hall'
'grown_'
'gle'
'ges_'
'genius_'
'ge'
'gate_'
'ft'
'fri'
'free'
'fre'
'fourth_'
'form'
'followed_'
'flo'
'fishing_'
'fire'
'film_'
'ffe'
'feed_'
'eth'
'et'
'especially_'
'eri'
'ep'
'ent'
'ends_'
'ef'
'economic_'
'ec'
'easily_'
'e'
'dry_'
'dre'
'down'
'doug'
'distance_'
'directly_'
'din'
'detect'
'den_'
'cu'
'contract_'
'confirmed_'
'coach_'
'cm'
'cip'
'ches_'
'cher_'
'chap'
'cast_'
'cal'
'cake_'
'bro'
'breathe_'
'bother_'
'bol'
'bodies_'
'boat_'
'blocks_'
'birth_'
'beer_'
'beauty_'
'be'
'bas'
'bal'
'ay'
'avoid_'
'av'
'article_'
'ao'
'ann'
'animals_'
'animal_'
'ani'
'an'
'american_'
'ag'
'ack'
'\u_'
'[ _'
'X'
'Would_'
'Wi'
'These_'
'Tell_'
'Te'
'Sir_'
'Ra'
'New_'
'Ne'
'Mo'
'Japan_'
'In'
'Hello_'
'Go_'
'FBI'
'E_'
'Du'
'Because_'
'B_'
'9月1'
'8時'
'8年'
'79'
'70_'
'58'
'4月1'
'4人'
'35_'
'2人とも'
'22'
'13_'
'12月'
'12年'
'10月1'
'...._'
'.'_'
'-- _'
' 『_'
' ! _'
'Ｔ'
'００'
'－ _'
'％_'
'鼓'
'麻呂'
'鶏'
'鳥の'
'鮮'
'骨折'
'騒ぎ'
'馬の'
'養子'
'食料'
'食べて'
'願い'
'顔に'
'頼んで'
'頼んだ'
'領主'
'頑張って'
'音が'
'電話で'
'雇'
'隣'
'際に'
'陛下'
'防御'
'阪急'
'関心'
'関係を'
'関わ'
'間違って'
'間は'
'開いて'
'長年'
'長崎'
'長官'
'長と'
'鏡_'
'銭'
'金属'
'醍醐'
'酔って'
'部屋_'
'郎_'
'邦'
'遺伝子'
'選挙'
'選手'
'選ぶ'
'遷'
'違うよ_'
'達成'
'達は'
'達_'
'道の'
'運ぶ'
'連続'
'連絡が'
'速く'
'通報'
'通して'
'通し'
'述'
'返して'
'近く'
'農場'
'載'
'転換'
'軒'
'車両'
'起こる'
'起きた'
'起き'
'走って'
'賭け'
'質問は'
'賜'
'賛'
'資金'
'貸し'
'買う'
'買い'
'貴方が'
'責任を'
'貢'
'貝'
'豊臣'
'警部_'
'警部'
'警察の'
'調理'
'読む'
'説明が'
'説得'
'説が'
'誕生日'
'誓'
'詳'
'話を聞'
'話をして'
'話せる'
'話してる'
'話してい'
'詰'
'試合'
'詐欺'
'証拠は'
'証拠が'
'証人'
'訴え'
'設置'
'記録を'
'言われた'
'言えば_'
'言うの'
'言いました_'
'親父'
'見れ'
'見られる'
'見な'
'見てる'
'見てみ'
'見えた'
'西園寺'
'装置'
'裁判所'
'行事'
'行くんだ_'
'行くの_'
'血が'
'虐殺'
'蘇'
'葬儀'
'落と'
'菓子'
'菊'
'英語で'
'芳'
'色の'
'色々'
'航空'
'自由の'
'腐'
'脅し'
'脅'
'能力を'
'聡'
'聞こえる_'
'者と'
'翌'
'署'
'繋'
'績'
'縁起'
'線に'
'統治'
'紛'
'紙_'
'約束した'
'粘'
'粒子'
'篤'
'答えて'
'答'
'等に'
'笛'
'笑って'
'笑_'
'章'
'立場'
'立つ'
'稼ぎ'
'私は彼'
'私の家'
'私のこと'
'私の_'
'私に_'
'私な'
'私たちを'
'秀吉'
'禄'
'神道'
'神を'
'神よ_'
'社会的'
'社会の'
'社会に'
'確認した'
'破壊'
'知り'
'知ってるか_'
'眠り'
'真っ'
'相手に'
'目標'
'盗'
'皮肉'
'皆の'
'皆さんに'
'発展'
'癒'
'疎'
'番目の'
'畑'
'画像'
'男と'
'田舎'
'田の'
'用いて'
'生活に'
'生徒'
'生を'
'甘い'
'理解する'
'独身'
'独自の'
'狙'
'爵'
'焼き_'
'無限'
'無実'
'灰'
'灯'
'濃'
'潔'
'滞在'
'渡る'
'渡した'
'消し'
'消え'
'海軍'
'浮か'
'洋'
'法華経'
'法華'
'泊ま'
'汁'
'水が'
'水_'
'気をつけて_'
'気だ_'
'氏が'
'殿に'
'殺された_'
'殺さない'
'残った'
'死体を'
'死ぬ_'
'死なせ'
'止まり'
'歌を'
'歌って'
'欲しかった'
'次元'
'次は_'
'機を'
'横に'
'権威'
'概念'
'概'
'検事'
'森林'
'桐'
'枝'
'東大寺'
'来の'
'来てる'
'材を'
'杉'
'本当は'
'本に'
'未来の'
'朝食'
'朝の'
'望んだ'
'書物'
'書の'
'暮らして'
'暇'
'普通'
'時間_'
'時には_'
'時と'
'時々_'
'昼'
'昨夜'
'春日'
'星の'
'明治2'
'旬'
'旨'
'日記'
'日々'
'族に'
'旅を'
'斎_'
'文庫'
'文学'
'数は'
'政を'
'政に'
'放し'
'改良'
'支払'
'撃し'
'携帯電話'
'描'
'探す'
'授'
'捨てる'
'捨て'
'捕虜'
'指紋'
'指導'
'持っていた'
'拝'
'抜け'
'抜き'
'技術を'
'払って'
'手は'
'戻る_'
'成長'
'成績'
'成立'
'慶応'
'慎重に'
'意外'
'惑星'
'情熱'
'悲'
'悩'
'息を'
'恒'
'急行'
'忙しい'
'心が'
'徴'
'復活'
'得た_'
'後ろ'
'待つ'
'待'
'彼_'
'役_'
'形を'
'形に'
'形で'
'当主'
'強盗'
'弟の'
'弟に'
'引っ張'
'建立'
'建物の'
'廃止'
'庭園'
'庫'
'度に'
'店を'
'店_'
'序'
'幻'
'幸福'
'年齢'
'年前'
'平気'
'平和'
'平_'
'干し'
'幕末'
'帰国'
'帰'
'崇'
'山科'
'山城'
'展'
'屋の'
'居ない'
'局_'
'尽くし'
'小説'
'尋問'
'尉'
'専門'
'専'
'封'
'対象'
'対応'
'寒い'
'寄せ'
'寂しい'
'容疑者'
'家系'
'家具'
'家にい'
'家と'
'家で'
'室町'
'宣'
'宝石'
'官の'
'完'
'安全な'
'守り'
'宇宙の'
'宇多'
'学校_'
'学んだ'
'学を'
'季'
'嫌いだ_'
'嫌い'
'婦人'
'娘に'
'姦'
'始め'
'妹の'
'奥さん_'
'失礼'
'天気'
'天才'
'天_'
'大統領は'
'大津'
'大気'
'大島'
'大宰府'
'大和国'
'大会'
'大事に'
'報告書'
'堅'
'城主'
'地点'
'地を'
'土地に'
'国民'
'国は'
'困難'
'困'
'回り'
'噂'
'嘘だ'
'問題は_'
'問題ない'
'問題な'
'問題だ_'
'命は'
'呼ぶ'
'呼び出'
'告発'
'含め'
'君ら'
'君なら'
'吐き'
'同じような'
'合わせて'
'右衛門'
'古墳'
'口の'
'口で'
'取り返'
'取り上げ'
'反乱'
'卿_'
'危険だ'
'南方'
'半田_'
'十郎'
'十分だ_'
'勲'
'勢力を'
'勝った'
'動機'
'動きを'
'動_'
'助けてくれ_'
'助かった'
'創建'
'前にも'
'前で_'
'列車が'
'切った'
'出して_'
'凶'
'処分'
'冊'
'内部'
'内親王'
'内緒'
'内_'
'全然_'
'全国'
'全員が'
'全てが'
'全て_'
'入し'
'充'
'兄弟_'
'兄の'
'兄_'
'元気_'
'僕らは'
'僕_'
'僕'
'働く'
'傾向'
'備え'
'側の'
'偏'
'借りて'
'候'
'倍の'
'俺たち'
'信じない'
'信じている'
'侮辱'
'価'
'供給'
'使われ'
'何に'
'何なの_'
'何と'
'何でも_'
'何か見'
'体験'
'体と'
'伽藍'
'似た'
'会えて'
'休み'
'伏せ'
'任務'
'仲間に'
'仲間が'
'以前_'
'以下の'
'代に'
'付けられ'
'付き'
'仕事だ_'
'仕事_'
'今度は_'
'今のところ'
'人間に'
'人質'
'人生は'
'人気'
'人として'
'人々が'
'京都市_'
'京の'
'交渉'
'亡くなった'
'二十'
'二人で'
'事情'
'事の'
'之助'
'为'
'中国の'
'並み'
'世界で'
'不是'
'下を'
'下さ'
'下_'
'上げて'
'上がって'
'上がった'
'一言'
'一緒'
'一方_'
'一揆'
'一人の'
'ース'
'ーだ_'
'ヴェ'
'ンは'
'ワールド'
'ワン_'
'ワシントン'
'ワクチン'
'ロード'
'ルで'
'リーが'
'リンク'
'ラリー_'
'ラス_'
'メント'
'メル'
'メモ'
'ムは'
'ミラ'
'ミ_'
'マーティン'
'マーク_'
'マンの'
'ママ'
'マネ'
'マッ'
'マスター_'
'マグ'
'ポート'
'ポリ'
'ボット'
'ホルモン'
'ペット'
'ペイ'
'ベラ'
'ベッド'
'ベス'
'ヘン'
'ブー'
'フリン'
'フリ'
'ファイル'
'フ_'
'ビル_'
'ビジョン'
'ビジネス'
'パパが'
'パソコン'
'バリー_'
'ハロルド_'
'ハリ'
'ハウス'
'ネー'
'ネ_'
'ナッ'
'ナイト'
'ドン'
'トンネル'
'トン_'
'トマ'
'トで'
'デー'
'デッ'
'チームが'
'チーム'
'チェック'
'ダイヤ'
'ターに'
'タッ'
'セット'
'ズが'
'スポーツ'
'スピード'
'ストー'
'スタッフ'
'スキャン'
'スと'
'スが_'
'スが'
'ジェット'
'ジェシー_'
'シャル'
'ザ_'
'サー_'
'サンド'
'サン_'
'サミ'
'サイド'
'コール'
'コーヒー'
'コード'
'コントロール'
'コル'
'コフ'
'コ_'
'グランド'
'クス_'
'クイーン'
'カレン'
'カメラを'
'カッコ'
'エンジン'
'エル_'
'ウル'
'ウォー'
'ウィー'
'ウ_'
'ゥ'
'インチ'
'インターネット'
'イラ'
'イメージ'
'ィー'
'アマ'
'アベ'
'アブ_'
'アバ'
'アド'
'アダム'
'アクセス'
'ァー'
'んなに'
'んですが_'
'んだの'
'んだな_'
'んだと'
'んた'
'んじゃ_'
'んじゃ'
'んか_'
'を開け'
'を買'
'を見せ'
'を止め'
'を手に'
'を入れ'
'を使う'
'を作'
'を付け'
'をやって'
'をや'
'をしている'
'をかけ'
'われた'
'わって'
'わたしは'
'わかって'
'ろうと'
'れるの'
'れます_'
'るまで_'
'るべき'
'るはず'
'るのが'
'るでしょ_'
'るって_'
'るけど_'
'りだ_'
'られていた'
'られ'
'らも'
'らね_'
'らなかった_'
'らなかった'
'らどう'
'らえ'
'らい'
'よくな'
'ようです_'
'よい_'
'やるよ_'
'やめてよ_'
'やめてくれ_'
'やめ'
'やま'
'も同じ'
'もよ'
'もや'
'もはや'
'ものに'
'もともと'
'もっとも'
'もして'
'もう行'
'もう1'
'もあ'
'むか'
'みんなの'
'みろ_'
'みち'
'みたいな_'
'みたい'
'まれて'
'まもなく'
'まま_'
'まし'
'へ向か'
'ぶり'
'ふり'
'ひどく'
'ばな'
'は近'
'は自'
'は殺'
'は少'
'は出'
'は全'
'はら'
'はどうな'
'はし'
'はか'
'の間に'
'の結果'
'の真'
'の目'
'の最'
'の成'
'の意'
'の外'
'の分'
'の写真'
'の先'
'の作'
'の仕事'
'の一人'
'ので'
'のち'
'の2'
'の1つ'
'ぬ_'
'に行って'
'に行'
'に気'
'に対して_'
'に合'
'に勝'
'になって_'
'にとって'
'については'
'にか'
'にいる'
'にある_'
'な事'
'なんと'
'なんですか_'
'なりました_'
'なっている_'
'なたの'
'なし'
'なくなった'
'なくて'
'なかったら_'
'ないんです_'
'ないんだ_'
'ないのか_'
'どのくらい'
'どこに行く'
'どこでも'
'どこから'
'どこかに'
'どうしても'
'どういうこと_'
'と関係'
'と思い'
'と共に_'
'と一緒に_'
'とても_'
'とっても'
'とって_'
'とされる_'
'とく'
'とう'
'で何'
'でも私'
'でた'
'でこ'
'できると'
'できた_'
'でいい'
'で1'
'てこ'
'てくる'
'づけ'
'つもりは'
'つま'
'つぶ'
'ついては_'
'っと_'
'ってるの'
'ってない_'
'ったの_'
'ったが_'
'ったから'
'ちゃって_'
'ちゃった'
'ちゃう_'
'ちっ'
'ちくしょう_'
'だろうが_'
'だれ'
'だったら'
'だし'
'だけに'
'だけど'
'だけが'
'だからな_'
'た時_'
'た人'
'たび'
'たのよ_'
'たのです_'
'たの'
'たちと'
'たぞ_'
'たくない'
'たく'
'そんなの'
'そのため'
'そのお'
'そこの'
'そこにいる'
'そこに_'
'そうなんだ_'
'そうで'
'そうだろ_'
'そうじゃない'
'そうして'
'そうか'
'そういうこと'
'せろ_'
'せられ'
'せよ_'
'せいで_'
'ずる'
'する前に_'
'する人'
'するよう'
'すよね_'
'すな'
'すい'
'しゃ'
'しまって'
'しなくて'
'しないと_'
'してや'
'しても'
'してみ'
'しての'
'してない'
'してた_'
'してくれる_'
'していること'
'したら'
'したの'
'したい_'
'しかった'
'さんを'
'さんに_'
'されてる_'
'されており_'
'さようなら_'
'さは'
'さない'
'さと'
'させない'
'さすが'
'さぁ'
'ご飯_'
'ごめんね_'
'ころ_'
'これを_'
'これも'
'これには'
'これから_'
'この話'
'この家'
'ことよ_'
'ことはでき'
'ことな'
'ことができる'
'ことができます_'
'ここ_'
'げん'
'げ_'
'けよ_'
'けない'
'けな'
'ぐに'
'くれよ_'
'くに'
'くなった_'
'くこと'
'くか'
'きん'
'きょう'
'きゃ'
'きの'
'きちんと'
'きだ'
'が見え'
'が現れ'
'が現'
'が無'
'が最'
'が多い_'
'が出来'
'がら_'
'がよ'
'がなく'
'がな'
'がつ'
'がこ'
'があるんだ_'
'があったと'
'から出て'
'から1'
'かね'
'かなりの'
'かどうか'
'かける'
'かかって'
'かかった'
'お願いだ_'
'お腹'
'お前ら_'
'お前には'
'おめでとう_'
'おいおい_'
'えられ'
'えっと_'
'うんざり'
'うよ_'
'うか_'
'いわれ'
'いるもの'
'いら'
'いやだ'
'いません'
'いている_'
'いていた'
'いたします_'
'いが'
'いうこと'
'いいかい_'
'いいか'
'あんたを'
'あんたが'
'あれば'
'あるわ_'
'あるのか_'
'あるの'
'あるいは_'
'ありがとう'
'あの女'
'あなた方'
'あげて_'
'あいつは'
'あいつ_'
'「'
'》 《_'
'々の'
'zy_'
'ys_'
'xe'
'ww'
'wis'
'wide_'
'weakness_'
'water'
'walker_'
'wa_'
'vote'
'visual_'
'vacation_'
'trusted_'
'trick_'
'trees_'
'treated_'
'treasure_'
'trans'
'toy_'
'tor_'
'tools_'
'tive_'
'tim'
'thu'
'throughout_'
'ther'
'theater_'
'technique_'
'suspicious_'
'surf'
'sun'
'stri'
'stre'
'sti'
'step'
'ste'
'species_'
'speaking_'
'sor'
'someday_'
'sna'
'sma'
'sle'
'skin_'
'sisters_'
'showing_'
'shift_'
'sheriff_'
'sex_'
'series_'
'secrets_'
'sch'
'scale_'
'sca'
'saved_'
'sara_'
'safety_'
'sac'
'ryo'
'rock'
'rma'
'rise_'
'rights_'
'richard_'
'rge'
'result_'
'requires_'
'rep'
'related_'
'rat_'
'quality_'
'q'
'ption_'
'pt_'
'proud_'
'protection_'
'practice_'
'possibly_'
'pop_'
'politics_'
'plus_'
'plays_'
'played_'
'plant_'
'pit'
'pin'
'pic'
'physical_'
'phi'
'period_'
'pe'
'paying_'
'past'
'particular_'
'park'
'parent_'
'papers_'
'page_'
'pac'
'ou_'
'ot'
'os_'
'op_'
'ooh_'
'onto_'
'om_'
'oliver_'
'oli'
'older_'
'of'
'ob'
'ns'
'nose_'
'nos'
'noble_'
'nights_'
'neck_'
'near'
'nda'
'nd'
'ncy_'
'nat'
'multiple_'
'movement_'
'moto_'
'mont'
'min'
'mill'
'military_'
'mike_'
'mic'
'metr'
'meter_'
'mentioned_'
'members_'
'mayor_'
'matters_'
'mate_'
'mat'
'mask_'
'mag'
'lets_'
'lect'
'largest_'
'larger_'
'lar'
'lab'
'kur'
'kr'
'kou'
'knock'
'kinds_'
'kin_'
'kermie_'
'keeps_'
'kan'
'kag'
'jo_'
'jima_'
'ish'
'iri'
'ire_'
'ir'
'inn'
'including_'
'incident_'
'impact_'
'identity_'
'ide'
'hy'
'hr'
'house'
'hood_'
'honor_'
'honestly_'
'hiv'
'hir'
'hil'
'hes_'
'heavy_'
'headquarters_'
'hay'
'hasn_'
'hand'
'grandfather_'
'gol'
'gn'
'glasses_'
'ging_'
'gi_'
'ghost_'
'get'
'gan_'
'ga_'
'fro'
'forced_'
'focus_'
'finger'
'files_'
'ff_'
'female_'
'federal_'
'fat_'
'fake_'
'fair'
'fail_'
'extra_'
'ew'
'ett'
'ets_'
'esa'
'ery_'
'entrance_'
'ending_'
'employees_'
'effects_'
'ect_'
'driving_'
'drinking_'
'dri'
'dress_'
'dra'
'dont_'
'disp'
'direction_'
'dig_'
'deserve_'
'des_'
'deli'
'defense_'
'ded_'
'deb'
'cure_'
'cup_'
'cts_'
'crow'
'credit_'
'core_'
'cook_'
'consider_'
'connected_'
'compa'
'community_'
'colo'
'coat_'
'clothes_'
'closed_'
'chris_'
'chicago_'
'chasing_'
'chairman_'
'ces_'
'cer'
'celebrate_'
'causing_'
'castle_'
'carl_'
'by'
'bullet_'
'brown_'
'breathing_'
'breath_'
'bowl_'
'borrow_'
'block'
'blo'
'bio'
'biggest_'
'bes'
'basic_'
'baseball_'
'barb'
'bar_'
'awful_'
'ave'
'attend_'
'assume_'
'asse'
'aside_'
'asa'
'armed_'
'ard'
'ara'
'appl'
'apart_'
'anti'
'angel_'
'analysis_'
'amp'
'alo'
'ak'
'airport_'
'ai_'
'agents_'
'actual_'
'activity_'
'W'
'Thanks_'
'Right_'
'Pi'
'Li'
'Le'
'La'
'Kat'
'Jo'
'Ja'
'Hi'
'Her_'
'Ga'
'GP'
'Dr'
'D_'
'Bu'
'Bri'
'Bi'
'At_'
'After_'
'600'
'4月'
'48'
'3月2'
'3月1'
'38'
'2日'
'2年に'
'1日_'
'1万'
'184'
'174'
'12月2'
'12月1'
'119'
'1000'
'..."_'
'... - _'
'."_'
')、_'
'('
'''
'% _'
' −_'
' ―_'
'｡_'
'Ｎ'
'Ｂ'
'２０'
'）：_'
'） '
''
'黒い'
'鴨'
'鳴'
'魂を'
'髪_'
'高い_'
'驚いた'
'駄'
'馴染'
'餓'
'食堂'
'飛ぶ'
'類_'
'顔は'
'題'
'頼むよ_'
'領域'
'頑張って_'
'頑張'
'預け'
'須'
'韓'
'非常'
'静かに'
'電話した'
'難しく'
'雌'
'集めて'
'集まって'
'隻'
'隠す'
'隊_'
'限ら'
'閣'
'関西'
'関白'
'間違え'
'間違いなく'
'間は_'
'開始'
'開き'
'閉め'
'門院'
'長は'
'長に'
'長さ'
'長い間_'
'録'
'鋳'
'鈴木'
'針'
'金に'
'量を'
'量が'
'野球'
'酷い'
'酷'
'部屋の'
'避難'
'違います_'
'達が_'
'過ご'
'運営'
'運んで'
'運び'
'運が'
'週'
'連盟'
'連合'
'速人_'
'通の'
'途中で'
'透'
'逃げろ_'
'逃げられ'
'送信'
'送ってくれ'
'退屈'
'追って'
'追い出'
'追いかけて'
'近くの'
'近くに'
'辛い'
'載せ'
'車が'
'車_'
'踊'
'足りない'
'越え'
'超え'
'起こ'
'賞賛'
'賛成'
'資本'
'賃'
'賀茂'
'貿易'
'買える'
'貴方を'
'貫'
'販売'
'象徴'
'豆'
'議会'
'警告'
'諦め'
'誰かの'
'説明し'
'説を'
'誕生'
'認知'
'認める'
'該'
'話をした'
'話して_'
'話したい'
'試してみ'
'診'
'許す'
'許'
'訪れ'
'記録し'
'記述'
'記憶を'
'言語'
'言葉は'
'言葉に'
'言葉_'
'言ってくれ'
'言ったこと'
'言える'
'言うな'
'言い訳'
'観客'
'観光'
'親し'
'親が'
'覧'
'見られ'
'見つかる'
'見せる'
'見えて'
'覆'
'複雑'
'被害者は'
'街道'
'行政'
'行動を'
'行くよ_'
'血の'
'藤原氏'
'蓄'
'落ち着いて'
'茶道'
'苦しみ'
'良くない'
'艦隊'
'興味があ'
'臭'
'自動'
'自分自身を'
'脅威'
'能力が'
'肉を'
'聞こえる'
'聞け'
'聞いてみ'
'耳に'
'者だ_'
'者だ'
'考えて_'
'考えた'
'老人'
'翌年'
'翌1'
'義務'
'群れ'
'美術館'
'罪を'
'繰り返し'
'織田'
'編'
'締'
'続けて_'
'続けた_'
'続け_'
'続け'
'絡'
'絞'
'結局_'
'結婚式'
'終わりだ_'
'系の'
'糖'
'簿'
'等_'
'笑'
'競争'
'立て_'
'立し'
'空腹'
'空港'
'空に'
'究'
'稿'
'種類'
'移し'
'称号'
'称する'
'称し'
'秘密を'
'秒で'
'私達が'
'私を見'
'私よ_'
'私だけ'
'神話'
'神社の'
'神戸'
'神宮'
'祖父'
'祖先'
'社_'
'磨'
'確信'
'確か'
'破壊し'
'石川'
'知識'
'知りた'
'知ってた_'
'着く'
'真実を'
'真剣に'
'真似'
'真の'
'相手の'
'相手が'
'目標は'
'目は'
'盛り上が'
'盛は'
'皮膚'
'皇帝'
'皇室'
'皇子'
'癌'
'痕'
'病院で'
'疲れ'
'異常'
'番組'
'畠山'
'男の子'
'男が_'
'田中'
'用に'
'産業'
'生徒が'
'生まれる_'
'生き物'
'瓶'
'理由が'
'理子_'
'現実に'
'現在は'
'現_'
'珠'
'獲'
'獄'
'狂ってる'
'状況で'
'状態で'
'状態だ'
'状態'
'犯した'
'物だ_'
'片付け'
'爺'
'父を'
'燃える'
'熱い'
'煮'
'然_'
'無駄に'
'無意味'
'点_'
'炭素'
'炭'
'炉'
'漢字'
'演じ'
'溶'
'準備し'
'準備が'
'湾'
'温泉'
'減ら'
'渋'
'済んだ'
'清盛の'
'清水'
'液'
'涙'
'浸'
'流し'
'活動の'
'洛'
'注射'
'法令'
'法に'
'河内国'
'沢山'
'沙'
'池田'
'求めて'
'永禄'
'水の'
'水で'
'気をつけて'
'気に入り'
'気になる'
'民間'
'氏と'
'母親は'
'母親が'
'母さん_'
'母_'
'殺される'
'死後_'
'死んでる_'
'正確に'
'正気'
'止まる'
'欲しいの'
'欧米'
'機会を'
'権力'
'様を'
'様に_'
'様で'
'極めて'
'棲'
'棄'
'格_'
'根拠'
'柱'
'枚の'
'枕'
'東海'
'東山'
'来てい'
'村に'
'村さん'
'本線'
'本当だ_'
'木を'
'期待して'
'期に'
'有名'
'月1'
'最後に_'
'最大'
'最初から'
'書類'
'書に'
'暗闇'
'暗殺'
'普通に'
'時間がない'
'昭和2'
'明治維新'
'昇進'
'时'
'日本国'
'日本では'
'族の'
'旋'
'方を_'
'新たな'
'文化財'
'文の'
'文_'
'敵に'
'整理'
'数学'
'数の'
'教える'
'教えた'
'救い'
'改正'
'操'
'撤退'
'撃て_'
'提案'
'掴'
'推測'
'控え'
'探してる'
'捧げ'
'捜し'
'振り返'
'挙兵'
'挙げ'
'持たない'
'拳'
'拡大'
'拍手_'
'抄_'
'才能'
'手伝って'
'手に入れた_'
'所領'
'所は'
'戻って来'
'戦い_'
'我慢'
'成功'
'懲'
'憶'
'憲法'
'慢'
'感謝します_'
'感じる_'
'感じた'
'愛して'
'意思'
'意味で'
'惣'
'惜し'
'情報を_'
'悔'
'思わ'
'思って'
'思った_'
'思います_'
'応永'
'必要です_'
'必要だ'
'必要がある_'
'必死に'
'心配し'
'徳川家康'
'徒歩'
'彼氏'
'彼女は私'
'彼女はど'
'彼も'
'彼は何'
'彼はその'
'彩'
'弾丸'
'強化'
'強い_'
'弟_'
'引き起こす'
'式の'
'式_'
'弁当'
'建久'
'廷'
'庸'
'座れ_'
'座に'
'広が'
'幼'
'幸運'
'年代'
'年も'
'帰り'
'席に'
'市に'
'巻き'
'巻_'
'巨大'
'巨'
'崩れ'
'岡崎'
'山田'
'山寺'
'山で'
'属'
'居場所を'
'居場所'
'居る_'
'居た'
'局長'
'尿'
'尺'
'就職'
'少しは'
'小学校'
'導'
'尊氏'
'将来'
'対立'
'寧'
'寝た'
'寄り'
'家老'
'家だ_'
'家から'
'室の'
'実際の'
'実力'
'実を'
'宝生'
'定義'
'定し'
'安定'
'安全を'
'安全だ'
'守って'
'宇宙に'
'存在する'
'子孫'
'子供達'
'婆'
'姫_'
'始めました_'
'始めた_'
'姉妹'
'妻と'
'如元_'
'女王'
'奪う'
'奈'
'夷'
'失って'
'夫は'
'太郎_'
'大陸'
'大量'
'大社'
'大好き'
'大な'
'外に出'
'変革'
'変更'
'変わって'
'変だ'
'変え'
'声が'
'墓_'
'境'
'塗'
'場所で'
'場所_'
'基本'
'執行'
'垣'
'坐'
'地元'
'地は'
'地_'
'国連'
'固定'
'回る'
'回も'
'器を'
'嗣'
'喋'
'問題の'
'問題ない_'
'問題が'
'商売'
'命_'
'味噌'
'味が'
'告げ'
'名称'
'名乗'
'各地の'
'各地に'
'司令官'
'号を'
'号は'
'右大臣'
'右京'
'史料'
'可能性は'
'可能な'
'叫び'
'只'
'古来'
'取り戻す'
'取り引き'
'叔母'
'友達と'
'友達が'
'友人を'
'及'
'去った_'
'原因は'
'原則'
'危険だ_'
'危機'
'占'
'単に'
'南北'
'協力'
'午前'
'十字'
'十二'
'化に'
'包囲'
'勧め'
'勢を'
'勝手に'
'勝手な'
'動く'
'動かない'
'勇'
'効率'
'助手'
'助けを'
'力の'
'力と'
'剥'
'制御'
'初めてだ'
'分類'
'分離'
'分野'
'分らない'
'分か'
'出雲'
'出来る_'
'出入り'
'出てくる'
'出てきた'
'冷静'
'写真が'
'再生'
'内閣'
'具合'
'共通'
'公正'
'公園_'
'入れて_'
'入れた'
'入ってい'
'免許'
'優秀'
'儀式'
'僕らが'
'傷を'
'傘'
'側面'
'倫'
'倒れ'
'信用'
'信号'
'信じられない_'
'価格'
'侍'
'例外'
'使用する'
'使って_'
'使える'
'使い_'
'作成'
'何時'
'何故_'
'何度'
'何回'
'何処に'
'何を言'
'何して'
'何し'
'体は'
'住宅'
'位の'
'位に'
'伯'
'伝えられ'
'伝えて'
'会津'
'会員'
'会の'
'会ったの'
'会_'
'休憩'
'伏見'
'企画'
'任_'
'仲間だ'
'以外は'
'以内に'
'以上も'
'代目_'
'代わりに_'
'付き合'
'付か'
'介_'
'今こ'
'仁親王'
'人も'
'人に_'
'人がいる'
'人々'
'亭'
'京極'
'互'
'二人とも'
'二つの'
'二_'
'事項'
'事態'
'事務'
'事件_'
'事です_'
'事だ'
'事ができ'
'丹'
'中期の'
'中宮'
'个'
'両者'
'世話'
'世紀に'
'世界中'
'不足'
'不明'
'不可'
'上野'
'上司'
'上げた'
'三田'
'一緒にいる'
'一生'
'一時'
'一方で_'
'一度も'
'一体どう'
'ーズ'
'ーで'
'ヴィン'
'ヴ'
'ンズ'
'ンに'
'ロバート'
'ロッ'
'ロス'
'ロイ'
'レーダー'
'レル'
'レット'
'ルール'
'ルイ'
'リアル'
'リ_'
'メンバー'
'メリー'
'メッセージを'
'メ_'
'ムラ'
'ムの'
'ミン'
'ミル'
'ミッ'
'ミスター_'
'ミシ'
'マ_'
'ボーン'
'ホール'
'ホント_'
'ベース'
'ベルト'
'ヘンリー'
'ヘリ'
'ヘラ'
'ヘヘ'
'ヘイ_'
'プレイヤー'
'プライ'
'プを'
'ブルー'
'ブッ'
'フリッ'
'フト'
'フェイ'
'フィー'
'フィッ'
'ファイルを'
'ビン_'
'ビデオを'
'パーティーに'
'バカ_'
'ハード'
'ハート'
'ハゲ'
'ノン'
'ナム'
'ナイフ'
'ドラマ'
'ドニー'
'ドナ'
'ドクター_'
'ドキ'
'ドゥ'
'ドに'
'トロン'
'トレント'
'トラン'
'トニー_'
'トと'
'トし'
'トが'
'デルタ'
'デジタル'
'テーブル'
'テレビで'
'テラ'
'テクノロジー'
'ツイ'
'チー'
'チュ'
'チケット'
'タバコ'
'タクシー'
'タの'
'ゾン'
'ソウル'
'スペイン'
'スペ'
'スプ'
'スター_'
'スケ'
'スカイ'
'ジョーンズ'
'ジョージ'
'ジョー_'
'ジム'
'ショック'
'シュ_'
'シェ'
'ゴルフ'
'ケーキ'
'グロー'
'キリスト教'
'キミの'
'キを'
'ガキ'
'カニ'
'カツ'
'カウ'
'オーバー'
'オレを'
'オペ'
'エラ'
'エバ'
'ェン'
'ェ'
'ウン'
'ウォル'
'イライ'
'イス'
'アレク'
'アマンダ'
'アパート'
'アドバイス'
'アタ'
'アイス'
'んのよ_'
'んのか_'
'んなこと'
'んでいる'
'んだろう_'
'んか'
'を起こし'
'を行う'
'を継'
'を目'
'を消'
'を日本'
'を探して'
'を探し'
'を探'
'を感じ'
'を忘れ'
'を待'
'を守る'
'を守'
'を始め'
'を受けた'
'を切'
'を出した'
'を使'
'をは'
'をしな'
'をして_'
'をか'
'をい'
'われ'
'わら'
'わよね_'
'わた'
'わかってない'
'わか'
'ろと_'
'れん'
'れが'
'る気'
'るに'
'ることは'
'ります'
'りそう'
'らん_'
'られるの'
'られると'
'られるか'
'らないで'
'よろしく'
'よろしい'
'よると_'
'よそ'
'よくやった_'
'ようになる'
'ようにし'
'ようだな_'
'やろうと'
'やれば'
'やる気'
'やや'
'やめる'
'やっ'
'やし'
'やがて'
'やがって_'
'ものである_'
'ものか'
'もな_'
'もつ'
'もしない'
'もしあなたが'
'もお'
'める_'
'みんなに'
'みを'
'みで'
'みたいね_'
'みせ'
'ままで'
'まね'
'まつ'
'まった_'
'まじ'
'ましょうか_'
'ましたよ_'
'ほんと'
'ほん'
'ほしい'
'ほうが'
'ほう_'
'ぺ'
'べきだった'
'ぶ_'
'は新'
'は国'
'は人'
'は京都'
'は中'
'はは'
'はとても'
'はずな'
'はいない_'
'はあ_'
'はあ'
'の車'
'の身'
'の親'
'の父'
'の為'
'の準備'
'の海'
'の気'
'の次'
'の時間'
'の形'
'の弟'
'の実'
'の学'
'の子供'
'の名前'
'の会'
'の事は'
'の三'
'のメ'
'のチ'
'のコー'
'のコン'
'のコ'
'のど'
'のさ_'
'のかも'
'のかな_'
'のあ'
'に頼'
'に電話'
'に集'
'に通'
'に話'
'に見'
'に行く_'
'に立'
'に来る'
'に成'
'に従って'
'に大'
'に参'
'に分'
'に使'
'に何'
'になり_'
'になり'
'にて'
'にこ'
'にく'
'にかか'
'なんの'
'なんだから_'
'なるの'
'なりません_'
'なりたい'
'なにか'
'などは_'
'なぜそ'
'なしでは'
'なければ'
'なくなる'
'なくちゃ_'
'なかったの_'
'なかったの'
'ないな_'
'ないこと'
'ないが_'
'ないから_'
'どんなに'
'どれも'
'どれくらい'
'ども'
'どっか'
'どちら'
'どこから来た'
'どうでもいい_'
'どうするの_'
'と言って'
'と私'
'と改'
'と思われる_'
'とんど'
'とんでもない'
'とを'
'とら'
'とも言'
'とみ'
'とで'
'とその'
'とされる'
'とされ_'
'といった'
'といえば'
'という名'
'ということで'
'で最も'
'で使'
'でもね_'
'ではなかった_'
'でない'
'できるように'
'できるか'
'できなかった_'
'できて'
'であるという'
'であることを'
'てよ_'
'てもらう'
'てます_'
'てくれた'
'てから'
'ていると'
'つな'
'っ子'
'っぽい'
'って何'
'ってこと_'
'っていう_'
'っつ'
'ったり'
'ったのか_'
'ったけど_'
'っけ_'
'ちょっとした'
'ちょっ_'
'ちゃんの'
'ちゃんと_'
'ちゃった_'
'だろうか_'
'だな'
'だと思う_'
'だったの'
'だけよ_'
'たんです'
'たれ'
'たな_'
'たど'
'たし'
'たけど_'
'たから'
'たかった'
'たいんだ'
'それまで'
'それはどう'
'それと_'
'それでは_'
'それじゃ_'
'それが私'
'その時_'
'その上'
'そのうち'
'そして今'
'そこを'
'そこにい'
'そうなる'
'そうなの_'
'そうとして'
'そうですね_'
'そうですか_'
'そうだよ_'
'そいつは'
'せんでした_'
'すわ_'
'するの'
'するに'
'すり'
'すべてが'
'すごい_'
'すぐに_'
'すぐ_'
'すぎて'
'じゃないと'
'じた'
'しを'
'しょう'
'しゃべ'
'しますか_'
'しまう'
'しなければならない_'
'しないで_'
'してくれ'
'していると'
'しかも_'
'さを_'
'されること'
'されてる'
'されたと'
'さな'
'させてもら'
'さか'
'ごい'
'こんな事'
'ころで'
'これ以上'
'これじゃ'
'こま'
'こへ_'
'この辺'
'この本'
'この世界'
'こにいる'
'こっちは'
'こっ'
'こちらの'
'こだ'
'こし'
'ここに居る'
'こか'
'げた'
'けの'
'けない_'
'けい'
'くれて_'
'くらい_'
'くな'
'くつ'
'くそ'
'くす'
'きに_'
'きて'
'きく'
'が言'
'が行われ'
'が行'
'が殺'
'が残'
'が来る'
'が来て'
'が必要です_'
'が必要だ'
'が強'
'が好き'
'が出る'
'が出て'
'が入'
'が付'
'が今'
'がロ'
'がア'
'がわか'
'がね_'
'がた'
'がその'
'がそ'
'がし'
'がいる'
'があったの'
'が1'
'か見'
'かわ'
'からも'
'から4'
'かま'
'かの'
'かつての'
'かつ'
'かって'
'お話し'
'お見'
'お父さんは'
'お手'
'お客'
'お嬢さん_'
'お姉ちゃん_'
'お前達'
'おり'
'おもしろい'
'おも'
'おし'
'おこ'
'おけ_'
'ええ'
'うわ'
'うに_'
'うっ_'
'うっ'
'うだ_'
'いんだ'
'いを'
'いわゆる'
'いると_'
'いるから'
'いですか_'
'いてくれ'
'いつまでも_'
'いつか_'
'いったい_'
'いたんだ_'
'いたか'
'いい人'
'いいんだよ_'
'あれが'
'あるんだ'
'あのう_'
'あなたたち'
'あとは'
'あって'
'あったら'
'々しい'
'~。 _'
'ze'
'zaki_'
'yearold_'
'yd'
'yard_'
'written_'
'wound_'
'woods_'
'wn_'
'wise_'
'winning_'
'wine_'
'whoo'
'weight_'
'wed'
'wat'
'warm_'
'wanting_'
'visit'
'vie'
'ved_'
'vat'
'useful_'
'upstairs_'
'und'
'uncon'
'ul_'
'ugly_'
'ue'
'uc'
'tur'
'tter_'
'tsu'
'trea'
'tower_'
'touched_'
'top'
'tok'
'tle_'
'tl'
'tit'
'tin_'
'tie_'
'thinks_'
'thin_'
'testing_'
'terms_'
'tennis_'
'tend_'
'ten'
'telephone_'
'tation_'
'tam'
'tai'
'tag'
'survive_'
'suicide_'
'suggest_'
'studying_'
'structure_'
'streets_'
'stic'
'stee'
'stea'
'stayed_'
'stark_'
'standard_'
'spreading_'
'spare_'
'son'
'solve_'
'sol'
'smoking_'
'slowly_'
'sli'
'skipp'
'skills_'
'sight_'
'shr'
'shower_'
'shaw_'
'sharp_'
'sh'
'ser_'
'sep'
'sending_'
'senator_'
'self'
'seed_'
'scientists_'
'sb'
'san'
'sam_'
'salt_'
'sak'
'sail'
'rule_'
'rs'
'rr'
'rp'
'rose_'
'ros'
'roof_'
'ron'
'rom'
'roll_'
'robots_'
'robot_'
'rn_'
'rik'
'rif'
'rf'
'retr'
'ress_'
'request_'
'rei'
'region_'
'ree'
'recognize_'
'reci'
'recently_'
'rc'
'rare_'
'rap'
'raise_'
'q_'
'protected_'
'proper_'
'professional_'
'proc'
'prime_'
'predict'
'pra'
'powers_'
'por'
'poli'
'piss_'
'pie_'
'pictures_'
'photograph'
'phil'
'pet'
'performance_'
'pack_'
'owe'
'ow'
'ously_'
'ordered_'
'operati'
'ope'
'ono'
'ona'
'ome'
'oll'
'ola'
'oka_'
'observe_'
'nts_'
'nted_'
'now'
'noisy_'
'nis'
'nervous_'
'nas'
'naruto_'
'my'
'museum_'
'mp_'
'mp'
'monkey_'
'mon_'
'modern_'
'mmm_'
'mist'
'minister_'
'mind'
'meth'
'mention_'
'mental_'
'men'
'member_'
'medicine_'
'meal_'
'mea'
'make'
'main_'
'lower_'
'low'
'lonely_'
'log'
'lli'
'lled_'
'll'
'lities_'
'lisbon_'
'line'
'lia'
'levels_'
'lesson_'
'laughing_'
'lang'
'lake_'
'lack_'
'kl'
'kit'
'kh'
'kes_'
'katsu'
'jon'
'jane_'
'jam'
'ize_'
'ita'
'ist'
'isa'
'ire'
'io'
'interview_'
'inspir'
'ini'
'ine'
'india_'
'inde'
'ind'
'inc'
'ima'
'ill'
'ign'
'hundred_'
'hoping_'
'hope'
'holy_'
'his'
'hie'
'hel'
'heat_'
'heal'
'headed_'
'harm'
'hard'
'hara'
'happiness_'
'hana'
'ham_'
'hall_'
'guilty_'
'grid_'
'grew_'
'grace_'
'goo'
'goku_'
'goddamn_'
'god'
'goal_'
'ger_'
'george_'
'gene_'
'gary_'
'garden_'
'gam'
'gain_'
'fund'
'fuckin_'
'fought_'
'forth_'
'forgotten_'
'footage_'
'foolish_'
'folks_'
'fol'
'flash'
'flag_'
'fix_'
'finger_'
'film'
'familiar_'
'extremely_'
'extraordinary_'
'expert'
'expensive_'
'exp'
'exc'
'evil_'
'europe_'
'est'
'erat'
'equal_'
'epi'
'eo'
'enter_'
'enter'
'ens_'
'eni'
'engine_'
'eng'
'ener'
'ena'
'emotional_'
'embarrassed_'
'em'
'eli'
'electro'
'electricity_'
'eg'
'effort_'
'ease_'
'dy'
'dum'
'double_'
'divorce_'
'discover'
'disappear_'
'direct_'
'despite_'
'desk_'
'designed_'
'der'
'demon_'
'degrees_'
'defi'
'defeat_'
'dam'
'custody_'
'ctu'
'ction_'
'ct'
'creates_'
'cre'
'craft_'
'covered_'
'council_'
'cooking_'
'convert'
'continu'
'connection_'
'cond'
'computers_'
'complicated_'
'commercial_'
'command_'
'co_'
'client_'
'cil'
'cia_'
'cia'
'child'
'chest_'
'chemistry_'
'cheers_'
'character_'
'chances_'
'chair_'
'century_'
'central_'
'ced_'
'cases_'
'carrie_'
'carefully_'
'care'
'capable_'
'but'
'burning_'
'bureau_'
'bul'
'broad'
'brings_'
'brains_'
'boyfriend_'
'bot'
'bos'
'boring_'
'border_'
'bloody_'
'bla'
'bir'
'bet'
'below_'
'belong_'
'believed_'
'becomes_'
'bear'
'ban'
'balls_'
'ax'
'awesome_'
'available_'
'auto'
'ato'
'ast_'
'assum'
'arms_'
'arm'
'arc'
'approach_'
'appeared_'
'ang'
'ami_'
'am'
'ali'
'ake'
'aka_'
'aka'
'ak_'
'agreed_'
'above_'
'abb'
'] [_'
'Yu'
'York_'
'U_'
'Tu'
'Th'
'TED'
'Sta'
'Sh'
'Never_'
'Mor'
'Like_'
'JR'
'J'
'ID'
'He'
'Han'
'Gre'
'Gra'
'G_'
'Fin'
'Ea'
'Da'
'?! _'
'? !_'
'=_'
'9月2'
'95'
'93'
'8月2'
'83'
'81'
'7日に'
'6人'
'68'
'62'
'51'
'50年'
'44'
'200_'
'1月2'
'1月1'
'170'
'11月1'
'11月'
'118'
'110'
'10月2'
'10時'
'10分'
'101'
'.. _'
'.'
') '
''?_'
'"?_'
'" '
'!」_'
'! - _'
'! '
' ─ _'
' ]_'
' #_'
' " _'
'ﾞ'
'Ｓ'
'Ｏ'
'Ｉ'
'＝_'
'１００'
'１週間'
'（「_'
''
'齢'
'黄色'
'麗'
'鷺'
'鷹'
'魔女'
'鬼_'
'高等'
'驚く'
'驚き'
'驚か'
'騒'
'駐車場'
'駐'
'館_'
'飲め'
'飲'
'飯_'
'飢え'
'飛ばす'
'飛'
'顧客'
'顔が'
'頭痛'
'順調'
'順位'
'頃の'
'頃に'
'響'
'音楽を'
'音_'
'面の'
'非難'
'静岡'
'静か'
'需要'
'電車'
'電話に'
'電話し'
'電源'
'雨が降'
'難し'
'離婚'
'離れる'
'離れた'
'雇った'
'集める'
'集まり'
'隠して'
'険'
'陶'
'陰謀'
'院に'
'院で'
'降伏'
'降りる'
'防ぐ'
'閣下_'
'間違いない'
'長生き'
'長い間'
'鐘'
'鎌倉時代に'
'錯'
'錠'
'銃撃'
'銃で'
'鉄道_'
'鉄の'
'金は_'
'量の'
'重い'
'酒を飲'
'酒に'
'部品'
'部分は'
'避けられ'
'遺産'
'遺体'
'遡'
'遠慮'
'遠く'
'遠い'
'違法'
'違反'
'違いだ'
'道長'
'道に'
'道で'
'過程'
'過ごして'
'過ごした'
'過ぎ'
'運転し'
'運行'
'遅れる'
'遅かった'
'逸'
'進し'
'連れ出'
'速度'
'通りの'
'通りで'
'逃亡'
'逃げて'
'送る'
'送った'
'迫'
'返せ_'
'返す'
'返した'
'近鉄'
'込まれ'
'辻'
'辺に'
'辞めて'
'輸送'
'輩'
'軍_'
'踏ん'
'跳'
'跡を'
'足を'
'足が'
'足_'
'起こった'
'走る'
'赦'
'贈り物'
'質問があ'
'資格'
'費用'
'責め'
'貨物'
'貧困'
'貧'
'谷_'
'議長'
'警察署'
'警察は_'
'警備員'
'謝'
'課長'
'誰もが'
'誰なの_'
'説明でき'
'説得し'
'誤'
'誓い'
'誌'
'誉'
'詳細は'
'話すこと'
'話し合'
'話した_'
'試み'
'証明し'
'許され'
'設定'
'記者'
'記憶に'
'託'
'言われて'
'言わない'
'言で'
'言っと'
'言ってる_'
'言うな_'
'触'
'解決し'
'観世'
'親指'
'視覚'
'視する'
'見方'
'見ること'
'見つめ'
'見つからない'
'見たことない'
'見たい'
'見せてくれ'
'見され'
'製の'
'裸'
'裏切り者'
'裏に'
'装束'
'被害者の'
'被害者が'
'袋を'
'衛生'
'術を'
'行われた_'
'行ける'
'行が'
'行かない_'
'行かせ'
'血液'
'蝶'
'蛍'
'藩_'
'薄'
'葉が'
'茶碗'
'苦手'
'苑'
'色に'
'良い人'
'船長_'
'興味'
'至急'
'自身の'
'自身が'
'自身'
'自体'
'臨時'
'臓'
'腹の'
'脅迫'
'能力'
'背中'
'肝心'
'職人'
'聴いて'
'聞いた事'
'者も'
'者な'
'考えられている_'
'考えてみ'
'考えが'
'翼'
'翁'
'美味しい'
'美しく'
'置いて_'
'締め'
'線と'
'緒に'
'緊張し'
'綺麗'
'続行'
'続けて'
'絶対_'
'統合'
'統一'
'給料'
'結構'
'結果は'
'結果_'
'結果'
'結婚する'
'経験し'
'経歴_'
'経った'
'組合'
'終了'
'終わって'
'紳士'
'索'
'紙を'
'純粋'
'紅'
'約束を守'
'約束する_'
'紀_'
'簡単'
'答えを'
'答える'
'筋肉'
'筈'
'第三'
'第4'
'符'
'笑う'
'競'
'立像_'
'立てて'
'立ち上が'
'突然_'
'穂'
'稀'
'称_'
'私達に'
'私は今'
'私はそれを'
'私はこの'
'私はい'
'私はあなたの'
'私はあなた'
'私の事'
'私にも'
'私にとって'
'秀忠'
'祭神'
'票'
'神に'
'祈る'
'社長_'
'社員'
'礼拝'
'碑'
'破滅'
'破って'
'研究者'
'研究し'
'短い'
'知恵'
'知れ'
'知らん'
'知られた'
'知られ'
'着用'
'着替え'
'着け'
'相撲'
'相手は'
'目撃'
'目は_'
'目に_'
'盗む'
'盗み'
'皇族'
'皆さんが'
'皆さん'
'的なもの'
'的な_'
'的で'
'的だ'
'百済'
'発表'
'発作'
'発し'
'発_'
'療法'
'疲れて'
'畿内'
'異な'
'番目'
'略歴_'
'略_'
'留め'
'留ま'
'界の'
'画は'
'男は'
'男に'
'男だ'
'甲斐'
'田氏'
'用意し'
'用され'
'用_'
'生まれて'
'生まれた_'
'生き延び'
'生きてい'
'環境に'
'理解し'
'現象'
'現代の'
'珍しい'
'珍'
'王様'
'王を'
'猶予'
'猫_'
'猪'
'猟'
'状況に'
'状の'
'犯人を'
'特許'
'物を_'
'父親の'
'爪'
'爆弾を'
'熱心'
'煙草'
'無駄'
'無料'
'無人'
'無事に'
'無く_'
'無かった'
'無いの'
'為_'
'火災'
'火の'
'激しい'
'演説'
'漂'
'滞'
'溶け'
'溢れ'
'源頼'
'渡し'
'済みません_'
'済ま'
'深刻'
'海外'
'海の'
'浴'
'浮気'
'浩二'
'流と'
'活動を'
'洗い'
'泣いて'
'泣いた'
'法が'
'泊'
'況'
'沼'
'治_'
'決意'
'決めて'
'決めた'
'決ま'
'江戸時代に'
'江戸時代'
'汚染'
'汗'
'気分が'
'気付か'
'気付'
'気を付け'
'気は'
'気の'
'民衆'
'比較的'
'母親に'
'殺人事件'
'殺せ'
'殺さ'
'殴られた'
'殖'
'残して'
'殆ど'
'死者'
'死んでい'
'死んだの_'
'正解'
'正月'
'正徳'
'止めろ_'
'止めた'
'次郎_'
'機会'
'機の'
'橋の'
'様式'
'楽器'
'極秘'
'検索'
'検察'
'検出'
'棄し'
'條'
'桃'
'株式会社'
'校長'
'柔'
'松平'
'東京都'
'来月'
'来るの'
'来ない'
'来たんだ'
'材料'
'本願寺の'
'本社'
'本気'
'本日'
'本山'
'末に'
'木造'
'木に'
'望んで'
'朗'
'服を着'
'服の'
'最近_'
'最新の'
'最悪'
'最低'
'書く'
'曲が'
'曲_'
'暖'
'昭和5'
'昭和1'
'昔_'
'明治4'
'明日の'
'明天皇'
'明らかに'
'明らか'
'明かり'
'明_'
'旗本'
'方法は'
'方法で_'
'方法_'
'新田'
'新幹線'
'新人'
'新しく'
'料理を'
'料理の'
'料を'
'文治'
'文明_'
'文明'
'文化財_'
'敵は'
'敵が'
'数日'
'数十'
'数が'
'敦'
'教訓'
'教室'
'教の'
'教えてくれた'
'教えて_'
'救出'
'救って'
'敏'
'故郷'
'政府に'
'操縦'
'擁'
'撃を'
'携'
'損'
'援護'
'接触'
'探していた'
'掛けて'
'排除し'
'掌'
'掃除'
'捕まる'
'挙げる'
'挑戦'
'指輪'
'指導者'
'指定'
'指令'
'持て'
'持ってない'
'持っている_'
'招'
'拘束'
'押す'
'投票'
'抑制'
'技術的に'
'承知し'
'扱'
'払え'
'払う'
'払い'
'打ち上げ'
'手錠を'
'手助け'
'手伝う'
'手伝い'
'手を出'
'手な'
'戻って_'
'戻す'
'戦後'
'戦場'
'戦争の'
'戦争で'
'戦争が'
'戦いで'
'我が国'
'成功した'
'慶長'
'慣れて'
'慣れ'
'態度を'
'態度'
'感覚'
'感じ_'
'愛した'
'意識を'
'意味が'
'惨'
'悲し'
'患者の'
'息子は'
'息子に'
'恥ずかし'
'恥'
'恋人'
'怯えて'
'怪しい'
'性は'
'急げ_'
'思考'
'思ったんだ'
'思い出した'
'怒りを'
'怒って'
'忠実'
'応答'
'応援'
'必要で'
'必要だった'
'心配ない_'
'心配してる'
'御家人'
'得て'
'得た'
'得し'
'従って'
'後白河'
'後も'
'待機'
'待ってい'
'彼はど'
'役割を'
'役の'
'役に立つ'
'影響を'
'形_'
'当時_'
'当たる'
'当たり'
'引退'
'引っ'
'引い'
'式部'
'式を'
'延長'
'延喜'
'座る'
'座の'
'座_'
'店に'
'店で'
'庄'
'幸せ'
'年間に'
'年寄'
'年を'
'年10月'
'平氏'
'平成'
'平安'
'帝'
'希'
'帆'
'市長'
'巻き込'
'差'
'巨人'
'巧'
'左衛門'
'左側'
'川を'
'嵐山'
'島_'
'峰'
'岡山'
'山里_'
'履'
'屋町'
'屋さん'
'居た_'
'尾行'
'尾張'
'少なくとも_'
'小屋'
'専用'
'寿司'
'対して_'
'寝室'
'宿題'
'容疑者の'
'家族は'
'家族に'
'家族が'
'家に帰'
'宮中'
'実行'
'宜'
'定め'
'定する'
'宗_'
'完璧'
'完成'
'完全な'
'宇'
'学に'
'学_'
'季節'
'子供の頃'
'子供たちが'
'子は_'
'嬉しい_'
'嬉し'
'嫌って'
'嫌だ'
'娘は'
'委'
'始まる'
'始まった'
'姉さん'
'妻を'
'妃'
'好み'
'好きで'
'好きだった'
'好き_'
'奴らの'
'奴'
'女性は'
'女は'
'女の子は'
'女の子_'
'奈良市'
'失敗する'
'太鼓'
'天平'
'天保'
'天使'
'天井'
'大蔵'
'大山'
'大宮'
'大学の'
'大学で'
'大学_'
'大変'
'大久保'
'大丈夫な'
'大丈夫ですか_'
'大きい'
'夢中にな'
'夜は'
'夜に'
'多数の'
'外交'
'外で'
'変異'
'変態'
'変化し'
'変わら'
'変えて'
'壊れた'
'壊れ'
'壊す'
'壊し'
'壊'
'壁に'
'境界'
'場所が'
'場合もある_'
'場合には'
'場合に'
'場で'
'報道'
'堕ち'
'基礎'
'基盤'
'基本的に'
'城の'
'地面に'
'地名'
'地元の'
'地と'
'圧倒'
'土地を'
'土地の'
'圏'
'國'
'国衙'
'囲まれ'
'回転'
'囚人'
'嘘つき'
'哲'
'命令に'
'呼んだ_'
'呼び'
'呼ばれる'
'呼ばれ'
'呼'
'味を'
'呪文'
'吾'
'含む'
'否定'
'君を_'
'名前で'
'名前だ'
'名前_'
'同意'
'同一'
'同じように'
'同じこと'
'同じ_'
'吊'
'合戦'
'合わせ'
'合ってる'
'司令'
'史上'
'史_'
'叫んで'
'句'
'古代の'
'口は'
'口から'
'受賞'
'受け取'
'受け入れる'
'取得'
'取り組'
'取り戻'
'取りに行'
'叔父さん'
'双'
'友達の'
'友人の'
'友人に'
'去年'
'原の'
'卿'
'却'
'印象'
'印を'
'博士が'
'卑'
'十分に'
'十五'
'区_'
'北海道'
'北条'
'化け'
'勤め'
'勢い'
'勝てる'
'勝て'
'勝ち'
'動し'
'動き'
'動か'
'勇気'
'労'
'助けが必要'
'割れ'
'剤を'
'剣を'
'前進'
'前期'
'前で'
'前から_'
'剃'
'刺'
'券'
'制作'
'到着した'
'判明し'
'初頭'
'分けて'
'分け'
'分かってない'
'刀を'
'刀に'
'出身の'
'出発'
'出来ます_'
'出来た'
'出口'
'出ま'
'出に'
'出て行け_'
'出てい'
'出せ'
'出された'
'出かけ'
'処に'
'冷蔵庫'
'冗談だ_'
'再興'
'再建'
'六角'
'公開'
'公卿_'
'八幡'
'全国の'
'入学'
'光る'
'先輩_'
'先日'
'兄さん'
'元服'
'元_'
'優れた'
'傷つけた'
'債'
'傑作'
'傍'
'偶然'
'偉'
'借金'
'倒して'
'個人的に'
'倉庫'
'俺達が'
'俺はお前'
'俺が_'
'信用でき'
'価値観'
'供養'
'來'
'使用され'
'使え'
'作戦'
'作ったの'
'何者'
'何百'
'何事'
'何をした'
'何よ_'
'何やって'
'何とかし'
'何であ'
'何してるの_'
'何か言'
'何かわか'
'体で'
'住職'
'低い'
'但'
'似'
'伯爵'
'伝言を'
'伝統'
'会長'
'会話'
'会社に'
'会社が'
'会と'
'会った_'
'会い'
'任務を'
'件は'
'仲間の'
'仲良'
'仲が'
'仮名'
'以上に_'
'代わりに'
'代わって'
'仕組み'
'仕方ない'
'仕掛け'
'仕事に戻'
'仕事で'
'今度_'
'今回の'
'今は_'
'今に'
'今では'
'什么'
'人間を'
'人間だ'
'人生に'
'人物で'
'人の_'
'人な'
'人々を'
'京都府_'
'京都に'
'京都で'
'享年6'
'享保'
'享'
'亡くなった_'
'亜'
'五郎'
'互い'
'二階堂'
'二位'
'事件に'
'事と'
'事から'
'予約'
'予定だ'
'乾杯_'
'乱で'
'也_'
'乗客'
'乃'
'主義の'
'主と'
'丹後国'
'中止'
'中学'
'中を'
'中へ'
'中にいる'
'世話を'
'世界が'
'世代'
'世_'
'与し'
'不詳_'
'不能'
'不正'
'不明で'
'下げ'
'上皇'
'上人'
'上京'
'上は'
'上で_'
'上げる'
'三郎'
'三条'
'三十'
'三_'
'万人'
'一般に'
'一緒に行く'
'一緒に来'
'一発'
'一日'
'一方'
'一応_'
'一家'
'一員'
'一体何が'
'ーラ'
'ープ'
'ージ'
'ーん_'
'ンド_'
'ンテ'
'ンで'
'ンだ'
'ローズ'
'ロシアの'
'レーザー'
'レッド'
'レオ'
'レイン'
'レ_'
'ルート'
'ルフ'
'ルト'
'ルズ'
'ルス'
'ルは'
'リストに'
'リス_'
'ランス'
'ラボ'
'ラブ'
'ライダー'
'ョウ'
'ユニ'
'ヤード'
'ヤン'
'ヤバ'
'モンロー'
'モノ'
'モ_'
'メリ'
'メス'
'メアリー_'
'ムに'
'ミニ'
'ミスター'
'ミサイル'
'マーカス'
'マンス'
'マスコミ'
'マイク'
'ポップ'
'ボード'
'ボルト'
'ボクは'
'ボウ'
'ホールに'
'ベリ'
'ベニー'
'ベッドの'
'ベスト'
'ベイビー_'
'ベア'
'ヘンリー_'
'ヘル'
'プリン'
'プラン'
'プス'
'ブラウン'
'ブライ'
'ブの'
'フー'
'フラッシュ'
'フォード'
'ファックス'
'ピンク'
'ビッグ'
'ビエ'
'ヒル'
'パーティ'
'パーク'
'パーカー'
'パトリック_'
'パティ'
'バーの'
'バーで'
'バロ'
'バリ'
'バランス'
'バスの'
'バスに'
'バカにし'
'バイオ'
'ハラ'
'ハメ'
'ハム'
'ハイ_'
'ネーム'
'ネットワーク'
'ネッサ'
'ネズミ'
'ニン'
'ナンバー'
'ドーム'
'ドッ'
'ドは'
'ドの'
'トーマス_'
'トミー'
'デーモン'
'デル'
'デリ'
'デブ'
'テーマ'
'テロリスト'
'ヅ'
'ツが'
'ッカ'
'ッと'
'チョコレート'
'ダリ'
'ダム'
'ダニー'
'ダス'
'ターが'
'タワー'
'タラ'
'タウン'
'タで'
'ゾー'
'ソール'
'ソース'
'ズに'
'スル'
'ストリ'
'ストラ'
'スターク'
'スタジオ'
'スを_'
'スは_'
'スは'
'スし'
'ジル_'
'ジャンプ'
'ジの'
'シンクロ'
'ショーン_'
'シュー'
'シップ'
'シ_'
'ザー_'
'ザン'
'サンタ'
'サブ'
'サッ'
'サイズ'
'ゴン'
'コース'
'コミ'
'コウ'
'ケイト'
'クレジットカード'
'クリーム'
'クラスの'
'クライ'
'クマ'
'クト'
'クが'
'ギャング'
'キレイ'
'キャッ'
'キャシー'
'キスして'
'ガード'
'ガー_'
'ガル'
'ガラス'
'カレ'
'カミ'
'カイ'
'カは'
'オーク'
'オレが'
'オル'
'オリバー_'
'オリバー'
'エリ'
'エネルギーを'
'ウー'
'ウム'
'ウェイ'
'ウイルス'
'ウィル_'
'ゥー'
'イタリア'
'イイ'
'ィ_'
'アラン_'
'アメリカの'
'アホ'
'アブ'
'アイデア'
'アア_'
'んよ_'
'んね'
'んに'
'んです'
'んでしょう_'
'んでいた'
'んだろう'
'んぞ_'
'んじゃね'
'んじ'
'を辞'
'を認め'
'を討'
'を言う'
'を見る'
'を見つけた_'
'を要'
'を聞いた'
'を聞'
'を維持'
'を決'
'を殺した_'
'を殺し'
'を提'
'を探してい'
'を捨て'
'を捕まえ'
'を持っている'
'を招'
'を思'
'を得る'
'を待って'
'を建'
'を差し'
'を好'
'を務めた_'
'を加え'
'を出て'
'を出'
'を信じて'
'をひ'
'をどう'
'をとって'
'をと'
'をつ'
'をしたい'
'をさら'
'をご'
'をあ'
'われる_'
'われる'
'わたしが'
'わせる'
'わせた'
'わす'
'わけで'
'わが'
'わかってい'
'ろく'
'ろうな_'
'ろうとして'
'ろうと_'
'ろうが_'
'れること'
'れと'
'れたの'
'る方法'
'る人'
'るのか'
'るでしょう_'
'るだけ'
'るために_'
'るが'
'り方'
'りん'
'りた'
'りして'
'られている'
'らった'
'らっしゃい_'
'らいい'
'よっしゃ_'
'よく_'
'ようなもの'
'ようとする'
'ようだ'
'ゆう'
'ゅう_'
'やん'
'やらない'
'やめて'
'やめた'
'やつら'
'やってる_'
'やが'
'やか'
'も言'
'も考え'
'も含'
'もろ'
'もらえ'
'もらう'
'ものもあ'
'ものな'
'もそう'
'もする'
'もしれません_'
'もう一つ'
'もうちょっと'
'もいる'
'もあった_'
'もあった'
'めてい'
'みんなは_'
'みや'
'みま'
'みなさん'
'みてください_'
'みが'
'まん'
'まない_'
'まない'
'まと'
'まったく_'
'まして'
'ぼれ'
'ぼっち'
'ぼくは'
'ほとんどの'
'ほし'
'ほか_'
'へ行'
'へと_'
'へえ_'
'ぶりに'
'ふざけ'
'ふうに'
'びっくり'
'ばれた'
'ばよ'
'ばかり_'
'は高'
'は言'
'は見えない'
'は自分'
'は生'
'は決'
'は正'
'は本'
'は日本'
'は悪'
'は思'
'は嫌'
'は大き'
'は分か'
'は出来'
'は全部'
'は全て'
'は信'
'は何だ_'
'は上'
'はロ'
'はマ'
'はイ'
'はア'
'はるかに'
'はめ'
'はま'
'はどうした_'
'はどう_'
'はど'
'はっ_'
'はさ'
'はいはい_'
'はいい'
'は10'
'の音'
'の際に'
'の金'
'の部屋'
'の遺'
'の運'
'の連'
'の警'
'の説'
'の話を_'
'の話だ'
'の血'
'の私'
'の祖'
'の研究'
'の知'
'の相手'
'の物'
'の殺'
'の正'
'の時代'
'の日本'
'の旅'
'の教'
'の改'
'の戦い'
'の情報'
'の年'
'の居'
'の少'
'の小'
'の存在'
'の子_'
'の妻'
'の夜'
'の変'
'の場所'
'の南'
'の北'
'の兵'
'の兄'
'の側'
'の信'
'の中心'
'の不'
'のレ'
'のポ'
'のプロ'
'のヒ'
'のバ'
'のタ'
'のも_'
'のす'
'のことは'
'の3'
'に食'
'に飛'
'に関'
'に違いない_'
'に連絡'
'に留'
'に渡'
'に残'
'に戻'
'に寄'
'に向かって'
'に包'
'に入れて'
'に入れ'
'に会'
'に任じられ'
'に任'
'に仕えて'
'によれば_'
'による_'
'にもな'
'になれ'
'になるわ'
'になると_'
'にな_'
'にとっては'
'にで'
'にして_'
'にした_'
'にし'
'にかけて'
'にあたる'
'に2'
'なんだろ_'
'なわ'
'なるよ'
'なので'
'なのだ_'
'なの'
'なにが'
'なども'
'なったの'
'なぞ'
'なぜなら_'
'なぜか'
'なす'
'なさいよ_'
'なさい'
'なくし'
'ない事'
'ないもの'
'ないね_'
'ないと思う'
'ないだろ_'
'ないぞ_'
'ないし_'
'どちらも'
'どこまで'
'どこへ'
'どこに_'
'どか'
'どおり'
'どう思う_'
'どうも'
'どうなる'
'どうなった'
'どうぞ'
'どうせ_'
'どうせ'
'どうすれば'
'どうしてこ'
'どうしたんだ_'
'どうしたんだ'
'どうしたらいい'
'どい'
'と話し'
'と聞'
'と思うの'
'と思うか_'
'と大'
'と呼ぶ_'
'と合'
'と一緒'
'とん'
'とる'
'とりあえず'
'とは違う'
'との関係'
'との_'
'とね_'
'とそ'
'としたら_'
'ときには'
'というわけ'
'というの'
'で私'
'で生'
'で一'
'でよ_'
'でもいい'
'ではないと'
'でな'
'でくれ_'
'できるだけ'
'でいい_'
'であったこと'
'て下さい_'
'てるわ_'
'てると'
'てるか'
'てやる_'
'てやる'
'てや'
'てもら'
'てっ'
'てしまった_'
'てしまう_'
'てしま'
'てお'
'ているが_'
'つもり'
'つながって'
'つなが'
'つだ'
'つきあ'
'っぱ'
'って誰'
'って言って'
'ってん'
'っても_'
'っていた_'
'っていうか_'
'っちゃった'
'っちゃう'
'ったんです'
'ったんだ'
'ったよ_'
'ったと思'
'っすよ_'
'っす_'
'っす'
'ちょっと待て_'
'ちょっとだけ'
'ちまった_'
'ちまう'
'だろうな_'
'だら'
'だまされ'
'だと言'
'だったから_'
'だっけ_'
'だけを'
'だけの_'
'だか'
'た時'
'たり_'
'たよう'
'たと_'
'たち_'
'たため_'
'たことを'
'たことがあ'
'たかった_'
'たいの_'
'そん'
'それらは'
'それは彼'
'それはいい'
'それによ'
'それとも_'
'それでは'
'それぞれの'
'それじゃあ'
'それか_'
'その日'
'その意'
'その少'
'その名'
'そのものが'
'そのとき'
'そのこと'
'そこまで'
'そこは'
'そこには'
'そう言'
'そう思う'
'そうは思'
'そうに'
'そうでしょ_'
'そうだった_'
'そうし'
'そういう人'
'せるか'
'せます_'
'せば_'
'せなかった'
'せっかく'
'せた_'
'せず_'
'せざるを得な'
'ずし'
'するべき'
'するのよ_'
'するのが'
'することは'
'することで'
'するから_'
'じょう'
'じゃねえ'
'じゃね'
'じゃなくて'
'じゃないの'
'じゃないか'
'じゃありません_'
'し合'
'しようとして'
'しようとした'
'しめ'
'しまった'
'しばしば'
'しに'
'しなかった_'
'してない_'
'してしまう'
'しており_'
'しているのです_'
'したり_'
'したから'
'しく_'
'しかも'
'されるの'
'されたの'
'さっきの'
'さっきから'
'させること'
'させない_'
'させてい'
'させた_'
'ご飯'
'ご用'
'ございます_'
'ごう_'
'これを見て'
'これも_'
'これが_'
'こりゃ'
'この場所'
'この問題'
'この作'
'この人'
'このバ'
'このため'
'ことはあ'
'ことにし'
'ことができる_'
'ことがあります_'
'こっちの'
'こっちに来'
'こっちが'
'こじ'
'ここに残'
'ここに来る'
'ここにいて'
'ここにい'
'ここで何'
'ここだ_'
'こうと'
'こうして_'
'こいつら'
'こいつ_'
'けられ'
'けません_'
'けて_'
'けが'
'く思'
'くん_'
'くれるか'
'くれる_'
'くれました_'
'くれないか_'
'くるの'
'くよう'
'くと'
'くぞ_'
'くせ'
'くさ'
'ぎり'
'きま'
'きなさい_'
'きない'
'きつ'
'きか'
'が設'
'が良'
'が聞'
'が続'
'が確'
'が知'
'が決'
'が正'
'が欲しい'
'が来た'
'が手'
'が悪い'
'が悪'
'が建'
'が居'
'が始まる'
'が分か'
'が上'
'がま'
'がなかった'
'がどう'
'がど'
'がと'
'ができます_'
'があれば'
'があるから_'
'かれる'
'かれて'
'かれた_'
'から逃げ'
'から出'
'からと'
'からで'
'かは_'
'かで'
'かったな_'
'かず'
'かさ'
'お願いです_'
'お茶を'
'お聞き'
'お父さん_'
'お店'
'お友達'
'お前は何'
'お兄ちゃん'
'おん'
'おら'
'おやすみ_'
'おばさん'
'おはようございます_'
'おき'
'おかしい'
'おう'
'おいては_'
'ぉ_'
'えて_'
'えた_'
'えぇ_'
'う事'
'うわっ_'
'うま'
'うが_'
'いわれる_'
'いるのか_'
'いるの_'
'いやいや_'
'いなら_'
'いてる'
'いてた'
'いている'
'いつの'
'いたら'
'いたので'
'いたの_'
'いただき'
'いたこと'
'いたが_'
'いくつも'
'いかない'
'いうことです_'
'いいの'
'いいです'
'いいだろう_'
'いいだろ_'
'ぃ'
'あれだ'
'あるわ'
'あるから_'
'あるか'
'ありがとうございました_'
'ありがと'
'あや'
'あなたを_'
'あなたはこ'
'あなただけ'
'あちこち'
'あそこに'
'あそこで'
'あそこ'
'〟_'
'』『_'
'」、_'
'。"_'
'、 '
'♫_'
'♪♪'
'─_'
'‐ _'
'{_'
'yuu'
'yuk'
'yu_'
'yf'
'yep_'
'yed_'
'yea'
'yc'
'yama'
'wr'
'work'
'wn'
'wing_'
'whom_'
'whoever_'
'wheel'
'whe'
'wells_'
'weekend_'
'wears_'
'wea'
'waves_'
'watched_'
'washing_'
'wander'
'wal'
'wak'
'waited_'
'wait'
'violent_'
'viol'
'version_'
'vent'
'ven'
'valve_'
'value_'
'ust'
'uri'
'urge'
'unp'
'units_'
'unfortunately_'
'unb'
'ume_'
'uh'
'ud'
'uck'
'ub'
'two'
'twe'
'tting_'
'tt'
'tru'
'trip'
'trial_'
'trapped_'
'toward_'
'tos'
'tony_'
'tin'
'tig'
'tied_'
'ticket_'
'tick'
'tial'
'throat_'
'thoughts_'
'thief_'
'terror_'
'tent'
'temperature_'
'tem'
'tears_'
'teaching_'
'teachers_'
'task_'
'tape_'
'tap'
'tali'
'tale'
'symptoms_'
'swor'
'sweetheart_'
'survival_'
'surface_'
'supposedly_'
'sum_'
'sum'
'suits_'
'sts_'
'strong'
'strat'
'stock_'
'stiff_'
'ster'
'stays_'
'staying_'
'stan'
'stal'
'spread_'
'spr'
'speci'
'spar'
'source_'
'solution_'
'solid_'
'soldiers_'
'solar_'
'software_'
'slight'
'slave_'
'sk'
'signs_'
'sign'
'shini'
'sher'
'shed_'
'shark_'
'shan'
'severe'
'sevent'
'settle'
'seri'
'ser'
'selling_'
'selfish_'
'seek_'
'secretary_'
'sea'
'screwed_'
'scratch_'
'say'
'sasa'
'sanc'
'saki_'
'saint_'
'runs_'
'rta'
'row_'
'roo'
'roll'
'rob_'
'rk'
'rie'
'rg'
'revi'
'results_'
'response_'
'resign'
'reported_'
'remote_'
'remind_'
'religion_'
'released_'
'relative'
'regular_'
'ref'
'recommend'
'recent_'
'received_'
'rebel'
'reasons_'
'reali'
'reaction_'
'ras'
'raised_'
'raci'
'rachel_'
'race_'
'r'
'py'
'pti'
'pros'
'property_'
'products_'
'produced_'
'produce'
'proceed'
'print_'
'principle_'
'presence_'
'pres'
'precious_'
'pray_'
'pping_'
'pounds_'
'potential_'
'pol'
'plu'
'player_'
'play'
'planned_'
'pizza_'
'pig_'
'phy'
'photo_'
'phones_'
'phil_'
'peter_'
'person'
'permanent_'
'peri'
'pee'
'patr'
'path'
'particularly_'
'participate_'
'pardon_'
'pair_'
'pai_'
'pad'
'ought_'
'ong'
'onee'
'old'
'ol_'
'ol'
'official_'
'ocean_'
'occur'
'nuts_'
'nurse_'
'num'
'nuclear_'
'nou'
'noti'
'nor'
'nick_'
'nic'
'nger'
'nel_'
'nearly_'
'nder_'
'nc'
'nav'
'natsu'
'nal'
'nab'
'mystery_'
'mus'
'multi'
'ms'
'movies_'
'moves_'
'mour'
'motive_'
'motherfucker_'
'mot'
'mono'
'mond'
'mommy_'
'mode_'
'mix'
'mistakes_'
'milli'
'mess'
'mes_'
'medic'
'meant_'
'mble'
'mbi'
'may'
'math_'
'mary_'
'martin_'
'marine_'
'marie_'
'manga_'
'mai'
'lve'
'lucy_'
'ls'
'losing_'
'loose_'
'lock'
'lm'
'literally_'
'lift_'
'life'
'lie'
'lic'
'letters_'
'lee'
'lds_'
'laurel_'
'lar_'
'land'
'lad'
'kyo'
'knock_'
'km_'
'kiss_'
'kiri'
'kim'
'kie'
'kawa_'
'kana'
'jur'
'junk_'
'jumped_'
'judg'
'joy_'
'journey_'
'joo'
'jeans_'
'japan_'
'item'
'ison_'
'ional_'
'invited_'
'inv'
'international_'
'intention'
'ino'
'infi'
'inf'
'ines_'
'industry_'
'individual_'
'increase_'
'ina_'
'improv'
'impl'
'imm'
'identify_'
'id'
'ick'
'ians_'
'hyp'
'hunting_'
'hundreds_'
'hun'
'hr_'
'hos'
'hoo'
'holl'
'hobb'
'highest_'
'hide'
'here'
'hed_'
'heads_'
'haz'
'harr'
'hands'
'handling_'
'hack'
'habit_'
'gy'
'gut'
'gum'
'gue'
'grateful_'
'grat'
'graph'
'grab_'
'gor'
'goodness_'
'ghte'
'ght'
'gh'
'gger'
'gather_'
'fuel_'
'fortune_'
'fort'
'former_'
'flies_'
'fleet_'
'fights_'
'festival_'
'fer'
'fee'
'fed_'
'fat'
'fan'
'faith_'
'failure_'
'factory_'
'face'
'explosion_'
'explore_'
'expecting_'
'exchange_'
'examination_'
'exam_'
'exa'
'events_'
'essen'
'ere'
'equi'
'entirely_'
'enha'
'emi'
'elli'
'electrical_'
'ek'
'effective_'
'edi'
'ect'
'eaten_'
'ears_'
'ear'
'ds'
'drove_'
'driver_'
'drive'
'dow'
'doll_'
'dogs_'
'dna'
'dly_'
'dle'
'division_'
'district_'
'diss'
'discuss'
'disa'
'dil'
'dge_'
'desperate_'
'designer_'
'demo'
'deliver_'
'defend'
'deep'
'dece'
'decade_'
'dating_'
'daily_'
'cus'
'cur'
'cro'
'cried_'
'crash_'
'crap_'
'cost'
'convince_'
'continued_'
'contacted_'
'congress'
'conflict_'
'confidence_'
'condo'
'compr'
'complex_'
'compared_'
'committed_'
'commen'
'combat_'
'color_'
'collection_'
'coin'
'cloud_'
'clear'
'cleaning_'
'cleaned_'
'classic'
'claim'
'cke'
'cities_'
'cin'
'christ_'
'cho_'
'chloe_'
'chips_'
'chinese_'
'china_'
'chemical'
'charged_'
'chan'
'cert'
'cel'
'cast'
'carry_'
'cameras_'
'cab'
'buying_'
'busted_'
'bullets_'
'buildings_'
'bug'
'bringing_'
'brilliant_'
'breaking_'
'breakfast_'
'bow_'
'bou'
'boot'
'bone_'
'bitter_'
'betrayed_'
'ber'
'bell_'
'believes_'
'beg_'
'bee'
'becoming_'
'bathroom_'
'band_'
'bail'
'badly_'
'backs'
'back'
'babies_'
'bab'
'awa_'
'average_'
'auti'
'aunt_'
'ature_'
'ats_'
'assure_'
'asshole_'
'asan_'
'arrived_'
'arde'
'appro'
'ant'
'anna_'
'anger_'
'ane_'
'ances_'
'anc'
'ana_'
'ana'
'alt'
'alli'
'alle'
'alan'
'aki'
'africa_'
'affected_'
'af'
'advised_'
'admit_'
'ade'
'active_'
'ace_'
'abi'
'aba'
'ab'
'aar'
'Yo'
'Y_'
'Which_'
'Uh_'
'Tr'
'Tho'
'Take_'
'Pu'
'Pro'
'Pre'
'Pla'
'Par'
'Or_'
'Nothing_'
'Min'
'Mar'
'Listen_'
'Lin'
'Ko'
'Ind'
'H_'
'Gr'
'Fri'
'For'
'Fi'
'Excuse_'
'Every_'
'El'
'Cu'
'Cla'
'Cl'
'Car'
'Bar'
'And'
'AI'
'9月'
'98'
'8日'
'800_'
'7月2'
'7人'
'75_'
'72'
'70'
'60'
'5分'
'59'
'56'
'54'
'4月_'
'47_'
'41'
'3d'
'31日_'
'2年1'
'2005_'
'2000'
'193'
'160'
'15年_'
'117'
'0月'
'. [_'
')）_'
')　_'
'!"_'
' ― _'
' ...'
' --_'
'･･･_'
'ｍ'
'Ｍ'
'Ｆ'
'Ｃ'
'？ 」_'
'６年'
'２時間'
'１年'
'！"_'
''
''
''
''
''
'黙れ_'
'黄色の'
'麦'
'鹿児島'
'鷲'
'鶴'
'鳴ら'
'鳥取県'
'鳥が'
'高野'
'高校の'
'高度な'
'高倉'
'高く'
'驚くべき'
'騎士'
'騎'
'駒'
'駆け'
'駅名'
'首都'
'飾'
'食品'
'食事を'
'食べよう_'
'食べて_'
'食って'
'飛べ'
'飛ばし'
'風が'
'類の'
'願いを'
'願_'
'題に'
'頼朝は'
'頼朝'
'頭_'
'頃には'
'頂け'
'音声'
'音を'
'音は'
'鞍馬'
'面倒を見'
'震'
'電話の'
'電話に出'
'電話する'
'電話が'
'電池'
'電力'
'雰囲気'
'離れてい'
'離して'
'雇い'
'集中'
'集め'
'集ま'
'隣に'
'隠居'
'隊長'
'隊士'
'陰で'
'陥'
'除外'
'院流'
'院政'
'阿弥陀'
'防備'
'関連の'
'関係者'
'関係ないわ_'
'関係が'
'関与'
'間違った'
'間違いだ'
'間に合'
'間で_'
'開業'
'開けろ_'
'開かれ'
'門に'
'長野県'
'長政'
'長州'
'長寿'
'鑑'
'録_'
'銘'
'銀行の'
'銀行に'
'銀行_'
'銀河'
'鉱'
'金は'
'金だ'
'金_'
'野菜'
'野朗'
'野さん'
'重要だ'
'重_'
'釈迦'
'酔っ'
'配流'
'部屋を'
'邪悪'
'避け'
'避'
'遺跡'
'選択肢は'
'選んで'
'選んだの'
'選んだ'
'選び'
'適用'
'適切な'
'違法な'
'違うの_'
'達也_'
'過ぎて'
'過ぎた'
'遍'
'運転する'
'遊星'
'遊ぶ'
'遊びに'
'遅刻し'
'遅刻'
'遅れて'
'進歩'
'逮捕された_'
'連絡する'
'連絡して'
'連中が_'
'連れて行って'
'連れてく'
'連れてきた'
'連れてい'
'連の'
'速い'
'逝'
'逆ら'
'逃し'
'逃げて_'
'送られ'
'追いかけ'
'述べ'
'还'
'返事'
'近年'
'迎える'
'込み_'
'込'
'農業'
'輝く'
'輔'
'転校'
'軍人'
'車は'
'踏み'
'跡地'
'足軽頭'
'越した'
'越し'
'起訴'
'起こって'
'起こす'
'起こした'
'起きろ_'
'購入'
'賞金'
'賞_'
'貸して'
'貴重な'
'貴様_'
'責める'
'貌'
'豊かな'
'说'
'警視'
'警官だ'
'警備の'
'譜_'
'謝ら'
'講演'
'論理'
'調査し'
'誰と'
'誰だか'
'誰かと'
'説明してくれ'
'説教'
'語る'
'誘っ'
'誇り'
'誇'
'詳細'
'話を聞く'
'話は_'
'話の'
'話です'
'話す_'
'話しまし'
'話してない'
'話したの'
'詮'
'証明する'
'証明'
'証拠を'
'訴訟'
'訳で'
'訳じゃない_'
'許可を'
'許さ'
'設計図'
'記し'
'訓'
'言葉が'
'言を'
'言わせ'
'言ってんだ'
'言ってました'
'言ってた_'
'言うと_'
'言いま'
'言いたい'
'触っ'
'解決法'
'解放'
'见'
'観測'
'親子'
'親友'
'親切'
'親は'
'親しい'
'覚えてる_'
'覗'
'視点'
'規模の'
'見逃して'
'見解'
'見出'
'見ると'
'見ても'
'見てた'
'見てください'
'見つけ出'
'見た目'
'見たの'
'見たことが'
'見たこと'
'見かけ'
'見えま'
'要素'
'要る_'
'西欧'
'西日本'
'襲撃'
'複数の'
'製作'
'裏切'
'裁判長'
'被害'
'表面'
'表紙'
'表示'
'表現'
'表情'
'表す'
'衝突'
'衝'
'街を'
'街に'
'術_'
'行動に'
'行動し'
'行われる'
'行われた'
'行の'
'行ってみ'
'行ってき'
'行こうぜ_'
'行けない'
'行くの'
'行きました'
'行きたい'
'行かなく'
'行かないと_'
'行かな'
'行う'
'行い'
'虚'
'虐待'
'薬物'
'薬を飲'
'蒸'
'著名'
'著作'
'落ちて'
'菅'
'荷物を'
'草_'
'茶屋'
'英語の'
'苦痛'
'苦しめ'
'若者'
'若さ'
'花さん'
'花_'
'色は'
'色が'
'良くな'
'良いん'
'良いと'
'船は'
'船に'
'船が'
'般'
'航'
'舞鶴'
'興味ない'
'致'
'自白'
'自由を'
'自然の'
'自治'
'自動車'
'自体に'
'臆病'
'能_'
'胡'
'背景に'
'育つ'
'肩の'
'肥満'
'職場'
'聡明'
'聞こえなかった'
'聞こえない'
'聞かない'
'聞いてない'
'聞いている'
'聖書'
'聖人'
'耕作'
'耐えられない_'
'而'
'者には'
'者さ'
'考え方'
'考えること'
'考えられ'
'考えない'
'考えで'
'考えています_'
'老中'
'美術館_'
'美術品'
'美味'
'置いた'
'繰り返す_'
'繋がり'
'緩'
'編集長'
'編集'
'線は'
'続きを'
'継ぐ'
'継が'
'継いで'
'絶望'
'絵の'
'絵_'
'結構_'
'結局'
'結びつ'
'経由_'
'素材'
'素敵'
'紐'
'米の'
'簡単だ'
'範囲に'
'箱を'
'箱に'
'箇'
'筒'
'等が'
'笑った'
'立場に'
'立た'
'立され'
'立_'
'突っ'
'突き止め'
'空気'
'空を'
'穀'
'稲荷'
'種を'
'移動し'
'秦'
'科学者'
'科学的'
'私は君'
'私はこれ'
'私はここ'
'私のことを'
'私だ'
'私たち_'
'私が言'
'神祇'
'神々'
'祖父_'
'祖_'
'祀'
'社が'
'確実に'
'確かな'
'破片'
'砕'
'研究室'
'研究の'
'研'
'砂漠'
'知られている'
'知らなかった_'
'知らせた'
'知らず'
'知ってたの'
'知ってお'
'知っていた'
'瞬間に'
'瞬'
'睡眠'
'眺め'
'眠れない'
'眠れ'
'真面目'
'相良'
'相棒'
'直接_'
'直感'
'直後に'
'直前に'
'直し'
'目には'
'盟'
'盗んだ_'
'盗まれた'
'盗まれ'
'皿'
'皇太子'
'皇の'
'的です_'
'百姓'
'登場'
'発行'
'発動_'
'痛みを'
'痕跡'
'症状'
'病院'
'病気に'
'疾患'
'疫'
'異なる_'
'番号が'
'番だ_'
'画の'
'男性_'
'男は_'
'男で'
'用語'
'用心'
'用事'
'用で'
'用し'
'用い'
'産業の'
'産地と'
'生涯'
'生存'
'生み'
'生まれ変わ'
'瓦'
'環'
'琵琶湖'
'理解した'
'理由を'
'理由がある'
'理_'
'現れて'
'現れた'
'現れ_'
'现在'
'王国'
'率いる'
'献'
'猫が'
'狭い'
'狙う'
'狙い'
'狂人'
'状況が'
'状に'
'犯人は_'
'犯人の'
'犠牲者'
'犠牲に'
'犠牲'
'特殊'
'物語の'
'物として'
'物である'
'物だ'
'牧'
'父親を'
'父親で'
'父親が'
'父親'
'父上'
'父さんが'
'父が'
'無駄だ'
'無効'
'烏丸'
'烈な'
'炎'
'火星'
'澄'
'潜入'
'漫画'
'漕'
'漏れ'
'滝'
'準備は_'
'準備ができ'
'湿'
'済む'
'済まない_'
'清盛'
'深呼吸'
'淀川'
'淀'
'消費者'
'消費'
'浄土真宗'
'流通'
'流川'
'流に'
'派を'
'派と'
'活性化'
'注目され'
'注目'
'泥棒'
'泥'
'泣く'
'泣か'
'波の'
'法人'
'沿岸'
'沿い'
'沈黙'
'決めた_'
'決まり'
'決まってる'
'決して_'
'江戸で'
'求められ'
'水軍'
'水素'
'水は'
'気持ちは'
'気分が悪'
'気をつけ'
'気になって'
'気にする'
'気にしない_'
'気で'
'気づいて'
'気づいた'
'気がする'
'気がし'
'氏を'
'比べ'
'毒を'
'母親を'
'母親の'
'母親'
'殺人犯'
'殺人の'
'殺そうとした'
'殺すの'
'殺す_'
'殺しに'
'殺したの'
'段階'
'殴る'
'殴'
'残念ながら'
'残る'
'残っている'
'残した_'
'死後'
'死ね'
'死ぬこと'
'歴史_'
'歴任'
'歪'
'歩み'
'歩け'
'歩いてい'
'武装'
'武術'
'正確な'
'正直_'
'正体'
'止められ'
'歓迎'
'歌舞伎'
'歌人'
'歌の'
'欲し'
'機関の'
'機構'
'機器'
'機会が'
'機_'
'権守'
'権中納言'
'権は'
'権の'
'標準'
'標'
'様は_'
'楽しかった_'
'楽しかった'
'業_'
'植え'
'森の'
'森に'
'桶'
'桑名'
'校_'
'果たして'
'果た'
'東京国立博物館'
'来週'
'来ない_'
'来てく'
'来たの_'
'条_'
'朱'
'本願寺'
'本気だ'
'本当にす'
'本当で'
'本人'
'本で'
'末期'
'未知'
'未来に'
'木津川'
'期を'
'期_'
'望ま'
'服役'
'有難う_'
'有罪'
'有力'
'有る'
'有りま'
'月の'
'最高だ_'
'最高だ'
'最終的には'
'最上'
'替'
'書いてあ'
'暮らす'
'晴れ'
'普'
'時間に'
'時間で'
'時間だ_'
'時も'
'時が'
'昼間'
'昭'
'昨日の'
'昨年'
'映画を'
'星に'
'明治3'
'明るく'
'明らかに_'
'旧暦'
'日本人'
'日本にお'
'日曜日'
'日常'
'日は'
'日だった'
'既'
'族を'
'方法は_'
'方と'
'方が良い'
'新たに'
'新しいパ'
'断絶し'
'料の'
'斉'
'文章'
'文を'
'敷地'
'数時間'
'数年'
'数字'
'散し'
'教_'
'政府の'
'政宗'
'政_'
'改革'
'改称'
'改札'
'改め'
'支援'
'支持'
'支え'
'撰'
'撤'
'撃って'
'摂政'
'携帯電話_'
'損失'
'援'
'提案し'
'提出'
'描いた'
'揃って'
'掲げ'
'接近'
'接触し'
'探すの'
'排除'
'捨てられ'
'捨てた'
'捕らえ'
'捕まって'
'捕まえる'
'捕ま'
'挿'
'振る'
'指し'
'持って来'
'持ち込'
'拳銃'
'括'
'拠点'
'招待し'
'拒'
'押さえて'
'抱き'
'抱いた'
'抜ける'
'抜けた'
'抜く'
'抗議'
'技術者'
'技術の'
'技術が'
'払う_'
'払'
'手間'
'扇'
'所属'
'所の'
'所が'
'戻りま'
'戻って来る'
'戻ってくる'
'戦後の'
'戦争を'
'戦争に'
'我慢して'
'我々と'
'成果'
'成人'
'成の'
'成し遂げ'
'戊辰戦争'
'憶えてる'
'憂'
'慮し'
'慎_'
'慎'
'慈'
'感謝してる'
'感じて'
'愛する人'
'愛してい'
'意図'
'意味_'
'想像して'
'情報に'
'情報で'
'情報が_'
'情報が'
'悪の'
'悪いこと'
'悩ま'
'悦'
'悠里子'
'悟飯'
'悟空'
'息子さんの'
'息子が'
'息子_'
'恐れてい'
'恐'
'怪我を'
'思われ'
'思わない'
'思って_'
'思え'
'思うか'
'思いやり'
'怖くない'
'怖い_'
'念の'
'忙しく'
'忘れない'
'忘れてた_'
'忌'
'必要は'
'必要なん'
'必要なの_'
'必要ない_'
'必要があ'
'必ずしも'
'心配な'
'心配する'
'心配しないで_'
'心地'
'徳天皇'
'循環'
'従兄弟'
'従五位下_'
'徐々に'
'後醍醐'
'後世'
'後は_'
'後には_'
'後には'
'待っていた'
'待った'
'待たせた'
'征夷大将軍'
'彼女はそ'
'彼女の話'
'彼女だ'
'彼を見つけ'
'彼は今'
'彼はあなた'
'彼の家'
'彼の名前'
'彼と話'
'役者'
'役人'
'役に立'
'役として'
'形式'
'形の'
'形で_'
'当然_'
'当に'
'当たっ'
'強盗の'
'強力な'
'強制的に'
'弱点'
'弘仁'
'引く'
'弔'
'式に'
'建物を'
'廊下'
'廃止_'
'庶民'
'庭に'
'座り'
'床に'
'広島'
'広告'
'広い'
'幼い'
'幹'
'幸運な'
'幸い'
'年で'
'平成1'
'平家'
'平均'
'平和を'
'幣'
'帳_'
'帰還'
'帰らない'
'帯_'
'希_'
'市民の'
'巻き込まれ'
'巴'
'已'
'己の'
'己'
'左右'
'左京'
'左_'
'州の'
'川の'
'嵯峨'
'山科区'
'山崎'
'展示'
'屋に'
'屋で'
'屋が'
'居て'
'尽'
'就任'
'尚'
'少なくな'
'少々'
'尋ねた'
'将軍家'
'将軍の'
'将来の'
'射撃'
'専攻'
'封印'
'封じ'
'対抗'
'寺は'
'寛永'
'富士'
'寄せて'
'家臣'
'家族だ'
'家では'
'宴'
'宮に'
'室町時代の'
'室で'
'宣言'
'客の'
'実験を'
'実際に_'
'宝物'
'定して'
'定_'
'官職'
'官に'
'官で'
'完了'
'宋'
'安藤'
'安心して'
'守る_'
'宅に'
'学術'
'学的'
'学校に行'
'学び'
'存知'
'存在を'
'存在で'
'存在しない'
'字を'
'子さん'
'娼婦'
'姿を見'
'姿は'
'姐'
'始め_'
'始ま'
'妻が'
'妹を'
'妖精'
'妓'
'妊娠して'
'好了_'
'好_'
'奴は_'
'女神'
'女性と'
'女性で'
'奥田'
'奥の'
'奥さんは'
'失望'
'太子'
'太刀'
'天皇を'
'天皇と'
'天皇が'
'天武天皇'
'天台'
'天下'
'大隈'
'大阪府'
'大金を'
'大日'
'大尉_'
'大学に'
'大変だ'
'大型'
'大坂'
'大使'
'大体'
'大丈夫です_'
'夢中'
'夢を'
'夜間'
'多くの人'
'外科医'
'外へ'
'外して'
'変人'
'変わる'
'変に'
'変えられ'
'壺'
'売春婦'
'声明'
'声が聞こえ'
'増加'
'増や'
'場面'
'場所は'
'堂に'
'埋め'
'型の'
'坊や_'
'均'
'地球上'
'地中'
'地上'
'土産'
'土の'
'国造'
'国宝_'
'国学'
'国境'
'国司'
'国が'
'図を'
'団地'
'団_'
'回復した'
'回は'
'回った'
'回して'
'器の'
'噂は'
'嘘をついた'
'嘘を'
'嘆'
'喰'
'喜ぶ'
'善人'
'問題と'
'問題だ'
'問わ'
'問い'
'哲学'
'品は'
'品で'
'品_'
'和歌'
'和_'
'命令を'
'命令だ_'
'命令し'
'命を_'
'命に'
'命じ'
'周りを'
'君たちは'
'向ける'
'向かってる'
'向かってい'
'向かい'
'名字'
'名声'
'名前の'
'名が'
'同時に_'
'同志社'
'同じで'
'同じことを'
'吉良'
'合図'
'合わせる'
'合って'
'合った'
'各地で'
'司法'
'叶'
'右近'
'右衛門_'
'史跡'
'可能性がある'
'可能性が'
'召'
'古文'
'古典'
'口が'
'受け取って'
'取り込'
'取られ'
'収集'
'収入'
'収め'
'友達は'
'友人と'
'参議'
'参照'
'参加して'
'参加し'
'参り'
'去_'
'厄介'
'危険を'
'博士は'
'単純'
'単独で'
'単なる'
'南ア'
'卓'
'卒業し'
'半分の'
'十分な'
'十三'
'区別'
'北部'
'化して'
'化し_'
'勿'
'勧'
'勤務'
'募'
'勝手'
'務め'
'勘違い'
'動作'
'動くな_'
'動が'
'勇気_'
'勇敢'
'励'
'助言'
'助けられ'
'助けにな'
'助けてくれ'
'助けた'
'助かる'
'助_'
'加速'
'加え'
'力にな'
'劇場'
'剣術'
'剛'
'前回'
'前を'
'前だ_'
'前から'
'制に'
'到達し'
'利用され'
'別名'
'判決'
'判断を'
'判らな'
'初期の'
'刑務所で'
'刑事_'
'分子'
'分で'
'分って'
'分かんない'
'分かれ'
'分かりません_'
'分かります_'
'分かっている'
'分かったか'
'出来る事'
'出会った_'
'出会'
'出ない'
'出て行く'
'出て来'
'出した_'
'出さない'
'出かける'
'凝'
'冗談だよ_'
'内臓'
'内側'
'共通の'
'共有'
'共和国'
'共同'
'公衆'
'公式'
'公平'
'公園に'
'入れま'
'入りま'
'児童'
'光秀'
'光は'
'先生が'
'先代'
'先だ'
'兄弟は'
'兄は'
'元気で'
'元を'
'元は'
'元々'
'償'
'僧正'
'僚'
'僕らの'
'僕ら'
'僕たち'
'像_'
'働いている'
'傷つ'
'備後'
'倒した'
'俺ら'
'俺の名'
'俺に任せ'
'俺だっ'
'俺だ_'
'俺たちを'
'修復'
'信号を'
'信じられ'
'保証'
'保存'
'保元'
'侵略'
'侵'
'使ってる'
'作用'
'作る_'
'作り_'
'作と'
'作った_'
'作_'
'何年も前'
'何をしよう'
'何をして'
'何より'
'何やってんだ'
'何も言わな'
'何なんだ_'
'何なの'
'何でもない_'
'何て言う'
'何だと_'
'何だって_'
'何してる_'
'何してる'
'何が起きたか'
'何が起き'
'何ができる'
'何がある'
'何があった'
'何か分か'
'何かが'
'体調'
'体育'
'佐賀'
'佐藤'
'住所'
'位階'
'位置を'
'位置に'
'位を'
'但し_'
'伺'
'伝来'
'伝わっ'
'会見'
'会わせ'
'会が'
'会えな'
'会え'
'企業が'
'企'
'任官'
'任務は'
'任せる'
'任され'
'件は_'
'件_'
'仲間を'
'仮に'
'以降'
'以前は'
'令状を'
'令状'
'代官'
'代は'
'代で'
'代々'
'付ける'
'付く'
'付き合い'
'付いてい'
'付いた'
'他人の'
'仕方'
'仕事だ'
'今週'
'今日も'
'今度'
'今ど'
'今だ'
'今から_'
'人類の'
'人達'
'人殺し'
'人であ'
'人がい'
'人か'
'人々の'
'亮'
'京都駅'
'井戸'
'井上'
'二階'
'二度と_'
'二人とも_'
'事故の'
'事故に'
'事実_'
'事で_'
'事だけ'
'事が_'
'亀山'
'九条'
'乗船'
'乗る'
'乗り越え'
'么'
'丼'
'主要な'
'主義'
'主は'
'丹後'
'中尉_'
'中国_'
'中は'
'中に入'
'中から'
'両親は'
'世界を救う'
'世界を変え'
'世界へ'
'世界に'
'世界_'
'世の中'
'与えた'
'不自'
'不幸な'
'不安定'
'不在'
'不可能だ'
'不動'
'下車'
'下ろし'
'上等'
'上昇'
'上さ'
'上がり'
'三重'
'三好'
'丁度'
'一門'
'一週間'
'一晩中'
'一人で_'
'一人だけ'
'一人が'
'一つで'
'一つだけ'
'ーム'
'ーチ'
'ーシ'
'ーサ'
'ーグ'
'ーの_'
'ーな'
'ーっ_'
'・・・'
'・'
'ヶ原の戦い'
'ヴァー'
'ンティ'
'ンタ'
'ンズ_'
'ンと'
'ワル'
'ロープ'
'ロデ'
'ロジャー_'
'レーション'
'レナ'
'レディ'
'ループ'
'ルナ'
'ルと'
'リース_'
'リリー'
'リッキー'
'リチャード_'
'リズボン'
'リストを'
'リコ'
'ラーメン'
'ランチ'
'ラモン'
'ラップトップ'
'ラク'
'ライバル'
'ライアン'
'ラを'
'ョー'
'ユリ'
'ユダヤ人'
'ヤー'
'ヤル'
'ヤツら'
'ヤツの'
'モーター'
'モント'
'モス'
'メラ'
'メイド'
'メアリー'
'ムーン'
'ムを'
'ムで'
'ミング'
'ミリ'
'ミナ'
'ミッシ'
'ミス_'
'マレ'
'マルコ'
'ママに'
'ママが'
'マダム_'
'マジで_'
'マシン'
'マウ'
'マイクロ'
'ポル'
'ポケット'
'ボクシング'
'ホームレス'
'ホントに_'
'ホント'
'ホリ'
'ホット'
'ペース'
'ペル'
'ペラ'
'ベル_'
'ベッドに'
'ヘレ'
'プー'
'プレ'
'ブース_'
'ブレナン'
'ブルース_'
'ブル_'
'ブラン'
'ブラッド'
'フランス語'
'フラン'
'フライ'
'フフフ_'
'フッ'
'フォート'
'フィンチ_'
'フィル'
'フィフス_'
'ピーター_'
'ビーチ'
'ビルは'
'ビジネスに'
'ビ_'
'パーティに'
'パーの'
'パリに'
'パパと'
'パターン'
'パスポート'
'バーク'
'バーを'
'バンド'
'バッテリー'
'バスケ'
'バス_'
'ハンター'
'ハンサム'
'ハリー_'
'ハハハハ_'
'ハニー_'
'ハッキング'
'ハッカー'
'ネギ'
'ニュースで'
'ニッ'
'ナーを'
'ナンシー'
'ナは'
'ドレ'
'ドルの'
'ドルで'
'ドアを開け'
'ドで'
'ドが'
'トワイライト'
'トレ'
'トラビス'
'トビ'
'トゥー'
'トは'
'デートし'
'デビ'
'デバイス'
'デカ'
'ディング'
'ディス'
'テッ'
'テス'
'テイ'
'ティス'
'ツを'
'ッタ'
'ッサ'
'ッキ'
'チームに'
'チーズ'
'チャーリー_'
'チック'
'チキン'
'チェン'
'チは'
'チの'
'チで'
'ダーク'
'ターン'
'タス'
'タを'
'タは'
'ソル'
'ソフトウェア'
'ソフト'
'セントラル'
'センス'
'セラ'
'セク'
'ズー'
'ズル'
'ズム'
'ズを'
'ズは_'
'ズで'
'スミス'
'スピーカ_'
'スピー'
'ステーション'
'スティーブン'
'スティー'
'スティ'
'スタート'
'スタイル'
'スコ'
'スカ'
'スウ'
'スイッチ'
'スだ_'
'ジョフリー'
'ジョイ'
'ジャー_'
'ジェダイ'
'ジを'
'シンプルな'
'シングル'
'シリ'
'ショ'
'システムに'
'シカゴ'
'サービス'
'サーバー'
'サル'
'サリー'
'サイコ'
'ゴール'
'ゴー_'
'ゴル'
'コーヒーを'
'コンテ'
'コラ_'
'コミュニティ'
'コス'
'コイ'
'コア'
'コは'
'ゲッ'
'ゲスト'
'ゲイル_'
'ケン'
'ケット'
'グロ'
'グレー'
'グズ'
'グイ'
'グは'
'クロス'
'クリー'
'クリス_'
'クリス'
'クラウ'
'クビに'
'クター'
'クタ'
'クセ'
'クズ'
'クイ'
'クに'
'クと'
'クで'
'キーを'
'キロ'
'キル'
'キャンプ'
'キャロル_'
'キャロ'
'キャリー'
'キミは'
'キツ'
'ガールフレンド'
'ガッ'
'ガタ'
'ガソリン'
'カ月'
'カードを'
'カー_'
'カレー'
'カラム'
'カプセル'
'カッ'
'カウンター'
'オース'
'オリビア'
'オランダ'
'オメ'
'オブ'
'エージェント'
'エンド'
'エンタープライズ'
'エレベーター'
'エリー'
'エミ'
'エネルギーが'
'エッ'
'エサ'
'ウッド'
'ウチ'
'ウォ'
'ウェンデ'
'ウェブ'
'ウィルソン'
'ウィル'
'インス'
'イラク'
'イベント'
'イブ'
'イチ'
'イタ'
'イケ'
'イク'
'イカれ'
'アート'
'アレン'
'アレックス_'
'アルファ'
'アメリカに'
'アフリカの'
'アビ'
'アハハ'
'アト'
'アテ'
'アッ'
'アスト'
'アジ'
'アシ'
'アク'
'アウト'
'アを'
'んな事'
'んす'
'んじゃないか'
'んこ'
'を食べた'
'を食'
'を願'
'を離'
'を閉'
'を運'
'を返'
'を超え'
'を許'
'を言'
'を襲'
'を裏切'
'を聞いて'
'を考えて'
'を考'
'を置いて'
'を続け'
'を経て'
'を確'
'を破'
'を知ってる_'
'を知'
'を監'
'を盗'
'を理解し'
'を深'
'を求めて'
'を歩'
'を構'
'を救う'
'を支'
'を捕'
'を指す'
'を押'
'を投'
'を手'
'を恐れ'
'を学'
'を失'
'を大'
'を外'
'を回'
'を噛'
'を含む'
'を占め'
'を制'
'を利用し'
'を出す'
'を出し'
'を全部'
'を保'
'を作り_'
'を作って'
'を中'
'を与え'
'をチ'
'をもつ'
'をま'
'をします_'
'をしています_'
'をしていた'
'をくれ_'
'われてい'
'われて'
'われた_'
'わなかった'
'わな'
'わった_'
'わたって'
'わせて'
'わず'
'わざわざ'
'わけにはいか'
'わけじゃない_'
'わかるか_'
'わかりません'
'わからないわ_'
'わい'
'ろと'
'ろって'
'ろうとする'
'れるか'
'れている_'
'れていた'
'る時_'
'る日'
'るんで'
'るわよ_'
'るのに_'
'るので'
'るなら_'
'ると思'
'るとは'
'るところ'
'るという'
'るで'
'るし'
'ることを'
'ることも'
'ることができ'
'るから'
'るかな_'
'りま'
'りです_'
'りつ'
'りする'
'りか'
'らわれ'
'られるようにな'
'られて_'
'らは_'
'らないの'
'らな'
'らせる_'
'らけ'
'らう'
'らい_'
'よろしくお願いします_'
'よろしく_'
'よる_'
'より多くの'
'よく見'
'よかったわ'
'ようにな'
'ような人'
'ようとしている'
'ようとし'
'ゅう'
'やるの_'
'やりたい'
'やらな'
'やらせ'
'やら'
'やってみた'
'やってくる_'
'やって_'
'やったの'
'やがった'
'ゃー'
'ゃん'
'も無い_'
'も無い'
'も来'
'も同様'
'も分か'
'もらって'
'もらえま'
'もま'
'ものは何'
'ものなの'
'もね'
'もでき'
'もて'
'もちろんだ_'
'もその'
'もご'
'もこ'
'もが'
'もう一人'
'もいる_'
'めば_'
'めで'
'めい'
'み出'
'みる_'
'みよう'
'みつ'
'みず'
'まわ'
'まれた_'
'まり_'
'まった'
'まっすぐ'
'まだそ'
'また会'
'または_'
'まして_'
'ましたね_'
'まさか'
'まさ'
'まえ_'
'べきです_'
'へ来'
'への_'
'へっ'
'ぶっ'
'ふん_'
'ふじわら_'
'び_'
'ひとりで'
'ひとつ_'
'ばいい'
'は１'
'は難しい'
'は関'
'は違う'
'は解'
'は行'
'は終わ'
'は私の'
'は確'
'は知らない'
'は理'
'は無い'
'は死'
'は日'
'は持'
'は成'
'は必'
'は彼'
'は当'
'は家'
'は天'
'は多'
'は変'
'は同じ'
'は動'
'は保'
'は作'
'はーい_'
'はパ'
'はキ'
'はよく'
'はやく'
'はもっと'
'はみ'
'はなく'
'はなかった_'
'はなかった'
'はないの'
'はないかと'
'はどこ_'
'はどこ'
'はっきりし'
'はしない'
'はこ'
'はいる'
'はいな'
'はいけない_'
'はあるが'
'はある_'
'は3'
'は20'
'の駅'
'の顔'
'の間の'
'の鍵'
'の野'
'の過'
'の追'
'の計'
'の良'
'の自由'
'の自'
'の結'
'の番'
'の為に_'
'の歌'
'の様な'
'の末'
'の書'
'の時に'
'の方法'
'の政'
'の持'
'の所に'
'の心'
'の御'
'の影響'
'の強'
'の建物'
'の平'
'の対'
'の売'
'の場'
'の命'
'の原'
'の動'
'の別'
'の代'
'の事で'
'の事だ'
'の予'
'の一員'
'のロ'
'のモ'
'のボ'
'のテ'
'のジ'
'のものだ'
'のみ_'
'のまま'
'のほ'
'のな'
'のとき'
'のちに'
'のせいで'
'のせい'
'のし'
'のことだ'
'のうち_'
'のう_'
'のある人'
'に転'
'に見せ'
'に見え'
'に生'
'に比べ'
'に来て'
'に来た_'
'に日'
'に改'
'に戦'
'に当たる'
'に変わ'
'に地'
'に叙'
'に及'
'に参加する'
'に参加し'
'に出会'
'に出る'
'に出て'
'に使われ'
'に住んでい'
'に住'
'に会っ'
'に任せ'
'に代わ'
'に付'
'に乗って'
'にコ'
'にア'
'によると'
'にぶ'
'には大'
'には何'
'になるな'
'になるか'
'になりました_'
'になりたい'
'になってい'
'になったの'
'にとって_'
'につなが'
'にす'
'にしろ_'
'にしても_'
'にしてくれ'
'にさ'
'にいる_'
'にあり'
'な話'
'な奴'
'なんな'
'なんですよ_'
'なんですけど_'
'なんてない'
'なんてし'
'なんてい'
'なんだと'
'なんだけど_'
'なります'
'なりそう'
'ならなかった'
'なのは_'
'などとも'
'なってる'
'なぜだ_'
'なじ'
'なければならない_'
'なくても_'
'なくていい'
'なきゃ'
'ないわ'
'ないので'
'ないため'
'どん'
'ども_'
'どのような'
'どな'
'どちらか'
'どし'
'どこへ_'
'どこにいる_'
'どこかで'
'どうなの_'
'どうな'
'どうでしょう_'
'どうだった_'
'どうだ'
'どうすればいい_'
'どうしても_'
'どうしたら_'
'どうし'
'どうかし'
'どういう意味'
'と違って'
'と違う'
'と話して'
'と話'
'と言う_'
'と言います'
'と言いました_'
'と考え'
'と答え'
'と称した'
'と戦'
'と感じ'
'と思ってる_'
'と思いました_'
'と対'
'と呼ぶ'
'と呼ばれ'
'と同時に'
'と同じく'
'と同じ_'
'と伝え'
'とス'
'とカ'
'とや'
'ともに_'
'ともいう_'
'とは何'
'となり'
'とでも'
'とつ'
'とっ'
'としている_'
'ときは'
'といて'
'といって'
'というのは'
'で最'
'で彼'
'で一番'
'でよ'
'でもない'
'でなければ_'
'ですから'
'でしょう'
'でく'
'できるの'
'できることは'
'できなかった'
'できないんだ'
'でか'
'であろう_'
'であろう'
'であるか'
'て言う'
'て行っ'
'て欲しい'
'てるの_'
'てほしい'
'てば_'
'てはい'
'てくれた_'
'ておく'
'ているか'
'ていません_'
'ていな'
'てあげ'
'つもりな'
'つまらない'
'つけられ'
'つけな'
'つかっ'
'ついてい'
'ってます_'
'ってな'
'ってしま'
'ってことは_'
'ってことだ'
'ってお'
'っています_'
'っちゃい'
'ったのよ_'
'ったのです_'
'ったので'
'っき'
'ちら'
'ちゃいけ'
'ちゃ_'
'ちで'
'だろうよ_'
'だらけ'
'だよね_'
'だよ'
'だめよ_'
'だま'
'だと言って'
'だと思ってい'
'だと思います_'
'だったよ_'
'だす'
'だけな'
'だけだ'
'だからね_'
'だか_'
'だいたい'
'た者'
'た方が'
'たんじゃ'
'たらし'
'たらいい'
'ためで'
'ためだ_'
'たなら'
'たとし'
'たとき_'
'たとえば_'
'たという_'
'たちも'
'ただろ'
'ただけ'
'ただいま_'
'たそう'
'たせ'
'たす'
'たこと_'
'たくさんある'
'たがって'
'たいの'
'そんな話'
'そんな事は'
'そんなの_'
'そんなこと_'
'それを見'
'それらの'
'それら'
'それはそれ'
'それなら_'
'それだけで'
'そら'
'そもそも_'
'その頃_'
'その話'
'その男'
'その時は'
'その他の'
'そのまま_'
'そのうち_'
'そっくり'
'そっか_'
'そちら'
'そして彼'
'そしてそれ'
'そしたら_'
'そしたら'
'そこへ'
'そこにある'
'そこでは'
'そう言う'
'そう思っ'
'そうは'
'そうなの'
'そうとし'
'そうでな'
'そうだよ'
'そうだと'
'そうだった'
'そうすれば'
'そういえば_'
'そういう事'
'そいつを'
'ぜひ'
'せてくれ_'
'せいだ_'
'ずり'
'ずいぶん'
'する説'
'するまで_'
'するべきだ_'
'するなよ_'
'するという'
'するでしょう'
'するつもりだ'
'するつもり'
'するって'
'するだけ'
'するし'
'することは_'
'することにな'
'することで_'
'することができます_'
'するか_'
'すみません'
'すまなかった_'
'すべきだ'
'すと_'
'すごいな_'
'すから_'
'すか'
'じん'
'じゃないな_'
'じゃな'
'じま'
'じっと'
'しれない'
'しようと'
'しや'
'しは'
'しなかった'
'しないよ'
'しないで'
'してん'
'してるんだ'
'してるの'
'してやる_'
'してます_'
'してま'
'しては'
'してくる'
'しつ'
'しだ_'
'した時_'
'したな'
'したとき_'
'しただ'
'したく'
'したが'
'したか'
'しかしこ'
'ざる'
'さんも_'
'されるよう'
'されると'
'されま'
'されていた_'
'されてい'
'されたこと'
'さよなら_'
'さないと_'
'さない_'
'さっ'
'させろ_'
'させようと'
'させたい'
'さず'
'ささ'
'ご自'
'ごらん_'
'こを'
'これまでの'
'これは大'
'これは何'
'これって_'
'これだけ'
'これだ_'
'こまで'
'この際'
'この間_'
'この街'
'この手'
'この後'
'この分'
'この会社'
'この事'
'この1'
'こにい'
'ことも_'
'ことはない_'
'ことになる'
'ことない'
'こととな'
'ことです'
'ことだった'
'ことが出来'
'ことがない'
'ことができな'
'こっちよ_'
'こちらは_'
'ここ数'
'ここまで'
'ここへ'
'ここに居'
'ここにいた'
'ここでは'
'こく'
'こういうこと'
'げる'
'けん'
'けま'
'けば'
'けに'
'けと'
'ぐっ'
'ぐず'
'くんだ_'
'くわ'
'くよ_'
'くまで'
'くは'
'くなった'
'くても'
'くていい'
'くそったれ'
'くそ_'
'くじ'
'くさい'
'ぎた'
'きれ'
'きる_'
'きました'
'きと'
'きっかけ'
'が高'
'が通'
'が起こって'
'が見つ'
'が見える'
'が見'
'が私'
'が用いられ'
'が流'
'が東'
'が来'
'が本当'
'が持'
'が戻'
'が必要で'
'が安'
'が好きな'
'が大好き'
'が多い'
'が変わ'
'が増え'
'が地'
'が出来る'
'が使'
'が京都'
'がんば'
'がわ'
'がる_'
'がり'
'がってる'
'がってい'
'がっ'
'がす'
'がここに'
'がけ'
'がいます_'
'がいない'
'がいい'
'があるわ_'
'があるな'
'が4'
'か分か'
'かわいそう'
'かれている'
'からの_'
'からだ'
'からさ_'
'かに_'
'かなく'
'かないと_'
'かと'
'かって_'
'かったんです'
'かったんだ_'
'かったら'
'かったよ'
'かったのに_'
'かったの_'
'かったから_'
'かっ'
'かして'
'かしい'
'かえ'
'お願いした'
'お願いし'
'お酒'
'お祝い'
'お礼'
'お父さんの'
'お父さんが'
'お気に入り'
'お待ちください_'
'お客様'
'お嬢'
'お前は俺'
'お会い'
'おれ'
'おまえは_'
'おなか'
'えん'
'えるように'
'えるの'
'えよ_'
'えます_'
'えな'
'うーん_'
'うるさい'
'うな_'
'うつ'
'うちに'
'うそ'
'うじ'
'うことは'
'ぅ_'
'い人'
'いれば'
'いれ'
'いるんだ_'
'いるよう'
'いるのは_'
'いるのです_'
'いるので'
'いるのか'
'いるって'
'いるだ'
'いること'
'いるが_'
'いるか_'
'いらっしゃい'
'いぶ'
'いのは_'
'いのか_'
'いね_'
'いなかった_'
'いないの'
'いないと'
'いと思う'
'いと思'
'いという'
'いても'
'いてい'
'いっ'
'いた時'
'いたわ_'
'いたの'
'いただ'
'いたため'
'いずれも'
'いじゃ'
'いえいえ_'
'いえ'
'いう意味'
'いうのは_'
'いいんだ'
'いいのよ_'
'いいけど_'
'あー'
'あんたと'
'あわせ'
'あの男'
'あの夜'
'あのさ_'
'あなた達は'
'あなたはそ'
'あなたの手'
'あなたの事'
'あなたには_'
'あなたなら'
'あなたが知'
'あとで'
'あと1'
'あったと'
'あたる'
'あたしは'
'あがっ'
'あいつは_'
'〕_'
'〔_'
'」・「_'
'々が'
'♬ _'
'≫_'
'…_'
'— _'
'​'
'zoe'
'ys'
'your'
'younger_'
'ym'
'yla'
'yg'
'yellow_'
'xa'
'wre'
'wra'
'wounded_'
'worldwide_'
'workers_'
'wonder'
'withdraw'
'witch_'
'wire_'
'wins_'
'windows_'
'win'
'wil'
'wha'
'wh'
'wes'
'were'
'wer'
'wed_'
'warrant_'
'warn_'
'wan'
'wallet_'
'wai'
'vul'
'voi'
'vivi'
'vir'
'victor'
'via_'
'vet'
'veni'
'vely_'
'vel'
'vegeta_'
'vas'
'van'
'valuable_'
'val_'
'ution_'
'ute'
'user'
'urs'
'ured_'
'upset_'
'ups_'
'unknown_'
'unique_'
'unexpected_'
'underw'
'umi_'
'ult'
'ulat'
'ugh_'
'ube'
'ual_'
'ty'
'tv'
'turning_'
'tunnel_'
'ttle_'
'tsuki'
'truct'
'trigger_'
'travele'
'trav'
'trained_'
'trai'
'traffic_'
'trade_'
'tracking_'
'toys_'
'tournament_'
'touching_'
'tori'
'too'
'ton'
'tom_'
'tn'
'tip_'
'tine'
'til'
'tier_'
'throwing_'
'threw_'
'thor'
'thea'
'text_'
'tested_'
'terri'
'tern'
'teri'
'tens_'
'temple_'
'ted'
'tch_'
'tc'
'tax_'
'tane'
'tal'
'tag_'
'tac'
'swim_'
'sweet'
'swe'
'sustain'
'support'
'sup'
'sul'
'suff'
'success'
'subject'
'style_'
'studio_'
'strict_'
'strategy_'
'stra'
'store'
'stor'
'stolen_'
'stick'
'steps_'
'sten'
'statue_'
'stati'
'starving_'
'standing_'
'stab'
'ssion_'
'ssion'
'sse'
'square'
'spect'
'specific_'
'speciali'
'soup_'
'sooner_'
'snap_'
'smash'
'smaller_'
'sm_'
'slide_'
'sleep'
'silent_'
'sigh'
'shu'
'show'
'shopping_'
'shock_'
'shit'
'shima_'
'shim'
'shield_'
'shake_'
'session_'
'serving_'
'senior_'
'semi'
'selected_'
'sei'
'sees_'
'seemed_'
'seek'
'see'
'seats_'
'screw_'
'screen_'
'scientist_'
'scientific_'
'scal'
'sc'
'sas'
'sar'
'samurai_'
'sama_'
'sala'
'saka'
'safe'
'sa_'
'ryan_'
'rui'
'rre'
'roa'
'rm'
'rly_'
'rip'
'rio'
'riko_'
'rien'
'ridd'
'rica'
'ric_'
'ria'
'rh'
'reve'
'retired_'
'reta'
'resources_'
'resolve'
'resist'
'res'
'republic'
'reports_'
'repeat_'
'rence_'
'ren'
'removed_'
'remo'
'relie'
'reli'
'rele'
'rela'
'rel'
'refused_'
'refuse_'
'reese_'
'ree_'
'recons'
'reco'
'read'
'rave'
'rated_'
'rat'
'rarely_'
'range_'
'ram_'
'ral'
'raining_'
'rail'
'quil'
'qua'
'punishment_'
'pulse_'
'pulling_'
'prote'
'properly_'
'profile_'
'production_'
'priv'
'priority_'
'pride_'
'previously_'
'pretend_'
'prese'
'prefer_'
'practically_'
'pos'
'port'
'poo'
'poll'
'policy_'
'policeman_'
'poet_'
'pocket_'
'pli'
'plenty_'
'pleased_'
'plat'
'plastic_'
'pity_'
'pilot_'
'personally_'
'permission_'
'perf'
'pend'
'pel'
'patrick_'
'pat'
'partic'
'part'
'pants_'
'palm'
'pal_'
'paint'
'owned_'
'own'
'ov'
'outs'
'ough'
'ott_'
'oth'
'ot_'
'organ'
'org'
'ore_'
'ore'
'ord_'
'orat'
'option_'
'operate'
'opening_'
'opened_'
'oon_'
'oo_'
'ond'
'omi'
'ome_'
'officer_'
'odi'
'od_'
'obvious_'
'obstacle'
'nsi'
'nsa'
'notes_'
'nn_'
'nn'
'ngs_'
'nge'
'neu'
'nerve'
'neighbors_'
'nect'
'nche'
'nch'
'natsume_'
'nail_'
'naga'
'myst'
'myc'
'mush'
'murderer_'
'mura'
'mum_'
'movements_'
'mou'
'moral'
'moo'
'monitoring_'
'moment'
'mmi'
'mmhm'
'mix_'
'miser'
'miracle_'
'mina'
'millions_'
'mik'
'mia'
'method_'
'melt'
'melon_'
'mel'
'medi'
'med_'
'marrying_'
'marcus_'
'manner'
'manage_'
'maintenance_'
'mail'
'magnetic_'
'lur'
'lt_'
'loyal'
'lovely_'
'love'
'loser'
'los'
'lon_'
'logi'
'location_'
'locate_'
'loca'
'llow'
'llo'
'lling_'
'lis'
'ling'
'lin_'
'library_'
'liberty_'
'liar_'
'less'
'lend_'
'legi'
'legal_'
'lear'
'leads_'
'laughed_'
'las_'
'las'
'lace_'
'lac'
'kuro'
'kura_'
'ks'
'kor'
'knowing_'
'kiss'
'kisan_'
'kir'
'kill'
'kidnapped_'
'kha'
'kg'
'keys_'
'ket_'
'kane_'
'kak'
'junior_'
'journal'
'jimmy_'
'jim_'
'jet_'
'ject'
'japanese_'
'j_'
'ized_'
'iz'
'itt'
'ition_'
'ite_'
'it'
'ism'
'ishing_'
'irre'
'iron_'
'ipa'
'io_'
'invest'
'interrupt'
'internal_'
'intelligent_'
'insurance_'
'insult'
'insane_'
'innocent_'
'infected_'
'individuals_'
'indi'
'incredible_'
'inco'
'inch'
'impress'
'imme'
'imit'
'im'
'ily_'
'illness_'
'ili'
'ignor'
'idiot_'
'idi'
'ide_'
'icial_'
'ice'
'hye_'
'hur'
'hunt'
'hu'
'hs_'
'homicide_'
'homework_'
'holiday_'
'holds_'
'hm_'
'hl'
'hits_'
'hit'
'hired_'
'highness_'
'highly_'
'hes'
'hers_'
'heav'
'hea'
'hau'
'has'
'harvest'
'haru'
'hans'
'hanging_'
'handi'
'hag'
'guns_'
'guests_'
'guard'
'guarantee_'
'gru'
'grow'
'grief_'
'greg'
'grave_'
'grav'
'graph_'
'grandmother_'
'gram'
'govern'
'google_'
'gon'
'glor'
'glo'
'gin_'
'gin'
'gil'
'ght_'
'ggin'
'gest'
'gentle'
'generation_'
'gate'
'gas'
'gan'
'function'
'fun'
'fs_'
'frozen_'
'frighten'
'friendship_'
'fred'
'fraud_'
'frank_'
'frame_'
'fracture'
'ford_'
'flying_'
'flaw'
'flat_'
'flat'
'flash_'
'fis'
'firm'
'finds_'
'fill'
'file_'
'figur'
'fewer_'
'fes'
'feather'
'fans_'
'fancy_'
'fan_'
'faces_'
'explanation_'
'exist_'
'excited_'
'exams_'
'examples_'
'evi'
'eve'
'eva'
'eur'
'esta'
'ese'
'escort'
'ert_'
'ert'
'err'
'ero'
'erin'
'equipment_'
'equa'
'entr'
'ens'
'engineer'
'engaged_'
'enemies_'
'ene'
'endur'
'end'
'encou'
'emergency_'
'emails_'
'ema'
'elo'
'elle'
'elect'
'eld'
'eggs_'
'egg_'
'edo'
'ede'
'eas'
'dun'
'dumb_'
'duel_'
'due_'
'duct'
'drew_'
'drag_'
'dos'
'doom'
'doo'
'dom_'
'dol'
'doc'
'dive'
'distribut'
'diso'
'dish'
'direct'
'dir'
'dino'
'dim'
'diff'
'dies_'
'despise_'
'desp'
'desi'
'dera'
'depression_'
'depend'
'dent'
'dens'
'delta'
'deg'
'deceased_'
'db'
'darling_'
'darkness_'
'dai'
'cyber'
'curse'
'cura'
'culprit_'
'ctive_'
'cruel_'
'crowd_'
'cross'
'cree'
'cracke'
'cp'
'cousin_'
'cour'
'corps'
'cop'
'convinced_'
'convenient_'
'contribut'
'contain'
'conta'
'considered_'
'considerat'
'confession_'
'conference_'
'conc'
'compo'
'complexity_'
'complain'
'competition_'
'communi'
'commi'
'commander_'
'come'
'com'
'color'
'colonel_'
'collecti'
'colleague_'
'collaborat'
'colla'
'cm_'
'closer_'
'climate_'
'clients_'
'circumstances_'
'circle'
'cing_'
'cigarette_'
'chose_'
'choices_'
'chik'
'cheer'
'checked_'
'cheap_'
'char'
'chaos_'
'champ'
'chakra_'
'cell'
'cbi_'
'cate'
'capital_'
'cap'
'campaign_'
'camp_'
'camp'
'cakes_'
'cable_'
'bus'
'burst_'
'burned_'
'bun'
'bull'
'bud'
'bread_'
'bre'
'brave_'
'boxes_'
'bomb'
'bob_'
'bly_'
'bling_'
'blind_'
'ble'
'black'
'bite_'
'birds_'
'bind'
'billy_'
'bills_'
'bill'
'bike_'
'beth_'
'beside_'
'bert_'
'benn'
'benefit_'
'bells_'
'bell'
'behavior_'
'begins_'
'bees_'
'bean'
'bbe'
'bay_'
'batter'
'bath'
'bang_'
'balance_'
'bake'
'babe_'
'ba_'
'aware_'
'awa'
'authorities_'
'australia_'
'aur'
'aud'
'atu'
'att'
'ative_'
'ately_'
'ata_'
'associate'
'assi'
'assa'
'arro'
'arrive_'
'arrested_'
'arra'
'arr'
'argument_'
'are'
'approaching_'
'apple_'
'app'
'apologies_'
'ants_'
'answering_'
'ane'
'andr'
'ander_'
'amo'
'americans_'
'alter'
'alley_'
'ality_'
'alien_'
'alibi_'
'alex_'
'alc'
'aku'
'akin'
'ais'
'ah'
'ago'
'aggre'
'agency_'
'aga'
'affi'
'adults_'
'ads_'
'ado'
'adapt'
'ada_'
'acts_'
'acquaint'
'aches_'
'ace'
'accept'
'abr'
'aboard_'
'aa'
'Will_'
'Wan'
'Wa'
'Very_'
'Turn_'
'Tom_'
'TV'
'Sure_'
'Star'
'Something_'
'Some_'
'Sen'
'SA'
'Rob'
'Ric'
'Rea'
'Qui'
'Put_'
'Pl'
'Pe'
'P_'
'On_'
'On'
'Of_'
'Mrs_'
'Mos'
'Me_'
'Mat'
'Mary_'
'L丶'
'Keep_'
'Ju'
'IC'
'Hol'
'Got'
'Fro'
'Forget_'
'First_'
'Fe'
'F_'
'Everything_'
'Earth_'
'Didn_'
'Cra'
'Col'
'Che'
'Charl'
'Cha'
'Ce'
'Cal'
'CO'
'CIA'
'CEO'
'CBI'
'Bl'
'Ah_'
'?》_'
'? -_'
'9月_'
'99_'
'99'
'97'
'94'
'92'
'90_'
'8歳'
'8月1'
'8代'
'88'
'84'
'800'
'7日'
'73'
'6月2'
'6月1'
'6年に'
'65'
'5日'
'5万'
'5つ'
'4時'
'4年に'
'4年1'
'46'
'3年1'
'39'
'36_'
'2月2'
'2月1'
'2度'
'2名'
'2人で'
'25年'
'1人の'
'185'
'181'
'173'
'169'
'166'
'15分'
'156'
'147'
'130'
'125'
'124'
'11年_'
'116'
'115'
'10年_'
'105'
'100万'
'01'
'. . _'
'. .'
'. '
', '
')）'
'! ?_'
' ≪_'
' ――_'
' ._'
' - '
'ﾘ'
'ﾄ'
'］_'
'Ｖ'
'Ｄ'
'： _'
'５年'
'５分'
'３年'
'３人'
'２人の'
'２つ'
'０年'
'）、「_'
'！ - _'
''
''
''
''
''
''
''
''
'黙って_'
'黒人'
'麻酔'
'鯨'
'魔法を'
'魔法の'
'魅力的な'
'高麗'
'高野山'
'高山'
'高の'
'骨を'
'骨は'
'驚'
'騒動'
'駅に'
'駄目だ_'
'馬鹿な'
'馬を'
'馬は'
'香港で'
'首謀者'
'饅頭_'
'餡'
'餌'
'飽き'
'食物'
'食料を'
'食事は'
'食を'
'食べる_'
'食べられ'
'食べさせ'
'食え'
'飛び出した'
'風呂'
'風_'
'類似'
'類を'
'額に'
'題名'
'頼朝の'
'頼まれた'
'頼ま'
'頭の中'
'領地'
'領を'
'領_'
'頑'
'順調に'
'項目'
'頃は'
'頃で'
'頃'
'頂ける'
'頂く'
'音で'
'靴を'
'革命'
'面接'
'面が'
'面_'
'静かに_'
'静かな'
'電話は'
'電話する_'
'難民'
'離せ'
'集合'
'集中し'
'雄基_'
'隣接'
'隣人'
'隠蔽'
'隠してる'
'随分'
'階級'
'隊員'
'隊は'
'隅'
'陰陽'
'除し'
'陣し'
'院長'
'院を'
'限界だ_'
'降参'
'降りて'
'附'
'陀'
'阿波'
'阻'
'间'
'闘技場'
'閥'
'閣下'
'関係は'
'関係だ'
'間違ってる_'
'間違えた'
'間違いない_'
'間と'
'間か'
'開山'
'開基'
'開いた'
'門跡'
'門の'
'門で'
'長者'
'長時'
'長岡'
'長が'
'鑑定'
'鎧'
'鎌倉時代の'
'鎌'
'錦'
'銃は'
'銀河の'
'鉱山'
'鉛筆'
'釣'
'金銀'
'金融'
'野郎だ'
'野に'
'重要な事'
'重臣'
'重な'
'采'
'醍醐天皇'
'酵'
'酔っ払い'
'酒を'
'配達'
'配慮'
'都合が'
'郵便局'
'郵便'
'部長_'
'部活'
'部氏'
'部族'
'部屋で'
'部を'
'部は'
'部が'
'郡に'
'邪魔を'
'避ける'
'遺体は'
'遺伝子の'
'遺伝'
'選択を'
'選ぶと'
'適応'
'適当に'
'適当で'
'遠慮する'
'遠くで'
'違ってい'
'違うんだ_'
'違いない_'
'違いな'
'達と'
'過剰'
'過ぎな'
'運転を'
'運転して_'
'運命を'
'運命の'
'運動を'
'運ばれ'
'遊んで'
'遅れた_'
'遅くなって'
'進行'
'進展'
'進んでい'
'進んで'
'進まない'
'週末'
'逮捕し'
'連邦'
'連行'
'連絡を取'
'連絡し'
'連中は'
'連れて来'
'通話'
'通称'
'通り過ぎ'
'通は'
'通す'
'通じ'
'通う'
'逃げるんだ_'
'逃げるの'
'逃げる_'
'逃げられない'
'逃げられた'
'逃げようと'
'逃がし'
'送る_'
'送ったの'
'退学'
'迷った'
'述の'
'迫っ'
'这样'
'返事を'
'返して_'
'近畿'
'近江国'
'近代国'
'近づく'
'近づい'
'辿'
'辺り'
'農家'
'辞退'
'辞任'
'輸入'
'輝き'
'転し'
'軌道'
'車から'
'身分'
'身元'
'身体が'
'身につけ'
'身で'
'踏み込'
'踊る'
'距離を'
'越後国'
'起こさ'
'起きる'
'起きてい'
'起きて_'
'起きて'
'賭けて'
'質問を_'
'質問を'
'質問して'
'質を'
'賊'
'資金が'
'賄'
'貼'
'貸せ'
'買収'
'買ったの'
'買った_'
'買った'
'貴方に'
'貴女'
'貴公'
'貰い'
'貨幣'
'貢献'
'財布'
'負ける'
'負か'
'象'
'豊臣秀吉'
'譲渡'
'警部補'
'警察を呼'
'譜代'
'譜'
'謝罪'
'講義'
'講師'
'謎を'
'謎の'
'諸藩'
'諸外国'
'諸君'
'諱'
'諦める'
'諜報'
'論文'
'論は'
'諏訪'
'調査して'
'調子は_'
'調べた'
'課が'
'誰を'
'誰よりも'
'誰な'
'誰で'
'誰が_'
'誰かいる'
'誰かい'
'読める'
'誤っ'
'誠人'
'語り'
'語られる'
'語の'
'誘惑'
'誕生した'
'認定'
'認めた_'
'誇りに思'
'話題'
'話を聞いて'
'話な'
'話だ_'
'話せば'
'話せ_'
'話してくれ_'
'話している'
'話したくない'
'話がある_'
'話がある'
'詫び'
'試作'
'詠'
'評_'
'証拠も'
'証に'
'許可は'
'許せ'
'設置し'
'設置された'
'設備'
'訪問'
'記憶が'
'記事を'
'記事が'
'記事'
'記されている'
'託し'
'討伐'
'計算'
'計画は'
'計画の'
'計画だ'
'言わないで_'
'言わない_'
'言わ'
'言っても'
'言ってみ'
'言ってない'
'言ってお'
'言っていた'
'言ったわ_'
'言えば'
'言え'
'言うん'
'言うことを'
'言うこと'
'言いな'
'言いたいこと'
'触れる'
'触れ'
'触る'
'触らない'
'解決策'
'解析'
'解散'
'角度'
'角に'
'観察し'
'観察'
'親王_'
'覚し'
'視界'
'視点から'
'見返り'
'見込み'
'見識'
'見ろよ_'
'見なさ'
'見てない'
'見てくれ_'
'見つか'
'見たの_'
'見たと'
'見たか'
'見せな'
'見が'
'見えるか'
'見えます_'
'見えなく'
'要請'
'要求して'
'要望'
'要る'
'西南'
'西_'
'襲われ'
'襲っ'
'製法'
'補佐'
'装置は'
'裁判官'
'被告'
'衣装'
'衡の'
'衡'
'行為を'
'行幸'
'行列'
'行われる_'
'行に'
'行ってくれ'
'行ってい'
'行こうと'
'行こうか_'
'行けば_'
'行くんだ'
'行くわ_'
'行くわ'
'行きます_'
'行かなきゃ_'
'行かせて'
'行うこと'
'衆を'
'血だ'
'虫_'
'蘇我'
'藤原忠'
'藤原_'
'薬は'
'薬が'
'薩摩'
'蔵人'
'蔵の'
'蔭'
'蔑'
'葉_'
'落ちた'
'落し'
'萬'
'菩提'
'菊池氏'
'荷'
'荘園'
'荘_'
'草の'
'苦難を'
'苦しんでる_'
'若干'
'花を'
'芋'
'色_'
'良さ'
'良くなった'
'良いわ'
'良いの'
'良いか'
'船長'
'船_'
'般若'
'般的'
'航海'
'舞_'
'舗'
'舌'
'興味を'
'興味がない'
'至る'
'自転車'
'自身を'
'自身_'
'自宅'
'自分達'
'自分の子'
'自体が'
'自らが'
'臣_'
'臓器'
'膨大な'
'腫瘍'
'腕の'
'脳は'
'脳が'
'脱獄'
'脂'
'育っ'
'育ち'
'職務'
'職の'
'聴聞会'
'聞こえるか_'
'聞こえ'
'聞く耳'
'聞きたいことがあ'
'聞かせて'
'聞いたわ_'
'聞いたこと'
'聚'
'聖武天皇'
'聖徳太子'
'聖なる'
'耳を傾け'
'耕'
'者で_'
'考えられる'
'考えは'
'考えな'
'考えてお'
'考えだ_'
'考えたんだ'
'考えがある'
'老い'
'翻訳'
'翻'
'翌日'
'義経'
'義朝'
'美濃国'
'美濃'
'美人'
'美を'
'美しさ'
'美し'
'置け_'
'罪に'
'罪と'
'罪_'
'罠'
'缶'
'繊維'
'縮'
'縫い'
'練習して'
'線で'
'線が'
'綿'
'綾'
'維'
'続けろ_'
'継いだ_'
'絹'
'絵画_'
'絞め'
'結構です_'
'結果だ'
'結婚式の'
'結婚の'
'結婚した'
'結んで'
'経路'
'経典'
'経つ'
'絆'
'組んだ'
'終わりに'
'終わったら_'
'終り'
'紹介します_'
'紹介してい'
'細川高国'
'素晴らしかった'
'素早く'
'紙本'
'紙の'
'納得し'
'約束を'
'約3'
'精神的'
'簡単だ_'
'策を'
'答えられ'
'等は'
'筆頭'
'第四'
'笑わ'
'笑え'
'童'
'立てた'
'立っている'
'立った'
'立する'
'窟'
'突っ込ん'
'空軍'
'空気を'
'穴を'
'穴が'
'穴'
'穏'
'積極的に'
'積も'
'積み'
'稽'
'種族'
'種_'
'程度の'
'移動する'
'称される_'
'租'
'秘密にし'
'科医'
'科の'
'秋の'
'私達はそ'
'私達_'
'私自身'
'私を殺す'
'私を信'
'私もそ'
'私は私'
'私は彼女'
'私は大'
'私は何'
'私はそ'
'私の父'
'私の心'
'私の命'
'私の名前は'
'私のお'
'私に何'
'私と一緒に'
'私で'
'私たちはこ'
'私たちには'
'私が彼'
'私から'
'秀頼'
'秀吉_'
'神社に'
'神社で'
'神事'
'神に誓'
'神である'
'神が'
'祝い'
'祖母'
'祖と'
'祇'
'社会で'
'社を'
'社は'
'社で'
'礼を'
'礼は'
'礼_'
'示してい'
'磐'
'確認して'
'確認し'
'確実'
'確保し'
'確か_'
'碁'
'硫'
'破壊され'
'知識を'
'知性'
'知りたいん'
'知りたいの'
'知らんが_'
'知らぬ'
'知らな'
'知ってるんだ_'
'知ってるわ_'
'知ってるはずだ_'
'知っています_'
'着陸'
'着いて'
'着いた'
'眼鏡'
'眼_'
'真っ直ぐ'
'県の'
'看護師'
'省の'
'盾'
'相応'
'相を'
'直面して'
'盲目'
'目録'
'目的地'
'目的は_'
'目的で'
'目標を'
'目撃者'
'目を覚ま'
'目の前に'
'目の前'
'目にする'
'目と'
'目だ'
'盛の'
'盗聴'
'皮を'
'皇太后'
'皆を'
'皆さんは'
'的で_'
'白髪'
'白血病'
'白河'
'発言'
'発見され'
'発生し'
'発する'
'癖'
'痛め'
'症_'
'病に'
'疑問を'
'異議'
'畜生'
'町名'
'男に_'
'男だ_'
'申請'
'申し訳'
'甲_'
'由に'
'田で'
'田さん_'
'田さん'
'用意する'
'用は'
'用な'
'用いられる_'
'用いられる'
'甥'
'生涯_'
'生没年'
'生命の'
'生まれる'
'生まれ_'
'生し'
'生きてる_'
'生きていた'
'瑠'
'瑞'
'琴'
'理解できない'
'理解でき'
'理由は'
'理由で'
'理由があっ'
'理由_'
'現存する'
'現在も'
'現在でも'
'現れな'
'現す'
'現した'
'現し'
'王と'
'獲物'
'獲得'
'獅子'
'献上され'
'独特の'
'独房'
'狂言'
'狂っている'
'状況は_'
'状態を'
'状を'
'犯罪を'
'犬に'
'犠牲者は'
'特徴'
'特定の'
'特定'
'物理学'
'物事'
'物も'
'物は_'
'物な'
'物だった'
'版が'
'版_'
'片方'
'父親は'
'父親に'
'父子'
'父上_'
'父に'
'父ちゃん'
'父さんに'
'爆弾の'
'熱心に'
'熟し'
'熊本'
'照明'
'煕'
'焼失'
'焼く'
'焼い'
'焦点を'
'無関係'
'無事で'
'無事だ'
'無に'
'無しで'
'無く'
'無かった_'
'無いんだ'
'無いわ_'
'無いか'
'烏'
'点は'
'点の'
'点で_'
'炊'
'火曜日'
'火が'
'瀬戸'
'濡れ'
'激し'
'潜伏'
'演劇'
'滋賀県'
'滋賀'
'滅ぼ'
'溝'
'源氏の'
'満た'
'湧'
'温かい'
'渡さ'
'減少'
'済み'
'添'
'混ぜた'
'混ぜ'
'混'
'淵'
'淳'
'淡'
'消滅した'
'消して'
'消え去'
'消えて_'
'海岸'
'浴び'
'浅野'
'流で'
'派閥'
'派生'
'注目を'
'注意を'
'注意して'
'注意し'
'泣き'
'法隆寺'
'法皇'
'法的'
'法寺'
'法の'
'法で'
'治承'
'河原町'
'沢山の'
'没落'
'没収'
'決着をつけ'
'決着'
'決められ'
'汲'
'江戸時代後期'
'江戸幕府の'
'江戸の'
'江戸に'
'永遠'
'水道'
'水戸'
'水分'
'気付いて'
'気はない'
'気に入らない'
'民の'
'氏によ'
'毛の'
'毎晩_'
'母ちゃん'
'殻'
'殺人と'
'殺せ_'
'殺すつもり'
'殺しを'
'殺し_'
'段階で'
'残酷な'
'残念だけど_'
'残念_'
'残念'
'残る_'
'残ら'
'残って'
'残した'
'残し'
'残され'
'殊'
'死去し'
'死去'
'死刑'
'死んだと'
'死んじゃ'
'死で'
'歴史学'
'歴史を'
'歴史に'
'歴代'
'歴_'
'歳の時'
'武蔵'
'武田氏'
'武将_'
'正親'
'正確には'
'正式'
'正午'
'正の'
'正しいこと'
'止めて_'
'止めて'
'止ま'
'歌_'
'欲しい物'
'欲しいんだ'
'次郎'
'次男_'
'次々'
'欠け'
'櫓_'
'機嫌'
'機に'
'橘'
'橋で'
'橋_'
'横穴'
'権大納言'
'権_'
'模様'
'標的'
'様は'
'様にな'
'構え'
'榎'
'楽な'
'楽しむ'
'楽しく'
'楽_'
'案し'
'格を'
'栗'
'栄光'
'果たした'
'林_'
'松井'
'杵'
'東海道'
'東方'
'来れ'
'来るぞ_'
'来たら'
'来たか'
'来いよ_'
'来_'
'村田'
'村上天皇'
'李'
'朽'
'本紀_'
'本気なの'
'本当は_'
'本当にごめん'
'本当にいい'
'本当'
'本堂'
'本体'
'本は'
'本と'
'未だ'
'木製'
'木が'
'期限'
'期待している'
'朝廷の'
'朝倉'
'朝は'
'朝に'
'朝_'
'望遠鏡'
'望んでい'
'朋'
'有能'
'有名であ'
'有の'
'月曜'
'會'
'最近の'
'最終的'
'最後に見た'
'最善'
'最初は'
'最初'
'替え玉'
'曾'
'書院'
'書道'
'書が'
'書かれている'
'書かれて'
'書か'
'更新し'
'暴れ'
'暗くな'
'暇な'
'晴ら'
'普通だ'
'普段'
'時間よ_'
'時間は_'
'時間がかか'
'時代から'
'時を'
'時だ_'
'時だ'
'時か'
'是非'
'昭和6年_'
'昭和5年_'
'昭和4'
'昨夜_'
'春_'
'映画の'
'映像を'
'映'
'星を'
'昏睡'
'明王'
'明治5年'
'明智'
'明日の夜'
'明日から'
'明らかにな'
'明の'
'明する'
'明か'
'昌'
'早急に'
'早く出'
'日野'
'日本へ'
'日本は'
'日本で'
'日付'
'日で'
'日だ_'
'日か'
'无'
'旗'
'旅行を'
'旅客鉄道_'
'施し'
'方法を_'
'方法を'
'方向に'
'方は_'
'新選組'
'新聞を'
'断る'
'料理_'
'文学_'
'文人'
'文久'
'敵だ_'
'整形'
'整備'
'整っ'
'数週間'
'数百'
'数年前'
'数ヶ月'
'数_'
'教育を'
'教える_'
'教えられ'
'救済'
'救急車'
'救命'
'救った'
'政策を'
'政治的'
'政治家'
'政治の'
'政は'
'政の'
'放り'
'放ってお'
'攻撃し'
'支持し'
'支払い'
'撮って'
'撤回'
'撃って_'
'摘'
'摂関家'
'摂津'
'携帯の'
'損な'
'握って'
'換'
'提供してい'
'揉'
'揃'
'推理'
'推'
'探求'
'探し出'
'探しに'
'探している'
'掛けた'
'掛かる'
'掛かっ'
'掛'
'排'
'掃'
'捻'
'捜査を'
'捜して'
'振り回'
'挟'
'挙げられ'
'挙げた'
'指輪を'
'指紋を'
'指摘'
'指揮官'
'指定_'
'指を'
'持つ_'
'持ってる_'
'持ってた'
'持ってく'
'持ってきて'
'持ってい'
'持って_'
'持ち出'
'持ち_'
'拾った'
'拭'
'拡'
'拙'
'拒否'
'拉'
'担当者'
'押さえ'
'抹殺'
'抵抗し'
'抱えてい'
'披露'
'抜け_'
'抜いて'
'折れて'
'折り'
'折に'
'技師'
'承久'
'扱いに'
'才能がある'
'才_'
'手首を'
'手遅れ'
'手術を受け'
'手術は'
'手術_'
'手紙を_'
'手当'
'手伝ってくれ'
'手を貸して'
'手に入れる'
'所持'
'所へ'
'房_'
'戻れる'
'戻ると'
'戻り_'
'戻らない'
'戻らな'
'戻ってきた'
'戦死'
'戦時'
'戦国時代_'
'戦に'
'戦と'
'戦で'
'戦え'
'我慢し'
'我らは'
'我らの'
'我々には'
'成長し'
'成立した'
'成功した_'
'成り'
'成す'
'慮'
'慣'
'慕'
'慌て'
'態を'
'感謝する'
'感謝して'
'感じる'
'愛情'
'愛人'
'愛さ'
'意識が'
'意志'
'意味する'
'意は'
'惑'
'悪魔の'
'悪かったわ_'
'悪かった'
'悪い事'
'悪いの'
'悩んで'
'患者さん'
'恐れる'
'怪物'
'性質'
'性的'
'性と'
'性があ'
'急速に'
'急ぎ'
'思われる_'
'思ってるの'
'思ってる'
'思うよ_'
'思うに_'
'思い出して_'
'思います'
'思いついた'
'怖が'
'怖かった'
'怖いん'
'怒る'
'怒らせ'
'忠誠'
'忠告'
'応援して'
'応じ'
'応え'
'忘れまし'
'忘れないで'
'忘れちゃ'
'忘れた'
'必要なら'
'必要なもの'
'必要なのは'
'必要なの'
'必要なこと'
'必要があります_'
'必ず_'
'心配は'
'心配してい'
'心から感謝'
'心から'
'徳井'
'徳_'
'復帰'
'御前'
'得られ'
'従来'
'従四位下に'
'従五位'
'後だ'
'律令制'
'很'
'待つ_'
'待ってて'
'待ってた'
'待ってくれ'
'待たせ'
'往生'
'往復'
'彼女を殺した'
'彼女を_'
'彼女はま'
'彼女のこと'
'彼を殺し'
'彼らには'
'彼は自分の'
'彼は私の'
'彼は彼女'
'彼はもう'
'彼はこ'
'彼の事'
'彼のお'
'彼がど'
'彼がい'
'役立つ'
'役目'
'役所'
'役割'
'影響を受け'
'彫'
'形跡が'
'形成'
'当時は'
'当てて'
'当たり前'
'当し'
'引き渡'
'引き受け'
'弁護'
'建築物'
'延暦寺'
'延宝'
'延元'
'延び'
'庶子'
'座標'
'座で'
'度胸'
'店は'
'広め'
'幾'
'幽霊'
'幼少'
'幸せです'
'年後'
'年を取'
'平治'
'平安時代の'
'幡'
'幕府の'
'幕の'
'帰宅し'
'帰りま'
'帰って来'
'帰ってきて'
'帰った'
'席を'
'師団'
'師に'
'帝国大学'
'希望の'
'市川'
'差別'
'工学'
'工作'
'工事'
'工_'
'巡査'
'州で'
'嵯峨天皇'
'崎_'
'島で'
'峠'
'岳'
'岩倉'
'岩の'
'山ほど'
'山さん'
'履歴'
'属して'
'展開'
'届ける'
'届き'
'届'
'居るの'
'局に'
'尾を'
'尽き'
'就是'
'少数'
'少年は'
'少年の'
'少佐_'
'少佐'
'少な'
'少し_'
'小笠原'
'小さ'
'導入'
'尋ねる'
'尋ね'
'尋'
'尉_'
'専門家'
'封鎖'
'対し_'
'寺院_'
'寸前'
'察し'
'寝な'
'寝かせ'
'寛政'
'富豪'
'富士山'
'密に'
'寄付'
'寄った'
'容器'
'家臣団'
'家康の'
'家康'
'家まで'
'家は_'
'家の中'
'家に帰りた'
'家に帰って'
'家として'
'害し'
'宮殿'
'宮崎'
'宮の'
'室は'
'客観'
'客を'
'客は'
'実際は_'
'実現し'
'実の'
'実だ'
'実_'
'实'
'宝暦'
'宝を'
'定める'
'定でき'
'定されて'
'定され'
'官を'
'官と'
'官が'
'宗像'
'宗が'
'安部'
'安倍'
'安い'
'守護大名'
'守護の'
'守れ'
'守るため'
'学研'
'学校は'
'学校で_'
'学んで'
'存続'
'字幕'
'子供に'
'子供と'
'子供が_'
'嬢'
'嫌いにな'
'嫌いだ'
'嫌い_'
'婦の'
'娯楽'
'娘さん'
'委員会'
'委員'
'委ね'
'姓を'
'姓'
'始めよう'
'始めます_'
'始めまし'
'始まりで'
'始まってい'
'妻_'
'妹は_'
'妨害'
'妥'
'妖怪'
'好きに'
'好きな人'
'好きなの'
'好きじゃない'
'奴等は'
'奴らに'
'奴は俺'
'奴だ'
'女優'
'女は_'
'女の子を'
'女だ_'
'女だ'
'奪い_'
'奨'
'奥州'
'奉行'
'奇妙'
'失った_'
'失い'
'夫の'
'太政官'
'天満'
'天正'
'天守'
'大量の'
'大統領を'
'大神'
'大石'
'大本山'
'大師'
'大学生'
'大変だった'
'大変_'
'大坂城'
'大地'
'大友'
'大勢の'
'大勢'
'大使館'
'大仏'
'大人になっ'
'大人しく'
'大丈夫だよ_'
'大丈夫だ'
'大丈夫か'
'大に'
'大きくなっ'
'大きい_'
'夢見'
'夢の'
'夢_'
'夜中'
'夜に_'
'多大な'
'外線'
'外務'
'外出'
'外に_'
'夕霧'
'夕方'
'夏目_'
'変換'
'変動'
'変わりま'
'変わってない'
'处'
'売買'
'売却'
'売る'
'売られ'
'売ってい'
'売った'
'声も'
'壮'
'壊した'
'壁を'
'壁が'
'墾'
'増し'
'墓地に'
'場所は_'
'場を'
'報酬'
'報告を'
'報告し'
'基づく'
'城で'
'坊や'
'地蔵'
'地域に'
'地として'
'地で'
'在位'
'在任'
'土曜'
'国民の'
'国外'
'国境を越え'
'国人'
'困る'
'困って'
'困っ'
'団の'
'回路'
'回線を'
'四条'
'四方'
'四天王'
'囚われ'
'囃子'
'嘘をつ'
'嘘つい'
'嘉永'
'嘆き'
'嗣子'
'喧嘩'
'喜ば'
'喉'
'問題が起'
'唯一_'
'唯一'
'唯'
'員の'
'員と'
'員が'
'品質'
'品だ'
'哀れ'
'哀'
'呼んでくれ'
'呼んだ'
'味わ'
'呪いを'
'呪い'
'周辺を'
'周囲の'
'周囲'
'呢_'
'呑'
'吸っ'
'吸い'
'含'
'君を殺'
'君は私'
'君はそ'
'君の事'
'君のこと'
'君のお'
'君にも'
'君には_'
'君がい'
'向日'
'向かう_'
'向い'
'吐いて'
'吏'
'后_'
'名乗り'
'名だ'
'同行'
'同胞'
'同然'
'同様の'
'同様に'
'同士'
'同地'
'同じに'
'同じだ_'
'合法'
'合格'
'合成'
'合併'
'合わせた'
'合に'
'合が'
'各駅'
'各地'
'号と'
'右に'
'右_'
'叱'
'台_'
'可能であ'
'召し'
'叫ぶ'
'叩'
'古墳_'
'古事記_'
'古く'
'口座'
'叡山'
'受容'
'受け_'
'取材'
'取る_'
'取り入れ'
'取ってお'
'収録'
'収穫'
'収_'
'反逆'
'反論'
'反応は'
'反射'
'双子'
'友達だ_'
'友達だ'
'友情'
'参加する'
'去った'
'厳し'
'原市'
'原_'
'卵を'
'危害'
'危な'
'占め'
'占い'
'単純な'
'南朝'
'協力を'
'協力し'
'半島'
'半ば'
'十一'
'医者は'
'医者の'
'匠'
'北条氏'
'北朝'
'北方'
'北京'
'北の'
'北に'
'化石'
'化の'
'化する'
'化されて'
'化させ'
'勝者'
'動物の'
'動に'
'動かす'
'動い'
'勉強する'
'勉強して'
'勉強し'
'勉強'
'労働者'
'助けたい'
'助けた_'
'加藤'
'加工'
'加わっ'
'加わ'
'加えて'
'功を'
'力は'
'創作'
'剣_'
'前田'
'前方'
'前半'
'前は'
'削減'
'制度は'
'制度の'
'到着した_'
'到着'
'利己的'
'利休'
'利き'
'利か'
'別れた'
'別で'
'判断して'
'判る'
'判り'
'判って'
'初めは'
'列車_'
'刑事の'
'刑事に'
'刑事さん'
'切腹'
'切符'
'切れる'
'切られ'
'切な'
'切った_'
'分裂'
'分は_'
'分に'
'分です'
'分だ_'
'分が'
'分かります'
'分かり'
'分からん_'
'分からん'
'分かってるよ_'
'分かってます_'
'分かっている_'
'分かったわ'
'分かったの'
'出身_'
'出羽'
'出来ま'
'出来な'
'出家し'
'出家'
'出会った'
'出を'
'出て行って'
'出て行'
'出そう_'
'出すの'
'出すな_'
'出しま'
'出されて'
'凶悪'
'処置'
'凛'
'冷泉'
'冷や'
'冷たい'
'冷え'
'冒険'
'再会'
'内閣総理大臣'
'内部に'
'内務'
'具材'
'具体的には'
'具を'
'具の'
'兵衛_'
'兵庫'
'兵を'
'六波羅'
'六位'
'六_'
'公の'
'八_'
'全般'
'全員の'
'全体の'
'全体が'
'入れる_'
'入れない'
'入れた_'
'入る_'
'入り込'
'入りの'
'入っても'
'光院_'
'光栄'
'先週'
'先生は_'
'先生と'
'先月'
'先ほど'
'先から'
'充分'
'元気よ_'
'元気か_'
'元和'
'元号_'
'元に戻'
'允'
'儒教'
'僕は彼'
'僕はもう'
'僕には'
'僕だ_'
'僕たちは'
'像を'
'働か'
'傾'
'傷を負っ'
'催眠'
'催'
'備中'
'停車'
'停止'
'做'
'候_'
'個人的な'
'個人の'
'個の'
'俺を_'
'俺も_'
'俺はこ'
'俺の家'
'俺なら'
'俺たちが'
'修行'
'信頼し'
'信者'
'信用する'
'信用して'
'信用し'
'信玄'
'信濃'
'信じた'
'促進'
'侶'
'依然として'
'依り'
'供え'
'例で'
'例が'
'使命'
'使われる'
'使われてい'
'使わない'
'使の'
'作戦の'
'作家'
'作品に'
'作るの'
'余計な'
'何言ってん'
'何時_'
'何年も'
'何十'
'何を言ってる'
'何をしてる'
'何らかの'
'何も言'
'何も知らない'
'何も知'
'何もない_'
'何もない'
'何もし'
'何の関係'
'何の事'
'何と言う'
'何とかなる'
'何とかして'
'何という'
'何っ'
'何だと思'
'何だっ'
'何する'
'何す'
'何が起こった'
'何が起こ'
'何が入って'
'何があっても_'
'何があったん'
'何か知って'
'何か変'
'何かの'
'何かし'
'何かある'
'何かあったの'
'住民'
'住所は_'
'住人'
'住し'
'位置し'
'位下'
'似合い'
'似合'
'似ている'
'似て'
'伸び'
'伝達'
'伝えてくれ_'
'会社は_'
'会に'
'会える'
'会いまし'
'会いに'
'会いたい'
'休業'
'伏見宮'
'任命'
'任務に'
'任せて'
'任し'
'件で_'
'以来'
'以前に'
'令_'
'代理'
'代を'
'付けて'
'付けた_'
'他の誰'
'他の事'
'他には_'
'仕事をして'
'仕事をした'
'仕上'
'仏像'
'仏の'
'今頃'
'今晩'
'今日で'
'今後_'
'今度の'
'今年の'
'今年'
'今夜の'
'今出川'
'今や'
'今も_'
'今も'
'今でも'
'今すぐに'
'今すぐ_'
'今し'
'今お'
'仁親王_'
'仁和寺'
'仁_'
'人者'
'人種'
'人数'
'人工'
'人体'
'人よ_'
'人もの'
'人もいる'
'人で_'
'人だった'
'人じゃな'
'人々が_'
'京阪電気鉄道'
'京都市営地下鉄'
'京都_'
'京福電気鉄道'
'京に'
'京_'
'交流'
'交差点'
'交代'
'亡くなって'
'些細な'
'些'
'五大'
'二重'
'二日'
'二人が'
'二つ'
'事業に'
'事故で_'
'事実上'
'事例'
'事件は'
'事よ_'
'事はない_'
'事はな'
'事になる_'
'事ない'
'事では'
'事する'
'事じゃない'
'事し'
'事がある'
'了解'
'乱_'
'乗り込'
'乗り切'
'乗っ'
'乗せて'
'久しぶりだ'
'丿'
'主義者'
'主義は'
'丸に'
'丶'
'中身'
'中継'
'中旬_'
'中島'
'中山'
'中央の'
'中に入っ'
'中な'
'中だった'
'両替'
'世襲'
'世界一'
'世界に_'
'世の'
'与され'
'与える_'
'与える'
'与えられた'
'不要'
'不満'
'不安定な'
'不可能で'
'不十分'
'不動産'
'不利'
'下野'
'下し'
'下がって'
'上院'
'上総'
'上着'
'上杉家'
'上出来'
'上を'
'上げま'
'上げ_'
'上が'
'三角'
'三代'
'万年'
'万_'
'一郎'
'一連の'
'一覧'
'一行'
'一緒に行'
'一生懸命'
'一歩'
'一本'
'一晩'
'一切'
'一位'
'一つは'
'ーー'
'ーフ'
'ーパ'
'ーティ'
'ーツ'
'ーは_'
'ーっ'
'ーい_'
'ヵ月'
'ヴォー'
'ヴォ'
'ヴィス'
'ヴァンパイア'
'ヴ_'
'ンツ'
'ンシ'
'ンサ'
'ンク'
'ンカ'
'ンな'
'ンさん'
'ヲ'
'ワープ'
'ワット'
'ローレ'
'ロマ'
'ロボットを'
'ロシア人'
'ロウ'
'ロイド'
'レンジャー'
'レスを'
'レジ'
'レイプ'
'ルーム'
'ルーシー'
'ルイス_'
'ルを_'
'リーン'
'リンを'
'リム'
'リハ'
'リチャー'
'リストの'
'リサ_'
'リサ'
'ラーを'
'ランドの'
'ラン_'
'ラリ'
'ラム'
'ラニスター'
'ライリー'
'ライブ'
'ライフ'
'ライオン'
'ヨーロッパ'
'ヨン'
'ヨハネ'
'ヨナ'
'ユーザー'
'ヤー_'
'ヤマ'
'ヤ_'
'ャン'
'モーガン'
'モラル'
'メールを'
'メートルの'
'メン_'
'メニュー'
'メイソン'
'メの'
'ムズ'
'ムと'
'ミー_'
'ミルク'
'ミラー'
'ミュー'
'ミュ'
'ミア'
'マーケット'
'マー_'
'マルコム'
'マリー'
'マラリア'
'マヤ'
'ママは'
'マデ'
'マット'
'マックス_'
'マックス'
'マック'
'マチ'
'マズ'
'マシュー'
'ポーリー_'
'ポン'
'ボーイフレンド'
'ボックス'
'ホントは'
'ホントの'
'ホロ'
'ホル'
'ホテルに'
'ホッジ'
'ホイ'
'ペースで'
'ページの'
'ペリ'
'ペッ'
'ペア'
'ベール'
'ベンチ'
'ベンジャミン'
'ベリー'
'ベビー'
'ベッ'
'ベガス'
'ベイ_'
'ヘクター'
'プレー'
'プライバシー'
'プシ'
'プは'
'プに'
'ブロード'
'ブレイ'
'ブラシ'
'ブを'
'フード'
'フレー'
'フランシスコ'
'フランク'
'フランキー'
'フフ'
'フット'
'フォーム'
'フォース'
'フォン'
'フォルカー'
'フェン'
'フェリ'
'フィリップ'
'フィラ'
'ファル'
'ファッション'
'ピッコロ'
'ピザ'
'ビールを'
'ビート'
'ビリ'
'ビュー'
'ビッド'
'ビット'
'ビス'
'ヒール'
'ヒン'
'パート'
'パーティーを'
'パー_'
'パンツ'
'パラ'
'パパに'
'パパが_'
'パニ'
'パトロール'
'パイロット'
'パイプ'
'バード'
'バート'
'バージ'
'バーグ'
'バー_'
'バンク'
'バトル'
'バッグを'
'バカな_'
'バウ'
'バイ_'
'ハーバード'
'ハント'
'ハルト_'
'ハリス'
'ハッ_'
'ノック'
'ネルソン'
'ネリ'
'ネット上'
'ネットで'
'ネシ'
'ニューヨークの'
'ニューヨークで'
'ニヤ'
'ニャ_'
'ニス'
'ニコ'
'ニ_'
'ナーの'
'ナルト_'
'ナッツ'
'ナジール'
'ナカ'
'ナの'
'ナが'
'ドローン'
'ドリー'
'ドラゴンの'
'ドラゴン_'
'ドック'
'ドク'
'ドウ'
'ドイツ語'
'ドアの'
'ドと'
'トーク'
'トレー'
'トレイ'
'トルコ'
'トリー'
'トラウ'
'トム'
'トニー'
'トは_'
'トが_'
'デン_'
'デュバク'
'デュエル'
'デス_'
'デザ'
'ディスク'
'テント'
'テロリストの'
'テロリストと'
'テレビの'
'テレビ_'
'テレ'
'テディ'
'テイラー'
'ティン'
'ティム_'
'ティコ'
'ティが'
'ツール'
'ツー'
'ツバ'
'ツの'
'ッド_'
'ットの'
'ッチ'
'ッシュ'
'チームは'
'チームの'
'チーム_'
'チョウ'
'チャーリー'
'チャップ'
'チャウ'
'チャ_'
'チク'
'チェックし'
'チェッ'
'チェス'
'チに'
'ダン_'
'ダメです'
'ダニエル_'
'ダナム'
'ダグ'
'ダウン_'
'ターン_'
'ターゲットは'
'ターゲット'
'ターを'
'ターで'
'タント'
'タバコを'
'タコ'
'タイミング'
'ソード'
'ソロ'
'ゼン'
'セージ'
'ズボン'
'ズと'
'スープ'
'スリ'
'スポック'
'スポ'
'スピ'
'ストン'
'ストロ'
'ストレス'
'ストライ'
'ストッ'
'ストの'
'スト_'
'スティーブ_'
'スッ'
'スチュ'
'スターリング'
'スケッ'
'スイーツ'
'スイス'
'スイ'
'スの_'
'ジョーク'
'ジョナサン_'
'ジャマ'
'ジミー'
'ジェームズ_'
'ジェームズ'
'ジェリー'
'ジェシカ_'
'シート'
'シーザー'
'シーは'
'シーだ'
'シング'
'シロ'
'シルバー'
'シルク'
'ショーの'
'ショー_'
'ションを'
'ション_'
'ショッピング'
'シャワー'
'シャット'
'シャイ'
'シフ'
'シオ'
'シェリ'
'ザック'
'サービスの'
'サーシャ'
'サンプルを'
'サンドラ'
'サンガ'
'サリン'
'サメ'
'サバ'
'サスケ'
'サス'
'ササ'
'サクラ'
'サウ'
'ゴリズム'
'ゴリ'
'ゴに'
'ゴ_'
'コーナー'
'コードを'
'コレ'
'コネ'
'コッ'
'ココに'
'コに'
'コで'
'ゲームをし'
'ゲームの'
'ゲームに'
'ゲン'
'ゲリ'
'ケンカ'
'ケ_'
'グー'
'グレース_'
'グレイ'
'グランプリ'
'グッド'
'クー'
'クロー'
'クレイ'
'クルー'
'クリニック'
'クラブの'
'クテ'
'クッキー'
'クソ野郎'
'クソッ_'
'クジ'
'クイン'
'クし'
'ギン'
'ギャン'
'ギャラ'
'キリスト'
'キュー'
'キャンペーン'
'キャス'
'キム'
'キット'
'ガール'
'ガン_'
'ガニ'
'ガキ_'
'カード_'
'カーター'
'カワイイ'
'カルテ'
'カップ'
'カタ'
'カシ'
'カギ'
'カイル'
'オート'
'オーディ'
'オーストラリア'
'オーケ'
'オンラインで'
'オロ'
'オレも'
'オラ'
'オフィスに'
'オフィス'
'オフに'
'オフ'
'オオ'
'オを'
'エヴァ'
'エンジ'
'エレ'
'エリカ'
'エジプト'
'エコ'
'エク'
'エキ'
'エイミー'
'エ_'
'ェー'
'ェック'
'ウソだ'
'ウズ'
'ウェー'
'ウェイン'
'ウィルス'
'インフ'
'インター'
'イングラ'
'イン_'
'イルホ'
'イト'
'イッチ'
'イズ'
'イスラム'
'イス_'
'イザ'
'イサ'
'イェ'
'イイ_'
'ィン'
'ィア'
'アーロン'
'アーサー_'
'アンディ_'
'アンテ'
'アンタは'
'アンタの'
'アレックス'
'アルバート'
'アリソン'
'アリス'
'アナキン_'
'アディ'
'アップロードし'
'アッシ'
'アカ'
'アは'
'アに'
'アだ'
'ァッ'
'ん中'
'んなら_'
'んでも'
'んでく'
'んっ_'
'んだね_'
'んだっ'
'んだぞ_'
'んだか'
'んじゃないの'
'んじゃない'
'を高め'
'を飲'
'を食べる'
'を食べて'
'を隠'
'を除'
'を選ぶ'
'を通じて'
'を通して'
'を越え'
'を超えた'
'を買う'
'を読ん'
'を説'
'を話'
'を試み'
'を証'
'を設立'
'を訪れ'
'を訪ね'
'を言って'
'を見れ'
'を見つける'
'を見つけた'
'を見せて'
'を置'
'を繰り'
'を組'
'を禁'
'を祀'
'を確認'
'を研究'
'を知り'
'を知っている'
'を知って'
'を発見'
'を用いて'
'を用い'
'を率いて'
'を狙'
'を特'
'を焼'
'を無'
'を流'
'を止めて'
'を楽し'
'を本拠'
'を書い'
'を教え'
'を攻'
'を支配'
'を描いた'
'を描'
'を授'
'を持ってき'
'を持っていた'
'を担'
'を扱っ'
'を打つ'
'を手伝'
'を愛して'
'を悪'
'を思い出し'
'を得て'
'を得'
'を巡'
'を定め'
'を守るため'
'を守って'
'を始めた'
'を失った'
'を変え'
'を増'
'を固'
'を呼び'
'を吸'
'を向'
'を受ける'
'を受けた_'
'を取る'
'を取り戻'
'を取'
'を動'
'を助'
'を加えて'
'を前'
'を切り'
'を切った'
'を再'
'を入れて'
'を信じ'
'を促'
'を作った'
'を何'
'を乗'
'を主'
'を与えた'
'をよく'
'をもら'
'をみ'
'をど'
'をつけ'
'をする_'
'をすべ'
'をす'
'をしました_'
'をしてる_'
'をしても'
'をかけて'
'をあげ'
'を1'
'われま'
'われている_'
'わり_'
'わたる'
'わたしは_'
'わせて_'
'わしの'
'わけね'
'わけではない'
'わけです'
'わけじゃない'
'わかるだろ'
'わかります'
'わかり'
'わからん_'
'わかっている'
'わかったよ_'
'わかったか'
'ろうとしてる'
'ろうとした'
'ろい'
'れるように'
'れら'
'れよ_'
'れは'
'れなかった'
'る時'
'る可能性'
'る事が'
'るんですか_'
'るんだよ_'
'るわけ'
'るようになる'
'るみたい'
'るまで'
'るほ'
'るはずだ_'
'るのも'
'ると思っ'
'るとき'
'るでしょう'
'るために'
'ることもある_'
'ることは_'
'るかも_'
'るい'
'り合'
'り出'
'り上げ'
'りや'
'りゃ'
'りも'
'りませんでした_'
'りませんか'
'りません'
'りますか_'
'りにな'
'りがとう_'
'りか_'
'らわ'
'られます_'
'られました_'
'られな'
'られてい'
'られたの'
'らゆる'
'らねばなら'
'らねえ'
'らによ'
'らなければ'
'らなくて'
'らな_'
'らとともに'
'らだ'
'らす'
'らしいな_'
'らき'
'よりずっと'
'よっては_'
'よっ'
'よせ'
'よこ'
'よく聞け'
'よく考え'
'よく知ってる'
'よく知って'
'よくわか'
'ようになり_'
'ようと思っ'
'ょうか_'
'ゆり'
'ゆっくりと'
'ゆっくり_'
'ゆかり'
'ゆえに'
'ゆえ'
'や経'
'や山'
'やマ'
'やろう_'
'やれやれ_'
'やれ'
'やること'
'やり直せ'
'やり取り'
'やりま'
'やましい'
'やはり_'
'やつは_'
'やつだ_'
'やつだ'
'やってくれ'
'やってきた'
'やっている'
'やだ'
'やす'
'やさ'
'やけ'
'ゃない'
'ゃっ'
'ゃ_'
'も良'
'も経'
'も知って'
'も悪い'
'も多い_'
'も多'
'も前'
'も何'
'も一緒に'
'も一緒'
'もんな_'
'もんだ_'
'もらおう_'
'もらえる_'
'もらえる'
'もらう_'
'もはや_'
'ものよ_'
'ものに_'
'ものと_'
'ものでは'
'ものす'
'ものがある_'
'ものが_'
'もとに'
'もと'
'もできない'
'もで'
'もっと大'
'もった'
'もちろんよ_'
'もちろんです'
'もたらす'
'もたら'
'もそ'
'もし誰かが'
'もし私が'
'もしかして'
'もしかしたら_'
'もかけ'
'もう終わり'
'もうそ'
'もうお'
'もうい'
'もうあ'
'もいません_'
'もありません_'
'もあって'
'めん'
'められた'
'めの'
'めてくれ'
'めて_'
'めっ'
'めだ'
'むな'
'みんなが_'
'みました_'
'みたいなもの'
'みたいだな_'
'みじ'
'まれ'
'まら'
'ままに'
'まとめて'
'まとめ'
'までには'
'まってい'
'まっ_'
'まだ生きてる'
'まだ何も'
'まだまだ'
'まだだ'
'まだあ'
'またこ'
'ませんよ_'
'ませんね_'
'ませんが_'
'ませて'
'まずは_'
'ますます'
'ましょう'
'ましたよね_'
'まく'
'まかせ'
'まえ'
'ぼう'
'ぼ_'
'ほんの'
'ほんと_'
'ほとんどの人は'
'ほっといて'
'ほしくない'
'ほしいと'
'ほうは'
'ほうが_'
'べる'
'べっ'
'べきよ_'
'べきでし'
'べきで'
'べきだと_'
'べきじゃな'
'へ進'
'へ行って'
'へ出'
'へい'
'ぷ'
'ふれ'
'ふりをして'
'ふた'
'ふじ'
'びを'
'びま'
'ひね'
'ひど'
'ひざ'
'ひげ'
'ば良'
'ばら'
'は２'
'は鎌倉時代'
'は金'
'は読'
'は認め'
'は許'
'は終わった'
'は破'
'は知って'
'は知'
'は白'
'は異'
'は特'
'は無事'
'は残念だ'
'は死ん'
'は止め'
'は明'
'は日本の'
'は手'
'は我'
'は従'
'は後'
'は彼女'
'は強'
'は封'
'は実'
'は存在し'
'は子'
'は太'
'は君'
'は危険'
'は南'
'は十'
'は分かって'
'は処'
'は入'
'は元'
'は何も'
'は何で'
'は低'
'は伝'
'は事実'
'は主に'
'は世界'
'はバ'
'はス'
'はシ'
'はグ'
'はわか'
'はり'
'はやめろ_'
'はも'
'はまる'
'はほとんど'
'はひ'
'はの'
'はね'
'はなり'
'はないよ_'
'はないが_'
'はないか'
'はできま'
'はできない'
'はつ'
'はっきりさせ'
'はた'
'はそう'
'はそ'
'はずの'
'はじめまして_'
'はじめ'
'はして'
'はご'
'はここに'
'はき'
'はお前'
'はいらない_'
'はいつも'
'はあなた'
'はあっ'
'は19'
'の１'
'の鳥'
'の魔'
'の食事'
'の食'
'の領'
'の頃'
'の面'
'の電話'
'の際'
'の関'
'の間で'
'の重要'
'の部'
'の進'
'の通'
'の途中'
'の軍'
'の話を'
'の試'
'の花'
'の船'
'の総'
'の絵'
'の精神'
'の種'
'の直'
'の皆'
'の生産'
'の理由'
'の王'
'の流れ'
'の流'
'の治療'
'の治'
'の没'
'の水'
'の母'
'の機'
'の朝'
'の有'
'の最後の'
'の文'
'の数'
'の支'
'の捜査'
'の手に'
'の戦いで'
'の息子'
'の復'
'の後_'
'の山'
'の対象'
'の学校'
'の字'
'の娘_'
'の姿'
'の姉'
'の多く'
'の声_'
'の墓'
'の報'
'の基'
'の取'
'の卵'
'の化'
'の全て'
'の全'
'の元'
'の修'
'の例'
'の余地'
'の住'
'の伝'
'の仲間'
'の他に'
'の仕業'
'の仕事を'
'の京都'
'の世'
'の下に'
'の上で'
'のラ'
'のミ'
'のペ'
'のプラ'
'のビ'
'のパン'
'のガ'
'のオ'
'のウ'
'のや'
'のもと'
'のま'
'のひとつ'
'のではなく_'
'のではない'
'のでは'
'のであ'
'のつ'
'のだろう'
'のだから'
'のだ'
'のそ'
'のご'
'のことは_'
'のことが'
'のいい'
'の5'
'ねら'
'ねばな'
'ねっ_'
'ねえな_'
'ねえって'
'ねえぞ_'
'に預け'
'に面'
'に隠'
'に関わ'
'に違い'
'に進'
'に送'
'に近づ'
'に近'
'に迎え'
'に言っ'
'に言う'
'に行って_'
'に行こう_'
'に行くと'
'に行き'
'に行か'
'に至'
'に突'
'に着いた'
'に着'
'に登'
'に注目'
'に来てくれ'
'に来て_'
'に昇叙'
'に接'
'に持'
'に戻って_'
'に感謝し'
'に思'
'に引き'
'に対し_'
'に対'
'に嫁'
'に大きな'
'に変え'
'に基づ'
'に向け'
'に加わ'
'に切'
'に入り'
'に入って'
'に入った'
'に信'
'に侵'
'に何が'
'に何か'
'に伴い_'
'に伴い'
'に会いたい'
'に仕える'
'に仕え'
'に乗じて'
'に不'
'にやっ'
'にはい'
'になろう'
'になれる_'
'になるんだ'
'になること'
'になりま'
'になりそう'
'になっています_'
'になっちゃ'
'になったと'
'にど'
'につき'
'についても'
'についての'
'にだって'
'にた'
'にそ'
'にせ'
'にするの'
'にすると'
'にすぎ'
'にしまし'
'にしま'
'にされて'
'にくい'
'にかけ'
'においては_'
'においては'
'におい'
'な方'
'なんでもない'
'なんですが_'
'なんてこと'
'なんじゃ'
'なんかに'
'なんかない'
'なんかし'
'なると'
'なりま'
'なら大'
'ならな'
'ならいい'
'なものを'
'なのです'
'なのだ'
'なにを'
'なによ'
'などでは'
'なっていた'
'なってい'
'なったとい'
'なだ'
'なぜ俺'
'なぜで'
'なぜこんな'
'なしに'
'なければならない'
'なくなっ'
'なくては_'
'なき'
'なかなか'
'なかったのか'
'なかったから'
'ないんです'
'ないん'
'ないように_'
'ないよう'
'ないな'
'ないです'
'ないでしょう_'
'ないでしょ_'
'ないでくれ_'
'ないって'
'ないし'
'どれ_'
'どり'
'どに'
'どっちが'
'どちらに'
'どこ行っ'
'どこ行くんだ_'
'どころ'
'どこへ行く'
'どこに行った'
'どこに居'
'どこにも'
'どこにいるんだ_'
'どこにい'
'どき'
'どが'
'どうやら_'
'どうやら'
'どうやってこ'
'どうもありがとうございま'
'どうもありがとう_'
'どうにか'
'どうなんだ'
'どうなってるん'
'どうなってる_'
'どうすんだ'
'どうしたんですか_'
'どういたしまして_'
'どういう事'
'と記'
'と言ってる'
'と言ってい'
'と言える'
'と解'
'と親'
'と考えられる_'
'と考えられている_'
'と考えられ'
'と称する_'
'と私は'
'と確'
'と申'
'と比'
'と手'
'と思わ'
'と思ってるの'
'と思ってた_'
'と思いますが_'
'と思いま'
'と天'
'と呼ばれてい'
'と名'
'と信じ'
'と会'
'と一'
'とプ'
'とバ'
'とド'
'とデー'
'とキ'
'とオ'
'とも呼ばれる_'
'ともい'
'とはいえ'
'との間'
'とのこと'
'となりま'
'とどま'
'とともに_'
'とても大'
'とっても_'
'としま'
'として活'
'として一'
'としても'
'とされている_'
'ところは_'
'ところです_'
'ところで'
'とが'
'とおりだ_'
'とおり'
'とお'
'といわれ'
'といた'
'という説'
'という人'
'というより'
'というもの'
'ということ'
'で解'
'で行われ'
'で終わ'
'で発'
'で無'
'で書'
'で全'
'で優'
'で働'
'で作'
'でる'
'でやれ_'
'でやる'
'でも彼女'
'でもどう'
'でもそ'
'でもこれは'
'でもあなた'
'での_'
'でなければ'
'でなく'
'でないと_'
'でないと'
'でど'
'でつ'
'でしょうね_'
'できれば'
'できるのか'
'できると思う'
'できません'
'できます'
'できました_'
'できなくな'
'できたの'
'でき_'
'でお'
'でいます_'
'でいた'
'であれ'
'であることが'
'であること'
'であって'
'であ'
'て行'
'て来た'
'てるぞ_'
'てみた'
'てば'
'てなかった'
'てて_'
'てたの_'
'てしまった'
'てしまいました_'
'てくれる_'
'てくれて'
'てきて_'
'てきて'
'ているように'
'ているもの'
'ているので'
'ていること'
'ていない_'
'ていて_'
'てあ'
'づら'
'づか'
'つもりはない'
'つもりです_'
'つもりで'
'つまん'
'つつあ'
'つし'
'つかな'
'ついてない'
'ついてき'
'ついた_'
'つい_'
'って言われ'
'って言う'
'って思'
'って事'
'ってもん'
'ってもいい'
'ってば_'
'ってのは_'
'ってない'
'ってたの'
'ってさ_'
'ってこと'
'ってくれる'
'ってくれ'
'ってきて'
'ってきた_'
'っており_'
'っているの'
'っていると'
'っていうのは_'
'っていうの'
'ってある'
'っつっ'
'ったり_'
'ったもの'
'ったのは'
'ったとき'
'ったって'
'っただろ'
'ったく'
'っそり'
'っこ'
'ちょっと待って'
'ちょく'
'ちょうど_'
'ちょ_'
'ちゃんは'
'ちゃんが_'
'ちまった'
'ちは'
'ちの'
'ちなみに_'
'ちな'
'ちっと'
'ちこ'
'だんだん'
'だん'
'だれが'
'だり'
'だめだ'
'だめ'
'だの'
'だに'
'だと思って'
'だという'
'だったんです'
'だったわ_'
'だったのよ_'
'だったのに_'
'だったから'
'だした'
'だけでも_'
'だけではな'
'だけじゃな'
'だけが_'
'だからだ_'
'だからこそ'
'た時に'
'た方がいい'
'た後'
'た場'
'たんだけど'
'たわ'
'たろ_'
'たものであ'
'たも'
'ためです_'
'たまえ_'
'たほうが'
'たびに'
'たのに_'
'たので_'
'たので'
'たのだ_'
'たのが'
'たね'
'たない'
'たところ'
'たときに'
'たという'
'たで'
'たつ'
'たっぷり'
'たった今'
'たっ_'
'たっ'
'たちを_'
'たちか'
'ただけだ_'
'ただい'
'たし_'
'たことに'
'たことが'
'たけ'
'たくな'
'たくさんあ'
'たえ'
'たいと思'
'たいと'
'たいてい'
'たいしたこと'
'ぞれ'
'ぞう'
'そんな気'
'そんなもん'
'そんなもの'
'そんなことを'
'そんなことない'
'それらを'
'それよりも'
'それより_'
'それは良'
'それは私の'
'それは何'
'それはあ'
'それなのに'
'それでいい_'
'それでいい'
'それって'
'それが君'
'それが分か'
'その間に'
'その車'
'その結果'
'その様'
'その本'
'その後の'
'その場'
'その前に'
'その先'
'その代'
'その中に'
'その中'
'その一方'
'そのよう'
'そのほ'
'そのか'
'そっちは_'
'そして私'
'そして最'
'そしてあ'
'そう願'
'そう言った'
'そう思'
'そうにな'
'そうなんです'
'そうとは'
'そうとした_'
'そうでした'
'そうだけど_'
'そうじゃな'
'そうしたい'
'そいつらは'
'ぜられ'
'せんよ_'
'せよう'
'せよ'
'せま'
'せない_'
'せいで'
'せいか'
'せい_'
'ずれ'
'ずっとい'
'す事'
'すんな_'
'すんだ_'
'する為に'
'する時'
'する必要がある_'
'する前に'
'する事が'
'するのも'
'するので'
'するには_'
'するぞ_'
'することだ_'
'すよう'
'すまん'
'すべてを知'
'すべての人'
'すべきです_'
'すべきだ_'
'すべ'
'すばらしい_'
'すば'
'すな_'
'すでに_'
'すだけ'
'すご'
'すぎだ_'
'じられ'
'じょ'
'じゃ無い_'
'じゃなかった'
'じゃないですか_'
'じゃないでしょ'
'じゃないだろう'
'じゃないだろ_'
'じゃないけど'
'じて_'
'じっとして'
'じっ'
'しろ'
'しようとする'
'しよう'
'しも'
'します'
'しまいました_'
'しぶ'
'しなければならな'
'しなければ'
'しないわ_'
'しな'
'して来'
'してもら'
'しては_'
'してしまった_'
'してくれた'
'してきたの'
'しておい'
'しているのは'
'していない_'
'していない'
'していった'
'しっかりし'
'しちゃって'
'した後_'
'した事'
'したり'
'したほうがいい'
'したのは'
'したので'
'したのが'
'したのか_'
'したという'
'したと_'
'したため'
'したことは'
'したくない_'
'したくない'
'したがって'
'したいんだ'
'したいと'
'しか出'
'ざい'
'さんを_'
'さんの_'
'さんです_'
'さんで'
'されます_'
'されな'
'されてた'
'されていない'
'されていた'
'さらに_'
'さば'
'させるの'
'させるため'
'させられた'
'させられ'
'させてくれる'
'させてくれ'
'させていただきます_'
'さし'
'さく'
'ご覧の'
'ご紹介し'
'ご存じで'
'ご存じ'
'ございま'
'ご_'
'こんなもの'
'こんなことを'
'これを使'
'これと'
'これで終わ'
'これって'
'これからも_'
'これからは_'
'こりゃ_'
'この頃'
'この野郎_'
'この車'
'この街に'
'この素'
'この男は'
'この男'
'この状況'
'この曲_'
'この時の'
'この方'
'この子は'
'この前'
'この件は'
'この件'
'この仕'
'この人_'
'この事を'
'この世界に'
'この世'
'このとき_'
'こないだ'
'ことを知ってい'
'ことをや'
'ことをし'
'こともない'
'こともある_'
'ことは何'
'ことの'
'ことになっ'
'ことである_'
'ことだけ'
'ことし'
'ことが多'
'ことができ'
'ことがあった'
'ことから'
'ことか_'
'こっちを'
'こっち_'
'こちらは'
'こちらに'
'こだわ'
'ここに来た'
'ここに来'
'ここには_'
'ここにある'
'ここでも'
'こう言'
'こうな'
'こうとして'
'こうで'
'こういった'
'こい'
'げる_'
'げて'
'げさ'
'けれども'
'けば_'
'けどな_'
'けです_'
'けた_'
'けじゃない'
'ぐんだ_'
'ぐる'
'ぐらいの'
'ぐ_'
'く見'
'くれま'
'くらい前'
'くら'
'くなかった'
'くと_'
'くって_'
'くちゃ_'
'ください'
'くだ'
'くたば'
'くい'
'ぎょう'
'ぎな'
'きれいな'
'きよ'
'きで'
'きてく'
'きっ'
'きたら_'
'きが'
'きいて'
'が高い'
'が集ま'
'が開いて'
'が長'
'が違う'
'が起こる'
'が起'
'が認められ'
'が見つかった_'
'が終わ'
'が私を'
'が目'
'が無い_'
'が減'
'が海'
'が死ぬ'
'が死'
'が欲しい_'
'が早'
'が改'
'が捕'
'が指'
'が必要よ_'
'が必要なの'
'が後'
'が広'
'が実'
'が存在する'
'が始ま'
'が好きで'
'が大き'
'が多く'
'が変'
'が回'
'が君'
'が同'
'が可能'
'が取'
'が原因'
'が勃発'
'が初めて'
'が切れ'
'が分かった'
'が出来な'
'が出され'
'が全'
'が入って'
'が会'
'がー_'
'がや'
'がも'
'がないと'
'ができる'
'がついて'
'がって'
'がち'
'がそう'
'がする_'
'がすべて'
'がく'
'がかかっ'
'がいた_'
'がいた'
'があって'
'があったんだ_'
'があったか'
'が3'
'が2'
'か知'
'かん_'
'かわか'
'かわいそうな'
'かわいい_'
'から電話'
'から見て'
'から落ち'
'から来た_'
'から来た'
'から大'
'からよ_'
'からな'
'からす'
'からか_'
'からか'
'からお'
'かも知れ'
'かもしれません'
'かみ'
'かぶ'
'かなかった'
'かどうか_'
'かと思った'
'かったのよ_'
'かったの'
'かっただ'
'かったこと'
'かだ_'
'かせる'
'かした'
'かけて_'
'かけ_'
'かき'
'かが'
'かか'
'かあ'
'お風呂'
'お願いだから_'
'お見せ'
'お目'
'お疲れさ'
'お昼'
'お手伝い'
'お待ち'
'お客様_'
'お姫'
'お姉様'
'お姉ちゃん'
'お医者'
'お前を_'
'お前はこ'
'お前の_'
'お前だ'
'お前さん'
'お前から'
'お会いし'
'お休み'
'お任せ'
'お互いを'
'おれは'
'おる_'
'おる'
'おりま'
'およ'
'おや'
'おもしろ'
'おまえを'
'おまえの'
'おび'
'おば'
'おたく'
'おじいちゃん'
'おしゃ'
'おこう'
'おかしな'
'おかしくな'
'おかえり_'
'えん_'
'えること'
'えばいい'
'えなかった'
'えている'
'えてい'
'えい'
'う一度'
'うん'
'うわぁ_'
'うろついて'
'うも'
'うまくいく'
'うまくい'
'うべき'
'うのは'
'うなった'
'うで'
'うつもり'
'うち_'
'うする'
'うした'
'うさ'
'うえ'
'いろんな'
'いるんだ'
'いるわけ'
'いるわ_'
'いらない_'
'いらっしゃいませ_'
'いらっしゃ'
'いよう'
'いよ'
'いますが_'
'いは'
'いなかった'
'いないんだ'
'いないか'
'いとこ'
'いとい'
'いてな'
'いったい'
'いった_'
'いたと思'
'いただけ'
'いじめ'
'いこ'
'いけないの'
'いけど_'
'いくらで'
'いく_'
'いきます_'
'いきなり'
'いかに'
'いかない_'
'いい感じ'
'いいわね_'
'いいのか_'
'いいと思'
'いいじゃない'
'いいこと'
'あんまり'
'あんたに'
'あれを見'
'あれで'
'ある時'
'ある日_'
'ある日'
'ある意味'
'ある人'
'あるんで'
'あるもの'
'あるので'
'あるという'
'ありゃ'
'ありませんが_'
'ありますか_'
'ありさ_'
'あの子を'
'あの世'
'あのス'
'あのね_'
'あなたは私'
'あなたの父'
'あなたのせい'
'あなたのお'
'あなたに話'
'あなたにとって'
'あなたが誰'
'あなたから'
'あっても'
'あっ'
'あち'
'あそこにい'
'あげる_'
'あげる'
'あえて'
'〝_'
'』・『_'
'《'
'〉 〈_'
'々で'
'々_'
'、..._'
'♬_'
'♪♪「_'
'―"_'
'·'
'}_'
'zza'
'zum'
'zoo'
'zone_'
'zombie_'
'zing_'
'yuri'
'yuki'
'yuich'
'yuc'
'yr'
'yp'
'yout'
'ylo'
'ylla_'
'yli'
'yle'
'yer_'
'yasu'
'yar'
'yamato'
'yaku'
'xu'
'xt'
'xray_'
'xo'
'xi_'
'xes_'
'ws'
'wrist'
'wri'
'wrap_'
'worth'
'worrying_'
'wood'
'woo'
'woke_'
'woah_'
'wives_'
'witch'
'wishe'
'wired_'
'wipe_'
'winter_'
'wind'
'william'
'whor'
'western_'
'wei'
'wee'
'weather_'
'weak'
'wast'
'warrior_'
'wards_'
'wan_'
'walt_'
'walls_'
'volunteer_'
'volunteer'
'voluntar'
'vital'
'visitors_'
'vision_'
'violence_'
'vin_'
'village'
'vil'
'vice_'
'via'
'ves'
'vers_'
'veri'
'vehicle_'
'vault_'
'various_'
'vari'
'vampire_'
'valid'
'vac'
'uti'
'uten'
'ustr'
'urin'
'urgent_'
'urb'
'unlike'
'unl'
'universal_'
'unit_'
'unit'
'union_'
'uni'
'ung_'
'unfor'
'underwo'
'understanding_'
'uncom'
'unco'
'unbelievable_'
'umo'
'ument'
'uma_'
'ultimately_'
'uki'
'uit'
'uff'
'ued_'
'udi'
'ude_'
'ucin'
'uce'
'uar'
'tyr'
'twenty_'
'tus'
'turner_'
'turb'
'tuner_'
'tuna'
'tul'
'tter'
'tt_'
'tsu_'
'tsk_'
'trunk_'
'trouble'
'tria'
'trend'
'treatment_'
'transpo'
'transformation_'
'transform_'
'tradition'
'trade'
'traces_'
'trac'
'toxi'
'towards_'
'tour'
'tou'
'toshi'
'torture_'
'tons_'
'toes_'
'tod'
'tobe'
'tlin'
'tips'
'timing_'
'time'
'tib'
'throw'
'throne_'
'thro'
'thrilled_'
'threaten'
'thre'
'thes'
'tests_'
'tes_'
'ters_'
'terrorists_'
'terrorist_'
'terribly_'
'termi'
'tell'
'television_'
'telep'
'tel'
'teenage'
'teen_'
'technologies_'
'techniques_'
'teas'
'team'
'tb'
'tattoo'
'tat'
'tasty_'
'tank_'
'tall'
'take'
'tak'
'table'
'synchro_'
'syn'
'sympath'
'symbol_'
'sym'
'switche'
'suspects_'
'survived_'
'surveillance_'
'surrounding'
'supplies_'
'supermarket'
'superc'
'super'
'summon'
'suit'
'suggesti'
'suffered_'
'suffer_'
'suck_'
'suck'
'succeed'
'subway_'
'subs'
'submit'
'subject_'
'sty'
'struggl'
'struck_'
'stro'
'strike_'
'stretch'
'storm_'
'stood_'
'stone_'
'stin'
'steve'
'sters_'
'stere'
'sted_'
'status_'
'static_'
'statement_'
'state'
'stant'
'stands_'
'standards_'
'stai'
'stag'
'stack_'
'stabbed_'
'squ'
'spy'
'spray_'
'spon'
'spoken_'
'spiritual_'
'spirits_'
'spir'
'spinn'
'spending_'
'spell_'
'speaker_'
'spa'
'sp'
'southe'
'sort'
'sona'
'sometime_'
'soldier_'
'snow'
'sniper_'
'smooth_'
'smit'
'smil'
'slo'
'slip_'
'sl'
'skeleton'
'ska'
'six'
'sis_'
'sink'
'singing_'
'sin_'
'silence_'
'silen'
'sided_'
'side'
'shrine'
'shown_'
'shot'
'short'
'shik'
'shields_'
'shell_'
'shee'
'she'
'shar'
'sham'
'shadow_'
'sex'
'sets_'
'services_'
'server_'
'servant'
'serv'
'sentence_'
'sensa'
'sed'
'secur'
'sector'
'secrecy_'
'sec'
'searching_'
'searched_'
'seal'
'sday_'
'scu'
'scream_'
'score'
'sci'
'sche'
'scary_'
'scare'
'scanner_'
'saw'
'sav'
'sato'
'satisf'
'sat_'
'sarah_'
'sandwich_'
'sample_'
'sally_'
'sai'
'sae'
'sacred_'
'rush_'
'rus'
'rumor_'
'rum_'
'rum'
'rule'
'rude_'
'rsi'
'rri'
'rows_'
'rope_'
'roots_'
'romantic_'
'roid'
'rog'
'rocket_'
'robert_'
'robert'
'robber'
'roads_'
'rity_'
'ripp'
'rings_'
'ries_'
'riding_'
'ridge_'
'rider_'
'rican'
'rew'
'revolution'
'returning_'
'respond_'
'respon'
'respect'
'resource_'
'residence_'
'rese'
'required_'
'require'
'representative_'
'represent_'
'repr'
'reporter_'
'replace_'
'repe'
'rene'
'rena'
'ren_'
'remembers_'
'remembered_'
'rema'
'rehab_'
'regula'
'register_'
'regi'
'regardless_'
'regarding_'
'reg'
'reflect'
'referr'
'recovered_'
'recover'
'recording_'
'recon'
'receiv'
'receipt'
'rebo'
'reass'
'react'
'ration_'
'rar'
'rant'
'rank'
'range'
'ral_'
'rac'
'quo'
'quir'
'question'
'quest'
'quarter_'
'puzzle_'
'push'
'pun'
'pump_'
'publish'
'psychic'
'pse'
'propose_'
'propos'
'promis'
'profession'
'process'
'probe'
'pro_'
'prize_'
'prisoners_'
'prin'
'price'
'previous_'
'prevent_'
'pret'
'press'
'pred'
'pr'
'pped_'
'ppe'
'powe'
'poverty_'
'pou'
'pot_'
'possesse'
'possess'
'positi'
'pose'
'port_'
'pop'
'politicians_'
'point'
'pockets_'
'plug_'
'pleasant_'
'plea'
'players_'
'plate'
'plants_'
'planes_'
'plan'
'plai'
'pla'
'pitche'
'pipe'
'pin_'
'pills_'
'pigs_'
'pian'
'phrases_'
'phrase_'
'photos_'
'photo'
'phe'
'phase_'
'phant'
'ph'
'pet_'
'persuade_'
'perform'
'perception_'
'perce'
'penn'
'pect'
'peac'
'payment'
'pattern_'
'patience_'
'passion'
'partners_'
'particle_'
'pard'
'parad'
'panic_'
'panel_'
'paint_'
'oz'
'oy_'
'ox_'
'ovi'
'overt'
'overlo'
'overla'
'outt'
'outp'
'outfit_'
'ouch'
'otte_'
'oto'
'ote'
'oste'
'osi'
'ort'
'orn'
'orms_'
'ori_'
'ordinary_'
'ord'
'orc'
'oral_'
'opposi'
'oppose'
'opp'
'oph'
'opera_'
'oot_'
'ony_'
'oner_'
'ona_'
'omo'
'omis'
'om'
'olog'
'olivia_'
'oku_'
'okin'
'oki'
'oka'
'oh'
'ogen'
'offering_'
'odds_'
'ock'
'ocean'
'occurred_'
'occasionally_'
'obsess'
'obs'
'oblig'
'objects_'
'oba'
'oad_'
'nty'
'nto'
'nter'
'nta_'
'nsel'
'nse'
'novel_'
'note'
'northern_'
'norm'
'nop'
'noon_'
'nono'
'noise_'
'noi'
'nny_'
'nne'
'ninja_'
'nige'
'nig'
'networks_'
'network_'
'nerd'
'nels'
'neighbo'
'nea'
'nde'
'nau'
'naturally_'
'nation'
'nathan_'
'narrat'
'nap'
'nami'
'nah_'
'nad'
'nac'
'mysterious_'
'muslim'
'murphy_'
'mpo'
'mpl'
'motor'
'mothers_'
'mostly_'
'mosqu'
'moscow_'
'monitor_'
'mois'
'mn_'
'ml'
'mizu'
'mitsu'
'mit_'
'misc'
'miner'
'minds_'
'mimic'
'miki'
'mika'
'michi'
'mh'
'method'
'messages_'
'mercy_'
'ment'
'mem'
'meg'
'mee'
'med'
'mechanism_'
'mechanic'
'measure'
'meaning'
'mbling_'
'mber_'
'maxim'
'matt'
'matsu'
'materials_'
'master'
'mass_'
'marti'
'mart'
'mari'
'mard'
'map'
'manufactur'
'mann'
'mania'
'manhattan_'
'management_'
'mali'
'mal_'
'majesty_'
'main'
'mail_'
'maids_'
'magne'
'magi'
'madam'
'machi'
'lv'
'lungs_'
'lunch'
'luna'
'lun'
'luggage_'
'loy'
'loving_'
'loud_'
'lou'
'lot'
'loo'
'london_'
'located_'
'load'
'lo_'
'lles'
'lla_'
'lizz'
'liv'
'literature_'
'listened_'
'linke'
'limit_'
'limi'
'lim'
'lightning_'
'light'
'lict'
'lib'
'let'
'les'
'ler'
'leo_'
'lens'
'legend'
'lee_'
'leas'
'learning_'
'leak'
'leading_'
'leaders'
'lde'
'lb'
'layer'
'law'
'laundry_'
'lations_'
'lass'
'lap'
'labor_'
'kyle_'
'ku_'
'koi'
'kno'
'knight'
'kne'
'kly'
'kli'
'kle_'
'kings'
'kingdom_'
'kind'
'kilo'
'kidnap'
'kes'
'kel'
'kame'
'kai_'
'kai'
'jun'
'julia_'
'josh'
'jos'
'joking_'
'joint_'
'jew'
'jection_'
'jacob_'
'jack'
'ja_'
'izing_'
'ize'
'iza'
'ivi'
'ive'
'iv'
'ium_'
'ito_'
'ito'
'ith_'
'itat'
'isti'
'ising_'
'isi'
'iran'
'ira'
'invo'
'invite_'
'investigate_'
'interact'
'intelligence_'
'instrument'
'institut'
'instant'
'inso'
'ins_'
'ins'
'innovation_'
'inlaw_'
'ink'
'inform'
'influenced_'
'influence_'
'inflict'
'infinite_'
'infer'
'iness'
'independent_'
'incredibly_'
'inat'
'impression_'
'imper'
'immo'
'imi'
'ime_'
'imag'
'ille'
'ility_'
'ild'
'il'
'ificat'
'ific'
'if'
'ier_'
'ido'
'ida'
'ici'
'icat'
'ially_'
'iP'
'hut'
'hung_'
'humor_'
'humanity_'
'hous'
'hostil'
'hostages_'
'host'
'horrible_'
'horn'
'hop_'
'hong_'
'hone'
'homel'
'hn'
'hip_'
'hiko'
'heshe_'
'hem'
'helps_'
'heights_'
'heck'
'heate'
'heart'
'hates_'
'hast'
'harvard_'
'harp'
'harass'
'hanna'
'hank_'
'ham'
'halfway_'
'gym'
'guide'
'guidance_'
'guesse'
'guards_'
'gs'
'gree'
'great'
'grass_'
'grandpa_'
'grand'
'gradua'
'government'
'gori'
'goods_'
'goin_'
'gni'
'gne'
'glove'
'gli'
'gif'
'gie_'
'gic'
'ghosts_'
'gha'
'gh_'
'gge'
'german_'
'geo'
'gener'
'gen_'
'gel'
'gee'
'gd'
'gat'
'gard'
'garage_'
'gang'
'gami'
'gall'
'galaxy_'
'gail_'
'fuss'
'funeral_'
'fundamental_'
'full'
'ful'
'fuji'
'fugitive_'
'fucke'
'ft_'
'friendly_'
'french_'
'freezing_'
'freeze_'
'fred_'
'frankly_'
'francis'
'fox_'
'forme'
'foreign_'
'foot'
'follows_'
'folde'
'florida_'
'floo'
'flip'
'fli'
'flame'
'fish'
'fir'
'finance'
'fin_'
'filt'
'fill_'
'fil'
'fighter_'
'fifth_'
'fift'
'fica'
'fianc'
'fella_'
'fell'
'fea'
'fe_'
'farmer'
'farm_'
'farewell_'
'fal'
'fai'
'factor'
'eye'
'extreme_'
'exten'
'expression_'
'expressed_'
'express'
'exposed_'
'explaining_'
'explained_'
'expedition_'
'expan'
'exhaust'
'exciting_'
'exact_'
'ex_'
'evolution'
'everyday_'
'etr'
'eti'
'estimate'
'este'
'established_'
'essi'
'esse'
'esp'
'eru'
'erson_'
'erni'
'erl'
'erg'
'eren'
'ered_'
'erci'
'erase'
'eph'
'environmental'
'ents_'
'entrepreneur'
'english_'
'engage_'
'enforce'
'ende'
'employee_'
'emotions_'
'emotion_'
'emo'
'emerg'
'ement'
'embrac'
'embarrassing_'
'ella'
'ell_'
'eliminate'
'elder'
'eho'
'eful_'
'efforts_'
'eff'
'ee_'
'eds_'
'edge_'
'eddie_'
'ecti'
'economy_'
'econ'
'east_'
'easier_'
'earn'
'ear_'
'eal_'
'dw'
'dut'
'dug'
'duc'
'dropping_'
'dreaming_'
'dream'
'drawing_'
'drawer'
'dramatic'
'drag'
'dou'
'donat'
'dollar_'
'doctors_'
'doc_'
'dn_'
'dj'
'dit'
'disturb'
'distr'
'discr'
'discon'
'discipline'
'disaster_'
'disappoint'
'disagree'
'dimension'
'digital_'
'dig'
'differences_'
'diagnosed_'
'di_'
'devil_'
'devi'
'development_'
'developed_'
'deva'
'deter'
'destroy'
'destination_'
'desire_'
'desert_'
'description_'
'ders_'
'depth_'
'deo'
'dentist_'
'demand_'
'delica'
'dele'
'defe'
'deepest_'
'declare'
'deci'
'decent'
'death'
'dea'
'ddl'
'dc'
'dave_'
'date'
'database_'
'dari'
'dare_'
'dancing_'
'damned_'
'damaged_'
'dal'
'cyr'
'cut'
'customers_'
'curv'
'curren'
'cultures_'
'cult'
'cul'
'critical_'
'crimes_'
'creativity_'
'creation_'
'creating_'
'crash'
'coward_'
'cover'
'courage_'
'corpse_'
'corporation_'
'copper_'
'copie'
'cope_'
'cooperati'
'cooper'
'cook'
'conv'
'context_'
'conte'
'contains_'
'construction_'
'considering_'
'considerabl'
'consci'
'connect'
'confessed_'
'confess_'
'conduct'
'conclusi'
'concert_'
'concern_'
'concer'
'concept_'
'concentrate_'
'conce'
'compete'
'compe'
'communication'
'comi'
'comfortable_'
'colors_'
'colli'
'colleagues_'
'codes_'
'cod'
'cob'
'coast_'
'cm角'
'cloud'
'closest_'
'close'
'clinic'
'click'
'class'
'clan'
'claire_'
'claimed_'
'cky_'
'ckl'
'ckin'
'cker'
'civil_'
'citizens_'
'cie'
'cid'
'cial'
'chosen_'
'chor'
'choo'
'chicken_'
'chick'
'chew'
'ches'
'cher'
'cheek'
'ched_'
'checks_'
'checking_'
'chase'
'charming_'
'charm_'
'chamber'
'challeng'
'chain_'
'ceremony_'
'cer_'
'cen'
'cemetery_'
'cells_'
'celebrati'
'cdc'
'cb'
'cave'
'causes_'
'cats_'
'cass_'
'cas'
'carter_'
'cartel_'
'carried_'
'carr'
'carlo'
'cares_'
'carbon_'
'capture'
'capt'
'cana'
'cam_'
'cam'
'cai'
'cabinet'
'cab_'
'button'
'bust'
'burns_'
'bully'
'buff'
'budget_'
'bucks_'
'buck'
'bro_'
'british_'
'brief_'
'breaks_'
'break'
'bran'
'brake'
'bound_'
'boun'
'bottle_'
'bothering_'
'bored_'
'boom_'
'book'
'boat'
'boar'
'blu'
'blow'
'blossom'
'blis'
'bli'
'blew_'
'bleeding_'
'bled_'
'blank'
'blade'
'bish'
'bid'
'bicycle_'
'bert'
'berg'
'bend'
'belongs_'
'belly_'
'belief_'
'beings_'
'beh'
'begun_'
'beg'
'bedroom_'
'beat'
'bay'
'basket'
'basi'
'barrel'
'barr'
'barnes_'
'barely_'
'barbari'
'bank'
'bana'
'ball'
'bags_'
'bag'
'backup_'
'awake'
'avery_'
'averse_'
'aut'
'attending_'
'attacks_'
'ator_'
'ator'
'ata'
'asu'
'astr'
'association_'
'asp'
'ask'
'ashi_'
'artist_'
'artif'
'arte'
'arriving_'
'arrange'
'arl'
'arin'
'arguing_'
'argue_'
'arg'
'areas_'
'apply_'
'appetite_'
'apologiz'
'anytime_'
'anthony_'
'anonymous_'
'announce'
'anda'
'ancient_'
'ancestors_'
'analy'
'amy_'
'amin'
'amed_'
'alike_'
'alert_'
'alec_'
'aint'
'aim_'
'aid'
'agi'
'age'
'after'
'affairs_'
'affair_'
'aff'
'ae'
'adv'
'admire'
'admira'
'ade_'
'addy_'
'addition_'
'addi'
'add_'
'ada'
'ad_'
'actor_'
'actor'
'achi'
'ache'
'ach'
'accomplish'
'acce'
'academ'
'ac_'
'ably_'
']'
'Work'
'Wo'
'Who'
'While_'
'Wha'
'We'
'Wat'
'Tri'
'Tokyo_'
'Tel'
'TO'
'Sunday_'
'Spa'
'Someone_'
'Some'
'So'
'Sky'
'Shit_'
'Sha'
'Sam'
'RE'
'Q'
'People_'
'PC'
'Out_'
'Ok_'
'Ob'
'Ni'
'N_'
'NG'
'NE'
'Mus'
'Mu'
'Move_'
'Mother_'
'May_'
'Marc'
'Man'
'MR'
'Lu'
'Kyoto_'
'Ken'
'Ka'
'Joe'
'Ji'
'Jedi_'
'Jane_'
'J_'
'JR西日本'
'IN'
'Hon'
'Ge'
'Galactica_'
'Fuck'
'Fu'
'From_'
'Four'
'Fl'
'FBIに'
'FBIが'
'FBI_'
'Eve'
'Er'
'En'
'Ed'
'EP'
'Del'
'Dav'
'Darcy_'
'Dan'
'DS'
'Cou'
'Con'
'Comp'
'Comm'
'Chris'
'Chin'
'Captain_'
'CD'
'BO'
'App'
'Any_'
'Americans_'
'America'
'Ai'
'Ag'
'Ab'
'AR'
'AN'
'AC'
'? 」_'
'9時'
'91'
'87'
'82'
'7月1'
'77'
'700'
'6月_'
'6日'
'61'
'60_'
'5月_'
'5日に'
'5年1'
'5人の'
'5人'
'52'
'50ドル'
'5000'
'4日'
'4人の'
'4世'
'400_'
'400'
'3番'
'3月_'
'3年に'
'3ヶ月'
'3D'
'30分'
'2階'
'2月に'
'2年8月'
'2回'
'2万'
'250'
'23_'
'22_'
'2006年'
'1度'
'1分'
'1つは'
'19年'
'1990年'
'1960'
'1931年_'
'1930年_'
'176'
'167'
'15年'
'158'
'14_'
'141'
'140'
'135'
'132'
'121'
'10歳'
'10日'
'109'
'103'
'0年代'
'000の'
'.]_'
'...」_'
'.... _'
'...!'
'... ._'
'. '_'
'+'
')」_'
') - _'
''._'
'&_'
'!》_'
'! -_'
' ？_'
' → _'
' ‐_'
' / _'
' ..'
'ｸ'
'･'
'｣_'
'｢_'
'］ '
'Ｔ_'
'Ｒ'
'Ｅ'
'５人'
'３日'
'３人の'
'３つ'
'３_'
'２年'
'１８'
'１５'
'１０年'
'１時間'
'１つの'
'．．． _'
'））。_'
''
''
''
''
'_'
''
''
''
''
''
'黒田'
'黄金'
'黄檗'
'麿_'
'麻薬を'
'麻痺し'
'麻痺'
'麻呂は'
'麺'
'麓'
'鹿児島藩士_'
'鵜'
'鳴り'
'鳴っ'
'鳥取'
'鳥を'
'鳥だ'
'魚雷'
'魔術'
'魅力的'
'魅力'
'魅'
'魂の'
'鬱'
'鬘'
'髪を切'
'髪を'
'高額'
'高級'
'高校生'
'高価'
'高さ1'
'髄'
'骸'
'骨で'
'骨が'
'驚きだ'
'騰'
'騙した'
'騒が'
'駿河'
'駿'
'駆'
'駅は'
'駅から'
'駄目_'
'馳'
'馬鹿だと思'
'馬車'
'馬場園_'
'馬場'
'馬に乗って'
'馬_'
'香港'
'饒'
'館に'
'餌を'
'養老'
'養子とな'
'養子_'
'飾り'
'飾っ'
'飼っ'
'飲も'
'飲め_'
'飲むか_'
'飲み込'
'飲み物'
'飲みに'
'飲まない'
'飲ま'
'飯は'
'飢'
'食糧'
'食べまし'
'食べない'
'食べな'
'食べてい'
'食べちゃ'
'食べた_'
'食に'
'食する'
'飛鳥'
'飛行機は'
'飛行機の'
'飛行機に'
'飛行を'
'飛び出して'
'風邪を引'
'風景'
'風を'
'風で'
'顧問'
'類が'
'願望'
'願を'
'願う'
'願い_'
'顔を見て'
'顔をし'
'顔だ'
'題材'
'題を'
'題は'
'題_'
'頼りに'
'頼むから'
'頼む'
'頼まれたの'
'頼は'
'頻'
'頭部'
'頭蓋'
'頭は'
'頭が良'
'頬'
'領し'
'頓'
'頑張ろう'
'頑張れ_'
'頑張る'
'頑張りま'
'頑張ってね_'
'頑固'
'預か'
'預'
'須賀'
'頂戴_'
'韻'
'音楽家'
'音楽が'
'音に'
'音だ'
'鞍'
'革新'
'革_'
'革'
'面白い_'
'面会'
'非難した'
'非常に重要'
'非常に危険'
'非公'
'静流'
'青_'
'霧'
'震に'
'電鉄株式会社'
'電車に乗'
'電話番号'
'電話だ'
'電話か'
'電話_'
'電球'
'電波'
'電力を'
'雨に'
'雨だ'
'雨_'
'難しい_'
'難い'
'離婚した'
'離れろ_'
'離せない_'
'離さない'
'雑貨'
'雑種'
'雇われて'
'雇う'
'集中して'
'集めた'
'集まった'
'集し'
'雀'
'隠れ家に'
'隠れてい'
'隠れて'
'隠し場所'
'隠し事'
'隠した_'
'隠された'
'障害が'
'際して'
'際_'
'隙'
'随'
'階建て'
'階に'
'隊を'
'隊だ'
'隆房'
'陸奥'
'陶器'
'陵_'
'陳'
'陪審'
'陥落'
'限られた'
'限って'
'降下'
'降ろ'
'降りろ_'
'降りて_'
'降って'
'阿部'
'阻止し'
'防衛'
'闘に'
'闇を'
'閲'
'関心を'
'関係に'
'関係で'
'関係して'
'関係がある'
'関係か'
'関係_'
'関わる'
'関わらず'
'関わって'
'関しては_'
'間違っている'
'間違ってい'
'間違いを'
'間抜け'
'間もなく'
'間の_'
'間だ'
'開業し'
'開ける'
'開けな'
'開け'
'開く'
'閉じこもって'
'閉ざ'
'門人'
'門は'
'長谷川'
'長男_'
'長浜'
'長元'
'長い時間'
'鑑識'
'鑑真'
'鎖し'
'鍛え'
'録画'
'錬'
'鋼'
'鋭い'
'鋭'
'銅像'
'銃弾'
'銃声'
'銃を持ってる'
'銃を持って'
'銃を持った'
'銃だ'
'銀行強盗'
'銀行と'
'鈐'
'鈍'
'針で'
'金融業'
'金を持って'
'金で'
'量は'
'野蛮'
'野の'
'野で'
'重要なのは'
'重要で'
'重衡'
'重文'
'重大'
'重力'
'重ね'
'酸素'
'酸化'
'酔い'
'酔'
'酒蔵'
'酒の'
'配置に'
'配した'
'都市を'
'都合'
'都会'
'都に'
'郭'
'部長'
'部屋は'
'部屋が'
'部屋か'
'部分を'
'部分が'
'部へ'
'部から'
'郡の'
'郊'
'邸に'
'邪魔し'
'邪'
'邦_'
'遺伝子を'
'選べ'
'選ば'
'選_'
'遮断'
'遭っ'
'適切'
'遣いに'
'遠くに'
'違って_'
'違って'
'違った_'
'違うんです'
'達磨'
'達も'
'達と_'
'道真'
'道具を'
'道具で'
'道を選'
'道な'
'過大'
'過去を'
'過ちを'
'過ごした_'
'運転_'
'運動_'
'遊園地'
'遇を'
'遅くな'
'遅い_'
'遂げる'
'遂げ'
'進言'
'進歩し'
'進化して'
'進出'
'週に'
'逮捕する_'
'逮捕する'
'連中は_'
'連れ戻'
'連れて行く_'
'連れて来た'
'連れて帰'
'連れてこ'
'造り'
'造られ'
'通過'
'通りだ_'
'通と'
'通ってい'
'通って'
'通じる'
'途方'
'途中で_'
'逃げ出した'
'逃げようとした'
'逃が'
'送り返'
'送り_'
'送ってき'
'送った_'
'退治'
'退却'
'追跡し'
'追放され'
'追号'
'追われ'
'追ってる'
'追う'
'追い込ん'
'追いつ'
'迹'
'迷惑かけ'
'述べて'
'返答'
'返し_'
'近藤'
'近所の'
'近づける'
'近づけ'
'近づ'
'近くで'
'迎えられ'
'迎えに来'
'迎えた'
'込めて'
'込みを'
'辺の'
'辺_'
'辰'
'辞める'
'辞め'
'輪を'
'輔_'
'転送'
'転が'
'軒_'
'軍曹_'
'軍曹'
'軍医'
'車両_'
'車に乗れ'
'車に乗っ'
'車には'
'身長'
'身分を'
'身内'
'身_'
'躍し'
'踊り'
'践'
'路地'
'路を'
'跡継ぎ'
'跡が'
'跡_'
'足で_'
'趣'
'越後'
'越前'
'超能力'
'起訴され'
'起こったこと'
'起こった_'
'起こせ'
'起きる_'
'走れ_'
'赤穂'
'赤字'
'赤の'
'贈り物だ'
'贈られ'
'贈っ'
'賭けた'
'質問に'
'質問だ_'
'質問だ'
'質問が'
'質は'
'質の'
'質な'
'質_'
'賠償'
'資金を'
'資産'
'資料を'
'費や'
'貸してく'
'買わ'
'買う_'
'買い物を'
'買い物'
'貴様の'
'貰ってる'
'貰った'
'貰える'
'貯'
'責任者で'
'責任者'
'責任だ'
'貨_'
'貧民'
'豊富'
'豆腐'
'请'
'说_'
'議員は'
'議の'
'警戒'
'警察に話'
'警官を'
'警官が'
'警告を'
'警備員が'
'警備を'
'謝る'
'謝っ'
'謙'
'諸島'
'論争'
'論を'
'論に'
'論で'
'論じ'
'請求'
'談_'
'調査の'
'調べられ'
'調べよう_'
'調し'
'課題'
'誰よりも_'
'誰も知らな'
'誰も気に'
'誰も助け'
'誰もそ'
'誰もいな'
'誰にも_'
'誰にでも'
'誰なんだ_'
'誰と話'
'誰だっ'
'誰か助け'
'誰かが彼'
'誰かがや'
'誰'
'読め'
'読み取'
'説明は'
'説明しましょう'
'説もある_'
'説には'
'説に'
'誠実'
'語り合'
'語と'
'語っ'
'誘拐犯'
'誘導'
'誕生日に'
'誓っ'
'認識し'
'認められて'
'認められ'
'認めな'
'詳細に'
'話をし'
'話にな'
'話に'
'話では'
'話せな'
'話すわ_'
'話すよ_'
'話すの'
'話し合い'
'話してくれない'
'話してくれた'
'話してくれ'
'話さない'
'話さ'
'話がした'
'詰める'
'詰まっ'
'試練'
'試さ'
'詣'
'詞_'
'評論家'
'評価して'
'詔'
'証拠がな'
'註_'
'診断'
'診て'
'訳が'
'許可証'
'許し'
'設計され'
'設定されて'
'設され'
'設_'
'訪ねて'
'訪ね'
'記録は'
'記録がある'
'記録_'
'記述が'
'記の'
'託_'
'計算し'
'計画を立て'
'計画は_'
'計画に'
'計画して'
'計画がある'
'計画が'
'訂正'
'言葉を_'
'言葉の'
'言われる'
'言われている'
'言われ'
'言わなかった'
'言は'
'言ってるんだ'
'言ってなかっ'
'言っていま'
'言った事'
'言ったよ'
'言ったでしょ'
'言っただろ_'
'言おう'
'言えな'
'言え_'
'言う通りにし'
'言う事'
'言い争'
'言いたい事'
'言いたいのは'
'触れた'
'触ら'
'解決できる'
'解決した'
'解毒'
'解明'
'解放し'
'解け'
'解く'
'解き'
'解い'
'角_'
'覺'
'観音_'
'観念'
'親鸞'
'親父は'
'親父が'
'親戚'
'親切に'
'親を'
'親に'
'親しくな'
'親_'
'覧会'
'覚えてるか_'
'覚えてお'
'覚えている'
'覚えていない'
'覚_'
'視野'
'視でき'
'視して'
'規模な'
'規模で'
'見通'
'見習い'
'見直'
'見当'
'見張ってい'
'見張って'
'見失った'
'見分け'
'見付け'
'見事だ'
'見ればわかる_'
'見れば'
'見るな_'
'見ると_'
'見られる_'
'見ました'
'見に行'
'見に'
'見ないで_'
'見と'
'見てるだけ'
'見てみろ'
'見てて'
'見つけました'
'見つけな'
'見た者'
'見たもの'
'見たく'
'見たか_'
'見たい_'
'見せて_'
'見せたい'
'見せた'
'見せかけ'
'見した'
'見えません_'
'見えなかった'
'見えない_'
'見え'
'覇権'
'要請_'
'要点'
'要らな'
'要するに'
'西本願寺の'
'西国三十三箇所'
'西側'
'西の'
'西に'
'襲われた'
'襲し'
'褒め'
'製品の'
'製_'
'裡'
'補償'
'装置を'
'装置の'
'装置_'
'装して'
'装し'
'裁判で'
'被験者の'
'被害者と'
'被害を'
'被っ'
'衰退し'
'衰え'
'衰'
'表現され'
'表の'
'表に'
'表して'
'表した'
'街で'
'行為で'
'行為_'
'行機'
'行方不明になっ'
'行動は'
'行を'
'行われてい'
'行われ'
'行なっ'
'行ってる'
'行っても'
'行ってくる'
'行っている'
'行っちゃう'
'行してい'
'行した'
'行ける_'
'行くな'
'行くから_'
'行きましょ_'
'行きなさい_'
'行きたい_'
'行きた'
'行うようにな'
'行う_'
'衆生'
'蜷川'
'蜜'
'蛋'
'蛇'
'蚊'
'虫を'
'蘇我氏'
'蘇っ'
'藩士_'
'藩が'
'藤原北家'
'藤原仲麻呂の'
'薬味'
'薬で'
'薬_'
'薫'
'薪'
'薊'
'薄い'
'蔵人の'
'蒸気'
'蒲'
'葺'
'葬式'
'葬られた'
'葛城'
'著色'
'著し'
'落城'
'落とす'
'落とした_'
'落とした'
'落ち着け'
'落ち着く'
'落ち着か'
'落ち着'
'落ちな'
'菱'
'華族'
'菅原道真'
'莫大な'
'莉'
'荻'
'荘園_'
'荒れて'
'草津'
'草を'
'茶色'
'茎'
'英語は'
'苦労し'
'苦労'
'苦しんで'
'苦しんだ'
'苦しい'
'若松城'
'苗字'
'苗'
'芹沢'
'芹'
'芸術家'
'芸能'
'花道'
'芦'
'芝生'
'芝居'
'芝'
'色々と'
'色々あ'
'良親王'
'良く聞'
'良く知'
'良くやった_'
'良かったわ_'
'良い子'
'良いで'
'良いぞ_'
'船員'
'船井郡'
'舞を'
'興福寺'
'興奮し'
'致死'
'致し'
'至る所に'
'至るまで'
'自身も'
'自我'
'自宅に'
'自動的に'
'自分の行'
'自分と'
'自分でも'
'自分たちの'
'自分たち'
'自分が_'
'自主'
'膨'
'膝を'
'腺'
'腹を'
'腸'
'腕が'
'腐竹'
'脱走'
'脚本'
'脆'
'能力の'
'胴'
'背景'
'背後'
'背が'
'胆'
'胃'
'肩に'
'肥後国'
'肥'
'肝臓'
'肋'
'肉体'
'職業'
'職人は'
'職は'
'職と'
'聞こえますか_'
'聞こえてる'
'聞こえた'
'聞くん'
'聞く_'
'聞きました'
'聞きたいん'
'聞きたい_'
'聞かれ'
'聞かな'
'聞いてます'
'聞いてた'
'聞いてく'
'聞いてい'
'聞いたよ_'
'聞いたことが'
'聞いたけど_'
'聞いたか'
'聞_'
'聖杯'
'耳を'
'耐えられな'
'耐'
'者はい'
'者に_'
'者ども'
'者です_'
'者だと'
'者たちが'
'者たち'
'者じゃ'
'者がいる'
'者がい'
'者か'
'考えを'
'考えろ_'
'考えると'
'考えよう'
'考えも'
'考えまし'
'考えてた'
'考えてく'
'考えている_'
'考えだ'
'考えた_'
'習った'
'翌2'
'義疏_'
'義理'
'義忠'
'義の'
'義_'
'群を'
'群_'
'美月_'
'美さん'
'羊'
'署長'
'署名'
'署で'
'罰を'
'罰と'
'置く'
'置かれた'
'置いてい'
'置いてあ'
'罪悪感'
'罪人'
'罪で_'
'给'
'繰'
'繭子_'
'織田家'
'織田信'
'繋がる'
'繋がってる'
'繋い'
'縣'
'縄文'
'編んで'
'緑の'
'総長'
'総裁'
'緊'
'綴'
'網を'
'綱手'
'綱_'
'続ける_'
'続けてきた'
'続けてい'
'続き_'
'継続'
'継承'
'綏靖'
'絶滅'
'絶対に_'
'絶え'
'絵を描'
'絵が'
'統領'
'絞り'
'結論'
'結構だ'
'結果の'
'結果に'
'結果と'
'結果が'
'結末'
'結成し'
'結局は'
'結婚した_'
'結び'
'経過'
'経緯'
'経済的'
'経って'
'組織を'
'組み込'
'終わりま'
'終わらせろ_'
'終わらせる'
'終わらせ'
'終わったわ'
'終わったら'
'終わった_'
'終わ'
'紹介する'
'紹介し'
'紹介'
'細道'
'細川氏'
'素敵だ'
'紛れ'
'級の'
'級_'
'紙は'
'納め'
'紅茶'
'約束で'
'約束だ'
'紀伝道'
'系統の'
'系は'
'精製'
'粛'
'粗'
'粋'
'粉の'
'米が'
'米_'
'簡単で'
'篠'
'節会'
'節の'
'箱館'
'箱を開け'
'箱に入'
'管領'
'管轄'
'管理をし'
'管理する'
'管理し'
'箔'
'箏曲'
'箇所'
'答えろ'
'答えな'
'筑前'
'筑'
'筋の'
'等を'
'等で'
'筈だ_'
'第十'
'第一の'
'第2位'
'第11'
'笠'
'笑わせ'
'端に'
'端_'
'立候補'
'立ってる_'
'立ち入'
'立した'
'窮地に'
'窮'
'窓を'
'突破'
'突然の'
'空海'
'空母'
'空い'
'種で'
'種が'
'税関'
'税金を'
'程の'
'移動して'
'移住'
'移った_'
'称で'
'秩序'
'科学者は'
'科学技術'
'科_'
'秋月'
'私達を'
'私有'
'私を_'
'私より'
'私は見'
'私は自分'
'私は自'
'私は知'
'私は彼の'
'私は彼に'
'私は全'
'私は信じ'
'私はや'
'私はま'
'私はど'
'私はちょうど'
'私はただ'
'私はそれ'
'私はす'
'私はあ'
'私の記'
'私の父は'
'私の気持ち'
'私の本'
'私の最'
'私の心は'
'私の名'
'私の仕事'
'私の人生は'
'私の人生'
'私の事を'
'私のよう'
'私のせい'
'私に話'
'私に任せ'
'私です'
'私だっ'
'私たちはあなた'
'私たちが_'
'私じゃ'
'私が責任'
'私が話'
'私が知って'
'私が手'
'私が何'
'私がや'
'私がここ'
'私がい'
'秀吉は'
'秀の'
'福岡県'
'福岡市'
'福井'
'禎'
'禅寺'
'禅宗'
'祭_'
'神田'
'神様'
'神奈川'
'神に感謝'
'神と'
'神か'
'祝う'
'祈りを'
'祈り'
'祀る'
'祀られている_'
'祀られ'
'社長も_'
'社長の'
'社と'
'示します_'
'示した'
'磁器'
'確認す'
'確認してく'
'確認_'
'確率'
'確信してい'
'確信して'
'確保'
'確かめた'
'確かにそ'
'硬貨'
'破裂'
'破損'
'破壊する'
'破壊した'
'破り'
'砲撃'
'研究に'
'石高'
'石は'
'石が'
'短期'
'短剣'
'矩'
'知行'
'知能'
'知事'
'知れ渡'
'知れない'
'知ることが'
'知るか'
'知りません_'
'知りま'
'知らね'
'知らないわ'
'知らないよ_'
'知らないの'
'知らないと'
'知らせて'
'知ってるんで'
'知ってるのか_'
'知ってるの_'
'知ってるか'
'知ってます'
'知っているか'
'知っていて'
'知っていた_'
'矛盾'
'睦'
'着の'
'着して'
'着し'
'着いた_'
'着_'
'眠れる'
'眠らせ'
'眠ってた'
'眠ってい'
'眠く'
'真言'
'真相は'
'真実を話'
'真実の'
'真実だ'
'真宗大谷派'
'真剣'
'看護'
'省に'
'相談して'
'相手は_'
'相変わらず'
'直面している'
'直面'
'直義'
'直前'
'直り'
'直ら'
'直に'
'直ちに'
'直した'
'直_'
'目立つ'
'目立'
'目撃者を'
'目指'
'目当て'
'目を閉じ'
'目も'
'目に見'
'目で_'
'目が覚め'
'監視カメラ'
'監督し'
'盛子'
'盛り上げ'
'盗んで'
'益を'
'皮の'
'皇女'
'皇太子に'
'皇后_'
'皇位継承'
'的话_'
'的存在'
'的に取り'
'的には_'
'的であ'
'百花_'
'百年'
'百万'
'白石'
'白状し'
'白状'
'白河天皇'
'白人の'
'白を'
'白の'
'登場し'
'登っ'
'発音'
'発達'
'発見した_'
'発見し'
'発見_'
'発表し'
'発給'
'発揮'
'発掘され'
'発想'
'痛く'
'痛い目に'
'症状は'
'病院の'
'病院に行'
'病気と'
'病気が'
'病室'
'病を'
'病で'
'疑問に思う'
'疑われ'
'疑わしい'
'畠'
'留置'
'留学'
'留める'
'界に'
'画面'
'画家'
'画_'
'町を出'
'町を'
'町と'
'男性で'
'男な'
'男と_'
'男がい'
'男か'
'申し訳ない'
'申し訳ございません'
'申し上げ'
'由来する_'
'由来する'
'由で'
'田川'
'田は'
'用語_'
'用意して'
'用品'
'用事がある'
'用を'
'用だ_'
'用いられた'
'産地'
'産んだ'
'産さ'
'生物学'
'生活が'
'生徒会'
'生徒たち'
'生まれた'
'生は'
'生に'
'生だ'
'生じた'
'生き残る'
'生き残'
'生かし'
'甚'
'甘え'
'琵琶'
'理論的'
'理解できる_'
'理解するために_'
'理解してる'
'理解している'
'理的'
'理由を知'
'理由を_'
'理由だ'
'理念'
'理子'
'理の'
'球の'
'現行'
'現実を見'
'現存'
'王権'
'王女'
'王国は'
'王冠'
'王だ'
'玉葉'
'率いて'
'獄か'
'猶子'
'狼獣'
'独自'
'独立して'
'狙ってる'
'狙いは'
'狂った'
'状況は'
'状態です_'
'状態が'
'犯行'
'犯罪の'
'犯人を見'
'犯人に'
'犯人だ'
'犯を'
'犠牲を'
'犠牲にして'
'特製'
'特色'
'特殊な'
'特権'
'特に_'
'物部'
'物語を'
'物理'
'物体'
'物事は'
'物を見'
'物と'
'物じゃない'
'物か'
'牧師'
'牧場'
'牢'
'片を'
'父親と'
'父と'
'父で'
'父だ'
'父さんは'
'父が_'
'爆破'
'爆発する'
'燈'
'熱く'
'熱が'
'照準'
'照ら'
'焼_'
'然と'
'然だ'
'焦'
'無駄な'
'無量'
'無視して'
'無罪'
'無理な'
'無理するな'
'無意識'
'無名'
'無力'
'無傷'
'無くて'
'無いよ'
'烈'
'為だ_'
'点だ'
'点があ'
'点が'
'炭酸'
'炒'
'火事'
'灌頂'
'瀕'
'濃度'
'激派'
'澤'
'澄元'
'潰し'
'演習'
'漏'
'滴'
'滝川'
'滅亡した'
'溺れて'
'溺れ'
'準備を'
'準備は'
'源氏物語_'
'源_'
'測定'
'温度'
'渡航'
'渡って'
'渡せ'
'渡してくれ'
'渡して'
'減って'
'清氏'
'清和'
'清の'
'添え'
'混和'
'混合'
'混乱して'
'深く_'
'淫'
'消防士'
'消息は不明'
'消した'
'消える'
'海人'
'海で'
'海_'
'浮かび'
'浩'
'浦の'
'浚'
'流行'
'流派'
'流れを'
'流れる'
'流の'
'流して'
'流した'
'流された'
'派遣され'
'派に'
'活動に'
'活動して'
'活を送'
'洲'
'洪'
'洗練され'
'洗濯'
'注目し'
'注文した'
'注意を払'
'注意を引'
'波見_'
'泡'
'法親王'
'法廷で'
'泉寺'
'沿って'
'治療法'
'治療を'
'治るまで'
'治は'
'油を'
'沸'
'河内源氏の'
'沢山あ'
'没し'
'沙汰'
'沖縄'
'決心'
'決定する'
'決定した'
'決める_'
'江戸時代初期に'
'江戸時代中'
'江戸時代には'
'汝'
'汚れ'
'汚さ'
'求めるもの'
'求めるの'
'求めている'
'永享の乱'
'永享'
'永久に'
'水野'
'水だ_'
'気流'
'気楽に'
'気晴らし'
'気持ち悪い'
'気持ちは分か'
'気持ちいい'
'気圧の'
'気分は'
'気分で'
'気分だ_'
'気候は'
'気付く'
'気をつけな'
'気も'
'気の毒だ'
'気の毒'
'気に入って'
'気にな'
'気にしないで_'
'気にしない'
'気にしてる'
'気にしてない'
'気にかけ'
'気づき'
'気づかなかった'
'気づか'
'気づいてる'
'気だ'
'気が済'
'気が変'
'気か'
'民権'
'民俗'
'民主'
'氏族'
'氏は_'
'氏の一族'
'氏に関'
'氏に'
'氏から'
'毛利'
'毛が'
'比較し'
'比較'
'毎朝'
'毎晩'
'毎回'
'毎に'
'母上'
'母を'
'母に'
'母さんと'
'母さんが'
'殺害された'
'殺人鬼'
'殺人事件で'
'殺人に'
'殺すな'
'殺し屋'
'殺してやる'
'殺したん'
'殺したのか_'
'殺されるか'
'殺されて'
'段と'
'殴り'
'殴った'
'残酷'
'残念だが_'
'残念だ_'
'残れ'
'残りは'
'残ってい'
'残す'
'残して_'
'残されている'
'残された'
'死者の'
'死神'
'死体が'
'死人'
'死んでしま'
'死んでいた'
'死んだ男'
'死んだんだ_'
'死んだら'
'死ぬわ_'
'死ぬの'
'死にま'
'死には'
'死にたく'
'死なない'
'死だ'
'死した'
'歴史の'
'歳以'
'歳の頃'
'歳のとき'
'歳に'
'歳で死去_'
'歳だ'
'歩道'
'歩く_'
'武道'
'武士の'
'武器は'
'武器の'
'正規'
'正統'
'正月_'
'正当防衛'
'正当化'
'正当な'
'正五位'
'正を'
'正に'
'正しかった_'
'正しい事を'
'正しい_'
'止められる'
'止めてく'
'止まらない'
'止まって'
'止する'
'歓迎する_'
'歓'
'歌舞伎の'
'歌舞伎_'
'歌い'
'欺'
'欲望'
'欲しくない'
'欲しくな'
'欲しくて'
'欲しがっ'
'欲しいもの'
'欲しいで'
'欲'
'欧'
'次回'
'次元の'
'次の世'
'次いで'
'櫛'
'機関は_'
'機能して'
'機械に'
'機に_'
'機で'
'機が'
'樫'
'横断'
'権大'
'権力を'
'権力の'
'権利を'
'権利があ'
'模範'
'模擬'
'標高'
'標的に'
'様子を見'
'様と'
'様だ_'
'様だ'
'構築し'
'楽しんでる'
'楽しんだ'
'楽しみにして'
'楽しくな'
'楼'
'極める'
'業界'
'業の'
'楠木正'
'検証'
'検討し'
'検死'
'検査し'
'検断権'
'検問所'
'植民地'
'植'
'棺'
'棟の'
'梁'
'桜子'
'桓武'
'案内してくれ'
'案内した'
'案だ'
'案が'
'栽培'
'格は'
'根拠と'
'株主'
'栖'
'柳生'
'枡'
'果物'
'果て'
'板垣退助'
'松が'
'東郷'
'東福'
'東映'
'東山区'
'東南アジア'
'東区'
'東北'
'来るんだ_'
'来ると'
'来られ'
'来てほし'
'来てくれて'
'来てくれた'
'来てくれ_'
'来ちゃ'
'来た時'
'来たん'
'来たば'
'来たのか_'
'来たと'
'来し'
'条院'
'条の'
'杜氏'
'村正'
'村は'
'村で'
'村が'
'札を'
'札の'
'本項'
'本質'
'本気か_'
'本気_'
'本来は'
'本来の'
'本来_'
'本来'
'本当よ_'
'本当に知'
'本当に楽し'
'本当なの'
'本当ですか_'
'本当だ'
'本当か_'
'本尊は'
'本名は'
'本を書'
'本があ'
'末裔'
'末期の'
'未解決'
'未満'
'木津'
'木ノ葉'
'期待し'
'朝臣'
'朝ご'
'望を'
'望みだ'
'有益'
'有効'
'有り得'
'有する'
'月曜日'
'月が'
'月2'
'最近では'
'最良の'
'最終的に_'
'最愛の'
'最悪だ'
'最後まで'
'最後は'
'最後だ'
'最後'
'最強'
'最古'
'最初は_'
'最優先'
'最中'
'曾孫'
'曽'
'曹'
'書は'
'書では'
'書かれた'
'書いてある_'
'書いたの'
'書いたと'
'曳'
'曲がり'
'曜日'
'曖昧'
'曇'
'暴走'
'暮らせ'
'暮らしている'
'暮らした'
'暮'
'暦道'
'暦2'
'暗く'
'暖かく'
'暑い'
'暑'
'暇はない_'
'晶'
'景_'
'普通は'
'普及'
'晩年'
'晩の'
'時間切れだ_'
'時間を無駄に'
'時間な'
'時間と'
'時期に'
'時代を'
'時代と'
'時な'
'昨日の夜'
'春に'
'映画に'
'映っ'
'映し'
'昔から'
'明白'
'明治天皇'
'明治2年'
'明治23年'
'明日香村'
'明日の朝'
'明に'
'明と'
'明し'
'昇叙_'
'昆'
'旬_'
'早朝'
'早く行'
'早く来'
'早く戻'
'旦那'
'日露'
'日記_'
'日活'
'日本酒'
'日本人は'
'日本から'
'日曜'
'日向'
'日前'
'日には'
'日と'
'日から'
'族は_'
'族と'
'旅行に'
'旅に'
'施行され'
'施行'
'施した'
'於ける'
'方法に'
'方法です'
'方法だ_'
'方法があ'
'方形'
'方へ'
'方です'
'方がいい_'
'方か'
'新規'
'新聞社'
'新聞に'
'新潟'
'新政府に'
'新入り_'
'新体操'
'斯'
'断を'
'断った'
'断ち'
'斧'
'料理は'
'料理で'
'料理が'
'文献'
'文句'
'文化的'
'整備され'
'整'
'数日間'
'数年前に'
'数千'
'数分'
'数人'
'数を'
'数える'
'数々の'
'敬意を'
'散歩し'
'散らし'
'散ら'
'教育に'
'教を'
'教えろ'
'教えてよ'
'教えてやる'
'教えてくれる'
'教えてくれま'
'教えてくれな'
'教えてい'
'敗退'
'敗走'
'救急車を'
'救急'
'救助'
'故意'
'政治を'
'政府と'
'政府が'
'政子_'
'政務'
'政事'
'放送_'
'放火'
'放射線'
'放射性'
'放せ_'
'放す'
'攻撃を受け'
'攻撃して'
'改元'
'改めて'
'支配者'
'支配さ'
'支部'
'支援を'
'支援する'
'支店_'
'擦'
'撮れ'
'播磨国'
'撤退し'
'撃つんだ'
'撃つぞ_'
'撃ち殺'
'撃たれ'
'撃たな'
'摂関家の'
'摂津国'
'携帯を'
'搭載'
'搬'
'損害'
'揺れ'
'援軍'
'揮'
'提出され'
'提供して'
'描き'
'描かれる'
'描かれて'
'揉め'
'揃え'
'掴め'
'推進'
'推定され'
'推定'
'接し'
'探題'
'探って'
'探せ'
'探しま'
'探してみ'
'探さな'
'採取した'
'掛かる_'
'掛かり'
'掘り出'
'掘し'
'排出量'
'授与され'
'掃除を'
'掃除する'
'掃除して'
'捨てろ_'
'捨てて'
'捧げま'
'捜査官の_'
'捜査官だ'
'捜査中'
'捜査に'
'捜査して'
'捜してる'
'捜してい'
'捕え'
'振舞'
'挫'
'挙'
'指定され'
'指名手配'
'指す_'
'持氏'
'持ってきた'
'持ってき'
'持ってお'
'持っていま'
'持ち帰'
'持ち上げ'
'拷問'
'拭い'
'拡大して'
'招待され'
'招待'
'招き'
'拘留'
'拓'
'拒否し'
'拍手を'
'拍手'
'抽'
'押し入'
'抱えて'
'抜け出し'
'抜け出'
'抜けて'
'抜かれ'
'抜か'
'折り紙'
'抗生'
'抑えて'
'抑'
'把握して'
'技術で'
'技法'
'技巧'
'承認'
'批判し'
'扱って'
'扱いで'
'払わ'
'打ち明けた'
'打ち合わせ'
'手遅れにな'
'手足'
'手術室に'
'手紙を書'
'手紙で'
'手札から'
'手口'
'手伝える'
'手を見'
'手を放'
'手を打'
'手を伸ば'
'手を_'
'手に入れ'
'手であ'
'手だけ'
'手だ'
'手した'
'手がかり'
'所詮'
'所蔵'
'所有して'
'所在地'
'所まで'
'所とな'
'所だ'
'所があ'
'所から'
'房を'
'戻ろう_'
'戻れない'
'戻り'
'戻らないと_'
'戻ってきて'
'戻ってきた_'
'戻せ'
'戻して'
'戴'
'戯'
'截'
'戦法'
'戦死した'
'戦場で'
'戦地'
'戦国大名'
'戦争と'
'戦争だ'
'戦ってい'
'戦った_'
'戦っ'
'戦した'
'戦いは'
'戦いの'
'戚'
'我ら'
'我々が_'
'成立_'
'成功する'
'成功し'
'成功させ'
'成功_'
'成人し'
'成は'
'成に'
'成した'
'憶え'
'憧れ'
'憑'
'憎しみ'
'慶長5年_'
'慶安'
'慶喜'
'慶の'
'慰'
'慎重'
'態は'
'慈善'
'感謝するよ_'
'感覚で'
'感知'
'感情は'
'感情が'
'感動'
'感で'
'感じない'
'感じだ'
'感じが'
'愛宕山'
'愛な'
'愛し合って'
'愛し合'
'愛し'
'愛_'
'愚かな'
'意識の'
'意見は'
'意欲'
'意味の'
'意味し'
'意味が分から'
'意味がある'
'意を'
'意の'
'意し'
'意_'
'愉快な'
'想い'
'想_'
'惨事'
'惟'
'惚れ'
'情を'
'情け'
'悼'
'悲鳴'
'悲しん'
'悪霊'
'悪者'
'悪化し'
'悪人'
'悪くて'
'悪かったな_'
'悪いんだ'
'悪いもの'
'悪いね_'
'悪いと'
'悟空_'
'悟り'
'悔い'
'息子と'
'息_'
'恨み'
'恨'
'恥ずかしく'
'恐怖に'
'恋に'
'怯え'
'怨念'
'性交'
'性も'
'性は_'
'性が'
'急ぐ'
'思考の'
'思われて'
'思ってるん'
'思ってるのか_'
'思ってない'
'思っていた_'
'思ったより'
'思ったか'
'思えない'
'思うの'
'思うと'
'思い出して'
'思い出さ'
'思いを'
'思いつ'
'思いが'
'怖く'
'怖がら'
'怖かった_'
'怖いよ'
'怒ってる'
'忠の'
'忠_'
'応答せよ_'
'応答し'
'応用'
'応永1'
'応元年_'
'忙しいの'
'忙し'
'忘れるな'
'忘れられない'
'忘れた_'
'忍耐強'
'忍び込'
'必要性'
'必要も'
'必要はない'
'必要とする'
'必要として'
'必要とした'
'必要がある'
'必要がありま'
'心配だ'
'心配してる_'
'心配して'
'心理'
'心拍'
'心当たり'
'心中'
'心は_'
'心は'
'心とし'
'心で'
'心し'
'心_'
'徴収'
'微笑ん'
'微生物'
'復興'
'御免なさい_'
'御免'
'得意な'
'得られる'
'得ない'
'得な'
'従業員'
'従四位'
'従三位_'
'従三位'
'従え'
'従い'
'後退'
'後述'
'後見'
'後藤'
'後者は'
'後継者'
'後悔する'
'後悔して'
'後悔'
'後ろの方'
'後も_'
'後で_'
'待遇を'
'待ってる_'
'待ってます'
'径'
'征伐'
'往'
'彼女達'
'彼女を知って'
'彼女を救'
'彼女は自分'
'彼女は友'
'彼女は何'
'彼女は今'
'彼女はあなた'
'彼女のため'
'彼女に会いた'
'彼女が来'
'彼女から'
'彼を止め'
'彼を撃'
'彼を愛してい'
'彼を助け'
'彼らは私を'
'彼は言っ'
'彼は自'
'彼は新しい'
'彼は悪い'
'彼は大'
'彼はとても'
'彼はそれ'
'彼はす'
'彼はい'
'彼はあ'
'彼の言'
'彼の死'
'彼の名は'
'彼に会っ'
'彼なら'
'彼だけ'
'彼が私'
'彼が何'
'彼がそ'
'彼か'
'役立'
'役に立つ_'
'役に立た'
'影響を与える'
'影響を与えた'
'影の'
'彫刻'
'形状'
'形成し'
'当駅'
'当主_'
'当な'
'当で'
'弾丸を'
'弾を'
'強制'
'強み'
'張り出'
'弱さ'
'弦'
'弟子に'
'弟が'
'引用'
'引っか'
'引き受ける'
'引き出'
'引き上げ'
'式で'
'式が'
'弊'
'弁護士は'
'弁護士に'
'建造物'
'建武'
'延期'
'延暦1'
'延享'
'座席'
'座を'
'座ってい'
'座った'
'度目の'
'度も'
'度が'
'度々'
'府県'
'府の'
'店は_'
'店で_'
'序列'
'床_'
'庄内藩'
'広大'
'広報'
'広まっ'
'広げて'
'広げ'
'庁の'
'幾つ'
'幽'
'幼稚園'
'幼名'
'幻覚'
'幸運を'
'幸運だった'
'幸せを'
'幸せだっ'
'幸せだ'
'年齢で'
'年間を'
'年寄り'
'年上'
'年は'
'年に_'
'年から'
'年7月'
'年4月'
'年1'
'平気よ_'
'平気だ'
'平氏の'
'平方'
'平安時代末期'
'平安時代に'
'平城'
'平凡'
'干渉'
'干支'
'幕府は'
'幕府に'
'帽子を'
'常陸'
'常識'
'帰郷'
'帰ろう'
'帰る_'
'帰りに'
'帰りなさい_'
'帰りた'
'帰り_'
'帰って来る'
'帰ってくる'
'帰ったの'
'師範学校'
'師匠'
'師の'
'師と'
'師で'
'希望を'
'布団'
'布された'
'布が'
'市長に'
'巻は'
'差し出'
'巫女'
'左手を'
'左大臣'
'工程'
'工夫'
'工場で'
'巣'
'川町'
'川の戦いで'
'川に'
'川が'
'崩御'
'島根'
'島城'
'岩崎'
'山陰本線'
'山町'
'山名'
'山口'
'山を'
'山が'
'山から'
'屯'
'層に'
'属する'
'属し'
'展開する'
'屋根に'
'届かな'
'届い'
'居ます'
'居ま'
'居の'
'居なく'
'居たの'
'尾張殿'
'尽力し'
'尽きた'
'就任_'
'尚_'
'少数の'
'少女は'
'少しで'
'少しだけ'
'小麦'
'小野'
'小袖'
'小姓'
'小判'
'小僧'
'小倉'
'小さくな'
'小さくて'
'導者'
'尊重'
'射手'
'寿命'
'対戦'
'対処する'
'寺町'
'寺で'
'寮'
'實'
'寝てる'
'寛文'
'寛平'
'寛喜'
'寇'
'密な'
'寅'
'寄らな'
'寄せる'
'寄せた'
'寂'
'容赦'
'容疑者を'
'容疑'
'容易'
'家紋'
'家禄は'
'家督を'
'家業'
'家族と'
'家政'
'家元'
'家を出'
'家へ'
'家に帰れ'
'家に入'
'家な'
'家である'
'家し'
'害だ'
'害さ'
'宰府'
'宮家'
'宮内省'
'宮内庁'
'宮と'
'室町時代に'
'室内'
'宣言し'
'宣旨'
'宣教'
'宣告'
'宣伝'
'宣下'
'実際のところ_'
'実際には_'
'実質的'
'実行す'
'実行し'
'実家'
'宝永'
'宛て'
'定を'
'官位は'
'宗教的'
'宗家と'
'宗家'
'宗は'
'完璧に'
'完璧だ'
'完成した'
'完成さ'
'完全に_'
'完了し'
'安置'
'安政'
'安心で'
'安心し'
'安寺'
'安定して'
'安全の'
'安全で'
'安元'
'守れる'
'守りた'
'守ってくれた'
'守ってあげる'
'守った'
'宇陀'
'宇宙は'
'学者は'
'学習'
'学生の'
'学校を'
'学士'
'学位'
'孤独'
'孤児'
'存在してい'
'存し'
'字が'
'子女'
'子供の頃_'
'子供の父親'
'子供たちが_'
'子どもだ'
'子として'
'嬉しいわ_'
'嫡男'
'嫌われて'
'嫌われ'
'嫌だ_'
'嫌が'
'嫌いなの'
'媒'
'婚約者'
'婚約'
'娘と'
'娘で'
'姿を消した_'
'姻'
'姬'
'姓は'
'姓_'
'始末'
'始められ'
'始まり_'
'姉小路'
'姉が'
'妻の'
'妻に'
'妻として'
'妬'
'妖'
'妊娠'
'妄想'
'如来_'
'如来'
'好奇心'
'好ま'
'好きにな'
'好きなんだ'
'好きなの_'
'好きです'
'好きだ_'
'好きじゃ'
'奴等'
'奴と'
'奴じゃない'
'奴か'
'女院'
'女性だ'
'女子大'
'女の子の'
'女の人'
'女の_'
'女な'
'女って_'
'奮戦'
'奪われ'
'奪って'
'奥様_'
'奢'
'奔'
'契'
'奉仕'
'奈良時代に'
'奈良時代'
'奇麗'
'奇妙な_'
'失礼だ'
'失望させ'
'失敗した_'
'失敗した'
'失われた'
'失われ'
'失くし'
'失う_'
'夫妻'
'太陽光'
'太陽の'
'太政官布'
'太政大臣'
'太平洋'
'太上'
'天神'
'天気が'
'天正1'
'天才だ'
'天国'
'天保1'
'大隊'
'大阪市'
'大部分'
'大輔'
'大臣_'
'大統領に'
'大江'
'大永'
'大正1'
'大橋'
'大日本帝国'
'大成'
'大徳'
'大寺_'
'大奥の'
'大声で'
'大原野'
'大原'
'大半の'
'大切に'
'大切なこと'
'大刀'
'大伴'
'大人だ'
'大人が'
'大事なの'
'大丈夫なのか_'
'大丈夫だから_'
'大きさで'
'大きさ'
'大いに'
'大_'
'夢に'
'夢で'
'夢だ_'
'夜を_'
'夜の間'
'夜にな'
'夜だった'
'多額'
'多量に'
'多量'
'多様性'
'多様'
'多くを'
'多くは'
'多くの時間'
'多くな'
'多く_'
'多いの'
'外部'
'外国人'
'外側'
'外れて'
'外に出た'
'外で_'
'外だ'
'外_'
'夏だ'
'変装'
'変化を'
'変わり'
'変わった_'
'変よ_'
'変えること'
'変えた_'
'声を出'
'声は_'
'声で'
'壬申の'
'士を'
'士の'
'士と'
'壌'
'壊れて'
'壊して'
'壊され'
'墓所は'
'墓地'
'墓は'
'境内_'
'境内'
'塵'
'填'
'塊'
'堺'
'場所だ_'
'場合は'
'場合がある'
'場で_'
'報告しな'
'報を'
'堕落'
'基に'
'基づ'
'執筆'
'執り'
'埴'
'域を'
'域に'
'埋葬され'
'埋め込'
'埋め合'
'埋'
'型_'
'地頭'
'地球の'
'地獄に'
'地方に'
'地方_'
'地域の'
'地域で'
'地域が'
'地位'
'地下室'
'地であ'
'地だ'
'地が'
'在这'
'在する'
'圧力を'
'圧力'
'土御門'
'土佐藩'
'土を'
'園_'
'国清'
'国家の'
'国守'
'国土安全保障'
'国中'
'国し'
'国か'
'国々'
'固ま'
'図に'
'困ら'
'団と'
'団が'
'因果'
'回収'
'回します_'
'四角形'
'四等'
'四男_'
'器に'
'器が'
'器_'
'噛まれた'
'噂が'
'嘘をついて'
'嘘じゃない'
'嗎_'
'喫'
'喪失'
'喝'
'喋り'
'問題です_'
'問題が_'
'問う'
'商売して'
'唱え'
'唯一の方法は_'
'哦_'
'員に'
'員_'
'品に'
'品と'
'和解'
'和泉'
'和歌集_'
'和服'
'和3年_'
'命名'
'命を落と'
'命を救った'
'命により'
'命だ'
'命じられ'
'呼べ_'
'呼べ'
'呼び戻'
'呼び名'
'呼び出した'
'呼ばれている_'
'呼ばれて'
'呼ば'
'周波数'
'周りの'
'周りに'
'告白し'
'呂'
'吾が'
'吹き飛ば'
'吸収し'
'吸わない'
'吸って_'
'含め_'
'含まれて'
'否定的'
'否'
'君を助け'
'君らは'
'君は彼'
'君は僕の'
'君はどう'
'君はその'
'君はこ'
'君はいつも'
'君の車'
'君の話'
'君の言う'
'君の父親'
'君の母'
'君の_'
'君に言'
'君に_'
'君だっ'
'君だけ'
'君たちが'
'君が来'
'君がど'
'君がこ'
'君から'
'向こう側'
'向こうに'
'向けて'
'向き合う'
'向いてない'
'名称は'
'名は_'
'名であ'
'同社'
'同盟'
'同様に_'
'同様'
'同時代の'
'同じ事'
'同し'
'吉祥'
'吉川'
'吉兵衛'
'合理的'
'合戦_'
'合わな'
'合わせ_'
'合は'
'合し'
'合え'
'合いが'
'司祭'
'司の'
'号の'
'右手'
'右の'
'叱ら'
'台無しに'
'台所'
'台の'
'台に'
'可能性を'
'可能性もあ'
'可能性が高'
'可能にな'
'可能です'
'召喚_'
'召喚'
'叫んだ'
'叫'
'古今'
'古事'
'古くからの'
'古くから'
'受信'
'受け継がれ'
'受け止める'
'受け止め'
'受け取る'
'受けられ'
'受けな'
'受けた_'
'取れる'
'取れな'
'取り戻した'
'取り出'
'取り乱し'
'取って_'
'収容'
'収ま'
'収し'
'反省し'
'反応が'
'友達を'
'友達に'
'友人が'
'友だち'
'及ば'
'及し'
'参議_'
'参加者'
'参内'
'去れ'
'去り'
'去って'
'去した'
'去し'
'原本は'
'原料'
'原作'
'原さん'
'却下'
'危険は'
'危険に晒'
'危'
'占領'
'占める'
'博士を'
'南禅寺'
'南東'
'協議会'
'協力的'
'協力に'
'協力する'
'協会'
'半分を'
'半分は'
'千代'
'千人'
'千万'
'十字架'
'十二支'
'十九'
'匿名'
'医者にな'
'医師の'
'医大'
'医の'
'区間'
'区別し'
'区に'
'匠を'
'北近畿タンゴ鉄道'
'北東'
'北区_'
'化を'
'化と'
'化された_'
'化された'
'化が'
'化_'
'勧進'
'勢力は'
'勢力'
'勢に'
'勝手に_'
'勝つこと'
'勝ちだ'
'勝し'
'務大'
'務を'
'務めた_'
'務は'
'勘弁し'
'動画'
'動物は'
'動物が'
'動揺'
'動する'
'動くと'
'動きが'
'勉強を'
'勉'
'効果的'
'効果を'
'効果がある'
'効かない'
'効い'
'劫'
'努力した'
'助言し'
'助六'
'助けよう'
'助けてく'
'助けて'
'助けが'
'助か'
'劣'
'加賀'
'加護'
'加し'
'加える'
'功し'
'力士'
'力を貸'
'力を持つ'
'力を持'
'力を使'
'力を_'
'力のある'
'力な'
'力で_'
'力がな'
'力がある'
'創造性'
'創設'
'創立'
'割合'
'割り当て'
'割り'
'割に'
'剤が'
'剤_'
'剣は'
'剣と'
'剖'
'前後'
'前国'
'前向きで'
'前向き'
'前を_'
'前は_'
'前の事'
'前の_'
'前に進'
'前では'
'前だ'
'前が'
'削った'
'刻み'
'刺青'
'刺身'
'刺して'
'刺し'
'刺され'
'刺さっ'
'刷'
'制御を'
'制定'
'制が'
'到達'
'到着する'
'到着し'
'到着_'
'利用すること'
'利用して_'
'利用して'
'利用し'
'利口'
'別当'
'別だ'
'別々'
'判った_'
'初期'
'初日'
'初代藩主_'
'初代_'
'初めて見た'
'初めての'
'刑務所にいた'
'刊行'
'刈り'
'切れて'
'切り取'
'切ら'
'切に'
'分解'
'分発'
'分布'
'分以'
'分な'
'分として'
'分った_'
'分ける'
'分かるんだ'
'分かるわ_'
'分かるか_'
'分かるか'
'分かりやす'
'分からなかった_'
'分かっています_'
'刀_'
'出身'
'出荷'
'出発し'
'出番だ'
'出産'
'出生'
'出演'
'出来る限り'
'出来るわ'
'出来るよう'
'出来ると'
'出来るだけ'
'出来ません_'
'出席する'
'出家_'
'出動'
'出会い'
'出世'
'出な'
'出で'
'出てる'
'出てきて'
'出て_'
'出たの'
'出せる'
'出せば'
'出される'
'出させ'
'出さ'
'出_'
'凶器'
'処罰'
'処刑さ'
'処刑'
'処分を'
'凄'
'冷静にな'
'冷泉家'
'冬の'
'冥'
'冠を'
'写した'
'冗談だろ'
'冗談だ'
'冗談じゃない'
'冒'
'円_'
'内密'
'内容は'
'兼家'
'兼任'
'典型的な'
'具体'
'兵士が'
'兵力'
'兵_'
'共通点'
'共産'
'公文'
'公卿'
'公共'
'公に'
'八郎'
'全面'
'全員死'
'全員を'
'全員で'
'全力を尽く'
'全てと'
'全てだ_'
'全てが_'
'入隊'
'入院し'
'入ると'
'入りた'
'入らない'
'入って来'
'入ってる'
'入って_'
'入った_'
'入する'
'党の'
'党に'
'党_'
'免許証'
'免許を'
'克服'
'光景'
'先輩に'
'先端'
'先生も'
'先生は'
'先生で'
'先を'
'先は'
'先に行'
'先で'
'兆候'
'充実'
'兄に'
'兄ちゃん'
'元通り'
'元禄1'
'元治元年'
'元気に'
'元気な'
'元気だっ'
'元気かい_'
'儲け'
'優勝'
'優しく'
'償い'
'億人'
'億ドル'
'儀式が'
'儀_'
'僧都'
'僧侶に'
'僧_'
'僕を見'
'僕らと'
'僕も_'
'僕は何'
'僕に_'
'僕だって'
'僕だ'
'僕が彼'
'像は'
'像が'
'働いてる_'
'働いた_'
'傾向があ'
'傷は'
'傷が'
'傲慢'
'催される'
'備えている'
'傍に'
'偽装工作'
'側が'
'側から'
'停めて'
'停まって'
'値段'
'値する'
'借りたい'
'倒れる'
'倒す'
'俺を見'
'俺を殺す'
'俺もだ_'
'俺は死'
'俺は今'
'俺はた'
'俺の言'
'俺のもの'
'俺のこと'
'俺とお前'
'俺だ'
'俺たちは_'
'俺たちに'
'俺が行'
'俺がや'
'俺か'
'俳'
'俣'
'信頼を'
'信頼できる'
'信頼してる'
'信長の'
'信用できる'
'信じられる'
'信じな'
'信じてない'
'信じてくれ'
'信じてい'
'信じたい'
'信して'
'保障'
'保護する'
'保管庫'
'保管し'
'保管'
'保持'
'保守'
'係な'
'便所'
'便利'
'侵入し'
'侵入'
'価値は'
'価値がある_'
'価値が'
'依存してい'
'侍_'
'例を'
'例_'
'使者'
'使わ'
'使ってた'
'使えば'
'使えな'
'使うと'
'使う_'
'使いま'
'使_'
'作者'
'作業員'
'作戦を'
'作動'
'作ろう'
'作れ'
'作るん'
'作ることが'
'作り方'
'作りま'
'作られ'
'作で'
'作ってくれな'
'作って_'
'余計なお世話だ'
'余裕が'
'余分'
'余儀なくされ'
'余り'
'何言'
'何者か'
'何考えて'
'何百万'
'何時も'
'何時に'
'何度も何度も'
'何処にあ'
'何処だ_'
'何を言ってるの'
'何を言って'
'何を言い'
'何を見'
'何を考えて'
'何をやってる'
'何をしている'
'何や'
'何も触'
'何も見つ'
'何もかも'
'何の用だ_'
'何のために'
'何のこと'
'何にも'
'何でもする'
'何でそ'
'何ですか'
'何でしょう'
'何て言っ'
'何てこ'
'何だって'
'何が起こっている'
'何が起こって'
'何が起こったか'
'何が起きた'
'何がお'
'何があ'
'何か気'
'何か新しい'
'何か他の'
'何かを_'
'何から'
'何かの_'
'何かに'
'何かが_'
'何かいる'
'体験し'
'体重'
'体系'
'体内に'
'体内'
'体は_'
'体の一'
'体_'
'佐野'
'佐々木'
'佐々'
'住持'
'住所を'
'住居'
'位も'
'伽'
'似てる'
'伺い'
'伸びる'
'伯父'
'伝説の'
'伝統的な'
'伝統的'
'伝わ'
'伝6'
'会議を'
'会社で'
'会は'
'会って_'
'会おう_'
'会いに行く'
'会いたくない_'
'会いたかった'
'休暇'
'休日'
'休息'
'休んだ'
'伏せろ_'
'伏'
'伎'
'伊達'
'伊豆'
'伊藤'
'伊東'
'伊勢貞'
'企業は'
'企業の'
'企んで'
'任意'
'任せ'
'件も'
'件の'
'件に'
'件が'
'仲間は_'
'仲間_'
'仮面'
'仮名遣'
'以降は_'
'以降は'
'以外'
'以内に_'
'以下のように'
'以上を'
'以上に'
'令で'
'代金'
'代表_'
'代目'
'代将軍'
'代償'
'付ける_'
'他者'
'他人'
'他の誰に'
'他に誰'
'他に何か'
'他には'
'仕業だ'
'仕事をや'
'仕事をする'
'仕事なん'
'仕事です'
'仕えた'
'仕え_'
'仏教の'
'今言'
'今日こ'
'今日から'
'今度は何'
'今度こそ'
'今天'
'今夜こ'
'今回は_'
'今何'
'今までの'
'今まで_'
'今のうちに'
'今さ'
'仇'
'仁の'
'什麼'
'人類は'
'人間と'
'人間で'
'人間が_'
'人生が'
'人物は_'
'人物だ'
'人物_'
'人格'
'人手'
'人員'
'人前で'
'人を殺す'
'人を殺'
'人や'
'人もい'
'人にな'
'人とな'
'人と_'
'人っ'
'人だった_'
'人たちは'
'人さん'
'京都大'
'交通事故で'
'交渉を'
'交渉し'
'交替'
'交わ'
'亡くなられた'
'亡くな'
'亡くして'
'亡くした_'
'井家'
'井さん'
'五郎_'
'五行'
'五_'
'云'
'二本'
'二代目'
'二の'
'事故を'
'事故で'
'事故だ_'
'事態を'
'事態は'
'事実を'
'事実に'
'事実だ'
'事件が'
'事を言う'
'事なんだ'
'争っ'
'予言者'
'予算'
'予想し'
'予定を'
'予定で'
'了解しました_'
'亀岡市'
'乳母'
'乱用'
'乱れ'
'乱の'
'乱に'
'乞'
'乗り越えた'
'乗り換え'
'乗らない'
'乗っ取'
'久しぶりに'
'主義で'
'主神'
'主張で'
'主張す'
'主張して'
'主導'
'主君'
'主任'
'主で'
'丸を'
'丸が'
'中途半端'
'中華'
'中納言'
'中期'
'中心部'
'中御門'
'中小'
'中尉'
'中央政'
'中央に'
'中国人'
'中だ'
'中が'
'並べ'
'並ぶ'
'両親の'
'両親と'
'両親が'
'両手'
'両_'
'丞'
'世界中の'
'世界中に'
'世界で最も'
'世子'
'与えられて'
'与えられ'
'与えてくれ'
'与えて'
'不運'
'不足に'
'不起'
'不法侵入'
'不況'
'不明だ'
'不幸に'
'不審に'
'不可能な'
'不可能'
'下着'
'下ろ'
'下にあ'
'下した'
'下げる'
'上院議員_'
'上記'
'上洛し'
'上杉'
'上昇_'
'上方'
'上手く行く'
'上層'
'上官'
'上位'
'上は_'
'上の問題'
'上にあ'
'上です_'
'上げろ_'
'上がる'
'三番'
'三男'
'三河'
'三度目'
'三島'
'三国'
'三千'
'三兄'
'三井'
'丈夫だ_'
'丈夫だ'
'丈夫_'
'丈夫'
'万葉'
'七五三'
'丁目'
'一護_'
'一般的に'
'一致した'
'一緒だった'
'一種の'
'一種'
'一生_'
'一気に'
'一時的'
'一旦'
'一日中'
'一方で'
'一斉'
'一度_'
'一帯'
'一回'
'一刻'
'一体何を'
'一体何だ'
'一人にして'
'一世'
'一は'
'一に'
'一つ目'
'一つ_'
'ールが'
'ーマ'
'ーブ'
'ースト'
'ース_'
'ーガ'
'ーも'
'ーだ'
'ーす'
'ーこ'
'ーが_'
'ーが'
'ーから'
'・・'
'ヶ所'
'ヴン'
'ヴィッ'
'ヴァイ'
'ン博士'
'ントン'
'ンソ'
'ンセ'
'ンも'
'ンは_'
'ンです_'
'ンで_'
'ンって'
'ンか'
'ワビ'
'ワトソン'
'ワシは'
'ワシの'
'ワシ'
'ワクワク'
'ワイヤー'
'ローレライ'
'ローラ'
'ローマの'
'ローマ'
'ロー_'
'ロンの'
'ロン_'
'ロマンス'
'ロボ'
'ロブ'
'ロバート_'
'ロット'
'ロッカー'
'ロジャー'
'ロサ'
'ロキ'
'ロイ_'
'レーン'
'レー_'
'レンタ'
'レモ'
'レミー'
'レポー'
'レニ'
'レッスン'
'レチェロ'
'レダ'
'レター'
'レスター'
'レシピ'
'レクター'
'レク'
'レイチェル'
'ルームメ'
'ルーク_'
'ルーカ'
'ルル'
'ルニア'
'ルデ'
'ルタ'
'ルズ_'
'ルシ'
'ルよ_'
'ルは_'
'ルさん_'
'リーを'
'リーの'
'リーと'
'リング_'
'リュー'
'リバー８'
'リバー'
'リック_'
'リダ'
'リストは'
'リスクを'
'リスクが'
'リジ'
'リグ'
'リカ'
'リオ_'
'リィ'
'ラー_'
'ランバー'
'ランドに'
'ランディング'
'ラルフ'
'ラル'
'ラボに'
'ラベル'
'ラド'
'ラテ'
'ラップ'
'ラッシ'
'ラッキー'
'ラウンド'
'ラウ'
'ライラ'
'ライター'
'ライズ'
'ライス'
'ライオネル_'
'ラで'
'ヨリ'
'ョ'
'ユーリ'
'ユージーン'
'ュア'
'ヤマト'
'ヤダ'
'ヤク'
'ヤの'
'モード'
'モンド_'
'モンスターを'
'モルドール'
'モリー'
'モモ_'
'モニ'
'モテ'
'モウ'
'メント_'
'メロン'
'メデ'
'メタ'
'メキシ'
'ムン'
'ムショ'
'ムが'
'ミリアム'
'ミット_'
'ミッシー'
'ミスだ'
'ミカ'
'ミは'
'マーチ'
'マンデ'
'マンを'
'マンは_'
'マンは'
'マルセル'
'マリア'
'ママを'
'ママと'
'マフィア'
'マネー'
'マニュ'
'マド'
'マトボ'
'マティ'
'マッド'
'マッチし'
'マッチ'
'マッシ'
'マズい'
'マスター'
'マス_'
'マジック'
'マジで'
'マシンを'
'マシンは'
'マシンの'
'マクギ'
'マギー_'
'マキ'
'マイア'
'マを'
'マの'
'マに'
'ポール_'
'ポニー'
'ポテト'
'ポット'
'ポスター'
'ボランティア'
'ボトル'
'ボッスン'
'ボタン'
'ボスは_'
'ボスだ_'
'ボクの'
'ボイ'
'ボ_'
'ホームズ_'
'ホームズ'
'ホントか'
'ホテルを'
'ホテル_'
'ホスト'
'ホシ'
'ペンギン'
'ペリー'
'ベート'
'ベーコン'
'ベー'
'ベン_'
'ベレ'
'ベルは'
'ベネ'
'ベッドで'
'ベット'
'ベッキ'
'ヘリコ'
'ヘッド'
'プン'
'プロセ'
'プログラムを'
'プロの'
'プレッシャー'
'プレス'
'プレイし'
'プレイ'
'プラチ'
'プラスチック'
'プソン'
'プが'
'ブロンド'
'ブルー_'
'ブルク'
'ブリー'
'ブリッジ'
'ブラー'
'ブランデ'
'ブラックウ'
'ブド'
'ブチ'
'フン'
'フロン'
'フレンド'
'フランクリン'
'フラッ'
'フフッ_'
'フタ'
'フス'
'フェー'
'フェル'
'フェラー'
'フェザー'
'フィールドに'
'フィッツ'
'フィクション'
'ファースト'
'ファッ'
'ファスコ'
'ファイルは'
'フは'
'フの'
'フだ_'
'ピート_'
'ピーを'
'ピング'
'ピリ'
'ピッタ'
'ピスト'
'ピク'
'ピエ'
'ビーに'
'ビルに'
'ビリー'
'ビラ'
'ビビっ'
'ビックリ'
'ビタミン'
'ビジ'
'ビショッ'
'ビクター'
'ヒロ'
'ヒョ'
'ヒマ'
'ヒトラー'
'ヒップ'
'ヒット'
'ヒッ'
'パレ'
'パル'
'パペッ'
'パフ'
'パニックに'
'パナ'
'パキスタン'
'パウ'
'バービー'
'バーナ'
'バースデ'
'バーガー'
'バーは'
'バーに'
'バンビ'
'バレー'
'バレンタイン'
'バラバラに'
'バブ'
'バナナ'
'バディ'
'バッグ'
'バター'
'バスに乗'
'バケ'
'バクテリア'
'バク'
'バカ野'
'バカみたい'
'バカだ'
'バカげ'
'バカか'
'バイト'
'バイス'
'バイク'
'ハンニバル'
'ハンク_'
'ハワ'
'ハロー_'
'ハロウィン'
'ハリウッド'
'ハット'
'ハチ'
'ハイウェイ'
'ハァ_'
'ノーベル'
'ノル'
'ノス'
'ノオ'
'ノの'
'ノが'
'ネルギー'
'ネック'
'ネタ'
'ネガ'
'ネイサン_'
'ネは'
'ネに'
'ヌ_'
'ニューヨーク市'
'ニュースは'
'ニュージ'
'ニシャ'
'ニケーション'
'ニキータ_'
'ニオ'
'ナル'
'ナラ'
'ナマ'
'ナビ'
'ナノ'
'ナニ'
'ナチ'
'ナタリ'
'ナシ'
'ナイジェ'
'ドン_'
'ドワ'
'ドルだ'
'ドリン'
'ドラマ_'
'ドラッグ'
'ドライバー'
'ドミニク'
'ドッグ'
'ドス'
'ドグ'
'ドクター'
'ドク_'
'ドアを閉めろ_'
'ドは_'
'ドさん'
'トンの'
'トンで'
'トロー'
'トロイ'
'トラヴィス'
'トムは'
'トナム'
'トナ'
'トス'
'トだ_'
'データベース'
'デルフィ'
'デューク'
'デビッド'
'デニス'
'デタラメ'
'デクス'
'デオ'
'デイブ'
'ディーン_'
'ディー_'
'ディン'
'ディフ'
'ディッ'
'テーブルの'
'テレビを見'
'テレサ_'
'テリ'
'テメエ'
'テッド_'
'テッド'
'テク'
'ティー_'
'ティン_'
'ティリ'
'ティッ'
'ティア'
'テ_'
'ツェ'
'ツは_'
'ツだ'
'ツが_'
'ップに'
'ッパ'
'ッドに'
'ットと'
'ッサー'
'ッグ'
'ックス_'
'ックを'
'ッカー'
'チームを'
'チームと'
'チーフ'
'チューブ'
'チュン'
'チャールズ_'
'チャンピオン_'
'チャド'
'チャック'
'チャク'
'チェーンソ'
'チだ'
'チが'
'ダース'
'ダーシー'
'ダーウィン'
'ダーの'
'ダー_'
'ダメなの_'
'ダメだっ'
'ダニエル'
'ダウンロード'
'ダウンし'
'ダウン'
'ダが'
'ターク'
'ターの'
'タンの'
'タリー'
'タフ'
'タニ'
'タイヤ'
'タイプの'
'タイプじゃ'
'タイプ_'
'ゾーン'
'ソーシャル'
'ソンの'
'ソフィ'
'ソファー'
'ソナ'
'ゼリ'
'ゼフ'
'ゼット'
'セント_'
'センターの'
'セルの'
'セル_'
'セット_'
'セッ'
'セス_'
'セクシー'
'ズラ'
'ズマ'
'ズは'
'ズです'
'ズだ'
'スーパースター'
'スーツを'
'スワ'
'スロ'
'スレ'
'スリー'
'スペース'
'スピードで'
'スパイが'
'ストーリー'
'ストリート'
'ステーキ'
'ステー'
'ステン'
'ステファ'
'ステップ'
'ステキな'
'スティン'
'スターの'
'スタイ'
'スサ'
'スコフィールドと'
'スコッ'
'スクー'
'スカー'
'スカウト'
'スカイウォーカー'
'スイッチを'
'ジーン'
'ジン_'
'ジル'
'ジョーダン'
'ジョンは'
'ジョニー_'
'ジュール'
'ジュード_'
'ジュリー'
'ジュニア'
'ジャーナリ'
'ジャングル'
'ジャンの'
'ジャニス'
'ジャス'
'ジャケット'
'ジャク'
'ジナル'
'ジッ'
'ジェームス'
'ジェラ'
'ジェフ_'
'ジェフ'
'ジェニ'
'ジェイソン_'
'ジェイコブ'
'ジェイク'
'シールド'
'シーズン'
'シーと'
'シー_'
'シリーズ'
'ショーに'
'ショッ'
'シャーロット'
'シャーロック_'
'シャワーを'
'シャドウ'
'シャツを'
'シャ_'
'シモンズ'
'シマ'
'シチュー'
'システムは'
'システムの'
'システムで'
'システム_'
'シスター_'
'シス'
'シェーン'
'シェイ'
'ザーラ'
'ザリ'
'ザイ'
'サービスを'
'サーを'
'サンプル'
'サンズ'
'サンサ'
'サリ'
'サラダ'
'サポート'
'サッカー'
'サカ'
'サインを'
'サイモン'
'サイバ'
'ゴールド'
'ゴールデン'
'ゴム'
'コンプ'
'コンバ'
'コンド'
'コンサルタント'
'コンクリート'
'コロンビア'
'コリ'
'コラ'
'コメント'
'コミュニティー'
'コミッ'
'コマ'
'コナー'
'コック'
'コソ'
'ココ'
'コカ'
'コイン'
'ゲーリー'
'ゲームを'
'ゲル'
'ゲラ'
'ゲイリー'
'ケーブル'
'ケート'
'ケーキ_'
'ケンカし'
'ケル'
'ケリー_'
'ケリをつけ'
'ケビン'
'ケニ'
'ケイレブ'
'グループに'
'グルー'
'グリム'
'グラン'
'グラム'
'グラス'
'グス'
'グを'
'クローン'
'クレス'
'クレア_'
'クレア'
'クルの'
'クリンゴン'
'クリックし'
'クリッ'
'クリスマス_'
'クリストファー'
'クリスチャン'
'クリスタル'
'クラッ'
'クラウス'
'クビ'
'クトル'
'クッ'
'クターが'
'クズメンコ'
'クション'
'クウ'
'クは'
'クっ'
'クだ'
'クさん'
'ギル'
'ギリシャの'
'ギュ'
'ギタ'
'ギが'
'ギ_'
'キングズ'
'キリし'
'キラ'
'キュート'
'キャンディ'
'キャラ'
'キャプテン'
'キッド'
'キッチン'
'キック'
'キチガイ'
'キシ'
'キは'
'ガーは'
'ガンマ'
'ガンで'
'ガリア'
'ガリ'
'ガラ'
'ガチ'
'カート'
'カーター_'
'カーは'
'カーが'
'カルロス'
'カリフ'
'カメラが'
'カメ'
'カブ'
'カバン'
'カナダ'
'カツ丼'
'カップル'
'カオス'
'カと'
'オープ'
'オーバーレイ'
'オーケー_'
'オー_'
'オン_'
'オレは_'
'オレたちは'
'オルガン'
'オリーブ'
'オリヴィ'
'オリンポスを'
'オヤ'
'オマ'
'オペラ'
'オビ_'
'オニ'
'オド'
'オット'
'オタ'
'オケ'
'オイル'
'オイ'
'ォル'
'ォ'
'エンジンが'
'エロ'
'エルト'
'エリック_'
'エリック'
'エリソン'
'エリザベス'
'エボ'
'エディ_'
'エデ'
'エット'
'エッシャー'
'エチ'
'エゴ'
'エイブリー'
'ウンド'
'ウワ'
'ウラ'
'ウソを'
'ウケ'
'ウォーレン'
'ウエス'
'ウェブサイト'
'ウェスト'
'ウェイト'
'ウイス'
'ウィンチェスター'
'ウィルフ'
'ウィリ'
'イーサン_'
'イヴ'
'インディアン'
'インタビュー'
'インク'
'イリ'
'イライラし'
'イム'
'イプ'
'イバ'
'イノベー'
'イナ'
'イデ'
'イツ'
'イット'
'イカレ'
'イカ'
'イエス_'
'イア'
'ィッ'
'アール'
'アーチ'
'アーカ'
'アントニ'
'アント'
'アンディ'
'アンダー'
'アンジー_'
'アンジェラ'
'アンは'
'アン_'
'アルバム'
'アルバ'
'アルコ'
'アリス_'
'アライグマ'
'アメリカは'
'アメリカでは'
'アフ'
'アピ'
'アパートに'
'アデ'
'アウト_'
'アイリーン'
'アイデアを'
'アイデ'
'アイザック'
'ァ_'
'んのか'
'んなことを'
'んど'
'んですけど_'
'んですから_'
'んでしょうね_'
'んできた'
'んでいま'
'んち'
'んだわ_'
'んだよな'
'んだったら_'
'んだぜ_'
'んだけど'
'んじゃないですか_'
'んじゃないか_'
'んが_'
'を飲む'
'を食べ'
'を食い'
'を頼む_'
'を非難'
'を離れ'
'を開始'
'を開い'
'を重'
'を選ん'
'を過'
'を運んで'
'を進め'
'を通じて_'
'を逃'
'を送っ'
'を追って'
'を追いかけ'
'を述べ'
'を迎える'
'を迎'
'を辞任_'
'を身'
'を踏'
'を超える'
'を起こ'
'を走っ'
'を買って'
'を護'
'を読'
'を認める'
'を設'
'を解放'
'を覚えてい'
'を覚'
'を見出'
'を見ることが'
'を見な'
'を見てた'
'を見てく'
'を見つけました_'
'を見つけて'
'を見たんだ'
'を装'
'を被'
'を行ってい'
'を行った_'
'を行った'
'を行う_'
'を行い_'
'を落と'
'を自'
'を聞き'
'を考える'
'を続けて'
'を統'
'を結んだ'
'を結'
'を経て_'
'を経'
'を終わらせ'
'を終え'
'を築いた'
'を立て'
'を立'
'を称え'
'を私'
'を示して'
'を知らない'
'を着て'
'を着'
'を目指'
'を疑'
'を用意'
'を生む'
'を生み出す'
'を理解'
'を無視して'
'を滅'
'を準備'
'を満た'
'を測'
'を済ま'
'を浴び'
'を派遣する'
'を決める'
'を求める'
'を気'
'を殺そうとし'
'を残す'
'を残し'
'を検'
'を果たした'
'を望ん'
'を望む'
'を有し'
'を明'
'を教えて'
'を救っ'
'を救え'
'を救'
'を撮'
'を撃つ'
'を掛け'
'を掘'
'を指し'
'を持って来'
'を持ってる_'
'を持ってる'
'を持っている_'
'を押して'
'を払う'
'を感じる'
'を意味'
'を思い出す'
'を必要と'
'を後'
'を待ってい'
'を強'
'を引'
'を廃'
'を尽く'
'を少'
'を封'
'を実'
'を学ぶ'
'を学び'
'を嫌い_'
'を女'
'を変える'
'を変えた_'
'を売る'
'を壊し'
'を図った'
'を図'
'を呼ん'
'を呼'
'を吹'
'を含ん'
'を含め'
'を否定する'
'を名乗'
'を同'
'を合わせ'
'を受け取った'
'を受ける_'
'を取り出'
'を参照_'
'を務めた'
'を助ける'
'を助けて'
'を助けた'
'を創'
'を割'
'を兼任'
'を兼ね'
'を全部_'
'を入手'
'を免れ'
'を修'
'を使用し'
'を使った'
'を使え'
'を作る_'
'を作って_'
'を何とか'
'を伝え'
'を人'
'を交わし'
'を主張し'
'を中心とし'
'を世'
'を与える'
'を与えられ'
'を下さ'
'を上げて'
'を上'
'をよこ'
'をやっ'
'をもって'
'をの'
'をね_'
'をなく'
'をな'
'をとる'
'をつな'
'をつける'
'をつく'
'をつい'
'をた'
'をその'
'をそ'
'をするの'
'をすること'
'をしてるんだ_'
'をしてた_'
'をしてた'
'をしているんだ_'
'をしていた_'
'をし_'
'をさせて'
'をくれた'
'をく'
'をお願いし'
'をう'
'を3'
'を2'
'を10'
'わん'
'われない'
'われ_'
'わらない'
'わないで'
'わった'
'わっ_'
'わしは_'
'わし_'
'わされ'
'わけには'
'わけだ'
'わけ_'
'わくわく'
'わからなかった_'
'わからな'
'わかってます_'
'わかっている_'
'ろが'
'ろうって_'
'れるな'
'れも'
'れまで'
'れません_'
'れます'
'れま'
'ればよ'
'れな'
'れど'
'れてた'
'れてしまう'
'れている'
'れていま'
'れていない'
'れだ'
'れい'
'る者は'
'る者'
'る為に'
'る所'
'る必要がある_'
'る必要が'
'る大'
'る場'
'る友'
'る前に_'
'るんです_'
'るんです'
'るんじゃない'
'るんじゃ'
'るわけで'
'るよな_'
'るように言'
'るようになった_'
'るもので'
'るみ'
'るべきで'
'るには_'
'るなんて_'
'ると言'
'ると思う_'
'るといい'
'るだろ_'
'るだけ_'
'るだ'
'るための'
'るじゃ'
'ることもでき'
'ることになる'
'ることにな'
'ることにした_'
'ることに'
'ることです'
'ることで'
'ることが多'
'ることができる'
'ることか'
'ること_'
'るからね_'
'るかも'
'るかと'
'り出し'
'り付け'
'りを_'
'りょう'
'りゃ_'
'りました'
'りなの'
'りなさい_'
'りつけ'
'りたいの'
'りして_'
'ら私'
'られるように'
'られま'
'られなかった_'
'られてる'
'られたと'
'らば'
'らぬ'
'らなきゃ'
'らないんだ'
'らないように'
'らないと_'
'らって'
'らっしゃる'
'らっ'
'らして'
'らしくない'
'らしく'
'らされ'
'らかの'
'らお'
'よーし'
'よー_'
'よろ'
'よれば'
'より良く'
'より数'
'より大きな'
'より大'
'よそ者'
'よさ'
'よければ_'
'よく見て'
'よく分から'
'よく分か'
'よかったん'
'よぉ_'
'ようやく_'
'ように言'
'ように思'
'ようにや'
'ようにね_'
'ようになった'
'ようにと'
'ようにして_'
'ようとしてる'
'ようとしてい'
'ようぜ_'
'ようがない'
'ようが'
'ようか'
'ゆく'
'ゆき'
'ゅ'
'や水'
'や家族'
'や他の'
'やろうか'
'やろ'
'やれる'
'やるんだ_'
'やるべき'
'やるのは'
'やるな'
'やるぞ_'
'やるしか'
'やり方で'
'やります_'
'やられた_'
'やられた'
'やられ'
'やらね'
'やも'
'やめなさい_'
'やめな'
'やめとけ_'
'やめさせ'
'やば'
'やつらは'
'やつは'
'やっぱ_'
'やっと_'
'やって来'
'やってん'
'やっても'
'やってみる'
'やってみましょ'
'やってま'
'やってない'
'やってくれ_'
'やっつけ'
'やったんだ'
'やったわ'
'やったのか'
'やったの_'
'やそ'
'やすく'
'やがて_'
'やかに'
'やかな'
'やい'
'やぁ'
'ゃん_'
'ゃな'
'も飲'
'も重'
'も言わ'
'も見た'
'も良い_'
'も知れ'
'も知らない'
'も知'
'も発'
'も気'
'も有'
'も時'
'も教'
'も持'
'も手'
'も必要だ'
'も少な'
'も変'
'も喜んで'
'も含めて_'
'も同じこと'
'も同'
'も参'
'も動'
'も信じ'
'も不'
'も上'
'も一'
'もんね_'
'もんだ'
'もらったん'
'もらおう'
'もらえるか'
'もらいたい'
'もらい'
'もめ'
'もほ'
'ものも'
'ものの_'
'ものではなく_'
'ものでした'
'ものであり_'
'ものであった_'
'ものがあ'
'もなかった_'
'もないし_'
'もできる'
'もつか'
'もっと良い'
'もたらして'
'もそうだ'
'もせず_'
'もし彼が'
'もしれない'
'もした'
'もしそうなら_'
'もしそ'
'もう少しだ'
'もう子'
'もう大丈夫だ'
'もう大丈夫_'
'もう一度言って'
'もう一回'
'もうや'
'もうない'
'もうと'
'もうこ'
'もういいわ_'
'もういいから'
'もう1つは'
'もう1つ'
'もいます'
'もいない'
'もいいか'
'もあるの'
'もあり_'
'めるの'
'めよう'
'めてる_'
'めちゃくちゃ'
'むよう'
'むと'
'むしろ_'
'むし'
'みんな知って'
'みんなを'
'みましょ'
'みのり'
'みと'
'みて_'
'みだ'
'みたいな感じ'
'みたいなもん'
'みたいだけど_'
'みす'
'みえた'
'まれる_'
'まれる'
'まれま'
'まれな'
'まれている'
'まれ_'
'まるで_'
'まりま'
'まりに'
'まみ'
'まとも'
'まとめる'
'まで続い'
'まで来'
'までもな'
'までも'
'までど'
'まです_'
'まで1'
'まつり_'
'まって_'
'まだ終わって'
'まだ彼'
'まだ何'
'また来'
'また別の'
'またお'
'ませんから'
'ますよ'
'ますので_'
'ますから_'
'ますか'
'ましょ_'
'まさに_'
'まくっ'
'ぼし'
'ぼくを'
'ほどに'
'ほどで'
'ほっと'
'ほしいん'
'ほうがいい_'
'ほうがいい'
'べり'
'べて_'
'べし_'
'べく_'
'べきだった_'
'べきか_'
'べき_'
'べ_'
'へ連'
'へ移動'
'へ移'
'へ入っ'
'へようこそ_'
'へは'
'ぷら'
'ぶりを'
'ぶら'
'ぶつけ'
'ぶつかっ'
'ぶって'
'ふる'
'ふっ'
'ふたり'
'ふざける'
'ふさわしい'
'びり'
'びく'
'ひょっとし'
'ひょ'
'ひとつの'
'ひっくり返'
'ひこ'
'ひい'
'ぱい'
'ばん_'
'ばん'
'ばれて'
'ばれ'
'ばる'
'ばらく'
'ばならない'
'ばない'
'ばっか'
'ばっ'
'ばせ'
'ばこを'
'ばかりで_'
'ばかりだ_'
'ばいい_'
'は非常に'
'は難'
'は限りません'
'は閉'
'は重要'
'は重'
'は通常'
'は足'
'は起'
'は話せ'
'は言わ'
'は見つかっ'
'は良く'
'は空'
'は科学'
'は私を'
'は私に'
'は禁止'
'は神'
'は知らなかった'
'は皇'
'は現在'
'は無理だ'
'は無かった'
'は無い_'
'は海'
'は流'
'は気'
'は残'
'は正しかった_'
'は楽'
'は東'
'は本物'
'は本当に'
'は明治'
'は新し'
'は息'
'は恐'
'は思わ'
'は必要ない'
'は心'
'は彼の'
'は廃'
'は年'
'は平安時代'
'は平'
'は完'
'は安'
'は娘'
'は好'
'は女'
'は大丈夫'
'は変え'
'は君を'
'は同'
'は可能'
'は古'
'は取'
'は別の'
'は初め'
'は再'
'は公'
'は僕'
'は何処'
'は何も_'
'は何だっ'
'は何か'
'は何_'
'は会'
'は伊'
'は任'
'は以下の'
'は仕'
'は交'
'は主'
'は下'
'は三'
'は一人'
'はピ'
'はダメだ_'
'はダメ'
'はジョ'
'はん'
'はわ'
'はる_'
'はる'
'はやめ'
'はほ'
'はね_'
'はならない'
'はないでしょう'
'はどの'
'はどこで'
'はどうして'
'はできる'
'はでき'
'はただ'
'はせ'
'はずで'
'はずだ'
'はずがない'
'はじめて'
'はしません'
'はした'
'はここ'
'はいません'
'はいけ'
'はいかが_'
'はいえ'
'はあるの'
'はありますか_'
'はあります'
'はあり'
'の高い'
'の養子'
'の頭'
'の集'
'の際_'
'の間に_'
'の間'
'の長男_'
'の鍵を'
'の部分'
'の違'
'の造'
'の通り_'
'の近く'
'の跡'
'の質'
'の諸'
'の調'
'の誰'
'の誕生'
'の誓い'
'の話は'
'の話_'
'の証拠'
'の設'
'の計画を'
'の言'
'の要'
'の裏'
'の表'
'の能力'
'の背'
'の経済'
'の経営'
'の経'
'の約'
'の系統'
'の策'
'の立場'
'の秘'
'の社長'
'の確'
'の相'
'の目的'
'の盗'
'の皇'
'の的'
'の略'
'の町'
'の男を'
'の男が'
'の申し'
'の状況'
'の犯罪'
'の無い'
'の無'
'の為に'
'の源頼'
'の残'
'の死後'
'の歴史'
'の権力'
'の権利'
'の木'
'の服を'
'の最初の'
'の時期'
'の時か'
'の映画'
'の新'
'の整'
'の攻撃'
'の推挙'
'の手紙'
'の戦'
'の意見'
'の悪い'
'の患者'
'の後ろ'
'の弁'
'の市'
'の巻'
'の差'
'の小さ'
'の専'
'の富'
'の宿'
'の宮'
'の守護'
'の子で'
'の婿'
'の始まり'
'の妹'
'の奴'
'の太'
'の大きさ'
'の変化'
'の売人'
'の城'
'の地位'
'の命令'
'の命により'
'の味'
'の君'
'の向'
'の吉'
'の合'
'の反'
'の友人'
'の友'
'の危'
'の効果'
'の加'
'の創'
'の利'
'の内部'
'の儀'
'の使用'
'の位置'
'の任'
'の代表'
'の代理'
'の代わりに'
'の仕組み'
'の人々を'
'の乗'
'の中を'
'の中の'
'の中には_'
'の中では'
'の中_'
'のリー'
'のリ'
'のハ'
'のドア'
'のチーム'
'のシャ'
'のサ'
'のケ'
'のエン'
'のん'
'のを見た'
'のり'
'のような_'
'のようだ'
'のめして'
'のみや'
'のみな'
'のみが'
'のほと'
'のほうが'
'のなら'
'のなかで'
'のですが'
'のです'
'のでしょうか_'
'のだった_'
'のこの'
'のくらい'
'のかね_'
'のおかげ'
'のうち'
'のう'
'の20'
'ねー_'
'ねん_'
'ねて'
'ねって'
'ねえんだよ_'
'ねえんだ_'
'ねえんだ'
'ねえだろ_'
'ぬか'
'に頼ん'
'に際して'
'に陥'
'に長'
'に選'
'に遭'
'に達し'
'に過ぎない'
'に連れ'
'に造'
'に逃'
'に追'
'に足'
'に起'
'に譲'
'に詳しい'
'に話した'
'に言わ'
'に触れ'
'に行った_'
'に落'
'に苦'
'に良'
'に至っ'
'に聞く'
'に聞'
'に耐え'
'に考えな'
'に考え'
'に置い'
'に繋'
'に編'
'に立ち向か'
'に私'
'に知らせ'
'に相当'
'に相'
'に登録'
'に由'
'に用い'
'に満'
'に渡っ'
'に注意'
'に決まって'
'に決'
'に比'
'に殺される'
'に殺'
'に来たん'
'に来'
'に書い'
'に書'
'に映'
'に昇'
'に数'
'に描'
'に投'
'に手'
'に戻る'
'に戻って'
'に戻った'
'に成功し'
'に感染'
'に思う'
'に応じ'
'に応え'
'に必'
'に御'
'に従う'
'に従い'
'に後'
'に当たっ'
'に当'
'に強'
'に建'
'に広'
'に帰る'
'に就任'
'に少し'
'に対抗'
'に家'
'に存在'
'に子'
'に始'
'に失敗し'
'に天'
'に変更'
'に基づいて'
'に回'
'に問題が'
'に問'
'に呼'
'に合わせ'
'に匹敵する'
'に動'
'に加えられ'
'に加'
'に利用'
'に全'
'に入る_'
'に入ってい'
'に値する_'
'に住んで'
'に低'
'に似て'
'に伴'
'に伝えて'
'に伝'
'に会い'
'に任命'
'に任じられて'
'に乗った'
'に与'
'に一度'
'にス'
'にサ'
'にん'
'にわ'
'によるもの'
'にやら'
'にや'
'にまで'
'にま'
'には近'
'には及'
'にはなら'
'にね_'
'になれば_'
'になるだろ'
'になっている_'
'にだ'
'にその'
'にしようと'
'にしない'
'にしと'
'にしてや'
'にしている'
'にされ'
'にこだわる'
'においても'
'にいました'
'にあたり_'
'にあたった'
'に3'
'な部'
'な男'
'な生'
'な物'
'な存在'
'な動'
'なんなの_'
'なんとかする'
'なんでも'
'なんでしょう'
'なんて言って'
'なんて言う'
'なんて言'
'なんてこと_'
'なんてこった_'
'なんだって'
'なろう'
'なれる_'
'なれる'
'なれば_'
'なれな'
'なるんだ'
'なるべ'
'なるでしょう'
'なるか'
'なりた'
'なりす'
'ならないの'
'ならどう'
'なもので'
'なめ'
'なのは'
'なのね_'
'なにも'
'などと_'
'などがある_'
'なつ'
'なっても'
'なってしまった'
'なっていた_'
'なっちゃん'
'なっちゃ'
'なったら_'
'なたに'
'なぜ彼'
'なぜなら私'
'なぜここに'
'なしで_'
'なしだ'
'なことに_'
'なければい'
'なくても'
'なくては'
'なきゃな'
'なが'
'なかったんだ_'
'なかったん'
'なかったので'
'なかったと'
'なかったって'
'なかっただ'
'ないんだよ'
'ないわよ_'
'ないはずだ_'
'ないのよ'
'ないのは_'
'ないのですが_'
'ないのです_'
'ないと思'
'ないといけない'
'ないという'
'ないですか'
'ないでしょう'
'ないでく'
'ないだ'
'ないけど_'
'なあ'
'どー'
'どんなもの'
'どんだけ_'
'どれ位'
'どもが'
'どで'
'どっちなの'
'どちらが'
'どこ行く'
'どこに行って'
'どこにも行かない'
'どこにある'
'どこな'
'どこです_'
'どこだ'
'どこが'
'どけ_'
'どう思っ'
'どう思う'
'どうや'
'どうなるか'
'どうなる_'
'どうですか_'
'どうだい'
'どうするん'
'どうするつもりだ_'
'どうすりゃ'
'どうしよう_'
'どうしまし'
'どうしてる'
'どうしてそんな'
'どうしたらいいの_'
'どうかな_'
'どうかしたの_'
'どうかした'
'どういう意味_'
'どういう人'
'どういうことです'
'どういうことだ_'
'どういうこと'
'どいて'
'どいつ'
'と連絡'
'と通'
'と読'
'と言われている_'
'と言われて'
'と言わ'
'と言っても'
'と言っていた_'
'と言えば'
'と言う事'
'と言うの'
'と言い'
'と考えて'
'と考えた'
'と結婚す'
'と結婚'
'と称す'
'と称され'
'と称'
'と知って'
'と相'
'と生'
'と死'
'と数'
'と思われます_'
'と思ってる'
'と思っています_'
'と思っていた'
'と思うわ_'
'と思うが_'
'と地'
'と命'
'と呼んでいる'
'と呼び'
'と同様で'
'と同様'
'と同じだ_'
'と判断'
'と出会'
'と僕'
'とロ'
'とレ'
'とシ'
'とサ'
'とイ'
'とアン'
'とア'
'とわ'
'とる_'
'とも言われて'
'とめた'
'とみな'
'とま'
'とは違う_'
'とは言えない'
'とは思えない'
'とは思'
'とはな_'
'との合'
'との交'
'となると'
'となること'
'となっている'
'となったと'
'とても重要'
'とても嬉し'
'とっとと'
'とっては_'
'とだ'
'とする説もある_'
'とすると'
'とす'
'として知られ'
'として渡'
'として使'
'としても_'
'としてで'
'としてい'
'としか'
'とされて'
'とさ'
'ところを'
'とけ_'
'とく_'
'とうと'
'といけない'
'という意味で'
'という形で'
'という呼'
'ということは_'
'ということだ_'
'といい_'
'といい'
'とある'
'で過ご'
'で遊んで'
'で遊'
'で起こ'
'で買'
'で調'
'で話'
'で言う'
'で見た'
'で行'
'で活'
'で決'
'で死ぬ'
'で歌'
'で戻'
'で成'
'で待'
'で大'
'で売'
'で地'
'で同'
'で勝'
'で働い'
'で人'
'でー'
'でフ'
'でる_'
'でも大'
'でも君'
'でも何か'
'でも何'
'でもや'
'でもま'
'でもない_'
'でもな'
'でもそれは'
'でもそれ'
'でもこれ'
'でもお'
'でもいい_'
'でもある_'
'でもありました_'
'でもあっ'
'でもあ'
'でも1'
'では次'
'ではも'
'ではないのです_'
'ではないか'
'ではな'
'ではその'
'でなきゃ'
'でっか'
'でその'
'ですわ_'
'ですの'
'ですけど_'
'でしたが'
'でしたか_'
'でしか'
'でし'
'でこれを'
'できれば_'
'できるんだ'
'できるとい'
'でかい'
'であれば_'
'であるとして'
'であって_'
'であったと'
'であったため'
'であったが_'
'で2'
'て言'
'て現'
'て欲しい_'
'て大'
'て出'
'てんの'
'てるんだ'
'てるって'
'てやっ'
'てめ'
'てはいけ'
'てないわ'
'てないよ_'
'てな_'
'てて'
'てだ'
'てたんだ'
'てそ'
'てしまう'
'てしまいます_'
'てくれよ_'
'てくれないか'
'てきました_'
'ておりま'
'ておき'
'ておいた'
'ているん'
'ているのは'
'ているのです'
'ていま'
'ていたの'
'ていただ'
'ていたが_'
'ていうか'
'ていいの'
'ていい'
'づける'
'づけられ'
'づくり'
'づき_'
'つら'
'つもりだ'
'つまらん'
'つぶし'
'つば'
'つは'
'つないで'
'つて'
'つつ_'
'つつ'
'つっ'
'つた'
'つこ'
'つける_'
'つぎ込'
'つき_'
'つかんだ'
'つかまえ'
'ついて話'
'ついてる_'
'ついての'
'ついてく'
'つある'
'っぽく'
'っぽ'
'っぺ'
'っぱい'
'って話'
'って言ってた'
'って言ったろ'
'って言い'
'って聞いて'
'って来'
'って書'
'って大'
'って呼ん'
'って名前'
'って何だ'
'って人'
'って事_'
'ってんだ_'
'ってわ'
'ってるんだ_'
'ってるよ_'
'ってもら'
'ってみ'
'ってほし'
'ってど'
'ってことです'
'ってくる_'
'ってくる'
'ってください'
'ってきた'
'ってから'
'ってか_'
'っていま'
'っていない_'
'っていっ'
'っていい'
'っちま'
'ったんで'
'ったりしない'
'ったように'
'ったものと'
'ったとされ'
'ったでしょ'
'ったため'
'っこない'
'っく'
'っきり_'
'っかり'
'ちょっと違う'
'ちょっと待ってく'
'ちょっと失礼'
'ちょっとい'
'ちゅう'
'ちゃダメ'
'ちゃんとした'
'ちゃったの'
'ちに'
'ちた'
'ちそう'
'だらけ_'
'だもの'
'だめ_'
'だなんて_'
'だと思っ'
'だと思'
'だとして'
'だって言'
'だってば'
'だったのか'
'だったな_'
'だったとしても_'
'だったこと'
'だったか'
'だだ'
'だそう'
'だけでは'
'だけでなく_'
'だけでした'
'だけだっ'
'だけだから'
'だけじゃない_'
'だけじゃ'
'だけか_'
'だが今'
'だから私'
'だからと'
'だからです_'
'だいじょうぶ'
'た日'
'た後_'
'た奴'
'たわけ'
'たりと'
'たようで'
'たよ'
'ための_'
'ためにも_'
'ためには_'
'ためなら'
'ためと'
'ためだ'
'たみたい'
'たまに'
'たまたま'
'たはず'
'たのむ'
'たのね_'
'たのに'
'たのです'
'たのが_'
'たのかも'
'たのか'
'たない_'
'たな'
'たどって_'
'たところ_'
'たって_'
'たった一人'
'たちに_'
'ただけま'
'たじゃない'
'たことも'
'たくて_'
'たい気'
'たいんです'
'たいのです'
'たいのか'
'たいなら'
'たいで'
'ぞっ'
'そー'
'そんな言い方'
'そんなに_'
'そんなと'
'そんなことないよ_'
'そんなことない_'
'そろそろ_'
'それ以外'
'それを聞'
'それをや'
'それほど'
'それは本'
'それは失礼し'
'それは僕'
'それは俺'
'それはよ'
'それはな'
'それはそ'
'それはこ'
'それに私'
'それには'
'それなら'
'それで終わ'
'それで彼'
'それで大'
'それって_'
'それだけだ'
'それだけじゃ'
'それじゃ'
'それしか'
'それこそ'
'それが起'
'それが大'
'それがあ'
'そりゃい'
'そもそも'
'その通りよ_'
'その通り'
'その調'
'その言'
'その結果_'
'その答え'
'その理'
'その為'
'その手'
'その彼'
'その家'
'その子を'
'その女性'
'その場所'
'その傷'
'その他_'
'その他'
'その仕事'
'その人の'
'その中の'
'その一'
'そのカ'
'そのもの'
'そのとおり'
'そのつ'
'そのために_'
'そのあと'
'そしてその'
'そしてこれ'
'そしてこ'
'そこまで_'
'そこへ行'
'そく'
'そう言われ'
'そう見え'
'そう信じ'
'そうよね_'
'そうやって_'
'そうや'
'そうなんです_'
'そうですよ'
'そうです'
'そうであ'
'そうっ'
'そうだろう'
'そうそう'
'そうじゃないか_'
'そういうのは'
'そうい'
'そいつら'
'ぜん'
'ぜひ_'
'ぜい'
'せるな'
'せると'
'せること'
'せられて'
'せば'
'せてい'
'せたの'
'せずに_'
'せいじゃない'
'ずには'
'すればいい_'
'する記'
'する方法'
'する方'
'する必要があります_'
'する必要があ'
'する形'
'する事は'
'するんで'
'するんだ'
'するわけ'
'するようになっ'
'するもので'
'するのを_'
'するのか'
'するなんて'
'するなら_'
'するだろう_'
'するためで'
'することも'
'することはな'
'することはでき'
'することによ'
'することができ'
'するが'
'すも'
'すみませんでした_'
'すみ'
'すまな'
'すべきか_'
'すのです_'
'すて'
'すつもり'
'すっごい'
'すために'
'すため_'
'すごいわ_'
'すごいね_'
'すごいこ'
'すことを'
'すことはでき'
'すことです_'
'すことができ'
'すげ'
'すけ'
'すぐ行く'
'すく'
'すぎます'
'すぎない'
'すいません'
'じょう_'
'じゃ無い'
'じゃ無'
'じゃねえよ_'
'じゃねえか_'
'じゃねえ_'
'じゃなかったんだ'
'じゃなかったわ_'
'じゃないんだ'
'じゃないから'
'じゃないかな_'
'じゃあね_'
'じき'
'し始め'
'しろと'
'しようとしている'
'しようと_'
'しょうが'
'しゅん'
'しゃく'
'しめた'
'しまったの'
'しましょ'
'しましたか_'
'しまう_'
'しまいます_'
'しばらくは'
'しね_'
'しに_'
'しなく'
'しなきゃ'
'しながら_'
'しながら'
'しないの'
'して参'
'して下さい_'
'してるわ_'
'してるよ'
'してるのか'
'してるな'
'してるだ'
'してよ'
'してやる'
'してもらえ'
'してもらい'
'してました'
'してほしい'
'してたの'
'してしまっ'
'してくれる'
'してくれないか_'
'してから_'
'しておりま'
'しているよう'
'していなかった'
'していたの'
'していただ'
'していい'
'してある'
'してあげ'
'しつこ'
'しっかりと'
'した時の'
'した時'
'した場合'
'したんだ'
'したわ_'
'したわ'
'したよう'
'したものを'
'したもので'
'したのを'
'したのです'
'したって'
'したから_'
'したかった'
'したか_'
'したいの'
'したいと思いま'
'しそう'
'しくなっ'
'しくな'
'しかしそ'
'しかいない'
'ざるを'
'ざと'
'さんだ_'
'さんた'
'さわ'
'されることにな'
'されることが'
'されるが_'
'されても_'
'されてます'
'されているが'
'されていたが_'
'されたら_'
'されたのは_'
'されたの_'
'されたくな'
'されたが_'
'さらし'
'さや'
'さもな'
'さみ'
'さまざまな'
'さね'
'さに'
'さなければ'
'さなきゃ_'
'さないで_'
'さないで'
'さっぱり'
'さだ'
'さそうだ'
'させまし'
'させてる'
'させたの'
'さえい'
'ご近所さん'
'ご苦労'
'ご注文は'
'ご存知で'
'ご両親'
'ご一緒'
'ごり'
'ごめんな'
'ごま'
'ごは'
'ごとは'
'ごっ'
'ごちそうさま'
'ごく_'
'こんばんは_'
'こんな風に'
'こんな時間に'
'こんな所'
'こんな感じで'
'こんな事を'
'こんなに_'
'こんなとき'
'こんなことに_'
'ころに'
'ころだ'
'これ以降'
'これ以上の'
'これ以上_'
'これを見'
'これまでに'
'これは私'
'これは俺の'
'これは事'
'これはどう'
'これはとて'
'これはこ'
'これに対して'
'これにより'
'これによ'
'これぞ'
'これか_'
'こも'
'この長'
'この道'
'この絵'
'この研究'
'この町に'
'この機'
'この時期'
'この時代に'
'この日'
'この手紙'
'この店'
'この家に'
'この子が'
'この壁'
'この場合_'
'この前の'
'この前_'
'この先'
'この会場'
'この会'
'この件に'
'この件で'
'この人は'
'この人の'
'この人が'
'この事件'
'この世に'
'この上'
'この一'
'このパ'
'このドア'
'このド'
'このデ'
'このテ'
'このス'
'このシ'
'このコ'
'このグ'
'このカ'
'このイ'
'このままで'
'このことを'
'このこと'
'このうち'
'この2つ'
'こない'
'ことを言'
'ことを考'
'ことを知って'
'ことを教えて'
'ことを信じ'
'ことをして'
'こともできます_'
'こともでき'
'こともあり'
'ことはない'
'ことはし'
'ことね'
'ことになりま'
'ことなん'
'ことではな'
'ことでしょ'
'ことでした_'
'ことだと'
'ことさ'
'ことができるの'
'ことができた_'
'ことができた'
'ことがあ'
'こっちへ_'
'こっちに向かって'
'こちらへ'
'こちらで'
'こちらこそ_'
'ここを去'
'ここを出る'
'ここを出'
'ここまで来'
'ここに連れて'
'ここにいろ'
'ここで何をし'
'ここで何を_'
'ここでの'
'ここだ'
'ここから_'
'こう言いま'
'こうやって'
'こうとし'
'こうだ'
'こうする'
'こうじ'
'こいつを'
'げに'
'げてる_'
'げて_'
'ければならない'
'ければい'
'けれど_'
'けられてい'
'けよ'
'けね'
'けどさ_'
'けではな'
'けっ'
'けして'
'けし'
'ぐら'
'く言'
'くんの'
'くれれば'
'くれるの'
'くれると'
'くれるだ'
'くれること'
'くれない_'
'くれない'
'くれな'
'くれてる'
'くるみ'
'くると'
'くらいの'
'くらいだ_'
'くはない'
'くのは'
'くね'
'くなるわ'
'くなります'
'くなり'
'くなってい'
'くなったの'
'くつも'
'くち'
'くだら'
'くださいま'
'くださ'
'くそっ_'
'くする'
'くことを'
'くことは'
'ぎま'
'き込'
'き者'
'き残'
'きるか'
'きゃなら'
'きません'
'きますが_'
'きましょう'
'きび'
'きのこ'
'きている'
'きって'
'きちゃ'
'きたんで'
'きたくない'
'きたから'
'が食'
'が飛'
'が難し'
'が集まる'
'が間'
'が開かれ'
'が重要'
'が部屋'
'が遅'
'が進められ'
'が進'
'が足りない'
'が起きる'
'が起きた'
'が誰'
'が話'
'が許され'
'が設置され'
'が言ってた'
'が言った'
'が解'
'が見られ'
'が見つかる'
'が見えた'
'が要る'
'が行われてい'
'が行われた_'
'が著し'
'が落ち'
'が苦'
'が置かれ'
'が終わるまで'
'が終わった'
'が空'
'が着'
'が発生し'
'が生きて'
'が理'
'が特'
'が無い'
'が消えた'
'が消え'
'が求められ'
'が殺された'
'が残っ'
'が死去すると'
'が書'
'が明'
'が日'
'が支'
'が撃たれ'
'が描かれている'
'が接'
'が悪くな'
'が思って'
'が心配'
'が得意'
'が彼'
'が引'
'が帰っ'
'が山'
'が少'
'が家'
'が完'
'が存在する_'
'が存在し'
'が好き_'
'が天'
'が大きい_'
'が多'
'が変わっ'
'が壊'
'が国'
'が合'
'が原'
'が北'
'が加'
'が前'
'が到着し'
'が分'
'が出ている_'
'が再'
'が保'
'が作れ'
'が作ら'
'が作'
'が何を'
'が付いて'
'が与え'
'が一緒だ'
'がわかる'
'がらない'
'がやった'
'がみ'
'がまだ'
'がほとんど'
'がひ'
'がなされ'
'がなくなる'
'がないから'
'がな_'
'ができるの'
'ができる_'
'ができました'
'がって_'
'がった_'
'がたく'
'がそれを'
'がせ'
'がして'
'がしたい'
'がされ'
'がさ'
'がここ'
'がき'
'がかり'
'がか'
'がお前の'
'がうまく'
'がいるん'
'がいるの_'
'がいるの'
'があるよ'
'があるはず'
'があるか'
'がありました'
'がありま'
'があったら'
'が19'
'か言い'
'か言'
'か知り'
'か知ってる'
'か分かるか_'
'か分からない_'
'か分からな'
'か何か_'
'か何か'
'かを_'
'かわい'
'かろう_'
'かろう'
'から離'
'から連'
'から生'
'から東'
'から採'
'から引き'
'から学'
'から取'
'から何'
'から中'
'から一'
'からん'
'からや'
'からない'
'からって_'
'からずっと'
'からかって'
'から3'
'かも知れな'
'かもしれ'
'かのよう'
'かなきゃ'
'かと思'
'かという'
'かつて_'
'かってい'
'かったんだ'
'かったわ_'
'かったのです'
'かったので'
'かったが'
'かったから'
'かったか'
'かた_'
'かた'
'かせて'
'かじ'
'かされ'
'かけてる'
'かけてい'
'かが_'
'かかわらず'
'かかる_'
'かかり'
'お金は'
'お邪魔'
'お近'
'お話したい'
'お話ししたい'
'お話しし'
'お許し'
'お言葉'
'お見せしま'
'お礼を'
'お疲れ_'
'お父'
'お気の毒'
'お母様'
'お母さんは'
'お母さんに'
'お早う'
'お断り'
'お待たせし'
'お待たせ'
'お帰り_'
'お子'
'お好'
'お名前'
'お前らは'
'お前も_'
'お前はもう'
'お前にとって'
'お前が_'
'お別れ'
'お先'
'お兄さん'
'お元気で'
'お仕'
'お互いに'
'お二人'
'お世話にな'
'おろ'
'おら_'
'おや_'
'おめでとうございま'
'おまけ'
'おふ'
'おばあちゃん_'
'おばあ'
'おはよ'
'おっと_'
'おっしゃっ'
'おた'
'おしまい'
'おさ'
'おく_'
'おき_'
'おかしいと思'
'おかしい_'
'おかげで_'
'おうとした_'
'おうとし'
'おうと_'
'おうと'
'おうか'
'おいで'
'おいても'
'えーと_'
'えー_'
'えー'
'えれ'
'えるか'
'えますか_'
'えま'
'えば'
'えで'
'えっ'
'えだ'
'う言'
'う思う'
'うんだ_'
'うれ'
'うるせ'
'うるさい_'
'うる'
'うら'
'うようにな'
'うように'
'うよう'
'うまくいって'
'うまくいかな'
'うは'
'うね'
'うどん_'
'うと_'
'うです'
'うって'
'うちに_'
'うために_'
'うた'
'うことにな'
'うう_'
'うい'
'い方'
'い事'
'いんです_'
'いるんだろ'
'いるん'
'いるよ_'
'いるのよ_'
'いると言'
'いられる_'
'いられなかった'
'いられ'
'いように'
'いやい'
'います'
'いましたが_'
'いまし'
'いのよ'
'いので'
'いなさい'
'いなくなった'
'いなくな'
'いないとい'
'いと思って'
'いでしょう'
'いてあ'
'いつも一'
'いつもそ'
'いつまでも'
'いつでも_'
'いつで'
'いつから_'
'いつから'
'いつかは'
'いっつも'
'いったいど'
'いっし'
'いだろ_'
'いたんで'
'いたり_'
'いたよ'
'いたのは_'
'いたのか'
'いたって'
'いただけま'
'いたずら'
'いたしま'
'いたいんだ'
'いぞ_'
'いずれにし'
'いずれか'
'いす'
'いけませ'
'いけない_'
'いけ_'
'いくらか'
'いくの'
'いくぞ_'
'いきません'
'いき'
'いから_'
'いかがで'
'いかが'
'いう人'
'いう事'
'いうことは_'
'いい考えだ'
'いい子'
'いい加減にし'
'いいア'
'いいんじゃないです'
'いいん'
'いいわ'
'いいな'
'いいと思って'
'いいでしょ_'
'いいっ'
'いいことを'
'いいから_'
'いいかな_'
'あんなに'
'あんなこと'
'あんだ'
'あんたも'
'あんたには'
'あんたが_'
'あれこれ'
'あれから'
'ある種の'
'あるよう'
'あるよ_'
'あるはず'
'あるのは'
'あるでしょ'
'あるし_'
'あるかも'
'あり得ない'
'あり得'
'ありそう'
'ありがと_'
'ありがたい'
'あらまあ_'
'あふれ'
'あの男は'
'あの男に'
'あの時_'
'あの子の'
'あの子に'
'あの女の'
'あのクソ'
'あのク'
'あのとき'
'あなた以'
'あなたを愛して'
'あなたは私の'
'あなたの頭'
'あなたの家'
'あなたの仕事'
'あなたのため'
'あなたのこと'
'あなただっ'
'あなたじゃな'
'あなたが私'
'あなたがこ'
'あとは_'
'あて'
'あっちへ'
'あっちの'
'あったん'
'あったか'
'あっさり'
'あたしを'
'あたしが'
'あた'
'あし'
'あさん'
'あけ'
'あくまで'
'あきらめ'
'あきら'
'あが'
'あか'
'あいつの'
'あいつが'
'ああー_'
'ああっ_'
'〜'
'』）_'
'」）。_'
'」。 '
'」、「_'
'」?_'
'》'
'。 。'
'。 .'
'、、_'
'、.'
'○'
'━_'
'─'
'≪ '
'” _'
'ه_'
'×'
'¶'
'~~_'
'~?'
'zz_'
'zuru'
'zo_'
'zin'
'zh'
'zes'
'zero'
'zen'
'zan'
'yuu_'
'yum'
'yukik'
'yui'
'yst'
'youth_'
'you'
'yon'
'yok'
'yme'
'yl_'
'ye_'
'ybo'
'yank'
'yan'
'xr'
'xing_'
'xim'
'xie'
'wu'
'write'
'worries_'
'workplace_'
'wol'
'wizard_'
'witnessed_'
'with'
'wiped_'
'wing'
'winds'
'will'
'wilder'
'wild_'
'wigg'
'wide'
'wic'
'wholl'
'whistle'
'whisper'
'whip'
'wherea'
'what'
'wet_'
'wen'
'wel'
'weigh_'
'weekly_'
'weed_'
'website'
'wealth_'
'we'
'wayne_'
'way'
'wav'
'wasted_'
'washi'
'wash_'
'wash'
'warren_'
'warp_'
'warn'
'warmer_'
'warm'
'ware_'
'walk'
'wages_'
'voices_'
'vodka_'
'vitamin'
'visits_'
'virtual_'
'viral_'
'vip'
'ville_'
'villa'
'vigilante_'
'views_'
'vie_'
'victor_'
'vick'
'vice'
'vic_'
'vessel_'
'vert'
'vered_'
'ventur'
'vene'
'vend'
'vehicles_'
'vegeta'
'vega'
'variations_'
'vant_'
'value'
'valen'
'uts_'
'uto'
'uth'
'uss'
'usa'
'urn'
'ups'
'upr'
'upl'
'update'
'unusual'
'unrea'
'unre'
'unpre'
'unlo'
'unin'
'uniform_'
'unif'
'unf'
'unds_'
'underlying_'
'undergo'
'und_'
'unc'
'umbrella'
'uma'
'ultra'
'ult_'
'uls'
'ull'
'ular'
'ula_'
'ula'
'uke'
'ugh'
'uf'
'uer'
'uen'
'uel_'
'uation'
'ual'
'tz'
'tyre'
'typi'
'types_'
'typ'
'twin_'
'tweet_'
'turkey_'
'ture_'
'ture'
'tune_'
'tum'
'tuesday_'
'tube_'
'tub_'
'tte'
'tta'
'tsuno'
'tshirt_'
'ts'
'troubles_'
'troo'
'trillion'
'trick'
'tren'
'tremendous'
'treasur'
'traveling_'
'traumati'
'trat'
'transport_'
'transmi'
'translat'
'transition_'
'transforme'
'transferr'
'transcri'
'tran'
'traitor_'
'trains_'
'tragic_'
'tracks_'
'tracker_'
'trace'
'tr'
'towel'
'tow'
'tou_'
'tosa'
'tory_'
'tortur'
'torpedo'
'toothbrush'
'tone_'
'tomoya_'
'tomo'
'tomb'
'tomato_'
'tolera'
'toilet_'
'tog'
'tof'
'tock'
'tob'
'tle'
'titut'
'title_'
'titan'
'tire_'
'tional_'
'tio'
'tings_'
'tiger_'
'tica'
'thur'
'ths'
'thri'
'three'
'thomas_'
'thm'
'thirt'
'thermo'
'therefore_'
'therapist_'
'theori'
'theo'
'theme_'
'thel'
'thc'
'thanksgiving_'
'than'
'tex'
'testify'
'testi'
'teru'
'terrifi'
'terra'
'tered_'
'tension_'
'tens'
'tene'
'tende'
'temporar'
'temperat'
'tect'
'technical_'
'techn'
'tec'
'tear'
'tdo'
'tayl'
'taxes_'
'tate'
'taste'
'taro'
'target'
'tant'
'tand'
'tame'
'tama'
'tally_'
'talks_'
'talent_'
'tal_'
'tair'
'tails_'
'tail_'
'tail'
'tactic'
'synchron'
'sync'
'sylv'
'sy'
'swing'
'swell'
'swed'
'sweat'
'swam'
'suspi'
'suspected_'
'susan_'
'sus'
'surve'
'surround'
'surrender_'
'surprising'
'surgeon_'
'surge'
'supply_'
'supp'
'supers'
'superma'
'superior'
'superf'
'sung'
'sumoto_'
'suke_'
'suite'
'sui'
'sugi'
'sugar_'
'sug'
'sue_'
'successful_'
'succeeded_'
'subtl'
'su_'
'studies_'
'studied_'
'stru'
'stronger_'
'strip'
'stream'
'strawberr'
'strange'
'strands_'
'stran'
'strai'
'stops_'
'stone'
'stly_'
'sting'
'stic_'
'stew'
'steal_'
'station'
'stanford_'
'stan_'
'stalke'
'stake_'
'stak'
'stairs_'
'ssed_'
'sr'
'squir'
'squeezing_'
'squad_'
'squad'
'spre'
'spott'
'spot'
'sports_'
'spong'
'split'
'splen'
'spl'
'spit'
'spin'
'spike'
'spie'
'spider'
'sphere_'
'speaks_'
'spea'
'span'
'spac'
'sout'
'sour'
'soul'
'sophisticated_'
'sook'
'soo'
'sons_'
'sonny_'
'solv'
'solu'
'solit'
'soli'
'soil_'
'soft_'
'sof'
'societ'
'soa'
'sni'
'sne'
'snake'
'sn'
'smug'
'smells_'
'smart'
'sly'
'slut_'
'slop'
'slippe'
'slic'
'slept_'
'slav'
'slat'
'sky'
'skill_'
'sive'
'siu'
'siti'
'sip_'
'sins_'
'sinn'
'singer_'
'sing'
'sincer'
'simul'
'simon'
'simm'
'similar_'
'sim'
'significant_'
'signed_'
'signature_'
'signal'
'sie'
'sides_'
'sid'
'sic'
'sibi'
'si_'
'shut'
'shout'
'shoulder_'
'should'
'shortly_'
'shoo'
'shocking_'
'shoc'
'shirt_'
'shir'
'shipp'
'shing'
'shine'
'shh_'
'shelter'
'shelf_'
'shel'
'shav'
'sharks_'
'shareholders_'
'share'
'shape'
'sexual'
'sev'
'set'
'served_'
'serve_'
'serge'
'sequence_'
'seque'
'separate'
'seou'
'seo'
'senti'
'sensor'
'sensi'
'senses_'
'senpai_'
'send'
'sena'
'sem'
'selves_'
'selfd'
'selecti'
'seiz'
'sei_'
'secret'
'second'
'season_'
'seas'
'seal_'
'scul'
'scri'
'screw'
'screaming_'
'scre'
'scratch'
'scrap'
'scra'
'scou'
'scott'
'schools_'
'school'
'scholarship'
'scheme'
'schedule_'
'scene'
'scenario'
'scand'
'scan_'
'saya'
'savings_'
'sava'
'santa'
'sans'
'sani'
'sample'
'sali'
'sales_'
'sakuragi'
'sakura_'
'sailor'
'sagara_'
'safer_'
'sabotage'
'saber_'
'sab'
'rust'
'russian_'
'russia'
'russ'
'rural_'
'runner'
'rumor'
'ruined_'
'rug_'
'ruct'
'rubbe'
'rti'
'rte'
'rst'
'royal_'
'rowe'
'route_'
'rot_'
'roommate'
'rook'
'rome_'
'romance_'
'rok'
'roger'
'rof'
'robotic'
'robbed_'
'rmo'
'rling_'
'rival'
'ritual'
'rita'
'rish'
'ringing_'
'rin_'
'riley_'
'ril_'
'ril'
'ribbon_'
'rib'
'rian'
'rhy'
'rho'
'reward_'
'revo'
'revenue'
'revealed_'
'reu'
'retreat_'
'retire_'
'resu'
'restore_'
'ress'
'responde'
'resort_'
'reside'
'rescu'
'request'
'reputation_'
'reply_'
'replaced_'
'repla'
'repl'
'repair_'
'remove'
'reminded_'
'remind'
'remembering_'
'remarkable_'
'rely_'
'reliabl'
'releas'
'relations'
'reject'
'reinforc'
'rein'
'rehe'
'regrett'
'regre'
'regimen'
'regard'
'refu'
'refr'
'refere'
'reement_'
'reduce'
'records_'
'recorded_'
'reconn'
'recognize'
'recept'
'recall_'
'reasonable_'
'rear'
'rean'
'reached_'
'rdo'
'rder'
'rch'
'rbo'
'rb'
'ray'
'ration'
'rati'
'ras_'
'rando'
'rand'
'rais'
'raid'
'raged_'
'radiat'
'radi'
'rack'
'races_'
'rabl'
'rabb'
'r2'
'quote'
'quinn_'
'quiet'
'quen'
'quat'
'quart'
'quar'
'qualif'
'puts_'
'pushing_'
'pushed_'
'pursu'
'purse_'
'puppet'
'pupils_'
'punish'
'punch_'
'pudding_'
'publisher'
'pub'
'pts'
'psychopath_'
'psycho'
'psychiatr'
'psy'
'prox'
'province_'
'providing_'
'provide_'
'provide'
'proved_'
'prove'
'proto'
'propri'
'proposal'
'properties_'
'promot'
'prom'
'projects_'
'programme'
'prog'
'profits_'
'profit_'
'product_'
'procedure_'
'probability_'
'privacy_'
'prise'
'pris'
'print'
'principal_'
'princess_'
'primary_'
'prim'
'priest'
'prevention_'
'prevented_'
'pretend'
'president'
'presents_'
'presentati'
'prescription_'
'prepar'
'pregnancy_'
'prefer'
'precis'
'prec'
'practic'
'ppy_'
'pper_'
'pour_'
'pound_'
'pott'
'pota'
'poste'
'populat'
'politician_'
'polis'
'pole_'
'polar'
'poisoning_'
'poison_'
'pointing_'
'poet'
'poem_'
'pm_'
'plum'
'plo'
'planted_'
'planet'
'placed_'
'plac'
'pitch'
'pist'
'pirate'
'pipe_'
'pink_'
'pill'
'pil'
'pig'
'pies'
'pierce'
'physics_'
'phr'
'phin'
'phenomen'
'petr'
'pete_'
'pes'
'persuasi'
'perspective_'
'pers_'
'pers'
'perry_'
'perceiv'
'pent'
'peni'
'pen_'
'ped'
'peculiar_'
'peare'
'pear'
'peanut_'
'peak'
'paul'
'patt'
'patch'
'passport_'
'partnership'
'parties_'
'participating_'
'parp'
'paro'
'paris_'
'parent'
'parasite'
'parameters_'
'paraly'
'pam'
'palace_'
'painting_'
'pain'
'pai'
'pag'
'packs_'
'packe'
'package'
'ox'
'overwhelming_'
'overse'
'override_'
'overco'
'ove'
'ovat'
'outrage'
'outcome_'
'ours_'
'oti'
'oso'
'osh'
'orti'
'orp'
'origin'
'organize'
'organization_'
'organization'
'organ_'
'ores'
'orderin'
'orb_'
'orang'
'option'
'optimis'
'opol'
'operational_'
'opens_'
'oop'
'onis'
'onet'
'onduct'
'oms_'
'omp'
'omi_'
[...]
