'<pad>_'
'<EOS>_'
'._'
', _'
''_'
'?_'
'_'
'I_'
'- _'
'you_'
'the_'
's_'
'a_'
'to_'
'!_'
'bir_'
't_'
'. _'
'it_'
'of_'
'in_'
'and_'
'm_'
'that_'
'-_'
've_'
'You_'
'me_'
'is_'
'..._'
'... _'
'for_'
'on_'
'n_'
're_'
'have_'
'de_'
'your_'
'this_'
'e_'
'Bu_'
'mi_'
'be_'
'my_'
'was_'
'için_'
'we_'
'da_'
'bu_'
'It_'
'with_'
'know_'
'not_'
'ne_'
'do_'
'he_'
'can_'
'i_'
'are_'
'var_'
'don_'
'her_'
'll_'
'mı_'
'what_'
'We_'
'çok_'
'değil_'
'o_'
'like_'
'here_'
'd_'
'The_'
'out_'
'just_'
'all_'
'k_'
'get_'
'What_'
'him_'
'up_'
'şey_'
'And_'
'about_'
'an_'
'He_'
'at_'
'O_'
'Bir_'
'there_'
',_'
'Ben_'
'got_'
'ı_'
'That_'
'daha_'
'one_'
'ama_'
'kadar_'
'right_'
'but_'
'go_'
'they_'
'gibi_'
'No_'
'so_'
'ki_'
'Evet_'
'"_'
'Oh_'
'want_'
'iyi_'
'no_'
'if_'
'y_'
'from_'
'But_'
'see_'
'Ama_'
'ya_'
'think_'
'will_'
'r_'
'yok_'
'us_'
'ben_'
'Well_'
'Ne_'
'she_'
'back_'
'his_'
'? _'
'now_'
'z_'
'them_'
'Hayır_'
'gonna_'
'as_'
'en_'
'ed_'
'were_'
'time_'
'or_'
'man_'
'zaman_'
'ing_'
'going_'
'They_'
'So_'
'She_'
'dan_'
'sen_'
'good_'
'bana_'
'ın_'
'had_'
'when_'
'lar_'
'Ve_'
'This_'
'come_'
'been_'
'A_'
'take_'
'would_'
'beni_'
'Hey_'
'olduğunu_'
'onu_'
'mu_'
'didn_'
'Sen_'
'say_'
'need_'
'did_'
'If_'
'who_'
'! _'
'some_'
'tell_'
'down_'
'benim_'
'could_'
'Yeah_'
'something_'
'. - _'
'way_'
'ler_'
'There_'
'den_'
'seni_'
'How_'
'really_'
'by_'
' "_'
'u_'
'le_'
'sonra_'
'little_'
'has_'
'bunu_'
'önce_'
'too_'
'never_'
'more_'
'our_'
'hiç_'
'senin_'
'Don_'
'sana_'
'make_'
'la_'
'Bana_'
'musun_'
'er_'
'Çok_'
'over_'
'Let_'
'people_'
'how_'
'Why_'
'Bunu_'
'nasıl_'
'l_'
'let_'
'very_'
'burada_'
'Mr_'
'thing_'
'should_'
'Onu_'
'off_'
'misin_'
'am_'
'istiyorum_'
':_'
'said_'
'only_'
'then_'
'mean_'
'bile_'
'p_'
'um_'
'" _'
'Yes_'
'."_'
'' _'
'son_'
'nin_'
'any_'
'where_'
'Tamam_'
'two_'
'All_'
'love_'
'Now_'
'sadece_'
'My_'
'Do_'
'look_'
'ye_'
'Just_'
'Sadece_'
'Her_'
'Beni_'
'much_'
'biraz_'
'why_'
'Şimdi_'
'böyle_'
'na_'
'even_'
'biri_'
'oldu_'
'Sana_'
'es_'
'Seni_'
'Neden_'
'day_'
'Benim_'
'öyle_'
'find_'
'still_'
'into_'
'Bay_'
'than_'
'olan_'
'must_'
'büyük_'
'al_'
'Come_'
'olarak_'
'nın_'
'et_'
'iz_'
'ile_'
'Peki_'
'geri_'
'first_'
'away_'
'again_'
'Your_'
'their_'
'si_'
'home_'
'give_'
'Is_'
'şu_'
'anything_'
'other_'
'because_'
'place_'
'ni_'
'before_'
'un_'
'güzel_'
'those_'
'olacak_'
'thought_'
'olur_'
'life_'
'di_'
'.._'
'yı_'
'sure_'
'sı_'
'work_'
'last_'
'call_'
'Where_'
'Eğer_'
'sin_'
'neden_'
'Not_'
'? - _'
'put_'
'tek_'
'better_'
'well_'
'ona_'
'gün_'
'ever_'
'Yani_'
'won_'
'iki_'
'gece_'
'dı_'
'doing_'
'adam_'
'İyi_'
'years_'
'sun_'
'night_'
'talk_'
'ma_'
'im_'
'yi_'
'te_'
'nothing_'
'Who_'
'told_'
'old_'
'nı_'
'help_'
'fazla_'
'believe_'
'hakkında_'
'Belki_'
'ly_'
'always_'
'Look_'
'Get_'
' ?_'
'these_'
'ları_'
'guy_'
'around_'
'şimdi_'
'başka_'
'sın_'
'made_'
'Senin_'
'onun_'
'house_'
'feel_'
'Bayan_'
'kind_'
'Daha_'
'wanted_'
'ver_'
'sorry_'
'biliyorum_'
'Then_'
'--_'
'yardım_'
'keep_'
'God_'
'long_'
'gerek_'
'diye_'
'şeyler_'
'Hadi_'
'Burada_'
'1_'
'doğru_'
'Can_'
'okay_'
'izin_'
'biliyor_'
'Sanırım_'
'please_'
'iş_'
'girl_'
'In_'
'might_'
'leri_'
'artık_'
'Okay_'
'Are_'
'2_'
'father_'
'new_'
'leave_'
'kötü_'
'li_'
'şeyi_'
'Şu_'
'orada_'
'ng_'
'gerçekten_'
'g_'
'doesn_'
'coming_'
'Did_'
'Ona_'
'lütfen_'
'lot_'
'When_'
'things_'
'ce_'
'name_'
'money_'
'se_'
'ken_'
'göre_'
'everything_'
'Go_'
'after_'
'tamam_'
'sir_'
'ol_'
'Maybe_'
'Çünkü_'
'ım_'
'today_'
'olabilir_'
'bad_'
'gotta_'
'geliyor_'
'siz_'
'room_'
'mısın_'
'işte_'
'bak_'
'job_'
'buraya_'
'İşte_'
'came_'
'wasn_'
'mış_'
'hell_'
'Dr_'
' '_'
'yüzden_'
'uz_'
'own_'
'mind_'
'care_'
'being_'
'10_'
'yourself_'
'yor_'
'next_'
'guys_'
'friend_'
'every_'
'kim_'
'hiçbir_'
'car_'
'yle_'
'olmalı_'
'lı_'
'great_'
'done_'
'does_'
'Onun_'
'D_'
'went_'
'içinde_'
'dead_'
'Ya_'
'5_'
'wrong_'
'left_'
'world_'
'stop_'
'ister_'
'getting_'
'efendim_'
'devam_'
'big_'
'yer_'
'talking_'
'ederim_'
'able_'
': _'
' !_'
'şekilde_'
'ız_'
'vardı_'
'söyledi_'
'may_'
'kill_'
'geldi_'
'found_'
'enough_'
'değilim_'
'Nasıl_'
'Biraz_'
'whole_'
'ten_'
'seen_'
'same_'
'küçük_'
'h_'
'dım_'
'aynı_'
'Here_'
'çünkü_'
'yeni_'
'happened_'
'another_'
'Good_'
', "_'
'through_'
'ta_'
'dim_'
'Haydi_'
'wouldn_'
'wait_'
'tam_'
'stay_'
'olsun_'
'nice_'
'ilgili_'
'demek_'
'dakika_'
'wanna_'
'three_'
'saw_'
'mü_'
'used_'
'someone_'
'size_'
'mother_'
'kız_'
'kendi_'
'daki_'
'Thank_'
'S_'
'3_'
'try_'
'nız_'
'nerede_'
'isn_'
'hand_'
'etmek_'
'baby_'
'ask_'
'Hiç_'
'Ah_'
'together_'
'remember_'
'olmak_'
'em_'
'Tanrım_'
'real_'
'men_'
'called_'
'birlikte_'
'ar_'
'One_'
'En_'
'Because_'
'wife_'
'show_'
'niz_'
'hear_'
'course_'
'biz_'
'For_'
'Bak_'
'Artık_'
'ü_'
'tüm_'
'ilk_'
'hemen_'
'dir_'
'Pekala_'
'start_'
'saat_'
'pek_'
'olduğu_'
'bütün_'
'bilmiyorum_'
'Merhaba_'
'Bütün_'
'Biz_'
'4_'
'-- _'
'woman_'
'use_'
'looking_'
'hayır_'
'face_'
'boy_'
'best_'
'20_'
'000_'
'Öyle_'
'zaten_'
'yıl_'
'yla_'
'which_'
'miyim_'
'huh_'
'family_'
'else_'
'biliyorsun_'
'Uh_'
'Bunun_'
'yım_'
'understand_'
'uh_'
'run_'
'onları_'
'misiniz_'
'karşı_'
'fucking_'
'bakalım_'
'already_'
'nda_'
'ion_'
'head_'
'fine_'
'Siz_'
'ş_'
'hard_'
'gone_'
'dır_'
'du_'
'Please_'
'yani_'
'many_'
'kadın_'
'friends_'
'dostum_'
'T_'
'took_'
'oluyor_'
'live_'
'few_'
'Buraya_'
'without_'
'bizim_'
'bize_'
'YOU_'
'Sonra_'
'Kim_'
'Have_'
'tane_'
'problem_'
'knew_'
'idea_'
'asla_'
'To_'
'yere_'
'pretty_'
'işi_'
'heard_'
'harika_'
'git_'
'end_'
'el_'
'days_'
'couldn_'
'bunun_'
'Take_'
'Jack_'
'play_'
'morning_'
'miş_'
'heart_'
'hala_'
'ha_'
'guess_'
'ediyorum_'
'bizi_'
'bilir_'
'ago_'
'At_'
'rs_'
'olmaz_'
'happy_'
'case_'
'ca_'
'belki_'
'New_'
'Lütfen_'
' - _'
'yapmak_'
'tan_'
'söyle_'
'nun_'
'most_'
'ie_'
'husband_'
'hit_'
'gel_'
'brother_'
'Hi_'
'Gerçekten_'
'yet_'
'tekrar_'
'söz_'
'sizi_'
'looks_'
'lazım_'
'killed_'
'işe_'
'istiyor_'
'gave_'
'eğer_'
'ak_'
'şunu_'
'trying_'
'stuff_'
'para_'
'open_'
'maybe_'
'lost_'
'istemiyorum_'
'hazır_'
'door_'
'As_'
'çocuklar_'
'yoksa_'
'under_'
'shit_'
'move_'
'istiyorsun_'
'haven_'
'görmek_'
'die_'
'ain_'
'Böyle_'
'Aslında_'
'yes_'
'while_'
'ti_'
'nden_'
'kid_'
'ik_'
'yemek_'
'st_'
'sorun_'
'number_'
'kimse_'
'each_'
'Tell_'
'John_'
'Başka_'
'ğı_'
'uzun_'
'sa_'
'ready_'
'less_'
'ini_'
'gördüm_'
'evet_'
'etti_'
'Tanrı_'
'Onları_'
'Like_'
'ği_'
'year_'
'supposed_'
'mız_'
'ine_'
'gerekiyor_'
'gereken_'
'emin_'
'Tüm_'
'Of_'
'Güzel_'
'Give_'
'C_'
'7_'
'saying_'
'olması_'
'met_'
'meet_'
'matter_'
'kez_'
'istediğim_'
'ers_'
'death_'
'buradan_'
'Onlar_'
'30_'
'until_'
'su_'
'sizin_'
'seninle_'
'person_'
'minute_'
'deal_'
'anda_'
'Mrs_'
'çocuk_'
'yorum_'
'yeah_'
'thinking_'
'siniz_'
'sini_'
'pay_'
'nefret_'
'insan_'
'hours_'
'hands_'
'different_'
'birkaç_'
'az_'
'Orada_'
'Fakat_'
'İki_'
'önemli_'
'word_'
'sını_'
'part_'
'its_'
'falan_'
'cak_'
'alone_'
'Or_'
'Bence_'
'15_'
'(_'
'! - _'
'yim_'
'ry_'
'making_'
'herkes_'
'hafta_'
'fuck_'
'eski_'
'baba_'
'Tek_'
'. -_'
'yerde_'
'water_'
'says_'
'once_'
'kids_'
'ise_'
'hep_'
'dedim_'
'c_'
'body_'
'Tabii_'
'Size_'
'On_'
'50_'
'00_'
'zor_'
'times_'
'shot_'
'school_'
'nde_'
'musunuz_'
'miz_'
'line_'
'kabul_'
'happen_'
'değilsin_'
'Listen_'
'His_'
'6_'
'. "_'
', ..._'
'# _'
'Şey_'
'ını_'
'özel_'
'yorsun_'
'worry_'
'waiting_'
'tatlım_'
'onunla_'
'myself_'
'lik_'
'hope_'
'haber_'
'gitti_'
'gerçek_'
'far_'
'eve_'
'crazy_'
'break_'
'birşey_'
'benimle_'
'asked_'
'OK_'
'N_'
'Büyük_'
'; _'
'veya_'
'sabah_'
'ra_'
'olduğumu_'
'listen_'
'kişi_'
'important_'
'having_'
'gets_'
'erkek_'
'dur_'
'dilerim_'
'bit_'
'birini_'
'anyone_'
'Tam_'
'zorunda_'
'yapıyorsun_'
'ts_'
'such_'
'probably_'
'ndan_'
'muş_'
'kontrol_'
'drink_'
'değildi_'
'bırak_'
'buna_'
'bring_'
'afraid_'
'Wait_'
'12_'
'Üç_'
'wants_'
'reason_'
'party_'
'neler_'
'makes_'
'karar_'
'içeri_'
'hoş_'
'hold_'
'fight_'
'f_'
'ey_'
'dum_'
'both_'
'Yeni_'
'Seninle_'
'Dad_'
'8_'
'ık_'
'ğını_'
'üç_'
'yanlış_'
'town_'
'tonight_'
'th_'
'since_'
'ment_'
'lım_'
'later_'
'knows_'
'kaç_'
'ir_'
'gidip_'
'fact_'
'ediyor_'
'anne_'
'Tom_'
'Sorry_'
'Doktor_'
'Bugün_'
'tı_'
'turn_'
'stand_'
'speak_'
'quite_'
'lerini_'
'izi_'
'front_'
'ek_'
'comes_'
'aren_'
'Doğru_'
'Demek_'
'yol_'
'yine_'
'sunuz_'
'soon_'
'point_'
'olsa_'
'oldum_'
'mutlu_'
'means_'
'mak_'
'lerin_'
'least_'
'larını_'
'kendini_'
'high_'
'full_'
'dın_'
'dolar_'
'check_'
'THE_'
'E_'
'?"_'
'vardır_'
'tion_'
'söylemek_'
'side_'
'set_'
'second_'
'onlara_'
'nedir_'
'months_'
'miyiz_'
'lara_'
'ihtiyacım_'
'gun_'
'eyes_'
'ettim_'
'düşündüm_'
'business_'
'beri_'
'altında_'
'age_'
'Yine_'
'Selam_'
'Sam_'
'Geri_'
'Charlie_'
'Üzgünüm_'
'ydi_'
'x_'
'sleep_'
'six_'
'read_'
'police_'
'phone_'
'onlar_'
'lık_'
'late_'
'fire_'
'edin_'
'dog_'
'beş_'
'başına_'
'also_'
'akşam_'
'[_'
'TO_'
'Burası_'
'Bizi_'
'Bize_'
'0_'
'yüzünden_'
'ty_'
'ted_'
'send_'
'sanırım_'
'san_'
'living_'
'ktan_'
'half_'
'goes_'
'geç_'
'fun_'
'five_'
'eat_'
'ck_'
'change_'
'ch_'
'boyunca_'
'along_'
'actually_'
'York_'
'Teşekkürler_'
'Elbette_'
'Anne_'
'.. _'
'working_'
'women_'
'wish_'
'story_'
'somebody_'
'olursa_'
'office_'
'nt_'
'needs_'
'miss_'
'mine_'
'mek_'
'inside_'
'hurt_'
'exactly_'
'deki_'
'children_'
'child_'
'brought_'
'book_'
'bed_'
'b_'
'ass_'
'With_'
'Stop_'
'Right_'
'Nothing_'
'100_'
'ıyor_'
'true_'
'ton_'
'söylüyor_'
'sister_'
'ies_'
'fark_'
'din_'
'chance_'
'açık_'
'aptal_'
'Will_'
'Sizi_'
'M_'
'Küçük_'
'Hiçbir_'
'Hala_'
'üzerinde_'
'yu_'
'yalan_'
'watch_'
'truth_'
'tomorrow_'
'thank_'
'taking_'
'rest_'
'question_'
'olmadığını_'
'minutes_'
'konuda_'
'kolay_'
'istedim_'
'hate_'
'gidelim_'
'ge_'
'forget_'
'etme_'
'dinner_'
'daughter_'
'cı_'
'ci_'
'blood_'
'bilirsin_'
'See_'
'Joe_'
' ..._'
' , _'
'şeye_'
'üzgünüm_'
'young_'
'yaptım_'
'yap_'
'verdi_'
'sınız_'
'sahip_'
'peki_'
'moment_'
'lady_'
'kan_'
'iyor_'
'cannot_'
'bundan_'
'ble_'
'bitch_'
'become_'
'adamım_'
'adamı_'
'Which_'
'Sanki_'
'R_'
'Nobody_'
'Kendi_'
'Hepsi_'
'Harika_'
'9_'
'ır_'
'çıktı_'
'yours_'
'yerine_'
'w_'
'trouble_'
'telling_'
'sent_'
'ous_'
'oldukça_'
'nce_'
'mom_'
'light_'
'ların_'
'hadi_'
'game_'
'everybody_'
'doctor_'
'dad_'
'cek_'
'boys_'
'black_'
'beraber_'
'behind_'
'beautiful_'
'aslında_'
'ara_'
'alive_'
'adı_'
'Peter_'
'Miss_'
'L_'
'George_'
'Bundan_'
'Buna_'
'Aynı_'
'11_'
'İlk_'
'çalışıyor_'
'yapıyor_'
'yaptın_'
'war_'
'test_'
'tarafından_'
'ri_'
'plan_'
'pick_'
'parents_'
'olduğuna_'
'ls_'
'konuşmak_'
'known_'
'gidiyorum_'
'geldim_'
'four_'
'died_'
'dear_'
'changed_'
'benden_'
'bakın_'
'against_'
'Mom_'
'Gel_'
'From_'
'Bunlar_'
'Biliyorum_'
') _'
'ün_'
'zı_'
'ydı_'
'yaptı_'
'walk_'
'ter_'
'started_'
'sit_'
'sign_'
'seviyorum_'
'rak_'
'married_'
'king_'
'hissediyorum_'
'halde_'
'genç_'
'everyone_'
'either_'
'dört_'
'cut_'
'close_'
'ay_'
'ahead_'
'Thanks_'
'Sorun_'
'Sence_'
'Niye_'
'Herkes_'
'Captain_'
'Bilmiyorum_'
'." _'
'"?_'
'şeyin_'
'ış_'
'ına_'
'özür_'
'öldü_'
'yolu_'
'yan_'
'win_'
'week_'
'tım_'
'taken_'
'söyledim_'
'serious_'
'power_'
'nereden_'
'lose_'
'kızı_'
'hayatım_'
'görünüyor_'
'gerektiğini_'
'eye_'
'dışında_'
'dolu_'
'clear_'
'cağım_'
'bitti_'
'arasında_'
'arada_'
'aldım_'
'Hello_'
'General_'
'Even_'
'Dünya_'
'Bizim_'
'Al_'
'...?_'
'... - _'
'üzerine_'
'ç_'
'yoktu_'
'yeniden_'
'yanında_'
'worth_'
'tried_'
'though_'
'tabii_'
'straight_'
'sort_'
'sonunda_'
'shouldn_'
'shall_'
'secret_'
'past_'
'olun_'
'olmuş_'
'lu_'
'lanet_'
'kendine_'
'hair_'
'gördün_'
'gidiyor_'
'gelen_'
'geldin_'
'funny_'
'food_'
'figure_'
'farklı_'
'ecek_'
'dışarı_'
'düşünüyorum_'
'durumda_'
'drive_'
'diğer_'
'bugün_'
'bazı_'
'act_'
'Would_'
'Michael_'
'Kimse_'
'K_'
'Eve_'
'David_'
'Ayrıca_'
'Adam_'
' '
'ızı_'
'ğim_'
'çalışıyorum_'
'zi_'
'zamanda_'
'words_'
'whatever_'
'trust_'
'team_'
'sürü_'
'süre_'
'rı_'
'red_'
'order_'
'ondan_'
'moving_'
'konusunda_'
'hızlı_'
'hour_'
'hepsi_'
'happens_'
'girls_'
'feeling_'
'birisi_'
'arı_'
'ait_'
'Y_'
'Very_'
'Son_'
'Something_'
'Sir_'
'Sarah_'
'S'
'Put_'
'Mike_'
'J_'
'Could_'
'Baba_'
'"._'
' $_'
' #_'
'ğini_'
'zamanı_'
'yarın_'
'yardımcı_'
'verin_'
'tür_'
'ting_'
'tamamen_'
'takip_'
'safe_'
'rım_'
'ran_'
'oraya_'
'ons_'
'nereye_'
'million_'
'longer_'
'kısa_'
'kesinlikle_'
'göz_'
'gelir_'
'free_'
'durum_'
'değildir_'
'dek_'
'dedi_'
'bunları_'
'azından_'
'anymore_'
'answer_'
'ana_'
'adım_'
']_'
'Two_'
'These_'
'Nice_'
'Nereye_'
'Hem_'
'Dün_'
'Does_'
'Bob_'
'Benimle_'
'An_'
'ğım_'
'za_'
'yapacağım_'
'yalnız_'
'ur_'
'teşekkür_'
'sound_'
'ship_'
'sex_'
'sanıyordum_'
'running_'
'others_'
'ediyorsun_'
'ds_'
'dersin_'
'bunlar_'
'almost_'
'Onunla_'
'Isn_'
'G_'
'Dur_'
'By_'
'Birkaç_'
'şeyleri_'
'çabuk_'
'write_'
'söyleyeyim_'
'sing_'
'sine_'
'senden_'
'sell_'
'scene_'
'rahatsız_'
'rahat_'
'poor_'
'outside_'
'ones_'
'olmayan_'
'olmayacak_'
'olmadı_'
'olmadan_'
'olacağım_'
'normal_'
'miydi_'
'merak_'
'kaldı_'
'ihtiyacı_'
'hot_'
'giving_'
'etmeye_'
'edecek_'
'couple_'
'control_'
'bin_'
'almak_'
'aldı_'
'Yoksa_'
'Our_'
'Man_'
'James_'
'Hemen_'
'Excuse_'
'Efendim_'
'Bırak_'
'Any_'
'ında_'
'ğa_'
'Özür_'
'ze_'
'yaşlı_'
'v_'
'top_'
'sına_'
'stupid_'
'strange_'
'sick_'
'sene_'
'ring_'
'ortaya_'
'olacağını_'
'mısınız_'
'missing_'
'lives_'
'ling_'
'les_'
'kin_'
'ity_'
'insanlar_'
'hem_'
'hang_'
'fast_'
'eden_'
'duydum_'
'der_'
'damn_'
'city_'
'buy_'
'bilmek_'
'bilirim_'
'between_'
'bayan_'
'ation_'
'anybody_'
'aldın_'
'Umarım_'
'Sure_'
'Paris_'
'Never_'
'Nerede_'
'Everything_'
'Allah_'
'500_'
' ._'
' ... _'
'öldürmek_'
'yapar_'
'yapacağız_'
'tired_'
'terk_'
'sürekli_'
'system_'
'silah_'
'shut_'
'shoot_'
'seeing_'
'onların_'
'olurdu_'
'ny_'
'nu_'
'news_'
'milyon_'
'leaving_'
'land_'
'key_'
'kere_'
'ke_'
'işin_'
'içine_'
'human_'
'honey_'
'hayatta_'
'hava_'
'hareket_'
'gitmek_'
'gelmiş_'
'gelip_'
'feet_'
'est_'
'cause_'
'ateş_'
'asking_'
'araba_'
'anyway_'
'altı_'
'Yok_'
'Yarın_'
'U'
'Ray_'
'Paul_'
'Gerçek_'
'Frank_'
'Eminim_'
'Doctor_'
'D'
'B_'
'40_'
'...._'
')_'
'!"_'
'çocuğu_'
'yın_'
'yapma_'
'weren_'
'watching_'
'varmış_'
'small_'
'possible_'
'polis_'
'perfect_'
'nizi_'
'mistake_'
'lunch_'
'lim_'
'kendimi_'
'ize_'
'inden_'
'il_'
'id_'
'ia_'
'henüz_'
'güç_'
'gidiyoruz_'
'eight_'
'dün_'
'dikkat_'
'ciddi_'
'buldum_'
'birine_'
'birden_'
'bet_'
'bekliyor_'
'bebeğim_'
'bebek_'
'beat_'
'başladı_'
'Tony_'
'Tommy_'
'Those_'
'Teşekkür_'
'Sakin_'
'Richard_'
'P_'
'Only_'
'M'
'Lord_'
'Jesus_'
'Jane_'
'Henry_'
'Harry_'
'Be_'
'Aman_'
'After_'
'- "_'
'İnsanlar_'
'üstüne_'
'Önce_'
'yoruz_'
'yaşında_'
'worse_'
'window_'
'tir_'
'till_'
'tatlı_'
'söylüyorsun_'
'sweet_'
'seven_'
'sel_'
'sağ_'
'questions_'
'pull_'
'present_'
'mızı_'
'mıyorum_'
'lere_'
'lerde_'
'led_'
'kten_'
'killing_'
'içki_'
'hayal_'
'hasn_'
'fall_'
'fakat_'
'evidence_'
'evde_'
'eder_'
'edeceğim_'
'easy_'
'drop_'
'dream_'
'cool_'
'bekle_'
'ayı_'
'adamın_'
'acaba_'
'\u_'
'Sizin_'
'Shut_'
'Remember_'
'Pekâlâ_'
'Nick_'
'Mark_'
'Kendini_'
'Geçen_'
'Bye_'
'Benden_'
'Bazen_'
'Bakın_'
'Annem_'
'? !_'
';_'
'17_'
'.'_'
'ğin_'
'Çocuklar_'
'yesterday_'
'works_'
'wonderful_'
'uygun_'
'teşekkürler_'
'telefon_'
'sız_'
'strong_'
'stick_'
'somewhere_'
'save_'
'savaş_'
'sanmıyorum_'
'road_'
'playing_'
'oh_'
'needed_'
'movie_'
'meeting_'
'lt_'
'lovely_'
'learn_'
'kle_'
'klar_'
'iyisi_'
'ice_'
'himself_'
'hey_'
'güçlü_'
'görüşürüz_'
'glad_'
'ful_'
'film_'
'fault_'
'evlat_'
'edersin_'
'dinle_'
'cover_'
'country_'
'ceğim_'
'canlı_'
'broke_'
'brain_'
'board_'
'bi_'
'ball_'
'aşağı_'
'aç_'
'aya_'
'ate_'
'] _'
'Ted_'
'TV_'
'Keep_'
'Beş_'
'Asla_'
'25_'
'* _'
'şeyden_'
'üzere_'
'Ü'
'yız_'
'yakın_'
'thinks_'
'sh_'
'ses_'
'seems_'
'round_'
'report_'
'rek_'
'rather_'
'piece_'
'paid_'
'olup_'
'officer_'
'ner_'
'nd_'
'luck_'
'korumak_'
'kes_'
'işini_'
'istedi_'
'interesting_'
'interested_'
'ihtiyacın_'
'günü_'
'geçen_'
'garip_'
'floor_'
'fell_'
'ev_'
'doktor_'
'diyorum_'
'date_'
'company_'
'canım_'
'box_'
'blow_'
'beyaz_'
'ah_'
'across_'
'acak_'
'Z'
'Wow_'
'Um_'
'U_'
'Some_'
'Pek_'
'May_'
'Kaptan_'
'Jimmy_'
'IN_'
'Eddie_'
'Didn_'
'Cause_'
'Call_'
'Bring_'
'Babam_'
'About_'
' _'
'ğu_'
'önünde_'
'ölü_'
'Önemli_'
'yıldır_'
'yorlar_'
'yaptığını_'
'yapacak_'
'weeks_'
'verdim_'
'varsa_'
'ure_'
'tim_'
'talked_'
'table_'
'suppose_'
'special_'
'sefer_'
'seem_'
'saniye_'
'sake_'
'ride_'
'rağmen_'
'public_'
'parayı_'
'olsaydı_'
'olamaz_'
'ok_'
'nuz_'
'mıyor_'
'min_'
'lie_'
'lerden_'
'law_'
'lardı_'
'iç_'
'ions_'
'insanların_'
'iniz_'
'inin_'
'information_'
'ina_'
'herif_'
'gelin_'
'gelecek_'
'future_'
'fuckin_'
'field_'
'ettin_'
'eri_'
'entire_'
'enjoy_'
'eminim_'
'dık_'
'düşünüyorsun_'
'düşünüyor_'
'dy_'
'dolayı_'
'değer_'
'coffee_'
'cağız_'
'boş_'
'boss_'
'bathroom_'
'basit_'
'bar_'
'apartment_'
'accident_'
'Tekrar_'
'Stay_'
'P'
'Onlara_'
'Max_'
'Make_'
'ME_'
'Lu'
'Lanet_'
'Kesinlikle_'
'IT_'
'I'
'Hu'
'Ge'
'Fuck_'
'Dinle_'
'Charles_'
'Bill_'
'Biliyor_'
''._'
'ıza_'
'ıp_'
'İkinci_'
'ğın_'
'öğrenmek_'
'çıkar_'
'ça_'
'´_'
'zarar_'
'yon_'
'yapmaya_'
'y'
'worried_'
'wearing_'
'wear_'
'wall_'
'verir_'
'turned_'
'thanks_'
'ters_'
'teki_'
'sende_'
'sebep_'
'sanıyorsun_'
'rim_'
'oğlum_'
'orders_'
'olmaya_'
'niye_'
'ness_'
'mıyım_'
'murder_'
'mouth_'
'middle_'
'message_'
'mad_'
'lısın_'
'larına_'
'köpek_'
'ky_'
'komik_'
'ker_'
'ist_'
'insanları_'
'ifade_'
'hoşuma_'
'hospital_'
'hi_'
'hata_'
'gentlemen_'
'force_'
'felt_'
'explain_'
'evine_'
'evening_'
'edeyim_'
'davet_'
'crime_'
'crap_'
'completely_'
'class_'
'calling_'
'burası_'
'born_'
'birthday_'
'birinin_'
'bilmiyordum_'
'biliyoruz_'
'berbat_'
'aşkına_'
'ağır_'
'almaya_'
'`_'
'West_'
'Tabi_'
'Sakın_'
'People_'
'Kötü_'
'Ko'
'Kevin_'
'Johnny_'
'Hep_'
'Hatta_'
'Got_'
'Eric_'
'E'
'Daddy_'
'Bekle_'
'Amerika_'
'? -_'
'18_'
'16_'
'İş_'
'ğe_'
'Öyleyse_'
'zamandır_'
'yüz_'
'yolunda_'
'yi'
'yerinde_'
'yeri_'
'yaptığın_'
'yaparım_'
'yada_'
'worked_'
'train_'
'teslim_'
'terrible_'
'tercih_'
'söylüyorum_'
'swear_'
'suç_'
'steal_'
'sounds_'
'shop_'
'share_'
'sense_'
'scared_'
'sakın_'
'quiet_'
'per_'
'olmalısın_'
'olduğundan_'
'olanlar_'
'olacağız_'
'nızı_'
'neydi_'
'mın_'
'mükemmel_'
'mda_'
'maya_'
'marry_'
'lucky_'
'list_'
'lardan_'
'lan_'
'korkunç_'
'kları_'
'kimseye_'
'kept_'
'işler_'
'işim_'
'iti'
'istediğini_'
'hurry_'
'hepsini_'
'hasta_'
'güvenli_'
'görüyorum_'
'getir_'
'form_'
'fear_'
'evi_'
'eh_'
'eating_'
'düşün_'
'dünya_'
'dik_'
'd'
'computer_'
'cold_'
'clean_'
'caught_'
'careful_'
'building_'
'biliyordum_'
'beyler_'
'bende_'
'belli_'
'bakma_'
'babası_'
'attack_'
'ard_'
'alıp_'
'alım_'
'alacağım_'
'Was_'
'T'
'Someone_'
'Smith_'
'Say_'
'R'
'Polis_'
'Man'
'Luke_'
'Kız_'
'Kendimi_'
'Kaç_'
'K'
'Jake_'
'Hold_'
'Hangi_'
'Galiba_'
'Everybody_'
'Every_'
'Eski_'
'Di'
'Dave_'
'Daniel_'
'Christmas_'
'American_'
'Actually_'
'şans_'
'ölmüş_'
'çıkıp_'
'yerini_'
'weapons_'
'tır_'
'touch_'
'teklif_'
'tehlikeli_'
'sün_'
'spent_'
'soru_'
'song_'
'sizinle_'
'sitting_'
'sam_'
'rd_'
'quick_'
'picture_'
'peace_'
'pe_'
'parçası_'
'ns_'
'month_'
'missed_'
'maz_'
'mate_'
'mam_'
'lying_'
'looked_'
'lisin_'
'lerine_'
'larla_'
'kızlar_'
'ks_'
'kick_'
'kesin_'
'kalacak_'
'kal_'
'ja'
'isterim_'
'ihtiyacımız_'
'ic_'
'ian_'
'hepimiz_'
'har'
'hangi_'
'gurur_'
'gizli_'
'given_'
'gider_'
'gerekiyordu_'
'geldiniz_'
'escape_'
'eceğim_'
'early_'
'dünyanın_'
'du'
'diyorsun_'
'defa_'
'decision_'
'dair_'
'court_'
'count_'
'clothes_'
'choice_'
'certainly_'
'catch_'
'bye_'
'busy_'
'başlıyor_'
'arkadaşım_'
'anlıyorum_'
'ancak_'
'ally_'
'allowed_'
'air_'
'aile_'
'ahbap_'
'address_'
'adamla_'
'Yo_'
'Uzun_'
'Somebody_'
'Sit_'
'Ra'
'Noel_'
'L'
'Kes_'
'Kahretsin_'
'Jim_'
'II_'
'Ha_'
'Father_'
'Earth_'
'Damn_'
'Chuck_'
'Brian_'
'Bilirsin_'
'Bazı_'
'Az_'
'America_'
'8'
'Şunu_'
'üz_'
'Çocuk_'
'Çabuk_'
'zorundayım_'
'zeki_'
'yüksek_'
'yoktur_'
'yken_'
'yeter_'
'yemin_'
'yaptığı_'
'yapamam_'
'weapon_'
'ves_'
'vermek_'
'veririm_'
'uzak_'
'upset_'
'tree_'
'tahmin_'
'sında_'
'söyleyin_'
'söylemiştim_'
'ss_'
'sometimes_'
'smart_'
'sky_'
'sensin_'
'se'
'sanki_'
'ro_'
'respect_'
'program_'
'private_'
'prison_'
'pre'
'pislik_'
'park_'
'over'
'os_'
'oradan_'
'olası_'
'olabilirim_'
'oda_'
'numara_'
'ning_'
'neyse_'
'neyin_'
'ments_'
'memnun_'
'meant_'
'letter_'
'len_'
'kendime_'
'ka_'
'iyiyim_'
'istiyoruz_'
'istiyorsan_'
'istemiyor_'
'interest_'
'inanamıyorum_'
'imi_'
'hotel_'
'hatta_'
'hand'
'haklı_'
'görmedim_'
'gs_'
'ground_'
'geçmiş_'
'galiba_'
'forever_'
'fool_'
'follow_'
'fikir_'
'fighting_'
'fena_'
'expect_'
'ent_'
'duk_'
'ding_'
'difficult_'
'cute_'
'church_'
'chief_'
'caksın_'
'bought_'
'bomb_'
'bilgi_'
'başıma_'
'bazen_'
'aşık_'
'area_'
'annesi_'
'annem_'
'anlamı_'
'alacak_'
'alabilir_'
'acı_'
'accept_'
'Zaten_'
'Ver'
'Teğmen_'
'THAT_'
'Sonunda_'
'Senden_'
'San_'
'Red_'
'RE_'
'Once_'
'Muhtemelen_'
'More_'
'Merak_'
'Me_'
'Master_'
'Looks_'
'Lieutenant_'
'King_'
'Joey_'
'Ja'
'Henüz_'
'He'
'Gidip_'
'First_'
'Ed_'
'Danny_'
'Colonel_'
'Böylece_'
'Biri_'
'Biliyorsun_'
'Bende_'
'B'
'Anyway_'
'Ancak_'
'?" _'
'24_'
'/_'
''?_'
' *_'
'— _'
'şarkı_'
'ının_'
'İ'
'ölüm_'
'çalıştım_'
'zamanlar_'
'yorsunuz_'
'yin_'
'yapmış_'
'yapmam_'
'yapan_'
'wonder_'
'white_'
'welcome_'
'wedding_'
'vakit_'
'unutma_'
'una_'
'tu_'
'tri'
'totally_'
'tor_'
'tin_'
'sıcak_'
'street_'
'step_'
'spot_'
'smoke_'
'situation_'
'sert_'
'sem_'
'saved_'
'rken_'
'problems_'
'president_'
'played_'
'pe'
'oyun_'
'ot_'
'olmasını_'
'nü_'
'nobody_'
'net_'
'near_'
'music_'
'mission_'
'mess_'
'mem_'
'mdan_'
'lü'
'luk_'
'loved_'
'lly_'
'likes_'
'ley_'
'konu_'
'kaza_'
'kavga_'
'kapıyı_'
'kalsın_'
'kalmak_'
'ip_'
'hâlâ_'
'hundred_'
'history_'
'her'
'haydi_'
'happening_'
'ham_'
'hak_'
'görüyor_'
'görünüyorsun_'
'goin_'
'glass_'
'ght_'
'geçti_'
'ged_'
'forward_'
'forgot_'
'ee_'
'edebilirim_'
'değiliz_'
'deli_'
'decided_'
'cra'
'club_'
'charge_'
'certain_'
'bulduk_'
'buddy_'
'birçok_'
'bira_'
'bilmiyor_'
'began_'
'bayım_'
'ası_'
'arkadaşı_'
'arkadaş_'
'ant_'
'annen_'
'ance_'
'ah'
'afternoon_'
'adını_'
'[ _'
'Yüzbaşı_'
'Ye'
'Whoa_'
'Whatever_'
'WE_'
'Te'
'Sağ_'
'Rose_'
'Robert_'
'Ro'
'Oraya_'
'O'
'N'
'Mo'
'Mary_'
'MA'
'Leave_'
'Le'
'Kral_'
'Keşke_'
'Ka'
'Great_'
'Git_'
'French_'
'Du'
'Doesn_'
'Diğer_'
'Devam_'
'Chris_'
'Boy_'
'Bon'
'Bobby_'
'Bar'
'BAR_'
'Arthur_'
'Alex_'
'AND_'
'A'
'300_'
'14_'
'," _'
'♪ _'
'İşe_'
'İnsan_'
'ğine_'
'ğimi_'
'üstü_'
'çeşit_'
'çek_'
'ziyaret_'
'yukarı_'
'yaşam_'
'yazık_'
'xi'
'wi'
'weird_'
'waste_'
'voice_'
'veriyorum_'
'verici_'
'verecek_'
'verdin_'
'vakti_'
'uk_'
'tın_'
'thousand_'
'teacher_'
'taki_'
'takes_'
'söyleyeceğim_'
'söyledin_'
'suz_'
'surprise_'
'state_'
'standing_'
'sonu_'
'sonsuza_'
'sho'
'seksi_'
'seks_'
'saçma_'
's'
'risk_'
'return_'
'relationship_'
'radio_'
'protect_'
'planet_'
'plane_'
'ow_'
'oturup_'
'olsam_'
'olduğum_'
'oldun_'
'none_'
'nca_'
'named_'
'mümkün_'
'ms_'
'mla_'
'mizi_'
'medi'
'mden_'
'ması_'
'master_'
'mar'
'lıyız_'
'lıyım_'
'lü_'
'lo'
'lights_'
'lawyer_'
'l'
'kızım_'
'ko_'
'kahve_'
'isterdim_'
'island_'
'ikiniz_'
'ikinci_'
'ikimiz_'
'herhangi_'
'hallederim_'
'grand_'
'god_'
'girlfriend_'
'giden_'
'gideceğim_'
'gerçeği_'
'gayet_'
'fish_'
'fellow_'
'feelings_'
'except_'
'ediyoruz_'
'duydun_'
'dun_'
'do'
'diyor_'
'department_'
'deniz_'
'demektir_'
'definitely_'
'ded_'
'darling_'
'dalga_'
'cevap_'
'cat_'
'bulmak_'
'bor'
'bon'
'başı_'
'baştan_'
'başarılı_'
'bar'
'balık_'
'bag_'
'arka_'
'amazing_'
'altın_'
'adına_'
'ad_'
'Zi'
'Yardım_'
'Yapma_'
'Vay_'
'Three_'
'Su'
'Show_'
'Should_'
'Sayın_'
'Saat_'
'Ryan_'
'Really_'
'Perhaps_'
'Ondan_'
'Neyse_'
'Ne'
'Mutlu_'
'Mer'
'Martin_'
'Kate_'
'H_'
'HE_'
'Günaydın_'
'Gece_'
'G'
'F_'
'FBI_'
'Dostum_'
'60_'
'200_'
'..."_'
'şe'
'Şuna_'
'ıyorum_'
'üst_'
'öldürdü_'
'çıplak_'
'çalışıyorsun_'
'â'
'Ö'
'zsın_'
'yu'
'yen_'
'yemeğe_'
'yaşamak_'
'yarım_'
'yapıyorum_'
'yapacaksın_'
'yana_'
'yakında_'
'writing_'
'ways_'
'vo'
'verme_'
'veriyor_'
'vereceğim_'
'va_'
'unuz_'
'tuhaf_'
'tu'
'throw_'
'tanıyor_'
'ta'
'sık_'
'sı'
'sürede_'
'sy_'
'suyu_'
'station_'
'soğuk_'
'sonraki_'
'simple_'
'silly_'
'showed_'
'seviyor_'
'sever_'
'security_'
'satın_'
'sal'
'sak_'
'sahibi_'
'rlar_'
'rid_'
'ps_'
'promise_'
'pregnant_'
'ping_'
'perhaps_'
'ped_'
'paper_'
'p'
'onlardan_'
'olacaksın_'
'offer_'
'numbers_'
'notice_'
'neredeyse_'
'nefes_'
'mıydı_'
'mez_'
'meye_'
'man'
'mama_'
'lığı_'
'loose_'
'lar'
'kimin_'
'killer_'
'kayıp_'
'kalın_'
'kalmış_'
'k'
'jealous_'
'je'
'iyidir_'
'isim_'
'io_'
'inde_'
'ikna_'
'hole_'
'hmm_'
'hikaye_'
'hi'
'herhalde_'
'hariç_'
'handle_'
'görev_'
'group_'
'government_'
'gidiyorsun_'
'folks_'
'flight_'
'fa'
'evil_'
'ette_'
'ess_'
'esi_'
'duymak_'
'duruyor_'
'due_'
'dreams_'
'dikkatli_'
'dia'
'destek_'
'decide_'
'dava_'
'cu_'
'continue_'
'contact_'
'co'
'cinsel_'
'cinayet_'
'ceğiz_'
'ce'
'captain_'
'camp_'
'calls_'
'buradayım_'
'birşeyler_'
'biriyle_'
'bilmiyorsun_'
'bilemiyorum_'
'benziyor_'
'bence_'
'begin_'
'baban_'
'b'
'ayak_'
'ary_'
'ap'
'altına_'
'al'
'acele_'
'Yalnızca_'
'Tan'
'THIS_'
'Susan_'
'Sometimes_'
'Sean_'
'Roma_'
'Per'
'Peder_'
'Pe'
'Para_'
'Over_'
'Out_'
'Ni'
'Next_'
'Nathan_'
'Na'
'Morgan_'
'Mil'
'Little_'
'Leo_'
'Larry_'
'Kendine_'
'Julia_'
'Ju'
'ING_'
'Hoş_'
'Hava_'
'Han'
'Do'
'Dear_'
'Dean_'
'Da'
'Chief_'
'Che'
'CAN_'
'Ben'
'Baban_'
'Anna_'
'Albay_'
': "_'
'şaka_'
'şa'
'ıyla_'
'ımı_'
'ıma_'
'ğ'
'üstünde_'
'önceden_'
'öldürüldü_'
'çift_'
'çi_'
'çalışıyoruz_'
'çalışan_'
'Özel_'
'Çi'
'za'
'yıp_'
'yolda_'
'yiz_'
'yeterli_'
'yeterince_'
'yemeği_'
'yedi_'
'yaptık_'
'yapmayı_'
'yanımda_'
'ws_'
'wood_'
'walked_'
'wa'
'village_'
'uş_'
'tor'
'tic_'
'tes_'
'teach_'
'tas'
'sıradan_'
'sıra_'
'sından_'
'surgery_'
'sti'
'spoke_'
'sla'
'ships_'
'sey_'
'self_'
'sakin_'
'sa'
'ru'
'roll_'
'rich_'
'race_'
'ra'
'r'
'quit_'
'proud_'
'pleasure_'
'or'
'olsaydım_'
'olay_'
'often_'
'obviously_'
'noticed_'
'no'
'ned_'
'neck_'
'natural_'
'mıştı_'
'muyum_'
'model_'
'mer_'
'mer'
'mde_'
'mas'
'lerle_'
'lerinin_'
'lea'
'lab_'
'ksin_'
'koy_'
'knife_'
'kleri_'
'kiss_'
'kimsenin_'
'kidding_'
'ke'
'kardeş_'
'kapı_'
'kalp_'
'kadını_'
'işleri_'
'iz'
'isteyen_'
'invite_'
'ings_'
'immediately_'
'im'
'ilginç_'
'hoping_'
'hide_'
'herself_'
'hediye_'
'hanging_'
'gı'
'güle_'
'guard_'
'gu'
'go'
'gift_'
'getireyim_'
'geliyorum_'
'ga_'
'g'
'finish_'
'favor_'
'fan_'
'familiar_'
'excuse_'
'etmez_'
'engel_'
'energy_'
'ene_'
'empty_'
'ee'
'dığım_'
'düşünüyordum_'
'düğün_'
'during_'
'driving_'
'dressed_'
'dedin_'
'de'
'dare_'
'dance_'
'daddy_'
'cry_'
'cross_'
'complete_'
'ch'
'cash_'
'card_'
'can'
'cake_'
'burayı_'
'bri'
'boat_'
'blue_'
'bird_'
'barely_'
'babam_'
'arıyor_'
'army_'
'appreciate_'
'anywhere_'
'anladım_'
'angel_'
'aldık_'
'akşamlar_'
'adamlar_'
'Zavallı_'
'Za'
'Yo'
'Yemek_'
'Y'
'Watch_'
'W_'
'WHAT_'
'Thomas_'
'Think_'
'Tar'
'Söyle_'
'Su_'
'St_'
'Shi'
'Se'
'Sabah_'
'SE'
'Rachel_'
'On'
'Oldukça_'
'OF_'
'None_'
'Neyi_'
'Nereden_'
'Mother_'
'Marie_'
'Mal'
'Lucas_'
'Londra_'
'Ku'
'Kitty_'
'In'
'Ho'
'Her'
'Hal'
'Görünüşe_'
'Gar'
'Fo'
'English_'
'ER_'
'Dört_'
'Don'
'Dikkat_'
'Dan_'
'Con'
'Clark_'
'City_'
'Chloe_'
'Cha'
'Cal'
'C'
'Buradan_'
'Buradaki_'
'Binbaşı_'
'Beyler_'
'Besides_'
'Ber'
'Bebek_'
'Başkan_'
'Açık_'
'Anything_'
'Annen_'
'Andrew_'
'Alan_'
'? ._'
'0'
'- ..._'
'', _'
'"..._'
' -_'
' (_'
'şöyle_'
'şimdiye_'
'şansı_'
'ından_'
'ımız_'
'İçeri_'
'İngiltere_'
'ür_'
'özgür_'
'çıkmış_'
'çı'
'Ça'
'zi'
'zamanlarda_'
'yıllar_'
'yum_'
'yo'
'yn_'
'yerden_'
'yapıyoruz_'
'yaparken_'
'yapalım_'
'yanına_'
'yacağım_'
'x'
'wing_'
'wake_'
'visit_'
'vin_'
'vi'
'ver'
've'
'van_'
'using_'
'ugly_'
'ufak_'
'tıpkı_'
'tık_'
'track_'
'tra'
'to'
'tik_'
'temiz_'
'tarafta_'
'talent_'
'sözü_'
'söyleyebilirim_'
'söyleme_'
'switch_'
'sweetheart_'
'suçu_'
'suspect_'
'sub'
'store_'
'stopped_'
'stone_'
'sta'
'spend_'
'space_'
'sona_'
'sol_'
'smell_'
'single_'
'sinde_'
'short_'
'ser'
'sebebi_'
'sea_'
'sayesinde_'
'salak_'
'sahte_'
'ry'
'rt_'
'rock_'
'rler_'
'responsibility_'
'relax_'
'qua'
'position_'
'pon'
'plenty_'
'pla'
'pes_'
'personal_'
'partner_'
'para'
'pack_'
'owe_'
'ought_'
'oni'
'olmasına_'
'olmasın_'
'olman_'
'olabilirsin_'
'ob'
'nu'
'nlar_'
'neye_'
'nervous_'
'ndı_'
'na'
'mü'
'muz_'
'mor'
'mentioned_'
'memory_'
'mat'
'marriage_'
'lı'
'liyiz_'
'lived_'
'lay_'
'lat'
'larda_'
'kızın_'
'ku'
'kte_'
'kta_'
'konuşma_'
'konusu_'
'koca_'
'kler_'
'kla_'
'keys_'
'kelime_'
'keeps_'
'kardeşim_'
'kadınlar_'
'işkence_'
'izle_'
'ive_'
'istiyorsunuz_'
'istersin_'
'istersen_'
'istediğimi_'
'instead_'
'ine'
'imiz_'
'ileri_'
'holding_'
'hired_'
'herşeyi_'
'herkesin_'
'hello_'
'hayat_'
'hatırlıyor_'
'hall_'
'hale_'
'gücü_'
'gösteriyor_'
'gönderdi_'
'gold_'
'gittim_'
'gitmiş_'
'giderken_'
'gidecek_'
'gibisin_'
'gerekir_'
'gelirse_'
'gelince_'
'geldiğini_'
'geceler_'
'gar'
'fresh_'
'forgive_'
'flowers_'
'figured_'
'feels_'
'experience_'
'ettiğini_'
'etmeliyiz_'
'et'
'ele_'
'elbette_'
'een_'
'edebilir_'
'ear'
'dışarıda_'
'dığı_'
'döndü_'
'dude_'
'driver_'
'drinking_'
'dollars_'
'diyorlar_'
'dis'
'difference_'
'dersiniz_'
'dark_'
'damage_'
'daima_'
'cy_'
'cu'
'cop_'
'concerned_'
'common_'
'che'
'cha'
'ceğini_'
'cesaret_'
'calm_'
'burning_'
'burda_'
'bur'
'bunch_'
'bulmaya_'
'buldu_'
'bul_'
'breakfast_'
'bodies_'
'bleeding_'
'bizden_'
'biliyorsunuz_'
'bilirsiniz_'
'bigger_'
'belong_'
'baylar_'
'bay_'
'ba_'
'az'
'ati'
'asıl_'
'art'
'arkadaşın_'
'aradı_'
'apart_'
'ans_'
'animals_'
'ana'
'alıyorum_'
'alır_'
'alt'
'alayım_'
'alalım_'
'akı'
'agent_'
'adama_'
'action_'
'acil_'
'X_'
'Victor_'
'Ve'
'V_'
'V'
'Time_'
'Their_'
'Street_'
'Sounds_'
'Sergeant_'
'ST'
'SO_'
'SA'
'Pu'
'Open_'
'Onların_'
'Ok_'
'Neredeyse_'
'NE'
'Mü'
'Mulder_'
'Move_'
'Mm_'
'Men_'
'Mc'
'Mar'
'Logan_'
'Kan_'
'Kan'
'Kadın_'
'KI'
'Jones_'
'Jo'
'Je'
'J'
'Ii'
'IS_'
'Herhalde_'
'Hepimiz_'
'Hayat_'
'Has_'
'H'
'Grace_'
'Go'
'Four_'
'Fe'
'FOR_'
'Elizabeth_'
'Dışarıda_'
'Dis'
'DNA_'
'Cor'
'Co'
'China_'
'Chi'
'Brown_'
'Bo'
'Bir'
'Ba'
'BE'
'Ask_'
'Ar'
'Angeles_'
'Amy_'
'Amerikan_'
'Am_'
'Al'
'Acaba_'
'90_'
'5'
'13_'
'$_'
'", _'
' ] _'
'şeydi_'
'şehir_'
'Şöyle_'
'Şa'
'Ş'
'ınız_'
'İs'
'ğız_'
'üm_'
'ön_'
'é_'
'çıkmak_'
'çi'
'çe_'
'z'
'yı'
'ysa_'
'ying_'
'yeşil_'
'yazı'
'yaz_'
'yard_'
'yapın_'
'yapman_'
'yacak_'
'wor'
'witness_'
'within_'
'wine_'
'weekend_'
'warm_'
'w'
'ville_'
'video_'
'verdiği_'
'uyuşturucu_'
'ut_'
'up'
'tı'
'type_'
'trip_'
'treat_'
'training_'
'tis'
'ticket_'
'third_'
'thi'
'the'
'tells_'
'tch_'
'tabi_'
'sının_'
'sıkıcı_'
'süre'
'söylemem_'
'sur'
'student_'
'strength_'
'stomach_'
'ster_'
'star_'
'spirit_'
'soul_'
'sorunu_'
'signal_'
'shooting_'
'shoes_'
'shape_'
'sek_'
'sefere_'
'sees_'
'seconds_'
'sağlam_'
'sarhoş_'
'rule_'
'river_'
'rit'
'ref'
'recognize_'
'raise_'
'push_'
'prove_'
'pretend_'
'pig_'
'patient_'
'passed_'
'pass_'
'paraya_'
'pants_'
'pal_'
'oy_'
'ou_'
'otur_'
'orospu_'
'ori'
'on'
'olmuyor_'
'olmayı_'
'olmadığı_'
'olduğun_'
'of'
'odası_'
'nüz_'
'ngs_'
'ney_'
'nesi_'
'nedeni_'
'nearly_'
'nan_'
'muhteşem_'
'mp_'
'mle_'
'miyor_'
'mit'
'milk_'
'merhaba_'
'mention_'
'match_'
'ma'
'lıyor_'
'ly'
'loves_'
'lli'
'learned_'
'larının_'
'larım_'
'ladies_'
'kça_'
'kâ'
'konuşuyor_'
'konuştum_'
'konuşmaya_'
'kom'
'kendin_'
'kaybetme'
'katil_'
'karım_'
'kartı_'
'kar_'
'kalan_'
'kahrolası_'
'kadarıyla_'
'ka'
'jo_'
'iğrenç_'
'iyorum_'
'iyisin_'
'itself_'
'istemem_'
'istemedim_'
'istediği_'
'ing'
'inanıyorum_'
'ime_'
'ila'
'idare_'
'horse_'
'horrible_'
'ho_'
'herkesi_'
'helping_'
'heaven_'
'he'
'hat_'
'göstermek_'
'gördüğüm_'
'golf_'
'giyme'
'gitmeliyim_'
'gemi_'
'gel'
'ge'
'fırsat_'
'fotoğraf_'
'ford_'
'foot_'
'fly_'
'fingers_'
'final_'
'file_'
'fair_'
'eğlenceli_'
'eğlence_'
'ettiğin_'
'etmeyi_'
'escaped_'
'ero'
'erken_'
'erin_'
'eri'
'enemy_'
'em'
'ely_'
'elim_'
'elde_'
'ei'
'edersen_'
'ea'
'dışı_'
'dığını_'
'dön_'
'dying_'
'duyuyorum_'
'diğini_'
'diz'
'divorce_'
'değiller_'
'derhal_'
'deep_'
'dans_'
'dal'
'dahil_'
'dahaki_'
'cı'
'crew_'
'cost_'
'cops_'
'choose_'
'carry_'
'camera_'
'bununla_'
'bunların_'
'buldun_'
'bs_'
'breath_'
'boyfriend_'
'blo'
'bizimle_'
'bir'
'bilecek_'
'bildiğim_'
'bekliyorum_'
'beginning_'
'beer_'
'bea'
'bastard_'
'bakayım_'
'açı'
'ayım_'
'arm_'
'arabaya_'
'anlıyor_'
'anlamına_'
'ani_'
'allow_'
'alar'
'akıllı_'
'Zo'
'Zaman_'
'Z_'
'Yedi_'
'Yarım_'
'Yalan_'
'Ya'
'While_'
'Were_'
'Welcome_'
'Vi'
'Vegas_'
'Van_'
'Tru'
'Tra'
'Ti'
'Telefon_'
'Tamamen_'
'Tak'
'TI'
'Ste'
'Sizinle_'
'Since_'
'Simon_'
'Sher'
'Shall_'
'Sağol_'
'San'
'Pri'
'Police_'
'Po'
'Pete_'
'ON_'
'North_'
'Nina_'
'Neye_'
'Mi'
'Mel'
'Mah'
'Madam_'
'Mac_'
'Lou_'
'Los_'
'Lewis_'
'Last_'
'La'
'Kuzey_'
'Katie_'
'Karen_'
'Kar'
'Kapa_'
'Jean_'
'Hay'
'Ha'
'Güneş_'
'Guys_'
'Ger'
'Fine_'
'Fil'
'Everyone_'
'ED_'
'Down_'
'De'
'Cooper_'
'Cla'
'Check_'
'Ce'
'Car'
'Bunları_'
'Boş_'
'Bor'
'Bizimle_'
'Billy_'
'Beyaz_'
'Before_'
'Bal'
'Aren_'
'Anladım_'
'Andy_'
'Ana_'
'Ana'
'Agent_'
'Af'
'Ad'
'Ab'
'6'
'195'
', '_'
'! '
'şü'
'şov'
'ğında_'
'ğiz_'
'ük_'
'é'
'çıkıyor_'
'çık_'
'çocuğun_'
'çiçek_'
'çe'
'Özellikle_'
'Çık_'
'zevk_'
'zengin_'
'zavallı_'
'zamanında_'
'zamanki_'
'yoldan_'
'yok'
'yer'
'yeceğim_'
'yazıyor_'
'yarı_'
'yapıyorsunuz_'
'yapabilirim_'
'yana'
'yalnızca_'
'yakışıklı_'
'yaka'
'worst_'
'usually_'
'ust'
'upon_'
'unu_'
'uns'
'unda_'
'un'
'ul_'
'ud'
'türlü_'
'tuttu'
'tutmak_'
'tur_'
'tro'
'trial_'
'tough_'
'tip_'
'tight_'
'themselves_'
'tespit_'
'telefonu_'
'tehdit_'
'tap'
'tank_'
'sınıf_'
'süredir_'
'söyleyecek_'
'söylemedin_'
'söylediğini_'
'suçlu_'
'super'
'subject_'
'study_'
'starts_'
'spa'
'somehow_'
'soldiers_'
'soldier_'
'slow_'
'sleeping_'
'sha'
'seviyorsun_'
'sevindim_'
'sessiz_'
'sesini_'
'service_'
'seniz_'
'sence_'
'sel'
'sayılmaz_'
'sat'
'sanız_'
'sandın_'
'sal_'
'saatte_'
'rını_'
'ros'
'ric'
'rg'
'quickly_'
'que_'
'pro'
'pri'
'pressure_'
'poo'
'ple'
'pie_'
'picked_'
'per'
'pain_'
'oyunu_'
'outta_'
'out'
'ourselves_'
'ong_'
'olmuştu_'
'olma_'
'olduğunuzu_'
'olduğunda_'
'oldu'
'od'
'nü'
'nt'
'ns'
'note_'
'nine_'
'nic_'
'ni'
'ng'
'ne'
'names_'
'n'
'mıştır_'
'mıyız_'
'mutluyum_'
'muhtemelen_'
'moved_'
'mişti_'
'miyorum_'
'mis'
'min'
'mark_'
'mal_'
'mah'
'magic_'
'lük_'
'lots_'
'lo_'
'lme'
'll'
'lk'
'lim'
'liked_'
'legs_'
'language_'
'la'
'kurtarmak_'
'kur'
'kra'
'koruma'
'konu'
'ko'
'kimi_'
'ki'
'kendisi_'
'keeping_'
'kaçtı_'
'kazandım_'
'kat_'
'karanlık_'
'kan'
'kalır_'
'kaldır_'
'kadının_'
'jump_'
'jobs_'
'jo'
'ji_'
'jail_'
'iyle_'
'isteme'
'istediğin_'
'ismi_'
'ish_'
'irim_'
'iptal_'
'ious_'
'inter'
'insanın_'
'ihtiyacınız_'
'i'
'humans_'
'hizmet_'
'hin'
'higher_'
'hero_'
'hayatını_'
'havaya_'
'hatırlıyorum_'
'hanımefendi_'
'ha'
'güzeldi_'
'günlerde_'
'gözüküyor_'
'guards_'
'greatest_'
'goddamn_'
'gitsin_'
'gi_'
'gerekecek_'
'ger'
'gentleman_'
'gelmişti_'
'geldiği_'
'geldik_'
'gate_'
'gas_'
'games_'
'further_'
'fully_'
'fucked_'
'fon'
'fle'
'fit_'
'fired_'
'finished_'
'finding_'
'finally_'
'ff_'
'fazlasını_'
'farkında_'
'families_'
'falling_'
'ey'
'expecting_'
'ex_'
'ev'
'ettiği_'
'ettiniz_'
'ere_'
'ere'
'er'
'epey_'
'ens'
'eli_'
'ek'
'ediyorsunuz_'
'edilmiş_'
'ederiz_'
'eceğini_'
'earth_'
'dılar_'
'düşünmüştüm_'
'düşündün_'
'düştü_'
'dü_'
'duty_'
'durma_'
'drunk_'
'drugs_'
'doğruyu_'
'doğa'
'double_'
'dolarlık_'
'diyeceğim_'
'diye'
'discovered_'
'disc'
'dinleyin_'
'di'
'ders_'
'der'
'dene_'
'den'
'deme_'
'dar_'
'dangerous_'
'danger_'
'dahi_'
'cs_'
'cor'
'conversation_'
'code_'
'chocolate_'
'chair_'
'cell_'
'car'
'bıraktım_'
'built_'
'broken_'
'bringing_'
'bother_'
'bones_'
'bomba_'
'bok_'
'blame_'
'bit'
'birth_'
'birisini_'
'birileri_'
'bilmiyoruz_'
'bet'
'beg_'
'beach_'
'baş_'
'baş'
'bath_'
'bank_'
'babies_'
'ay'
'aware_'
'attention_'
'ates_'
'as'
'arıyorum_'
'arıyorsun_'
'arrest_'
'aradım_'
'animal_'
'angry_'
'an'
'alı'
'almış_'
'ak'
'adında_'
'acağım_'
'ac'
'absolutely_'
'Yi'
'Yanlış_'
'Yaklaşık_'
'Willie_'
'William_'
'Way_'
'Washington_'
'Var'
'Un'
'Try_'
'Ta'
'Söz_'
'Stu'
'Still_'
'Six_'
'Si'
'Shit_'
'Sheriff_'
'Sat'
'Same_'
'Russian_'
'Ross_'
'Ri'
'Ram'
'Probably_'
'Poor_'
'Pi'
'Pardon_'
'Palmer_'
'Oto'
'Nu'
'No'
'Niçin_'
'Nan'
'Mid'
'Me'
'May'
'Madem_'
'Mac'
'Ma_'
'MAN_'
'Lucy_'
'Love_'
'London_'
'Lex_'
'Lea'
'LI'
'Korkunç_'
'Kat'
'Kapı'
'Julie_'
'Hurry_'
'Hotel_'
'Hazır_'
'Haklısın_'
'HO'
'Güney_'
'Gro'
'Gelecek_'
'Ga'
'Fransız_'
'Florida_'
'F'
'Ex'
'El'
'Edward_'
'Earl_'
'Dude_'
'Donna_'
'Dol'
'Din'
'Deli_'
'Defol_'
'Dar'
'DO_'
'Cur'
'Claire_'
'Carl_'
'Bu'
'British_'
'Bra'
'Black_'
'Bi'
'Bel'
'Bea'
'Be'
'BA'
'Arka_'
'Akşam_'
'Affedersiniz_'
'ALL_'
'7'
'10'
'... .._'
'. '
'- - _'
'% _'
'şu'
'şeker_'
'şarap_'
'şansın_'
'şansımız_'
'ığı_'
'ıyorsun_'
'ıy'
'ılar_'
'İyiyim_'
'İsa_'
'İn'
'ğının_'
'ğına_'
'ğü_'
'üçüncü_'
'üzüldüm_'
'ölü'
'öldürme'
'ö'
'çıkan_'
'çoktan_'
'çeneni_'
'Üstelik_'
' ?_'
'zın_'
'zorundayız_'
'zin_'
'zer'
'zed_'
'zan'
'zamandan_'
'yıldız_'
'yıka'
'yüze'
'yöne_'
'yola_'
'ymiş_'
'yecek_'
'ydu_'
'ydim_'
'yd'
'yağ'
'yazı_'
'yavaş_'
'yata'
'yarısı_'
'yaramaz_'
'yapmadım_'
'yapabilirsin_'
'yapabilir_'
'yanı_'
'yan'
'yaklaşık_'
'written_'
'wondering_'
'wild_'
'whose_'
'whether_'
'weight_'
'watched_'
'walking_'
'ving_'
'vermeyeceğim_'
'veremem_'
'van'
'vahşi_'
'va'
'v'
'ut'
'unut_'
'under'
'uncle_'
'ue_'
'truck_'
'travel_'
'towards_'
'tme'
'tle_'
'tive_'
'ties_'
'ti'
'thoughts_'
'te'
'tarafa_'
'takım_'
'tail_'
't'
'sürpriz_'
'söylerim_'
'söylemiştin_'
'söylemiş_'
'söylemeliyim_'
'söylemedi_'
'sy'
'sweetie_'
'support_'
'suddenly_'
'sudden_'
'stuck_'
'star'
'spi'
'spell_'
'source_'
'soup_'
'slept_'
'sinin_'
'sinden_'
'sim'
'shows_'
'shopping_'
'she'
'seçim_'
'seyahat_'
'sey'
'sevgili_'
'severim_'
'serve_'
'seemed_'
'sed_'
'sec'
'sağlık_'
'saf_'
'sad_'
'rı'
'rüzgar_'
'rush_'
'ruin_'
'rsin_'
'rse_'
'rl'
'rin_'
'rh'
'resmi_'
'rate_'
'ral_'
'pure_'
'pul'
'pti'
'press_'
'powerful_'
'poker_'
'plus_'
'pleased_'
'plant_'
'places_'
'pit'
'pissed_'
'pho'
'pay'
'patron_'
'parti_'
'parti'
'parlak_'
'par'
'papers_'
'pan'
'pahalı_'
'ot'
'ortak_'
'ors_'
'opportunity_'
'op'
'oo'
'onlarla_'
'om_'
'olmalıyız_'
'olmalısınız_'
'olduğunun_'
'older_'
'olayı_'
'olanı_'
'olabileceğini_'
'okul_'
'oil_'
'offered_'
'odada_'
'nün_'
'nowhere_'
'nose_'
'non_'
'nmış_'
'nler_'
'ndaki_'
'naked_'
'mıştım_'
'mızın_'
'mıza_'
'mücadele_'
'mu'
'ms'
'motor_'
'mot'
'mon_'
'mm'
'ming_'
'military_'
'miles_'
'mi'
'mezsin_'
'metre_'
'mesaj_'
'mayı_'
'may'
'material_'
'male_'
'lt'
'low_'
'loud_'
'loss_'
'locked_'
'lock_'
'lma'
'listening_'
'lies_'
'lied_'
'lf_'
'level_'
'le'
'ldı'
'larında_'
'larsa_'
'laid_'
'laf_'
'kırmızı_'
'kurtulma'
'konuşabilir_'
'konuş_'
'kol'
'knowing_'
'kişinin_'
'kin'
'kim'
'kicked_'
'kendim_'
'kat'
'kara_'
'kara'
'kaldım_'
'kal'
'joke_'
'jacket_'
'ja_'
'işine_'
'izde_'
'itiraf_'
'isti'
'istemezsin_'
'is'
'involved_'
'incredible_'
'incident_'
'ince_'
'ina'
'imkansız_'
'ima'
'ilişki_'
'ili'
'ilgisi_'
'idir_'
'ible_'
'hungry_'
'hoo'
'honest_'
'home'
'hiding_'
'herşey_'
'heavy_'
'heading_'
'hay'
'harikaydı_'
'hara'
'hap'
'han_'
'ham'
'haline_'
'haklısın_'
'hakkımda_'
'günler_'
'güneş_'
'götür_'
'görün'
'görmüş_'
'guilty_'
'grow_'
'grateful_'
'grandfather_'
'gra'
'gotten_'
'gives_'
'gitmeyi_'
'gin'
'gim_'
'giderim_'
'gh_'
'geçme'
'getirin_'
'getirdin_'
'ger_'
'gemisi_'
'gelmek_'
'gele'
'geldiğinde_'
'gay_'
'fur'
'for'
'fix_'
'ff'
'federal_'
'fake_'
'faith_'
'evin_'
'everywhere_'
'ettiğim_'
'ettiler_'
'etrafında_'
'etmiş_'
'etmen_'
'etmem_'
'eskiden_'
'ents_'
'ena'
'eli'
'eler_'
'ele'
'eggs_'
'ef'
'ediyorlar_'
'edildi_'
'edelim_'
'ec'
'dürüst_'
'dünyaya_'
'dönüp_'
'dua_'
'dropped_'
'draw_'
'dol'
'dle_'
'diniz_'
'dick_'
'destroyed_'
'derece_'
'dep'
'deli'
'dating_'
'cü_'
'crying_'
'crack_'
'considered_'
'coat_'
'co_'
'chu'
'cho'
'ching_'
'chicken_'
'ches_'
'cer'
'cağını_'
'cards_'
'bırakın_'
'büyü'
'bü'
'böylece_'
'buydu_'
'bury_'
'buradayız_'
'bulup_'
'bu'
'breaking_'
'bra'
'books_'
'bo'
'birer_'
'birbirimize_'
'bira'
'bilme'
'bilen_'
'bile'
'bi'
'ber'
'believed_'
'be'
'başlama'
'başa_'
'bağışla'
'battle_'
'bastards_'
'bal'
'bakı'
'bakmak_'
'baka'
'bah'
'ba'
'aza'
'ayrıca_'
'aydır_'
'avukat_'
'ating_'
'ated_'
'ast'
'askeri_'
'arrested_'
'araştırma_'
'araya_'
'aramızda_'
'apologize_'
'anı_'
'anlaşma'
'anlar_'
'anlamıyorum_'
'am'
'alın_'
'als_'
'almam_'
'ali'
'ale'
'acting_'
'aci'
'ab'
'Yu'
'Young_'
'Yapa'
'Yalnız_'
'Yakında_'
'X'
'Walker_'
'VI'
'VE_'
'Uncle_'
'US_'
'Trust_'
'Tor'
'To'
'The'
'Terry_'
'Tatlım_'
'Sus'
'Sun'
'So'
'Sister_'
'Siktir_'
'Sha'
'Ser'
'Saturday_'
'Sara_'
'Sar'
'Sand'
'SI'
'Ry'
'Rudy_'
'Ros'
'Robin_'
'Ren'
'Re'
'Rahatsız_'
'Rad'
'Professor_'
'Pra'
'Port'
'Oğlum_'
'Os'
'Orası_'
'Oradan_'
'Ooh_'
'OR_'
'Neler_'
'Nasılsın_'
'Monday_'
'Mommy_'
'Min'
'Miles_'
'Maria_'
'Mari'
'Mag'
'Ma'
'MI'
'Lo'
'Linda_'
'Lee_'
'La_'
'Kırmızı_'
'Köpek_'
'Kyle_'
'Kusura_'
'Kimin_'
'Kimi_'
'Kenny_'
'Kelly_'
'Ke'
'Kas'
'Kahve_'
'KNOW_'
'KE'
'Johnson_'
'Jess_'
'Jerry_'
'Jenny_'
'Jackie_'
'Is'
'Ie'
'Hâlâ_'
'House_'
'Honey_'
'Hepiniz_'
'Help_'
'Hell_'
'Hayatım_'
'Har'
'HA'
'Güle_'
'Gidelim_'
'Gal'
'GO'
'Friday_'
'Forgive_'
'Five_'
'Far'
'Fa'
'Es'
'Erkek_'
'Er'
'Emin_'
'Em'
'ES'
'Dışarı_'
'Dürüst_'
'Durun_'
'Dra'
'Değil_'
'Der'
'DE'
'Ciddi_'
'Ci'
'Cas'
'Ca'
'Buyurun_'
'Bununla_'
'Bunda_'
'Both_'
'Birlikte_'
'Birileri_'
'Big_'
'Bey'
'Better_'
'Bat'
'Av'
'Ama'
'Always_'
'Altı_'
'Aile_'
'Ag'
'Aferin_'
'Adım_'
'Adı_'
'Adamın_'
'Acele_'
'AN'
'21_'
'197'
'... ... _'
'... - ..._'
'.. .._'
'. ..._'
'- [_'
'- '
',..._'
' ,_'
'–_'
'– _'
'şüphe_'
'şuna_'
'şehre_'
'şe_'
'Şimdilik_'
'Şaka_'
'ızda_'
'ıydı_'
'İş'
'İzin_'
'İste'
'İkimiz_'
'üz'
'üyor_'
'üstünden_'
'ünü_'
'özellikle_'
'öyleyse_'
'ölme'
'öldürmeye_'
'öldü'
'çıkardı'
'çı_'
'çekme'
'çekil_'
'çağırma'
'çay_'
'çalışmak_'
'çalışma_'
'çalışa'
'Çoğu_'
'Çin_'
'zorundasın_'
'zli'
'zamana_'
'yüzünü_'
'yse_'
'ysan_'
'ys_'
'you'
'yormuş_'
'yordum_'
'yordu_'
'yolunu_'
'yokmuş_'
'ymış_'
'yaşama'
'yapıyorlar_'
'yapı'
'yaptığımı_'
'yaptığım_'
'yapmıyorum_'
'yaparsın_'
'yapardım_'
'yapamazsın_'
'yapacağımı_'
'yakaladı'
'yak'
'wind_'
'willing_'
'wide_'
'weather_'
'weak_'
'ward_'
'wal'
'view_'
'victim_'
'vermiyor'
'vermedi_'
'verirsen_'
'vaz'
'uzakta_'
'unit_'
'ung_'
'unc'
'umut_'
'umurumda_'
'ulaştı'
'ul'
'ub'
'ual_'
'u'
'tz_'
'tut_'
'ture_'
'tum_'
'trade_'
'tongue_'
'ton'
'threat_'
'theory_'
'temizle'
'tem'
'telephone_'
'teeth_'
'technology_'
'tavsiye_'
'tarafı_'
'tar_'
'tar'
'tam'
'sırada_'
'sıkı_'
'sürece_'
'sü'
'söylemeye_'
'swi'
'suna'
'sun'
'su'
'style_'
'stolen_'
'ster'
'speed_'
'soy'
'south_'
'songs_'
'son'
'sol'
'skin_'
'siyah_'
'sion_'
'sinir_'
'shift_'
'shame_'
'sexual_'
'several_'
'sevdiğimi_'
'sesi_'
'sen'
'seat_'
'search_'
'sanıyor_'
'sandım_'
'sala'
'sahipsin_'
'sab'
'ruh_'
'rt'
'rsınız_'
'rsa_'
'row_'
'rol_'
'riske_'
'ri'
'reward_'
'rese'
'res_'
'reports_'
'release_'
'regret_'
'record_'
'reading_'
'rda_'
'randevu_'
'ran'
'pulling_'
'pulled_'
'pu'
'provide_'
'price_'
'pray_'
'pp'
'pot'
'positive_'
'pop_'
'political_'
'polisi_'
'pin'
'pi'
'peşinde_'
'percent_'
'pencere'
'patla'
'parça_'
'parmak_'
'pa'
'oğlu_'
'ov_'
'ou'
'ortağı'
'ordinary_'
'ordered_'
'opinion_'
'opa'
'op_'
'onur_'
'one'
'onda_'
'ona'
'olursun_'
'olmazdı_'
'olalım_'
'olacaktır_'
'olabiliriz_'
'okuma'
'ok'
'oi'
'odasında_'
'occurred_'
'o'
'nuts_'
'numaralı_'
'now'
'nme'
'niçin_'
'nize_'
'necessary_'
'ndi_'
'nder_'
'nazik_'
'nar'
'mut'
'muscle_'
'mr_'
'mp'
'mountain_'
'moon_'
'mood_'
'mod'
'mo'
'miştim_'
'millet_'
'mikro'
'meşgul_'
'mes'
'meal_'
'me'
'md'
'mb'
'mana_'
'major_'
'main_'
'mail_'
'mahkum_'
'mad'
'machine_'
'mac'
'luyor'
'lle_'
'lla_'
'lit'
'lin_'
'liar_'
'letting_'
'lerinde_'
'lerdi_'
'leader_'
'lay'
'laughing_'
'lately_'
'kış_'
'kıza_'
'kıya'
'kür'
'kullanmayı_'
'kullanmak_'
'ktir_'
'kta'
'konuşmalıyım_'
'kontrol'
'kon'
'klerini_'
'kitabı_'
'kimseyi_'
'kilo_'
'keşke_'
'ket'
'kaçma'
'kaybettim_'
'kaybettik_'
'katılmak_'
'katı'
'karar'
'kapıdan_'
'kapalı_'
'kap'
'kalıyor_'
'kalma_'
'kalma'
'kahretsin_'
'kahraman_'
'kafa_'
'kadınla_'
'judge_'
'join_'
'ji'
'j_'
'işten_'
'içer'
'iyisini_'
'iyice_'
'it'
'istiyorlar_'
'istemiştim_'
'istedin_'
'io'
'inşa_'
'intend_'
'ins_'
'including_'
'inanmak_'
'imagine_'
'il'
'iki'
'ideas_'
'ide_'
'id'
'ick_'
'hücre'
'hurts_'
'honestly_'
'hip_'
'hin_'
'health_'
'headed_'
'hayatın_'
'hava'
'hardly_'
'hafta'
'hadn_'
'güvenlik_'
'gü'
'gözden_'
'gösterme'
'gösteri'
'görünce_'
'görmeye_'
'görmemiştim_'
'gördüğüme_'
'gör_'
'gu_'
'grup_'
'gri'
'gor'
'gittiğini_'
'gitme_'
'giriyor_'
'ging_'
'gibiydi_'
'gi'
'geçire'
'geçe'
'getirme'
'getirdim_'
'getirdi_'
'geride_'
'gerekli_'
'gerekirse_'
'genius_'
'gen'
'gelme'
'ga'
'freedom_'
'fre'
'fra'
'flying_'
'flu'
'fer'
'fazlası_'
'favorite_'
'fantastic_'
'fahişe_'
'eşlik_'
'eşit_'
'ez_'
'exist_'
'evlenmek_'
'ettik_'
'escort_'
'es'
'enti'
'eni_'
'elle_'
'elini_'
'elinde_'
'elin'
'elektrik_'
'ekle'
'eki_'
'eg'
'edip_'
'ederler_'
'ederek_'
'edemem_'
'edeceğiz_'
'ebilir_'
'eb'
'easier_'
'dığımız_'
'dınız_'
'düşünmüyorum_'
'düşman_'
'dünyada_'
'dönüyor_'
'duş_'
'duyar'
'dust_'
'durup_'
'durma'
'dumb_'
'drove_'
'downstairs_'
'dokunma'
'diğim_'
'dirty_'
'dile'
'değiştire'
'değerli_'
'dev_'
'details_'
'detail_'
'derken_'
'derdi_'
'denen_'
'deneme'
'demedim_'
'defense_'
'dec'
'ct_'
'create_'
'cre'
'covered_'
'cousin_'
'correct_'
'corner_'
'concern_'
'comp'
'comfortable_'
'cks_'
'ck'
'chi'
'cheating_'
'chasing_'
'ces_'
'cehenneme_'
'canına_'
'ca'
'bıraktı_'
'bıktım_'
'büro'
'bölü'
'bus_'
'burn_'
'buried_'
'bullshit_'
'buldunuz_'
'build_'
'budur_'
'breaks_'
'bottom_'
'borrow_'
'bo_'
'bloody_'
'biz'
'biriydi_'
'birinci_'
'binanın_'
'biliriz_'
'belongs_'
'bekliyordum_'
'bek'
'becoming_'
'bear_'
'bb'
'başlayalım_'
'başladım_'
'bağlantı_'
'bakarsan_'
'bahsediyorsun_'
'ağa'
'ayır'
'ayrılma'
'available_'
'aunt_'
'ath'
'at'
'ase'
'arrived_'
'arkada_'
'ari'
'arayın_'
'ararım_'
'arama_'
'arabayı_'
'ara'
'aptal'
'anın_'
'anti'
'anne'
'ane_'
'ama'
'alıyor_'
'alan_'
'alan'
'ala'
'aklıma_'
'ai'
'advantage_'
'adi_'
'aday'
'abs'
'abilir_'
'Ze'
'Zack_'
'Yeter_'
'Yer'
'Yaşlı_'
'Yavaş_'
'YA'
'Wi'
'Wei'
'WO'
'WHEN_'
'W'
'Vic'
'Va'
'UR'
'UN'
'Turn_'
'Tur'
'Tu'
'Tre'
'Tokyo_'
'Times_'
'Things_'
'Th'
'Tes'
'Tav'
'Talk_'
'THEY_'
'TE'
'Steve_'
'Star'
'Sta'
'Sonny_'
'Sol'
'Silah_'
'Sid_'
'Sho'
'Santa_'
'Samantha_'
'Sal'
'Ruth_'
'Roy_'
'Roger_'
'Randy_'
'RO'
'RA'
'Problem_'
'Pre'
'Phoebe_'
'Park_'
'Park'
'Pa'
'Oyun_'
'Orta'
'Or'
'Old_'
'Ol'
'Nor'
'Mu'
'Morning_'
'Mont'
'Molly_'
'Mmm_'
'Mickey_'
'McGee_'
'Malcolm_'
'Madame_'
'Mad'
'Long_'
'Lincoln_'
'Lily_'
'Laura_'
'LE'
'Kol'
'Kira_'
'Kir'
'Kim'
'Kel'
'Kalk_'
'Joseph_'
'Jo_'
'Japanese_'
'Inter'
'IN'
'Huh_'
'Hoşça_'
'Howard_'
'Hop'
'Homer_'
'Hollywood_'
'Hitler_'
'Hi'
'Herşey_'
'Herkesi_'
'Hayal_'
'Hani_'
'Hang_'
'Ham'
'Guess_'
'Gri'
'Gra'
'Goodbye_'
'Good'
'God'
'Gil'
'Gi'
'Gelme'
'Gel'
'Gary_'
'Fu'
'Flo'
'Fin'
'Fi'
'En'
'Ele'
'El_'
'Dev'
'Def'
'Dea'
'Dal'
'DI'
'Commander_'
'Comm'
'Christopher_'
'Chicago_'
'Cevap_'
'Bur'
'Bunların_'
'Boo'
'Bil'
'Bazıları_'
'Back_'
'Au'
'Art_'
'Army_'
'Arkadaşın_'
'Aptal_'
'Apparently_'
'Another_'
'Anlaşıldı_'
'Angela_'
'Ang'
'An'
'Alın_'
'Alice_'
'Ale'
'Ajan_'
'Acı'
'Abby_'
'ARE_'
'80_'
'35_'
'3'
',.. ..._'
'*_'
'! -_'
' -- _'
'ι'
'ştı_'
'şme'
'şi_'
'şeytan_'
'şeyim_'
'şeydir_'
'şanslı_'
'ışık_'
'ıştı'
'ıs'
'ın'
'ımızı_'
'ılı'
'ıcı_'
'İnsanları_'
'İngiliz_'
'üzerinden_'
'ür'
'üm'
'ülke_'
'öylece_'
'örnek_'
'ör_'
'önüne_'
'çıkıyor'
'çıkmadı_'
'çıkma'
'çıkartma'
'çıkarma'
'çıkacak_'
'çöze'
'çiçekler'
'çizi'
'çar'
'çalış_'
'Ön_'
'Ölüm'
'Çocukları_'
'Çavuş_'
'zu_'
'zu'
'zo'
'zden_'
'zde_'
'zayıf_'
'yüzüne_'
'yüzü_'
'yü_'
'yü'
'yön'
'yuva'
'yr'
'youth_'
'yon'
'ym'
'yla'
'yiye'
'yip_'
'yellow_'
'yedi'
'ye'
'ydü_'
'yazar'
'yasal_'
'yarıyor_'
'yarı'
'yaratma'
'yapıyordum_'
'yapıyor'
'yapmanı_'
'yapma'
'yapayım_'
'yap'
'yama'
'yakalamak_'
'wrote_'
'wn_'
'wl'
'wise_'
'whoa_'
'whi'
'wave_'
'wa_'
'vuru'
'vurdum_'
'vit'
'vic'
'vi_'
'vet'
'vermeye_'
'veriyorsun_'
'verdik_'
'vent'
'varım_'
'var'
'vali'
'val'
'uçak_'
'uyku'
'uti'
'useless_'
'unusual_'
'unt'
'uni'
'umuyorum_'
'umu_'
'um'
'uk'
'ue'
'ud_'
'ucu_'
'tırman'
'tü'
'tuvalet'
'tt_'
'trap_'
'trans'
'trained_'
'tower_'
'touching_'
'toplantı'
'toilet_'
'tla'
'til'
'thief_'
'there'
'ther_'
'theatre_'
'terms_'
'ten'
'tel'
'tedavi_'
'taught_'
'taste_'
'tanıştım_'
'tanıyorum_'
'tanıklık_'
'tan'
'tal'
'takma'
'tak'
'sürü'
'sürme'
'süper_'
'sü_'
'sözünü_'
'söylemedim_'
'sweat'
'surface_'
'summer_'
'stra'
'steps_'
'steel_'
'ste'
'starting_'
'ss'
'spy_'
'spor_'
'sounded_'
'sorunları_'
'sora'
'sor_'
'sor'
'sonuçları_'
'sons_'
'sold_'
'sli'
'siyle_'
'sistemi_'
'sin'
'simply_'
'show'
'shi'
'seçti'
'sevme'
'sevdim_'
'set'
'serbest_'
'sens'
'sene'
'selling_'
'season_'
'sco'
'saygı_'
'saygı'
'saydı'
'sad'
'rules_'
'rsan_'
'ron_'
'roa'
'rmi'
'rmak_'
'rin'
'rest'
'respect'
'resmen_'
'research_'
'rescue_'
'rengi_'
'reg'
'reb'
'realized_'
'realize_'
'rea'
'rdu'
'rden_'
'rd'
'rc'
'rat'
'rape_'
'queen_'
'putting_'
'pur'
'propose_'
'proof_'
'promised_'
'prince_'
'practice_'
'pool_'
'po'
'plans_'
'planning_'
'pizza_'
'piss_'
'pis_'
'photo_'
'peri'
'pee_'
'pasta_'
'parla'
'param_'
'pair_'
'oynamak_'
'ortada_'
'ort'
'ore_'
'ordu_'
'orda_'
'ord_'
'ora_'
'olu'
'olmamış_'
'olmam_'
'olmadığına_'
'olduğumuzu_'
'olduklarını_'
'ola'
'oku'
'og'
'odan'
'oc'
'ny'
'nto'
'nor_'
'nla_'
'nie_'
'nes_'
'ndeki_'
'nda'
'nation_'
'nat'
'nasıldı_'
'nan'
'mıştık_'
'mızda_'
'müz_'
'mysterious_'
'muydun_'
'movies_'
'monster_'
'mizde_'
'mister_'
'meşgul'
'member_'
'mektup_'
'maç'
'mayız_'
'masını_'
'mahvetti'
'mahalle'
'madı_'
'm'
'lıyor'
'log'
'lob'
'ller_'
'liğe_'
'liste'
'likely_'
'lift_'
'lidir_'
'lia'
'leriyle_'
'ler'
'lenme'
'len'
'lem'
'leaves_'
'lead_'
'layı'
'larımı_'
'lan'
'lamba'
'kıçını_'
'kızgın_'
'kız'
'kısmı_'
'kırıklığına_'
'kuru'
'kulak_'
'ktı_'
'kti'
'ksın_'
'kralı_'
'koru'
'konuşuruz_'
'konuştun_'
'konuşa'
'konuyu_'
'klarını_'
'kitchen_'
'kins_'
'kiler_'
'kes'
'keresinde_'
'kendinden_'
'kenara_'
'ked_'
'kaçırma'
'kazan'
'karşılaya'
'kardeşin_'
'kardeşi_'
'kar'
'kapa'
'kam'
'kalı'
'kaldıra'
'ju'
'journey_'
'jin_'
'j'
'işimiz_'
'iği_'
'içmeye_'
'içindir_'
'içinden_'
'içi_'
'içi'
'içeri'
'iyisi'
'iyilik_'
'iy'
'ite'
'ire'
'ir'
'introduce_'
'inspector_'
'ino_'
'ini'
'indir'
'indi'
'inci'
'inanılmaz_'
'inan'
'in'
'imza'
'ill_'
'ill'
'ilgi'
'ilerleme'
'ihtiyaç_'
'ig'
'if'
'idiot_'
'ida'
'hoşuna_'
'hoş'
'holiday_'
'ho'
'hissetmiyorum_'
'hisse'
'helpful_'
'hed_'
'hayvan_'
'hayatı_'
'hayata_'
'hav'
'happiness_'
'hali'
'haftada_'
'h'
'güvende_'
'götüre'
'gösteri_'
'göstereyim_'
'gören_'
'guests_'
'guest_'
'grow'
'green_'
'grade_'
'gli'
'gla'
'gizlice_'
'giye'
'gitse'
'gitmiyor_'
'gitmeye_'
'gitmedi_'
'girip_'
'gir_'
'gidin_'
'ghost_'
'gh'
'geçer_'
'getirmiş_'
'getirir_'
'gerekmiyor_'
'general_'
'gemiyi_'
'gelmiyor_'
'gelmedi_'
'gelmeden_'
'geleceğini_'
'gelebilir_'
'garden_'
'garage_'
'gang_'
'fy_'
'fu'
'ft_'
'ft'
'frank_'
'followed_'
'fla'
'finger_'
'files_'
'fikrim_'
'fever_'
'fe_'
'faydası_'
'favour_'
'faster_'
'fan'
'f'
'eş_'
'eş'
'eğ'
'expensive_'
'evinde_'
'ets_'
'etmedi_'
'ete'
'especially_'
'eng'
'ends_'
'en'
'ela'
'el'
'eki'
'edin'
'edildi'
'ed'
'eceksin_'
'dı'
'düşündüğüm_'
'düz_'
'dünyayı_'
'dü'
'dönmüş_'
'dönmek_'
'dön'
'ds'
'dri'
'dress_'
'drawn_'
'dra'
'doğum_'
'doors_'
'don'
'domuz_'
'doları_'
'doin_'
'dişi_'
'diyen_'
'dikkatini_'
'dig'
'değildim_'
'detective_'
'desire_'
'deserve_'
'derin_'
'deri'
'depo'
'deniz'
'deme'
'dediğini_'
'davranma'
'dava'
'dar'
'dam'
'da'
'ction_'
'creature_'
'crash_'
'copy_'
'cook_'
'con_'
'con'
'complicated_'
'community_'
'commander_'
'command_'
'college_'
'clock_'
'clo'
'cla'
'cking_'
'ciddiyim_'
'cia_'
'chi_'
'ched_'
'character_'
'cesur_'
'century_'
'cen'
'cehennem_'
'cast_'
'carrying_'
'cares_'
'cap'
'cal_'
'bıraka'
'bölge'
'bun'
'bulunan_'
'bulmuş_'
'bullet_'
'bulan'
'bulalım_'
'bul'
'brothers_'
'bre'
'boo'
'bol'
'blind_'
'blessed_'
'bitiri'
'bis'
'birbirine_'
'birazcık_'
'bio'
'bine'
'bilirler_'
'bilim_'
'bildiğin_'
'bey'
'bekleme'
'begins_'
'bedroom_'
'became_'
'başından_'
'başla_'
'başarı'
'bağlı_'
'bağlantı'
'baskı_'
'bari_'
'banka_'
'baksana_'
'bak'
'bags_'
'babanın_'
'aşma'
'aşk_'
'aç'
'ayağa_'
'aya'
'awful_'
'awake_'
'av'
'attorney_'
'attacked_'
'atma'
'ations_'
'asshole_'
'asker_'
'asi'
'arın_'
'art_'
'arms_'
'arm'
'arkasında_'
'arkadaşım'
'arasındaki_'
'arak_'
'arabası_'
'anti_'
'ans'
'anlama'
'ani'
'anahtarı_'
'amıyorum_'
'alıyoruz_'
'alıyorsun_'
'alı_'
'alt_'
'alright_'
'alar_'
'alacaksın_'
'akşamı_'
'akşam'
'aklına_'
'aklı'
'ailesi_'
'aid_'
'agree_'
'adı'
'admit_'
'ade'
'acı'
'ace_'
'access_'
'above_'
'aba'
'\u\u_'
'Zor_'
'Yüksek_'
'Yüce_'
'Yeterince_'
'Yeniden_'
'Yat'
'Yan_'
'YOUR_'
'YEAH_'
'Without_'
'Win'
'Wil'
'White_'
'War'
'Want_'
'WITH_'
'Ver_'
'Van'
'Vali'
'Use_'
'Tü'
'Tyler_'
'Tri'
'Tracy_'
'Tonight_'
'Todd_'
'Today_'
'Tin'
'Tim_'
'Tim'
'Tahmin_'
'TO'
'TH'
'Sırf_'
'Sırada_'
'Sürekli_'
'Sur'
'Summer_'
'Stra'
'Spo'
'Spi'
'Speak_'
'Sp'
'South_'
'Sing'
'Sevgili_'
'Sene'
'Sende_'
'Sel'
'Sav'
'Sam'
'Sa'
'SS_'
'Rusya_'
'Ru'
'Roman'
'Rom'
'Rocky_'
'Rick_'
'Ric'
'Ready_'
'Raymond_'
'Rahat_'
'RI'
'RE'
'Pull_'
'Profesör_'
'Pro'
'President_'
'Para'
'Ot'
'Onlarla_'
'Olabilir_'
'Ola'
'Ok'
'Normalde_'
'Normal_'
'NI'
'NA_'
'NA'
'Mükemmel_'
'Ms_'
'Mos'
'Monk_'
'Money_'
'Mon'
'Mis'
'Millet_'
'Miller_'
'Mexico_'
'Mes'
'Mea'
'Mat'
'Mart'
'Mali'
'Majesty_'
'Lot'
'Lois_'
'Liz_'
'Lisa_'
'Let'
'Les'
'Lau'
'Lat'
'Lar'
'Lady_'
'LO'
'LE_'
'Kızım_'
'Kısa_'
'Kı'
'Kom'
'Kirk_'
'Kin'
'Kil'
'Kesin_'
'Ken'
'Kay'
'Kam'
'Kala'
'Kal'
'KA'
'Justin_'
'Julian_'
'Jam'
'Irish_'
'Indian_'
'IC'
'Hy'
'Honor_'
'Holmes_'
'Herkesin_'
'Herhangi_'
'Hepimizin_'
'Hen'
'Hei'
'Hastings_'
'Hasta_'
'Hand_'
'Hall_'
'Güvenlik_'
'Gün_'
'Gö'
'Gus_'
'Gu'
'Green_'
'Gon'
'Gol'
'Goa_'
'Gerek'
'Gab'
'Fucking_'
'Fransa_'
'Frankie_'
'Forget_'
'Fire_'
'Federal_'
'Fazla_'
'Evin_'
'Evi'
'Ev_'
'England_'
'Emma_'
'Ellen_'
'Either_'
'Ed'
'Easy_'
'Duydu'
'Dur'
'Dun'
'Doug_'
'Diğerleri_'
'Dikkatli_'
'Diego_'
'Değiş'
'Devil_'
'Des'
'Dennis_'
'Den'
'DA'
'Cra'
'Col'
'Coach_'
'Chu'
'Chap'
'Carter_'
'Careful_'
'Cap'
'California_'
'CO'
'Burda_'
'Buralarda_'
'Bul'
'Brother_'
'Bri'
'Brad_'
'Blo'
'Birisi_'
'Bilmem_'
'Bile'
'Betty_'
'Baş_'
'Bas'
'Barry_'
'Ban'
'Baby_'
'Babası_'
'BUT_'
'BU'
'BR'
'Aşırı_'
'Aşağı_'
'Aç_'
'Ay'
'August_'
'Atla'
'Ateş_'
'At'
'Asıl_'
'As'
'Angel_'
'Ame'
'Alo_'
'Almanya_'
'Alman_'
'Allison_'
'Ala'
'Ak'
'Afedersiniz_'
'Add'
'Ada'
'Ac'
'Aa'
'AT'
'911_'
'70_'
'48_'
'45_'
'400_'
'11'
'.... _'
'... '
'.!_'
'-..._'
'%_'
'#_'
' ]_'
'şükür_'
'şurada_'
'şirket_'
'şi'
'şeylere_'
'şef'
'şarkı'
'şan'
'ş'
'Şiş'
'Şarkı'
'ız'
'ırk'
'ınca_'
'ım'
'ıl'
'İşler_'
'İçki_'
'İçi'
'İç'
'İyi'
'İsti'
'İstersen_'
'İnan_'
'İm'
'İkisi_'
'ğımız_'
'ğımı_'
'ğı'
'ğunu_'
'ğun_'
'ğu'
'ği'
'üç'
'üzgün_'
'üyesi_'
'üt'
'üniforma'
'ünden_'
'ü'
'öğle_'
'ötürü_'
'öte_'
'öte'
'ör'
'ön'
'ölümcül_'
'ölçü'
'ölmek_'
'ölecek_'
'öldüğünü_'
'öldüğü_'
'öldüreceğim_'
'öldürecek_'
'öldürdün_'
'öldürdüm_'
'ödeme'
'öde'
'ï'
'çıldır'
'çıkara'
'çıkalım_'
'çoğu_'
'çocukları_'
'ço'
'çl'
'çirkin_'
'çevirdi_'
'çekici_'
'çağırdı'
'çalıştığını_'
'çalışma'
'çalı'
'çaldığını_'
'çala'
'ça'
'Üzerine_'
'Ülke'
'Ön'
'Çöz'
'~ _'
'zı'
'zsan_'
'ze'
'zda_'
'zamanımız_'
'zamankinden_'
'yıllık_'
'yıl'
'yüzey'
'yürüye'
'yumuşak_'
'yumurta_'
'yourselves_'
'yorgun_'
'yoluna_'
'yolla'
'yo_'
'yl'
'yiyecek_'
'yerler_'
'yene'
'yen'
'yemiş_'
'yeme'
'ydın_'
'yc'
'yaşı'
'yaşar'
'yaş_'
'yağ_'
'yaza'
'yayım_'
'yarattı'
'yara_'
'yaptığımız_'
'yaptıkları_'
'yapmamız_'
'yapamaz_'
'yanlış'
'yalnız'
'yala'
'yacaksın_'
'winner_'
'win'
'wheel'
'wet_'
'west_'
'wel'
'weed_'
'wd'
'war'
'walls_'
'vy_'
'vurdu_'
'vura'
'vol'
'viç'
'virus_'
'video'
'verse'
'vermiş_'
'vermeme'
'veriyor'
'veren_'
'vereceksin_'
'verebilir_'
'vere'
'verdi'
'vat'
'vas'
'vak'
'uğraşıyor'
'uğra'
'uçu'
'uç'
'uzman'
'uza_'
'uyuya'
'uyuma'
'usual_'
'ur'
'unuttu'
'unless_'
'une'
'umarım_'
'uma'
'ulu'
'uli'
'ule'
'uld_'
'ulaşma'
'ui'
'ufaklık_'
'ua'
'twice_'
'twenty_'
'tutuyor_'
'tutun_'
'tuta'
'tut'
'tur'
'tun'
'tti_'
'tries_'
'tren_'
'tracks_'
'touched_'
'tom'
'tly_'
'tit'
'tions_'
'tional_'
'tim'
'tickets_'
'throwing_'
'threw_'
'threatening_'
'thou_'
'th'
'testi_'
'testi'
'tene'
'temas_'
'tele'
'teke'
'technically_'
'tea_'
'taze_'
'tatil_'
'tarı'
'target_'
'tarafında_'
'tara'
'tanımıyorum_'
'takımı'
'tadını_'
'tadı_'
'sıydı_'
'süt'
'sürer_'
'söylerken_'
'söylemişti_'
'söylediği_'
'syn'
'suçlama'
'suspected_'
'survive_'
'surely_'
'suicide_'
'suck_'
'stud'
'sts_'
'strike_'
'stranger_'
'stories_'
'stole_'
'stim'
'sted_'
'staying_'
'stairs_'
'stage_'
'st'
'sse'
'soruyorsun_'
'sorumlu_'
'sorular_'
'sordum_'
'sordu_'
'sonuçta_'
'sonuna_'
'solve_'
'sokma'
'sof'
'so'
'sna'
'smile_'
'skills_'
'sizden_'
'siz'
'sinema_'
'sine'
'sil'
'signed_'
'shu'
'shots_'
'sheriff_'
'sharing_'
'sh'
'sf'
'seçe'
'sevin'
'seve_'
'settle_'
'sending_'
'sek'
'secretary_'
'scream'
'science_'
'sağol_'
'saçmalık_'
'sayılır_'
'sayfa_'
'savaşın_'
'savaşı'
'savaşa_'
'sanat_'
'sanat'
'salla'
'saldırı_'
'saklan'
'sadık_'
'saati_'
'rız_'
'rın_'
'rüya'
'rü'
'rum'
'ruined_'
'rr'
'roy_'
'roof_'
'role_'
'rol'
'ro'
'rn_'
'riy'
'rini_'
'ries_'
'ridiculous_'
'results_'
'ress_'
'resim_'
'require'
'rep'
'rene'
'remind_'
'regular_'
'records_'
'received_'
'rece'
'reach_'
're'
'rdım_'
'rdim_'
'ray_'
'ras'
'rapor_'
'rain_'
'rahatla'
'rad'
'qui'
'pt'
'ps'
'progress_'
'professional_'
'princess_'
'prepared_'
'prefer_'
'pra'
'ppe'
'pot_'
'port_'
'poison_'
'pocket_'
'player_'
'plate_'
'planlıyor'
'plaka'
'piç_'
'pity_'
'pilot_'
'pill'
'picking_'
'ph'
'peşinden_'
'pers_'
'patlama_'
'patience_'
'path_'
'parts_'
'parmağı'
'parking_'
'park'
'parad'
'paint_'
'page_'
'pa_'
'oy'
'ose'
'os'
'orum_'
'orta_'
'original_'
'opening_'
'opened_'
'onlar'
'ong'
'om'
'olurum_'
'olmuştur_'
'olmanı_'
'olmamız_'
'olmalıyım_'
'olmalılar_'
'oli'
'olduğumuz_'
'olaylar_'
'olanları_'
'olabilecek_'
'ol'
'okulu_'
'okula_'
'official_'
'officers_'
'ocean_'
'obvious_'
'obey_'
'nut'
'numarası_'
'nti'
'nokta'
'nmiş_'
'nk_'
'nj'
'nin'
'nights_'
'nge'
'neyi_'
'ners_'
'nerden_'
'neither_'
'neighborhood_'
'neg'
'nedenle_'
'nds_'
'nature_'
'nasıI_'
'nam'
'nac'
'mış'
'müş_'
'müzik_'
'müdür_'
'mystery_'
'my'
'muyuz_'
'muydu_'
'musical_'
'mus'
'murdered_'
'movement_'
'motherfucker_'
'mişler_'
'minik_'
'minds_'
'milyar_'
'mesi_'
'mesele_'
'mesele'
'mental_'
'men'
'meli'
'mel'
'mektubu_'
'mekan'
'medical_'
'meaning_'
'map_'
'malıyım_'
'malı'
'mal'
'maid_'
'mahkeme'
'madım_'
'lıdır_'
'ls'
'lower_'
'loser_'
'log_'
'local_'
'load_'
'loa'
'lli_'
'liği_'
'lic'
'library_'
'leşme'
'letters_'
'lesson_'
'les'
'legal_'
'leg'
'las'
'larından_'
'large_'
'lama_'
'lama'
'lad'
'kızları_'
'kızlarla_'
'kırdı_'
'kuş_'
'kus'
'kuralları_'
'kura'
'kullanıyor_'
'kullandı'
'kula'
'ku_'
'ks'
'kovdu'
'korkutma'
'korku'
'kor'
'konuşuyorum_'
'konuştu_'
'konuşma'
'konuşalım_'
'koka'
'km_'
'km'
'kle'
'kla'
'kişiler_'
'kitap_'
'kira'
'kimse'
'kie_'
'kicking_'
'ker'
'kedi_'
'kaçış_'
'kaçı'
'kavga'
'karşı'
'kardeşin'
'kapatma'
'kapanı'
'kanıtla'
'kanıt_'
'kanı_'
'kana'
'kalıyorum_'
'kaltak_'
'kalmasını_'
'kalkış'
'kalkar'
'kaldık_'
'kalbini_'
'kahvaltı_'
'kafanı_'
'kadarını_'
'kadar'
'kaba'
'jun'
'joined_'
'işti_'
'işle'
'iş'
'içme'
'içe'
'iyet_'
'iye_'
'istiyorsa_'
'isteği'
'isterseniz_'
'iss'
'isin_'
'ire_'
'ip'
'ior_'
'invited_'
'investigation_'
'intikam_'
'intihar_'
'intelligence_'
'insanlara_'
'innocent_'
'inle'
'incredibly_'
'inches_'
'imzala'
'imizi_'
'imdir_'
'illegal_'
'iletişim_'
'iler_'
'ile'
'ikisi_'
'ik'
'ih'
'ier_'
'ie'
'ici'
'ical_'
'ial_'
'hızla_'
'hy'
'humor_'
'ht'
'however_'
'houses_'
'honor_'
'hissettim_'
'hissediyorsun_'
'hissede'
'hire_'
'hikayesini_'
'highly_'
'hepiniz_'
'helps_'
'helikopter_'
'held_'
'heads_'
'hazırlama'
'hazine'
'hayli_'
'hayatımı_'
'hatırladım_'
'hata'
'hasta'
'harm_'
'harekete_'
'hap_'
'hane'
'han'
'halt_'
'hall'
'halinde_'
'hal_'
'haberim_'
'haberi_'
'güzelmiş_'
'günün_'
'günden_'
'gözüm_'
'götürün_'
'götürmek_'
'gösterir_'
'görünme'
'görül'
'görebil'
'gönderdi'
'guns_'
'gun'
'grass_'
'grandmother_'
'got'
'goo'
'gon_'
'gods_'
'gittiler_'
'gitmem_'
'gitmeliyiz_'
'gitar'
'girmek_'
'girme'
'girer_'
'girecek_'
'gideyim_'
'gider'
'geçiyor_'
'geçiri'
'getirmek_'
'getiren_'
'get'
'ges_'
'gerçekte_'
'geriye_'
'gelmesini_'
'gelirim_'
'gece'
'gan'
'fırsatı_'
'fı'
'fruit_'
'fought_'
'forgotten_'
'football_'
'following_'
'focus_'
'flow_'
'flash_'
'fis'
'firma'
'filled_'
'fil'
'fikri_'
'fi_'
'fi'
'fet'
'fel'
'fed'
'fe'
'favori'
'fat_'
'farm_'
'famous_'
'fak'
'failure_'
'eğitim_'
'eği'
'expected_'
'exit_'
'exciting_'
'exact_'
'evden_'
'ettiğimi_'
'etti'
'ett'
'etmiştim_'
'etmişti_'
'etmeyin_'
'etmesi_'
'etmeni_'
'etli_'
'esin_'
'ery_'
'ert'
'erkekler_'
'ep'
'eo'
'entry_'
'enerji_'
'ene'
'ending_'
'endi'
'ended_'
'end'
'emotional_'
'emir_'
'emi'
'emem_'
'elli'
'ekibi_'
'ei_'
'eh'
'ediyordum_'
'edemezsin_'
'edebilir'
'ede'
'ecek'
'eats_'
'earlier_'
'ear_'
'e'
'dığın_'
'dırı'
'düşürdü'
'düşünüyoruz_'
'düşünecek'
'düşündük_'
'düşük_'
'düşme'
'düş'
'dür_'
'dönüş'
'döner'
'döneceğim_'
'duyuyor_'
'duyma'
'durumu_'
'dura'
'drinks_'
'drawing_'
'doubt_'
'dom'
'doctors_'
'dly_'
'diyebilirim_'
'distance_'
'disgusting_'
'disco'
'disappeared_'
'diri'
'dire'
'dig_'
'dge_'
'değil'
'değeri_'
'deyip_'
'device_'
'destroy_'
'des_'
'derler_'
'deri_'
'dergi'
'depends_'
'dent_'
'deni'
'dene'
'demiş'
'delivery_'
'del'
'dediğin_'
'dedektif'
'dede'
'deck_'
'dea'
'dağıtma'
'dağ_'
'daydı_'
'day'
'darkness_'
'dan'
'daire'
'cısı_'
'cının_'
'cutting_'
'customers_'
'current_'
'cure_'
'cur'
'cup_'
'cti'
'cted_'
'crossed_'
'cri'
'cou'
'cop'
'contract_'
'connection_'
'condition_'
'clu'
'closed_'
'close'
'classes_'
'cit'
'cin'
'cik_'
'cidden_'
'ci'
'chose_'
'chest_'
'checked_'
'check'
'chase_'
'changing_'
'changes_'
'challenge_'
'ceza_'
'ceset_'
'cenaze'
'ceksin_'
'cata'
'career_'
'captured_'
'capable_'
'cancer_'
'canavar_'
'cab_'
'bırakıyorum_'
'bırakıp_'
'büyük'
'buz_'
'buz'
'buy'
'buralarda_'
'bum_'
'buluşma'
'buluyor'
'bulur_'
'brings_'
'bright_'
'breathing_'
'brave_'
'boyu_'
'boya'
'boxes_'
'bone_'
'bok'
'bilmem_'
'bilemez'
'bileceğim_'
'bildiri'
'bildi'
'bil_'
'beş'
'beyond_'
'beyin_'
'bey_'
'bes'
'ber_'
'benzemiyor_'
'benze'
'belirle'
'bekle'
'beef_'
'becomes_'
'beauty_'
'başında_'
'başlayacak_'
'başarısız_'
'bağımlı'
'batı_'
'bata'
'bat_'
'bardak_'
'band_'
'balo'
'balls_'
'bakıyor_'
'bakılırsa_'
'bakmaya_'
'badly_'
'babam'
'aşı'
'aşkı_'
'aşağılık_'
'ağzını_'
'ağlama'
'açın_'
'açıkça_'
'açıklama_'
'açıkla'
'açıdan_'
'açma'
'ayıp_'
'ayı'
'ayrı_'
'aylık_'
'ayakta_'
'awesome_'
'avoid_'
'atı'
'attı'
'att'
'atlama'
'ateşli_'
'ateşin_'
'asyon_'
'asa'
'arttı'
'arla_'
'ari_'
'ardan_'
'arazi'
'arayan_'
'arayacağım_'
'arası_'
'arama'
'arabada_'
'aptalca_'
'appear_'
'any'
'ante'
'annenin_'
'anlaşma_'
'anlattım_'
'anlatma'
'anlamıyla_'
'anlama_'
'anladın_'
'anla'
'amı_'
'amount_'
'amin'
'amaç_'
'alıyor'
'altından_'
'alin'
'aldığım_'
'aldığı_'
'alanı_'
'alakası_'
'alabilirim_'
'aile'
'agreed_'
'afterwards_'
'afford_'
'ae'
'adults_'
'ade_'
'adamı'
'ada_'
'acıy'
'ack'
'according_'
'acce'
'acaksın_'
'abo'
'Yüzün'
'Yürü_'
'Yok'
'Yemeğe_'
'Yapacak_'
'Yan'
'Yakın_'
'YI'
'World_'
'Worf_'
'Won_'
'Williams_'
'Whoever_'
'Whenever_'
'Warren_'
'Wa'
'WA'
'Vo'
'Virginia_'
'Var_'
'VE'
'Us'
'Until_'
'Ul'
'Tıpkı_'
'Ty'
'Tut'
'Top_'
'Too'
'Ter'
'Ten'
'Tele'
'Tel'
'Teknik_'
'Tek'
'Tas'
'Sır'
'Sy'
'Sweet'
'Sunday_'
'Sto'
'Stick_'
'Start_'
'Star_'
'Stanley_'
'Stand_'
'Son'
'Sky'
'Sin'
'Sil'
'Sig'
'Sh'
'Senator_'
'Scott_'
'Sch'
'Sandy_'
'Sally_'
'SHO'
'SE_'
'Rome_'
'Rei'
'Rebecca_'
'Rap'
'RS_'
'Qui'
'Queen_'
'Q_'
'Q'
'Pur'
'Prat'
'Pop'
'Plan'
'Pis_'
'Piper_'
'Pilot_'
'Pierre_'
'Pen'
'Pat'
'Parker_'
'Par'
'Papa_'
'Pan'
'PI'
'Otur_'
'Otherwise_'
'Other_'
'Otel'
'Olur_'
'Olmaz_'
'Olivia_'
'Oliver_'
'Off'
'Oda'
'OT'
'OR'
'OH_'
'Numara'
'Not'
'Neyin_'
'Ney'
'New'
'Nelson_'
'Nate_'
'Nas'
'Nar'
'NG_'
'NC'
'Mur'
'Mum'
'Muhteşem_'
'Monica_'
'Mol'
'Mira'
'Mine_'
'Mick_'
'Met'
'Memnun_'
'Mek'
'Marty_'
'Marge_'
'Marg'
'Mak'
'Mai'
'ME'
'Lorelai_'
'Lor'
'Lock'
'Lloyd_'
'Lin'
'Life_'
'Li_'
'Len'
'Lan'
'LL_'
'Kız'
'Kur'
'Konuş_'
'Kontrol_'
'Kon'
'Kok'
'Knock_'
'Ki'
'Kayı'
'Karl_'
'Kardeşim_'
'Kara'
'Kalp_'
'Kafa_'
'Kafa'
'Kabul_'
'Josh_'
'Jos'
'Jewish_'
'Jer'
'Jennifer_'
'Jeff_'
'JUST_'
'Iı'
'Ian_'
'Hun'
'Hor'
'Hope_'
'Hong_'
'Hmm_'
'Hiro'
'Hem'
'Haw'
'Haven_'
'Hastane'
'Harvey_'
'Harper_'
'HI'
'HAVE_'
'Güvenli_'
'Güven'
'Göl'
'Guy_'
'Gordon_'
'Glen_'
'Gidin_'
'Geçi'
'Geç_'
'Getir'
'Genç_'
'Gentlemen_'
'Gemi'
'Geliyorum_'
'Gay'
'Gan'
'GA'
'Fı'
'Free_'
'Fre'
'Frasier_'
'Francisco_'
'Ford_'
'For'
'Fel'
'Fall'
'FO'
'FA'
'Ey'
'Except_'
'Eun_'
'Elliot_'
'Eli'
'Elaine_'
'Eee_'
'EA'
'Düşün'
'Dünyada_'
'Dutch_'
'Dom'
'Dola'
'Doc_'
'Dil'
'Dick_'
'Dene'
'Dem'
'Day_'
'Davis_'
'DON_'
'Cut_'
'Cu'
'Crow'
'Crazy_'
'Coo'
'Clay_'
'Christ_'
'Casey_'
'CL'
'CI'
'CE_'
'CA'
'Bırakın_'
'Bölüm_'
'Bunlardan_'
'Bud_'
'Bruce_'
'Bro'
'Bravo_'
'Brad'
'Boys_'
'Boston_'
'Bli'
'Birçok_'
'Birinin_'
'Birini_'
'Birinci_'
'Biri'
'Bert'
'Bens'
'Being_'
'Beach_'
'Başla'
'Bayanlar_'
'Bay'
'Bart_'
'Baksana_'
'Bakalım_'
'Baka'
'Bag'
'Bad_'
'Bab'
'BO'
'Ağ'
'Az'
'Avukat_'
'Ash'
'Arm'
'Araba_'
'Ara'
'Anybody_'
'Ant'
'Ami'
'Amca_'
'Am'
'Although_'
'Alt'
'Also_'
'Ali_'
'Ah'
'Afrika_'
'Adını_'
'Acil_'
'According_'
'Absolutely_'
'AR'
'AP'
'AL'
'AI'
'? '
'42_'
'40'
'27_'
'23_'
'2'
'194'
'17'
'12'
'... ._'
'... "_'
'. '_'
'.'
',.._'
', '
','
'"!_'
'" "_'
'şır'
'şım'
'şuraya_'
'şurada'
'ştım_'
'şsin_'
'şs'
'şma'
'şlar_'
'şişe'
'şimdiden_'
'şiir'
'şeyle_'
'şey'
'şehri_'
'şehirde_'
'şaşırt'
'şart_'
'şanslısın_'
'şampiyon_'
'şaka'
'Şuradaki_'
'Şimdiye_'
'Şiddet_'
'Şi'
'Şerif_'
'ışıkları_'
'ığa_'
'ızdır_'
'ızdan_'
'ıyız_'
'ıyım_'
'ıyoruz_'
'ıyordu'
'ısır'
'ımın_'
'ımdır_'
'ılma'
'ı'
'İşini_'
'İşin_'
'İçine_'
'İçinde_'
'İt'
'İstediğin_'
'İr'
'İnsanların_'
'İnanılmaz_'
'İmparator'
'İler'
'İla'
'İkiniz_'
'İki'
'İh'
'İd'
'ğımızı_'
'ğiniz_'
'ğim'
'üş_'
'üzül'
'üs'
'ünlü_'
'ün'
'ülke'
'ül'
'öğrendin_'
'öğrenci'
'özledim_'
'öyleydi_'
'övgü'
'öpücük_'
'öp'
'öneri'
'önemlisi_'
'önem_'
'öncesi_'
'önceki_'
'ölüyor_'
'ölür'
'öldüren_'
'öldüreceksin_'
'öl'
'ök'
'çılgın_'
'çıktım_'
'çıksın_'
'çıkarın_'
'çıkartı'
'çıkarta'
'çıkarmaya_'
'çıkarmak_'
'çıkarken_'
'çıkaracağım_'
'çu'
'çtan_'
'çorba'
'çocukların_'
'çocuklarla_'
'çocuklara_'
'çocukla_'
'çla'
'çize'
'çik'
'çifte_'
'çete'
'çekti_'
'çekiyorsun_'
'çekiyor'
'çekilin_'
'çeki_'
'çeke'
'çağırıyor'
'çağır'
'çağrı'
'çat'
'çan'
'çalışıyorlar_'
'çalışıyordu_'
'çalıştığı'
'çalıştın_'
'çalışmaya_'
'çalıntı_'
'çalmak_'
'çalar_'
'çal'
'çak'
'ç'
'Öyle'
'Önümüzdeki_'
'Öldü_'
'Çeviri_'
'Çek_'
'Çalışma'
'¡_'
'zz'
'zor'
'zone_'
'zlar_'
'zin'
'zil'
'zdi_'
'zdi'
'yüzüm'
'yüksel'
'yönlendir'
'yun_'
'yordun_'
'yolundan_'
'yolları'
'yollar_'
'yolculuk_'
'yolcu'
'yokken_'
'yl_'
'yiyor'
'yince_'
'yf'
'yenile'
'yemi'
'yemeğine_'
'yem_'
'ydım_'
'yaşıyor_'
'yaşındayım_'
'yaşayan_'
'yaşadı_'
'yaşa'
'yağmur_'
'yazılı_'
'yazdı_'
'yatak_'
'yat'
'yasa'
'yarışma'
'yardıma_'
'yaratıcı'
'yarat'
'yarak_'
'yapıp_'
'yapımı_'
'yapılacak_'
'yapıl'
'yaptırdı'
'yaptıra'
'yapsın_'
'yapmayacağı'
'yapmalısın_'
'yaparız_'
'yaparak_'
'yapacaksınız_'
'yapabiliriz_'
'yapa'
'yanı'
'yalan'
'yaklaşa'
'yakalar'
'yak_'
'wre'
'wo'
'witch_'
'wishes_'
'wire_'
'wig_'
'whenever_'
'we'
'warrant_'
'walks_'
'vuruş_'
'vote_'
'virüs_'
'vice_'
'versene_'
'vermişti_'
'vermez_'
'verilme'
'vereceğiz_'
'vel'
'veda_'
'vatan'
'varken_'
'vari'
'vara'
'vaktim_'
'vacation_'
'vac'
'uğu_'
'uğruna_'
'uğradı'
'uç_'
'uzak'
'uygula'
'uydurdu'
'uyandırma'
'utanç_'
'usta'
'us'
'ura_'
'ura'
'unuttuğu'
'unuta'
'unun_'
'unla'
'unk'
'universe_'
'unh'
'ular_'
'tıp_'
'tıbbi_'
'tür'
'tün'
'tü_'
'tuzak_'
'tutuklama'
'tutmaya_'
'turns_'
'turning_'
'tunnel_'
'ttı'
'tti'
'tter_'
'tta'
'truly_'
'tre'
'trail_'
'tradition_'
'tourist_'
'tour_'
'topu_'
'topluyor'
'toplantı_'
'top'
'toka'
'tok'
'tob'
'tma_'
'tle'
'tiş'
'tits_'
'tir'
'tin'
'tig'
'tie_'
'tetik'
'tes'
'term_'
'ter'
'temperature_'
'temper'
'telefonda_'
'tekne'
'tek'
'tehlikeye_'
'tedavisi_'
'tech_'
'tec'
'tea'
'tching_'
'tb'
'tav'
'tası_'
'tartışma'
'tart'
'tarla'
'tarih'
'taraf'
'tape_'
'tanışı'
'tanıdık_'
'tanıdı'
'tanrım_'
'tanrı'
'tamir_'
'tal_'
'takı'
'taka'
'tac'
'tabi'
'sız'
'sıkıştı'
'sıkıntı'
'sürükle'
'sür'
'sünü_'
'söyleyecek'
'söyleyebilir_'
'söylersin_'
'söyler_'
'söylene'
'söylememe'
'söylediğim_'
'söylediler_'
'söyle'
'sö'
'systems_'
'syon'
'swing_'
'swa'
'suç'
'sure'
'sunu_'
'suffering_'
'suffer_'
'sty_'
'stu'
'struck_'
'stronger_'
'stro'
'streets_'
'stre'
'sto'
'stays_'
'stayed_'
'ssion_'
'ssi'
'spread_'
'spr'
'sports_'
'spoken_'
'specific_'
'spe'
'sp'
'soyu'
'soygun_'
'sos'
'soruşturma'
'sorunun_'
'sort'
'sorayım_'
'sorarım_'
'sonuç_'
'sometime_'
'solu'
'sola_'
'sokakta_'
'smoking_'
'slowly_'
'slo'
'sle'
'skop'
'ski'
'siydi_'
'sistem_'
'sis'
'sirk'
'silin'
'silahı_'
'sight_'
'sigara_'
'showing_'
'shock_'
'shirt_'
'sheets_'
'shee'
'shed_'
'sha_'
'seçil'
'sevmiyorum_'
'seviye'
'sevi'
'severdi'
'sevdiğim_'
'sevdi'
'session_'
'seri_'
'sekiz_'
'secrets_'
'sea'
'scratch_'
'scrap'
'scores_'
'scope_'
'scientist_'
'scary_'
'scare_'
'scar'
'scan'
'sağlıklı_'
'sağla'
'sayı'
'saya'
'savaşı_'
'savaşma'
'sava'
'satış'
'satellite_'
'sas'
'sar'
'sanı'
'sandı'
'sandviç_'
'sandalye'
'saklaya'
'sakla'
'sahte'
'sahneye_'
'sahne_'
'sahip'
'safety_'
'safe'
'sabıka'
'saatten_'
'ré'
'run'
'rsın_'
'rsak_'
'romantik_'
'robbery_'
'rn'
'rma'
'riz_'
'rit_'
'ris'
'rim'
'rights_'
'rig'
'rie'
'rice_'
'ria'
'revenge_'
'reti'
'ret'
'ressam'
'responsible_'
'response_'
'respond_'
'resmini_'
'reputation_'
'rent_'
'ren_'
'remo'
'remembered_'
'reme'
'religious_'
'released_'
'rek'
'rehber'
'refuse_'
'ree'
'red'
'recently_'
'reaction_'
'rdı_'
'rdan_'
'rat_'
'rank_'
'range_'
'rama'
'ram_'
'ral'
'raca'
'quin'
'que'
'pı'
'purse_'
'pun'
'pump'
'pte'
'pt_'
'psikoloji'
'programı_'
'profit_'
'product_'
'process_'
'prisoners_'
'pres'
'practically_'
'pour_'
'pounds_'
'pound_'
'potential_'
'post'
'possibility_'
'por'
'polisler_'
'polisler'
'polise_'
'poli'
'poison'
'point'
'plu'
'plead_'
'plat'
'pictures_'
'pic'
'pher'
'pet_'
'personally_'
'performance_'
'pen_'
'pen'
'ped'
'pays_'
'pathetic_'
'patates_'
'pat'
'passing_'
'pass'
'pas'
'parkta_'
'paral'
'panic_'
'pak'
'oğlun_'
'oz'
'oyun'
'oynuyorum_'
'oynuyor_'
'oynuyor'
'oynadı'
'overs'
'ova_'
'ours_'
'our'
'ound_'
'oturun_'
'oti'
'osi'
'orte'
'orm'
'organi'
'orayı_'
'option_'
'operasyon'
'ood_'
'ons'
'ond'
'oluruz_'
'olunca_'
'olsaydın_'
'olmuş'
'olmayabilir_'
'olmamı_'
'olmaması_'
'olmaktan_'
'olmadığımı_'
'olmadı'
'ole'
'old'
'olaydan_'
'olaya_'
'olana_'
'olacağı_'
'olabilirdi_'
'olabileceği_'
'okuya'
'ofisi'
'odasına_'
'odam'
'nızın_'
'nıyor_'
'nurse_'
'numara'
'nts_'
'nta'
'not'
'normal'
'noktaya_'
'noble_'
'nm'
'nl'
'nk'
'nizin_'
'nity_'
'nick_'
'nesi'
'nes'
'nerde_'
'nephew_'
'neighbour'
'nea'
'nc'
'nasılsın_'
'nal'
'mıyorsun_'
'mı'
'müştü'
'müsa'
'mutlaka_'
'mun_'
'mucize'
'mou'
'motor'
'mont_'
'monkey_'
'moments_'
'modern_'
'mo_'
'mm_'
'mişim_'
'mize_'
'miyorsun_'
'miydin_'
'missi'
'miss'
'mis_'
'minnettarım_'
'mina'
'miktar_'
'midnight_'
'mez'
'meyiz_'
'meyi_'
'met'
'mermi'
'mene_'
'meme'
'medim_'
'med_'
'mdi_'
'maymun'
'matters_'
'mati'
'masum_'
'mass_'
'market_'
'mark'
'manın_'
'mantıklı_'
'manners_'
'manager_'
'manage_'
'mama'
'mall'
'mak'
'madam_'
'lung_'
'losing_'
'lord_'
'lor'
'lonely_'
'lon_'
'llen'
'lit_'
'lips_'
'limit'
'life'
'lif'
'li'
'lg'
'lezzetli'
'lerinden_'
'leme'
'ledi'
'leading_'
'ldi_'
'ldi'
'ld_'
'ld'
'laşı'
'lawyers_'
'late'
'larıyla_'
'larınızı_'
'larımız_'
'lal'
'lab'
'kızma'
'kızların_'
'kızla_'
'kısm'
'kırık_'
'kırı'
'kın'
'kı'
'küvet'
'kültür'
'kül'
'kötü'
'köprü'
'köpeği_'
'köpekler'
'kçe_'
'kutu'
'kurum'
'kurtarma'
'kurtardım_'
'kurtardı_'
'kurtar'
'kurma'
'kuma'
'kulübe'
'kullanır'
'kullanma_'
'kullan_'
'kulağı'
'ktır_'
'ksınız_'
'kredi_'
'koyma'
'koydu'
'kovul'
'korktu'
'korkma'
'kop'
'konuşur'
'konuştuk_'
'konuştu'
'konuşmam_'
'komşu_'
'kola'
'knowledge_'
'kni'
'klı_'
'klar'
'kişiyi_'
'kişisel_'
'kit_'
'kit'
'kissed_'
'kinds_'
'kindly_'
'kinda_'
'kimlik_'
'keşfetti'
'kesti'
'kesme'
'kendisini_'
'kendinizi_'
'kemi'
'kaçırı'
'kaçırdım_'
'kaçırdı'
'kaza'
'kayıtları_'
'kayd'
'kaybolma'
'kaya'
'katlan'
'kası'
'kastediyorsun_'
'kas'
'karıştığı'
'karış'
'karısı_'
'kart'
'kapattı'
'kapat_'
'kanun'
'kamp'
'kalmıştı_'
'kalmaya_'
'kalman'
'kalmadı_'
'kalkma'
'kalem_'
'kalbin'
'kalbimi_'
'kah'
'kafayı_'
'kafası_'
'kafalı_'
'kadınlara_'
'jerk_'
'jee'
'işlerini_'
'işlerine_'
'işaretle'
'içindeki_'
'içime_'
'içeride_'
'izleri_'
'izler'
'izledim_'
'izle'
'izini_'
'izden_'
'ition_'
'ita'
'istiyordu_'
'istersiniz_'
'istemiyorsun_'
'istemediğin'
'istediğiniz_'
'istediğinde_'
'istediler_'
'issues_'
'ison_'
'ismini_'
'ise'
'irse_'
'irre'
'iriz_'
'iri_'
'interview_'
'inte'
'insanlarla_'
'insane_'
'insan'
'inkar_'
'inh'
'inform_'
'iness_'
'indeed_'
'inde'
'ind_'
'incitme'
'incit'
'inceleme'
'impa'
'imi'
'images_'
'ima_'
'ilk'
'ilgileniyor'
'ilgi_'
'ihtimalle_'
'ign'
'ight_'
'idiots_'
'idi_'
'idi'
'ide'
'ibo'
'ians_'
'ian'
'hus'
'hunt'
'huge_'
'hu'
'hte'
'hre'
'hos'
'horses_'
'horny_'
'hook_'
'honour_'
'hizmet'
'hits_'
'hissettiğini_'
'hing_'
'hills_'
'hikâye'
'hidden_'
'hid_'
'hesap_'
'hes_'
'herşey'
'herif'
'here'
'hepsinin_'
'hem'
'hel'
'hee_'
'hediye'
'hed'
'heat_'
'hearing_'
'hea'
'hb'
'hazırlan'
'hazırla_'
'haz'
'hayat'
'hayali'
'hayalet_'
'havalı_'
'hatırlamıyorum_'
'hat'
'hastane'
'has'
'harder_'
'hapse_'
'hang'
'halletme'
'halin'
'hair'
'hain_'
'haberin_'
'haber'
'güç'
'güveni'
'günde_'
'güle'
'göze_'
'göz'
'götürdü_'
'görüşe'
'görünmüyor_'
'göründü_'
'görme'
'görevi_'
'göreme'
'görebiliyor'
'gördüğünde_'
'gördüğümde_'
'gördü_'
'gönder'
'gy_'
'guts_'
'guar'
'grown_'
'grew_'
'greater_'
'graduate_'
'gorgeous_'
'goal_'
'gizemli_'
'gitti'
'gitmez'
'gitme'
'gireme'
'gireceğim_'
'gir'
'gie_'
'gideriz_'
'gideceğiz_'
'gidebil'
'gibiyim_'
'giant_'
'gg'
'geçiyorsun_'
'geçirmek_'
'geçirdi_'
'geçip_'
'geçin_'
'geçeceğiz_'
'getiriyor'
'gerekiyorsa_'
'geo'
'geleni_'
'geleceğim_'
'gecesi_'
'gaz_'
'gari'
'garanti_'
'gan_'
'gamble'
'gain_'
'fırtına_'
'fır'
'funeral_'
'fro'
'fries_'
'friendship_'
'fri'
'fren'
'free'
'freaked_'
'frankly_'
'fractured_'
'fourth_'
'fortress_'
'forma'
'forest_'
'forces_'
'forced_'
'fools_'
'fli'
'flesh_'
'flat_'
'fill_'
'fill'
'fighter_'
'fifth_'
'fields_'
'fic'
'ffin'
'ffe'
'fest'
'fer_'
'fen'
'female_'
'fella_'
'felaket_'
'fed_'
'fart'
'farkındayım_'
'fare'
'fantezi'
'failed_'
'fail_'
'faci'
'faces_'
'fab'
'fa_'
'eşi'
'eze'
'eye'
'explo'
'experiment_'
'exp'
'exchange_'
'exc'
'example_'
'exam'
'ex'
'ew'
'evlilik_'
'evlene'
'evlendi'
'everyday_'
'events_'
'event_'
'etmiyorsun_'
'etmiyor_'
'etmeyecek_'
'etmesini_'
'etmelisin_'
'etmedi'
'etmeden_'
'etkisi'
'etki'
'eti'
'este'
'esi'
'ern_'
'erl'
'erini_'
'erdi_'
'erde_'
'epi'
'env'
'entrance_'
'ens_'
'engine_'
'ener'
'endişe_'
'ency_'
'ence_'
'emin'
'emergency_'
'eme_'
'ema'
'elma_'
'elli_'
'ellerin'
'ell_'
'eline_'
'elimi_'
'eleri_'
'elektrikli_'
'election_'
'eld'
'elbise'
'eksik_'
'ekran'
'ekmek_'
'ees_'
'ediyordu_'
'edilme'
'edilen_'
'edge_'
'edemeyiz_'
'edeceksin_'
'edebiliyor_'
'ebe'
'ears_'
'dışına_'
'dığımı_'
'düşünüyorsunuz_'
'düşünür'
'düşünmemiştim_'
'düşündüğünü_'
'düşünce'
'düşmüş_'
'düzgün_'
'düzen_'
'dünya'
'dük'
'döşe'
'dönme'
'dönecek_'
'döndüm_'
'duymam'
'duya'
'duy'
'duruyor'
'durun_'
'durumuna_'
'dump'
'dry_'
'dro'
'dre'
'drag_'
'doğu'
'doğrusu_'
'doğrudan_'
'dozen_'
'doubt'
'dost'
'dolma'
'dollar_'
'doktor'
'dog'
'dock_'
'dle'
'diğin_'
'diğimiz_'
'diğerleri_'
'diyordum_'
'diya'
'district_'
'distracted_'
'direct'
'dinlemek_'
'dinle'
'dine'
'din'
'dile_'
'die'
'değiştirme'
'değişi'
'değilmiş_'
'değer'
'deydi_'
'detect'
'det'
'destruction_'
'destiny_'
'destek'
'desperate_'
'designed_'
'dersi_'
'depressed_'
'dent'
'denir_'
'denied_'
'deney'
'denedim_'
'demon_'
'demo'
'demi'
'deler_'
'dele'
'dehşet_'
'degree_'
'degil_'
'defend_'
'def'
'dediğimi_'
'dedi'
'declared_'
'dealing_'
'deal'
'dayız_'
'dayan'
'davranıyorum_'
'davran'
'darbe_'
'dalga'
'cık_'
'cü'
'cy'
'custom'
'curious_'
'cun'
'cul'
'criminal_'
'creep'
'count'
'cotton_'
'corridor_'
'continu'
'confess_'
'conf'
'conce'
'come'
'closer_'
'cle_'
'cke'
'circumstances_'
'cil'
'cigarette_'
'chew'
'checking_'
'ceği_'
'cevapla'
'cev'
'cere'
'cent_'
'cells_'
'caused_'
'cats_'
'castle_'
'cant'
'cand'
'cam'
'cally_'
'cage_'
'cade'
'buçuk_'
'butter_'
'burun_'
'bunlardan_'
'bulurum_'
'bulunuyor'
'bulunma'
'bulundu_'
'buluna'
'bulu'
'bulacağım_'
'bulabilirim_'
'breathe_'
'boşa_'
'boğu'
'boyla'
'bowling_'
'borçluyum_'
'book'
'bond_'
'bon_'
'bol_'
'boktan_'
'boil'
'blu'
'blown_'
'blis'
'blin'
'bla'
'bişey_'
'biçim'
'bizde_'
'bitirme'
'bitir_'
'biti'
'bite_'
'birisinin_'
'birds_'
'birazdan_'
'binme'
'bina_'
'bina'
'bilseydim_'
'bilse'
'bilmiyor'
'bilmeni_'
'bilmen_'
'bilgi'
'bileceğini_'
'bid'
'bez'
'beyefendi_'
'besleme'
'berg_'
'beraber'
'benim'
'ben'
'believes_'
'beden'
'bebeği_'
'bear'
'başlıyoruz_'
'başlar_'
'başk'
'başardı'
'bağlama'
'bayılırım_'
'batı'
'bastı'
'basically_'
'bas'
'banka'
'ban_'
'balance_'
'bakıyor'
'bakma'
'bahsediyoruz_'
'bahsediyordu'
'babe_'
'babamın_'
'aşağı'
'ağır'
'açıl'
'açıklaya'
'açtı'
'azal'
'ayrılı'
'aw'
'av_'
'au'
'atış'
'atı_'
'ator_'
'ato_'
'ato'
'atla'
'atan_'
'ata'
'ası'
'assume_'
'assess'
'ass'
'ashamed_'
'ash'
'arım_'
'artist_'
'armed_'
'arkadaşlar_'
'arkadaş'
'are'
'ardından_'
'araç_'
'aras'
'anız_'
'ants_'
'ano_'
'anlaya'
'anlatayım_'
'anlamıyor'
'anlamda_'
'anlamadım_'
'andan_'
'ancient_'
'anc'
'ami'
'amaz'
'amat'
'alışveriş_'
'alış'
'alırım_'
'alındı_'
'alına'
'altını_'
'alsa'
'almıştım_'
'almış'
'almıyor_'
'almaz'
'alma'
'all'
'alkol'
'ald_'
'aları_'
'ala_'
'akt'
'aka_'
'airport_'
'ailenin_'
'agents_'
'agency_'
'af'
'advice_'
'admitted_'
'admi'
'adan_'
'adamsın_'
'adamları_'
'actor_'
'actions_'
'act'
'accused_'
'account_'
'acağı'
'ac_'
'aboard_'
'abla'
'ability_'
'abet'
'Zh'
'Yu_'
'Yolu_'
'Yep_'
'Yemin_'
'Year_'
'Yay'
'Yargıç_'
'Yara'
'Yanı'
'Wouldn_'
'Wor'
'Willy_'
'White'
'Wayne_'
'Wat'
'Walter_'
'Wally_'
'WE'
'Voyager_'
'Vik'
'Ven'
'Uyuşturucu_'
'United_'
'Union_'
'Uni'
'Um'
'Tuesday_'
'Tsu'
'Troy_'
'Trip'
'Trans'
'Tour'
'Tit'
'Tip'
'Till_'
'Thi'
'Tess_'
'Ten_'
'Tea'
'Taş'
'Taylor_'
'Tay'
'Tara'
'Tanı'
'Tamamdır_'
'Tam'
'TA'
'Söylesene_'
'Söyle'
'Swi'
'Sweetheart_'
'Suçlu'
'Suz'
'Susie_'
'Super'
'Stone_'
'Step_'
'Stan_'
'Stan'
'Spe'
'Spar'
'Spain_'
'Soğuk_'
'Soy'
'Sou'
'Soon_'
'Snow'
'Sizler_'
'Sizden_'
'Shoot_'
'Shawn_'
'Shan'
'Sham'
'Sevi'
'Set'
'Send_'
'Seks_'
'Sekiz_'
'See'
'Sea'
'Scotty_'
'Sco'
'Sala'
'Sal_'
'SPE'
'Russians_'
'Russell_'
'Rus'
'Run'
'Rot'
'Ron_'
'Rol'
'River'
'Riley_'
'Rex_'
'Res'
'Reg'
'Rat'
'Rab'
'RY_'
'Quin'
'Qua'
'Pop_'
'Plus_'
'Pl'
'Pil'
'Pier'
'Phil_'
'Peg_'
'Patty_'
'Patron_'
'Parayı_'
'Paranı'
'Pap'
'Pam_'
'Paige_'
'PR'
'PO'
'PE'
'PA'
'Oz_'
'Ori'
'Op'
'Om'
'Olay_'
'Olanlar'
'Officer_'
'Ob'
'Oa'
'OL'
'Noah_'
'Nicky_'
'Nefes_'
'Nat'
'Nasılsınız_'
'Nancy_'
'Nak'
'NT'
'NOT_'
'ND'
'Mısır_'
'Müdür_'
'Mou'
'Mort'
'Mor'
'Monsieur_'
'Mit'
'Mini'
'Mikey_'
'Miami_'
'Melissa_'
'Meet_'
'McCa'
'Mavi_'
'Maurice_'
'Masa'
'Marvin_'
'Mars_'
'Mani'
'Mama_'
'Malley_'
'Mahkeme'
'Luci'
'Louise_'
'Loo'
'Lizzie_'
'Lis'
'Lil'
'Light_'
'Light'
'Li'
'Las_'
'Ladies_'
'LA'
'Kü'
'Kuzey'
'Kuzen'
'Kri'
'Kral'
'Kra'
'Koç_'
'Kor'
'Kind_'
'Kimseyi_'
'Kiminle_'
'Kime_'
'Ki_'
'Kennedy_'
'Ken_'
'Keith_'
'Kei'
'Kaçı'
'Kavga_'
'Katil_'
'Kara_'
'Kalbim'
'Kaba'
'KING_'
'Jun'
'Julius_'
'Judy_'
'Judge_'
'Juan_'
'Jesse_'
'Jeremy_'
'Jason_'
'Japon_'
'Jacob_'
'Jackson_'
'Jack'
'Isra'
'Isa'
'Irak_'
'Ir'
'Instead_'
'Ing'
'Im'
'Ik'
'Id'
'Ia'
'ID'
'Hoş'
'Hoo'
'Holy_'
'Hindistan_'
'Hil'
'Herkese_'
'Hel'
'Hector_'
'Hayatın'
'Hayatımda_'
'Hayat'
'Hay_'
'Hava'
'Hanımefendi_'
'Half_'
'Haklı_'
'Hak_'
'Hak'
'HE'
'Günün_'
'Günü_'
'Gül'
'Görüşürüz_'
'Görev_'
'Gun'
'Grey_'
'Gray'
'Grand_'
'Grand'
'Gran'
'Grab_'
'Going_'
'Gitmem'
'Gitme'
'Giri'
'Gina_'
'Gin'
'Gidiyoruz_'
'Geç'
'Geri'
'Gerald'
'Gece'
'Gas'
'Gard'
'Gam'
'GO_'
'GI'
'GH'
'Fro'
'France_'
'Follow_'
'Fle'
'Fen'
'Farklı_'
'Far_'
'Fan'
'FL'
'Ev'
'Ertesi_'
'Er_'
'Ep'
'Enterprise_'
'Enough_'
'Emily_'
'Ellerini_'
'Ei'
'Eg'
'Ede'
'East_'
'Ea'
'Düşündüm_'
'Dünyanın_'
'Durum_'
'Drop_'
'Dre'
'Dor'
'Diz'
'Devletler'
'Derin_'
'Deniz_'
'Deniz'
'Delil'
'Deli'
'Dedi'
'Dedektif_'
'Debbie_'
'Dawson_'
'Data_'
'Darling_'
'Dan'
'Dalga_'
'Daima_'
'DO'
'DID_'
'Cre'
'Cou'
'Columbia_'
'Clear_'
'Cinayet_'
'Cho'
'Chinese_'
'Chase_'
'Cennet_'
'Cast'
'Caroline_'
'Cana'
'Can'
'Cameron_'
'Cai'
'CU'
'CIA_'
'Bı'
'Buz_'
'But'
'Bus'
'Burn'
'Burke_'
'Buranın_'
'Bun'
'Bulu'
'Buck'
'Brien_'
'Brand'
'Boris_'
'Bones_'
'Bol'
'Blue_'
'Blair_'
'Bla'
'Biz'
'Bira'
'Bina'
'Bin'
'Bilemiyorum_'
'Believe_'
'Bed'
'Bayıl'
'Bauer_'
'Barr'
'Barney_'
'Barn'
'Barbara_'
'Bah'
'Babamı_'
'Babam'
'Baba'
'BE_'
'Aşk_'
'Aş'
'Açı'
'Ayakkabı'
'Ay_'
'Aunt_'
'Audrey_'
'Asi'
'Arizona_'
'Arch'
'Araya'
'Arama'
'Anthony_'
'Annie_'
'Annenin_'
'Ann_'
'Anladın_'
'Anla'
'Ani'
'Americans_'
'Alış'
'Alright_'
'Alfa_'
'Aldı'
'Ailen'
'Ailem'
'Ai'
'Again_'
'Africa_'
'Abi_'
'AR_'
'AN_'
'AD'
'9'
'4'
'36_'
'19_'
'191'
'14'
'... '_'
'. [_'
'( _'
'", "_'
'ί'
'şın'
'şüpheli'
'şö'
'şti_'
'şt'
'şler_'
'şl'
'şişko_'
'şirketin_'
'şin'
'şimdilik_'
'şimdi'
'şim'
'şikayet_'
'şik'
'şeylerden_'
'şeyini_'
'şeklinde_'
'şeklin'
'şehrin_'
'şefkat'
'şefi_'
'şaşır'
'şar'
'şansım_'
'şanslar_'
'şampiyon'
'şal'
'şa_'
'Şükran_'
'Şuraya_'
'Şo'
'Şeytan_'
'Şehrin_'
'Şehirde_'
'Şehir'
'Şef_'
'Şar'
'Şans'
'ışığı_'
'ışı'
'ızın_'
'ıyorsa'
'ıyorlar_'
'ısın'
'ısı_'
'ısla'
'ıskala'
'ırma'
'ımdan_'
'ıI'
'İz'
'İster_'
'İnsanlara_'
'İngilizce_'
'İlişki'
'İkiniz'
'İk'
'ğınız_'
'ğımda_'
'ğım'
'ğüm'
'ğunda'
'ğum_'
'ğinde_'
'ğimiz_'
'ğer'
'üş'
'üzü'
'üzerindeki_'
'üyeleri'
'üy'
'üstün_'
'üst'
'ürkütücü_'
'üreti'
'üni'
'ülü'
'ülkede_'
'ükle'
'öğretmen_'
'öğretme'
'öğrenme'
'öğrenir'
'öğreni'
'öğreneme'
'öğrenecek'
'öğrendiğin'
'öğleden_'
'özlüyorum_'
'özgür'
'öz'
'ötesinde_'
'örü'
'örtü'
'ört'
'öper'
'önlem'
'öneriyor'
'önemsiz_'
'önemi_'
'önde'
'ölümün'
'ölümü_'
'ölen'
'öleceği'
'ölecek'
'öldürmüş_'
'öldürmen'
'öldüreme'
'öldüre'
'öldür'
'ödülü'
'ödü'
'ödeyecek_'
'î_'
'í'
'è'
'çıl'
'çıkış_'
'çıkı'
'çıkmaz_'
'çıkmaya_'
'çıkmaya'
'çıkmam_'
'çıkma_'
'çıkarır_'
'çıkardım_'
'çıka'
'çözüm_'
'çözmek_'
'çukur'
'çocuğum_'
'çocuğa_'
'çm'
'çiz'
'çip'
'çevirdi'
'çevir'
'çektir'
'çektim_'
'çağ'
'çayır'
'çav'
'çatışma_'
'çaresi'
'çap'
'çalışıyordum_'
'çalıştı_'
'çalışması_'
'çalış'
'çabucak_'
'âl'
'Üçüncü_'
'Üzerim'
'Üstüne_'
'Üstü'
'Üst'
'Öğrenme'
'Öğrenci_'
'Önüm'
'Öncelikle_'
'Ölmüş_'
'Öle'
'Öldürme'
'Ödeme'
'Çılgın'
'Çıkar_'
'Çıkar'
'Çocukken_'
'Ço'
'Çinli'
'Çeki'
'Çe'
'Çar'
'Çanta'
'Çalış'
'Ç'
'_'
'zsınız_'
'zse_'
'zorundaydı'
'zorun'
'zorlan'
'zo_'
'zlık'
'zle'
'ziyareti'
'zir'
'zing_'
'zero_'
'zenci_'
'zel'
'zeki'
'zehirle'
'zdı_'
'zdan_'
'zar'
'zamanını'
'zamanın_'
'yılın'
'yılları'
'yıllar'
'yıkı'
'yıkan'
'yıcı_'
'yüzlü'
'yüzleşme'
'yüzbaşı_'
'yüz'
'yürek'
'yükle'
'yük'
'yönünde_'
'yöntemi'
'yönetim_'
'yönetici'
'yukarıda_'
'ysi'
'ys'
'yp'
'yorucu_'
'york'
'yol'
'yiyi'
'yg'
'yeyim_'
'yetmez_'
'yete'
'yerlerde_'
'yerinden_'
'yerime_'
'yerim_'
'yeri'
'yeni'
'yemi_'
'yemeğini_'
'yemekleri_'
'yele'
'yel'
'yediği'
'yed_'
'yecek'
'ydı'
'ydi'
'yaşıyorum_'
'yaşıyor'
'yaşayamaz'
'yaşamadı'
'yaşadım_'
'yazma'
'yazdığını_'
'yazdığı_'
'yazar_'
'yaya'
'yavaşça_'
'yatırım_'
'yatı'
'yatma'
'yatağa_'
'yatakta_'
'yat_'
'yard'
'yarayabilir_'
'yarar_'
'yaramaz'
'yaraları'
'yara'
'yapış'
'yapılmış_'
'yapılma'
'yapılan_'
'yaptılar_'
'yapmıştı'
'yapmaz'
'yapmayacağım_'
'yapmamı_'
'yapmama'
'yapmaktan_'
'yapmadın_'
'yapamaz'
'yapacağını_'
'yanıyor_'
'yanıma_'
'yalvar'
'yalancı_'
'yakış'
'yakını'
'yakın'
'yaklaştı'
'yakalayamadı'
'yakalanma'
'yakalan'
'yakaladı_'
'yahu_'
'yah'
'yacak'
'yac'
'yabilir_'
'yabancı_'
'xt'
'wri'
'woods_'
'woo'
'wonder'
'witnesses_'
'wis'
'wire'
'wipe_'
'wind'
'widow_'
'who'
'wherever_'
'web'
'wears_'
'washing_'
'wash_'
'wanting_'
'waited_'
'vurur'
'vuruldu_'
'vurma'
'vurduğu'
'vurdun_'
'vul'
'vre'
'vir'
'villa'
'view'
'vid'
'victor'
'vessel_'
'vert'
'versi'
'vermez'
'vermeyi_'
'vermeni_'
'vermem_'
'vermelisin_'
'verme'
'veriş'
'veriyorlar_'
'verirseniz_'
'verile'
'veri_'
'vereyim_'
'verdiğin'
'verdiler_'
'vazgeçme'
'vast_'
'vard_'
'vampire_'
'vampir'
'vakası_'
'vag'
'uştu'
'uş'
'uğraş'
'uğramış_'
'uçtu'
'uçağa_'
'uzmanı_'
'uzay_'
'uzat'
'uz'
'uyuyor_'
'uyur'
'uyu_'
'uyor'
'uydurma'
'uydu_'
'uyanık_'
'uyan_'
'uy'
'uv'
'uter'
'utan'
'uses_'
'use'
'urit'
'uri'
'ure'
'urc'
'upstairs_'
'unw'
'unuttun_'
'unuttum_'
'unutmuş'
'unutmayın_'
'union_'
'unfair_'
'und'
'una'
'umu'
'uma_'
'ulus'
'ult'
'ulma'
'ula'
'uel'
'ucuz_'
'ucu'
'uck_'
'uat'
'uar'
'ual'
'tığın_'
'tığım'
'tıl'
'tüy'
'tük_'
'töreni_'
'tuğ'
'tutuyor'
'tutukla'
'tutmadı'
'tutma'
'tuk_'
'tto_'
'tte'
'tt'
'ts'
'trust'
'tric'
'treatment_'
'treasure_'
'traveled_'
'trace_'
'toz_'
'toy'
'tory_'
'topu'
'toplan'
'toparla'
'tools_'
'toilets_'
'toast'
'tn'
'tma'
'tm'
'tiri'
'tip'
'tie'
'tic'
'thus_'
'ths_'
'thrown_'
'throat_'
'thro'
'thr'
'tho'
'thirty_'
'thick_'
'that'
'tha'
'teyze'
'tey'
'text'
'tests_'
'testimony_'
'test'
'teröristler'
'tersine_'
'terl'
'tera'
'tepki_'
'tepe'
'tens'
'tend_'
'temizlen'
'temiz'
'temin_'
'telefonunu_'
'teknoloji'
'tekisin_'
'tehlike_'
'ted'
'tears_'
'taşıya'
'taşın'
'taşı'
'tax_'
'tattoo_'
'tatile_'
'tat'
'tarz'
'tarihi_'
'tarih_'
'tarif'
'taraf_'
'tanıştır'
'tanışmak_'
'tanışmadı'
'tanış'
'tanığı'
'tanırım_'
'tanımla'
'tanım'
'tanık_'
'tanesi_'
'tamir'
'tamamını_'
'tamam'
'tall_'
'tale_'
'takıyor'
'taksi_'
'tak_'
'tain_'
'sızlık_'
'sıyla_'
'sırı'
'sırasında_'
'sınıfta'
'sınav'
'sın'
'sıfır_'
'süz_'
'sürüyor'
'sürer'
'sürdür'
'süpür'
'söyleyebil'
'söyleye'
'söylerdim_'
'söylen'
'söylemiş'
'söylemiyorum_'
'söylemeyeceğim_'
'söylememiş'
'söyleme'
'söylediğin_'
'söylediğimi_'
'söylediklerin'
'sök'
'symbol_'
'swo'
'swimming_'
'swim_'
'suçun_'
'suçum_'
'suçlar'
'suyun_'
'suy'
'survival_'
'surviv'
'surat'
'supply_'
'super_'
'sunu'
'sunl'
'sundu'
'sunda_'
'suko_'
'suite'
'suit_'
'suggested_'
'suggest_'
'sugar_'
'success_'
'subs'
'subay_'
'stuff'
'strip'
'storm_'
'stor'
'stops_'
'stood_'
'stock_'
'stl'
'sticking_'
'sters_'
'ste_'
'stars_'
'stand'
'stab'
'sson_'
'squi'
'square_'
'spring_'
'split_'
'soğu'
'soylu_'
'soruyor'
'sorunlar'
'sorun'
'sorumlusu'
'sorma'
'sorgula'
'sordun_'
'sonucu_'
'sonrasında_'
'somethin_'
'solm'
'solid_'
'soku'
'sokaklar'
'sokak_'
'soil_'
'soft_'
'smo'
'smells_'
'sm_'
'slu'
'slip_'
'sler'
'sleep'
'slave_'
'skull_'
'sizlere_'
'sizce_'
'sivil_'
'site_'
'sistemini_'
'singing_'
'sili'
'silence_'
'sile'
'silahını_'
'silah'
'siktir_'
'sikiş'
'sides_'
'si'
'shuttle'
'shr'
'shoulder_'
'shit'
'shirts_'
'shave'
'seydim_'
'sexy_'
'sevmeye'
'sevgilim_'
'severe_'
'seve'
'sevdiğini_'
'sevdiği_'
'sessiz'
'ses'
'serving_'
'serseri'
'seriously_'
'ser_'
'separate_'
'separate'
'sentence_'
'sent'
'sensors_'
'senin'
'senedir_'
'sendin_'
'seks'
'seed_'
'sebep'
'screwed_'
'score_'
'sci'
'schedule_'
'sche'
'sca'
'sağlayabilir'
'sağlaya'
'sağlama'
'sağa_'
'sağ'
'saç_'
'saç'
'sayı_'
'sayar'
'saving_'
'savaşçı'
'sav'
'sattı'
'sarışın_'
'sarılma'
'sanıyorlar_'
'sant'
'sanmıştım_'
'saniye'
'san'
'salt'
'salonun'
'sale_'
'saldırıy'
'saldırı'
'saldıra'
'saklıyor'
'saklama'
'sakinleş'
'sakin'
'sail'
'sahipler_'
'sahibi'
'sacrifice_'
'sabah'
'saatler'
'rüya_'
'rus_'
'rul'
'rude_'
'ruble'
'ru_'
'rte'
'rsiniz_'
'rsa'
'rre'
'royal_'
'row'
'route_'
'rough_'
'rot_'
'ros_'
'rope_'
'rom'
'rog'
'rod'
'robbed_'
'roads_'
'rme'
'rma_'
'rlar'
'rla_'
'rla'
'rk'
'risk'
'rise_'
'ris_'
'rine_'
'rimi_'
'ril'
'rik'
'rib'
'rez'
'revealed_'
'returns_'
'returning_'
'retr'
'retired_'
'ret_'
'reso'
'resist'
'resi'
'res'
'request_'
'repo'
'repl'
'repeat_'
'rent'
'renkli_'
'reminds_'
'remaining_'
'remain_'
'reli'
'rele'
'rel'
'reign_'
'rehberlik_'
'regard'
'redi'
'rede'
'reddede'
'recover_'
'recommend_'
'recent_'
'rec'
'reasons_'
'reads_'
'reacti'
'rci'
'ray'
'ration_'
'rating_'
'rast'
'ras_'
'rar'
'rap'
'randevum_'
'randevu'
'rance_'
'rak'
'raised_'
'rai'
'rage_'
'radyo'
'rac'
'rab'
'quit'
'quest_'
'quarter_'
'py'
'pursue'
'purpose_'
'pup'
'punk_'
'puan_'
'pto'
'psychic_'
'psi'
'protecting_'
'property_'
'prop'
'prom'
'proje'
'procedure_'
'pro_'
'prepare_'
'poz'
'powder_'
'potatoes_'
'post_'
'possibly_'
'port'
'politik'
'polis'
'policy_'
'poet'
'po_'
'pma'
'plays_'
'play'
'planın_'
'planı_'
'planned_'
'planes_'
'plan'
'plain_'
'piş'
'pit_'
'pisliğin'
'pire_'
'pion'
'pillow_'
'pigs_'
'pid'
'physical_'
'physic'
'phoned_'
'phi'
'peşin'
'pett'
'permission_'
'period_'
'perfectly_'
'pens'
'penis_'
'pencil_'
'pek'
'pazar'
'payını_'
'paylaşma'
'paying_'
'patlat'
'patlama'
'patients_'
'pas_'
'parole_'
'parmakları'
'pardon_'
'parasız_'
'parasını_'
'parası_'
'paraları'
'paperwork_'
'papa'
'panties_'
'pam'
'pala'
'pad_'
'oyu_'
'oynar_'
'oynama'
'oyna'
'oya'
'owner_'
'outs'
'oun'
'oturma'
'oto'
'otel'
'ote'
'osu'
'ory_'
'ortasında_'
'ortadan_'
'orsun_'
'oro'
'ordu'
'orası_'
'operating_'
'oon_'
'oner_'
'onayla'
'olursunuz_'
'olur'
'olması'
'olmasaydı_'
'olmasa_'
'olmanın_'
'olmana_'
'ole_'
'olduğun'
'oldular_'
'olayını_'
'olayın_'
'olayım_'
'olacak'
'olabiliyor_'
'olabil'
'okyanus'
'okuyu'
'okur'
'okumak_'
'okuldan_'
'oku_'
'oise_'
'oes_'
'odun'
'odo'
'odayı_'
'odamda_'
'oda'
'obstruction_'
'object_'
'obe'
'nıza_'
'nıyor'
'nükleer_'
'nut_'
'nun'
'nuclear_'
'nte'
'nsi'
'notu_'
'notes_'
'notebook_'
'north_'
'nor'
'nol'
'nne'
'nli'
'nle_'
'niz'
'nist'
'nini'
'nine'
'nie'
'nice'
'nic'
'neymiş_'
'ney'
'neresi_'
'ner'
'nen_'
'nel_'
'nek_'
'nehir'
'nedenler'
'nedenini_'
'nede'
'ndr'
'ndir'
'nde'
'nd'
'nct'
'naughty_'
'nap_'
'nak'
'nails_'
'nab'
'mışlar_'
'mız'
'mıyor'
'mısır'
'müşterim'
'müşteri'
'müz'
'müsün_'
'müsaade_'
'mülk'
'müh'
'muştu_'
'muzu_'
'muz'
'muyorum_'
'mutluydu'
'mutluluk_'
'mur'
'mum_'
'mul'
'muha'
'mua'
'moves_'
'mountains_'
'monsters_'
'mona'
'mon'
'mol'
'mn'
'mişi'
'mit_'
'misafir'
'miras_'
'mini_'
'mine'
'milyon'
'mili'
'mil_'
'mid'
'michael_'
'mic'
'mezuniyet_'
'mezun_'
'mezse'
'meyve_'
'meyeceğim_'
'meydan'
'mey'
'meth'
'meters_'
'meter_'
'mess'
'meslektaş'
'mes_'
'merhamet'
'menin_'
'menajer'
'memories_'
'meme_'
'members_'
'mem'
'mekt'
'medicine_'
'media_'
'meclis'
'mecbur'
'measure'
'mea'
'mdır_'
'mbi'
'mayor_'
'maya'
'masına_'
'massage_'
'maske'
'mask_'
'masal'
'masada'
'marked_'
'manı_'
'manzara_'
'manzara'
'mann_'
'mank'
'mamış_'
'mamı'
'malıyız_'
'malzeme'
'malar_'
'makeup_'
'mail'
'lığa_'
'lılar_'
'lıklar'
'lus'
'luna'
'lum'
'lul'
'lu'
'lte'
'lov'
'lou'
'lokanta'
'location_'
'loaded_'
'lmış_'
'lm_'
'lls_'
'liğin_'
'liyor_'
'liyim_'
'listened_'
'lion_'
'lines_'
'lin'
'liler_'
'lik'
'lig'
'lic_'
'leyi'
'leydim_'
'leti'
'less'
'lerin'
'lerimizi_'
'lerime_'
'lerim_'
'lendir'
'lend_'
'leke'
'leg_'
'ldı_'
'laz'
'laughter_'
'latest_'
'lastik_'
'larıma_'
'lardır_'
'lanma'
'lang'
'lands_'
'lana'
'lam'
'lake_'
'lag'
'ladı'
'lack_'
'kızar'
'kıyı'
'kıyafeti'
'kısı'
'kısmını_'
'kırk_'
'kıra'
'kır'
'kılıcı'
'köy'
'kötüleş'
'kör_'
'köpeği'
'kç'
'kuşu_'
'kuzey'
'kuzeni'
'kuz'
'kuvvetli_'
'kutu_'
'kutsal_'
'kurut'
'kurula'
'kurul'
'kurtara'
'kurban_'
'kur_'
'kumar'
'kullanın_'
'kullanma'
'kullandığın'
'kullandığı_'
'kullandın_'
'kullan'
'ktım_'
'kte'
'kt'
'krizi_'
'kre'
'kraliçe'
'kral'
'koşma'
'koz'
'koyun_'
'kov'
'koruyacağı'
'korur'
'korkutuyor_'
'korkutu'
'korktuğu'
'korka'
'kopya'
'konvoy'
'konuşuyordu'
'konuşup_'
'konuşmuş'
'konuşmaya'
'konuşmamız_'
'konuşacağım_'
'konferans'
'komutanım_'
'komik'
'kolunu_'
'kokuyor_'
'kocaman_'
'knocked_'
'knock_'
'klık'
'klı'
'klasik'
'klarının_'
'kke'
'kişilik_'
'kişiler'
'kişi'
'kis'
'kir'
'kini_'
'kinde'
'kimliğini_'
'kiminle_'
'kilitlen'
'kilitle'
'kileri_'
'kil_'
'keyif_'
'kesip_'
'kesil'
'kesi'
'kese'
'kendimizi_'
'kendimde'
'ken'
'kem'
'kelle'
'kel_'
'kel'
'kedi'
'kaçıyor'
'kaçını'
'kaçmak_'
'kayıtlarını_'
'kayı'
'kayma'
'kaybı'
'kayboldu'
'kaybetmek_'
'kaybedi'
'kavuştu'
'kav'
'katılı'
'katılabilir_'
'katıl'
'katili'
'kasaba_'
'kasaba'
'karşısında_'
'karşılık_'
'karşılaştık'
'karışı'
'karın'
'karı'
'kardeşiniz'
'kararı_'
'karart'
'karakter_'
'kapmış'
'kaplama'
'kapatıp_'
'kapatın_'
'kapat'
'kanıtı_'
'kanser'
'kamyonu'
'kamera_'
'kalmıştım_'
'kalmaz_'
'kalkıp_'
'kaldığı'
'kaldırı'
'kaldırma'
'kaldın_'
'kaldı'
'kalanın'
'kala_'
'kak'
'kahraman'
'kafasına_'
'kafam_'
'kafam'
'kafa'
'kadınsın_'
'kadınların_'
'kadına_'
'kadeh_'
'kadardır_'
'kabullen'
'kaba_'
'jı_'
'jury_'
'junk'
'juice_'
'judg'
'joking_'
'jay'
'jan'
'jam_'
'jack'
'işlerim_'
'işiniz'
'işime_'
'işaret_'
'içiyorsun_'
'içiyor'
'içelim_'
'iç'
'izniniz'
'izleri'
'izler_'
'izlenim'
'izlemek_'
'izleme'
'iza'
'iyoruz_'
'iyorlar_'
'iyiydi_'
'iyileşi'
'iyiler'
'iye'
'ix_'
'ives_'
'ive'
'iv'
'itude_'
'itti'
'ith'
'istiyordun_'
'istiyordum_'
'istiyor'
'istik'
'istihbarat_'
'isteye'
'isterdi_'
'ister'
'istemeye'
'istemediğini_'
'istemedi'
'istediğim'
'iste'
'ist'
'ism'
'isi_'
'irsin_'
'iron_'
'irler'
'iri'
'ird'
'ira_'
'ira'
'ipucu_'
'inşaat_'
'investigate_'
'invest'
'inti'
'int'
'insult_'
'instructions_'
'insist_'
'insanı_'
'insana_'
'ino'
'inn'
'inme'
'inler_'
'ink_'
'iniş_'
'inizi_'
'info_'
'inf'
'ined_'
'indiri'
'indicates_'
'incin'
'inatçı'
'inanıyor_'
'inanmadı'
'impressive_'
'impression_'
'impossible_'
'impo'
'immortal_'
'ime'
'imde_'
'ily_'
'ilmiş_'
'ilme'
'iller'
'ilişkileri'
'ilir_'
'ilgilenme'
'ilgilenirim_'
'ilgilendirmez_'
'ilgilen'
'ileti'
'ilerde_'
'ilanı'
'ilan_'
'iko_'
'ikisini_'
'ika'
'ihmal'
'ight'
'ifi'
'ier'
'ics_'
'icin_'
'ican_'
'ically_'
'ica'
'iblis_'
'ibaret_'
'ib'
'ias_'
'hı'
'hâlde_'
'hy_'
'huzurun'
'huzur'
'hur'
'hum'
'htı'
'hoşçakal_'
'hoşlanma'
'hoşgeldiniz_'
'host'
'hope'
'hoops_'
'hooker_'
'hood_'
'homes_'
'hom'
'holes_'
'holds_'
'hist'
'hissetmeme'
'hir'
'hile_'
'hile'
'heyecan_'
'hev'
'hesabın'
'herifler_'
'hen'
'heels_'
'hediyeler_'
'hec'
'heav'
'heal'
'head'
'hayvan'
'hayranı'
'hayatının_'
'hayatımın_'
'hayatlarını_'
'hayal'
'hay_'
'hatırlat'
'hatırlamıyor'
'hatred_'
'hates_'
'hastası_'
'hastaneye_'
'hastalık_'
'hastaları'
'hassas_'
'hasar_'
'harmless_'
'hareketin'
'harcama_'
'hapishane'
'hanım_'
'hani_'
'hangisi_'
'hangi'
'hamle'
'hamile_'
'hali_'
'hal'
'haklıy'
'haklısınız_'
'hakl'
'hakkındaki_'
'hakkı_'
'hakkı'
'hakaret'
'haftadır_'
'hafif'
'had'
'habit_'
'güzel'
'güverte'
'günlerin'
'güneye_'
'güney_'
'gündü'
'gülümseme'
'gülümse'
'gülü'
'gül_'
'gü_'
'gözümü'
'gözlerin'
'gözleri_'
'göstereceğim_'
'göster_'
'görüşü'
'görüşmek_'
'görüşme_'
'görürsünüz_'
'görürse_'
'görür_'
'görse'
'görmüştüm_'
'görmüyorum_'
'görmezden_'
'görmesi_'
'görmem'
'görevin'
'görevde'
'görene_'
'görelim_'
'görecek_'
'göre'
'gördüğün_'
'gördüğün'
'gördük_'
'gör'
'gönderil'
'göndere'
'gö'
'gym_'
'gy'
'gus'
'guru'
'gula'
'gs'
'growing_'
'groups_'
'gre'
'grav'
'grad'
'grace_'
'grab_'
'goods_'
'goodbye_'
'gon'
'gol'
'glory_'
'gle'
'glasses_'
'giz_'
'giyer'
'giydir'
'giydi'
'gittin_'
'gitmiyorum_'
'gitmemi_'
'gitmeden_'
'girmiş_'
'girmeye_'
'girişi'
'giri'
'girerim_'
'giren_'
'girebilir_'
'gire'
'girdim_'
'girdi'
'gidiş'
'gidiyordu_'
'gidersen_'
'giderse'
'gidene_'
'gidebilirsin_'
'gide'
'ghts_'
'gging_'
'geçiyordu'
'geçirme'
'geçirdim_'
'geçici_'
'geçerli_'
'geç'
'gettin_'
'getiril'
'getirdi'
'gerginim_'
'gerektiği_'
'gerekirdi_'
'gerek'
'genelde_'
'genel_'
'gemide'
'gelmiştir_'
'gelmiyor'
'gelmeye'
'gelmen'
'gelmemi_'
'gelmedi'
'geliş'
'geliyorsun_'
'geliyorlar_'
'geliyordu_'
'gelene_'
'geleceği_'
'gelebilir'
'geldiğimde_'
'geldiler_'
'gee'
'gecikti'
'geceyi_'
'geceydi_'
'gecenin_'
'geberteceğim_'
'gaz'
'gas'
'gara'
'gam'
'gal_'
'gal'
'function_'
'frighten'
'freezing_'
'fotoğrafı'
'fortune_'
'fort'
'form'
'forge'
'foot'
'fol'
'fo'
'flower_'
'flow'
'flood'
'fiyatlar'
'fit'
'fishing_'
'firm_'
'firing_'
'finds_'
'fincan_'
'filthy_'
'films_'
'filmi_'
'fikrin_'
'fikirler'
'fikirdi_'
'fig'
'fie'
'fid'
'fet_'
'feri'
'fellas_'
'feld_'
'feed_'
'fee'
'fear'
'fazlasıyla_'
'fazla'
'fat'
'farkına_'
'farketti'
'faithful_'
'fai'
'fact'
'fabrika'
'eşleş'
'eşini'
'eğlenme'
'eç_'
'ez'
'eyim_'
'eydi_'
'extreme_'
'extraordinary_'
'extra_'
'ext'
'expenses_'
'expe'
'exhaust'
'evren'
'evli_'
'eve'
'eva'
'eu'
'ettirme'
'etsin_'
'etse'
'etrafın'
'etrafta_'
'etmiyorum_'
'etmiyor'
'etmeyecek'
'etmeye'
'etmemi_'
'etmekten_'
'etme'
'etkili_'
'etkiler'
'etkile'
'etin_'
'esti'
'esh'
'erm'
'ering_'
'erinden_'
'erde'
'erd'
'erce_'
'era'
'enter_'
'enter'
'enne'
'enjoying_'
'enerji'
'enemies_'
'endişelenme_'
'ence'
'emri_'
'emri'
'employ'
'emp'
'emi_'
'emeye'
'embarrassing_'
'emb'
'elçi'
'elo'
'elisin_'
'elimden_'
'elektronik_'
'elder'
'ekli'
'egi'
'egg_'
'ege'
'eful_'
'edilemez_'
'edile'
'ederse'
'ederken_'
'ederdim_'
'edemez_'
'edebilirsin_'
'edebileceğini_'
'ede_'
'eceğiz_'
'ecektir_'
'ecekler_'
'eaten_'
'easily_'
'eas'
'dışarı'
'dın'
'dıkları_'
'düşüş'
'düşünmüyor_'
'düşünmüyor'
'düşünmen'
'düşünme_'
'düşünme'
'düşünemiyorum_'
'düşündüğümü_'
'düşündüğü_'
'düşündü'
'düşünceler'
'düşmanımız'
'düzen'
'düzelte'
'düzel'
'dünyalar'
'dövüş_'
'dönüş_'
'dönmeyeceğim_'
'dönmem_'
'dönmeliyiz_'
'dönerim_'
'dönem'
'dönelim_'
'döndürü'
'duymuş_'
'duygularını_'
'duydunuz_'
'duyduk_'
'duydu'
'duyabiliyor'
'duruyorsun_'
'durumunu_'
'durumun'
'durdura'
'durdu'
'drum'
'drew_'
'dreaming_'
'dreamed_'
'dragon_'
'draft_'
'doğrula'
'doğru'
'doğdu'
'downtown_'
'dostu'
'doom'
'donu'
'dont_'
'doll_'
'dolduru'
'dolaşma'
'dola'
'dokuz_'
'doku'
'doktorlar'
'doktora_'
'dogs_'
'dling_'
'diş'
'ditch'
'disturbing_'
'distr'
'discuss_'
'disaster_'
'direk_'
'direct_'
'dip'
'dinlenme'
'dinlen'
'dinleme'
'diliyorum_'
'dilin'
'diler_'
'diler'
'dil_'
'dil'
'dikleri_'
'dikkat'
'diamonds_'
'dg'
'değiştiriyor'
'değiştiri'
'değiştirdi_'
'değiştir_'
'değişti_'
'değişik_'
'değilsiniz_'
'değerlendirme'
'değerin'
'deyin_'
'deyim_'
'deyi'
'devriye'
'devre'
'devir'
'devil_'
'devi'
'desen'
'dese'
'derin'
'dere'
'derdin_'
'dera'
'depre'
'deposit_'
'deny_'
'denize_'
'denge'
'denet'
'denemiyorsun_'
'demeli'
'deliğin'
'delirdi'
'delilik_'
'delil'
'delik_'
'deg'
'defi'
'dee'
'dediğim'
'dediği_'
'dediklerini_'
'decisions_'
'deca'
'debts_'
'deb'
'dde'
'dağ'
'dayanamaz'
'dayana'
'daya'
'davranışların'
'davranış'
'davranıyorsun_'
'davayı_'
'data_'
'das'
'dancing_'
'dama'
'dalgalan'
'dale_'
'dala'
'cılık_'
'cuts_'
'cuti'
'cus_'
'curse_'
'culuk_'
'cture_'
'ct'
'cru'
'cro'
'crisis_'
'crimes_'
'creepy_'
'creatures_'
'creating_'
'cream_'
'court'
'county_'
'counting_'
'counsel'
'corre'
'cookies_'
'cooked_'
'convince_'
'convict'
'conve'
'contain'
'connect'
'confused_'
'conduct'
'compos'
'communicate_'
'commi'
'comm'
'comfort'
'com'
'color'
'col'
'coal_'
'coach_'
'closing_'
'climb_'
'client_'
'clever_'
'cle'
'claim_'
'civili'
'circus_'
'cins'
'cine'
'cim'
'ciler_'
'chop'
'choices_'
'cher_'
'cher'
'chen_'
'charity_'
'chain_'
'cha_'
'cezalandırıl'
'ceza'
'cez'
'cevabı'
'ceremony_'
'cep_'
'center_'
'cem'
'cell'
'cel'
'cekti'
'cekler_'
'cekler'
'cebinde'
'cc'
'cave'
'cars_'
'carried_'
'careless'
'care'
'capt'
'capacity_'
'cani'
'candy_'
'cam_'
'caktır_'
'caktı'
'caklar_'
'cadı_'
'cadı'
'c'
'bırakır'
'bıraktın_'
'bırakmak_'
'bırakma'
'büyüle'
'büyükanne'
'bölgesinde_'
'bölgede_'
'buying_'
'butt_'
'bust_'
'bus'
'burned_'
'burger'
'burg_'
'burdan_'
'buradaydı'
'buradaki_'
'bunlar'
'buluşuyor_'
'buluş'
'bulunduğu'
'bulmuş'
'bulma'
'bulduğumuz'
'bulamıyorum_'
'bulama'
'bulabilir'
'bulabil'
'bugüne_'
'bug'
'bucks_'
'bubble_'
'bro'
'brief'
'bridge_'
'bread_'
'brains_'
'bra_'
'boşluk_'
'boş'
'boğa'
'bozuk_'
'bozma'
'boynu'
'boya_'
'bow_'
'bow'
'bounty_'
'bound_'
'bottle_'
'bothers_'
'borç_'
'boring_'
'borcum_'
'boot'
'bomb'
'blowing_'
'blocks_'
'block_'
'ble'
'blank'
'black'
'bizler'
'biye'
'bitmiş_'
'bitirelim_'
'biten'
'bisiklet'
'birşey'
'birliktey'
'biri'
'bire_'
'birbiriniz'
'binlerce_'
'bill'
'biliyordu_'
'biliyor'
'bility_'
'bilirdim_'
'bilin'
'bilgisi'
'bilgileri_'
'bileti'
'bildiğini_'
'bildin_'
'bil'
'biggest_'
'biftek_'
'beğendi'
'bets_'
'beraberiz_'
'benzer_'
'benimki_'
'benimki'
'bencil'
'belt_'
'beloved_'
'bell_'
'belirt'
'belada_'
'bela'
'bel_'
'bekleyin_'
'bekleyecek_'
'beklemek_'
'behaviour_'
'beg'
'bee'
'becerikli'
'beam_'
'bby_'
'bbing_'
'bber_'
'bbe'
'başta_'
'başlı'
'başlayabilir'
'başladın_'
'başladılar_'
'başla'
'başkası_'
'başkanı_'
'başkan'
'başarı_'
'başara'
'bağırma'
'bağlayın_'
'bağlar'
'bayıldım_'
'bayra'
'batıy'
'bat'
'bastır'
'base'
'barış_'
'bari'
'banı'
'banyo_'
'band'
'ban'
'balığı'
'ball'
'bakıyorsun_'
'bakıyordum_'
'bakınca_'
'baktığı'
'baktım_'
'bakmayın_'
'bakarsak_'
'bakar'
'bahçe_'
'bahsettiği'
'bahsetmedi'
'bahset'
'bahsedi'
'bahseder'
'bahse_'
'bahar'
'bad'
'backup_'
'back'
'bacakları'
'baba'
'bab'
'ağzına_'
'ağaç_'
'ağ'
'açıp_'
'açıklar_'
'açmak'
'azabı_'
'ayırma'
'ayrıldı_'
'ayna'
'ayn'
'ayla'
'ayin'
'ayet'
'ayağı'
'awfully_'
'avu'
'avlan'
'atu'
'attitude_'
'atma_'
'atlaya'
'atlat'
'atlar'
'atla_'
'assistant_'
'assholes_'
'asleep_'
'asker'
'arıyordu'
'arına_'
'arzu'
'aru'
'arrange_'
'arr'
'arl'
'arkaya_'
'arkadaşlarının_'
'arkadaşlar'
'arda_'
'ard'
'arat'
'aran'
'aramıyor'
'arabanın_'
'appropriate_'
'approaching_'
'appears_'
'appeal_'
'app'
'ao'
'antl'
'answers_'
'annenle_'
'anneni_'
'annemi_'
'anma'
'anlı'
'anlaşıl'
'anlayacak'
'anlatıyor'
'anlatmak_'
'anlatmadın_'
'anlata'
'anlat_'
'anlam_'
'anladı'
'aniden_'
'ang'
'ane'
'andır'
'and'
'anal'
'amongst_'
'ament'
'amcam'
'aman'
'alırsa'
'alması_'
'almadan_'
'alla'
'aliz'
'alibi_'
'alet_'
'alert_'
'aldığınız_'
'aldığını_'
'aldınız_'
'alamazsın_'
'alabilirsin_'
'alabileceği'
'akıllı'
'aki_'
'aket'
'akar'
'ajanı_'
'ajan_'
'ailey'
'aileleri_'
'ahmak_'
'ages_'
'afi'
'aff'
'adore_'
'ado'
'admire_'
'adi'
'addict_'
'add_'
'add'
'adamlar'
'adalet'
'ada'
'ad'
'acık'
'actual_'
'acts_'
'accus'
'acağını_'
'acayip_'
'absolute_'
'abi'
'aber_'
'abart'
'aa'
'Ziyaret'
'Zeyna_'
'Zeki_'
'Zar'
'Yıldız'
'Yüz'
'Yor'
'Yolun'
'Ying_'
'Yetki_'
'Yet'
'Yerinde_'
'Yerin'
'Yağmur_'
'Yağ'
'Yaz'
'Yasa'
'Yas'
'Yardımcı_'
'Yardıma_'
'Yaratı'
'Yaptı'
'Yap'
'Yanında_'
'Yangın'
'Yale_'
'Yaklaş'
'Yakalan'
'YO'
'YE'
'Wong_'
'Woman_'
'Wo'
'Wilson_'
'Who'
'Whit'
'Wesley_'
'Wer'
'We'
'Wanna_'
'Walt'
'Wallace_'
'Wall_'
'Wal'
'Wai'
'WI'
'WHY_'
'WHO_'
'WELL_'
'WAS_'
'WANT_'
'WAIT_'
'Vu'
'Vol'
'Vincent_'
'Vie'
'Vic_'
'Veya_'
'Veronica_'
'Vas'
'Vanessa_'
'Val'
'VERY_'
'VA'
'Uç'
'Uyu'
'Uygun_'
'Unutmayın_'
'Unutma'
'Unut'
'Unfortunately_'
'UL_'
'Tuvok_'
'Tuvalet'
'Turner_'
'Ts'
'Tren'
'Tou'
'Toparlan'
'Too_'
'Ton'
'Tomorrow_'
'Tie'
'Texas_'
'Test'
'Temiz_'
'Telefonu_'
'Teksas_'
'Teddy_'
'Tec'
'Taşın'
'Tat'
'Tara_'
'Tanrının_'
'Takımı'
'Tai'
'Tac'
'TS_'
'TR'
'TING_'
'THINK_'
'THER_'
'TER'
'TEL'
'Sıra_'
'Sı'
'Süre'
'Süper_'
'Söyleme'
'Susa'
'Sum'
'Sul'
'Sue_'
'Stuart_'
'Sti'
'Stewie_'
'Stephen_'
'Stein'
'Stat'
'Stacy_'
'St'
'Spike_'
'Sor'
'Sophie_'
'Soph'
'Sonuçta_'
'Sonuçlar_'
'Sons'
'Somehow_'
'Some'
'Sob'
'Sm'
'Slow_'
'Sli'
'Sla'
'Siz'
'Siya'
'Sit'
'Sinirlenme'
'Sinema'
'Sim'
'Silahlar'
'Sigara_'
'Sic'
'Shouldn_'
'Shel'
'Shar'
'Seven_'
'Seth_'
'Sessiz_'
'Sesi_'
'Seriously_'
'Security_'
'Second_'
'Sec'
'Seattle_'
'Sea_'
'Scully_'
'Schm'
'Scar'
'Sağlık_'
'Sayı'
'Say'
'Savunma_'
'Save_'
'Savaş_'
'Satı'
'Sanı'
'Sanat'
'Sammy_'
'Salı_'
'Salo'
'Sak'
'Sai'
'Sahi'
'Sah'
'Sac'
'SORRY_'
'SC'
'SAY_'
'Rosali'
'Rory_'
'Rock'
'Rochester_'
'Riv'
'Rit'
'Riker_'
'Rig'
'Rich_'
'Rica_'
'Rev'
'Ret'
'Rep'
'Renee_'
'Rem'
'Reed_'
'Red'
'Rast'
'Raj'
'Rain'
'RG'
'REA'
'RD'
'Quiet_'
'Que'
'Pros'
'Proje'
'Program'
'Profes'
'Prince_'
'Pretty_'
'Pres'
'Prens_'
'Porter_'
'Polisler_'
'Polisi_'
'Polise_'
'Poirot_'
'Pleas'
'Pin'
'Pik'
'Phillip'
'Phe'
'Pha'
'Ph'
'Person'
'Penny_'
'Pel'
'Pek'
'Pea'
'Patrick_'
'Patla'
'Pat_'
'Pass_'
'Pasifik_'
'Pal'
'Oğlu'
'Ow_'
'Orleans_'
'Ordu'
'Ord'
'Ora'
'Onlardan_'
'Onda_'
'Olu'
'Okul_'
'Oc'
'Obviously_'
'ONE_'
'Nit'
'Nik'
'Night_'
'Nico_'
'Nicholas_'
'Neredesin_'
'Neither_'
'Neelix_'
'Need_'
'Nedenini_'
'Ned_'
'Nec'
'Nazi_'
'National_'
'NN'
'NG'
'NE_'
'Müşteri'
'Mut'
'Must_'
'Music_'
'Mus'
'Murder'
'Muha'
'Much_'
'Mountain_'
'Mount'
'Ming_'
'Mindy_'
'Milli'
'Mikro'
'Mesele_'
'Mesela_'
'Memur_'
'Mem'
'Meksika_'
'Med'
'Mec'
'Means_'
'McKay_'
'Mau'
'Matt_'
'Mas'
'Marshall_'
'Marilyn_'
'Marian'
'Marcel'
'Many_'
'Mantıklı_'
'Manny_'
'Manhattan_'
'Mala'
'Makin'
'Mae'
'Maalesef_'
'MY_'
'MES'
'MEN'
'MC'
'Ly'
'Lunch_'
'Luck'
'Lu_'
'Louis_'
'Lou'
'Lorna_'
'Liz'
'Liv'
'Lim'
'Lilly_'
'Leon_'
'Lazar'
'Lass'
'Lambert_'
'Lake_'
'Lafı'
'LOOK_'
'LLY_'
'LL'
'LD_'
'Kızın_'
'Kutsal_'
'Kuru'
'Kurt_'
'Kru'
'Kr'
'Kov'
'Koruma'
'Korku'
'Korkarım_'
'Korea_'
'Kore'
'Kons'
'Komşu'
'Komuta'
'Komik_'
'Komi'
'Kolay_'
'Kod_'
'Kod'
'Kocam_'
'Koca_'
'Kl'
'Kitap_'
'Kitabı'
'Kit'
'Kimseye_'
'Kimsenin_'
'Kimmiş_'
'Kimb'
'Kid_'
'Kib'
'Kendisi_'
'Kendim_'
'Kaçma'
'Kaça'
'Kazan'
'Kaybol'
'Kay_'
'Katherine_'
'Karısı'
'Karım_'
'Karım'
'Kart'
'Kararı'
'Kapa'
'Kanıt'
'Kana'
'Kamera'
'Kaliforniya_'
'Kale'
'Kaldır_'
'Kai'
'Kafan'
'Kab'
'Junior_'
'Joa'
'Jin'
'Jim'
'Jill_'
'Ji'
'Jessica_'
'Jen'
'Jeffrey_'
'Jas'
'Jani'
'Janet_'
'Iv'
'Italian_'
'It'
'Ion'
'Int'
'Inspector_'
'Il'
'Iike_'
'IV_'
'IS'
'IQ_'
'IM'
'IE'
'Hoşçakal_'
'Hoşlan'
'Hot_'
'Hot'
'Holly_'
'Hol'
'Hoff'
'Hind'
'High_'
'Hepsini_'
'Heath'
'Hazırlan'
'Haz'
'Hatırla'
'Hat'
'Harold_'
'Happy_'
'Hank_'
'Hama'
'Haley_'
'Hakkın'
'Hag'
'Had_'
'HU'
'HAR'
'Güven_'
'Gündüz_'
'Gülü'
'Gözüm'
'Gösteri'
'Görüş'
'Göre'
'Gördün_'
'Gök'
'Gua'
'Gree'
'Gray_'
'Graham_'
'Gotta_'
'Gor'
'Goo'
'Gold'
'Goddamn_'
'Gig'
'Gibbs_'
'Germans_'
'German_'
'Georgia_'
'Geo'
'Genç'
'Genelde_'
'Gene_'
'Gelin_'
'Geldiği'
'Gee_'
'Gat'
'Garcia_'
'Gail_'
'Gabrielle_'
'GR'
'GHT_'
'GE_'
'GE'
'Fırtına'
'Fırsat'
'Fritz_'
'Francine_'
'Fran'
'Fr'
'Fox_'
'Fotoğraf_'
'Flore'
'Fli'
'Fleischman_'
'Fish_'
'Fir'
'Finn_'
'Find_'
'Finally_'
'Film_'
'Figure'
'Felix_'
'Fat_'
'Fat'
'Fas'
'Fark_'
'Fare'
'Fal'
'Fair'
'Fahişe'
'Fac'
'FR'
'FI'
'Eşim_'
'Eş'
'Evl'
'Evin'
'Ever_'
'Eskiden_'
'Erkekler_'
'Ent'
'Ensign_'
'Emp'
'Emili'
'Emer'
'Els'
'Ellie_'
'Elli'
'Ellerin'
'Ell'
'Elimde_'
'Eleven_'
'Ee_'
'Edgar_'
'Ec'
'ES_'
'EN_'
'ENT'
'EM'
'EL'
'EC'
'Dış'
'Düşünme'
'Düğün_'
'Düz'
'Dü'
'Dön'
'Duyduğuma_'
'Durdur'
'Dura'
'Dum'
'Duke_'
'Dru'
'Dorothy_'
'Donald_'
'Dolar_'
'Doktor'
'Doctors_'
'Diyelim_'
'Dixon_'
'Dinleyin_'
'Dikkat'
'Dik'
'Dick'
'Dew'
'Devri'
'Detective_'
'Deputy_'
'Dep'
'Demo'
'Dee_'
'Dee'
'Dediğin'
'Dede'
'Dec'
'Dava'
'Dav'
'Darr'
'Dam'
'Dae'
'DIS'
'DAY_'
'Cü'
'Cris'
'Cove'
'Court_'
'County_'
'Cos'
'Connor_'
'Conc'
'Comrade_'
'Com'
'Collins_'
'Colin_'
'Cole_'
'Cod'
'Clyde_'
'Clo'
'Cli'
'Cle'
'Cinsel_'
'Cindy_'
'Church_'
'Christi'
'Choi_'
'Chin'
'Chick'
'Cher'
'Chee'
'Channel_'
'Catholic_'
'Cath'
'Carrie_'
'Carr'
'Carla_'
'Canın_'
'Cam'
'Calvin_'
'Cad'
'CT'
'CK_'
'CH_'
'CE'
'Bırakma'
'Büyük'
'Büyü'
'Buyrun_'
'Butters_'
'Burton_'
'Bulma'
'Bugünlerde_'
'Buffy_'
'Buffalo_'
'Bru'
'Brooke_'
'Bron'
'Brita'
'Boşa'
'Bot'
'Booth_'
'Bomba'
'Bod'
'Blu'
'Blood_'
'Bizler_'
'Birşeyler_'
'Birşey_'
'Birleşik_'
'Birazdan_'
'Bilme'
'Biliyorsunuz_'
'Bilgisayar'
'Best_'
'Bes'
'Bern'
'Berlin_'
'Belli_'
'Bekle'
'Bee'
'Beck'
'Bebeğim_'
'Beaver_'
'Beaumont_'
'Beat'
'Başını'
'Başk'
'Başarı'
'Based_'
'Baron_'
'Barbie_'
'Banka'
'Bakı'
'Baines_'
'Bahse_'
'Babanla_'
'Babamın_'
'BACK_'
'Açıkçası_'
'Açıkla'
'Aynen_'
'Aw_'
'Avrupa_'
'Aust'
'Att'
'Atlantis_'
'Ata'
'Aslına_'
'Asl'
'Arı'
'Around_'
'Arkadaş_'
'Arkada'
'Archer_'
'Aramızda_'
'Arabayı_'
'April_'
'App'
'Apollo_'
'Ap'
'Anyone_'
'Answer_'
'Annene_'
'Annemin_'
'Anne'
'Anlıyor_'
'Anlaşma'
'Anlaş'
'Anlat'
'Anlamıyorum_'
'Angel'
'Andre'
'And'
'Among_'
'Amo'
'Amma_'
'Amir'
'Amber_'
'Altın_'
'Almost_'
'Alman'
'Ali'
'Alfred_'
'Alexander_'
'Alec_'
'Alab'
'Aklımda'
'Aklıma_'
'Ain_'
'Ahh_'
'Adamı_'
'Adam'
'Act'
'Abu'
'AS'
'AC'
'AB'
'?"'
'99'
'800_'
'80'
'75_'
'55_'
'52_'
'47_'
'45'
'43'
'33_'
'31_'
'29_'
'26_'
'192'
'13'
'1'
'05_'
'01'
'...'
'. - '
'-- '
'- ... _'
'-'
',... '
', ..'
', - _'
'$ _'
'# '
'"'
' ♪_'
' ~_'
' .._'
' ) _'
' %_'
' ! _'
'♪_'
'ο'
'şır_'
'şın_'
'şık_'
'şı_'
'şüphesi'
'şüpheli_'
'şüphe'
'şükürler_'
'şöminey'
'şuyor'
'şur'
'şunları_'
'ştır'
'ştur'
'ştim_'
'şti'
'şte_'
'şok_'
'şok'
'şoförü_'
'şmi'
'şle_'
'şlarını'
'şla'
'şişman_'
'şişe_'
'şiş'
'şirketler'
'şirketi'
'şirin_'
'şiddetli_'
'şiddet_'
'şeytan'
'şeylerin_'
'şeyleri'
'şet'
'şerif_'
'şeref'
'şekli'
'şekiller'
'şekil_'
'şeker'
'şek'
'şehird'
'şaşırma'
'şaş'
'şartlar_'
'şartl'
'şarkısı'
'şarkılar_'
'şarabı_'
'şapka'
'şampanya_'
'şam'
'şahsen_'
'şahi'
'Şurada_'
'Şun'
'Şovu'
'Şirketi_'
'Şirket_'
'Şiddet'
'Şerif'
'Şeker_'
'Şansın'
'Şanslıy'
'Şan'
'Şampiyon'
'Şair'
'Şahane_'
'ışığında_'
'ışını'
'ışın'
'ışsın'
'ış'
'ığını_'
'ığım'
'ıyorsunuz_'
'ıyordu_'
'ıya_'
'ısını'
'ısrar_'
'ısmarlama'
'ırım_'
'ırı'
'ırsa_'
'ırs'
'ırlar_'
'ırl'
'ırdı'
'ır'
'ınızı_'
'ınız'
'ınlar_'
'ınd'
'ımı'
'ımda_'
'ıklı'
'ıkları'
'ık'
'ıdır_'
'ıda'
'ıcı'
'İşten_'
'İşim'
'İşi_'
'İğrenç_'
'İçki'
'İçimde'
'İçer'
'İzl'
'İtalyan_'
'İtalya'
'İstediğim_'
'İsta'
'İsmini'
'İsmi'
'İsim'
'İrlanda_'
'İp'
'İntihar_'
'İndir'
'İnanma'
'İnan'
'İlki'
'İkimizin_'
'İhtiyacın_'
'İfade'
'ğınız'
'ğünü_'
'ğüne_'
'ğünde_'
'ğunuzu_'
'ğum'
'ğre'
'ğme'
'ğla'
'ğiyle_'
'ğinizi_'
'ý'
'üğü_'
'üzün'
'üzerin'
'üzerime_'
'üzerim'
'üzereyim_'
'üze_'
'üyorsun_'
'üstünü_'
'üstünde'
'üstüme_'
'üstü'
'üstesinden_'
'üste_'
'üss'
'ürü'
'ürs'
'ürperti'
'ürler'
'ürk'
'üre'
'üniversite_'
'üne_'
'ünde_'
'ünc'
'ümüzün_'
'ülkey'
'ülkenin_'
'üle'
'üla'
'ül_'
'üdyo'
'ücret_'
'üc'
'öğretti'
'öğreti'
'öğrenmem'
'öğrene'
'öğrendim_'
'öğ'
'özlediği'
'özle'
'özellikler'
'öze'
'öyleyi'
'öyley'
'öyledir_'
'öyle'
'övü'
'ötesine_'
'örnekle'
'örler_'
'öpü'
'öptü'
'önünden_'
'önüm'
'öneririm_'
'öner'
'önemlidir_'
'öncesin'
'öncelikle_'
'önce'
'ömür_'
'ölüyoru'
'ölür_'
'ölümünü_'
'ölümlü'
'ölümle'
'ölüme_'
'ölç'
'ölmesin'
'öle'
'öldürür'
'öldürül'
'öldürmedim_'
'öldürdüğünü_'
'öldürdüler_'
'öfkel'
'ödüyor'
'ödet'
'öder'
'ödemek_'
'ödeme_'
'ödedi_'
'ér'
'çırp'
'çılgınlık_'
'çılar'
'çıkıyorum_'
'çıktığı'
'çıktın_'
'çıktı'
'çıkmalı'
'çıkarıyor_'
'çıkarıyor'
'çıkarıp_'
'çıkarlar'
'çıkardın_'
'çıkarama'
'çıkacağı'
'çöz'
'çörek_'
'çöl'
'çökü'
'çu_'
'çtı'
'çt'
'çoğunu'
'çocuktu_'
'çocuklarını'
'çocuklar'
'çocuk'
'çiçe'
'çizgi'
'çit'
'çisi_'
'çin'
'çiftliğ'
'çiftle'
'çeş'
'çeyrek'
'çevri'
'çevirme'
'çeviriyor_'
'çeviriyor'
'çevir_'
'çesi'
'çene'
'çen'
'çeler'
'çektik'
'çekmey'
'çekip_'
'çekimi'
'çeki'
'çeken_'
'çekecek_'
'çağıra'
'çağda'
'çavuş_'
'çarpı'
'çapında_'
'çanta'
'çamaşır_'
'çalışıyor'
'çalışırı'
'çalışın_'
'çalışı'
'çalıştır_'
'çalışmış'
'çalışmıyor_'
'çalışmay'
'çalışmam_'
'çalışmaları'
'çalışanı'
'çalışanlar'
'çalışacağız_'
'çalma'
'çaldın_'
'çaldım_'
'çaldı'
'çaları'
'çaba_'
'âr'
'â_'
'á'
'Üzü'
'Üzgün'
'Üzerinde_'
'Üvey_'
'Üst_'
'Ünlü'
'Üniversite'
'Ülkede'
'Öğren'
'Öğle_'
'Öğle'
'Özgürlük_'
'Ör'
'Önceki_'
'Ömrü'
'Ölümü'
'Ölüm_'
'Ölü_'
'Ölmek_'
'Öde'
'Çıkı'
'Çıktı'
'Çı'
'Çu'
'Çocuğu_'
'Çocuklar'
'Çizgi'
'Çevre'
'Çenen'
'Çen'
'Çekici_'
'Çatı'
'¶ _'
'§'
'£'
'zıpl'
'zü'
'zza'
'zy_'
'zun_'
'zsin_'
'zsen_'
'zorlu_'
'zordur_'
'zoo_'
'zon_'
'zlu'
'zleri'
'ziya'
'zip_'
'zim'
'zihin'
'zh'
'zgi'
'zev'
'zet'
'zes_'
'zer_'
'zen_'
'zen'
'zeli'
'zek'
'zehirli_'
'zehir'
'zdım_'
'zbol'
'zayıf'
'zay'
'zat'
'zard_'
'zararı'
'zamanım_'
'zamanlar'
'yırt'
'yın'
'yıldızlar'
'yıldan_'
'yıld'
'yılan_'
'yıkıyor'
'yıkıldı'
'yıkıl'
'yıI_'
'yüzün_'
'yüzümden_'
'yürüyor'
'yürümeye_'
'yürüm'
'yürü'
'yükseltme'
'yükselt'
'yükleme'
'yönün'
'yönetme'
'yönete'
'yön_'
'yutm'
'yt'
'yst'
'yseniz_'
'ysen_'
'yoğun_'
'yorsa'
'yor'
'yonu'
'yonel'
'yona_'
'yollan'
'yolladı_'
'yolladı'
'yolculuğun'
'yolculuklar'
'ymişim_'
'yme'
'yitirdi'
'yirmi_'
'yici_'
'yetki'
'yetişe'
'yetiş'
'yeteri_'
'yeteneği'
'yetenekli_'
'yetenekl'
'yetenek_'
'yetecek_'
'yerleştiril'
'yerleştiri'
'yerleştir'
'yerleri_'
'yerlerde'
'yerin_'
'yerimi'
'yerel_'
'yemeğinde_'
'yemeğimi'
'yemeği'
'yemekten_'
'yelling_'
'yell_'
'yedek_'
'yede'
'yeceği'
'yec'
'ydin_'
'yaşıyordu'
'yaşındayken_'
'yaşındaydı_'
'yaşındasın_'
'yaşındaki_'
'yaşlıyım_'
'yaşlan'
'yaşayabil'
'yaşaya'
'yaşanan'
'yaşamış_'
'yaşamı_'
'yaşamı'
'yaşamaya_'
'yaşamaktan_'
'yaşadığımı'
'yaşadığı'
'yaşa_'
'yaş'
'yazmay'
'yazmamı'
'yazmak_'
'yazdığı'
'yazdım_'
'yazacak'
'yaz'
'yayını'
'yayınlama'
'yayı'
'yavrusu'
'yavaşla'
'yav'
'yatıyor_'
'yatmış'
'yatacağı'
'yast'
'yasakl'
'yasak_'
'yarışı_'
'yarışmasın'
'yarış'
'yarısını_'
'yarısında'
'yardımın'
'yardımı'
'yaratır_'
'yaratıl'
'yaratık'
'yararı_'
'yarama'
'yapıyordu_'
'yapılacağını_'
'yapılabil'
'yaptığına_'
'yaptığın'
'yaptığım'
'yaptınız_'
'yaptıklarını_'
'yaps'
'yapmış'
'yapmıyor'
'yapmayın_'
'yapmasına_'
'yapmanı'
'yapmalı_'
'yapmadığın'
'yapmadı_'
'yaparsan'
'yaparsa'
'yaparlar_'
'yapardın_'
'yapardı'
'yapam'
'yapacağın_'
'yapacaktı'
'yapabileceğim_'
'yapabil'
'yanındaki_'
'yanım'
'yanıl'
'yanma'
'yandı_'
'yandan_'
'yanda'
'yalı'
'yalar'
'yaland'
'yal'
'yakıt_'
'yakınlaş'
'yakınlar'
'yakındı'
'yaklaşma'
'yakalanırsa'
'yacağın'
'yacağım'
'yacağı_'
'yacaklar'
'yab'
'ya'
'xing_'
'xa'
'writer_'
'write'
'wrist_'
'wra'
'worrying_'
'wormhole_'
'worm_'
'workers_'
'wood'
'woke_'
'wning_'
'wle'
'with'
'wished_'
'wisdom_'
'winning_'
'wink'
'wick_'
'whore_'
'whisper'
'wer_'
'weighs_'
'weigh'
'wee'
'wea'
'waves_'
'wasted_'
'warned_'
'warme'
'wan'
'wallet_'
'wakes_'
'wai'
'wagon_'
'vı'
'vücudunda_'
'vücuduna_'
'vücudun_'
'vücudu_'
'vvetl'
'vuruyor_'
'vur'
'vows_'
'voting_'
'voted_'
'vor'
'voices_'
'vo_'
'vl'
'vk'
'viz'
'visual'
'visit'
'vis'
'virtu'
'violent_'
'violence_'
'vine'
'vie'
'victims_'
'vicious_'
'veteriner'
'vet_'
'vest'
'vermişti'
'vermiyorsun_'
'vermeyecek'
'vermeye'
'vermesi_'
'vermen_'
'vermemi_'
'vermeliyiz_'
'vermedi'
'verirse_'
'verirs'
'verirler_'
'veririz_'
'verirdim_'
'verir'
'verip_'
'vering_'
'verildi_'
'veric'
'veremezsin_'
'veremedi'
'verecekler'
'verebilirim_'
'verebilir'
'verebil'
'verdiğini_'
'verdiğim_'
'veranda'
'veng'
'ven_'
'ven'
'vel_'
'ved_'
'vd'
'vbe_'
'vate'
'vatandaş_'
'varız_'
'varmı'
'varma'
'vardım_'
'vanın'
'vale'
'vaktimiz_'
'vaftiz_'
'vadi'
'vad'
'uğu'
'uğraşma'
'uğramıştı'
'uğramam_'
'uçuş_'
'uçma'
'uçakta_'
'uça'
'uzu_'
'uzda_'
'uzağa_'
'uzay'
'uzaklaşı'
'uzaklaştır'
'uzaklaşm'
'uyuştu'
'uyut'
'uyumak_'
'uyum_'
'uyum'
'uyudu'
'uyor_'
'uyma'
'uykusun'
'uyarı'
'uyar'
'uyanı'
'uyandır'
'uyandım_'
'uyan'
'uu'
'utter'
'uth'
'ute_'
'usun_'
'usulü_'
'usul'
'ust_'
'uss_'
'uslu_'
'usa'
'ury'
'urs_'
'urs'
'urm'
'urgent_'
'urg'
'ures_'
'urb'
'ural'
'upl'
'unuz'
'unutmuş_'
'unutmaya'
'unutma'
'unut'
'unu'
'unl'
'units_'
'unit'
'uniform_'
'unhea'
'undur_'
'und_'
'umursa'
'ums'
'umrumda_'
'umph'
'ume'
'umdur_'
'umd'
'ultra'
'ulaşı'
'ulaş'
'ulate'
'ulan_'
'ula_'
'uf'
'ude_'
'ucun'
'uck'
'uc'
'tığını_'
'tırma'
'tın'
'tılar_'
'tıka'
'tıcı_'
'türü'
'türler'
'tüle'
'tükendi_'
'tük'
'törü'
'törenin'
'tze'
'typical_'
'tw'
'tuz'
'tutul'
'tutu'
'tuttuğun'
'tuttu_'
'tutmam'
'tutar'
'turne'
'tures_'
'tura_'
'tune_'
'tul'
'tter'
'tte_'
'try'
'trunk_'
'troops_'
'trit'
'triple_'
'tricks_'
'treasures_'
'trash_'
'transport_'
'transmitt'
'transform'
'transfer_'
'tran'
'traje'
'trai'
'tracking_'
'tra_'
'tr'
'toward_'
'tow'
'tos'
'torp'
'torn_'
'tore_'
'torch_'
'torba'
'toprakları'
'topraklar'
'toplum_'
'toplaya'
'toplama'
'topladı'
'topla_'
'tooth_'
'tone_'
'tolera'
'toe_'
'tman'
'tmadı'
'tlı_'
'tlin'
'tles'
'tler'
'tları'
'tiğin'
'title'
'tirm'
'tiring_'
'tira'
'tipi_'
'tipi'
'tiniz_'
'tikler'
'tif'
'tid'
'thy_'
'thumb'
'throughout_'
'thre'
'thorn'
'thesis_'
'thering_'
'theft_'
'thee_'
'teş'
'tezgah'
'testing_'
'tested_'
'tesisi'
'tesadüfen_'
'terörist'
'tert'
'tern'
'terbiye'
'tepsi'
'tepede'
'tent'
'tennis_'
'tenli'
'teni'
'tend'
'temsilci'
'temporary_'
'temp'
'temizliyor'
'temel_'
'teması_'
'temas'
'televizyon_'
'television_'
'telefonu'
'telefonla_'
'telefon'
'tekrarl'
'tekni'
'teki'
'tehlikede_'
'tehlike'
'tehdidi'
'tef'
'teenager_'
'tedbirli_'
'tedavi'
'tebrik_'
'teb'
'teachers_'
'tched_'
'tch'
'taşıyor_'
'taşıyabili'
'taşındı'
'taşıdı'
'taş_'
'taş'
'tay'
'taxes_'
'tavu'
'tavan_'
'tava'
'tatt'
'tatmin_'
'tation_'
'tasty_'
'tasarla'
'tarzı_'
'tartışmaya'
'tartışaca'
'tarihini'
'tarihine_'
'tarafına_'
'tarafım'
'taraftan_'
'tanıştırmak_'
'tanıştık'
'tanışmış_'
'tanıyorsunuz_'
'tanıyordu'
'tanıya'
'tanıt'
'tanır'
'tanın'
'tanımam'
'tanıma'
'tanıklar'
'tanıdığım'
'tanı'
'tant'
'tanrı_'
'tang'
'tane'
'tamamla'
'tamamiyle_'
'talkin_'
'talep_'
'takımın_'
'takılıyor'
'takılm'
'taktı'
'takdim_'
'takar_'
'tahta'
'tahrik_'
'tahmin'
'tahliye_'
'tah'
'tadı'
'tabanca'
'sığı'
'sıçray'
'sıça'
'sızlı'
'sızdır'
'sıydım_'
'sırf_'
'sırası_'
'sıradışı_'
'sırada'
'sır_'
'sınır'
'sım'
'sıkıyor_'
'sıkılm'
'sıkıl'
'sıcakt'
'sıcaklığı'
'süsle'
'sürtük_'
'sürecek_'
'sürdüğü'
'sür_'
'süpürür_'
'sünüz_'
'süm'
'süit'
'sözüm'
'sözleri_'
'sözler'
'sözcü'
'söz'
'söylüyorsa'
'söyleyip_'
'söyleyen'
'söyleyemem_'
'söyleyebilirsin_'
'söylese'
'söylersen_'
'söylerler_'
'söylentiler'
'söyleni'
'söylemiyorsun_'
'söylemiyor_'
'söylemez'
'söylemeyece'
'söylemen_'
'söylemedi'
'söylediklerinde'
'söyledik'
'söndü'
'syonu'
'syon_'
'symptoms_'
'sweat_'
'swallow_'
'suçluy'
'suçlul'
'suçlu'
'suçlaya'
'suçlan'
'sustain'
'suspects_'
'surrounded_'
'surro'
'surpris'
'suratın'
'support'
'supplie'
'supermarket_'
'superior_'
'sunuzdur_'
'sunma'
'sunk_'
'sunda'
'sum'
'sul'
'suk'
'suikast'
'suffocat'
'suffer'
'sue_'
'suda'
'sucks_'
'succeed_'
'subayı'
'studying_'
'studied_'
'stru'
'strict_'
'stri'
'stress'
'stres'
'stores_'
'stop'
'stink'
'sting_'
'stic_'
'stern_'
'steri'
'step'
'steak_'
'stea'
'stav'
'statement_'
'stas'
'starve'
'startle'
'staring_'
'staple_'
'stan'
'stamp'
'stal'
'stake_'
'staff_'
'stable_'
'ssor'
'ssion'
'ssin'
'ssible_'
'sque'
'squa'
'spoil'
'spl'
'spite_'
'spiritual_'
'spine_'
'spin'
'spesi'
'speech_'
'speciali'
'spec'
'speaks_'
'spare_'
'soyd'
'soyadı'
'soya'
'souls_'
'sou'
'sosy'
'soruyorum_'
'sorununuz'
'sorunum_'
'sorumluluğunu_'
'sorum_'
'sorma_'
'sorgu'
'sorduğu'
'soracağım_'
'sooner_'
'sonuçlan'
'sonunu_'
'sonu'
'sonrası_'
'sonra'
'sona'
'som_'
'sokuyor'
'sokağa_'
'sok'
'soda_'
'sod'
'socks_'
'social_'
'soci'
'sno'
'sneak'
'snap_'
'snakes_'
'snake_'
'sn'
'smoke'
'smiles_'
'small'
'slut'
'slight'
'sko'
'skinny_'
'skin'
'ski_'
'skandal_'
'ska_'
'sk_'
'sk'
'siyon_'
'siya'
'siy'
'sixth_'
'sive_'
'sity_'
'sites'
'sit'
'sisters_'
'sistemleri_'
'sistemi'
'sis_'
'sir'
'sipariş_'
'sipariş'
'sion'
'sinyali_'
'sinsi_'
'sinir'
'sinemaya_'
'sindey'
'sinca'
'sina'
'silver_'
'silahları'
'silahla'
'sil_'
'signing_'
'sig'
'sie'
'sid'
'sib'
'shri'
'shower_'
'shout'
'should'
'short'
'shine_'
'shin'
'shell'
'sheep_'
'sham'
'shallow_'
'shak'
'shadow_'
'seçme'
'seçimi'
'seçi'
'seçer'
'seçenekler'
'seç'
'sezon'
'seyretti'
'seyirci'
'seyir_'
'seydi_'
'sewe'
'sevmiyor_'
'sevmediği'
'sevişme'
'seviyor'
'sevimli_'
'sevgili'
'severl'
'sevecek'
'sevdiği'
'sesler'
'seslen'
'servis_'
'servis'
'served_'
'series_'
'serial_'
'sergeant_'
'seren'
'sera_'
'send'
'sena'
'seminar'
'sembol'
'selle'
'select'
'selam_'
'sefer'
'seek_'
'seden_'
'sed'
'secure_'
'sector_'
'second'
'sebepler'
'seated_'
'seas'
'searching_'
'script_'
'scra'
'scr'
'scor'
'school'
'sch_'
'sc'
'sağlar_'
'sağladığı'
'sağladı_'
'sağda_'
'saçı'
'saçmalığı'
'saçmala'
'saçlı_'
'sayıyı_'
'sayılırı'
'sayıda_'
'sayin_'
'say'
'savunma_'
'savunma'
'savi'
'savcı'
'savaşçı_'
'savaşmak_'
'savaşaca'
'savaşa'
'sauce'
'sau'
'satıp_'
'satıl'
'satıcı'
'sat_'
'sarı'
'sars'
'sarhoş'
'sardı'
'sarah_'
'sara'
'sap'
'sanıyors'
'sanmı'
'sanmam_'
'sanma'
'saniyede_'
'sandalyeler'
'sandal'
'sand_'
'sand'
'sanatlar'
'samimi'
'sama_'
'salt_'
'saldırıları'
'saldırma'
'saldırdı_'
'saldır'
'salary_'
'saklanıyor_'
'sakladı'
'saka'
'sak'
'sahne'
'sage'
'saf'
'sacrifice'
'sacred_'
'sabırsızl'
'sabahla'
'saatlik_'
'saatin_'
'saat'
'rına_'
'rö'
'rust'
'rush'
'rus'
'rupt'
'rup'
'rum_'
'ruhun'
'ruhum_'
'ruhl'
'rub_'
'rtu'
'rts_'
'rting_'
'rtation_'
'rsu'
'rsek_'
'rse'
'rsam_'
'rp'
'roz'
'rowing_'
'rota'
'roommate_'
'roo'
'romantic_'
'roman'
'rolü_'
'rolling_'
'roe'
'robotu'
'robotla'
'robot_'
'robe'
'robbing_'
'rna'
'rm'
'rli'
'rle_'
'rite'
'riski_'
'rising_'
'rip_'
'rifle'
'rid'
'ric_'
'rf'
'reçe'
'rezil_'
'reveal_'
'rev'
'reu'
'retire'
'reter_'
'rete'
'retain'
'restaurant_'
'responding_'
'resim'
'resc'
'rer'
'represent_'
'reported_'
'replacement_'
'reo'
'rengi'
'rende'
'ren'
'remarkable_'
'rem'
'rehine'
'regular'
'region'
'regarding_'
'refused_'
'referr'
'reddetse'
'reddetme'
'reddediyor'
'reddedil'
'recogni'
'reco'
'reck'
'reception_'
'recall_'
'react_'
'rdı'
'rdo_'
'rdiği'
'rdir_'
'rdin_'
'rdi_'
'rdi'
'rce'
'raz'
'rays_'
'rave'
'raunt_'
'rated_'
'rare'
'raporunu_'
'rapidly_'
'rap_'
'rans'
'rami'
'rail'
'rahatsızlı'
'rahatsız'
'rahatlatı'
'rahatla_'
'rahat'
'rah'
'raft'
'raflar'
'raf'
'radar_'
'ract'
'racing_'
'rabi'
'rabbits_'
'quo'
'question'
'quer'
'quenc'
'quarter'
'quarantine'
'q'
'pü'
'py_'
'pushing_'
'pushed_'
'publish'
'puanl'
'pu_'
'psychiatrist_'
'psikolojik_'
'psiko'
'provi'
'prov'
'protot'
'protect'
'prote'
'prose'
'promis'
'prol'
'programmed_'
'program'
'profit'
'profil'
'profesör'
'problemi_'
'prize_'
'prisoner_'
'prints_'
'prin'
'prime_'
'prevent_'
'prev'
'pretending_'
'preserve_'
'presence_'
'prens'
'predict'
'pre_'
'prayer_'
'pozisyon'
'powers_'
'potansiyel'
'poster_'
'poste'
'posta_'
'posta'
'pose'
'pos_'
'pos'
'porta'
'porno'
'popüler_'
'popular_'
'popp'
'pop'
'pont_'
'poll'
'polit'
'polisin_'
'policeman_'
'pole_'
'pol'
'poem_'
'plumb'
'plug_'
'plot'
'plo'
'pli'
'pler'
'plates_'
'planlıyoru'
'planlar_'
'planladığı'
'pişman'
'piya'
'pis'
'pirami'
'pira'
'pip'
'pin_'
'pilotu'
'pil'
'pig'
'pies_'
'piano_'
'pi_'
'photos_'
'phil'
'phase_'
'peşine_'
'peşindey'
'peşimde'
'pets_'
'petrol_'
'perver'
'personality_'
'pers'
'perfume_'
'pent'
'peder'
'pect'
'pec'
'peas'
'peac'
'pazarla'
'patron'
'patrol_'
'patladı_'
'pati'
'patch_'
'pat_'
'pasta'
'passion_'
'passage'
'parçay'
'parçalı'
'parçaları_'
'partner'
'partiye_'
'partisi_'
'parties_'
'particularly_'
'parlayan_'
'pare'
'pard'
'paranın_'
'papel_'
'pani'
'pamuk_'
'paket_'
'painting_'
'painte'
'pain'
'pahalıya_'
'pages_'
'page'
'pad'
'packing_'
'packed_'
'package_'
'pac'
'oş'
'oğlunuz_'
'oğlan_'
'oz_'
'oyununu_'
'oyunun_'
'oyuncu_'
'oysa_'
'oys'
'oynaş'
'oynayacağız_'
'oynaya'
'oynata'
'oynardı'
'oynamayı_'
'oynamaya_'
'oynadığı'
'oydu_'
'ox_'
'ox'
'ows_'
'owns_'
'owe'
'ovi'
'ova'
'oturuyor_'
'oturu'
'oturmu'
'oturma_'
'oturaca'
'otura'
'otobüs_'
'oto_'
'otherwise_'
'ost'
'osa'
'oruz_'
'ortası'
'orphan'
'orospu'
'organisms_'
'organ'
'ored_'
'order'
'ord'
'orbit_'
'orang'
'oradayken_'
'oradaydı_'
'oradasın'
'oppo'
'operation_'
'operati'
'opera_'
'open'
'ope'
'ooh_'
'ony_'
'onun'
'onl'
'onaylaya'
'onal_'
'omiser'
'omi'
'ome_'
'ome'
'oma'
'oluşu'
'oluyorum_'
'oluyorsun_'
'olursan_'
'olursa'
'olurlar_'
'olurdu'
'olsan_'
'olsa'
'olo'
'olmuyor'
'olmazsa_'
'olmayın'
'olmayacağın'
'olmaya'
'olmasının_'
'olmasaydı'
'olmanız_'
'olman'
'olmama'
'olmalıydı_'
'olmadığınız'
'olmadığım_'
'olgun'
'olduğunuz_'
'olduk_'
'oldugunu_'
'olağan'
'olay'
'olası'
'olanların_'
'olanlardan_'
'olanlar'
'olamazsın_'
'olamaz'
'olama'
'olacağına_'
'olacağımı_'
'olacaktı_'
'olacaksınız_'
'olabilirler_'
'olabilir'
'okşa'
'okuyorum_'
'okuyordu'
'okuluna_'
'okulun_'
'okulda_'
'okulda'
'okul'
'okudum_'
'oke_'
'oint'
'oid'
'ofisine_'
'officially_'
'offers_'
'offering_'
'off'
'ofa'
'odd_'
'odaklan'
'odadaki_'
'oci'
'och'
'occupied_'
'occu'
'oa_'
'oa'
'nızda_'
'nır'
'nım_'
'nüz'
'nöbet'
'nç_'
'nw'
'nv'
'nuzu_'
'nuz'
'nutri'
'ntı_'
'ntü'
'ntin'
'nta_'
'nsı'
'nse_'
'nsa'
'notic'
'nothin_'
'noon_'
'noktasına_'
'nokta_'
'noise_'
'noi'
'nod'
'nning_'
'nne_'
'nna_'
'nn_'
'nmaya'
'nma_'
'nma'
'nları_'
'nişanlı'
'nişan'
'nizden_'
'niyor'
'niyetin'
'nish'
'nis'
'nim_'
'nik'
'nih'
'nightmare_'
'nif'
'nia'
'nh'
'ngo'
'ngl'
'nger_'
'nez'
'neyle_'
'news'
'nett'
'net'
'nest_'
'nerves_'
'neresinde'
'nen'
'neme'
'neleri_'
'neler'
'nek'
'neighbors_'
'nef'
'needle_'
'necklace_'
'nec'
'near'
'ndırıl'
'ndır_'
'ndim_'
'ndi'
'nder'
'nday'
'nci_'
'nces_'
'naziksin'
'naz'
'nav'
'national_'
'nati'
'nasıls'
'nasty_'
'nasi'
'namus'
'nakli'
'naki'
'nail_'
'nacak_'
'mışım_'
'mıyoruz_'
'mıydın_'
'mında_'
'müşteriler'
'müyor_'
'müyor'
'mür'
'mün'
'müfettiş_'
'muşu'
'muydunuz_'
'muy'
'mummy_'
'mum'
'muhaf'
'mug'
'mud'
'msi'
'mse'
'mps'
'mpl'
'mpet'
'mpa'
'mouse_'
'moto_'
'motive_'
'motiv'
'mothers_'
'mostly_'
'mortal_'
'moral_'
'mor_'
'moo'
'mons'
'mond'
'moi_'
'model'
'moda_'
'mobil'
'mmer_'
'mli_'
'mli'
'mleri_'
'mle'
'ml'
'miştir_'
'miş'
'mizin_'
'mizde'
'miyoruz_'
'miyors'
'misunderstanding_'
'mistakes_'
'miserable_'
'mirror_'
'minim'
'minde'
'mimar'
'millions_'
'mile_'
'mik'
'mighty_'
'mie_'
'midir_'
'mide'
'mezarda'
'meyeceği'
'meyecek_'
'meydana_'
'mev'
'metres'
'metr'
'method_'
'metal_'
'messages_'
'mesine_'
'mesajlar'
'mesafe'
'merry_'
'merkezi_'
'merkez'
'merhametin'
'merc'
'menu_'
'mento'
'menl'
'meni'
'melt'
'melo'
'meleği'
'melek'
'mektupları'
'mega'
'medy'
'med'
'meat_'
'mdı_'
'mci'
'mc'
'mble'
'mbers_'
'mbe'
'mba_'
'maçın'
'mazsın_'
'maze'
'mayacağı'
'mavi_'
'math_'
'mate'
'matching_'
'matches_'
'masum'
'masaya_'
'masa'
'marti'
'mars'
'marketing_'
'market'
'mari'
'march'
'manız'
'manyak_'
'manipulate'
'manga'
'mane'
'managed_'
'mana'
'maması_'
'mamalı'
'malı_'
'maların'
'makinesin'
'makine_'
'makine'
'makina'
'maker_'
'makas'
'maka'
'mahvetme'
'mahsu'
'mahkumu'
'mahalli'
'magnet'
'magi'
'madık_'
'maden_'
'mada'
'maaşı'
'lığını_'
'lıyorum_'
'lıy'
'lılar'
'lıkla_'
'luğu_'
'luğu'
'luxury_'
'lust_'
'lure'
'lungs_'
'lun'
'lug'
'lth'
'lp'
'loy'
'loving_'
'lover_'
'lose'
'loo'
'loji'
'lock'
'loan_'
'lmiş_'
'lmeye'
'lmesi'
'lm'
'llo_'
'lling_'
'llerin'
'lle'
'liğine_'
'liğinde'
'liz'
'liye'
'liydi'
'liver_'
'liv'
'lity_'
'listen'
'lish'
'lise'
'lis'
'liquor_'
'lip_'
'link_'
'linger'
'line'
'limanı'
'likler'
'light'
'lieutenant_'
'lick_'
'lick'
'license_'
'lica'
'liberty_'
'leş'
'lez'
'leye'
'ley'
'lex'
'lev'
'lett'
'let'
'lerimiz_'
'lerimi'
'lep'
'lemek_'
'lek'
'ledge_'
'lecek_'
'lec'
'leash_'
'leade'
'ldın_'
'lde'
'lda_'
'law'
'lava_'
'lav'
'laundry_'
'laughs_'
'laugh_'
'larınız_'
'larmış_'
'lari_'
'largest_'
'larger_'
'lap'
'lanı'
'lanet'
'lands'
'landi'
'land'
'lam_'
'lad_'
'lac'
'laborat'
'kıç'
'kızıy'
'kızı'
'kızlarım'
'kızlara_'
'kızlar'
'kızdı'
'kıyıya_'
'kıvır'
'kısımları'
'kısa'
'kıs'
'kırılm'
'kırıldı_'
'kırmış'
'kırma'
'kımılda'
'kılı_'
'kıl'
'küçükken_'
'küstah_'
'küre'
'küf'
'kü_'
'köşede_'
'köşe'
'köylü'
'köyde'
'kötüydü_'
'kötüy'
'kör'
'köpük'
'köpeğin_'
'kömür_'
'köle'
'kö'
'kuşlar_'
'kuyu'
'kutusun'
'kutsa'
'kutlama'
'kusura_'
'kusma'
'kurşun'
'kurusu_'
'kurulu_'
'kuru_'
'kurtulmak_'
'kurtula'
'kurtardığı'
'kurtarabilir'
'kurdu'
'kurbağa'
'kurbanın_'
'kurallara_'
'kural_'
'kurabiye_'
'kun_'
'kumarhane'
'kullanıyor'
'kullanılma'
'kullanmaya'
'kullanarak_'
'kullanan_'
'kullanacağım'
'kullanacak'
'kullanabilir_'
'kullanabilir'
'kule'
'kulağa_'
'kul'
'kuca'
'ktü'
'kti_'
'ksız'
'ksiyon'
'ksi'
'krizin'
'kriz'
'krallı'
'koşulla'
'koç_'
'koyuyorum_'
'koyu'
'koydun'
'kovma'
'kovan'
'kovala'
'kov_'
'kot'
'koruya'
'koruma_'
'kors'
'korkuyorum_'
'korkuyorsun_'
'korkuyor'
'korkutucu_'
'korkuttu'
'korkusu'
'kopyala'
'konuşuyoruz_'
'konuşuyorsun_'
'konuşurum_'
'konuşurs'
'konuştuk'
'konuşsa'
'konuşmalıyız_'
'konuşmaları'
'konuşabiliriz_'
'konusun'
'konumun'
'kontrolü_'
'konsantr'
'komutan_'
'komis'
'kolumu_'
'kolu_'
'kolaylaş'
'kolayca_'
'kola_'
'koku'
'kokla'
'kok'
'kocası_'
'kocam_'
'koca'
'know'
'kno'
'knee_'
'kna'
'klu'
'kli_'
'kli'
'klerin'
'klerimiz'
'klere_'
'klarına_'
'klara_'
'klan'
'kk'
'kişiyi'
'kişiye_'
'kitapları_'
'kirli_'
'kirala'
'kingdom_'
'kimseyle_'
'kimdi_'
'kilometre_'
'kilo'
'kills_'
'kilisede_'
'kilise_'
'kiler'
'kidnapping_'
'kide'
'kidd'
'kibar_'
'kibar'
'keşi'
'keşf'
'keyfi'
'ket_'
'kesmek_'
'kesin'
'keser'
'kere'
'kendinle_'
'kendinde_'
'kendimiz_'
'kendilerini_'
'kendilerine_'
'kendi'
'kemiği_'
'kemik_'
'kelimeler'
'kek'
'kağıt_'
'kağıdın'
'kaçırıldı'
'kaçırmış'
'kaçırmak_'
'kaçırdılar_'
'kaçınılmaz_'
'kaçtı'
'kaçmaya_'
'kaçar'
'kaçaca'
'kazı'
'kazanır_'
'kazanmam'
'kazandıra'
'kazandır'
'kazandı_'
'kayıtlar'
'kaynağı'
'kaynaklar'
'kayna'
'kaygılan'
'kaydı_'
'kaybolmuş_'
'kayboldu_'
'kaybola'
'kaybettiğim'
'kaybettin_'
'kaybetti_'
'kaybet'
'kavrama'
'kavram'
'katına_'
'katılır_'
'katılma'
'katıl_'
'katı_'
'katlanam'
'katili_'
'kata'
'kaste'
'kaslar'
'kaset'
'kase'
'kasabay'
'kasabada_'
'kasa_'
'karşıya_'
'karşın'
'karşılığında_'
'karşılaşı'
'karşılaştır'
'karşılaşma'
'karşıl'
'karıştırdı'
'karın_'
'karı_'
'kartın'
'karmaşık'
'karmaşa_'
'karma'
'kari'
'kardeşlerin'
'kardeşinin_'
'kardeşi'
'kararın'
'kararlı'
'kararları'
'karanlıkta_'
'kapısını'
'kapım'
'kapılarını_'
'kapı'
'kaptan_'
'kapl'
'kapatı'
'kapanmış'
'kapama'
'kapakları'
'kanıtları'
'kanın_'
'kanl'
'kanka'
'kandırı'
'kandır'
'kanat_'
'kanama'
'kanalı'
'kanal'
'kamyonet'
'kamyon'
'kamu_'
'kameraya_'
'kameralar'
'kalıyoruz_'
'kalıyor'
'kalırsa_'
'kalırdı'
'kalıp_'
'kalması'
'kalmamı'
'kalmalı'
'kalkın_'
'kalktı'
'kalkma_'
'kalkan_'
'kalk_'
'kalite'
'kali'
'kaldır'
'kalbi'
'kalanı_'
'kalacağım_'
'kalacağı'
'kalabilir'
'kala'
'kahverengi_'
'kahramanı'
'kafes'
'kadınları_'
'kaderini_'
'kaderi_'
'kadarı_'
'kad'
'kablo'
'kabar'
'jüri'
'justice_'
'joy_'
'jor'
'jit'
'jin'
'jim'
'jewels_'
'jet'
'jerk'
'jar'
'jammed_'
'iştir_'
'işsin_'
'işleri'
'işleme'
'işlem_'
'işlem'
'işimi'
'işi'
'işeye'
'işe'
'işareti'
'iğne'
'iğini_'
'iğim_'
'içtim_'
'içmi'
'içindi_'
'içindeydi_'
'içindey'
'içeride'
'içerd'
'içeceğim_'
'içece'
'izliyor'
'izlemiş'
'izledi'
'izinsiz_'
'izin'
'iyorsun_'
'iyordu'
'iyo'
'iyiy'
'iyim'
'iyileştirme'
'iyileştire'
'iyileşti'
'iyileş'
'iyat'
'iya'
'ivi'
'ium_'
'itte'
'itor_'
'ito'
'itin'
'itibaren_'
'itfaiye'
'ite_'
'isy'
'istiyorsanız_'
'istifa_'
'isteğim_'
'isteyeceğim_'
'isteyece'
'istesin_'
'isterler_'
'isterdin_'
'isten'
'istemiyorsan_'
'istemezs'
'istemeyiz_'
'istemedi_'
'istediğin'
'istediklerini_'
'istedi'
'istasyonu'
'istasyon'
'ispatla'
'isolation_'
'isla'
'isk'
'isinin_'
'isimli_'
'isimle'
'ished_'
'isa'
'iron'
'irl'
'iqu'
'ipt'
'ipli'
'ipi'
'invitation_'
'investigating_'
'investigat'
'invented_'
'inve'
'introduced_'
'intr'
'intikam'
'interna'
'interior_'
'interfere_'
'intent'
'inta'
'int_'
'insul'
'insti'
'inst'
'insi'
'inse'
'insanı'
'insanlardan_'
'inner_'
'inki'
'inizin_'
'ington_'
'ingly_'
'inge'
'infinite_'
'infected_'
'indirme'
'indirimi'
'indicat'
'increase_'
'incomp'
'income_'
'inch_'
'incele'
'ince'
'inat'
'inanır_'
'inanır'
'inanmıyorum_'
'inanmıyor'
'inanmaz'
'inancı'
'inana'
'inan_'
'impl'
'impe'
'immediate_'
'imm'
'imizde'
'imin_'
'imden_'
'imagined_'
'imagination_'
'image_'
'illus'
'illi'
'ilişkiye_'
'ilişkini'
'ilişki'
'iliği_'
'iliy'
'ilit'
'iliri'
'ilin'
'ilgilenmiyor'
'ilgilene'
'ilgilendirir_'
'ilerledi'
'ilerin'
'ileri'
'iler'
'ilaçları_'
'ilaç_'
'ilacı_'
'ikli'
'ikler'
'ikl'
'ikiye_'
'ikisine_'
'ikinizin_'
'ikili_'
'ihtiyaçları_'
'ihtiyac'
'ihtimalin'
'ihtimali_'
'igu'
'ignor'
'igi'
'ighter_'
'ige_'
'igan_'
'ift'
'iflas_'
'ield_'
'idol'
'ider_'
'identify'
'iden'
'iddia_'
'idan_'
'icu'
'ico'
'ich_'
'ice'
'ica_'
'ic'
'iat'
'ial'
'iah_'
'ia'
'hızı'
'hız_'
'hüküm'
'hücresin'
'hü'
'hydro'
'hydra'
'huzur_'
'huysuz'
'hurting_'
'hunters_'
'hundreds_'
'hukuk_'
'hukuk'
'hua_'
'hu_'
'hta'
'hs_'
'hro'
'hri'
'hra'
'hoştu_'
'hoşlanıyor_'
'hoşlana'
'hoşlan'
'hot'
'host_'
'horiz'
'hor'
'hop_'
'hooke'
'hook'
'honor'
'homicide_'
'homework_'
'holl'
'hold'
'hod'
'hni'
'hme'
'hm_'
'hle'
'hl'
'hk'
'hiçbirşey_'
'hiçbirin'
'hiçbiri_'
'hizmetçil'
'hitap_'
'hissettiğim'
'hissettiriyor'
'hissetmek_'
'hissetme'
'his'
'hiri'
'hir_'
'hill'
'hikayeyi_'
'hikayesi_'
'hikayeler'
'high'
'hic'
'hh_'
'heyecanlandı'
'hey'
'hesi'
'hes'
'heroin_'
'hepimizi_'
'hepimiz'
'henc'
'hen_'
'help'
'hei'
'heat'
'hearts_'
'heart'
'healthy_'
'heal_'
'headache'
'hazırlıksız_'
'hazırlayayım_'
'hazırlar'
'hazırlanın_'
'hazırlanmış_'
'hazırladı_'
'hazır'
'hayvanı_'
'hayvanlar_'
'hayran'
'hayatına_'
'hayatın'
'havasın'
'havalan'
'hatırlaya'
'hatırlama'
'hatırladın_'
'hatırla_'
'hatırla'
'hated_'
'hatam_'
'hatalı_'
'hastaneler'
'hastane_'
'hastalan'
'harvest'
'harikay'
'haricinde_'
'harfi'
'hareketlerini'
'hareketle'
'harcıyor'
'harcama'
'harcadığı'
'hanım'
'hane_'
'handsome_'
'handled_'
'hamile'
'hamburger_'
'hallettim_'
'halledil'
'halledi'
'halledeyim_'
'hallederiz_'
'halledeceği'
'halledecek'
'halka'
'half'
'hakları_'
'hakim_'
'hake'
'hain'
'haftalık_'
'haberleri_'
'haberiniz_'
'hab'
'gını'
'gın_'
'gın'
'güçle'
'güzelsin_'
'güzelle'
'güvercin'
'güvenme'
'güveniyorum_'
'güvenilir_'
'güvendi'
'güven_'
'güven'
'gürültü_'
'gününü_'
'gününde_'
'günlüğüne_'
'güne'
'günah'
'gümüş_'
'gülüyor'
'gülümse_'
'gülme'
'gül'
'gücünü'
'göğsü_'
'gözünüz'
'gözünü_'
'gözün'
'gözü'
'gözyaş'
'gözlü_'
'gözlü'
'gözlerimin_'
'gözler_'
'götürüyor'
'götürürüm_'
'götürmeyi_'
'götürmesi'
'götürme'
'götüreceğim_'
'götürecekti'
'götürdüm_'
'götür'
'göstermiş_'
'göstermeyi_'
'gösteririm_'
'gösteren_'
'göstere'
'gösterdiği'
'göster'
'görüştüm_'
'görüştü'
'görüşmesi_'
'görüşmeler'
'görüşme'
'görüşeceği'
'görüş'
'görürse'
'görüp_'
'görünüşü'
'görünüş'
'görünüyorsunuz_'
'görüntü_'
'görünmez_'
'göründüğü_'
'görün_'
'görülme'
'görseydi'
'görmüştü_'
'görmez'
'görmeyi_'
'görmes'
'görmek'
'görmediğini_'
'görmedin_'
'görevlileri'
'görevli'
'görevimiz_'
'göreve_'
'göremedim_'
'göreceğiz_'
'görebilir_'
'gördüğümü_'
'gördünüz_'
'gördükleri'
'gördü'
'gönüllü_'
'gönderme'
'gönderin_'
'gönderildi'
'gömülü'
'göm'
'gölge'
'göl'
'gökyüzün'
'gök'
'gut_'
'gururu'
'gururla_'
'guin'
'guid'
'guarantee_'
'grupla'
'grubu_'
'groo'
'gro'
'grave_'
'grape'
'grand'
'grafi'
'graf_'
'grabbed_'
'golden_'
'god'
'gn'
'gm'
'gly_'
'glo'
'gle_'
'giysileri'
'giyim'
'giyi'
'giv'
'gittiğimi_'
'gittiği_'
'gittik_'
'gitmiyorsun_'
'gitmeni_'
'gitmeli'
'gitmediğini_'
'git'
'gis'
'giriş_'
'giriyor'
'girin_'
'girer'
'girebilir'
'gio'
'gin_'
'gili'
'gidiyorsunuz_'
'gidi'
'giderse_'
'giderdi_'
'gidemey'
'gidecekler_'
'gidecek'
'gidebilirim_'
'gidebilir_'
'gic_'
'gibiler'
'gibi'
'ghte'
'ghing_'
'gha'
'ggy_'
'ggi'
'gger'
'geçtiği_'
'geçtim_'
'geçtik'
'geçs'
'geçmişi_'
'geçmiyor'
'geçmeye'
'geçmek_'
'geçiyoruz_'
'geçiyorum_'
'geçiyorlar_'
'geçiriri'
'geçireceği'
'geçirdik_'
'geçirdi'
'geçinme'
'geçin'
'geçerek_'
'geçelim_'
'geçeceğim_'
'geçecek_'
'geçecek'
'geçebilir'
'geziy'
'gezi'
'geze'
'gezdi'
'gez'
'gey_'
'gevşe'
'getireceğim_'
'getireceği'
'getirecek_'
'getirebil'
'getirdiğini'
'getir'
'gerçeğin'
'gerçekleştirdi'
'gerçekleş'
'gerçekleri_'
'gerisi'
'gerektire'
'gereksiz_'
'gerekmez_'
'gent'
'geniş'
'genetik_'
'genetic'
'gener'
'gency_'
'genc'
'gen_'
'gemisin'
'gem'
'gelse_'
'gelmez_'
'gelmeyeceğini_'
'gelmeyecek_'
'gelmeni_'
'gelmemiş'
'gelmedim_'
'geliştir'
'gelir'
'gelinl'
'gelenek'
'gelen'
'geleme'
'gelecek'
'gele_'
'geldiğimiz'
'geci'
'geceki_'
'geber'
'gea'
'gd'
'gazete'
'gather_'
'gates_'
'gate'
'gasp'
'gardiyan'
'garanti'
'garajı'
'gara_'
'gall'
'galaxy_'
'galaksi'
'gain'
'gah'
'fıstık'
'fırın'
'fırsatın'
'fırsat'
'fırla'
'fı_'
'futbol'
'fus'
'fund_'
'fund'
'fuel_'
'fuar'
'fto'
'fs'
'frig'
'fresh'
'frequency_'
'freeze'
'freak_'
'freak'
'francs_'
'fractures_'
'fou'
'forth_'
'formu'
'former_'
'forgiveness_'
'forgetting_'
'fore_'
'forcing_'
'floor'
'flo'
'flirt'
'flies_'
'flew_'
'fleet_'
'flee_'
'flaw'
'fl'
'fiş'
'fiy'
'fisherman_'
'fire'
'fir_'
'fir'
'fing_'
'filo'
'filmler'
'filan_'
'fil_'
'fik'
'ffle'
'ffer'
'fetti'
'fei'
'fee_'
'feda_'
'feci_'
'fazladan_'
'faz_'
'favo'
'fatura'
'fascinating_'
'fas'
'farkınday'
'farkındasın'
'farklı'
'farketme'
'fark'
'fare_'
'far'
'fantasy_'
'fans_'
'falls_'
'fal'
'fairy_'
'eşyaları'
'eşya'
'eşi_'
'eşcinsel_'
'eğleniyor'
'eğlene'
'eğlendi'
'eğlenceler_'
'eğlence'
'eğitimi'
'eğiti'
'eys_'
'eyle'
'eyin'
'eyi_'
'eyalet'
'express_'
'expose'
'expo'
'explode_'
'explanation_'
'execution_'
'excited_'
'excellent_'
'exce'
'ews_'
'evrim'
'evolution_'
'evo'
'evliliğin'
'evlerine_'
'evler'
'evlenmemi'
'evlenme_'
'evleniyor'
'evlen'
'evladı'
'eviniz'
'evini'
'evin'
'evime_'
'evim'
'evi'
'ever'
'eventually_'
'ety_'
'ettiğiniz_'
'ettirdi'
'etrafı_'
'etraf'
'eto'
'etmişti'
'etmezse'
'etmez'
'etmeyeceğim_'
'etmene_'
'etmemiş_'
'etmeme'
'etmeliyim_'
'etmekle_'
'etkisi_'
'etkileme'
'etini'
'etik_'
'ete_'
'eta_'
'eta'
'esta'
'esse'
'ess'
'esrar'
'espr'
'eson_'
'esme'
'eskisi_'
'esinden_'
'ers'
'err'
'erp'
'ern'
'erle_'
'erkeğin_'
'erkeklerin_'
'erkekle_'
'eriş'
'erin'
'erimiz'
'erim_'
'erek_'
'erat'
'eras'
'eral'
'equipment_'
'eon_'
'eo_'
'environment_'
'entr'
'entitled_'
'entirely_'
'entering_'
'entered_'
'ented_'
'ental_'
'enli'
'enle'
'engin'
'engellem'
'enge'
'engaged_'
'engage'
'enfeksiyon'
'enfe'
'endüstrisi'
'endişelendir'
'endişelen'
'endişel'
'endir'
'ena_'
'emrini_'
'emre'
'employees_'
'emniyet'
'emm'
'eml'
'emiş'
'emiz_'
'emiyor'
'emirler'
'emez_'
'emekli'
'els_'
'elmasla'
'ellerini_'
'elleri'
'elle'
'ella_'
'ell'
'elinden_'
'elindeki_'
'elimizde_'
'elimde_'
'elik'
'eleştirmen'
'eless_'
'elerin'
'elen'
'eleman'
'electricity_'
'electrical_'
'electr'
'elbiseleri'
'ela_'
'ekm'
'ekibim'
'eing_'
'eight'
'efsane'
'effective_'
'eff'
'efendi'
'ediği'
'ediyor'
'edit'
'edini'
'edili'
'edilecek'
'edici_'
'edi'
'edemedi'
'edeceğini_'
'edecektir_'
'edecekler'
'edebil'
'ective'
'ection_'
'ect'
'eceğin'
'eceğimiz_'
'ebil'
'ebeveyn'
'eb_'
'east_'
'eagle_'
'eac'
'ea_'
'dışarıdaki_'
'dış_'
'dış'
'dığın'
'dıktan_'
'dıkla'
'düşürü'
'düşürme'
'düşünüyorsan_'
'düşünüyor'
'düşünürüm_'
'düşünü'
'düşünsen'
'düşünmüş_'
'düşünmeye_'
'düşünmeme'
'düşünmek_'
'düşünmeden_'
'düşüneme'
'düşünebilir'
'düşündüğümde_'
'düşündüğü'
'düşüncesin'
'düşünce_'
'düşü'
'düşman'
'düşen_'
'düşecek_'
'düğünü_'
'düğüm'
'düğü'
'düzine'
'düzenli_'
'düzenleme'
'düzenle'
'düzelti'
'düzelt'
'düz'
'dür'
'dünyan'
'dünyadaki_'
'düm_'
'düler_'
'dükkanı'
'dövüşçü'
'döve'
'döv'
'dördü'
'dönüyor'
'dönün'
'dönmesin'
'dönmelisin_'
'dönmedi_'
'döner_'
'döneceğini_'
'döneceksin_'
'döndüğümüzde_'
'döndüre'
'döndün_'
'dökül'
'döktüm_'
'döke'
'dy'
'duğun'
'duyuyor'
'duyul'
'duymuştum_'
'duymuyor'
'duygular_'
'duygu_'
'duyam'
'duvar_'
'durur'
'durum'
'durmuyor_'
'durmu'
'durdurmaya_'
'durdurmak_'
'durdurma'
'durdurdu'
'durdu_'
'durama'
'duracak'
'durabilir_'
'dur'
'dunu'
'dul_'
'drives_'
'drill_'
'dred'
'drama'
'doğuş'
'doğma'
'doğdu_'
'doğal_'
'doz_'
'doz'
'down'
'dough_'
'dosyalar'
'dostlar'
'door'
'dono'
'donkey_'
'donan'
'dolaşıp_'
'dolaştı'
'doların'
'dolarım'
'dolara_'
'dolan'
'dolabı'
'dokunmam'
'dokunmadı'
'doktorum_'
'dok'
'dogru_'
'doc_'
'dles_'
'diğinde_'
'diğin'
'diğimi_'
'diği_'
'diğerlerini'
'diğ'
'diyorsunuz_'
'diyordu_'
'diyor'
'diyebilir_'
'diyebilir'
'divine_'
'divi'
'dive'
'dition_'
'distinct'
'dist'
'dispos'
'disk'
'disiplin'
'discreet_'
'discovery_'
'disappoint'
'disappear'
'dirler_'
'direni'
'dirdi'
'dir'
'diplomatic_'
'diplomas'
'dinliyor'
'dinleyecek'
'dinlemen'
'dind'
'dina'
'dimi'
'dili'
'dilemek_'
'dikt'
'diklerini_'
'dikil'
'digi'
'diet_'
'dies_'
'dial_'
'dial'
'diagnostic'
'diagnosis_'
'dh'
'değiştirmeye_'
'değiştirmek_'
'değiştirdi'
'değişti'
'değişmeye'
'değişme'
'değişir'
'değişiklik_'
'değişe'
'değilse_'
'değiller'
'değildin_'
'deği'
'değersiz_'
'değerinde_'
'değ'
'dez'
'deyiz_'
'dey'
'devr'
'develop'
'deva'
'deu'
'deter'
'detayları'
'detayl'
'deta'
'destekleye'
'deste'
'desp'
'desk_'
'deserve'
'des'
'ders'
'derim_'
'derece'
'derde_'
'derd'
'deneyin_'
'deneyelim_'
'deneyeceğiz_'
'denedi'
'dendi_'
'democra'
'demiştin_'
'demiştim_'
'demişti_'
'demiş_'
'demiyor'
'demiryolu_'
'demey'
'demen'
'demem_'
'demedi'
'demands_'
'dem'
'delivered_'
'deliver'
'delikler'
'delikanlı_'
'delicious_'
'delicate_'
'dehşete_'
'defalarca_'
'dedikleri_'
'dedik'
'decent_'
'debt_'
'deaf_'
'deadly_'
'dead'
'ddi'
'dd_'
'dağın'
'dağıl'
'dayım_'
'dayken_'
'dayanıklı_'
'dayanı'
'dayanama'
'davul'
'davranıyor'
'davrandığını_'
'davrandım_'
'dasın'
'dansı'
'dans'
'dancer_'
'damla'
'dalgalar'
'dalar_'
'dakikalığına_'
'dakikada_'
'daki'
'daire_'
'dahiy'
'dah'
'dab'
'cımı'
'cıları'
'cümleyi_'
'cüce'
'cycle'
'cuz_'
'custody_'
'cus'
'curse'
'cup'
'culture'
'cult'
'cula'
'ctor'
'ctica_'
'crushed_'
'crush_'
'crus'
'crowd_'
'cross'
'crook'
'cript'
'cripple'
'criminals_'
'credit_'
'created_'
'coş'
'coward_'
'cow_'
'cover'
'courage_'
'counter'
'couch_'
'costume'
'corn_'
'core_'
'copies_'
'cooperation_'
'cook'
'coo'
'controlled_'
'contract'
'contact'
'cont'
'conspir'
'consider_'
'conse'
'cons'
'confirmed_'
'confession_'
'confess'
'concept_'
'conc'
'complex_'
'complain'
'competition_'
'compet'
'communication'
'committee_'
'commercial_'
'command'
'comin_'
'combat'
'comb'
'colour_'
'colonel_'
'colle'
'collaps'
'coincidence_'
'codes_'
'cocksucker_'
'cock'
'coc'
'clue'
'clouds_'
'closes_'
'cli'
'cles_'
'cleaning_'
'cleaned_'
'class'
'cki'
'ciğer'
'ciy'
'civ'
'citizens_'
'cisin'
'cisi_'
'cis'
'cir'
'cip'
'cio'
'cing_'
'cinayeti_'
'cina'
'cihaz'
'cies_'
'ciddiy'
'cid'
'cia'
'chro'
'chosen_'
'chopped_'
'chim'
'childhood_'
'chick'
'chel'
'cheese_'
'cheer'
'cheek'
'cheap_'
'charg'
'characters_'
'char'
'chan_'
'challeng'
'ceğin'
'ceğimi_'
'cezası_'
'cesareti_'
'cesaret'
'centre_'
'central_'
'centi'
'cennet'
'celebrate_'
'cele'
'cekti_'
'ceks'
'ceketi'
'ced_'
'cci'
'cc_'
'cağıma_'
'cav'
'cautio'
'causing_'
'cattle_'
'cate_'
'catching_'
'case'
'cas'
'cartoon_'
'cart_'
'carriage_'
'caro'
'cardi'
'cara'
'capital_'
'canını_'
'canı_'
'canlılar'
'canları'
'canlandıra'
'canavar'
'camı'
'campaign_'
'came'
'caksınız_'
'cak'
'cafe'
'cad'
'cab'
'bıçak_'
'bırakı'
'bıraktığını_'
'bıraktığı'
'bırakmaya'
'bırakmalı'
'bırakayım_'
'bırakalım_'
'bırakacaksın_'
'bırak'
'bını'
'büyü_'
'bütçe'
'bük'
'böyle'
'bölümün'
'bölümü_'
'bölümde'
'böcek_'
'buyer_'
'button_'
'butcher'
'busted_'
'businessm'
'buradasın_'
'burada'
'bur_'
'bunk'
'bump'
'buluşuruz_'
'bulursa_'
'bulunmak'
'bulundum_'
'bulundu'
'bulmuşlar_'
'bulmam'
'bulma_'
'bull'
'buldu'
'bulaşıcı'
'bulaştı'
'bulacağını_'
'bulaca'
'bula'
'buk'
'bugünl'
'bud'
'brush'
'brow'
'brook_'
'bron'
'brilliant_'
'brat'
'bras'
'boşver_'
'boşluğ'
'boşanma'
'boşalt'
'boğazın'
'bozu'
'boz'
'boyut'
'boyfriends_'
'boun'
'botu'
'bott'
'bothering_'
'bothered_'
'bot'
'bos'
'borsa'
'bored_'
'border_'
'boots_'
'boom_'
'bombalar'
'bombala'
'boku_'
'bog'
'blue'
'blonde_'
'blew_'
'bless_'
'bles'
'bleed_'
'bled_'
'blast_'
'blame'
'biş'
'biçimde_'
'bittiğini_'
'bitt'
'bitmedi_'
'bitme'
'bitirebilir'
'bitirdi'
'bitecek_'
'biryer'
'birlik'
'biriyim_'
'biriy'
'birisin'
'birinde_'
'birimin'
'birik'
'birbirin'
'birbirimizin_'
'birbirimiz'
'bins'
'bini'
'bindi'
'bin'
'bilsem_'
'bilmez'
'bilmeye'
'bilmesi'
'bilmem'
'bill_'
'biliyorsan_'
'biliyordun_'
'biliyorduk_'
'bilimsel_'
'bilim'
'bilgiyi_'
'bilgisayarı'
'bilgisayarlar'
'bilgisayar_'
'biletleri_'
'bilet_'
'bilemeyece'
'bilemedim_'
'bileceğimi_'
'bileceği'
'bilebil'
'bildiğiniz_'
'bildiğin'
'bildiğimiz_'
'bildirme'
'bildir'
'bildim_'
'bif'
'bie'
'beşinci_'
'beğenmi'
'beğenmedi'
'beynin'
'beyin'
'beye_'
'besley'
'beslen'
'berry_'
'benziyor'
'benzin'
'bensiz_'
'bende'
'bell'
'belirtile'
'belaya_'
'bel'
'bekliyoruz_'
'bekliyorsun'
'bekliyor'
'bekleyen_'
'bekleyece'
'bekletme'
'beklerim_'
'beklediğini_'
'beklediği'
'behalf_'
'beggar_'
'beds_'
'bedel'
'becerme'
'beceriksiz'
'becerdi'
'becer'
'bebekleri'
'bebe'
'beating_'
'beast_'
'başınız'
'başım'
'başlayın'
'başlayayım_'
'başlayacağı'
'başlayacak'
'başlaya'
'başlata'
'başlar'
'başladığın'
'başkası'
'başkalarını'
'başarama'
'bağış_'
'bağırı'
'bağımsız'
'bağlaya'
'bağla'
'bağ_'
'bağ'
'baç'
'bazılarını_'
'baz'
'bayılıyorum_'
'bayılır'
'bay'
'batteries_'
'bası'
'bastı_'
'baskın_'
'basket_'
'basi'
'based_'
'baseball_'
'base_'
'barış'
'barın'
'bars_'
'barda_'
'barbar'
'bara'
'banyoda'
'banker_'
'bands_'
'banda'
'bam'
'balıkları'
'balı'
'balta'
'balina'
'balayı'
'bakış_'
'bakım_'
'baktın'
'bakteri'
'bakmay'
'bakmam'
'bake'
'bakar_'
'bakan_'
'bakacağım_'
'bakacak_'
'bait_'
'bahsetti_'
'bahsetmiştim_'
'bahsetmiyoru'
'bahsediyor_'
'bahis_'
'bagg'
'bagajı'
'backsta'
'backed_'
'bacağı_'
'bacaklarını'
'baca'
'babasının_'
'babanla_'
'baban'
'babamı_'
'aşıla'
'aştı'
'aşkım_'
'aşkı'
'aşk'
'aşama'
'aşa'
'aş_'
'aş'
'ağın'
'ağı_'
'ağzın'
'ağzım'
'ağrısı_'
'ağrı'
'ağlıyor_'
'ağla'
'ağabeyi'
'açısı_'
'açılma'
'açıklayama'
'açmaya_'
'açma_'
'açar'
'aça'
'azin'
'azdır_'
'ayın_'
'ayrıldığı'
'ayrıldık'
'ayrıla'
'ayrı'
'aynıdır_'
'aynen_'
'aye'
'aydın'
'ayarlan'
'ayarladım_'
'ayarladı'
'ayarla'
'ayar'
'ayakkabı_'
'ayak'
'awar'
'awa'
'avı'
'avukatı'
'avlu'
'ave'
'avan'
'ava'
'auto'
'authorit'
'aur'
'audience_'
'audi'
'au_'
'atış_'
'atıyor_'
'atın_'
'attın_'
'attım_'
'attı_'
'attraction_'
'attracted_'
'atti'
'attempting_'
'attach'
'ats'
'atmosfer'
'atlı'
'atlatm'
'atları_'
'atl'
'ateşle'
'ateşi'
'ateşe_'
'atar'
'atama'
'atacağım_'
'atabilir'
'asını_'
'astr'
'assure_'
'assassin_'
'aspirin_'
'aslı'
'aslan'
'asks_'
'askerlerin'
'askerler_'
'asansör'
'arıyoruz_'
'arıyordum_'
'arıy'
'arını_'
'arın'
'arımı'
'ary'
'arte'
'arta'
'arse'
'arriving_'
'aro'
'arlar'
'arkan'
'arkamda_'
'arkadaşıy'
'arkadaşını'
'arkadaşımın_'
'arkadaşımı_'
'arkadaşı'
'arkadaşlarını_'
'arkadaşların_'
'arkadaşların'
'arkadaşlarımı'
'arkadaşlarım'
'arkadaşları_'
'arkada'
'ark_'
'aria'
'argument_'
'argue'
'argu'
'arg'
'ardında_'
'ardı'
'araştır'
'araçlar'
'arayacak'
'arayabilir'
'arasından_'
'ararken_'
'arar_'
'aranıyor'
'aramış'
'aramı'
'aramak_'
'araları'
'aradığın'
'aradın_'
'aradı'
'aracı_'
'arabayla_'
'arabana_'
'arabam'
'aptallar_'
'approach_'
'appointment_'
'apple_'
'appe'
'appa'
'apla'
'apa'
'ap_'
'anıy'
'anım'
'anı'
'anor'
'anon'
'anomal'
'anno'
'anneyi'
'annene_'
'anneme_'
'ann'
'anlıyorsun_'
'anlaşıyor'
'anlaşıldı_'
'anlaşılan_'
'anlaşa'
'anlatır'
'anlatın_'
'anlatsa'
'anlatmış'
'anlatacaksın_'
'anlar'
'anlamış_'
'anlamın'
'anlaml'
'anlamak_'
'anladığım'
'anki_'
'ank'
'anim'
'angel'
'aned'
'anda'
'analysis_'
'analiz_'
'amış'
'ampu'
'amp'
'amn'
'amm'
'amigo_'
'ameliyatta'
'ameliyat_'
'amel'
'amcan'
'ambulan'
'ambi'
'amb'
'amayacağı'
'amacı'
'alışkanlık'
'alırız_'
'alırdı'
'alır'
'alçak'
'alternat'
'alter'
'alou'
'almıştı'
'almayı_'
'almalıyız_'
'almalı'
'almadım_'
'almadı'
'alma_'
'allowance_'
'allow'
'alli'
'alley_'
'aller'
'alkışla'
'alie'
'algı'
'aleyhin'
'alem'
'aldığında_'
'aldırma'
'aldılar_'
'aldi'
'ald'
'albüm'
'alarm_'
'alanına_'
'alanın'
'alama'
'alacağız_'
'alabiliyor'
'alabiliriz_'
'akıl_'
'aktör_'
'aktar'
'akrabal'
'akra'
'akin'
'akacak_'
'aj'
'ais'
'aire'
'aircraft_'
'aim'
'ailesini_'
'ailenle_'
'ailelerin'
'ahlaki_'
'agr'
'aging_'
'agi'
'agen'
'ag'
'after'
'affr'
'affet_'
'affe'
'affair_'
'afe'
'af_'
'adığı'
'adın_'
'adımı_'
'adıma_'
'adve'
'advanc'
'adr'
'adopt'
'adl'
'adj'
'adil_'
'adet_'
'adamımız'
'adamlarla_'
'adamdır_'
'adam'
'acıyı_'
'acıttı_'
'acın'
'acımasız_'
'acıları'
'actors_'
'activate'
'acqu'
'achieve'
'ache'
'ach'
'account'
'accomplished_'
'accomp'
'acağız_'
'acaktı'
'aca'
'absorb'
'abil'
'abi_'
'aa_'
']: _'
'Zek'
'Zeh'
'Zayıfl'
'Zamanın_'
'Zamanı'
'Zam'
'Zachar'
'Zach_'
'ZA'
'Yıllar_'
'Yıl'
'Yürüme'
'Yük'
'Yukarıda_'
'Yukarı_'
'Young'
'Yorgun'
'Yol'
'Yeşil_'
'Yeter'
'Yet_'
'Yerl'
'Yerim'
'Yere_'
'Yer_'
'Yen'
'Yemeği'
'Yemekten_'
'Yee_'
'Yedinci_'
'Yaşam_'
'Yaşam'
'Yaşa'
'Yay_'
'Yavaşça_'
'Yatağı'
'Yarış'
'Yarı'
'Yarbay_'
'Yaral'
'Yaptıkları'
'Yapmayın_'
'Yapmam'
'Yapabileceği'
'Yank'
'Yama'
'Yakala_'
'Yaka'
'Yak'
'Yah'
'YS_'
'Xena_'
'Xa'
'XI'
'Wy'
'Wraith_'
'Working_'
'Work_'
'Woo'
'Women_'
'Wolf'
'Wit'
'Wis'
'Wind'
'Will'
'Wild_'
'Whoo_'
'Whi'
'Whether_'
'Where'
'Wend'
'Wen'
'Weir_'
'Wee'
'Wednesday_'
'Wea'
'Watson_'
'Wasn_'
'Warp_'
'Wang_'
'Wanda_'
'Walt_'
'Walle'
'Wake'
'Wade_'
'WHO'
'WHERE_'
'WAR'
'Vur_'
'Von_'
'Vis'
'Vir'
'Vinn'
'Vince_'
'Villa'
'Velma_'
'Val_'
'Vakti'
'Vad'
'VER_'
'Uçak_'
'Uzay_'
'Uzay'
'Uzaklaş'
'Uza'
'Uyuya'
'Uyan'
'Uy'
'Ur'
'Unless_'
'Unh_'
'Umurumda_'
'Ulus'
'Ulu_'
'Ufak_'
'USE'
'UA'
'Twin'
'Twenty_'
'Tutukl'
'Turn'
'Tung_'
'Tun'
'Tuhaf_'
'Tuc'
'Tub'
'Trey_'
'Tower_'
'Tow'
'Tos'
'Topu_'
'Toni_'
'Toma'
'Tom'
'Told_'
'Tok_'
'Tok'
'Tog'
'Toby_'
'Tob'
'Tis_'
'Tir'
'Thunder'
'Thou'
'Thor'
'Than'
'Ters_'
'Terr'
'Terli'
'Terk'
'Teni'
'Temizl'
'Tem'
'Tekerle'
'Teal_'
'Tarih_'
'Tap'
'Tanıdığı'
'Tanrıça'
'Tang_'
'Talon_'
'Takt'
'Takip_'
'Tahta'
'Tah'
'Taf'
'Tae'
'Tabu'
'TT'
'THIN'
'THEN_'
'THEM_'
'THE'
'TE_'
'TAK'
'Sıradan_'
'Sınıf'
'Sıkı_'
'Sıcak'
'Sürü'
'Sür'
'Sü'
'Söyleyecek_'
'Söylediğin'
'Sylvia_'
'Syl'
'Sydney_'
'Syd_'
'Swe'
'Suçla'
'Supp'
'Superman_'
'Suck'
'Stro'
'Stri'
'Stor'
'Stephanie_'
'Spon'
'Spec'
'Sot'
'Sorunu'
'Sorumlulu'
'Sorum'
'Soru'
'Sord'
'Sora'
'Soo_'
'Sonu'
'Sonrası'
'Soni'
'Solu'
'Sola_'
'Soka'
'Sohbeti'
'Smo'
'Small'
'Sloane_'
'Skwi'
'Ski'
'Sixt'
'Sis'
'Siren'
'Sip'
'Sina'
'Sin_'
'Simpson_'
'Silen'
'Silah'
'Siki'
'Signal'
'Sidney_'
'Shirl'
'Shep'
'Shelly_'
'She'
'Sharon_'
'Shanghai_'
'Seç'
'Sezar_'
'Sevgilim_'
'Seve'
'Sesin'
'Ses_'
'Servis_'
'Services_'
'Serseri'
'Serena_'
'Sent'
'Sen'
'Sem'
'Sek'
'Sef'
'Sed'
'Secret'
'Sebastian_'
'Sear'
'Scre'
'Sci'
'Scho'
'Sağa_'
'Saçmalık_'
'Saçma_'
'Saç'
'Savaşı_'
'Sau'
'Sas'
'Sand_'
'Samuel_'
'Sall'
'Sale'
'Saldırı_'
'Sakinleş_'
'Sahne'
'Sahip_'
'Sad'
'Sabr'
'Sabah'
'SURE_'
'ST_'
'SO'
'SH_'
'SH'
'SG_'
'SAM_'
'SAK'
'Russia_'
'Ruslar_'
'Ruh'
'Ruby_'
'Royal_'
'Room_'
'Roo'
'Ron'
'Roll'
'Rohit_'
'Rogers_'
'Rodney_'
'Rock_'
'Roc'
'Robinson_'
'Roberts_'
'Road_'
'Rita_'
'Ring'
'Rid'
'Ricky_'
'Ria'
'Rh'
'Rest'
'Resmi_'
'Resmi'
'Resim'
'Resi'
'Repeat'
'Relax_'
'Rek'
'Reid_'
'Regi'
'Ref'
'Ree'
'Rece'
'Real_'
'Read'
'Rapor'
'Ramon_'
'Ralph_'
'Rak'
'Rahibe_'
'RU'
'RT'
'RP'
'RN'
'RECO'
'Quit_'
'Quick_'
'Quadrant_'
'Py'
'Pus'
'Purple_'
'Pru'
'Prova'
'Prop'
'Prime_'
'Press_'
'Prepar'
'Prens'
'Preci'
'Post_'
'Pos'
'Portland_'
'Pope'
'Poo'
'Polis'
'Poli'
'Pole'
'Pola'
'Pol'
'Pok'
'Point_'
'Poi'
'Plaza_'
'Play_'
'Play'
'Piç_'
'Piyano'
'Pink'
'Pick_'
'Pick'
'Phyllis_'
'Philip_'
'Philadelphia_'
'Phil'
'Peşin'
'Peyton_'
'Peynir'
'Petr'
'Peters'
'Pet'
'Perde_'
'Pentagon_'
'Penn'
'Pencere'
'Pee'
'Ped'
'Pearl_'
'Pazar_'
'Pazar'
'Payl'
'Pay'
'Pauli'
'Paula_'
'Patt'
'Patro'
'Past'
'Pas'
'Parti_'
'Parti'
'Part'
'Parmağı'
'Parla'
'Param_'
'Parad'
'Papaz_'
'Pam'
'Pala'
'Pai'
'Pac'
'Pa_'
'PAR'
'Oyun'
'Oyna'
'Oy'
'Ours_'
'Otto_'
'Orman'
'Organ'
'Ordusu'
'Orada'
'Oop'
'Onur_'
'Omega_'
'Olma'
'Oldu_'
'Old'
'Olamaz_'
'Okulda'
'Ohh_'
'Ofis'
'Odanı'
'Od'
'OUT_'
'ON'
'OKAY_'
'OD'
'Now'
'Norman'
'Nope_'
'Niles_'
'Nihayet_'
'Nig'
'Nicol'
'Neza'
'Neymiş_'
'Neydi_'
'Newton_'
'Newport_'
'Nev'
'Net'
'Nesi'
'Nes'
'Neresi'
'Neredey'
'Nerde_'
'Ner'
'Nell_'
'Nee'
'Nedir_'
'Neden'
'Nedd'
'Near_'
'Nazi'
'NasıI_'
'Nash_'
'Naomi_'
'Nam'
'Nag'
'Nad'
'Nab'
'NU'
'NO_'
'NOW'
'NOT'
'NIC'
'Müzik_'
'Müze'
'Müfettiş_'
'Myr'
'My'
'Mutl'
'Muslims_'
'Muslim_'
'Murdock_'
'Murdoch_'
'Mun'
'Mum_'
'Muh'
'Mot'
'Morg'
'Morfin'
'Mora'
'Moore_'
'Moon_'
'Mode'
'Mitch_'
'Mistress_'
'Miriam_'
'Minne'
'Mind_'
'Min_'
'Mim'
'Michelle_'
'Mich'
'Mic'
'Mezar'
'Metropolis_'
'Merri'
'Merak'
'Mend'
'Men'
'Mektup'
'Megan_'
'Meg_'
'Meaning_'
'McN'
'McB'
'Maç'
'Mayor_'
'Mayday_'
'Maxim'
'Matthews_'
'Math'
'Masu'
'Mass'
'Mars'
'Marri'
'Marl'
'Marissa_'
'Marine'
'Marcy_'
'Marcus_'
'Marcie_'
'March_'
'Mantle_'
'Mand'
'Male'
'Makinel'
'Major_'
'Majesteleri_'
'Magnu'
'Made_'
'Made'
'Mackey_'
'Mace'
'Macar'
'MacG'
'MU'
'MRI_'
'MO'
'MAG'
'Lydia_'
'Luther_'
'Luka'
'Luis_'
'Lowe'
'Louis'
'Louie_'
'Lost_'
'Los'
'Look'
'Lom'
'Loc'
'Lo_'
'Lit'
'Lid'
'Lib'
'Leyla'
'Leonard_'
'Leo'
'Left_'
'Lee'
'Leave'
'Lay'
'Lawrence_'
'Lauren_'
'Laughs_'
'Later_'
'Lari'
'Lane_'
'Lance_'
'Lana_'
'Lak'
'LIKE_'
'LET_'
'LAUGHING_'
'Kıçın'
'Kızılderili'
'Kızıl_'
'Kızı_'
'Kızları'
'Kızlar_'
'Kısaca'
'Kıs'
'Kırı'
'Kırk_'
'Kır'
'Kıpırda'
'Kütüphane'
'Küre'
'Kötü'
'Kör'
'Köp'
'Kö'
'Kâ'
'Ky'
'Kuş'
'Kutu'
'Kus'
'Kurşun'
'Kurallara_'
'Kurabiye'
'Kund'
'Kun'
'Kumar'
'Kulüp'
'Kule'
'Kulağa_'
'Kul'
'Kramer_'
'Koş'
'Korkut'
'Korkma_'
'Kork'
'Konuşmay'
'Konuşmak_'
'Konu_'
'Kono'
'Komutan_'
'Komite'
'Kob'
'Kno'
'Klo'
'Klingon_'
'Klein_'
'Kis'
'Kimler'
'Kilise'
'Kids_'
'Khan_'
'Kha'
'Keys'
'Kes'
'Kerr'
'Kermit_'
'Kendin_'
'Kendin'
'Kendi'
'Kem'
'Kedi'
'Kea'
'Kağıt'
'Kaza'
'Kaybet'
'Kaybede'
'Kaya'
'Kav'
'Katı'
'Katili'
'Kath'
'Kata'
'Kat_'
'Kasaba'
'Karşıl'
'Karşı'
'Karını'
'Karın_'
'Kardeşi'
'Kapl'
'Kansas_'
'Kane'
'Kand'
'Kali'
'Kalbin'
'Kafasını'
'Kadını_'
'Kadın'
'Kade'
'KS'
'Jü'
'Jung_'
'June_'
'Julien_'
'Jules_'
'Jona'
'Jon'
'Joc'
'Joanne_'
'Jews_'
'Jessi'
'Jenna_'
'Jen_'
'Jel'
'Jar'
'Japonya_'
'Jamie_'
'Jacques_'
'Işık_'
'Iık'
'Iütfen_'
'Izz'
'Iz'
'Ivan_'
'Its_'
'Isla'
'Iris_'
'Iri'
'Irene_'
'Ireland_'
'Iraq_'
'Ira'
'Io'
'Interesting_'
'Imp'
'Ima'
'Ice_'
'IR'
'II'
'ID_'
'Hızlı_'
'Hıristiyan_'
'Hır'
'Hüc'
'Huzur'
'Human'
'Hughes_'
'Howe'
'Hos'
'Horse_'
'Hon'
'Home_'
'Home'
'Holland'
'Hodge'
'Hiçbir'
'Hit'
'Hisse'
'Hill'
'Hikaye'
'Highness_'
'Highland'
'Hide'
'Hesa'
'Herşeyi_'
'Henderson_'
'Heh_'
'Hayir_'
'Hayatta'
'Hayalet'
'Havu'
'Hatırlıyor_'
'Hatırladı'
'Hata'
'Hastal'
'Hasta'
'Has'
'Harris'
'Harriet_'
'Harm'
'Harikaydı'
'Harika'
'Hareket_'
'Hareket'
'Hapis'
'Halk_'
'Hale'
'Haksız_'
'Hai'
'Hah'
'Haf'
'Had'
'HOW_'
'HIS_'
'HIM_'
'HEY_'
'HER_'
'Güç_'
'Güzelli'
'Güzel'
'Güve'
'Günah'
'Gün'
'Gücü'
'Gözlerin'
'Götürün_'
'Göster_'
'Görüntü'
'Görü'
'Gördüğün_'
'Gördüğüm_'
'Gör'
'Gwen_'
'Gun_'
'Gul'
'Gui'
'Grunting_'
'Grub'
'Gris'
'Grim'
'Griffin_'
'Gri_'
'Gret'
'Greg_'
'Greek'
'Grandpa_'
'Gram'
'Gr'
'Governor_'
'Gonz'
'Gold_'
'Gog'
'Glori'
'Glo'
'Gizli_'
'Gizli'
'Giyin'
'Giy'
'Gittiğim'
'Gitmed'
'Girl_'
'Girl'
'Gir_'
'Gill'
'Gide'
'Gib'
'Gian'
'Gh'
'Gezi'
'Getting_'
'Gerçi_'
'Gerçekle'
'Gerek_'
'Gent'
'Genev'
'Gene'
'Gelece'
'Geldiğiniz_'
'Gaz_'
'Gaz'
'Gave_'
'Garrett_'
'Garip_'
'Garibaldi_'
'Garden_'
'GON'
'Fur'
'Full_'
'Fuji'
'Fuckin_'
'Friends_'
'Friend'
'Fri'
'Frederick'
'Fred'
'Fransızlar'
'Fransızc'
'Frank'
'Franc'
'Four'
'Foto'
'Fos'
'Fort_'
'Form'
'Fore'
'Fog'
'Fly'
'Flash_'
'Fla'
'Fis'
'Finish_'
'Finger'
'Fie'
'Ferr'
'Feeling_'
'Feel'
'Federation_'
'Fea'
'Fast'
'Fai'
'Fab'
'FU'
'FIRST_'
'FE'
'Eşyaları'
'Eğlenceli_'
'Eğlence_'
'Ez'
'Express_'
'Exp'
'Evren'
'Evlilik_'
'Evli_'
'Evimi'
'Evim'
'Evde_'
'Etti'
'Etraf'
'Eth'
'Et'
'Este'
'Especially_'
'Eskisi'
'Esas_'
'Ero'
'Eninde_'
'Enerji'
'Emo'
'Emir'
'Em_'
'Elma'
'Elm'
'Elle'
'Elini'
'Elinde'
'Elimi_'
'Eks'
'Ekip_'
'Eki'
'Ek'
'Eight'
'Efendi_'
'Edi'
'Each_'
'EV'
'ET_'
'ER'
'EN'
'EE'
'Düşman'
'Düş'
'Düğün'
'Dünyayı_'
'Dünyadaki_'
'Dünya'
'Döne'
'Duygusal_'
'Duya'
'Duvar'
'Dut'
'Dum_'
'Dress_'
'Dream_'
'Drake_'
'Doğum_'
'Doğu_'
'Doğu'
'Doğrud'
'Doğa'
'Double_'
'Door'
'Donne'
'Dokuz'
'Dokun'
'Diy'
'Divi'
'Disco'
'Director_'
'Dire'
'Dio'
'Diki'
'Dig_'
'Dig'
'Diane_'
'Değerl'
'Deste'
'Depo'
'Delir'
'Dek'
'Dediğim_'
'Debra_'
'Dead_'
'De_'
'Dağı'
'Dayan'
'Day'
'Dave'
'Darl'
'Daphne_'
'Dans_'
'Daniels_'
'Dani'
'Dang'
'Dale_'
'Dai'
'Dag'
'DS_'
'DR'
'DE_'
'Cynthia_'
'Cylon'
'Cut'
'Cuma'
'Cul'
'Cru'
'Cro'
'Crime_'
'Crews_'
'Cree'
'Craig_'
'Crab'
'Cousin_'
'Costa_'
'Cop'
'Contin'
'Cont'
'Cons'
'Congress'
'Congratulations_'
'Comp'
'Command_'
'Coming_'
'Come'
'Cohen_'
'Coco_'
'Club_'
'Cliff'
'Claudia_'
'Class_'
'Clar'
'Cir'
'Cin'
'Chop'
'Children_'
'Chil'
'Ches'
'Chen'
'Chas'
'Charl'
'Char'
'Chance'
'Chan_'
'Chan'
'Cham'
'Ceza'
'Cent'
'Cehennem_'
'Cau'
'Catherine_'
'Cata'
'Cat'
'Cassie_'
'Cart'
'Carol'
'Carmel'
'Carlton_'
'Carlos_'
'Cardassian'
'Car_'
'Canım_'
'Canl'
'Cami'
'Cal_'
'Caf'
'Cade'
'COO'
'CON'
'COM'
'CLA'
'CH'
'Bırak'
'Büyükannem'
'Bölge_'
'Buzz'
'Buy_'
'Buster_'
'Burayı_'
'Bundy_'
'Building_'
'Bugünkü_'
'Bugüne_'
'Bud'
'Bry'
'Broke'
'Brig'
'Bridge'
'Bret'
'Bradley_'
'Boşver_'
'Boğazı'
'Boğ'
'Boya'
'Bow'
'Bou'
'Boss_'
'Borg'
'Bonne'
'Bonjour_'
'Boa'
'Bloom'
'Bloody_'
'Blake_'
'Black'
'Bitti_'
'Bitti'
'Bitirdi'
'Bis'
'Birden'
'Birbiriniz'
'Birbiri'
'Birazcık_'
'Bing'
'Bilmek_'
'Biliyor'
'Bilgi'
'Bildiğim_'
'Bianca_'
'Bi_'
'Bh'
'Bey_'
'Beverly_'
'Beth_'
'Beth'
'Bere'
'Berbat_'
'Benni'
'Benimki_'
'Bella_'
'Bell_'
'Bell'
'Belg'
'Becke'
'Beauty_'
'Başımı'
'Başı'
'Baştan_'
'Başlaya'
'Başkan'
'Baş'
'Bağlantı_'
'Bayım_'
'Bayl'
'Bar_'
'Baptist'
'Banyo'
'Banka_'
'Bank'
'Band'
'Ball'
'Bakanı_'
'Bakanlığı_'
'Bak'
'Bajor'
'Bai'
'Bad'
'Bacaklarım'
'Bac'
'Babasının_'
'BU_'
'BI'
'BET'
'Aşağıl'
'Aşağıda'
'Ağır'
'Ağaç'
'Aç'
'Ayrılma'
'Ayrıldı'
'Ayrı'
'Aya'
'Avukat'
'Attention_'
'Atlantic_'
'Ateş'
'Ast'
'Askerler_'
'Askeri_'
'Art'
'Arnold_'
'Arn'
'Arkaya_'
'Arkadaşlarım'
'Arkadaş'
'Ari_'
'Ari'
'Aralarında_'
'Aradığı'
'Arabam_'
'Araba'
'Apo'
'Anı'
'Any'
'Anton'
'Annemi_'
'Anlaşılan_'
'Anlamadı'
'Anladı'
'Angelo_'
'Anahtarı_'
'Anahtarlar'
'Amish_'
'Amerikalılar_'
'Amerikalı_'
'Alt_'
'Alo'
'Almanlar_'
'Alm'
'Ally_'
'Alla'
'All'
'Alet'
'Ald'
'Albert_'
'Alb'
'Aklınız'
'Akl'
'Ahbap_'
'Agnes_'
'Afraid_'
'Affet_'
'Affedersin_'
'Adını'
'Adi'
'Adamım_'
'Adamların'
'Acıy'
'Abe'
'Aba'
'Aaron_'
'ANT'
'AM_'
'AFTER_'
'?" "_'
'; "_'
'95_'
'93'
'900_'
'90'
'88_'
'78_'
'67_'
'65'
'60'
'44_'
'42'
'38_'
'37_'
'350_'
'34'
'33'
'30'
'28_'
'26'
'250'
'23'
'22_'
'22'
'21'
'200'
'20'
'199'
'196'
'180'
'18'
'16'
'120'
'04_'
'.?_'
'...!_'
'.."_'
'..!_'
'.. ..._'
'.. '
'. .'
'. " _'
'. "'
'- '_'
',..'
', ... _'
'**'
')'
'''
'## _'
'"..'
'"'_'
'! ..._'
'! "_'
' ['
' ? '
' ....'
' .. _'
' --_'
' - - _'
' - '
' * * _'
' $ _'
' " _'
'ﬁ'
'—_'
'şıy'
'şını_'
'şıkl'
'şı'
'şüpheleniyor'
'ştırıyor'
'ştı'
'şort'
'şoför'
'şmuş_'
'şmek'
'şmalar'
'şma_'
'şli_'
'şleri_'
'şları'
'şlar'
'şişmanla'
'şişm'
'şişl'
'şişi'
'şirketlerini'
'şirketini'
'şirketinden_'
'şirketin'
'şirket'
'şir'
'şimi'
'şim_'
'şil'
'şikâyet_'
'şiirsel_'
'şifreyi_'
'şifre'
'şif'
'şeytani_'
'şeyimi_'
'şeyi'
'şeri'
'şerefsiz'
'şerefine_'
'şemsiye'
'şekild'
'şekil'
'şekerleri'
'şehvet'
'şehrin'
'şehirler'
'şef_'
'şebeke'
'şaşırtıyor_'
'şato'
'şarkıyı_'
'şarkımı_'
'şarkıcı'
'şarabı'
'şapşal_'
'şantaj_'
'şansınız_'
'şansımı'
'şansı'
'şanslıyı'
'şansa_'
'şakaların'
'şak_'
'şahs'
'şahit_'
'şah'
'Şüpheli_'
'Şüpheli'
'Şura'
'Şunlara_'
'Şu'
'Şoför'
'Şirketi'
'Şimdide'
'Şimdi'
'Şeytan'
'Şey'
'Şek'
'Şeh'
'Şef'
'Şarap_'
'Şapka'
'Şanslı'
'Şang'
'Şakayd'
'Şaka'
'ışığın_'
'ışığın'
'ışım_'
'ışı_'
'ışa'
'ığın_'
'ığın'
'ıç'
'ızl'
'ıv'
'ıt'
'ısıtıcı'
'ısıt'
'ısmarlar'
'ısmarla'
'ıs_'
'ırız_'
'ırsan_'
'ınıza_'
'ınla_'
'ındaki_'
'ımızda'
'ımsı'
'ımları'
'ılmış_'
'ılda'
'ılar'
'ıkta'
'ıksı'
'ıkla_'
'İşleri'
'İşiniz'
'İşimiz'
'İşimde'
'İçm'
'İçinde'
'İçim'
'İçeride'
'İç_'
'İzniniz'
'İzleyi'
'İzleme'
'İzin'
'İyiyiz_'
'İyileş'
'İtira'
'İtfaiyeci'
'İsveç'
'İsterse'
'İstemiyorum_'
'İstem'
'İstediğini'
'İspanyol_'
'İspanyol'
'İsmim_'
'İskoçya'
'İske'
'İsk'
'İnşallah_'
'İntikamını_'
'İnti'
'İnsanın_'
'İnsanl'
'İnsan'
'İngilizler'
'İnek'
'İncil_'
'İncil'
'İnce'
'İnanı'
'İn_'
'İmkanı_'
'İll'
'İlgin'
'İlgilenir'
'İlgilen'
'İlgi'
'İle'
'İlaç_'
'İkisin'
'İkinizi_'
'İkinizde'
'İkin'
'İkimizi'
'İkimizde_'
'İhtiyar_'
'İhtiyacı'
'İbra'
'İ_'
'İT'
'İL'
'İK'
'ğından_'
'ğımıza_'
'ğüy'
'ğunuz_'
'ğumuz'
'ğumda_'
'ğraf'
'ğr'
'ğinin_'
'ğini'
'ğinden_'
'ğimizd'
'ğimin_'
'ğimde_'
'ğeri_'
'ğan'
'ğa'
'ğ_'
'þ'
'ýn'
'üğ'
'üçün'
'üzülüyor'
'üzme'
'üzgünüz_'
'üzerimde_'
'üzereydim_'
'üzerey'
'üzde'
'üyoru'
'üyordu_'
'üyeleri_'
'üye_'
'üvey_'
'ütüle'
'üsü_'
'üstün'
'üstümü'
'üstlenecek_'
'üstlen'
'üste'
'üs_'
'ürünü_'
'ürünleri'
'ürd'
'üra'
'üp_'
'üp'
'ünüz'
'ünün'
'ünlü'
'ünle'
'ündü'
'ümüz_'
'ümit_'
'üme_'
'ümanlar'
'ülkesin'
'ülkemiz_'
'üklü'
'üklerin'
'ük'
'üel_'
'ücretsiz_'
'ücret'
'üb'
'öğü'
'öğrettin_'
'öğretmeye_'
'öğretmenin'
'öğretmeni_'
'öğretece'
'öğrete'
'öğrenmiş'
'öğrenmen_'
'öğrenmeme'
'öğrenebil'
'öğrendiğim'
'öğrendik_'
'öğrendi_'
'öğrencim'
'öğrencileri'
'öğrenciler_'
'öğren_'
'öğren'
'öğlen'
'özlü'
'özleyeceği'
'özlemiş'
'özgürlük'
'özgürlü'
'özg'
'özelli'
'öylesine_'
'öv'
'ötesi_'
'öteki_'
'öt'
'örün'
'ört_'
'örneği_'
'örne'
'örlü'
'örgü'
'ördek_'
'örde'
'öpüş'
'öpücük'
'öpmek'
'öpme'
'önümüzdeki_'
'önümde_'
'önlemek_'
'öneriler'
'önemseme'
'önems'
'önemini_'
'önem'
'öncü'
'önceydi_'
'öncel'
'ömrü'
'öm'
'ölüyor'
'ölürüm_'
'ölürse'
'ölümünün_'
'ölümsüz'
'ölüleri_'
'ölmüştü_'
'ölmeyece'
'ölmem'
'ölmedi_'
'öleceğim_'
'ölebilir_'
'öldüğünde'
'öldüğüm'
'öldürüyordu'
'öldürüyor_'
'öldürürü'
'öldürürdü'
'öldürülmüş_'
'öldürülm'
'öldürülen_'
'öldürü'
'öldürs'
'öldürmü'
'öldürmesine_'
'öldürmeme'
'öldürmeliy'
'öldürmekten_'
'öldüren'
'öldürecek'
'öldürebil'
'öldürdüğün_'
'öldürdüğüm'
'öldürdüğü'
'öldükten_'
'öfkesi'
'ödünç_'
'ödülünü_'
'ödül_'
'ödeş'
'ödeyeceğim'
'ödeyece'
'ödeye'
'ödevi'
'ödenm'
'ödemeye'
'ödedi'
'öce'
'öb'
'ón_'
'ó'
'ño'
'ïlïk_'
'ís'
'émon_'
'ément_'
'çığlık_'
'çığlı'
'çısı_'
'çınl'
'çım'
'çılgınl'
'çılar_'
'çıkışı'
'çıkıyorsun_'
'çıkınca_'
'çıkın_'
'çıktığını_'
'çıktığımı'
'çıktığım'
'çıkmıştı'
'çıkmayı_'
'çıkmayacak'
'çıkmasını_'
'çıkması'
'çıkmanın_'
'çıkmamı'
'çıkmama_'
'çıkmad'
'çıkarıyorsun_'
'çıkarırs'
'çıkarıl'
'çıkarı'
'çıkarttı'
'çıkartmı'
'çıkarsan'
'çıkars'
'çıkarmaz'
'çıkarması'
'çıkarmanı'
'çıkarmamı'
'çıkarm'
'çıkardığım'
'çıkardığı_'
'çıkarabilir'
'çıkana_'
'çıkamaz'
'çıkam'
'çıkacağımı'
'çıkacak'
'çıkabiliri'
'çıkabil'
'çık'
'çürük_'
'çürü'
'çü'
'çözüm'
'çözülü'
'çözmeye_'
'çözebilir'
'çöplük_'
'çöpl'
'çöp_'
'çöker'
'çö'
'çuval'
'çul'
'çoğunlukla_'
'çoğ'
'çorap'
'çocuğunu'
'çocuğu'
'çocuktu'
'çocukta'
'çocukluk_'
'çocuklu'
'çocuklarınız'
'çocuklarımız_'
'çocuklarım'
'çlı_'
'çlarını'
'çlar'
'çingene'
'çim_'
'çim'
'çilerim'
'çiler_'
'çile'
'çikolata_'
'çift'
'çevres'
'çevrede_'
'çevirmi'
'çevirir'
'çer'
'çeliş'
'çelik_'
'çektiğim'
'çekmişti'
'çekmiş_'
'çekmiyor'
'çekmen'
'çekmek_'
'çekmede'
'çekmece'
'çekl'
'çekiyoru'
'çekinm'
'çekin_'
'çekim_'
'çekim'
'çekilmiş_'
'çekilme'
'çekiliyor'
'çekildi'
'çekeyim_'
'çekers'
'çekerim_'
'çekerdi_'
'çeker_'
'çekelim_'
'çekeceğim'
'çekeceksin'
'çekebil'
'çede'
'çağırır'
'çağırın_'
'çağırmadı'
'çağırdın_'
'çayı'
'çayla'
'çatıya_'
'çatı'
'çatlak'
'çarşaf'
'çarptı_'
'çarptı'
'çarpmış'
'çarpa'
'çarem'
'çantay'
'çantasın'
'çantası_'
'çanta_'
'çamur'
'çamaşırı_'
'çamaşırlarım'
'çamaşırlar'
'çalışıyordu'
'çalışırsan_'
'çalışırken_'
'çalışır_'
'çalıştığınız'
'çalıştığımı_'
'çalıştırma'
'çalıştıra'
'çalıştır'
'çalıştı'
'çalışmıyor'
'çalışmanı'
'çalışacağı'
'çalışacak_'
'çalışabiliri'
'çalışabil'
'çalıyorsun'
'çalıyordu'
'çalıyor_'
'çalıyor'
'çalındı'
'çalın_'
'çalmış_'
'çalmaya_'
'çalmad'
'çaldığı'
'çaldı_'
'çalaca'
'çakma'
'çakal'
'çabala'
'çaba'
'ân_'
'âh_'
'án'
'Üçü'
'Üçe_'
'Üstünü'
'Üstesinden_'
'Üssü_'
'Ünü'
'Üniversiteye_'
'Üniversitesi'
'Öğretmen'
'Öğrendi'
'Özle'
'Özgür_'
'Öz'
'Öyleyi'
'Öteki_'
'Örümcek_'
'Örneğin_'
'Önems'
'Öncel'
'Öm'
'Ölüler'
'Ölmekte'
'Ölm'
'Ölen_'
'Öleceği'
'Öldüğünü_'
'Öldürü'
'Öldür_'
'Öldür'
'Öldü'
'Öl'
'Öfke'
'Ödü'
'Ödevi'
'Öbür'
'Çıkın_'
'Çık'
'Çöp_'
'Çöl'
'Çoğunlu'
'Çor'
'Çocuğ'
'Çocukluğu'
'Çocukların'
'Çocuklarımı'
'Çiğ'
'Çit'
'Çirkin'
'Çiftli'
'Çete'
'Çekilin_'
'Çekil'
'Çay_'
'Çarşa'
'Çantanı'
'Çamur_'
'Çamaşırhanede'
'Çalıştı'
'Çalı'
'{\\_'
'zıv'
'zırval'
'zını'
'zzy_'
'zzle'
'zy'
'zum'
'zsam_'
'zsa_'
'zsa'
'zorundasınız'
'zorluklar'
'zorluk'
'zorlayı'
'zorlaya'
'zorlama'
'zorladı'
'zorla_'
'zorla'
'zorbal'
'zmi'
'zma'
'zm'
'zler_'
'zlar'
'zla'
'zincirle'
'zincirin'
'zil_'
'zihnini'
'zie_'
'zevk'
'zenginl'
'zengin'
'zenciler'
'zem'
'zel_'
'zekâlı_'
'zekalı'
'zeka_'
'zehirlem'
'zdır_'
'zdı'
'zda'
'zd'
'zce'
'zb'
'zararsız_'
'zararlı'
'zara'
'zar_'
'zannetmi'
'zannedi'
'zamanı'
'zamanlama'
'zamanla'
'zama'
'zal'
'zak'
'zah'
'zaf'
'yığını'
'yığın'
'yısıyla_'
'yırtıl'
'yılında_'
'yılı_'
'yıllardır_'
'yıldızı_'
'yıldızların_'
'yıldız'
'yılda_'
'yılanlar'
'yıktı'
'yıkama'
'yıcı'
'yüzüğü_'
'yüzüğ'
'yüzük_'
'yüzü'
'yüzyıld'
'yüzmek_'
'yüzleşece'
'yüzleri'
'yüzler'
'yüzle'
'yüzde_'
'yüzd'
'yürüyüşü'
'yürüyüş'
'yürüyüp_'
'yürüyeceği'
'yürütü'
'yürüte'
'yürür_'
'yürümek'
'yürüdüğü'
'yürü_'
'yüreğin'
'yüm_'
'yükseli'
'yükseklik'
'yüklenme'
'yük_'
'yöntemler'
'yöntem'
'yönler'
'yönetici_'
'yöneti'
'yönel'
'yönde_'
'yy'
'yuvarlandı'
'yutu'
'yurtdışın'
'yumurta'
'yumu'
'yumruğu'
'yumrukla'
'yumruk_'
'yuma'
'yul'
'yukarıya_'
'yukarıda'
'yton_'
'yto'
'yth'
'yse'
'ysam_'
'yoğu'
'youth'
'young'
'yorum'
'yoruldum_'
'yorm'
'yorgunu'
'yorg'
'yordur_'
'yonda_'
'yoluy'
'yolunda'
'yolun_'
'yolumu'
'yolu'
'yollarını_'
'yollarla_'
'yolladığın'
'yolla_'
'yoldaş_'
'yoldaş'
'yolculuğum'
'yolculukta'
'yolcular'
'yoktu'
'yoksull'
'yna_'
'ymış'
'ylon_'
'ykü'
'yiyeceğim'
'yiyecek'
'yiyebili'
'yici'
'yeşil'
'yeğle'
'yeğenin'
'yeğen'
'yey'
'yett'
'yetme'
'yetkiniz'
'yetkili'
'yetiştir'
'yetişti'
'yetini_'
'yetimhane'
'yeti'
'yetersizli'
'yetersiz_'
'yeterdi_'
'yeteneğine_'
'yeteneğim_'
'yeteneklerini_'
'yetenekleri_'
'yet'
'yesi'
'yeryüzü'
'yersin'
'yerli'
'yerleşme'
'yerlerini_'
'yerler'
'yerle_'
'yerindey'
'yerin'
'yerdi'
'yeraltı_'
'yenis'
'yenin'
'yenilenen_'
'yenilen'
'yenil'
'yener'
'yemişti'
'yeminin'
'yemez'
'yemeye_'
'yemey'
'yemem'
'yemekte_'
'yemekleri'
'yemek'
'yeme_'
'yem'
'yelken'
'yelim_'
'yeceğini_'
'yecektir_'
'yeceksin_'
'yebilir'
'year'
'ycle_'
'ych'
'yce_'
'yb'
'yaşıyorsun'
'yaşındaydım_'
'yaşında'
'yaşına_'
'yaşımda'
'yaşlıl'
'yaşlar'
'yaşayam'
'yaşayacak'
'yaşat'
'yaşar_'
'yaşandı'
'yaşana'
'yaşan'
'yaşamış'
'yaşamlar'
'yaşamamış'
'yaşamam'
'yaşadığını_'
'yağıyor'
'yağın'
'yağma'
'yağla'
'yağdı'
'yazıyor'
'yazılı'
'yazılmış_'
'yazmış'
'yazmalı'
'yazayım_'
'yazacağım_'
'yazabili'
'yayınlan'
'yayında'
'yayın_'
'yayılma'
'yayıl'
'yaygın'
'yay'
'yavrusunu'
'yavru_'
'yavaşlama'
'yatıyordu'
'yatır'
'yattığı'
'yattın_'
'yattı'
'yatmay'
'yatmas'
'yatmad'
'yatağında_'
'yatağına_'
'yatağın_'
'yatağımda'
'yatarken_'
'yataklar'
'yasu_'
'yasl'
'yasaları'
'yasaklıyor'
'yasadışı'
'yas'
'yarış_'
'yarın'
'yargıç_'
'yargıç'
'yargıla'
'yardımınız'
'yardımcını'
'yardımcılar'
'yardımcı'
'yarayacak_'
'yaraya'
'yaratığı_'
'yaratıkları'
'yaratıklar'
'yarattığı_'
'yaratmak'
'yarası'
'yararlan'
'yararl'
'yaran'
'yaramıyor'
'yaramadı_'
'yaralı'
'yaralan'
'yarala'
'yarad'
'yar'
'yapıyordun'
'yapılıyor_'
'yapılır_'
'yapılması'
'yapıldığı'
'yapıldı_'
'yaptığınız'
'yaptığımızı_'
'yaptıysa_'
'yaptırı'
'yaptırmış'
'yaptırma'
'yaptıklarını'
'yaptıkların_'
'yaptı'
'yapmıştı_'
'yapmışsı'
'yapmazsak_'
'yapmazsa'
'yapmaz_'
'yapmayacak_'
'yapmaya'
'yapmasın'
'yapmas'
'yapmamay'
'yapmalıyız_'
'yapmalı'
'yapmadı'
'yapmadan_'
'yapiyor'
'yapardı_'
'yapanlar_'
'yapan'
'yapamayacağını'
'yapamayacağım'
'yapamayacak'
'yapamaya'
'yapamadı'
'yapacağımızı_'
'yapacağımız_'
'yapacağı_'
'yapacağı'
'yapacakları'
'yapacaklar_'
'yapabilme'
'yapabiliyor_'
'yapabilirdi'
'yapabilir'
'yapabileceğimi'
'yapabileceği_'
'yapabile'
'yanıyors'
'yanınızda_'
'yanındaydım_'
'yanın'
'yanımıza_'
'yanımday'
'yanılıyorum'
'yanılıyorsun_'
'yanılıyor_'
'yanılm'
'yanıldı'
'yansıma'
'yanl'
'yangını_'
'yangın'
'yang'
'yanaşm'
'yanacak_'
'yam'
'yalvarıyorum_'
'yalvarı'
'yalnızız_'
'yalancısın_'
'yakışık'
'yakıyor'
'yakının'
'yakınlaşmak_'
'yaktı'
'yakmay'
'yaklaşıyor'
'yaklaşı'
'yaki'
'yakalayam'
'yakalayacağı'
'yakalayacak'
'yakalayabilir'
'yakalay'
'yakalarsa'
'yakalandım_'
'yakalana'
'yakalama'
'yakala'
'yakacağı'
'yacht_'
'yacağız_'
'yabiliriz_'
'yabili'
'yabancı'
'xl'
'xie_'
'xel'
'xed_'
'xan'
'wski_'
'wsah_'
'wreck'
'wrapped_'
'wr'
'wounded_'
'wound_'
'wou'
'worthy_'
'worthless_'
'worship_'
'worries_'
'worlds_'
'worker_'
'womb_'
'wo_'
'wm'
'witnessed_'
'witch'
'wiped_'
'winter'
'will'
'wild'
'wicked_'
'whore'
'whom_'
'whoever_'
'whisky_'
'whis'
'whipp'
'whip_'
'whereabouts_'
'what'
'whales_'
'whale_'
'whacked_'
'whack'
'wh'
'wf'
'were'
'wen'
'wei'
'wee_'
'wed_'
'weakness_'
'wb'
'water'
'watcher_'
'wat'
'wasting_'
'washed_'
'wash'
'was'
'wart'
'warriors_'
'warp_'
'warning_'
'warehouse_'
'ware_'
'wandering_'
'wand'
'wan_'
'walt'
'walker'
'wak'
'waiter'
'wag'
'vücut_'
'vücudunu_'
'vücu'
'vz'
'vuruş'
'vuruyor'
'vurur_'
'vurulmuş_'
'vuruldu'
'vursa'
'vurmuş_'
'vurmaya_'
'vurmak_'
'vurmadım_'
'vurmad'
'vurduğunu_'
'vuracak_'
'vuracak'
'vur_'
'vulnerable_'
'vs'
'vra'
'vote'
'von_'
'volunteer'
'volcan'
'voca'
'vm'
'vizitin'
'viye_'
'vites'
'vitamin'
'viski_'
'visiting_'
'visions_'
'vision_'
'vise'
'visa'
'virüsü_'
'virüsl'
'virg'
'violet'
'violati'
'vio'
'vinc'
'vim'
'villagers_'
'vile'
'vil'
'viewe'
'vier_'
'videos_'
'vicdan_'
'vib'
'vian_'
'vial_'
'via_'
'vey'
'ves'
'versiyonu'
'versit'
'verses_'
'versen_'
'verseler_'
'vers_'
'vermi'
'vermezse_'
'vermen'
'vermemi'
'vermeliy'
'vermekten_'
'vermeden_'
'veriyoruz_'
'veriyorsunuz_'
'verim'
'verildiği'
'veril'
'veri'
'verg'
'verene_'
'veremezdim_'
'veremeyiz_'
'veremeyece'
'verelim_'
'vereceğini_'
'vereceği'
'verecekti'
'verdikleri'
'venture_'
'veni'
'vend'
'vely_'
'veletler'
'velet_'
'vela'
'vei'
'vefat'
'vee'
'vazgeçi'
'vazgeçecek'
'vazgeçe'
'vazgeç'
'vault_'
'varır'
'varsayım'
'vars'
'varlığı_'
'varlık_'
'variety_'
'varia'
'vardı'
'vardiya'
'vanishe'
'vanish_'
'vanil'
'vand'
'valı'
'value'
'vallı'
'vall'
'vaktiniz'
'vaktini_'
'vaktin_'
'vakti'
'vakit'
'vaka_'
'vai'
'vahş'
'vagina_'
'vadede_'
'vaaz_'
'uşum_'
'uşu'
'uğunu_'
'uğumu'
'uğrattı'
'uğrama'
'uğradığını_'
'uçuşlar'
'uçuyoru'
'uçuyor'
'uçurumdan_'
'uçurum'
'uçurul'
'uçuru'
'uçura'
'uçağın'
'uçağı'
'uçan_'
'uçaktan_'
'uçakları'
'uçakla_'
'uzunlu'
'uzmanı'
'uzmanların'
'uzla'
'uzd'
'uzata'
'uzanıyor'
'uzanm'
'uzan'
'uzaktay'
'uzaklıkta'
'uzaklaştırma_'
'uzaklaşmam'
'uzaklaş'
'uzaklar'
'uyuşturucu'
'uyus'
'uyu'
'uyoru'
'uyorsun_'
'uymuyor'
'uyla_'
'uykum'
'uyku_'
'uygunsuz_'
'uygulayaca'
'uygulan'
'uydur'
'uyarıyorum_'
'uyarmalıy'
'uyarma'
'uyandı'
'uya_'
'uya'
'uvar'
'uts_'
'utr'
'uto'
'uted_'
'utanı'
'utanm'
'utandırıyor'
'utandı'
'usun'
'usu_'
'uss'
'usia'
'usi'
'ush_'
'useful_'
'urt'
'urnalis'
'urn_'
'urn'
'urlar'
'uring_'
'urine_'
'uria'
'urgi'
'urdu_'
'urda'
'ups_'
'ups'
'upper_'
'uppe'
'update_'
'unworthy_'
'unutuyorsun'
'unutuyor'
'unutu'
'unutmayacağım_'
'unutacak_'
'unutabilir'
'unti'
'untar'
'unpr'
'unpleasant_'
'unp'
'unm'
'unluk'
'unlucky_'
'unlocked_'
'unlike_'
'university_'
'united_'
'ung'
'unfor'
'unexpected'
'undress'
'undi'
'underwa'
'understood_'
'understand'
'underneath_'
'undergr'
'undan_'
'unda'
'uncom'
'unci'
'umuyoruz_'
'umuyordum_'
'umuyorduk_'
'umuyor'
'umuru'
'umursamıyor'
'umudumu'
'umudu'
'umn'
'umm'
'umi_'
'umduğu'
'umb'
'uly'
'uluslararası_'
'ulsi'
'ulous_'
'ulla'
'ull'
'uld'
'ulaşmayı_'
'ulaşmaya'
'ulaşaca'
'ulati'
'ular'
'ukt'
'ukl'
'uke'
'uka'
'uin'
'ugra'
'ughter'
'ugh_'
'ugh'
'uge'
'ug'
'ufaklı'
'uer'
'uel_'
'udur_'
'udi'
'ucube_'
'ucub'
'ucin'
'uchi_'
'uce_'
'uce'
'uca'
'ub_'
'tıyor'
'tısı_'
'tırıcı'
'tırı'
'tırnaklar'
'tırdı_'
'tıra'
'tır'
'tınız_'
'tılı'
'tıkı'
'tıkt'
'tıkları_'
'tıkan'
'tık'
'tüyler'
'tüt'
'türün'
'tüp'
'tümü'
'tüketti'
'tükenm'
'tüken'
'tüfek_'
'tüfe'
'tüccar'
'tören'
'tör'
'tyran'
'types_'
'typ'
'tyo'
'twist'
'twins_'
'twinkle_'
'tuğun'
'tuzl'
'tuzağı_'
'tuzağa_'
'tutuş'
'tutuyorum_'
'tutulma'
'tutula'
'tutuklayaca'
'tutuklay'
'tutuklanmış'
'tutuklanma'
'tutuklandı'
'tutuklan'
'tutmuş_'
'tutku'
'tutarı'
'tutarsı'
'tutan_'
'tutacağım_'
'tutacak_'
'turun'
'turucu_'
'turt'
'turnuva'
'turn'
'turkey_'
'turistler'
'turf_'
'turd'
'tun_'
'tumor_'
'tum'
'tulumları'
'tuhafl'
'tug'
'tub_'
'tub'
'tua'
'ttı_'
'ttü'
'tty_'
'ttu'
'ttle'
'ttiği'
'tting'
'ttin_'
'ttik'
'tters_'
'tten'
'tta_'
'tsun'
'tsu'
'trump'
'truffle'
'truct'
'trucks_'
'truc'
'trous'
'troubles_'
'trou'
'trot'
'trop'
'tripp'
'triple'
'trigger_'
'tress_'
'tres'
'treni'
'trend'
'tren'
'trem'
'trees_'
'treati'
'treated_'
'treat'
'treas'
'tream_'
'trea'
'traş'
'travma_'
'travels_'
'traveling_'
'travel'
'trav'
'tras'
'trapped_'
'transporte'
'transpo'
'transplant_'
'transmi'
'translat'
'transferred_'
'traitor_'
'trailer_'
'tragic_'
'trafiğ'
'traffic_'
'traf'
'tradi'
'tract'
'tracke'
'trace'
'toy_'
'toxic_'
'towe'
'tournament_'
'touris'
'touch'
'total_'
'tot'
'torunun'
'tortured_'
'tortu'
'toprak_'
'topra'
'toplumun_'
'toplu'
'toplayıp_'
'toplar'
'toplanı'
'toplantısın'
'toplanma'
'toplam'
'topladığım'
'topl'
'toparlanı'
'toparlan'
'topal'
'toot'
'tonu'
'toni'
'tomo'
'tomato'
'tohum'
'togra'
'toe'
'tmış'
'tmişti'
'tmiş_'
'tme_'
'tmaya'
'tmak_'
'tlu'
'tli_'
'tlerin'
'tler_'
'tlar_'
'tka_'
'tiğimi'
'tiği_'
'tiz_'
'tiz'
'tiye'
'tiyatro'
'tiya'
'titriyor'
'titreşim'
'titreme'
'titiz'
'tite'
'tire_'
'tirdi'
'tipler'
'tious_'
'tiny_'
'tini'
'tings_'
'tinde'
'timsah'
'timi_'
'tilt_'
'tilki_'
'tile'
'tik'
'tif_'
'tied_'
'tics_'
'tickl'
'tick_'
'ticar'
'tial'
'thu'
'throne_'
'thrille'
'thrill'
'threatened_'
'threaten_'
'thousands_'
'thorough'
'this'
'thirst'
'thinkin_'
'thin_'
'thieves_'
'thic'
'therap'
'ther'
'theor'
'them'
'theater_'
'than'
'tg'
'tful_'
'tf'
'teşvik_'
'teşkilat'
'teğmen_'
'teğmen'
'teği'
'teyim_'
'tex'
'tet'
'testler'
'testine_'
'tesl'
'tesin'
'tesi'
'tesadüfi_'
'terör'
'tery'
'tersi'
'terrorist'
'terrifi'
'terribly_'
'terri'
'terra'
'terr'
'termina'
'terman_'
'term'
'terket'
'terk'
'teria'
'teri'
'terfi_'
'terapis'
'tepkisi'
'tepen'
'tepem'
'tepeler'
'tep'
'teorim_'
'teori'
'tenants_'
'temsil_'
'temizlik_'
'temizler'
'temelde_'
'teme'
'telsiz'
'telle'
'tell'
'televizyonda_'
'televizyon'
'teles'
'teler_'
'telegram_'
'telefonun'
'telafi_'
'teknoloji_'
'teknisyen'
'tekne_'
'tekmele'
'teklifini'
'teklifin'
'teklifi_'
'tekil'
'tekerle'
'teen'
'tedarik'
'tecrübem'
'tecrübe'
'technique'
'teceği'
'tece'
'tecavüz_'
'tear_'
'team'
'teac'
'td'
'tches_'
'tcher_'
'tcha'
'tbeli_'
'tbe_'
'taşıyor'
'taşıyan_'
'taşıyamaz'
'taşınıyoru'
'taşınır'
'taşınma'
'taşındı_'
'taşınabil'
'taşın_'
'taşımak_'
'taşı_'
'taşa'
'tayı'
'tayin'
'tax'
'tavşan'
'tavırları'
'tavuk_'
'tau'
'tatlı'
'tatin'
'tatili_'
'tatili'
'tated_'
'tate_'
'tasın'
'tastes_'
'tasarlan'
'tasar'
'tarzın'
'tarz_'
'tartışı'
'tartıştı'
'tartışmak_'
'tarihi'
'tari'
'targeting_'
'tard_'
'taraması'
'tarafınday'
'taraftaki_'
'tarafta'
'tarafsız'
'taraflı'
'tapına'
'tapu'
'tanıştığın'
'tanıştığımız'
'tanıştığım'
'tanışmıştım_'
'tanışman'
'tanışma'
'tanıyorsun_'
'tanıyan_'
'tanıyamaz'
'tanıy'
'tanıtım_'
'tanıtı'
'tanımıyorsun_'
'tanımıyor'
'tanımlaya'
'tanımadığın'
'tanımadığı'
'tanıdığını_'
'tanrılar'
'tanks_'
'tank'
'tanesini'
'tanecik'
'tance_'
'tampon'
'tamamı_'
'tamamlay'
'tamamlandı_'
'tamamlana'
'talı'
'talks_'
'talki'
'talk'
'talim'
'talihsiz_'
'talent'
'talebi'
'takımla'
'takıma_'
'takılıp_'
'takılı'
'takılmayı_'
'takıldım_'
'takıldı_'
'takıldı'
'takılan_'
'taktik'
'taksi'
'takmış'
'takma_'
'takip'
'taki'
'takdir_'
'takdir'
'tajı'
'tain'
'tai'
'tahsi'
'tag_'
'tadına_'
'tada'
'taci'
'tacak'
'taca'
'tabu'
'tablo'
'tabanını'
'tabanın'
'tabanca_'
'tabaka'
'taba'
'tab'
'sıç'
'sızıntı'
'sızı'
'sızma'
'sızla'
'sıyı'
'sıyrı'
'sıvış'
'sıvı'
'sırtında'
'sırtımda'
'sırtım'
'sırtla'
'sırt_'
'sırrı_'
'sırrı'
'sırları_'
'sıran'
'sıram_'
'sıralar'
'sıralama'
'sıra'
'sınırı_'
'sınırlama'
'sınırla'
'sınır_'
'sınıfın'
'sınıfı_'
'sınıfı'
'sınıf'
'sında'
'sınavlar'
'sıkışmış_'
'sıkış'
'sıkıyors'
'sıkıldım_'
'sıkı'
'sıktı'
'sıkma'
'sıkkın'
'sık'
'sıcakl'
'sıcak'
'süzü'
'sürüne'
'sürüler'
'sürüklem'
'sürtü'
'sürprizi'
'sürmüş_'
'sürgü'
'süresi'
'sürece'
'sürebilir_'
'sürebilir'
'sürdürme'
'sürdü'
'süne_'
'sözlü'
'sözleşme_'
'sözlerin'
'söylüyorsunuz_'
'söylüyorlar_'
'söylüyordu'
'söylüyor'
'söyleyemezsin_'
'söyleyemez_'
'söyleyemey'
'söyleyeme'
'söyleyeceğin'
'söyleyeceğim'
'söyleyebilir'
'söylesen'
'söylersem_'
'söylerse'
'söylerdin_'
'söylerdi_'
'söyler'
'söylemişti'
'söylemi'
'söylemeyin_'
'söylemey'
'söylemesi_'
'söylemenin_'
'söylemen'
'söylemeliy'
'söylemek'
'söylediğiniz'
'söylediğine_'
'söylediğinde'
'söylediniz_'
'söylediklerim'
'söndürü'
'symp'
'symbols'
'sworth_'
'swore_'
'sword'
'swin'
'swell_'
'sweete'
'sweater_'
'swe'
'swal'
'suçun'
'suçluyorsun'
'suçlular_'
'suçlamaları'
'suçla_'
'suçla'
'suyunu_'
'suyla_'
'sut'
'susuz'
'sustu'
'suspicio'
'suspende'
'sus_'
'sus'
'surveillance_'
'suru'
'surprised_'
'surgical_'
'surgeon_'
'surg'
'suratım'
'suppress'
'supper_'
'supervisor'
'sup'
'sunuyor'
'sunun_'
'sunshine_'
'sunduğu'
'summon'
'summit_'
'sum_'
'sular'
'sula'
'suit'
'suicid'
'sui'
'suggests_'
'suggestion_'
'suggesti'
'suf'
'sucking_'
'suck'
'success'
'subway_'
'subt'
'substa'
'submit'
'subject'
'sub_'
'sua'
'styl'
'stupid'
'stunt_'
'stum'
'studies_'
'stubborn_'
'strum'
'struggle'
'strol'
'stroke_'
'striptiz'
'strippe'
'strings_'
'string_'
'strike'
'stric'
'stream'
'straw'
'strateji'
'strateg'
'strap_'
'strangled_'
'strangers_'
'strain_'
'stow'
'storms_'
'store'
'stopping_'
'stool_'
'ston_'
'sto_'
'stitio'
'stir'
'stinking_'
'stig'
'sticky_'
'stick'
'stew'
'sterl'
'stepp'
'steal'
'status_'
'statues_'
'statue_'
'stations_'
'statione'
'stati'
'states'
'statements_'
'stanı'
'standart'
'standard_'
'standard'
'stan_'
'stalke'
'stake'
'stabbing_'
'sse_'
'ssa_'
'squad_'
'spot'
'sport'
'sporla'
'spoon'
'spons'
'spon'
'spli'
'splash_'
'spirits_'
'spir'
'sph'
'sperm_'
'spending_'
'spel'
'specimen'
'specifi'
'species_'
'speaking_'
'spea'
'spark'
'span'
'spaces'
'soğuktu_'
'soğukkanlı'
'soym'
'soyguncu'
'south'
'sosyal_'
'soruştur'
'sorusu'
'sorunumuz'
'sorunu'
'sorunlarım_'
'sorunl'
'sorumluluğu'
'sorumluluk_'
'sorumlu'
'sorum'
'sorularını'
'soruları_'
'sorul'
'sormuş'
'sormaya_'
'sormak_'
'sormadı'
'sorgulamı'
'sore_'
'sord'
'sorar'
'soracaktı'
'soracak'
'sorabilir_'
'sopa'
'sop'
'sonuçların'
'sonuçlar_'
'sonuç'
'sonunun_'
'sonuncusu_'
'sonuc'
'sonsuz'
'sonradan_'
'someplace_'
'someday_'
'some'
'som'
'solo_'
'soldan_'
'solda_'
'solar'
'soktuğum'
'soktu_'
'soktu'
'sokmak_'
'sokağı'
'sokayım_'
'sokar'
'sokaklarda_'
'sokacak_'
'soka'
'sohbet'
'soe'
'sodi'
'sober_'
'soap_'
'soa'
'snow_'
'snow'
'snore_'
'snoo'
'sniper_'
'sniff'
'sni'
'snatch'
'snappi'
'snap'
'smi'
'smell'
'sme'
'smash'
'smack_'
'sma'
'sm'
'slı'
'slipped_'
'slipp'
'slide'
'sle_'
'slay'
'slap_'
'slab_'
'skirt_'
'skipper_'
'skill'
'sketch'
'skeleton'
'skate'
'sizlik_'
'sizli'
'sizler_'
'sizler'
'sizl'
'sizindir_'
'size'
'sixt'
'siv'
'sitt'
'siti'
'siteye_'
'sisteminin_'
'sisteminde'
'sistem'
'sire_'
'sinyal'
'sins'
'sinl'
'sinirli'
'sinirlendi'
'sinirle'
'singe'
'sindir'
'sinde'
'sincere'
'simul'
'similar_'
'silent_'
'silahını'
'silahım'
'silahlı_'
'silahları_'
'silahlar_'
'silahlar'
'siklet'
'sikik_'
'siki'
'sik'
'sihirl'
'sigorta_'
'sigo'
'signs_'
'signi'
'signa'
'sighs_'
'sigh'
'sif'
'sidir_'
'side'
'sick'
'sicili'
'sic'
'sia'
'shrink_'
'shown_'
'shove'
'shore_'
'shoot'
'shock'
'shn'
'shittin'
'shire_'
'shipwreck'
'shipp'
'shipm'
'shield_'
'shelter_'
'shaw_'
'shaving_'
'shattered_'
'shark'
'shar'
'shake'
'shade'
'shad'
'shack'
'sga'
'seçti_'
'seçmiş'
'seçmel'
'seçiyor'
'seçeneğim'
'seçeneği'
'sezi'
'seyretm'
'seyred'
'seyahati_'
'sevmiştim_'
'sevmiyorsan_'
'sevmi'
'sevmezs'
'sevmem_'
'sevmedi_'
'sevk_'
'sevişti'
'sevişi'
'seviş'
'seviyordu'
'sevinme'
'sevinirim_'
'sevindir'
'sevgin'
'sevgimi_'
'sevgilin'
'sevgi_'
'sevgi'
'sever'
'sevent'
'seveceği'
'sevebilir'
'sevdiklerin'
'settled_'
'setting_'
'sessizliğ'
'sessizlik'
'sessizce_'
'sesleri_'
'sesl'
'sesin'
'servisi'
'services_'
'servet_'
'serves_'
'servant'
'serum'
'serserinin_'
'sersem'
'serin'
'seri'
'sergile'
'sequence'
'septi'
'sep'
'sentiment'
'sensitive_'
'sensing_'
'senle_'
'seninki'
'seni'
'seneler'
'sened'
'senatör'
'semi'
'semen_'
'seme'
'sembolü'
'sem'
'sell'
'selamla'
'sektör'
'seksin_'
'seksi'
'sekli'
'sekizinci_'
'sekiz'
'seize_'
'sei'
'segment_'
'sefil_'
'seferlik_'
'seferinde_'
'sef'
'seek'
'sedi'
'section'
'sebze'
'sebebim'
'sebebi'
'seats_'
'sean'
'seal'
'scul'
'screw'
'screens_'
'screenplay_'
'screen_'
'scre'
'scratche'
'scot'
'scienti'
'schoolyard_'
'scholar'
'schn'
'scheduled_'
'scenario_'
'sce'
'scarc'
'scandal'
'scale_'
'sby_'
'sbe'
'sba'
'sb'
'sağı'
'sağolun_'
'sağlığı'
'sağlıyors'
'sağlıyor'
'sağlıkl'
'sağlayan_'
'sağlayacak_'
'sağlardı'
'sağlamak_'
'sağlam'
'saçım'
'saçı_'
'saçmalıklar'
'saçları'
'saçl'
'sayısı_'
'sayın_'
'sayım'
'sayılmam_'
'sayılma'
'saymı'
'sayma'
'saygımı'
'sayfası_'
'sayfada_'
'sayfa'
'sayacağım_'
'savunması'
'savuna'
'savun'
'savaşıyorlar_'
'savaşında_'
'savaştan_'
'savaşta_'
'savaşmayı_'
'savaşla'
'satışı_'
'satıyor_'
'satıyor'
'satmı'
'satmamı'
'satmak_'
'satma'
'satisfied_'
'satardı'
'satar'
'satan'
'satama'
'satabilir'
'sata'
'sarılı'
'sarıl'
'sarsı'
'sarma'
'sarayı'
'saray'
'sapık_'
'saptı'
'saplantı'
'sapla'
'sapan_'
'sanır'
'sani'
'sandığım'
'sandwich'
'sanc'
'sanatçıy'
'sanacak'
'sana'
'samples_'
'samimiyet'
'salı'
'salya'
'saloon_'
'salonundan_'
'sallaya'
'salladı'
'salgın_'
'sales_'
'saldırısı'
'saldırganl'
'saldırgan'
'saldırdığın'
'saldı'
'salakl'
'salad_'
'sakıncası_'
'sakın'
'saklıyordu'
'saklı'
'saklanıyor'
'saklanma'
'saklanacağım'
'saklana'
'sakladın_'
'saki_'
'sakat'
'sail_'
'sahipleri'
'sahile_'
'sahibiy'
'sahibim_'
'sahi_'
'sahi'
'sahay'
'sahasına_'
'saha'
'sade_'
'sade'
'sadd'
'sadakat'
'sack_'
'sabotage'
'sabahı_'
'sabaha_'
'saatli'
'saatlerin'
'saatlerde_'
'saatin'
'saatim_'
'saate_'
'rıyor_'
'rın'
'rımız'
'rıla'
'rıl'
'rıhtımda'
'rüşvet_'
'rüzgar'
'rüyam'
'rüyaları'
'rünü'
'rüm'
'rük'
'röportaj_'
'röntgen'
'rya_'
'rvati'
'rur'
'runs_'
'rumo'
'rule'
'ruj'
'ruin'
'ruhu'
'ruhsa'
'ruhani_'
'ruh'
'rug'
'ruc'
'rub'
'rtı'
'rtla'
'rti'
'rth'
'rtesi'
'rtan'
'rsunuz_'
'rson'
'rsi'
'rsem_'
'rs'
'rrel_'
'rra'
'rov'
'rous'
'round'
'rou'
'rot'
'roses_'
'ropho'
'rop'
'rooms_'
'romanı'
'romanlar'
'roll'
'roketler_'
'roket'
'rogue_'
'rocks_'
'roc'
'robots_'
'roam_'
'rnity_'
'rney_'
'rne'
'rmı'
'rmiş_'
'rmeye'
'rmek_'
'rmaya_'
'rmal'
'rm_'
'rleri'
'rler'
'rların'
'rları_'
'rl_'
'rkin'
'rj'
'riyor'
'riva'
'rity_'
'rite_'
'risky_'
'riskl'
'risin'
'ripp'
'rior_'
'rio'
'rinizi_'
'rini'
'ring'
'rimiz_'
'rimin'
'rien'
'riding_'
'ridi'
'ridge_'
'rica_'
'ria_'
'rhino'
'rga_'
'reğim'
'rezerv'
'rey_'
'revolution_'
'revolution'
'review_'
'revi'
'reverse'
'rever'
'returned_'
'rett_'
'rett'
'retrieve_'
'retm'
'retl'
'retin'
'rete_'
'retard'
'restrain'
'restore_'
'restoranı'
'restoran'
'ressed_'
'ress'
'resp'
'resimlerini_'
'resimleri'
'resimler'
'resign'
'reservation_'
'reserv'
'resemble'
'represent'
'reporter'
'replacing_'
'repeat'
'repay'
'rents_'
'rental_'
'renm'
'renk_'
'removed_'
'remove_'
'remiyet'
'remi'
'remark'
'remains_'
'religion_'
'reliev'
'releri'
'relax'
'relatives_'
'relationships_'
'relation'
'rela'
'rej'
'rehin_'
'rehearse'
'rehabilita'
'reh'
'regulation'
'register'
'refus'
'refresh'
'reflect'
'refere'
'refer'
'reduc'
'reddetti'
'recovery_'
'recovered_'
'recording_'
'recorde'
'reconstruct'
'reconsider_'
'recommendation'
'recogniz'
'reci'
'rech'
'rebuild'
'rebellion_'
'reasonable_'
'reas'
'reality_'
'realise_'
'reak'
'readings_'
'read'
'reached_'
'reac'
'rdığı'
'rdın_'
'rdü'
'rds_'
'rde_'
'rde'
'rchy_'
'rce_'
'rca'
'rağa_'
'rağ'
'razı_'
'rati'
'rası_'
'rastlan'
'rastlam'
'rary_'
'rarl'
'rare_'
'raporu_'
'raporların'
'rapor'
'raped_'
'rand'
'ramı'
'rali'
'rakun'
'rakl'
'rakip'
'rakamla'
'rakam'
'raise'
'rail_'
'raid'
'rahip_'
'rahibin_'
'rahibe'
'rahi'
'rahatlay'
'rahatlatır'
'rag_'
'raft_'
'radyo_'
'radyasyon'
'radiat'
'radarın'
'radar'
'rada'
'racket'
'rack_'
'race'
'rabilir_'
'rabbit_'
'quietly_'
'quicker_'
'quet'
'ques_'
'queer_'
'qualit'
'qualifi'
'pır'
'püskürt'
'pürüz'
'puts_'
'put'
'pussy_'
'push'
'pus'
'pursuit_'
'purposes_'
'purpl'
'purchase'
'puppy_'
'punishment_'
'punched_'
'punch'
'puff'
'pudd'
'public'
'ption'
'pta_'
'psychotic_'
'psychos'
'psycholog'
'psycho'
'pse_'
'pry_'
'provoke'
'providing_'
'prova_'
'protocol_'
'protection'
'prostitut'
'prospect_'
'pros'
'proposed_'
'proposal_'
'prophe'
'properly_'
'proper'
'pronounce_'
'pron'
'promotion_'
'prom_'
'projesi'
'project_'
'programını_'
'programımı'
'programı'
'programme'
'programlan'
'programla'
'profesyonel_'
'professor_'
'profession'
'profes'
'prof'
'production_'
'produce_'
'produce'
'produc'
'processed_'
'process'
'proceeding_'
'proceed_'
'procedures_'
'problemim'
'problem'
'probation_'
'proba'
'prizler'
'privilege_'
'privacy_'
'print_'
'principle'
'princ'
'primi'
'pride_'
'pric'
'preze'
'pretended_'
'pressi'
'press'
'presid'
'presents_'
'presentation_'
'prep'
'prenses'
'premonition'
'predicted_'
'preci'
'praying_'
'prayers_'
'prank'
'practical_'
'practic'
'ppy_'
'pping_'
'pped_'
'pozitif_'
'pozi'
'pow'
'postm'
'postalar'
'possession_'
'possessed_'
'posse'
'positions_'
'portra'
'pora'
'population_'
'popo'
'pom'
'politikacı'
'politician'
'politic'
'pole'
'pok'
'poc'
'plum'
'pleri'
'pleasant_'
'plea'
'players_'
'plastic_'
'plasti'
'plast'
'plas'
'plar_'
'planını'
'planım'
'plants_'
'plant'
'planlarım'
'planlar'
'planlan'
'planlamı'
'pland'
'plakl'
'plak_'
'plaj'
'pl'
'pişirse'
'pişiri'
'pişire'
'piçin_'
'piçi'
'pizza'
'piyasa'
'piyano'
'pisti_'
'pisti'
'pissing_'
'pisliği_'
'pislikt'
'pisliklerin'
'pislikle'
'pisl'
'pirinç_'
'pipes_'
'pipe_'
'pinpo'
'pink'
'pilot'
'pili'
'pile_'
'pieces_'
'pie'
'pid_'
'pick'
'photograph_'
'photograph'
'phone'
'phin'
'philosoph'
'phili'
'phen'
'phe'
'pharmac'
'phan'
'pha'
'ph_'
'peşimiz'
'peynir_'
'pete'
'pet'
'pesticide_'
'pest_'
'pes'
'pervert_'
'perv'
'pert_'
'persons_'
'person'
'perp'
'permit'
'performe'
'perform'
'perdeleri_'
'perdel'
'perde'
'pepper'
'penisin'
'penis'
'peni_'
'penguen'
'penetrat'
'pend'
'pencereyi_'
'penalt'
'pembe_'
'peg'
'peep'
'pediatrician_'
'peda'
'pective_'
'peck_'
'pear'
'peanut_'
'pea'
'pazarlık'
'payı'
'paylaşıyor'
'paylaşır'
'paylaş'
'pattern'
'patlayıcılar'
'patlayan_'
'patlaya'
'patlaması'
'path'
'paten'
'pata'
'pastası'
'password'
'passes_'
'pasaport'
'parçasını_'
'parçasın'
'parçalay'
'parçalar_'
'parçalar'
'parçalanmış'
'parçal'
'parçacı'
'parça'
'partners_'
'partis'
'partileri'
'particular_'
'participa'
'part'
'parfüm_'
'paras'
'paranı_'
'paranoid_'
'paran_'
'paramı_'
'paramet'
'paramedic'
'pape'
'papaz_'
'pantolonu'
'panel_'
'panel'
'pana'
'pan_'
'palyaço'
'palt'
'paketley'
'paketin'
'paketi'
'painful'
'pai'
'pahasına_'
'pag'
'pact_'
'pack'
'oş_'
'oğulların'
'oğlunun_'
'oğlunu_'
'oğlunu'
'oğlumu_'
'oğluma_'
'oğlum'
'oğlanlar'
'oğlan'
'oğ'
'oç'
'oyunları_'
'oyunlar_'
'oyunlar'
'oyunda_'
'oyund'
'oyuncun'
'oyuncul'
'oyuncak'
'oynuyordu_'
'oynayaca'
'oynarken_'
'oynan'
'oynamas'
'oye'
'oyalan'
'oxy'
'oxide_'
'ows'
'owners'
'own'
'ovic'
'overw'
'overlooking_'
'overhear'
'overcome_'
'oval_'
'outrage'
'outl'
'outf'
'outcome_'
'ouse_'
'ous'
'ounce'
'ought'
'ough_'
'otuz_'
'oturuyoru'
'otururken_'
'oturur_'
'otursana_'
'oturması'
'oturmak_'
'oturduğu'
'otur'
'ott'
'ots_'
'otor'
'otop'
'otom'
'otobüsü_'
'otobüse_'
'otobüs'
'otine_'
'oter'
'otelin_'
'otele_'
'otel_'
'oso'
'osl'
'osit'
'oru'
'ortamı'
'ortalığı_'
'ortalıkta'
'ortalı'
'ortalar'
'ortal'
'ortaklı'
'orta'
'ors'
'orrh'
'ormu'
'ormanın_'
'ormanı'
'ormanda_'
'orman_'
'orman'
'orking_'
'ork'
'origin'
'orie'
'orgazm_'
'organlar'
'organized_'
'organize_'
'organization_'
'organis'
'ores'
'ordusunun_'
'ordusu'
'orduda'
'ordina'
'ordan_'
'orchestra'
'orat'
'orasyon'
'oras'
'oralarda'
'oral_'
'orada'
'ora'
'optim'
'oppose'
'opi'
'operate_'
'opera'
'opens_'
'oot'
'ook_'
'oo_'
'onuru'
'onurl'
'onu'
'onto_'
'ont_'
'ont'
'onomi'
'oniu'
'onis'
'onez'
'onaylamıyor'
'onay'
'onate'
'onarı'
'omzun'
'omurga'
'omu'
'oms_'
'omp'
'omlet'
'ometr'
'omen'
'olv'
'oluşuyor'
'oluşturuyor'
'oluşturu'
'oluşturdu'
'oluştura'
'oluşan_'
'oluş'
'oluyoruz_'
'oluyorlar_'
'oluyordu'
'oluver'
'olursak_'
'olurduk_'
'olunma'
'oluna'
'olu_'
'olt'
'olsunlar_'
'olsalar'
'olojik_'
'oloji'
'ology_'
'ologi'
'olmuşsun'
'olmazdım_'
'olmaz'
'olmayacağım_'
'olmayacaktır_'
'olmayacaksın_'
'olmayaca'
'olmasından_'
'olmasa'
'olmamıştı'
'olmamı'
'olmamalıydı'
'olmamalı_'
'olmama_'
'olmam'
'olmalıy'
'olmalarını_'
'olmaları_'
'olmakla_'
'olmak'
'olmadığında'
'olmadığımız'
'olmadın'
'olma'
'ollar'
'oll'
'oline_'
'olin'
'olduğunu'
'olduğumuz'
'olduğumda'
'olduğuma_'
'oldukların'
'oldukları_'
'olağanüstü_'
'olayların_'
'olayları'
'olaylar'
'olayla_'
'olat'
'olasılığı'
'olasılık'
'olanın'
'olanlara_'
'olana'
'olamıyor'
'olamayacağım'
'olamam_'
'olamadı'
'olacağından_'
'olacağıma_'
'olacaksa_'
'olacaksa'
'olacaklar_'
'olabilmek_'
'olabileceğimi_'
'olabileceğim'
'olabilece'
'olabildiğin'
'olab'
'ola_'
'okşama'
'okuyacak'
'okunu'
'okun'
'okumuştum_'
'okumuş_'
'okullarda'
'okuduğu'
'okudu'
'oksijen'
'oj'
'oin'
'ogra'
'oge'
'oga'
'ofth'
'ofisinde'
'ofis'
'offs'
'offense_'
'offended_'
'offend_'
'offend'
'oe_'
'oe'
'odore_'
'odds_'
'odaya_'
'odasın'
'odanın_'
'odalarda'
'od_'
'ocu'
'oce'
'occasional'
'occasion'
'oca'
'obsessi'
'observation_'
'observ'
'obliged_'
'obl'
'objective_'
'objection'
'obje'
'oath_'
'oat'
'oar'
'nızla_'
'nız'
'nını'
'nın'
'nı'
'nüze'
'nüzde_'
'nç'
'nz'
'nya_'
'nya'
'nus'
'nursing_'
'nurses_'
'nurs'
'nuo'
'numarayı'
'numaranı'
'numaram_'
'numarada'
'num_'
'nude'
'ntısı_'
'ntıları'
'ntly_'
'ntive_'
'nting_'
'nth_'
'nsl'
'nship_'
'nse'
'novels_'
'novel_'
'nov'
'nous_'
'notlar'
'notion'
'nostal'
'nose'
'noo'
'nonsense_'
'non'
'nomi'
'noktası_'
'noktamı'
'noktaları_'
'nok'
'noises_'
'nni'
'nnet'
'nn'
'nmen'
'nması'
'nmanın_'
'nmamış_'
'nmak_'
'nlığı_'
'nly_'
'nlerin'
'nleri_'
'nler'
'nların_'
'nları'
'nlarda'
'nlar'
'nky_'
'nks'
'nka'
'nişanın'
'nişanı'
'nişanlım_'
'nişancı'
'nizde'
'niyetli'
'niyetinde_'
'niyetim'
'niyet_'
'niye'
'niti'
'nit'
'nir'
'nip'
'nio'
'ning'
'nim'
'nihayet_'
'night'
'nigger_'
'niece_'
'nibal_'
'nhe'
'nha'
'ngı'
'ngt'
'ngen_'
'neşem'
'neşeli_'
'neşe_'
'neğ'
'nezle'
'neyin'
'neyi'
'newspaper_'
'new'
'neur'
'neu'
'nesli'
'nerel'
'neredeydin'
'neredeydi_'
'neredesin_'
'nerede'
'nerd'
'nem'
'nell_'
'neighbor'
'negotiations_'
'negative_'
'negatif'
'nefesini_'
'nefesi'
'need'
'nedi'
'nedenin'
'nedeni'
'nedenden_'
'neden'
'necessarily_'
'necek_'
'neb'
'ndırı'
'ndıra'
'ndık'
'ndı'
'ndü'
'ndon'
'nding_'
'ndeyi'
'nded_'
'nci'
'nche'
'nch_'
'nce'
'nbu'
'nber'
'nazik'
'naz_'
'nate_'
'nasıl'
'nasti'
'nas'
'narrow'
'nap'
'nano'
'nanny_'
'name'
'namaz'
'nam_'
'nakli_'
'nakl'
'nai'
'nadiren_'
'nadir_'
'nad'
'mışız_'
'mışsınız_'
'mışsın_'
'mışsın'
'mızdan_'
'mıyorsunuz_'
'mıydınız_'
'mıdır_'
'müştü_'
'müşteride'
'müş'
'müziği'
'müzikle_'
'müzik'
'müze'
'müzayede'
'müydü'
'müvekkili'
'müttefik'
'müthiş_'
'mütea'
'müte'
'müst'
'mürettebatı'
'mürettebat_'
'müraca'
'mümkün'
'mükemmeldi_'
'mühendis'
'müdürü_'
'müdürü'
'müdür'
'müdahale_'
'müd'
'mücevherleri'
'mücadele'
'myth_'
'mw'
'muştu'
'muşsunuz_'
'muşsun_'
'muş'
'muza_'
'muyor_'
'mutsuz'
'mutlulu'
'mutfağı'
'mutfakta'
'mutfa'
'mute_'
'mustn_'
'mustache_'
'musician'
'mush'
'museum_'
'musc'
'mus_'
'murdere'
'mund'
'munch'
'mumu'
'multiple_'
'muhtemel_'
'muhta'
'muhabbet'
'muamelesi_'
'msu'
'mster'
'mse_'
'mrs_'
'mpy_'
'mpt'
'move'
'motoru'
'motivation'
'mother'
'mos'
'morphi'
'moron_'
'morgue_'
'moral'
'mop'
'mont'
'mono'
'monk'
'monitor_'
'monit'
'mom'
'mole'
'mola_'
'mois'
'mog'
'moder'
'modell'
'moda'
'mmin'
'mme_'
'mlı_'
'mleri'
'mişti'
'mişsin_'
'mişsin'
'mizle_'
'miyor'
'miydim_'
'miydi'
'miy'
'mix_'
'mix'
'misyon'
'misti'
'mistaken_'
'mist'
'missiles_'
'mise'
'misal'
'misafiri'
'misafir_'
'miracle_'
'mira'
'mint_'
'mino'
'minnet'
'minist'
'minibüsü'
'mineral'
'mim'
'milyonlar'
'milyar'
'million'
'mill_'
'mill'
'mile'
'mild'
'miktarın'
'mikt'
'mikrofonu'
'mike_'
'migra'
'midesi'
'mide_'
'mic_'
'mia'
'mh'
'mg_'
'meşhur_'
'meğ'
'mezsen_'
'mezdi'
'mezarında'
'mezarl'
'mezar'
'meyv'
'meyen'
'meyeceğini'
'meyecek'
'meydan_'
'mevcut'
'metro'
'metredey'
'metred'
'metre'
'meti'
'meteor'
'metal'
'meta'
'messed_'
'meslek'
'mesini_'
'mesen'
'meselesi_'
'meselelerin'
'mesela_'
'mesajı'
'mesafede'
'mert'
'mers'
'merkezler'
'merkezinde_'
'merkezin'
'merkezde'
'merhamet_'
'merdivenler'
'merdiven_'
'mercy_'
'meraklı_'
'merakl'
'merak'
'menzil'
'menta'
'ment'
'mend'
'memuru'
'memurları'
'memur_'
'memori'
'memnunu'
'memnun'
'memiş_'
'memiz'
'memel'
'meliy'
'meleğim_'
'meleri'
'meler_'
'mektubun_'
'mekten_'
'meki'
'meetin'
'meet'
'mediği'
'mediocr'
'medica'
'medeniyeti'
'medals_'
'mechanism'
'mechanic_'
'mechanic'
'mecbur_'
'meas'
'meantime_'
'meaning'
'mdeki_'
'mdaki'
'mcıl'
'mbl'
'mba'
'maşır'
'mağaza'
'mağa'
'mağ'
'maçı_'
'maçları'
'mazs'
'mazlar'
'mazdı'
'mayın_'
'mayacak_'
'maximum_'
'mau'
'matt'
'matrix_'
'mating_'
'mathematician_'
'mates_'
'material'
'matemati'
'mated_'
'mata'
'masın'
'masturba'
'masters'
'massa'
'mass'
'masasında'
'masası_'
'masas'
'masan'
'masaj_'
'masa_'
'marvelous_'
'maruz_'
'marshmallow'
'marshal_'
'marrying_'
'marka_'
'marine_'
'margarita'
'marg'
'mara'
'manyak'
'manual'
'mantık_'
'mantık'
'mantar'
'mant'
'mans'
'mann'
'manip'
'manif'
'maniac'
'mani_'
'maneuver'
'management_'
'manag'
'mamız'
'malısın_'
'malzemeyi_'
'malo'
'malları_'
'malla'
'malikane'
'mali_'
'mali'
'malar'
'makyaj'
'makul_'
'maktan_'
'makta'
'maks'
'majest'
'maintain'
'main'
'mahvedi'
'mahvede'
'mahkûm'
'mahkemeye_'
'mahkemede'
'magnetic_'
'magn'
'magazines_'
'magazine_'
'mag'
'madığın'
'madığı'
'madın_'
'madness_'
'maden'
'madem'
'madde'
'madan_'
'madalya'
'macho_'
'machines_'
'maaşl'
'maaş_'
'maalesef_'
'lığıyla_'
'lığında_'
'lığına_'
'lığın_'
'lığın'
'lığımı_'
'lıyordu_'
'lıydın_'
'lıydı_'
'lıydı'
'lıya_'
'lısınız_'
'lır'
'lın'
'lıktan_'
'lıkt'
'lüğünden_'
'lüğüm'
'lülü'
'lüks_'
'lâzım_'
'lyon'
'lyn_'
'lve'
'luğumu'
'lusu_'
'lur_'
'lup_'
'luktan_'
'luklar'
'luk'
'lude'
'luc'
'lsa'
'loyal_'
'lovers_'
'lous_'
'lous'
'lordum_'
'lor_'
'lop'
'looting_'
'loose'
'loop_'
'longest_'
'loneliness_'
'lone'
'lon'
'logy_'
'lodge_'
'locate'
'loca'
'ln_'
'lmüş'
'lmuş_'
'lmeyi_'
'lmem'
'lmasını'
'llor_'
'llic'
'lleri'
'lları'
'llar'
'lla'
'liğini'
'liğim'
'liyordu'
'liydim_'
'liydi_'
'liy'
'litre_'
'litera'
'listi'
'listesini_'
'listesinde_'
'listesi'
'lisin'
'lisans'
'lis_'
'lire'
'lir_'
'lir'
'lions_'
'link'
'lini_'
'lini'
'lings_'
'lineup_'
'lind'
'lina'
'limon'
'lima'
'lili'
'lil'
'likte'
'likl'
'lighter_'
'lift'
'liest_'
'lie'
'lider'
'lid_'
'lid'
'lice_'
'lib'
'liar'
'lian'
'liament'
'lh'
'lf'
'leştirm'
'leşe'
'leyi_'
'leyebilir'
'leydi_'
'leyb'
'leve'
'lets_'
'letm'
'letl'
'lete'
'lese'
'lerinizi_'
'leriniz_'
'lerindeki_'
'lerimizin_'
'lerim'
'leri'
'lerde'
'lerce_'
'lera'
'leprechauns_'
'leopar'
'leni'
'leng'
'lene'
'lendiği'
'lendirici_'
'lendi_'
'lemon_'
'lem_'
'lel'
'lei'
'lehe'
'lee'
'leceğini_'
'learning_'
'leak_'
'league_'
'leadership_'
'ldığında'
'ldığın'
'ldü'
'ldu_'
'ldiği'
'lde_'
'lc'
'lb'
'laştırı'
'laşmış_'
'laşm'
'laş'
'lazanya_'
'lawsuit'
'laws_'
'launche'
'launch_'
'lasın_'
'lasting_'
'lass_'
'las_'
'ların'
'larımızı_'
'larımız'
'larımın_'
'larım'
'lars_'
'larin'
'larda'
'larca_'
'lant'
'lanmış'
'lanetli'
'landı'
'landed_'
'lanc'
'lamış'
'lamı'
'lame_'
'lambasın'
'lamb'
'lak'
'laha'
'lah_'
'lah'
'laflar'
'ladık'
'lads_'
'lacak_'
'laboratuar'
'labor'
'labilir'
'kıçınızı'
'kıçım'
'kıçlı_'
'kızını'
'kızımı'
'kızsı'
'kızmış'
'kızdı_'
'kızda'
'kızartması_'
'kıyısında_'
'kıymetli'
'kıyaslan'
'kıyafetlerini_'
'kıyafetler'
'kıvılcım'
'kıt'
'kısıtlı'
'kısmına_'
'kısmın'
'kıskanıyorum_'
'kıskanı'
'kıskandı'
'kıskan'
'kırıldı'
'kırıla'
'kırıl'
'kırıklığı_'
'kırsal'
'kırmı'
'kırdın_'
'kırd'
'kılık'
'kılı'
'kıllı'
'kıllar'
'kı_'
'küçüms'
'küçü'
'kütüphane'
'küt'
'kürek'
'kün'
'külot'
'kü'
'köşeye_'
'köşe_'
'köy_'
'kötüsün'
'kötülük_'
'köste'
'köprüy'
'köpekleri_'
'köpekbalı'
'köpek'
'köp'
'köle_'
'kökl'
'köken'
'kök'
'kçi'
'ky'
'kuşlar'
'kuşkuluyum_'
'kuşku'
'kuşa'
'kuş'
'kuzeye_'
'kuzenim_'
'kuyruğu'
'kuyrukl'
'kuvvetlerin'
'kuvvetle'
'kuvveti_'
'kutuy'
'kutusunda_'
'kutluyor'
'kutlamak_'
'kutla'
'kusursuz'
'kusur'
'kurşun_'
'kuruyor_'
'kurulu'
'kurtulu'
'kurtuldu_'
'kurtu'
'kurtlar'
'kurtarıl'
'kurtarı'
'kurtarmal'
'kurtaracak'
'kurt'
'kurmuş'
'kurmam'
'kurmak'
'kurduğu'
'kurdun_'
'kurbanını'
'kurbanlar'
'kuralı'
'kurallarım'
'kurallar_'
'kurallar'
'kurabiyeleri'
'kura_'
'kumlar'
'kum_'
'kulüpte_'
'kulübün'
'kulübü'
'kullanıyorum_'
'kullanıyorsun_'
'kullanıyorlar_'
'kullanırs'
'kullanır_'
'kullanımı'
'kullanıla'
'kullanıl'
'kullans'
'kullanmış'
'kullanmayacağı'
'kullanman'
'kullanmam_'
'kullanmadı'
'kullandığın_'
'kullandığımı'
'kullandım_'
'kullana'
'kulaklar'
'kudret'
'kuaför_'
'ktör_'
'ktiğimin_'
'ktense_'
'ksü'
'ksgiving_'
'kri'
'kremalı_'
'krem'
'kravat'
'kratik_'
'kralı'
'koşuyor'
'koşullar_'
'koşu'
'koşarak_'
'koşa'
'koş'
'koyuyor'
'koyup_'
'koyul'
'koymuş'
'koymaya_'
'koymay'
'koyduğunu'
'koyduğu'
'koydular_'
'koydu_'
'koyars'
'koyar'
'koyalım_'
'koyacağı'
'koyabil'
'koya'
'koy'
'kovalar'
'kova_'
'kota'
'koruyucu'
'koruyor'
'koruyama'
'korunma'
'koruman_'
'korudu'
'koru_'
'korkuyordum_'
'korkutmak_'
'korkusunu'
'korkun_'
'korkmuştum_'
'korkmuş'
'korkmadı'
'korkma_'
'korkarı'
'korkak_'
'koridor'
'kopi_'
'koparma'
'kopar'
'koordinatlar'
'konuşun_'
'konuştuğunu_'
'konuştuğum'
'konuşsun_'
'konuşmuyorum_'
'konuşmuyor'
'konuşmaz_'
'konuşmaz'
'konuşmayı_'
'konuşmay'
'konuşmasın'
'konuşması_'
'konuşmanın_'
'konuşmanı_'
'konuşman'
'konuşmamı_'
'konuşmama'
'konuşmadı_'
'konuşan_'
'konuşamaz'
'konuşama'
'konuşacak_'
'konuşacak'
'konuşabilirsin_'
'konuşabileceğimiz_'
'konuşabileceği'
'konuşabil'
'konuya_'
'konuy'
'konus'
'konuları_'
'konular_'
'konula'
'konuklar'
'konta'
'konser'
'kong'
'kond'
'konakl'
'komşusu'
'komşun'
'komşum'
'komşular'
'komutanı_'
'komuta_'
'komut'
'komitesi'
'kolye'
'kolun'
'kolum_'
'koltuk'
'kollarında'
'kolların'
'kolla'
'koll'
'kolej'
'kole'
'kolaylaştırı'
'kolaydı'
'kokuyor'
'kokusunu_'
'kokusu_'
'koku_'
'kokma'
'kodu_'
'kodla'
'kod_'
'kod'
'kocasın'
'kocanız_'
'kocanın_'
'kocan'
'kocalar'
'knob'
'knitting_'
'knight'
'knees_'
'kn'
'kmiş_'
'klo'
'klinik'
'klet'
'klerin_'
'klerim'
'klerde'
'kled'
'klarıyla_'
'klarından_'
'klarında_'
'kların_'
'klarımı'
'klarım_'
'kka'
'kişiy'
'kiz'
'kiya'
'kiy'
'kitaplar_'
'kitapla'
'kitap'
'kitabında_'
'kitabın'
'kitab'
'kirletmen'
'kirlenm'
'kirle'
'kiralama'
'kinle'
'kimyas'
'kimsin_'
'kimliği_'
'kimli'
'kimim_'
'kime_'
'kimde'
'kilometre'
'kilol'
'kill'
'kilitli_'
'kilitleye'
'kilit_'
'kiliseye_'
'kilisesin'
'kilidin'
'kili'
'kilere_'
'kidney'
'kidnap'
'kicks_'
'kho'
'kh'
'kg_'
'keşif_'
'keşfettim_'
'keşfed'
'keş'
'keyif'
'key'
'keti'
'kestirme_'
'kest'
'kesmiş'
'kesmey'
'kesmeli'
'kesik'
'kesici_'
'kesece'
'kerchief_'
'kendisinin_'
'kendisine_'
'kendisi'
'kendiniz'
'kendimiz'
'kendiminki'
'kendileri'
'kenarın'
'kemikler'
'kemer'
'keman_'
'kelimeyle_'
'kelimeyi_'
'kelimesi'
'kelime'
'keley'
'kekler'
'kefale'
'keeper_'
'kede'
'kaşığı'
'kaşın'
'kağıt'
'kağıdı'
'kaçıyorum_'
'kaçırılm'
'kaçırma_'
'kaçırdığın'
'kaçırdığı'
'kaçırdınız_'
'kaçırama'
'kaçıraca'
'kaçır'
'kaçtığını_'
'kaçta'
'kaçmış_'
'kaçağı'
'kaçan'
'kaçama'
'kaçakçı'
'kaçacak_'
'kazağı'
'kazay'
'kazası_'
'kazar'
'kazanıyor_'
'kazanıyor'
'kazanırsa'
'kazanç'
'kazanmak_'
'kazanma'
'kazandığını'
'kazandığım'
'kazandın_'
'kazanan_'
'kazanama'
'kazanacaksın_'
'kazanacak_'
'kazanaca'
'kazanabil'
'kaz'
'kayıtlarına_'
'kayıt'
'kayıp'
'kaynıyor_'
'kaynakları_'
'kaynak'
'kaydını_'
'kaydetti'
'kaybolursa'
'kaybolduğun'
'kaybol'
'kaybettiğimi'
'kaybetmiş_'
'kaybetmiş'
'kaybetmeyi'
'kaybediyoruz_'
'kaybediyorum_'
'kaybeders'
'kaybederi'
'kaybeder'
'kaybedecek_'
'kaybedece'
'kaybede'
'kayalar_'
'kaya_'
'kay_'
'kay'
'kavuş'
'kavu'
'kava'
'katılıyorum_'
'katılmıyor'
'katılması'
'katıldı'
'katılaca'
'kattan_'
'katta_'
'katmı'
'katli'
'katledildi'
'katle'
'katlanabili'
'katl'
'katkı'
'katil'
'kategori'
'kated'
'kata_'
'kastettiği'
'kastetm'
'kastedi'
'karşıtı'
'karşımız'
'karşıma_'
'karşılıklı_'
'karşılaştığım'
'karşılaşmış'
'karşılaşa'
'karşılar'
'karşıladı_'
'karışıklık_'
'karışık_'
'karıştırı'
'karıştırmay'
'karıştır'
'karışmış'
'karışm'
'karısın'
'karını'
'karımı_'
'kartları'
'kart_'
'karnı'
'kariyerin'
'kargaşa_'
'kardeşlerimi'
'kardeşlerim'
'kardeşimiz'
'kardeş'
'karda_'
'kard'
'karası'
'kararını_'
'kararlar'
'karan'
'karakterler'
'karakterini'
'karakolu'
'kapıya_'
'kapısı'
'kapın'
'kapılmış'
'kapılma'
'kapıldı'
'kapıları_'
'kapılar'
'kaptı'
'kaptanı_'
'kaptan'
'kaps'
'kapma'
'kaplumbağa'
'kapağı_'
'kapatıyor'
'kapatalım_'
'kapataca'
'kapana'
'kapan'
'kaos'
'kanıtı'
'kanıtlayabil'
'kanıtlar_'
'kanıtlamak_'
'kanıtlama'
'kanın'
'kanım'
'kanlı_'
'kanepe'
'kandırm'
'kanca'
'kanaması_'
'kanama_'
'kamı'
'kamyoneti'
'kampın'
'kampanya_'
'kampa'
'kamerası'
'kameram'
'kamer'
'kalırı'
'kalırsın_'
'kalırsa'
'kalıntısı'
'kalıbı_'
'kalı_'
'kalp'
'kalmıştı'
'kalmıyor'
'kalmayı_'
'kalmayacak_'
'kalmayaca'
'kalmadığın'
'kall'
'kalks'
'kalkan'
'kalkacak_'
'kalk'
'kalibre'
'kalem'
'kale_'
'kaldığını_'
'kaldığımız_'
'kaldırır'
'kaldırım'
'kaldırmay'
'kalbinin_'
'kalbimde_'
'kalbim_'
'kalbim'
'kalar'
'kalanları'
'kalanlar_'
'kalamaz'
'kalamam_'
'kalacağız_'
'kalacağını'
'kalacaksınız_'
'kalacaksın_'
'kalaca'
'kalabilirs'
'kalabalık_'
'kalabalı'
'kahve'
'kahvaltıda'
'kahvaltı'
'kafe'
'kafasının_'
'kafasın'
'kafanın_'
'kafana_'
'kafan'
'kafalı'
'kadınım'
'kadınlar'
'kadın'
'kader'
'kadarki_'
'kabus_'
'kabus'
'kabu'
'kabin'
'kabil'
'kabadayı'
'jı'
'jy'
'juv'
'justi'
'jungle_'
'jumping_'
'jumped_'
'jumpe'
'jul'
'jud'
'ju_'
'journal_'
'jona'
'jolly_'
'jokes_'
'joint_'
'joining_'
'join'
'john'
'jewelry_'
'jevo_'
'jen'
'jde'
'jama'
'jai'
'jack_'
'işçileri'
'işçil'
'iştir'
'işti'
'iştey'
'iştah'
'işsiz_'
'işli'
'işlet'
'işlerd'
'işlemiş_'
'işlediğini'
'işlediği'
'işle_'
'işinde_'
'işin'
'işimize_'
'işg'
'işbirliği_'
'işa'
'iğren'
'iğney'
'iğinde'
'iğin'
'iğimiz'
'iğe_'
'içtik'
'içti'
'içten_'
'içmiyoru'
'içmek_'
'içlerinden_'
'içkiy'
'içkil'
'içini_'
'içindeyi'
'içinde'
'içimi'
'içimde_'
'içgüdüler'
'içersin'
'içerme'
'içeriyor'
'içecek_'
'iznin'
'izni_'
'izliyorum_'
'izliyorsun_'
'izli'
'izleyin_'
'izleyebilir'
'izleye'
'izlet'
'izlerini_'
'izlerin_'
'izlemeyi_'
'izlemeye_'
'ized_'
'izdi'
'izc'
'iyordu_'
'iyor'
'iyiyiz_'
'iyiydim_'
'iyim_'
'iyiliğin'
'iyileşecek_'
'iyetle'
'iyetin'
'iyetim'
'iyet'
'iyeni'
'iydim_'
'iydi_'
'ivali'
'ius_'
'itt'
'itle'
'itl'
'itin_'
'itel'
'ited'
'itch_'
'itc'
'ita_'
'isto'
'istiyormuş'
'istir'
'istin'
'istic'
'isteyi'
'isteyebilirsin_'
'isteyebil'
'isteseydi'
'istes'
'isterse_'
'isterlerse_'
'istenme'
'istemişti'
'istemiş_'
'istemiş'
'istemiyoruz_'
'istemiyorlar_'
'istemiyor'
'istemezdim_'
'istemez_'
'istemeyece'
'istemesi_'
'istemes'
'istememiştim_'
'istediğinizi_'
'istedikleri_'
'istedikleri'
'istan_'
'istan'
'ista'
'issue_'
'ispat_'
'ismin_'
'ismin'
'isle'
'isiyle_'
'isini'
'isimleri_'
'isim'
'isi'
'isc'
'isat'
'isan'
'irti'
'irsiniz_'
'irse'
'irrita'
'irmi'
'irma'
'irli_'
'irdim_'
'irdi_'
'iradesi'
'ips'
'ipote'
'ipler'
'ipi_'
'ipek'
'iot'
'ional_'
'iona'
'inç_'
'iny'
'involve'
'invisible_'
'invi'
'invasion_'
'inv'
'interviews_'
'interv'
'interrupt_'
'interrupt'
'interp'
'internette_'
'internet_'
'internal_'
'intern_'
'intercourse_'
'intercept'
'intentions_'
'intention_'
'intended_'
'intend'
'intelligent_'
'integra'
'insu'
'instruction_'
'institution_'
'instan'
'inspecti'
'insp'
'inso'
'insec'
'insanlık_'
'insanlı'
'insanları'
'insanlard'
'insani'
'ins'
'inn_'
'inm'
'ink'
'injuries_'
'injur'
'inject'
'inj'
'inize_'
'iniz'
'iniyoru'
'iniy'
'initiate'
'initial'
'init'
'inin'
'ingt'
'inger_'
'informed_'
'info'
'influence_'
'influ'
'infi'
'infer'
'infection_'
'infant'
'infa'
'iner'
'inem'
'inel'
'inek'
'inef'
'industr'
'indulge'
'individual'
'indirim'
'independent_'
'indeki_'
'inda_'
'inda'
'increasing_'
'inconsiderate_'
'inco'
'include'
'incl'
'incitmey'
'incine'
'incelik'
'inceleyece'
'inceler'
[...]
