'<pad>_'
'<EOS>_'
' , _'
' ._'
'the_'
'._'
'to_'
'of_'
'yang_'
''_'
'-_'
', _'
'a_'
'in_'
'and_'
's_'
'_'
'dan_'
'di_'
'I_'
'?_'
'that_'
'is_'
'you_'
'on_'
'itu_'
'ini_'
'untuk_'
'dari_'
'it_'
'The_'
'dengan_'
'for_'
'pada_'
'akan_'
'said_'
'- _'
'tidak_'
'!_'
'was_'
'. _'
'dalam_'
',_'
'with_'
't_'
'be_'
'at_'
'an_'
'this_'
'from_'
'saya_'
'by_'
'have_'
'are_'
'as_'
'we_'
'mereka_'
'kita_'
'ke_'
'he_'
'not_'
'adalah_'
'orang_'
'Anda_'
'Aku_'
'can_'
'And_'
'tahun_'
'will_'
'bisa_'
'You_'
'tersebut_'
'It_'
'they_'
'1_'
'has_'
'me_'
'aku_'
'were_'
'persen_'
'lebih_'
'which_'
'kata_'
'ada_'
'had_'
'm_'
'menjadi_'
'bahwa_'
'percent_'
'dapat_'
' -- _'
'kau_'
'or_'
'2_'
'do_'
'telah_'
'juga_'
'but_'
'one_'
'dia_'
'up_'
'Indonesia_'
'nya_'
'would_'
'satu_'
're_'
'about_'
'all_'
'We_'
'Dan_'
'6_'
'karena_'
'what_'
'their_'
'ing_'
'AS_'
'year_'
'my_'
'out_'
'his_'
'atau_'
'e_'
'seperti_'
'ed_'
'Saya_'
'apa_'
'there_'
'who_'
'its_'
'here_'
'oleh_'
'mengatakan_'
'd_'
'been_'
'..._'
'kami_'
'know_'
'so_'
'5_'
'3_'
'i_'
'your_'
'saat_'
'just_'
'like_'
'harus_'
'people_'
'after_'
' ?_'
'hal_'
'2007_'
'more_'
'also_'
'when_'
'first_'
'y_'
'This_'
'Bank_'
'He_'
'0_'
'tahu_'
'two_'
'time_'
'tak_'
'What_'
'sangat_'
'PT_'
'setelah_'
'hanya_'
'kan_'
'negara_'
'n_'
'sebagai_'
'get_'
' : _'
'sebuah_'
'So_'
'melakukan_'
'them_'
'per_'
'US_'
'sudah_'
'if_'
'baik_'
'atas_'
'Kau_'
'don_'
'Ini_'
'dua_'
'banyak_'
'4_'
'lalu_'
'besar_'
'lain_'
'But_'
'memiliki_'
'no_'
'dolar_'
'... _'
'us_'
'kepada_'
'government_'
'Apa_'
'into_'
'semua_'
'other_'
'last_'
'ketika_'
'membuat_'
'over_'
'Dia_'
'right_'
'saja_'
'masih_'
'now_'
'lagi_'
'very_'
'beberapa_'
'baru_'
'pertama_'
'our_'
'hari_'
'terjadi_'
'pertandingan_'
'ingin_'
've_'
'9_'
'only_'
'ia_'
'benar_'
'could_'
'than_'
'because_'
'bagi_'
'secara_'
'go_'
'es_'
'rupiah_'
'Tidak_'
'think_'
'sama_'
'A_'
'10_'
'll_'
'some_'
'dunia_'
'bank_'
'world_'
'r_'
'7_'
'katanya_'
'tentang_'
'anak_'
'Oh_'
'she_'
'seorang_'
'000_'
'8_'
'waktu_'
'pemerintah_'
'him_'
'going_'
'Kami_'
'kembali_'
'o_'
'back_'
'her_'
'want_'
'2006_'
'No_'
'They_'
'these_'
'Jadi_'
'see_'
'That_'
'mencapai_'
'BI_'
'2008_'
'three_'
'Jakarta_'
'merupakan_'
'years_'
'terhadap_'
'Kita_'
'tempat_'
'way_'
'mungkin_'
'triliun_'
'got_'
'melihat_'
'kedua_'
'selama_'
'In_'
' / _'
'trillion_'
'how_'
'down_'
'jika_'
'Mereka_'
'make_'
'para_'
'sebesar_'
'still_'
'sehingga_'
' , " _'
'l_'
'anda_'
'sekitar_'
'second_'
'bukan_'
'take_'
'sini_'
' ? _'
'good_'
'k_'
'then_'
'tapi_'
'really_'
'rate_'
'tim_'
'new_'
'h_'
'before_'
'Itu_'
'billion_'
'Amerika_'
'did_'
'miliar_'
'state_'
'namun_'
'told_'
'er_'
'Rp9_'
'berada_'
'need_'
'tiga_'
'sekarang_'
'ng_'
'man_'
'where_'
'through_'
'pernah_'
'antara_'
'mu_'
'There_'
'pergi_'
'air_'
'against_'
'made_'
'set_'
'hidup_'
'pemain_'
'menit_'
' . "_'
'Ya_'
'punya_'
'hingga_'
'bulan_'
'Yeah_'
'angka_'
'Tapi_'
'sendiri_'
'luar_'
'sedang_'
'ku_'
'30_'
'20_'
'country_'
'al_'
'company_'
'bagian_'
'pasar_'
'off_'
'kali_'
' ( _'
'mana_'
'ekonomi_'
'day_'
'come_'
'juta_'
'akhir_'
'should_'
'million_'
'between_'
'well_'
'sampai_'
'ya_'
'salah_'
'masalah_'
' " _'
'much_'
'around_'
'lakukan_'
'China_'
'"_'
'say_'
'dilakukan_'
' $ _'
'mulai_'
'belum_'
'cukup_'
'100_'
'tetapi_'
'any_'
'tinggi_'
'If_'
'melalui_'
'mengenai_'
'15_'
'diri_'
'tetap_'
' ) _'
'sebelumnya_'
'kamu_'
'four_'
'si_'
'same_'
'ly_'
'rumah_'
'something_'
'market_'
'lainnya_'
' ' _'
'United_'
'Namun_'
'even_'
'Well_'
'Wednesday_'
'sesuatu_'
'kecil_'
'menggunakan_'
'many_'
'final_'
'harga_'
'cara_'
'gas_'
'Ia_'
'depan_'
'while_'
'most_'
'program_'
'gol_'
'S_'
'work_'
'things_'
'saham_'
'perusahaan_'
'u_'
'Irak_'
'life_'
'home_'
'economic_'
'end_'
'serangan_'
'being_'
'Tuesday_'
'game_'
'suatu_'
'used_'
'little_'
'serta_'
'those_'
'25_'
'since_'
'points_'
'Korea_'
'sejak_'
'kemudian_'
'Iran_'
'such_'
'bawah_'
'kelompok_'
'Di_'
'use_'
'number_'
'Now_'
' - _'
'data_'
'old_'
'bagaimana_'
'dollar_'
'sebelum_'
'oil_'
'poin_'
'too_'
'high_'
'Monday_'
'long_'
'Tbk_'
'look_'
'system_'
'memberikan_'
'Israel_'
'setiap_'
'malam_'
'datang_'
'Jepang_'
'g_'
'five_'
'50_'
'put_'
'killed_'
'kasih_'
'Rabu_'
'place_'
'pertumbuhan_'
'empat_'
'She_'
'12_'
'paling_'
'minyak_'
'global_'
'terus_'
'next_'
'Hey_'
'' _'
'Ada_'
'never_'
'total_'
'sana_'
'minutes_'
'thing_'
'another_'
'called_'
'Selasa_'
'bermain_'
'U_'
'11_'
'am_'
'side_'
'sistem_'
'level_'
'Thursday_'
'Senin_'
'kota_'
'terakhir_'
'inflation_'
'growth_'
'inflasi_'
'foreign_'
'Jika_'
'How_'
'win_'
'let_'
'able_'
'under_'
'seluruh_'
' ; _'
'Apakah_'
'India_'
'naik_'
'bersama_'
'police_'
'menyatakan_'
'menemukan_'
'masuk_'
'tanpa_'
'lihat_'
'kemenangan_'
'gonna_'
'pun_'
'month_'
'jadi_'
'found_'
'Presiden_'
'Menteri_'
'increase_'
'doing_'
'menunjukkan_'
'target_'
'daerah_'
'Inggris_'
'perlu_'
'awal_'
'lima_'
'won_'
'ketiga_'
'give_'
'must_'
'All_'
'jalan_'
'begitu_'
'again_'
'actually_'
'Kamis_'
'bekerja_'
'third_'
'find_'
'tengah_'
'manusia_'
'capital_'
'bagus_'
'mendapatkan_'
'half_'
'different_'
'away_'
'water_'
'penting_'
'masa_'
'didn_'
'Let_'
'membawa_'
'polisi_'
'left_'
'termasuk_'
'part_'
'why_'
'jam_'
'big_'
'Minister_'
'mendapat_'
'every_'
'Pada_'
'six_'
'interest_'
'New_'
'week_'
'Al_'
'negeri_'
'16_'
'lama_'
'came_'
'berbeda_'
'Why_'
'mau_'
'help_'
'bunga_'
'Dalam_'
'mengalami_'
'keluar_'
'hasil_'
'expected_'
'tell_'
'security_'
'President_'
'uang_'
'sedikit_'
'Serikat_'
'sekali_'
'does_'
'demikian_'
'better_'
'jauh_'
'agar_'
'Yes_'
'musim_'
'mata_'
'2005_'
'When_'
'Iraq_'
'lot_'
'14_'
'Indonesian_'
'play_'
'turun_'
'during_'
'melawan_'
'jumlah_'
'mampu_'
'central_'
'biasa_'
'Come_'
'bahan_'
'pekan_'
'price_'
'enam_'
'bertemu_'
'Hal_'
'pejabat_'
'Terima_'
'Friday_'
'pasukan_'
'meeting_'
'cepat_'
'petenis_'
'Menurut_'
'Dengan_'
':_'
'sumber_'
'Okay_'
'21_'
'mengambil_'
'own_'
'kind_'
'body_'
'annya_'
'tewas_'
'sementara_'
'membantu_'
'berhasil_'
'took_'
'My_'
'memberi_'
'One_'
'team_'
'sel_'
'lah_'
'business_'
'Sunday_'
'masyarakat_'
'bola_'
'top_'
'Yang_'
'public_'
'problem_'
' ..._'
'utama_'
'kredit_'
'digunakan_'
'Bagaimana_'
'militer_'
'berbagai_'
'wilayah_'
'quarter_'
'countries_'
'Sekarang_'
'13_'
'love_'
'Japan_'
'18_'
'. - _'
'military_'
'may_'
'match_'
'each_'
'Karena_'
'power_'
'berpikir_'
'tingkat_'
'economy_'
'days_'
' "_'
'tangan_'
'Cup_'
'change_'
'apakah_'
'Asia_'
'non_'
'maka_'
'added_'
'until_'
'group_'
'Sementara_'
'money_'
'dekat_'
'pihak_'
'information_'
'great_'
'bahkan_'
'area_'
'rata_'
'berkata_'
'start_'
'pikir_'
'merasa_'
'meningkat_'
'men_'
'Afrika_'
'kalian_'
'menurut_'
'including_'
'net_'
'development_'
'posisi_'
'due_'
'Untuk_'
'point_'
'p_'
'suku_'
'keras_'
'far_'
'Do_'
'keamanan_'
'North_'
'reached_'
'months_'
'energy_'
'States_'
'talk_'
'Liga_'
'selalu_'
'ago_'
'Don_'
'without_'
'kuat_'
'financial_'
'babak_'
'Jangan_'
'17_'
'statement_'
'period_'
'based_'
'Pakistan_'
'led_'
'wanita_'
'mean_'
'mati_'
'en_'
'semakin_'
'menarik_'
'went_'
'tentara_'
'process_'
'kalau_'
'city_'
'alam_'
'yaitu_'
'season_'
'akibat_'
'yg_'
'terlalu_'
'small_'
'ion_'
'real_'
'fact_'
'done_'
'Para_'
'udara_'
'today_'
'teknologi_'
'mengalahkan_'
'kenaikan_'
'internasional_'
'Jumat_'
' ,_'
'official_'
'human_'
'head_'
'40_'
'less_'
'informasi_'
'dana_'
'c_'
'bentuk_'
'perseroan_'
'Arab_'
'World_'
'Thank_'
'Real_'
'troops_'
'tanah_'
'media_'
'kerja_'
'enough_'
'diperkirakan_'
'Baghdad_'
'April_'
'ton_'
'thought_'
'night_'
'cedera_'
'anggota_'
'Piala_'
'laporan_'
'bersih_'
'rasa_'
'become_'
'Rp1_'
'Pemerintah_'
'komputer_'
'Afghanistan_'
'tubuh_'
'technology_'
'senjata_'
'nuclear_'
'goal_'
'best_'
'Australia_'
'19_'
'sektor_'
'proses_'
'perang_'
'least_'
'keep_'
'late_'
'Palestina_'
'nilai_'
'already_'
'sejumlah_'
'report_'
'perubahan_'
'asing_'
'usaha_'
'call_'
'TED_'
'reach_'
'pertemuan_'
'" _'
'melakukannya_'
'later_'
'500_'
'move_'
'local_'
'ah_'
'God_'
'sebenarnya_'
'langsung_'
'Saturday_'
'yet_'
'might_'
'budget_'
'striker_'
'show_'
'menang_'
'? _'
'sector_'
'round_'
'hampir_'
'few_'
'always_'
'tinggal_'
'wanted_'
'prices_'
'dibanding_'
'200_'
'segera_'
'proyek_'
'minute_'
'minister_'
'ever_'
'60_'
'klub_'
'international_'
'both_'
'Utara_'
'war_'
'investasi_'
'energi_'
'dibandingkan_'
'berusia_'
'main_'
'important_'
'believe_'
'September_'
'sure_'
'mobil_'
'keuangan_'
'early_'
'bilang_'
'asal_'
'Ketika_'
'several_'
'lead_'
'laba_'
'form_'
'C_'
'.._'
'investment_'
'South_'
'juara_'
'berbicara_'
'attack_'
'Sri_'
'rs_'
'president_'
'earlier_'
'pemimpin_'
'okay_'
'car_'
'urutan_'
'listrik_'
'le_'
'Minggu_'
'23_'
'rencana_'
'masing_'
'Ayo_'
'To_'
'Sabtu_'
'understand_'
'trying_'
'suara_'
'ar_'
'anything_'
'Kamu_'
'As_'
'perbankan_'
'makan_'
'free_'
'forces_'
'control_'
'bom_'
'berlangsung_'
'! _'
'working_'
'son_'
'news_'
'national_'
'meningkatkan_'
'kondisi_'
'jenis_'
'feel_'
'dead_'
'course_'
'These_'
'22_'
'kehilangan_'
'kalah_'
'ers_'
'D_'
'yakin_'
'times_'
'plan_'
'officials_'
'berusaha_'
'seen_'
'meet_'
'ide_'
'food_'
'mencoba_'
'mencetak_'
'light_'
'coming_'
'children_'
'bergerak_'
'Prancis_'
'Bush_'
'umum_'
'laut_'
'jelas_'
'face_'
'On_'
'unit_'
'saying_'
'reported_'
'permainan_'
'dimana_'
'Where_'
'using_'
'past_'
'following_'
'bantuan_'
'periode_'
'percaya_'
'doesn_'
'warga_'
'nasional_'
'menghadapi_'
'exchange_'
'shot_'
'Saat_'
'upaya_'
'try_'
'talks_'
'peringkat_'
'buruk_'
'bertahan_'
'Just_'
'name_'
'hit_'
'American_'
' ? ?_'
'siapa_'
'kannya_'
'bonds_'
'run_'
'memang_'
'adanya_'
'Taliban_'
'hati_'
'Dunia_'
'shares_'
'300_'
'internet_'
'hubungan_'
'according_'
'Tak_'
'Lalu_'
'teman_'
'share_'
'stop_'
'result_'
'pinjaman_'
'mencari_'
'lost_'
'idea_'
'banks_'
'24_'
' ... _'
' !_'
'started_'
'laki_'
'semuanya_'
'order_'
'makhluk_'
'looking_'
'living_'
'leave_'
'kaki_'
'held_'
'former_'
'disebut_'
'2004_'
'means_'
'katakan_'
'industri_'
'Rusia_'
'support_'
'spokesman_'
'profit_'
'known_'
'hewan_'
'behind_'
'barang_'
'League_'
'ts_'
'tiba_'
'makanan_'
'kemungkinan_'
'mengapa_'
'mempunyai_'
'line_'
'berjalan_'
'."_'
'possible_'
'seseorang_'
'sedangkan_'
'jatuh_'
'Not_'
'seven_'
'menciptakan_'
'belakang_'
'video_'
'sekolah_'
'pasti_'
'burung_'
'tion_'
'terbaik_'
'nuklir_'
'issue_'
' % _'
'worth_'
'suka_'
'gawang_'
'everything_'
'Tuhan_'
'Rp_'
'Is_'
'26_'
'na_'
'mudah_'
'gelar_'
'Mr_'
'saw_'
'operasi_'
'langkah_'
'berat_'
'Semua_'
'PBB_'
'together_'
'pesawat_'
'kehidupan_'
'Palestinian_'
'Because_'
'terbesar_'
'strong_'
'kantor_'
'darah_'
'berarti_'
'bad_'
'akhirnya_'
'Who_'
'State_'
'/ _'
'meninggalkan_'
'alat_'
'terlihat_'
'ra_'
'making_'
'Washington_'
'B_'
'taken_'
'nama_'
'kini_'
'income_'
'de_'
'maju_'
'happened_'
'Selatan_'
'live_'
'kurang_'
'hope_'
'Direktur_'
'th_'
'selatan_'
'sakit_'
'pria_'
'memimpin_'
'gambar_'
'2009_'
'modal_'
'given_'
'semester_'
'putaran_'
'near_'
'Jerman_'
'Baiklah_'
'Are_'
'satunya_'
'higher_'
'hard_'
'getting_'
'director_'
'computer_'
'ahead_'
'age_'
'York_'
'tendangan_'
'stay_'
'service_'
'planet_'
'membunuh_'
'ikan_'
'gave_'
'among_'
'Tim_'
'John_'
'pagi_'
'bidang_'
'Hanya_'
'wrong_'
'pelatih_'
'korban_'
'house_'
'buku_'
'women_'
'within_'
'sulit_'
'Lebanon_'
'International_'
'At_'
'tumbuh_'
'terutama_'
'production_'
'model_'
'lapangan_'
'Beberapa_'
'Bayern_'
'pressure_'
'menghasilkan_'
'memenangi_'
'leaders_'
'kapal_'
'jaringan_'
'hand_'
'amount_'
'wartawan_'
'menerima_'
'Sedangkan_'
'P_'
'others_'
'mendukung_'
'arah_'
'Hei_'
'rendah_'
'political_'
'fourth_'
'family_'
'eight_'
'Mungkin_'
'Hamas_'
'Get_'
'taking_'
'ruang_'
'loans_'
'kesempatan_'
'fire_'
'ce_'
'Japanese_'
'( _'
'muncul_'
'close_'
'break_'
'Mengapa_'
'Champions_'
'tekanan_'
'menuju_'
'guys_'
'clear_'
'Orang_'
'person_'
'panjang_'
'nnya_'
'low_'
'death_'
'companies_'
'Siapa_'
'However_'
'sisi_'
'sebagian_'
'pusat_'
'perundingan_'
'once_'
'Then_'
'Eropa_'
'whole_'
'ta_'
'story_'
'pernyataan_'
'morning_'
'keluarga_'
'Talk_'
'2003_'
'region_'
'open_'
'menjelaskan_'
'having_'
'funds_'
'asi_'
'With_'
'Qaeda_'
'species_'
'industry_'
'credit_'
'Satu_'
'35_'
'tepat_'
'peluang_'
'land_'
'future_'
'deal_'
'coach_'
'Somalia_'
'N_'
'Iraqi_'
'st_'
'nine_'
'daripada_'
'Negeri_'
'Januari_'
'Here_'
'whether_'
'um_'
'regional_'
'position_'
'nothing_'
'micro_'
'kompetisi_'
'inside_'
'fuel_'
'compared_'
'building_'
'Tetapi_'
'sepanjang_'
'berita_'
'Look_'
'victory_'
'turnamen_'
'mendorong_'
'kawasan_'
'guna_'
'ang_'
'Timur_'
'T_'
'Israeli_'
'31_'
'beat_'
'Spanyol_'
'Pemain_'
'Open_'
'tax_'
'surat_'
'matter_'
'kira_'
'ian_'
'guy_'
'force_'
'Finance_'
'seharusnya_'
'perdamaian_'
'keempat_'
'delapan_'
'Your_'
'Some_'
'Michael_'
'question_'
'pertanyaan_'
'pekerjaan_'
'peace_'
'lingkungan_'
'attacks_'
'OK_'
'28_'
'played_'
'penjualan_'
'office_'
'kebijakan_'
'finance_'
'case_'
'care_'
'blood_'
'80_'
'problems_'
'hours_'
'club_'
'berakhir_'
'alasan_'
'Milan_'
'East_'
'Abbas_'
'woman_'
'sebanyak_'
'produksi_'
'khusus_'
'further_'
'chance_'
'bit_'
'Mari_'
'Arsenal_'
'weeks_'
'various_'
'te_'
'school_'
'rose_'
'project_'
'menambahkan_'
'membangun_'
'gagal_'
'ditemukan_'
'berasal_'
'Seorang_'
'Go_'
'sorry_'
'prajurit_'
'mengubah_'
'hear_'
'died_'
'berubah_'
'Juni_'
'David_'
'Chelsea_'
'yen_'
'ty_'
'tujuh_'
'tampil_'
'room_'
'penurunan_'
'party_'
'drop_'
'berdasarkan_'
'Subtitles_'
'March_'
'(_'
'source_'
'senior_'
'jangan_'
'inya_'
'dasar_'
'berharap_'
'Perusahaan_'
'June_'
'January_'
'Africa_'
'situs_'
'obligasi_'
'minggu_'
'mengerti_'
'law_'
'kill_'
'happen_'
'general_'
'condition_'
'cannot_'
'bebas_'
'West_'
'value_'
'uh_'
'loan_'
'O_'
'Negara_'
'politik_'
'nomor_'
'menjelang_'
'kemampuan_'
'draw_'
'continue_'
'comes_'
'Transcript_'
'visit_'
'terdiri_'
'spot_'
'services_'
'needed_'
'lower_'
'domestic_'
'ble_'
'biaya_'
'agreement_'
'Luar_'
'E_'
'70_'
'unggulan_'
'kepala_'
'jurubicara_'
'da_'
'bicara_'
'II_'
'For_'
'talking_'
'quite_'
'maupun_'
'ic_'
'games_'
'dulu_'
'Nigeria_'
'utara_'
'natural_'
'material_'
'ma_'
'father_'
'disini_'
'asked_'
'almost_'
'May_'
'produk_'
'pretty_'
'AFP_'
'terbang_'
'rise_'
'listed_'
'kekuatan_'
'agency_'
'French_'
'ri_'
'reason_'
'ka_'
'front_'
'apapun_'
'anti_'
'special_'
'siap_'
'outside_'
'mesin_'
'meminta_'
'Barat_'
'27_'
'though_'
'ted_'
'spesies_'
'sent_'
'ry_'
'red_'
'record_'
'mother_'
'meraih_'
'mantan_'
'investors_'
'hold_'
'conditions_'
'ask_'
'Lyon_'
'32_'
'peningkatan_'
'meter_'
'lanjut_'
'jarak_'
'hak_'
'forward_'
'cause_'
'brain_'
'berkembang_'
'across_'
'violence_'
'turn_'
'title_'
'space_'
'se_'
'pelaku_'
'meninggal_'
'membuka_'
'ies_'
'f_'
'cells_'
'bahasa_'
'ation_'
'November_'
'needs_'
'kedudukan_'
'decision_'
'cut_'
'create_'
'chief_'
'banking_'
'Mulyani_'
'Beijing_'
'2002_'
'sering_'
'rating_'
'pay_'
'mind_'
'memutuskan_'
'kesepakatan_'
'figure_'
'difficult_'
'bring_'
'belajar_'
'basis_'
'Madrid_'
'Dua_'
'Can_'
'00_'
'says_'
'return_'
'otak_'
'normal_'
'modern_'
'mendengar_'
'kebutuhan_'
'hour_'
'else_'
'M_'
'Kenapa_'
'Italia_'
'Good_'
'France_'
'soon_'
'sa_'
'pendapatan_'
'padaku_'
'meski_'
'mengurangi_'
'membeli_'
'major_'
'job_'
'biasanya_'
'benda_'
'aman_'
'saling_'
'often_'
'keadaan_'
'kandang_'
'itulah_'
'ibukota_'
'buy_'
'Setelah_'
'George_'
'term_'
'pembangunan_'
'panas_'
'leg_'
'gone_'
'full_'
'example_'
'bomb_'
'bila_'
'Paris_'
'Islam_'
'tua_'
'ting_'
'senang_'
'ne_'
'membutuhkan_'
'kematian_'
'kasus_'
'inilah_'
'increased_'
'hilang_'
'cell_'
'400_'
'x_'
'sir_'
'research_'
'reporters_'
'menyebabkan_'
'hebat_'
'grow_'
'contoh_'
'certain_'
'boy_'
'Two_'
'TV_'
'British_'
'z_'
'young_'
'sesuai_'
'seed_'
'penuh_'
'groups_'
'evolusi_'
'berhenti_'
'Tokyo_'
'Seperti_'
'Prime_'
'Maret_'
'Brazil_'
'75_'
'♪ _'
'tertentu_'
'penyakit_'
'makes_'
'ilmuwan_'
'hukum_'
'ground_'
'bumi_'
'above_'
'Dr_'
'Chinese_'
'wait_'
'setempat_'
'semi_'
'impact_'
'Internet_'
'House_'
'Desember_'
'structure_'
'step_'
'sembilan_'
'large_'
'aksi_'
'December_'
'45_'
'29_'
')_'
'southern_'
'policy_'
'owned_'
'memperoleh_'
'dollars_'
'dikenal_'
'caused_'
'cahaya_'
'Mei_'
'sources_'
'ring_'
'players_'
'la_'
'berjuang_'
'Kalau_'
'DPR_'
'website_'
'tentu_'
'study_'
'pendidikan_'
'klasemen_'
'bisnis_'
'ahli_'
'Oke_'
' ," _'
'previous_'
'phone_'
'perkembangan_'
'ni_'
'mendatang_'
'friend_'
'developed_'
'Salah_'
'Rp2_'
'Baik_'
'ran_'
'ons_'
'menteri_'
'menewaskan_'
'fell_'
'el_'
'diharapkan_'
'dibuat_'
'cerita_'
'berikutnya_'
'./ _'
'tuan_'
'town_'
'sales_'
'rest_'
'probably_'
'poor_'
'pemberontak_'
'menjaga_'
'menguat_'
'luka_'
'isn_'
'current_'
'army_'
'Sebuah_'
'Perdana_'
'Mandiri_'
'Efek_'
' ) , _'
'tujuan_'
'please_'
'pembicaraan_'
'oh_'
'lawan_'
'goals_'
'ball_'
'unggul_'
'ready_'
'playing_'
'pajak_'
'ns_'
'movement_'
'mengetahui_'
'maybe_'
'matches_'
'lokal_'
'jangka_'
'et_'
'bakar_'
'Februari_'
'virus_'
'soldiers_'
'scored_'
'remember_'
'positive_'
'perjalanan_'
'menunggu_'
'menghentikan_'
'league_'
'key_'
'ir_'
'fighting_'
'dampak_'
'credits_'
'average_'
'General_'
'African_'
'ur_'
'tan_'
'site_'
'similar_'
'ribu_'
'presiden_'
'membentuk_'
'ibu_'
'heart_'
'dimulai_'
'decided_'
'An_'
'role_'
'risk_'
'pihaknya_'
'lubang_'
'fine_'
'Itulah_'
'Did_'
'Bumi_'
'wounded_'
'ut_'
'transaksi_'
'tembakan_'
'stage_'
'moment_'
'ministry_'
'fall_'
'dukungan_'
'develop_'
'[_'
'Maaf_'
'BPS_'
'tidur_'
'televisi_'
'senilai_'
'kesalahan_'
'kendaraan_'
'girl_'
'daya_'
'wasn_'
'tugas_'
'terlibat_'
'showed_'
'sebelah_'
'sayap_'
'resmi_'
'perempuan_'
'nature_'
'mengembangkan_'
'although_'
'agreed_'
'Yah_'
'Terbuka_'
'L_'
'Dari_'
'DNA_'
'software_'
'short_'
'recent_'
'range_'
'province_'
'muda_'
'members_'
'ions_'
'han_'
'gerakan_'
'efforts_'
'cost_'
'boleh_'
'Medco_'
'Development_'
'90_'
'test_'
'sort_'
'positif_'
'pilihan_'
'pers_'
'perdagangan_'
'looked_'
'itself_'
'happy_'
'garis_'
'fight_'
'dirinya_'
'Tentu_'
'Saudi_'
'Rice_'
'Pefindo_'
'Ministry_'
'Director_'
'BNI_'
' ♫ ♫ _'
'tons_'
'signed_'
'sempurna_'
'menyelesaikan_'
'memungkinkan_'
'kegiatan_'
'design_'
'crisis_'
'animal_'
'along_'
'W_'
'Please_'
'Ltd_'
'Inter_'
'Ayah_'
'America_'
' '_'
'word_'
'utang_'
'theory_'
'provide_'
'met_'
'likely_'
'created_'
'build_'
'Meanwhile_'
'Hi_'
'Badan_'
'yeah_'
'ways_'
'trade_'
'terdapat_'
'penalti_'
'nt_'
'ekspor_'
'die_'
'Tengah_'
'London_'
'Liverpool_'
'Getafe_'
'sungguh_'
'situation_'
'sisa_'
'raise_'
'membukukan_'
'ls_'
'lives_'
'ling_'
'investor_'
'despite_'
'cooperation_'
'ch_'
'areas_'
'Kepala_'
'thinking_'
'tes_'
'speed_'
'nyata_'
'nanti_'
'mengikuti_'
'mengatasi_'
'memilih_'
'gen_'
'eyes_'
'either_'
'Argentina_'
'placed_'
'menyebutkan_'
'kimia_'
'however_'
'anggaran_'
'action_'
'K_'
'February_'
'someone_'
'sipil_'
'serius_'
'sea_'
'online_'
'ledakan_'
'kuartal_'
'heard_'
'friends_'
'film_'
'amat_'
'UN_'
'Sunni_'
'Stock_'
'Pak_'
'Muslim_'
'Google_'
'Ah_'
'titik_'
'thousands_'
'nation_'
'minum_'
'ment_'
'lewat_'
'layanan_'
'injured_'
'fast_'
'crude_'
'conference_'
'community_'
'below_'
'Russia_'
'Barcelona_'
'BRI_'
'2010_'
'2001_'
'ter_'
'melihatnya_'
'leader_'
'failed_'
'cadangan_'
'book_'
'bertanya_'
'berbahaya_'
'Tamil_'
'Rate_'
'National_'
'Earth_'
'After_'
'timnya_'
'stuff_'
'protein_'
'myself_'
'milik_'
'mengeluarkan_'
'liga_'
'ha_'
'ge_'
'field_'
'cinta_'
'bergabung_'
'antar_'
'G_'
'Fatah_'
'Darwin_'
'Asian_'
'whose_'
'tambahan_'
'single_'
'recorded_'
'memahami_'
'kalinya_'
'ikut_'
'history_'
'fund_'
'answer_'
'While_'
'Keuangan_'
'yourself_'
'tried_'
'tindakan_'
'television_'
'serious_'
'sense_'
'sejarah_'
'moved_'
'mengumpulkan_'
'melewati_'
'lembaga_'
'krisis_'
'kejadian_'
'increasing_'
'goes_'
'education_'
'child_'
'bunuh_'
'bottom_'
'batas_'
'b_'
'Russian_'
'Malaysia_'
'City_'
'36_'
'2000_'
'teori_'
'students_'
'remain_'
'projects_'
'pemilihan_'
'kekerasan_'
'fucking_'
'foto_'
'fly_'
'fish_'
'fasilitas_'
'diberikan_'
'bukti_'
'Right_'
'Maybe_'
'Indian_'
'Exchange_'
'Allah_'
'Abdullah_'
'APBN_'
'series_'
'poverty_'
'post_'
'pertahanan_'
'mengakui_'
'kids_'
'health_'
'digital_'
'difference_'
'carried_'
'brought_'
'border_'
'belanja_'
'batu_'
'alone_'
'Of_'
'Bukan_'
'37_'
'weapons_'
'pimpinan_'
'penerimaan_'
'network_'
'meskipun_'
'mengakhiri_'
'faktor_'
'earth_'
'biggest_'
'aid_'
'Utama_'
'Robert_'
'Gaza_'
'Antam_'
'Agustus_'
'situasi_'
'selanjutnya_'
'pula_'
'namely_'
'midfielder_'
'mengakibatkan_'
'mencatat_'
'makin_'
'knew_'
'kesehatan_'
'kenapa_'
'issued_'
'event_'
'climate_'
'ck_'
'chemical_'
'badan_'
']_'
'Tunggu_'
'Selain_'
'Petenis_'
'Juli_'
'James_'
'wants_'
'usually_'
'serve_'
'received_'
'rakyat_'
'pulang_'
'permukaan_'
'penduduk_'
'ors_'
'menambah_'
'mempertahankan_'
'longer_'
'kerjasama_'
'imbang_'
'iklim_'
'ie_'
'hospital_'
'diperlukan_'
'champion_'
'tanda_'
'tampaknya_'
'struktur_'
'produced_'
'produce_'
'penjaga_'
'opening_'
'named_'
'moving_'
'menaikkan_'
'memanfaatkan_'
'kilometer_'
'gets_'
'dengar_'
'butuh_'
'animals_'
'Hello_'
'39_'
'true_'
'robot_'
'padamu_'
'feet_'
'era_'
'detik_'
'api_'
'announced_'
'aneh_'
'Raja_'
'European_'
'August_'
'99_'
'wouldn_'
'tampak_'
'parts_'
'operation_'
'ngan_'
'menyusul_'
'menolak_'
'memasuki_'
'khawatir_'
'interesting_'
'ice_'
'gadis_'
'ended_'
'berapa_'
'believed_'
'ayah_'
'Lihat_'
'Abe_'
'ulang_'
'turned_'
'tahap_'
'strengthen_'
'send_'
'reports_'
'product_'
'penelitian_'
'mengirim_'
'looks_'
'konsumsi_'
'keputusan_'
'injury_'
'finals_'
'black_'
'Akan_'
'sound_'
'present_'
'partai_'
'menyerang_'
'menulis_'
'debt_'
'base_'
'Paul_'
'Middle_'
'Inilah_'
'Gubernur_'
'GDP_'
'F_'
'BEJ_'
'65_'
'ung_'
'towards_'
'tenaga_'
'social_'
'setengah_'
'pembiayaan_'
'ous_'
'ness_'
'menempatkan_'
'kulit_'
'kartu_'
'involved_'
'hitam_'
'fifth_'
'evolution_'
'especially_'
'duduk_'
'consumption_'
'bukanlah_'
'began_'
'Oktober_'
'Central_'
'Benar_'
'According_'
'winner_'
'terkait_'
'road_'
'provinsi_'
'predicted_'
'perhatian_'
'nice_'
'middle_'
'menahan_'
'memerlukan_'
'luas_'
'experience_'
'defeat_'
'ai_'
'Internasional_'
'His_'
'Australian_'
'"._'
'tadi_'
'strike_'
'radio_'
'peduli_'
'membuatnya_'
'lumba_'
'kelas_'
'hell_'
'fosil_'
'adding_'
'Take_'
'Sevilla_'
'July_'
'Banyak_'
'33_'
'wife_'
'takut_'
'table_'
'segala_'
'reduce_'
'private_'
'perjanjian_'
'peneliti_'
'paper_'
'ok_'
'menangkap_'
'court_'
'corporate_'
'available_'
'Polisi_'
'tukar_'
'themselves_'
'selesai_'
'products_'
'press_'
'picture_'
'killing_'
'bodies_'
'birds_'
'bintang_'
'Sudan_'
'Stop_'
'NATO_'
'rather_'
'protect_'
'obat_'
'memastikan_'
'learn_'
'kept_'
'effort_'
'eat_'
'developing_'
'changes_'
'became_'
'Munich_'
' ♪_'
'usai_'
'takes_'
'syariah_'
'save_'
'released_'
'rebels_'
'performance_'
'perbatasan_'
'memperkirakan_'
'lan_'
'kanan_'
'ingat_'
'dropped_'
'abad_'
'Valencia_'
'Uh_'
'Pasukan_'
'Marseille_'
'Federer_'
'Darfur_'
'Atau_'
'Anak_'
'Afghan_'
'41_'
'150_'
'# _'
'volume_'
'terbuka_'
'surface_'
'sifat_'
'rights_'
'pesan_'
'paid_'
'menyenangkan_'
'mendekati_'
'melindungi_'
'goods_'
'currency_'
'cross_'
'considered_'
'bangunan_'
'Selamat_'
'Olmert_'
'Nations_'
'Manchester_'
'Kim_'
'Foreign_'
'web_'
'ul_'
'size_'
'safe_'
'rates_'
'north_'
'mengumumkan_'
'management_'
'language_'
'improve_'
'ideas_'
'gotta_'
'ally_'
'activities_'
'Rp3_'
'Or_'
'Islamic_'
'England_'
'warna_'
'tempo_'
'sides_'
'sederhana_'
'questions_'
'permintaan_'
'perekonomian_'
'merah_'
'member_'
'kontrak_'
'followed_'
'focus_'
'door_'
'dokter_'
'defender_'
'agak_'
'access_'
'Since_'
'Reuters_'
'Kalian_'
'57_'
'34_'
'watch_'
'ujarnya_'
'tor_'
'starting_'
'read_'
'quickly_'
'player_'
'memulai_'
'membayar_'
'loss_'
'laga_'
'jawab_'
'huge_'
'ga_'
'evidence_'
'district_'
'deficit_'
'coba_'
'barel_'
'Swiss_'
'King_'
'works_'
'w_'
'surplus_'
'south_'
'plant_'
'pembunuhan_'
'operator_'
'merasakan_'
'kiri_'
'kertas_'
'internal_'
'indah_'
'giving_'
'ey_'
'extra_'
'effect_'
'defence_'
'couple_'
'contract_'
'closed_'
'bond_'
'bersenjata_'
'beautiful_'
'bakteri_'
'baby_'
'Rupiah_'
'Ibu_'
'Europe_'
'Departemen_'
'51_'
'stable_'
'simple_'
'race_'
'parlemen_'
'minta_'
'menjalani_'
'melaporkan_'
'lose_'
'largest_'
'keuntungan_'
'kecepatan_'
'ilmu_'
'harapan_'
'carry_'
'capacity_'
'born_'
'board_'
'bacteria_'
'Thanks_'
'Tepuk_'
'Sudah_'
'Mesir_'
'Menkeu_'
'Ketua_'
'Germany_'
'German_'
'ze_'
'takkan_'
'suicide_'
'shit_'
'semacam_'
'ribuan_'
'resiko_'
'perbedaan_'
'pemegang_'
'millions_'
'laju_'
'haven_'
'green_'
'fired_'
'everybody_'
'electricity_'
'champions_'
'Wait_'
'Sistem_'
'Our_'
'Lebih_'
'Korean_'
'Kedua_'
'54_'
'yakni_'
'worry_'
'transfer_'
'ti_'
'systems_'
'san_'
'resources_'
'pelanggan_'
'menghabiskan_'
'launched_'
'kebanyakan_'
'ity_'
'division_'
'diketahui_'
'dianggap_'
'ak_'
'Thailand_'
'Saddam_'
'Cina_'
': _'
'58_'
'twice_'
'shows_'
'semesta_'
'selamat_'
'pengetahuan_'
'pendukung_'
'pass_'
'missing_'
'menyelamatkan_'
'menyamakan_'
'mengungkapkan_'
'km_'
'king_'
'demand_'
'defisit_'
'changed_'
'barrel_'
'arrested_'
'Peter_'
'Kemudian_'
'55_'
'workers_'
'worked_'
'words_'
'winning_'
'tunggu_'
'terms_'
'sehari_'
'running_'
'powerful_'
'lokasi_'
'easy_'
'easily_'
'ditahan_'
'designed_'
'continued_'
'claimed_'
'brother_'
'ban_'
'Group_'
'Bursa_'
'Bahkan_'
'tambahnya_'
'stood_'
'soal_'
'science_'
'potential_'
'petugas_'
'operations_'
'message_'
'menyadari_'
'mencegah_'
'membahas_'
'medium_'
'kunjungan_'
'ja_'
'immediately_'
'gila_'
'firm_'
'everyone_'
'conducted_'
'bus_'
'berdiri_'
'Publicly_'
'Perancis_'
'October_'
'Nah_'
'Astra_'
'Agency_'
'van_'
'uk_'
'status_'
'stabil_'
'semifinal_'
'results_'
'plants_'
'pikiran_'
'pengalaman_'
'pemerintahan_'
'opposition_'
'mine_'
'menyediakan_'
'melancarkan_'
'institution_'
'heavy_'
'happens_'
'gan_'
'exactly_'
'dingin_'
'cuma_'
'couldn_'
'certainly_'
'bought_'
'balance_'
'authorities_'
'Pyongyang_'
'Premier_'
'Nasional_'
'Microsoft_'
'Cheney_'
'’_'
'universe_'
'ukan_'
'tulang_'
'ternyata_'
'seems_'
'scale_'
'publik_'
'planned_'
'pengembangan_'
'paru_'
'motor_'
'mission_'
'menurunkan_'
'mengadakan_'
'matahari_'
'maaf_'
'follow_'
'felt_'
'estimated_'
'ek_'
'disease_'
'built_'
'broke_'
'Union_'
'Sebelumnya_'
'Dengar_'
'--_'
'view_'
'tangga_'
'straight_'
'sosial_'
'sensor_'
'quality_'
'pukulan_'
'places_'
'piece_'
'pan_'
'mentah_'
'menguasai_'
'knya_'
'hands_'
'ess_'
'ditangkap_'
'complex_'
'bernama_'
'allowed_'
'allow_'
'San_'
'Like_'
'Lee_'
'Fed_'
'Dewan_'
'waiting_'
'via_'
'un_'
'trouble_'
'terima_'
'telur_'
'telepon_'
'serangga_'
'sell_'
'provided_'
'offer_'
'minus_'
'menentukan_'
'mendesak_'
'memperbaiki_'
'membiarkan_'
'mari_'
'les_'
'khususnya_'
'kekalahan_'
'keduanya_'
'kabar_'
'incident_'
'ik_'
'hnya_'
'grew_'
'eye_'
'disebabkan_'
'century_'
'Sangat_'
'ADB_'
'triwulan_'
'tournament_'
'servis_'
'self_'
'ruangan_'
'penalty_'
'northern_'
'mundur_'
'memenuhi_'
'lunak_'
'kelima_'
'guru_'
'ds_'
'competition_'
'beginning_'
'Roma_'
'Energi_'
'Britain_'
'Ayolah_'
'48_'
'250_'
'.. _'
', "_'
'wanna_'
'usia_'
'timur_'
'thanks_'
'tank_'
'secretary_'
'scientists_'
'raised_'
'prevent_'
'pintu_'
'penggunaan_'
'otot_'
'menyampaikan_'
'menekan_'
'kick_'
'hot_'
'hole_'
'growing_'
'flight_'
'dark_'
'berhubungan_'
'becomes_'
'bayi_'
'aturan_'
'attention_'
'Secretary_'
'Pacific_'
'72_'
'38_'
'ten_'
'suffered_'
'pribadi_'
'population_'
'parties_'
'oxygen_'
'oksigen_'
'menderita_'
'memberitahu_'
'melepaskan_'
'manager_'
'kekuasaan_'
'kanker_'
'fuck_'
'double_'
'didukung_'
'coal_'
'alive_'
'acara_'
'Sorry_'
'Mega_'
'Lanka_'
'Iranian_'
'Frank_'
'BUMN_'
'95_'
'47_'
'42_'
'wish_'
'wings_'
'trip_'
'training_'
'supposed_'
'sign_'
'plans_'
'pertempuran_'
'perfect_'
'pengadilan_'
'operating_'
'meant_'
'laptop_'
'kalangan_'
'joint_'
'issues_'
'hutan_'
'hukuman_'
'huh_'
'function_'
'fun_'
'environment_'
'cantik_'
'buat_'
'aktif_'
'Tahun_'
'Security_'
'Rp4_'
'R_'
'Java_'
'Bambang_'
'tie_'
'somebody_'
'recently_'
'quoted_'
'peristiwa_'
'menutup_'
'menembak_'
'kid_'
'keseluruhan_'
'kerusakan_'
'kendati_'
'impor_'
'guess_'
'fully_'
'demi_'
'charge_'
'cancer_'
'bird_'
'berencana_'
'Most_'
'Berlin_'
'46_'
'undang_'
'tomorrow_'
'station_'
'society_'
'ship_'
'seekor_'
'puncak_'
'projected_'
'prime_'
'pengguna_'
'padanya_'
'opened_'
'murah_'
'mirip_'
'ments_'
'menandatangani_'
'hi_'
'gun_'
'gelap_'
'financing_'
'extraordinary_'
'ent_'
'diterima_'
'dikeluarkan_'
'diciptakan_'
'anyone_'
'ambil_'
'ability_'
'University_'
'Tuan_'
'Police_'
'Italian_'
'Burhanuddin_'
'Ali_'
'59_'
'"?_'
'zat_'
'umpan_'
'ties_'
'seconds_'
'sebagaimana_'
'remaining_'
'release_'
'perintah_'
'penerbitan_'
'pekerja_'
'music_'
'miskin_'
'miles_'
'menghancurkan_'
'instead_'
'hurt_'
'hujan_'
'domestik_'
'divisi_'
'construction_'
'common_'
'cenderung_'
'ate_'
'Setiap_'
'Sam_'
'People_'
'Brazilian_'
'Bangladesh_'
'53_'
' _'
'wa_'
'tubuhnya_'
'tnya_'
'temperature_'
'sinyal_'
'selain_'
'rules_'
'progress_'
'plane_'
'penjara_'
'organisasi_'
'misi_'
'latest_'
'lapisan_'
'kaya_'
'grand_'
'eventually_'
'drive_'
'cover_'
'berupa_'
'aimed_'
'active_'
'UEFA_'
'Semuanya_'
'Racing_'
'Dad_'
'Boediono_'
'Barca_'
'zed_'
'tough_'
'spent_'
'sinya_'
'sebentar_'
'sayang_'
'pukul_'
'programs_'
'pembelian_'
'particularly_'
'pantai_'
'nearly_'
'musik_'
'menjawab_'
'mengingat_'
'membaca_'
'materials_'
'machine_'
'komunikasi_'
'kesulitan_'
'jasa_'
'formed_'
'forced_'
'feeling_'
'crazy_'
'controlled_'
'catatan_'
'boost_'
'bilateral_'
'berkaitan_'
'bar_'
'angkasa_'
'airport_'
'Wakil_'
'Telkom_'
'Last_'
'Ethiopia_'
'English_'
'Berapa_'
'. " _'
'weekend_'
'uses_'
'type_'
'tergantung_'
'tercatat_'
'sometimes_'
'slow_'
'sasaran_'
'putih_'
'pembentukan_'
'parents_'
'moon_'
'menjual_'
'mengirimkan_'
'mengajukan_'
'latihan_'
'knowledge_'
'institutions_'
'il_'
'explain_'
'entire_'
'directly_'
'ding_'
'denganmu_'
'customers_'
'currently_'
'computers_'
'choice_'
'career_'
'assets_'
'ap_'
'Yudhoyono_'
'Turki_'
'Thomas_'
'Selama_'
'SBI_'
'Lens_'
'Have_'
'Halo_'
'Bordeaux_'
'Bapepam_'
'BBM_'
') _'
' & _'
'zone_'
'white_'
'vehicle_'
'tunggal_'
'travel_'
'tarif_'
'tajam_'
'success_'
'sit_'
'sempat_'
'seeded_'
'rumit_'
'ringan_'
'rahasia_'
'planning_'
'perangkat_'
'molekul_'
'militants_'
'memainkan_'
'lepas_'
'knows_'
'ki_'
'finished_'
'desa_'
'der_'
'completely_'
'carbon_'
'anymore_'
'anya_'
'act_'
'Uni_'
'ISAF_'
'Even_'
'Baru_'
'Andy_'
'71_'
'train_'
'tolong_'
'sold_'
'related_'
'penutupan_'
'optimistic_'
'occurred_'
'memperlihatkan_'
'memperkuat_'
'ley_'
'generasi_'
'ful_'
'expect_'
'election_'
'dimiliki_'
'campaign_'
'armed_'
'advantage_'
'Tiga_'
'Therefore_'
'Sulawesi_'
'Spanish_'
'See_'
'Pembangunan_'
'PDB_'
'Olympique_'
'Murray_'
'Kevin_'
'Kementerian_'
'H'
'Fernando_'
'61_'
'52_'
'49_'
'. , _'
'tertinggi_'
'terpisah_'
'struck_'
'star_'
'stand_'
'rekan_'
'organ_'
'namanya_'
'kementerian_'
'hundreds_'
'halaman_'
'gross_'
'finish_'
'finally_'
'existence_'
'dangerous_'
'dalamnya_'
'corner_'
'aset_'
'ancaman_'
'afraid_'
'Vietnam_'
'Sir_'
'Singapore_'
'Sebagian_'
'Los_'
'Ligue_'
'Bisa_'
'43_'
'120_'
'wide_'
'walk_'
'upon_'
'touch_'
'stock_'
'steps_'
'solution_'
'sing_'
'ses_'
'sehat_'
'saudara_'
'rice_'
'opportunity_'
'ol_'
'menginginkan_'
'losing_'
'lolos_'
'listen_'
'leading_'
'ks_'
'konferensi_'
'kepemilikan_'
'inginkan_'
'hkan_'
'happening_'
'generation_'
'exports_'
'dilaporkan_'
'cellular_'
'box_'
'binatang_'
'balik_'
'ayo_'
'Williams_'
'Those_'
'Striker_'
'Sebagai_'
'Nadal_'
'Dimana_'
'Bremen_'
'Bappenas_'
'Ahad_'
'? - _'
'04_'
'v_'
'ukuran_'
'terkenal_'
'tenang_'
'temukan_'
'studi_'
'shown_'
'sejauh_'
'required_'
'pendapat_'
'optimis_'
'menimbulkan_'
'mengejutkan_'
'meledak_'
'kinerja_'
'kereta_'
'himself_'
'fossil_'
'dirimu_'
'dengannya_'
'daily_'
'confirmed_'
'basic_'
'akses_'
'additional_'
'Zimbabwe_'
'V_'
'Susilo_'
'Qatar_'
'More_'
'Mike_'
'Meski_'
'Menurutnya_'
'Martin_'
'Bill_'
'44_'
'weight_'
'snya_'
'sleep_'
'realisasi_'
'peraturan_'
'penerbangan_'
'pendek_'
'pembayaran_'
'monitor_'
'maintain_'
'legs_'
'lahir_'
'imagine_'
'id_'
'equipment_'
'didorong_'
'co_'
'closer_'
'civil_'
'check_'
'begin_'
'arms_'
'aliran_'
'afternoon_'
'Tony_'
'St_'
'Rp8_'
'Pertandingan_'
'First_'
'Ben_'
'Bagus_'
'Angeles_'
'AC_'
'800_'
'67_'
'56_'
'}_'
'trend_'
'transaction_'
'sepenuhnya_'
'pohon_'
'plus_'
'perdana_'
'par_'
'menyarangkan_'
'mengatur_'
'menawarkan_'
'mail_'
'list_'
'konflik_'
'initial_'
'evening_'
'deep_'
'daughter_'
'damage_'
'conflict_'
'civilians_'
'chances_'
'atom_'
'approach_'
'angin_'
'Telkomsel_'
'Sehingga_'
'Securities_'
'Sebenarnya_'
'Sampai_'
'Many_'
'Italy_'
'Hamburg_'
'Hai_'
'Ghana_'
'63_'
'yes_'
'tuduhan_'
'tonight_'
'tic_'
'tiap_'
'suhu_'
'subsidi_'
'stroke_'
'sore_'
'skin_'
'shape_'
'setidaknya_'
'rusak_'
'row_'
'roket_'
'ro_'
'relations_'
'putri_'
'possibility_'
'ping_'
'parliament_'
'os_'
'ones_'
'musuh_'
'merusak_'
'meningkatnya_'
'mengejar_'
'memakai_'
'kotak_'
'kapasitas_'
'kah_'
'jantung_'
'intelligence_'
'individual_'
'helikopter_'
'hadiah_'
'flu_'
'fear_'
'facility_'
'facilities_'
'electric_'
'efektif_'
'distribution_'
'darat_'
'creation_'
'complete_'
'cars_'
'beli_'
'bed_'
'ba_'
'arus_'
'ant_'
'ain_'
'agen_'
'activity_'
'Tom_'
'Spain_'
'Roger_'
'Mars_'
'Kantor_'
'Hari_'
'Delta_'
'By_'
'Bundesliga_'
'Angkatan_'
'62_'
' '
'terletak_'
'terbentuk_'
'stories_'
'spread_'
'speak_'
'sekaligus_'
'sang_'
'pabrik_'
'missed_'
'mining_'
'melanjutkan_'
'leaving_'
'kinds_'
'kecelakaan_'
'gerilyawan_'
'finding_'
'eggs_'
'diduga_'
'cari_'
'bodoh_'
'blue_'
'bertambah_'
'berikan_'
'barat_'
'ass_'
'accident_'
'Y_'
'U'
'Three_'
'Sekretaris_'
'Secara_'
'Sayang_'
'Miranda_'
'Laporan_'
'Give_'
'Economic_'
'{\\_'
'whatever_'
'tas_'
'tanaman_'
'sex_'
'sesungguhnya_'
'sedikitnya_'
'reaching_'
'ratusan_'
'ratio_'
'rancangan_'
'port_'
'pola_'
'pertanian_'
'pernyataannya_'
'perbaikan_'
'oke_'
'newspaper_'
'nd_'
'mutasi_'
'melaju_'
'limited_'
'kemiskinan_'
'factors_'
'explosion_'
'diperoleh_'
'diberi_'
'cal_'
'bentrokan_'
'aren_'
'Web_'
'Syiah_'
'NASA_'
'Meskipun_'
'Hussein_'
'Howard_'
'Global_'
'Clark_'
'Atletico_'
'66_'
'1999_'
'write_'
'units_'
'truth_'
'tions_'
'rich_'
'returned_'
'reserves_'
'previously_'
'plastik_'
'pertamanya_'
'negotiations_'
'mi_'
'menyebut_'
'memicu_'
'membaik_'
'melaksanakan_'
'marah_'
'mainly_'
'ko_'
'kepolisian_'
'karya_'
'isi_'
'included_'
'headed_'
'fans_'
'dibawa_'
'diambil_'
'daftar_'
'bigger_'
'bertanding_'
'arrived_'
'Western_'
'Surabaya_'
'Really_'
'R'
'Portugal_'
'Kelompok_'
'Hill_'
'Dana_'
'Charlie_'
'76_'
'-- _'
'teknik_'
'tanggal_'
'stasiun_'
'significant_'
'setuju_'
'sepak_'
'sebab_'
'risiko_'
'purpose_'
'presidential_'
'pasien_'
'papan_'
'ny_'
'notes_'
'menurun_'
'kualitas_'
'komponen_'
'kenyataan_'
'keeper_'
'keenam_'
'kadang_'
'impossible_'
'hotel_'
'hijau_'
'harap_'
'fundamental_'
'forms_'
'fixed_'
'est_'
'eastern_'
'ditutup_'
'dihasilkan_'
'details_'
'culture_'
'cool_'
'budaya_'
'basically_'
'atmosphere_'
'artinya_'
'amazing_'
'alih_'
'administration_'
'accused_'
'Villa_'
'Tolong_'
'Senegal_'
'Pusat_'
'Pelatih_'
'Jenderal_'
'Jawa_'
'From_'
'Everton_'
'Chris_'
'68_'
'wing_'
'village_'
'uan_'
'trust_'
'tingginya_'
'sungai_'
'sikan_'
'session_'
'seri_'
'response_'
'reduced_'
'potensi_'
'perasaan_'
'penampilan_'
'pejuang_'
'oposisi_'
'offered_'
'menjalankan_'
'menetapkan_'
'keunggulan_'
'kemajuan_'
'kapan_'
'infrastructure_'
'header_'
'goalkeeper_'
'football_'
'euro_'
'challenge_'
'beruntung_'
'bahagia_'
'application_'
'anybody_'
'Werder_'
'Schalke_'
'Representatives_'
'Partai_'
'PSG_'
'Only_'
'Olimpiade_'
'Nilai_'
'Macan_'
'L'
'Indosat_'
'Henry_'
'Council_'
'78_'
'600_'
'01_'
'wonderful_'
'toko_'
'tik_'
'throughout_'
'teams_'
'sudut_'
'starts_'
'stability_'
'serupa_'
'separate_'
'sarang_'
'rnya_'
'reasons_'
'realized_'
'plastic_'
'pick_'
'perlindungan_'
'penculikan_'
'nan_'
'monetary_'
'misalnya_'
'menakjubkan_'
'lo_'
'kisaran_'
'kamera_'
'join_'
'inti_'
'interested_'
'infrastruktur_'
'highest_'
'gedung_'
'elektronik_'
'diikuti_'
'dewasa_'
'date_'
'creatures_'
'class_'
'ces_'
'books_'
'battle_'
'alami_'
'Tell_'
'Shiite_'
'SUN_'
'Obligasi_'
'Nepal_'
'Mohamed_'
'La_'
'Jack_'
'El_'
'CPO_'
'64_'
'worst_'
'tkan_'
'thousand_'
'telling_'
'survive_'
'sun_'
'strategi_'
'soldier_'
'sh_'
'researchers_'
'rapat_'
'ps_'
'personal_'
'pengaruh_'
'ocean_'
'miss_'
'menuduh_'
'membuktikan_'
'learning_'
'lampu_'
'kosong_'
'kejahatan_'
'ji_'
'jari_'
'jalur_'
'interview_'
'ine_'
'idA_'
'helped_'
'fungsi_'
'faster_'
'dikatakan_'
'center_'
'asumsi_'
'Times_'
'Sejak_'
'Park_'
'Maksudku_'
'Indrawati_'
'H_'
'G'
'Excuse_'
'Belanda_'
'vision_'
'tumbuhan_'
'tersisa_'
'suspected_'
'supply_'
'sukses_'
'stated_'
'spend_'
'sixth_'
'secure_'
'score_'
'satellite_'
'reaksi_'
'pos_'
'percobaan_'
'particular_'
'menggantikan_'
'mengangkat_'
'memegang_'
'melemah_'
'mass_'
'komunitas_'
'kisah_'
'kg_'
'keterangan_'
'kerusuhan_'
'include_'
'glass_'
'girls_'
'ganda_'
'foot_'
'eh_'
'direction_'
'cuaca_'
'card_'
'businesses_'
'boss_'
'besok_'
'berguna_'
'appeared_'
'Serbia_'
'Serangan_'
'Rp7_'
'Nothing_'
'Mogadishu_'
'Mahmoud_'
'Kostaman_'
'Jankovic_'
'J_'
'Gedung_'
'Davydenko_'
'Daniel_'
'Air_'
'02_'
'uranium_'
'shareholders_'
'setahun_'
'seem_'
'secret_'
'scoring_'
'rivals_'
'revised_'
'remained_'
'rekaman_'
'rasio_'
'pull_'
'pulau_'
'proposed_'
'privatization_'
'pindah_'
'perkiraan_'
'pemenang_'
'pandangan_'
'numbers_'
'method_'
'mengganggu_'
'mempengaruhi_'
'memikirkan_'
'mekanisme_'
'mechanism_'
'lots_'
'location_'
'ketat_'
'kepentingan_'
'kamar_'
'jawaban_'
'ialah_'
'ial_'
'golf_'
'expressed_'
'expand_'
'effective_'
'dibawah_'
'diam_'
'debts_'
'dad_'
'compound_'
'completed_'
'cities_'
'causing_'
'carrying_'
'cabinet_'
'bulu_'
'buatan_'
'biru_'
'betapa_'
'berlaku_'
'bangun_'
'anjing_'
'ance_'
'Wow_'
'Sungguh_'
'Resources_'
'Kini_'
'Governor_'
'. / _'
' ] _'
'zona_'
'turut_'
'truck_'
'track_'
'tin_'
'teroris_'
'tambah_'
'swasta_'
'strategic_'
'stake_'
'reality_'
'rangka_'
'putra_'
'programme_'
'peringatan_'
'penjelasan_'
'onto_'
'negative_'
'mulut_'
'minimum_'
'mil_'
'menentang_'
'menegaskan_'
'memeriksa_'
'memaksa_'
'mahasiswa_'
'logam_'
'kemarin_'
'ive_'
'gelombang_'
'disana_'
'dinyatakan_'
'dilaksanakan_'
'dibebaskan_'
'broken_'
'bicarakan_'
'aran_'
'Under_'
'Tn_'
'Palestinians_'
'Nancy_'
'Mexico_'
'Media_'
'Kuznetsova_'
'Grand_'
'Conte_'
'Bagian_'
'96_'
'85_'
'1998_'
'1997_'
' #_'
'ujar_'
'types_'
'tertarik_'
'strategy_'
'stopped_'
'ss_'
'signifikan_'
'sectors_'
'sebut_'
'protection_'
'ponsel_'
'policies_'
'pikirkan_'
'pergerakan_'
'pengusaha_'
'pangkalan_'
'necessary_'
'moral_'
'mengharapkan_'
'lnya_'
'letter_'
'layar_'
'lagu_'
'hoped_'
'hanyalah_'
'governments_'
'families_'
'drink_'
'commercial_'
'clean_'
'cards_'
'buah_'
'apabila_'
'ans_'
'aktivitas_'
'account_'
'Wenger_'
'Saudara_'
'M'
'Le_'
'Kenaikan_'
'Grant_'
'Gates_'
'Financial_'
'E'
'Danamon_'
'Charles_'
'Another_'
'69_'
' ! _'
'wind_'
'waste_'
'victims_'
'ves_'
'users_'
'totally_'
'tight_'
'terjadinya_'
'tar_'
'tahunan_'
'tahan_'
'subject_'
'sts_'
'states_'
'sis_'
'shut_'
'senyawa_'
'responsibility_'
'remains_'
'reactor_'
'published_'
'mid_'
'merebut_'
'menghilang_'
'mengandung_'
'memasukkan_'
'melibatkan_'
'meja_'
'li_'
'levels_'
'lebah_'
'karbon_'
'hopes_'
'gempa_'
'fresh_'
'fo'
'fit_'
'fellow_'
'export_'
'discovered_'
'dipimpin_'
'dipakai_'
'dibutuhkan_'
'dasarnya_'
'communication_'
'coalition_'
'charged_'
'beban_'
'battery_'
'bangkit_'
'au_'
'art_'
'akal_'
'affected_'
'Will_'
'Whoa_'
'Tottenham_'
'Rp5_'
'Pergi_'
'Perang_'
'Life_'
'Lebanese_'
'Dortmund_'
'Djokovic_'
'Che'
'Cepat_'
'Betis_'
'B'
'ATM_'
'93_'
' , ' _'
'weather_'
'wajah_'
'understanding_'
'ucapnya_'
'tokoh_'
'threat_'
'tahapan_'
'strength_'
'streets_'
'selling_'
'seeing_'
'sadar_'
'rule_'
'relationship_'
'rekor_'
'protes_'
'peran_'
'pemeriksaan_'
'pembalap_'
'menjadikan_'
'menikmati_'
'memory_'
'mayat_'
'macam_'
'lahan_'
'kekhawatiran_'
'keinginan_'
'jiwa_'
'host_'
'holding_'
'gagasan_'
'funding_'
'flow_'
'fighters_'
'factor_'
'expenditures_'
'emas_'
'edge_'
'dy_'
'draft_'
'discuss_'
'device_'
'daging_'
'creature_'
'contributed_'
'content_'
'connection_'
'color_'
'calls_'
'beaten_'
'aplikasi_'
'ants_'
'anmu_'
'achieve_'
'Suriah_'
'Pertahanan_'
'Pentagon_'
'Mom_'
'Man_'
'Maafkan_'
'Listen_'
'Laut_'
'Jumlah_'
'Hong_'
'Department_'
'Carlos_'
'Americans_'
' ) ._'
'wall_'
'walaupun_'
'ure_'
'untukmu_'
'tsunami_'
'the'
'terkena_'
'teratas_'
'slam_'
'search_'
'sanksi_'
'relatif_'
'receipts_'
'nano_'
'miliki_'
'mengendalikan_'
'menengah_'
'menembus_'
'mematahkan_'
'majority_'
'lab_'
'kepercayaan_'
'kendali_'
'kelihatannya_'
'kaca_'
'implementation_'
'funny_'
'feed_'
'fair_'
'em_'
'dapatkan_'
'covered_'
'cocok_'
'beroperasi_'
'berkurang_'
'atan_'
'advanced_'
'add_'
'Walter_'
'Sumatera_'
'Suara_'
'Singapura_'
'Rusman_'
'Roddick_'
'Lembaga_'
'LK_'
'Kenya_'
'Juventus_'
'Jim_'
'Hold_'
'Every_'
'Earlier_'
'Depkeu_'
'Cara_'
'Bali_'
'worried_'
'ver_'
'va_'
'summit_'
'stars_'
'simply_'
'seventh_'
'rival_'
'rising_'
'revenues_'
'relatively_'
'regulation_'
'rah_'
'pro_'
'pertengahan_'
'perlombaan_'
'perempatfinal_'
'ourselves_'
'ong_'
'ner_'
'negatif_'
'mom_'
'menyumbang_'
'menguntungkan_'
'menggambarkan_'
'married_'
'mark_'
'legal_'
'lalat_'
'kiper_'
'kenal_'
'humans_'
'ho_'
'gunung_'
'greater_'
'genetic_'
'gap_'
'flying_'
'female_'
'direct_'
'diplomat_'
'devisa_'
'creating_'
'catch_'
'berwarna_'
'bangsa_'
'Today_'
'T'
'Sadr_'
'Maria_'
'K'
'Energy_'
'Egypt_'
'Condoleezza_'
'Both_'
'Big_'
'yours_'
'unya_'
'tenis_'
'tandang_'
'strengthened_'
'solusi_'
'seringkali_'
'riil_'
'reaktor_'
'rat_'
'push_'
'producing_'
'pri'
'performing_'
'penyebab_'
'penawaran_'
'pelanggaran_'
'partner_'
'pace_'
'nuklirnya_'
'menyimpan_'
'menuntut_'
'managed_'
'lived_'
'liar_'
'kuning_'
'ketujuh_'
'kaum_'
'isu_'
'island_'
'indeed_'
'improving_'
'hundred_'
'hat_'
'gs_'
'gembira_'
'forget_'
'file_'
'figures_'
'ff_'
'dream_'
'diterbitkan_'
'disebutkan_'
'dijadwalkan_'
'described_'
'deposits_'
'decline_'
'core_'
'contact_'
'concerned_'
'casualties_'
'boys_'
'blast_'
'bertujuan_'
'beda_'
'aware_'
'atmosfer_'
'asking_'
'agenda_'
'admitted_'
'accept_'
'Um_'
'UMKM_'
'Teknologi_'
'Street_'
'Party_'
'Muhammad_'
'Miss_'
'Mantan_'
'Leverkusen_'
'IPO_'
'Fund_'
'Fitch_'
'Fiorentina_'
'CGI_'
'Budi_'
'Ban_'
'77_'
'03_'
'...._'
' ' , _'
'wan_'
'vice_'
'umumnya_'
'terbatas_'
'tantangan_'
'surprise_'
'standing_'
'stabilitas_'
'soil_'
'smaller_'
'serangkaian_'
'satelit_'
'sangatlah_'
'sampah_'
'sale_'
'rasanya_'
'prinsip_'
'prepared_'
'posted_'
'pictures_'
'persoalan_'
'perolehan_'
'pembunuh_'
'pasangan_'
'outstanding_'
'menyerah_'
'menerbitkan_'
'mena'
'meaning_'
'materi_'
'mahal_'
'luck_'
'kelihatan_'
'image_'
'illegal_'
'heat_'
'gaya_'
'electronic_'
'distance_'
'display_'
'dikembangkan_'
'decrease_'
'decide_'
'dahulu_'
'cy_'
'caught_'
'bombs_'
'birdie_'
'bid_'
'bersifat_'
'bersedia_'
'berfungsi_'
'bencana_'
'baterai_'
'avoid_'
'anaknya_'
'Which_'
'Total_'
'Toni_'
'Thus_'
'Sure_'
'Stuttgart_'
'Sial_'
'Rp10_'
'Ra'
'PPN_'
'Ni'
'Mo'
'Kong_'
'Ko'
'Keamanan_'
'Jan_'
'Harry_'
'Great_'
'California_'
'Biarkan_'
'Bakrie_'
'Ba'
'About_'
'ATP_'
'73_'
' .._'
'zing_'
'unsur_'
'trial_'
'toll_'
'thank_'
'terrorism_'
'teacher_'
'teach_'
'talked_'
'supported_'
'super_'
'subsidy_'
'subsidiary_'
'sky_'
'siswa_'
'sikap_'
'signal_'
'showing_'
'shouldn_'
'sendirian_'
'rocket_'
'respect_'
'regions_'
'rebel_'
'ratings_'
'perhaps_'
'passed_'
'orbit_'
'officers_'
'officer_'
'milisi_'
'melepas_'
'medical_'
'lupa_'
'ler_'
'koalisi_'
'joined_'
'ji'
'insects_'
'ings_'
'influence_'
'husband_'
'hate_'
'gunakan_'
'gives_'
'gejolak_'
'fokus_'
'faces_'
'elections_'
'driven_'
'doctor_'
'dinding_'
'dicapai_'
'deposit_'
'crowd_'
'critical_'
'confidence_'
'cash_'
'capable_'
'bursa_'
'bung_'
'beyond_'
'bertanggung_'
'ber_'
'bayangkan_'
'bandara_'
'anyway_'
'addition_'
'Villarreal_'
'Thayib_'
'Seoul_'
'Pte_'
'Ok_'
'O'
'Meksiko_'
'Mark_'
'Kurasa_'
'Kapten_'
'Kalimantan_'
'Its_'
'Islamist_'
'HIV_'
'Euro_'
'Eto_'
'Diego_'
'Deputi_'
'Ahmed_'
'AU_'
'92_'
'86_'
'82_'
'wrote_'
'worse_'
'watching_'
'terlebih_'
'successful_'
'ster_'
'squad_'
'slightly_'
'sisanya_'
'singkat_'
'sick_'
'sia_'
'setara_'
'semula_'
'sebabnya_'
'schools_'
'religious_'
'refused_'
'rd_'
'raksasa_'
'publicly_'
'picked_'
'penemuan_'
'pemanasan_'
'pasir_'
'pak_'
'pain_'
'nce_'
'metres_'
'menyaksikan_'
'menganggap_'
'mengaku_'
'markets_'
'macro_'
'lambat_'
'im_'
'helping_'
'hand'
'friendly_'
'expensive_'
'enter_'
'dog_'
'dituduh_'
'camera_'
'besarnya_'
'berlanjut_'
'berjanji_'
'berisi_'
'berbentuk_'
'angkatan_'
'angan_'
'White_'
'Te'
'Rp15_'
'Roberto_'
'Put_'
'Pratama_'
'PPh_'
'Mallorca_'
'Jose_'
'III_'
'I'
'Health_'
'Dutch_'
'Begitu_'
'700_'
'1990_'
'. "_'
'wawancara_'
'turns_'
'tur_'
'tree_'
'terpaut_'
'tempur_'
'tau_'
'syarat_'
'stupid_'
'sounds_'
'sitting_'
'seriously_'
'ruling_'
'responsible_'
'puluh_'
'prison_'
'persetujuan_'
'peralatan_'
'penyerang_'
'pengganti_'
'pemilik_'
'payment_'
'patient_'
'pasokan_'
'pangan_'
'nyaman_'
'noted_'
'nations_'
'mobile_'
'mer_'
'mempelajari_'
'mematikan_'
'leaves_'
'layer_'
'lawannya_'
'larger_'
'kualifikasi_'
'jendela_'
'industries_'
'ilmiah_'
'heads_'
'forum_'
'fee_'
'facing_'
'examples_'
'embassy_'
'efek_'
'discussed_'
'diplomatic_'
'dance_'
'complicated_'
'cold_'
'clashes_'
'careful_'
'cally_'
'calling_'
'bersamaan_'
'bermasalah_'
'belas_'
'beating_'
'bawa_'
'annual_'
'amid_'
'agents_'
'address_'
'Tiger_'
'Surat_'
'Steve_'
'Rully_'
'Rp6_'
'Rakyat_'
'Pertamina_'
'Panin_'
'Lu'
'Lima_'
'Kurs_'
'Hmm_'
'Helmand_'
'Force_'
'Do'
'Bila_'
'ANTARA_'
'81_'
'♫ _'
'ying_'
'yellow_'
'wonder_'
'weapon_'
'vote_'
'vehicles_'
'truk_'
'trading_'
'terbakar_'
'task_'
'tamu_'
'structures_'
'signals_'
'sepertinya_'
'selisih_'
'screen_'
'scheduled_'
'saved_'
'relegation_'
'reading_'
'que_'
'professional_'
'possibly_'
'peserta_'
'perkebunan_'
'penonton_'
'peluru_'
'pelayanan_'
'opportunities_'
'ms_'
'mimpi_'
'mikro_'
'menyukai_'
'menyetujui_'
'mengingatkan_'
'memproduksi_'
'membicarakan_'
'melarikan_'
'makro_'
'maker_'
'lin_'
'lie_'
'lantai_'
'komitmen_'
'kenyataannya_'
'kecuali_'
'kawan_'
'imports_'
'ging_'
'faced_'
'experiment_'
'established_'
'ens_'
'ditempatkan_'
'dikutip_'
'destroyed_'
'definitely_'
'ded_'
'cs_'
'clearly_'
'biologi_'
'berikut_'
'arti_'
'aircraft_'
'Tunisia_'
'Their_'
'Sun_'
'Paskah_'
'Pakistani_'
'Nicolas_'
'NPL_'
'Me_'
'Lord_'
'Ka'
'Government_'
'D'
'CA_'
'/_'
' [ _'
'warned_'
'user_'
'therefore_'
'tetangga_'
'terrorist_'
'standar_'
'stages_'
'staff_'
'spending_'
'speaking_'
'sialan_'
'sed_'
'rkan_'
'respectively_'
'realize_'
'raja_'
'quick_'
'prospek_'
'pieces_'
'penumpang_'
'pembangkit_'
'nikel_'
'multi_'
'moneter_'
'mera'
'menilai_'
'mengutip_'
'menempati_'
'mempertimbangkan_'
'lucu_'
'lady_'
'kayu_'
'justru_'
'istilah_'
'issuance_'
'injuries_'
'independent_'
'ina'
'hike_'
'hancur_'
'gula_'
'governor_'
'existing_'
'exist_'
'dokumen_'
'denganku_'
'ches_'
'changing_'
'biarkan_'
'bersalah_'
'berhadapan_'
'benefit_'
'benchmark_'
'beings_'
'arrest_'
'ari_'
'anku_'
'affairs_'
'Yu'
'Ye'
'Would_'
'Umum_'
'Sharapova_'
'Red_'
'Po'
'Pertama_'
'Per'
'PLN_'
'Lo'
'Jordan_'
'Jones_'
'Joe_'
'Investment_'
'Hasil_'
'Fuck_'
'Edwin_'
'Data_'
'Car'
'BII_'
'Alex_'
'Afganistan_'
'AIDS_'
'94_'
'88_'
'. '
'writing_'
'waktunya_'
'urged_'
'traffic_'
'summer_'
'suddenly_'
'standard_'
'specific_'
'sentral_'
'segalanya_'
'scientist_'
'scientific_'
'samping_'
'saksi_'
'rock_'
'retail_'
'resolution_'
'rekannya_'
'rebound_'
'reaction_'
'radikal_'
'radical_'
'providing_'
'presence_'
'practice_'
'personnel_'
'penyelidikan_'
'pembuatan_'
'pelaksanaan_'
'pe_'
'pantas_'
'mostly_'
'menyerukan_'
'menonton_'
'mengunjungi_'
'measure_'
'matematika_'
'manajemen_'
'located_'
'liquidity_'
'linked_'
'lending_'
'laws_'
'ketua_'
'keberadaan_'
'investigation_'
'insiden_'
'identified_'
'hasilnya_'
'gabungan_'
'fought_'
'evolutionary_'
'donor_'
'diumumkan_'
'deaths_'
'corruption_'
'com_'
'causes_'
'calon_'
'bet_'
'bat_'
'attacked_'
'assistance_'
'analyst_'
'agent_'
'agama_'
'ad_'
'absolutely_'
'aan_'
'Vice_'
'Van_'
'Taiwan_'
'Somali_'
'Senior_'
'Rapat_'
'Radio_'
'Nova_'
'No'
'Niger_'
'N'
'Market_'
'Maka_'
'Kongres_'
'En'
'Ehud_'
'EPA_'
'Capital_'
'CIA_'
'Bye_'
'Besar_'
'Belum_'
'Beirut_'
'Argentine_'
'91_'
'84_'
'350_'
' --_'
'written_'
'waters_'
'ular_'
'tri'
'tikus_'
'teachers_'
'street_'
'siang_'
'sial_'
'shoot_'
'sekalipun_'
'seek_'
'scheme_'
'rain_'
'promise_'
'popular_'
'penyelesaian_'
'parah_'
'over'
'obviously_'
'movie_'
'menikah_'
'menerus_'
'memperingatkan_'
'meanwhile_'
'maximum_'
'massa_'
'map_'
'lt_'
'loved_'
'liquid_'
'layak_'
'laporannya_'
'langit_'
'lack_'
'kompleks_'
'kidnapped_'
'ketahui_'
'kebetulan_'
'kajian_'
'jelasnya_'
'heading_'
'halnya_'
'fakta_'
'external_'
'engineering_'
'ely_'
'eli'
'duty_'
'driving_'
'ditujukan_'
'distrik_'
'distributed_'
'dirancang_'
'deputy_'
'concept_'
'committee_'
'commitment_'
'choose_'
'centre_'
'bringing_'
'berdua_'
'beras_'
'batubara_'
'bakal_'
'antaranya_'
'Zaragoza_'
'V'
'Unggulan_'
'Tu'
'Sinaga_'
'Serie_'
'Sekitar_'
'Sal'
'Ro'
'Rafael_'
'Primera_'
'Pasar_'
'Olympic_'
'Mrs_'
'Miami_'
'Mar'
'Jesus_'
'Island_'
'Henin_'
'Four_'
'FA_'
'Deputy_'
'Banking_'
'98_'
'1980_'
'08_'
'wakil_'
'up'
'transactions_'
'tour_'
'stadium_'
'sta'
'sla'
'sih_'
'sending_'
'selection_'
'risks_'
'regular_'
'regime_'
'purchase_'
'phenomenon_'
'pengiriman_'
'pemboman_'
'ot_'
'obvious_'
'note_'
'mortgage_'
'meters_'
'mengisi_'
'mengancam_'
'menceritakan_'
'membawanya_'
'melebihi_'
'melatih_'
'medis_'
'measures_'
'matters_'
'markas_'
'mar'
'lucky_'
'learned_'
'kunci_'
'kopi_'
'kemanusiaan_'
'industrial_'
'holes_'
'highly_'
'hair_'
'gratis_'
'genetik_'
'fisik_'
'fiscal_'
'fenomena_'
'extremely_'
'explained_'
'en'
'elements_'
'count_'
'ciri_'
'cases_'
'captain_'
'cairan_'
'berkuasa_'
'bahaya_'
'ary_'
'affect_'
'accounts_'
'War_'
'Teheran_'
'Sumatra_'
'Ste'
'Shinzo_'
'Sejumlah_'
'S'
'Republik_'
'Newcastle_'
'Metz_'
'Juve_'
'Institute_'
'Huh_'
'Hezbollah_'
'Guinea_'
'Fulham_'
'Everything_'
'Delhi_'
'Davis_'
'Chi'
'Besides_'
'Anthony_'
'97_'
'1994_'
'yesterday_'
'western_'
'welcome_'
'warning_'
'warming_'
'tools_'
'terasa_'
'supporters_'
'stronger_'
'soft_'
'sister_'
'sinar_'
'signs_'
'sepuluh_'
'seeking_'
'saraf_'
'referendum_'
'rally_'
'provides_'
'petani_'
'pesta_'
'perempat_'
'pemberian_'
'overcome_'
'operational_'
'nickel_'
'nat'
'muscles_'
'mitra_'
'mengha'
'mengerjakan_'
'mendapatkannya_'
'menangis_'
'menampilkan_'
'memba'
'med_'
'mayoritas_'
'lly_'
'lines_'
'lang_'
'kontak_'
'jumped_'
'jo'
'io_'
'incredible_'
'gue_'
'gold_'
'ges_'
'generally_'
'ditetapkan_'
'dinilai_'
'detained_'
'conventional_'
'concern_'
'comment_'
'civilian_'
'buying_'
'bones_'
'bitch_'
'betina_'
'berbasis_'
'berbagi_'
'benefits_'
'appreciation_'
'akuisisi_'
'[ _'
'Semen_'
'Richard_'
'Research_'
'RI_'
'Nice_'
'Maliki_'
'Luis_'
'Juan_'
'Jo'
'Jimmy_'
'IC'
'Gulf_'
'Bukankah_'
'Association_'
'Arabia_'
'07_'
'vitamin_'
'usul_'
'una'
'tuntutan_'
'telephone_'
'tariff_'
'tambang_'
'surgery_'
'sub_'
'strengthening_'
'seni_'
'safety_'
'pulled_'
'property_'
'promised_'
'piranti_'
'pilot_'
'perpanjangan_'
'peralihan_'
'pengacara_'
'pencarian_'
'penarikan_'
'peledak_'
'outlook_'
'obtained_'
'ngnya_'
'nenek_'
'molecule_'
'meyakinkan_'
'menghindari_'
'mengagumkan_'
'memukul_'
'masuknya_'
'magazine_'
'lautan_'
'kulakukan_'
'knee_'
'kapten_'
'jet_'
'janji_'
'isi'
'induk_'
'index_'
'import_'
'hey_'
'gangguan_'
'gang_'
'galaksi_'
'floor_'
'favorite_'
'favorit_'
'engine_'
'dividen_'
'dinner_'
'digelar_'
'diajukan_'
'depends_'
'denied_'
'costs_'
'connected_'
'code_'
'chairman_'
'capability_'
'bos_'
'boat_'
'birth_'
'besaran_'
'berturut_'
'bertindak_'
'bertahap_'
'belakangan_'
'bekas_'
'baku_'
'backed_'
'attempt_'
'ati_'
'assist_'
'asi'
'ard_'
'] _'
'Yo'
'Yahudi_'
'X_'
'Very_'
'Torres_'
'Teluk_'
'Simon_'
'Ri'
'Program_'
'Oleh_'
'Middlesbrough_'
'Jerusalem_'
'Fu'
'Denmark_'
'Committee_'
'Board_'
'Bo'
'Bisakah_'
'Bayer_'
'BCA_'
'ASEAN_'
'untukku_'
'unity_'
'ujung_'
'uji_'
'ual_'
'tunjukkan_'
'tis_'
'tercapai_'
'terbaru_'
'tentunya_'
'tender_'
'tembak_'
'telekomunikasi_'
't'
'student_'
'store_'
'shots_'
'sharp_'
'sesi_'
'sepeda_'
'sectarian_'
'sasi_'
'resolusi_'
'res_'
'rayap_'
'profesional_'
'processing_'
'principle_'
'primary_'
'personil_'
'persatuan_'
'penyisihan_'
'pengeluaran_'
'pakaian_'
'ou'
'ory_'
'milyar_'
'mental_'
'menjamin_'
'mengarah_'
'menemukannya_'
'mendirikan_'
'memotong_'
'meliputi_'
'melainkan_'
'majalah_'
'lari_'
'ky_'
'konsep_'
'kilometres_'
'ker_'
'kebebasan_'
'izin_'
'implemented_'
'iklan_'
'hydrogen_'
'houses_'
'gunmen_'
'driver_'
'doubt_'
'dominated_'
'discussion_'
'dilihat_'
'dibentuk_'
'demands_'
'danger_'
'damaged_'
'consider_'
'clash_'
'businessmen_'
'block_'
'billions_'
'berkat_'
'awan_'
'ana_'
'Usaha_'
'Tour_'
'Tehran_'
'Tan'
'Stadium_'
'Spurs_'
'Shut_'
'Several_'
'Sepertinya_'
'Sar'
'Ryan_'
'Run_'
'Raul_'
'Pro'
'Pemeringkat_'
'Office_'
'Mon'
'Mohammad_'
'Katakan_'
'J'
'Islamists_'
'Gol_'
'F'
'Does_'
'Dick_'
'Congress_'
'Company_'
'Chief_'
'Championship_'
'Bilbao_'
'Berita_'
'BBC_'
'Although_'
'83_'
'06_'
' $_'
'widely_'
'wave_'
'tu_'
'tool_'
'tiny_'
'tif_'
'terlambat_'
'terbunuh_'
'tan'
'stick_'
'solar_'
'shall_'
'seleksi_'
'seberapa_'
'sal'
'rudal_'
'replace_'
'remaja_'
'puluhan_'
'protests_'
'prioritas_'
'physical_'
'perhitungan_'
'penerapan_'
'pendekatan_'
'padat_'
'object_'
'ning_'
'murid_'
'menya'
'mengawali_'
'menangani_'
'memanggil_'
'memakan_'
'melayani_'
'me'
'madu_'
'ma'
'lemah_'
'launch_'
'ksi_'
'kidding_'
'kelahiran_'
'kebakaran_'
'ish_'
'ied_'
'hopanoid_'
'honey_'
'helicopters_'
'healthy_'
'harian_'
'greenback_'
'ged_'
'gambaran_'
'gain_'
'functions_'
'for'
'fan_'
'ending_'
'emergency_'
'doctors_'
'ditentukan_'
'diculik_'
'dibangun_'
'darurat_'
'dananya_'
'claim_'
'ch'
'bombing_'
'biological_'
'beritahu_'
'becoming_'
'assumed_'
'appreciate_'
'apart_'
'apa'
'als_'
'air'
'XI_'
'Universitas_'
'Unit_'
'Syria_'
'Syariah_'
'Stay_'
'Sheikh_'
'Rp500_'
'Pertumbuhan_'
'Nelson_'
'Mulia_'
'Mugabe_'
'Mobile_'
'La'
'Je'
'IMF_'
'IAEA_'
'Hu_'
'Himpunan_'
'Head_'
'Grup_'
'Everybody_'
'Ethiopian_'
'Demokrat_'
'Center_'
'Ambil_'
'Actually_'
'APBNP_'
'79_'
'1991_'
'whom_'
'wake_'
'voice_'
'useful_'
'trees_'
'tra'
'tiang_'
'terluka_'
'technical_'
'stored_'
'sm_'
'skala_'
'ships_'
'semangat_'
'scene_'
'saving_'
'riset_'
'reflected_'
'pu'
'proposal_'
'pre_'
'platform_'
'pipa_'
'peta_'
'perut_'
'payments_'
'pattern_'
'pat_'
'palm_'
'paham_'
'ow_'
'organs_'
'operators_'
'offices_'
'ngkan_'
'mutations_'
'mistake_'
'mencintaimu_'
'mencerminkan_'
'memori_'
'memetik_'
'membuatku_'
'membaiknya_'
'master_'
'lying_'
'lipat_'
'likuiditas_'
'lies_'
'korupsi_'
'kontribusi_'
'konsumen_'
'konstruksi_'
'ketinggian_'
'kerajaan_'
'kat_'
'jahat_'
'it'
'hidrogen_'
'happiness_'
'ham_'
'giant_'
'focused_'
'fields_'
'equal_'
'electrical_'
'east_'
'drew_'
'dra'
'divided_'
'ditanya_'
'disampaikan_'
'direncanakan_'
'dire'
'diluncurkan_'
'dikirim_'
'dijual_'
'destroy_'
'considering_'
'consecutive_'
'captured_'
'berani_'
'ations_'
'arm_'
'Ya'
'Wolfsburg_'
'Va'
'Through_'
'SMS_'
'Pre'
'Once_'
'Nu'
'Ne'
'Mubarak_'
'Move_'
'Militer_'
'Mac'
'Le'
'Komisi_'
'Juara_'
'Ivanovic_'
'Hotspur_'
'Hingga_'
'Fabio_'
'Empat_'
'Dapatkah_'
'CO2_'
'Boston_'
'170_'
'...?_'
'. -_'
' + _'
'yo_'
'yah_'
'walking_'
'tipis_'
'terorisme_'
'terancam_'
'telecommunication_'
'technologies_'
'te'
'tahanan_'
'suspended_'
'supporting_'
'suffering_'
'substance_'
'struggling_'
'so'
'siaran_'
'sengaja_'
'scared_'
'sahamnya_'
'river_'
'returning_'
'resulted_'
'receive_'
'protest_'
'predict_'
'pojok_'
'petinju_'
'pengawasan_'
'pelajaran_'
'ped_'
'origin_'
'ong'
'notice_'
'ned_'
'monitoring_'
'merubah_'
'merosot_'
'mentioned_'
'memperhatikan_'
'maksimal_'
'lift_'
'kemari_'
'keberatan_'
'kabinet_'
'jump_'
'jejak_'
'je'
'jalanan_'
'ite_'
'istri_'
'invasion_'
'inter'
'intelijen_'
'insurgents_'
'insurgency_'
'images_'
'ill_'
'hearing_'
'handed_'
'ha'
'gi_'
'gh_'
'genes_'
'fiskal_'
'fat_'
'falling_'
'expenditure_'
'environmental_'
'ensure_'
'enjoy_'
'emisi_'
'eksplorasi_'
'drugs_'
'diseases_'
'diplomatik_'
'dikuasai_'
'didirikan_'
'diantaranya_'
'democracy_'
'ct_'
'crime_'
'counter_'
'controversial_'
'comfortable_'
'coast_'
'botol_'
'bin_'
'bertugas_'
'berlari_'
'berenang_'
'bear_'
'b'
'aya_'
'ated_'
'asap_'
'apalagi_'
'Z'
'Wells_'
'Vo'
'Victor_'
'Tri'
'Swedia_'
'Sebanyak_'
'Pra'
'Pera'
'Over_'
'Other_'
'News_'
'Mc'
'Master_'
'Lihatlah_'
'Kemenangan_'
'Gu'
'Georgia_'
'Ge'
'Gas_'
'Fenerbahce_'
'Espanyol_'
'Corporation_'
'CAR_'
'Berikan_'
'Berdasarkan_'
'Angola_'
'30'
'130_'
'110_'
'zation_'
'za'
'winners_'
'west_'
'visitors_'
'victim_'
'ver'
'utan_'
'unless_'
'uc'
'tumor_'
'treatment_'
'transportation_'
'trans'
'toward_'
'ters_'
'terpuruk_'
'terhubung_'
'terba'
'tenggelam_'
'technique_'
'tanggung_'
'substitute_'
'spokesperson_'
'speech_'
'smell_'
'remote_'
'reformasi_'
'quit_'
'qualifying_'
'pro'
'persaingan_'
'persahabatan_'
'perawatan_'
'perairan_'
'penambahan_'
'pembuka_'
'passengers_'
'partikel_'
'pair_'
'ownership_'
'offering_'
'none_'
'nes_'
'menyesuaikan_'
'menyebar_'
'menunjuk_'
'menjatuhkan_'
'mengklaim_'
'mengamati_'
'mendengarkan_'
'membayangkan_'
'memandang_'
'melanggar_'
'medicine_'
'manis_'
'manajer_'
'logi_'
'limit_'
'lights_'
'le'
'kupu_'
'kejuaraan_'
'jutaan_'
'journey_'
'invest_'
'interim_'
'intended_'
'insentif_'
'individuals_'
'includes_'
'improved_'
'ilegal_'
'ideal_'
'hosts_'
'gradually_'
'formation_'
'format_'
'extend_'
'egg_'
'ear_'
'ditembak_'
'disaster_'
'dipercaya_'
'diper'
'digit_'
'detail_'
'danau_'
'continues_'
'committed_'
'coffee_'
'cerdas_'
'breaking_'
'analis_'
'alternative_'
'agricultural_'
'agree_'
'acquisition_'
'absen_'
'William_'
'Whereas_'
'Wen_'
'Ver'
'Uganda_'
'Seseorang_'
'Sean_'
'Santander_'
'Sanchez_'
'SOE_'
'Rwanda_'
'Public_'
'Pasifik_'
'Nama_'
'Na'
'Moreover_'
'Micro_'
'Memang_'
'Masih_'
'Kota_'
'Khan_'
'Keep_'
'Ju'
'He'
'Gresik_'
'Green_'
'Fish_'
'Fa'
'Christopher_'
'Bureau_'
'Berhenti_'
'Be_'
'Andrew_'
'?"_'
'; _'
'1996_'
'160_'
'09_'
' -_'
'x'
'worries_'
'wood_'
'warm_'
'wa'
'ur'
'upset_'
'universitas_'
'unique_'
'unable_'
'tersangka_'
'tawa_'
'tabung_'
'sub'
'solid_'
'smoke_'
'skills_'
'significantly_'
'serving_'
'served_'
'seolah_'
'segi_'
'seemed_'
'sebulan_'
'seat_'
'se'
'sat_'
'saluran_'
'roti_'
'roads_'
'ranked_'
'raising_'
'putting_'
'pokok_'
'plantation_'
'perform_'
'perfectly_'
'pelabuhan_'
'pegolf_'
'path_'
'paruh_'
'pakai_'
'page_'
'ordered_'
'objects_'
'nor_'
'nobody_'
'nak_'
'murder_'
'moves_'
'minuman_'
'metal_'
'menyambut_'
'meluncurkan_'
'melahirkan_'
'meetings_'
'malah_'
'magic_'
'lkan_'
'li'
'lar'
'ketentuan_'
'kesini_'
'kerangka_'
'kelelawar_'
'kedutaan_'
'karir_'
'kamp_'
'kakinya_'
'ism_'
'inspired_'
'increases_'
'ical_'
'i'
'hutang_'
'granat_'
'farmers_'
'failure_'
'events_'
'eighth_'
'disa'
'des_'
'deposito_'
'decades_'
'dah_'
'consumer_'
'consequences_'
'commander_'
'command_'
'chi'
'camp_'
'bunganya_'
'bu'
'blow_'
'birthday_'
'besides_'
'berwenang_'
'berumur_'
'berla'
'berkunjung_'
'berkumpul_'
'berharga_'
'awalnya_'
'awa'
'applied_'
'appearance_'
'amounting_'
'agencies_'
'adil_'
'acuan_'
'Y'
'Wall_'
'Until_'
'Udara_'
'Ti'
'Tanpa_'
'Statistics_'
'Shi'
'Rp9'
'Roh_'
'RAPBN_'
'Portsmouth_'
'Porto_'
'Phoenix_'
'Perubahan_'
'Pejabat_'
'Pantai_'
'Pajak_'
'Or'
'Mer'
'Ke_'
'Kalla_'
'Jar'
'Hizbullah_'
'Han'
'HAMAS_'
'Gra'
'Gar'
'Ga'
'During_'
'De_'
'Court_'
'Coast_'
'Christian_'
'Benzema_'
'Bangsa_'
'BC_'
'Affairs_'
'00'
' (_'
'yield_'
'wild_'
'wearing_'
'war'
'vital_'
'violent_'
'urusan_'
'tive_'
'threatened_'
'teaching_'
'taste_'
'tampilan_'
'sugar_'
'stone_'
'steel_'
'square_'
'spoke_'
'sibuk_'
'shooting_'
'sesama_'
'sepakat_'
'sensitive_'
'seks_'
'secured_'
'sebaiknya_'
'rin'
'reserve_'
'request_'
'reptilia_'
'replaced_'
'ragu_'
'proyeksi_'
'prepare_'
'powers_'
'posisinya_'
'penye'
'pendanaan_'
'penca'
'pemikiran_'
'pembuluh_'
'outer_'
'otomatis_'
'organisms_'
'offensive_'
'newly_'
'nar'
'n'
'movements_'
'mon'
'militant_'
'merencanakan_'
'mengi'
'menghilangkan_'
'menggunakannya_'
'mengerikan_'
'mengarahkan_'
'menelepon_'
'mencakup_'
'membo'
'maksudmu_'
'lintas_'
'lingkaran_'
'lengkap_'
'lembar_'
'kuno_'
'komentar_'
'kilogram_'
'kerugian_'
'kebahagiaan_'
'kanmu_'
'justice_'
'jumlahnya_'
'interbank_'
'indicated_'
'holds_'
'hidupnya_'
'hangat_'
'handle_'
'guard_'
'grup_'
'gram_'
'features_'
'famous_'
'extended_'
'explanation_'
'error_'
'eng_'
'efisien_'
'efficient_'
'doubles_'
'ditandatangani_'
'dini_'
'diadakan_'
'desert_'
'declined_'
'decade_'
'con'
'comments_'
'cho'
'bye_'
'bur'
'berpengaruh_'
'bang_'
'baja_'
'ayam_'
'assumption_'
'asli_'
'ara_'
'ang'
'advance_'
'Young_'
'Video_'
'VfL_'
'Turkey_'
'Trust_'
'Tigers_'
'Sony_'
'Sometimes_'
'Sofyan_'
'Ronald_'
'Proses_'
'Project_'
'Planning_'
'Penelitian_'
'PGA_'
'Ms_'
'Mitsubishi_'
'Me'
'McCormack_'
'Manuel_'
'Levante_'
'LTTE_'
'LPS_'
'Klub_'
'Kapan_'
'Kanada_'
'Ivan_'
'IDB_'
'Ho'
'Her_'
'Help_'
'Ham'
'Francisco_'
'Five_'
'Federal_'
'El'
'Egyptian_'
'Diam_'
'Davenport_'
'Cottbus_'
'Bu_'
'Basra_'
'Bahwa_'
'BES_'
'Austria_'
'Ar'
'Apalagi_'
'Any_'
'AN'
'23'
'140_'
' ' ._'
'xi'
'wi_'
'w'
'versi_'
'va'
'university_'
'ungan_'
'umur_'
'uk'
'triggered_'
'trick_'
'treated_'
'testing_'
'tersebar_'
'terrible_'
'terkejut_'
'targeted_'
'tanya_'
'tanks_'
'sweet_'
'survival_'
'solve_'
'setting_'
'servisnya_'
'sekutu_'
'sea'
'sanctions_'
'sah_'
'ru_'
'review_'
'residents_'
'recognize_'
'proved_'
'protesters_'
'proof_'
'producer_'
'plays_'
'pistol_'
'pintar_'
'pertambangan_'
'permasalahan_'
'pan'
'ou_'
'osi'
'operasional_'
'nu'
'nervous_'
'nasib_'
'metode_'
'mengincar_'
'mendominasi_'
'mencederai_'
'menargetkan_'
'memperpanjang_'
'membuang_'
'melukai_'
'launching_'
'laughing_'
'kotor_'
'komersial_'
'kerjanya_'
'keeps_'
'journalists_'
'jamur_'
'itas_'
'insect_'
'initiative_'
'indikator_'
'identity_'
'hungry_'
'household_'
'harapkan_'
'gentlemen_'
'forest_'
'fle'
'fisika_'
'farm_'
'evolusionis_'
'eu'
'engaged_'
'enemy_'
'emosi_'
'ema'
'el'
'ee_'
'diselenggarakan_'
'diriku_'
'dilanda_'
'dijadikan_'
'dihentikan_'
'determined_'
'desain_'
'derajat_'
'degradasi_'
'damai_'
'cukai_'
'chip_'
'chi_'
'che'
'channel_'
'championship_'
'ca_'
'believes_'
'ap'
'anti'
'Wil'
'Wi'
'Un'
'Telecom_'
'Such_'
'Suatu_'
'Singh_'
'Sialan_'
'Scientists_'
'Sama_'
'Rp14_'
'Robot_'
'Retail_'
'Rahmat_'
'Pesawat_'
'Perekonomian_'
'Nusantara_'
'Nomor_'
'Min'
'Mata_'
'Manusia_'
'Major_'
'Law_'
'Komite_'
'Koeman_'
'Kabul_'
'Jaya_'
'JSX_'
'Isn_'
'Girondins_'
'Germain_'
'Einstein_'
'Du'
'Di'
'De'
'Con'
'Co_'
'Clinton_'
'C'
'Bukit_'
'Bob_'
'Bi'
'Benarkah_'
'Athletic_'
'Asked_'
'Abu_'
'window_'
'visual_'
'vely_'
'ures_'
'to'
'tly_'
'threw_'
'therapy_'
'tersedia_'
'terdengar_'
'tera'
'tells_'
'tarantula_'
'tannya_'
'strategis_'
'song_'
'skan_'
'singles_'
'siapapun_'
'sets_'
'sesudah_'
'seized_'
'rus_'
'rokok_'
'requires_'
'reaches_'
'ras_'
'ral_'
'pulih_'
'proud_'
'pra'
'pounds_'
'populasi_'
'phase_'
'pele'
'paying_'
'patah_'
'p'
'ow'
'overall_'
'organization_'
'opponent_'
'operate_'
'om_'
'olahraga_'
'ol'
'nyaris_'
'negaranya_'
'menjanjikan_'
'menghormati_'
'memburu_'
'membersihkan_'
'melonjak_'
'meantime_'
'masalahnya_'
'lungs_'
'losses_'
'lli'
'ld_'
'lawyer_'
'languages_'
'kritis_'
'kontrol_'
'kla'
'kewajiban_'
'ketimbang_'
'kepadanya_'
'kecewa_'
'kabel_'
'jarang_'
'jaman_'
'insurance_'
'individu_'
'imposed_'
'iku_'
'ih_'
'hi'
'halftime_'
'grown_'
'gnya_'
'g'
'freedom_'
'forever_'
'experts_'
'expansion_'
'execution_'
'encourage_'
'enable_'
'dri'
'dreams_'
'diskusi_'
'discussions_'
'dis'
'dimensi_'
'dimasukkan_'
'dimaksudkan_'
'dihadapi_'
'diatur_'
'dian'
'cu'
'copy_'
'combat_'
'clothes_'
'cing_'
'cer'
'celah_'
'calm_'
'cabang_'
'butuhkan_'
'burning_'
'burn_'
'buildings_'
'blog_'
'bersaing_'
'bermaksud_'
'berke'
'berka'
'berbuat_'
'bee_'
'bau_'
'badai_'
'ba'
'aside_'
'appear_'
'ana'
'aggregate_'
'achieved_'
'Waktu_'
'VfB_'
'Up_'
'Twitter_'
'System_'
'Stadion_'
'Ser'
'Sebelum_'
'Sa'
'SA'
'Regional_'
'Ray_'
'Pu'
'Pria_'
'Pihak_'
'Peru_'
'PE'
'Ooh_'
'Omar_'
'Net_'
'Mauritania_'
'Mancini_'
'Kupikir_'
'Kebanyakan_'
'Jean_'
'Islamabad_'
'Heriawan_'
'Haniya_'
'Got_'
'Gerrard_'
'Former_'
'Fine_'
'Ekonomi_'
'Drogba_'
'Dean_'
'DI'
'Credit_'
'Cha'
'Can'
'Ca'
'Burung_'
'Bolivia_'
'Blake_'
'Before_'
'Be'
'Bandung_'
'Agreement_'
'17'
'1'
'- '
'zi'
'yu'
'witnesses_'
'winter_'
'volatile_'
'veteran_'
'version_'
'unik_'
'turning_'
'trap_'
'terburuk_'
'terbukti_'
'temannya_'
'taxes_'
'targets_'
'tahunnya_'
'struggle_'
'spokeswoman_'
'smile_'
'smart_'
'sites_'
'sia'
'settle_'
'sawit_'
'resi'
'regulations_'
'recovered_'
'ramah_'
'provision_'
'pre'
'po'
'physics_'
'pengungsi_'
'pembebasan_'
'pelatihan_'
'panel_'
'pahlawan_'
'organizations_'
'oo'
'oli'
'nda_'
'ministers_'
'mewujudkan_'
'mesti_'
'menyukainya_'
'menyiapkan_'
'menyelidiki_'
'menyalurkan_'
'menu'
'mengundurkan_'
'menghitung_'
'menghadiri_'
'mengantisipasi_'
'mencintai_'
'membuatmu_'
'melompat_'
'mature_'
'mat'
'massive_'
'maksud_'
'lelaki_'
'lay_'
'laboratorium_'
'l'
'kursi_'
'kuliah_'
'korporasi_'
'komposisi_'
'kha'
'kelebihan_'
'kekacauan_'
'keeping_'
'jual_'
'ju_'
'jo_'
'jak_'
'jabatan_'
'isasi_'
'is'
'ional_'
'inter_'
'instrumen_'
'independence_'
'improvement_'
'ila'
'hoping_'
'harganya_'
'golnya_'
'gene_'
'gas'
'forming_'
'fix_'
'filled_'
'fer_'
'exploded_'
'except_'
'evolved_'
'entered_'
'ends_'
'empty_'
'employees_'
'ela'
'eating_'
'ease_'
'drug_'
'dolphin_'
'distribusi_'
'diselesaikan_'
'dipilih_'
'diminta_'
'dilarang_'
'dewan_'
'developments_'
'den'
'dam_'
'customer_'
'converted_'
'component_'
'complexity_'
'commodities_'
'collected_'
'cation_'
'bs_'
'bill_'
'berputar_'
'behavior_'
'banned_'
'bag_'
'asuhan_'
'associated_'
'ase_'
'arsitektur_'
'arkan_'
'approved_'
'apply_'
'ancient_'
'alternatif_'
'af'
'accepted_'
'Woods_'
'Without_'
'Watch_'
'Wapres_'
'Wal'
'Venezuela_'
'UU_'
'USD_'
'Tentara_'
'Sub'
'Statistik_'
'Shit_'
'Sedikitnya_'
'Second_'
'Say_'
'Santa_'
'SE'
'Ru'
'Rp11_'
'Royal_'
'Ronaldo_'
'Ramos_'
'Pasti_'
'Padahal_'
'PGN_'
'Nobody_'
'Melbourne_'
'Masalah_'
'Mario_'
'MI'
'Love_'
'LDR_'
'Kondisi_'
'Kolombia_'
'Ki_'
'Indofood_'
'Hi'
'Ham_'
'Ha_'
'Go'
'Gi'
'FBI_'
'Corp_'
'Co'
'Chicago_'
'Captain_'
'Canada_'
'Business_'
'Bulan_'
'Based_'
'Bala'
'Bahasa_'
'Alonso_'
'Af'
'89_'
'87_'
'50'
'36'
' : " _'
'wo'
'willing_'
'websites_'
'wear_'
'weakened_'
'wan'
'wajib_'
'urban_'
'understood_'
'un'
'tribal_'
'tiebreak_'
'ti'
'tertutup_'
'tertinggal_'
'tertekan_'
'territory_'
'teknis_'
'susu_'
'supaya_'
'subprime_'
'studies_'
'stuck_'
'strongly_'
'stress_'
'stadion_'
'sion_'
'signing_'
'shortly_'
'sh'
'sen_'
'sebaliknya_'
'savings_'
'sains_'
'ride_'
'rid_'
'restoran_'
'pushed_'
'proper_'
'pressures_'
'pi_'
'persiapan_'
'peri'
'penyaluran_'
'pengobatan_'
'penciptaan_'
'pembuat_'
'payudara_'
'ore_'
'opposite_'
'olah_'
'observer_'
'multi'
'mor'
'monthly_'
'molecules_'
'mnya_'
'menyangkut_'
'menghubungi_'
'menggerakkan_'
'mengalir_'
'mengabaikan_'
'mempersiapkan_'
'mempercepat_'
'membiayai_'
'membebaskan_'
'membalas_'
'meli'
'mela'
'meat_'
'marketing_'
'male_'
'lomba_'
'links_'
'link_'
'konvensional_'
'kode_'
'kerjakan_'
'kemana_'
'kejutan_'
'kegagalan_'
'juru_'
'jumpa_'
'jaminan_'
'ized_'
'ium_'
'indeks_'
'ian'
'ia'
'homes_'
'h'
'gun'
'greatest_'
'gla'
'ger_'
'gencatan_'
'ft_'
'fla'
'exploration_'
'eti'
'ekspansi_'
'dying_'
'dry_'
'document_'
'do'
'dipandang_'
'dipa'
'dijelaskan_'
'diber'
'diantara_'
'dia'
'defeated_'
'deadly_'
'damn_'
'cycle_'
'cun'
'crashed_'
'council_'
'conversation_'
'consists_'
'compassion_'
'collect_'
'clubs_'
'cle'
'claims_'
'chicken_'
'charges_'
'characteristics_'
'cent_'
'bone_'
'blok_'
'birdies_'
'bi_'
'berpeluang_'
'berlatih_'
'bercanda_'
'bar'
'band_'
'ayahmu_'
'ati'
'applications_'
'angnya_'
'analysis_'
'allows_'
'alleged_'
'ahan_'
'agregat_'
'aged_'
'acquire_'
'acak_'
'Yo_'
'Wa'
'Valladolid_'
'Turkish_'
'Third_'
'Tempat_'
'Technology_'
'Sur'
'Stu'
'Steel_'
'Schiavone_'
'Ribery_'
'Rencana_'
'Phil_'
'Pernyataan_'
'Penga'
'Pemba'
'Pato_'
'Par'
'PP_'
'P'
'OKI_'
'OIC_'
'Niaga_'
'Mukherjee_'
'Muamalat_'
'Mayor_'
'Mans_'
'Make_'
'Luca_'
'Lakukan_'
'Kuwait_'
'Korut_'
'Jane_'
'ING_'
'Harvard_'
'Ha'
'Dakar_'
'Cra'
'Casey_'
'Bur'
'Bolton_'
'Blair_'
'Bagi_'
'Baby_'
'Ali'
'Agus_'
'Adam_'
'AR'
'A'
'26'
'2'
'* _'
'! - _'
'! '
'zo'
'zi_'
'ze'
'z'
'win'
'wi'
'vessels_'
'usahanya_'
'tradisional_'
'torn_'
'throw_'
'tests_'
'telinga_'
'suspects_'
'succeeded_'
'stayed_'
'star'
'ss'
'ski_'
'shock_'
'serikat_'
'sekelompok_'
'seiring_'
'sees_'
'sapi_'
'sak'
'saatnya_'
'ry'
'rus'
'rumput_'
'requirement_'
'remarkable_'
'random_'
'ram_'
'produsen_'
'populer_'
'planes_'
'pin_'
'petunjuk_'
'pernikahan_'
'pengu'
'pengayaan_'
'pengamat_'
'penangkapan_'
'pembakaran_'
'patients_'
'partners_'
'option_'
'omong_'
'older_'
'nsi'
'no'
'neither_'
'neighbouring_'
'nantinya_'
'names_'
'mus'
'mouth_'
'mountain_'
'mono'
'mo_'
'mineral_'
'militan_'
'menyerahkan_'
'mengira_'
'mengajar_'
'menanggapi_'
'manage_'
'm'
'lu_'
'lintasan_'
'lengan_'
'larangan_'
'lar_'
'lake_'
'komoditas_'
'komandan_'
'keseimbangan_'
'kepalanya_'
'kela'
'ked_'
'kecenderungan_'
'kategori_'
'karyawan_'
'kan'
'integrated_'
'ine'
'increasingly_'
'ie'
'identify_'
'hmm_'
'hidupku_'
'guilty_'
'guards_'
'grenade_'
'ght_'
'generated_'
'frequency_'
'forehand_'
'feature_'
'fate_'
'explosives_'
'erat_'
'equivalent_'
'entering_'
'eni'
'enak_'
'emerged_'
'email_'
'eksternal_'
'effects_'
'ee'
'dude_'
'dise'
'dila'
'dialogue_'
'defense_'
'decisions_'
'crimes_'
'crash_'
'college_'
'cheap_'
'character_'
'capung_'
'busy_'
'bunch_'
'blamed_'
'betul_'
'besi_'
'berurutan_'
'bersikap_'
'berperan_'
'berg_'
'beralih_'
'bera'
'bees_'
'bayar_'
'bat'
'bangga_'
'babi_'
'asset_'
'arti'
'ara'
'ar'
'appears_'
'appeal_'
'anywhere_'
'admit_'
'acquired_'
'Yunani_'
'Waziristan_'
'Ve'
'Utang_'
'Undang_'
'Uncle_'
'Top_'
'Texas_'
'Tepi_'
'Tas'
'Tank_'
'Sporting_'
'Sky_'
'Siro_'
'Sho'
'Sha'
'Senang_'
'Sel_'
'Sekuritas_'
'Said_'
'Pertemuan_'
'Permisi_'
'Perbankan_'
'Pemimpin_'
'Pat'
'Pan'
'NE'
'Moya_'
'Moscow_'
'Men'
'Melalui_'
'Manhattan_'
'Management_'
'Lautan_'
'Langkah_'
'Karim_'
'Jum_'
'Ja'
'Investasi_'
'IV_'
'Hu'
'Harga_'
'HA'
'ElBaradei_'
'Duta_'
'Djalil_'
'Ditjen_'
'Dirjen_'
'Danareksa_'
'Daerah_'
'Cukup_'
'Coba_'
'Chu'
'Christmas_'
'Catania_'
'Carl_'
'Burhanudin_'
'Bou'
'Bobby_'
'Birmingham_'
'Biar_'
'Bet'
'Bawa_'
'Bar'
'Astaga_'
'Aqsa_'
'yo'
'wisdom_'
'ving_'
'ud_'
'tired_'
'thinks_'
'tersingkir_'
'teror_'
'terkemuka_'
'teri'
'tepi_'
'tea_'
'taught_'
'survey_'
'surge_'
'supplies_'
'sundulan_'
'succeed_'
'spesifik_'
'skor_'
'sin'
'sharing_'
'sharia_'
'ser_'
'seminggu_'
'seminar_'
'sela_'
'sejalan_'
'sa'
'ris_'
'resistance_'
'receiving_'
'raw_'
'rare_'
'rambut_'
'protected_'
'priority_'
'post'
'pon_'
'poll_'
'pidato_'
'pi'
'perumahan_'
'persegi_'
'perpajakan_'
'perahu_'
'penulis_'
'pengolahan_'
'penghargaan_'
'peaceful_'
'para'
'pa_'
'organic_'
'offspring_'
'oc'
'observed_'
'objek_'
'nasabah_'
'na'
'missile_'
'mis'
'minat_'
'merancang_'
'menyentuh_'
'menutupi_'
'menjamu_'
'mengusulkan_'
'mengembalikan_'
'mengantungi_'
'meneruskan_'
'meneliti_'
'menari_'
'memperkenalkan_'
'memasang_'
'meledakkan_'
'mele'
'medan_'
'math_'
'malu_'
'lemak_'
'lelah_'
'laid_'
'kor'
'kle'
'kedelapan_'
'kar_'
'kandungan_'
'ka'
'ja'
'isme_'
'iron_'
'incentives_'
'ily_'
'ilah_'
'hy'
'hitting_'
'hide_'
'hero_'
'hasn_'
'habis_'
'grade_'
'glad_'
'gerak_'
'gained_'
'forecast_'
'fore'
'flies_'
'flew_'
'fi'
'faith_'
'f'
'enjoyed_'
'emerging_'
'ekor_'
'educational_'
'diterapkan_'
'dira'
'diproduksi_'
'dioxide_'
'dialog_'
'deployment_'
'department_'
'demokrasi_'
'dang_'
'dan'
'confirm_'
'conduct_'
'combined_'
'closing_'
'ck'
'characteristic_'
'cal'
'brings_'
'branch_'
'beruntun_'
'bertahun_'
'bersiap_'
'bernilai_'
'bereaksi_'
'beragam_'
'back'
'amounts_'
'agriculture_'
'ae'
'adu_'
'ace_'
'\\_'
'Yonhap_'
'Year_'
'Unfortunately_'
'US'
'Tur_'
'Tro'
'Trans'
'Tommy_'
'Time_'
'Think_'
'Tetap_'
'Sto'
'Steven_'
'Stade_'
'Smith_'
'Sebaliknya_'
'Sch'
'Samuel_'
'Saint_'
'SV_'
'Rp17'
'Rp12_'
'Recreativo_'
'Re'
'Pe'
'PM_'
'Mohammed_'
'Mil'
'MA'
'Luas_'
'Ledakan_'
'Lazio_'
'Kon'
'Keluar_'
'Karya_'
'Kaka_'
'Jurubicara_'
'Ji'
'Jay_'
'Informasi_'
'Hidup_'
'Gading_'
'Fi'
'FIFA_'
'Elena_'
'Eh_'
'Eddie_'
'Ed'
'EU_'
'Duisburg_'
'Dra'
'Dirut_'
'Demikian_'
'Dasar_'
'Damn_'
'Commission_'
'Celtic_'
'Cause_'
'Borussia_'
'Bentuk_'
'Bab'
'Army_'
'Anna_'
'Angka_'
'Agent_'
'74_'
'1967_'
'050_'
'... - _'
'.'
' )_'
'ware_'
'walked_'
'visiting_'
'virtual_'
'usual_'
'uri'
'upper_'
'uns'
'ue_'
'tuhan_'
'traditional_'
'topik_'
'tipe_'
'till_'
'text_'
'tested_'
'terang_'
'tennis_'
'tear_'
'swap_'
'susah_'
'sudden_'
'suci_'
'style_'
'strange_'
'ssi'
'somewhere_'
'skill_'
'server_'
'sepatu_'
'seluler_'
'sebagainya_'
'sco'
'runs_'
'ruled_'
'ria_'
'restaurant_'
'rejected_'
'regard_'
'reducing_'
'realization_'
'rea'
'qualifier_'
'prove_'
'prop'
'playmaker_'
'plasma_'
'planets_'
'photo_'
'pera'
'penya'
'pentingnya_'
'penguatan_'
'peacekeepers_'
'passing_'
'pak'
'owner_'
'oto'
'originally_'
'original_'
'op'
'observation_'
'objective_'
'nts_'
'nku_'
'nic_'
'nal_'
'muscle_'
'moyang_'
'mo'
'missiles_'
'milk_'
'merokok_'
'menyebutnya_'
'menolong_'
'mengkonfirmasi_'
'mengajarkan_'
'mengajak_'
'mendarat_'
'mencuri_'
'menaruh_'
'membantah_'
'membagi_'
'melu'
'meletakkan_'
'lumpur_'
'lifting_'
'letters_'
'les'
'lebar_'
'kurasa_'
'kin_'
'keren_'
'katak_'
'kasi_'
'kaitan_'
'jujur_'
'j'
'ious_'
'intervensi_'
'interests_'
'innovation_'
'ight_'
'identitas_'
'ibunya_'
'holders_'
'ho'
'hip_'
'heh_'
'headquarters_'
'gar'
'gak_'
'foreigners_'
'fill_'
'faksi_'
'exercise_'
'enterprises_'
'enrichment_'
'ek'
'drawn_'
'dozen_'
'down'
'diubah_'
'diu'
'ditunda_'
'dite'
'dita'
'disiarkan_'
'dilakukannya_'
'dike'
'di'
'demanded_'
'dear_'
'deals_'
'contrast_'
'cin'
'chain_'
'cable_'
'bun'
'buang_'
'bruto_'
'bottle_'
'bis_'
'biologis_'
'berlawanan_'
'bergantung_'
'berdarah_'
'berdampak_'
'arrive_'
'apos_'
'antariksa_'
'angry_'
'ages_'
'acid_'
'Zi'
'To'
'Ter'
'Ten'
'Tai'
'TED'
'Stephen_'
'Song_'
'Shanghai_'
'Seluruh_'
'Sekolah_'
'Sea'
'Santoro_'
'Rp16_'
'Romania_'
'Renault_'
'Rachel_'
'Putin_'
'Post_'
'Pembalap_'
'Pa'
'Organisasi_'
'Old_'
'NP'
'NG_'
'Mmm_'
'Mm_'
'Menko_'
'Marco_'
'Ma'
'Long_'
'Li'
'LED_'
'Kerja_'
'Kembali_'
'Kar'
'Kal'
'Jusuf_'
'Jonathan_'
'Jalan_'
'Ismail_'
'Iraqis_'
'Instead_'
'In'
'Haiti_'
'Gerakan_'
'Fred_'
'Ford_'
'Everyone_'
'Er'
'Dou'
'Des'
'Defence_'
'Colombia_'
'Ci'
'Chad_'
'Ce'
'Black_'
'Bersama_'
'Beckham_'
'Baghdatis_'
'Anyway_'
'Antonio_'
'Alam_'
'Ahmadinejad_'
'70'
'41'
'22'
'15'
'125_'
'105_'
'. ._'
' . '_'
'zaman_'
'weren_'
'wealth_'
'weak_'
'walls_'
'wah_'
'vo'
'van'
'utamanya_'
'under'
'tz_'
'tu'
'titles_'
'tertawa_'
'terrorists_'
'tek'
'tar'
'takan_'
'sus_'
'sti'
'situ_'
'simpanan_'
'shared_'
'seumur_'
'sentimen_'
'sekedar_'
'secepat_'
'sealed_'
'scores_'
'sampel_'
'salju_'
'revenue_'
'retina_'
'rencananya_'
'reference_'
'rangkaian_'
'ran'
'rak_'
'quiet_'
'purposes_'
'principles_'
'prey_'
'presented_'
'portal_'
'polimer_'
'pertunjukan_'
'periods_'
'per'
'pencapaian_'
'pena'
'pembahasan_'
'pema'
'pegawai_'
'pas'
'pandang_'
'paket_'
'overseas_'
'out'
'occasion_'
'oa'
'naiknya_'
'mutation_'
'mur'
'mm'
'merely_'
'merayakan_'
'menyu'
'menyingkirkan_'
'mengizinkan_'
'menghi'
'mengenal_'
'mengelola_'
'mengawasi_'
'mengatakannya_'
'memper'
'memecahkan_'
'membakar_'
'mema'
'marine_'
'manner_'
'maksimum_'
'mad_'
'lit_'
'listening_'
'license_'
'lea'
'kur'
'kup'
'kuarter_'
'ku'
'knocked_'
'knock_'
'kesadaran_'
'kesa'
'keberhasilan_'
'kebenaran_'
'keajaiban_'
'karirnya_'
'joining_'
'jobs_'
'jinjing_'
'jail_'
'ita_'
'istimewa_'
'io'
'insi'
'indicators_'
'implement_'
'il'
'ika_'
'ication_'
'hn'
'hibah_'
'hang_'
'guarantee_'
'gli'
'gigi_'
'flower_'
'flat_'
'fer'
'federal_'
'executive_'
'everywhere_'
'er'
'equipped_'
'equalised_'
'enemies_'
'ene_'
'employee_'
'emp'
'eksperimen_'
'een_'
'dro'
'diserang_'
'diperkuat_'
'determine_'
'dengarkan_'
'delivery_'
'criminal_'
'cre'
'cooking_'
'confident_'
'competitive_'
'communities_'
'colleagues_'
'clock_'
'citizens_'
'circumstances_'
'circle_'
'challenges_'
'cement_'
'ce'
'campuran_'
'breast_'
'bombings_'
'berukuran_'
'bersi'
'berlebihan_'
'berjangka_'
'barrels_'
'bang'
'ban'
'auction_'
'aspek_'
'asan_'
'asam_'
'artikel_'
'artificial_'
'approval_'
'appointed_'
'aparat_'
'aging_'
'a'
'Zenit_'
'Yusuf_'
'YouTube_'
'XL_'
'Whatever_'
'Was_'
'Warren_'
'Uni'
'UKM_'
'Ternyata_'
'Ten_'
'TI'
'Strel_'
'Sports_'
'Spaniard_'
'Someone_'
'Sochaux_'
'Six_'
'Shu'
'Shar'
'Ses'
'Serb_'
'Sea_'
'Rumah_'
'Rp50_'
'Rp100_'
'Remember_'
'Rangers_'
'Proyek_'
'Press_'
'Pertanyaan_'
'Pela'
'Nobel_'
'Nikolay_'
'Murcia_'
'Matahari_'
'Mart'
'Manajer_'
'Maksud_'
'Latin_'
'Lakers_'
'Ku'
'Ketiga_'
'Ker'
'Kashmir_'
'Kapal_'
'Kan'
'Jewish_'
'Javier_'
'Is'
'Inter'
'Industri_'
'IT_'
'Hurry_'
'Hor'
'Holmes_'
'Hertha_'
'Hati_'
'Frenchman_'
'Fan'
'ETA_'
'Despite_'
'Day_'
'Dave_'
'Dar'
'Costa_'
'Cor'
'Cisse_'
'Beri_'
'Benjamin_'
'Bantuan_'
'Bai'
'Ash'
'Ahmad_'
'Agung_'
'AALI_'
'900_'
'62'
'195'
'180_'
'135_'
' " -- _'
' ! !_'
'zero_'
'yard_'
'wounding_'
'withdrawal_'
'wine_'
'whereas_'
'weird_'
'weakening_'
'waves_'
'wasit_'
'vessel_'
'ut'
'unta_'
'ula'
'ujian_'
'ua_'
'u'
'tin'
'thus_'
'terpaksa_'
'terkadang_'
'terbuat_'
'terapi_'
'ter'
'tata_'
'tanker_'
'taman_'
'sy_'
'suspect_'
'surprising_'
'surprised_'
'sur'
'sufficient_'
'storm_'
'stations_'
'st'
'solutions_'
'soccer_'
'slide_'
'silang_'
'sidang_'
'si'
'shoes_'
'sewaktu_'
'seku'
'sekitarnya_'
'sejenis_'
'satuan_'
'samples_'
'sambil_'
'saan_'
'runner_'
'ro'
'ret'
'resolve_'
'rescue_'
'reptiles_'
'represented_'
'representatives_'
'relevant_'
'referred_'
'raya_'
'pus'
'projection_'
'positions_'
'politics_'
'pit_'
'phones_'
'perwakilan_'
'perlahan_'
'percents_'
'peranan_'
'peradaban_'
'patroli_'
'par'
'papers_'
'panggilan_'
'pakar_'
'oven_'
'ov_'
'okan_'
'offside_'
'occur_'
'nyawa_'
'nge'
'ng'
'nearby_'
'nal'
'muka_'
'mouse_'
'models_'
'migas_'
'mi'
'merujuk_'
'menyulut_'
'menyesal_'
'menyerupai_'
'menyeru_'
'menundukkan_'
'mengukur_'
'mengkaji_'
'membuahkan_'
'melarang_'
'melambat_'
'mba'
'manual_'
'maintained_'
'machines_'
'lowest_'
'lowering_'
'lor'
'literally_'
'liked_'
'leads_'
'lad'
'koran_'
'kontroversial_'
'ko'
'ketegangan_'
'ketakutan_'
'kepa'
'kelaparan_'
'kea'
'karang_'
'judge_'
'jer'
'iya_'
'istrinya_'
'istirahat_'
'ise_'
'involvement_'
'instruments_'
'inovasi_'
'ingan_'
'ibuku_'
'ians_'
'hubungannya_'
'hopefully_'
'her'
'height_'
'hat'
'hanging_'
'guided_'
'gka'
'geo'
'gan'
'galaxy_'
'frequently_'
'frekuensi_'
'fre'
'fossils_'
'formal_'
'flo'
'figured_'
'feels_'
'feelings_'
'familiar_'
'fail_'
'factory_'
'experiments_'
'excited_'
'excise_'
'ex_'
'euros_'
'ero'
'eri_'
'era'
'equity_'
'engagement_'
'ement_'
'earned_'
'earn_'
'drilling_'
'dragonfly_'
'dozens_'
'ditawarkan_'
'disimpan_'
'disalurkan_'
'dinosaurus_'
'dilengkapi_'
'differences_'
'dibayar_'
'den_'
'deliver_'
'dekade_'
'degrees_'
'da'
'cutting_'
'cur'
'cul'
'ction_'
'cry_'
'crucial_'
'cri'
'convinced_'
'controls_'
'controlling_'
'contribution_'
'contribute_'
'compete_'
'closely_'
'climb_'
'citra_'
'candidates_'
'can'
'burned_'
'buried_'
'budak_'
'bright_'
'breaks_'
'bon'
'bomber_'
'bly_'
'bisakah_'
'berta'
'bersihnya_'
'beri_'
'berevolusi_'
'bepergian_'
'bek_'
'beauty_'
'ayolah_'
'automatically_'
'attract_'
'ato'
'atnya_'
'ataupun_'
'aspirin_'
'asinya_'
'ari'
'appropriate_'
'allegedly_'
'ala_'
'ada'
'activists_'
'Yet_'
'Windows_'
'W'
'Um'
'Toronto_'
'Tor'
'Timor_'
'Though_'
'Terdapat_'
'Teman_'
'Star'
'Sedikit_'
'Sahara_'
'ST'
'Rod'
'Ren'
'Rasanya_'
'Provinsi_'
'Pi'
'PC_'
'On'
'Olympics_'
'Obama_'
'Multi_'
'Mobil_'
'Masters_'
'Marion_'
'Mana_'
'Mali_'
'Mahmud_'
'Mad'
'Lisbon_'
'Lex_'
'Lestari_'
'Kredit_'
'Ken'
'Kecuali_'
'Kadin_'
'Joseph_'
'Jalur_'
'Islands_'
'Indo'
'Ihsanoglu_'
'Id'
'Hubungan_'
'Han_'
'Golf_'
'Goeltom_'
'Gen'
'Frankfurt_'
'Football_'
'Feb_'
'Farma_'
'FR004'
'Dubai_'
'Darmin_'
'Danny_'
'Dan'
'Dallas_'
'Da'
'Club_'
'Cleveland_'
'Call_'
'Cal'
'Belarus_'
'Ban'
'BA'
'Asosiasi_'
'Arif_'
'Ari'
'Ac'
'? !_'
'46'
'2011_'
'14'
'119_'
'05_'
'04'
' , '
' % ._'
'zy_'
'ys_'
'wisata_'
'watched_'
'visi_'
've'
'urkan_'
'unrest_'
'unknown_'
'ud'
'typically_'
'tulisan_'
'tulis_'
'tt_'
'traveling_'
'transportasi_'
'ting'
'terbiasa_'
'tended_'
'teh_'
'tai_'
'sustainable_'
'sumur_'
'suggest_'
'string_'
'stra'
'stands_'
'sports_'
'spiritual_'
'sons_'
'ski'
'sim'
'sha'
'sengketa_'
'semen_'
'seluruhnya_'
'sar_'
'rt_'
'robots_'
'reli_'
'relation_'
'rac'
'pur'
'puas_'
'protecting_'
'prosedur_'
'profile_'
'potensial_'
'possess_'
'portofolio_'
'polusi_'
'pointed_'
'plu'
'pitch_'
'persis_'
'penyelamatan_'
'penu'
'pengertian_'
'penge'
'penentuan_'
'pemilu_'
'peme'
'pembukaan_'
'pembagian_'
'pemahaman_'
'participate_'
'palsu_'
'padang_'
'owe_'
'ovic_'
'overnight_'
'org_'
'orders_'
'or'
'opinion_'
'normally_'
'nest_'
'neraka_'
'neraca_'
'ndi'
'ncy_'
'muslim_'
'mua'
'mobilnya_'
'mm_'
'minority_'
'mid'
'mewakili_'
'menye'
'menghargai_'
'menghantam_'
'menggu'
'mengganti_'
'mengga'
'mengenakan_'
'menculik_'
'memperluas_'
'memindahkan_'
'memerintah_'
'member'
'mas'
'marked_'
'lu'
'limbah_'
'likan_'
'las_'
'larva_'
'lanjutan_'
'kutub_'
'kubu_'
'konsekuensi_'
'kkan_'
'ketinggalan_'
'kete'
'keselamatan_'
'kema'
'kekurangan_'
'kebo'
'jar_'
'jantan_'
'jang_'
'ir'
'ip_'
'involving_'
'introduced_'
'ina_'
'ili'
'idiot_'
'humanitarian_'
'ht'
'hen'
'helicopter_'
'he'
'harinya_'
'generator_'
'fy_'
'fueled_'
'ft'
'fantastic_'
'expanded_'
'etc_'
'erg'
'encounter_'
'enables_'
'ei'
'ega'
'du_'
'ds'
'doubled_'
'dogs_'
'diyakini_'
'dipicu_'
'ding'
'dile'
'dijaga_'
'diet_'
'dibunuh_'
'deployed_'
'dariku_'
'creative_'
'cra'
'constant_'
'components_'
'choices_'
'ching_'
'ceiling_'
'canggih_'
'bud'
'brothers_'
'bread_'
'bogey_'
'blocked_'
'bio'
'bin'
'berlaga_'
'bara_'
'audience_'
'ating_'
'ast'
'assumptions_'
'assume_'
'asa_'
'anggap_'
'alu'
'ak'
'ahkan_'
'advice_'
'adult_'
'abducted_'
'Yongbyon_'
'Wu_'
'Wizards_'
'Wawrinka_'
'Victoria_'
'Val'
'Using_'
'Tsvangirai_'
'Tra'
'Tal'
'TE'
'Soon_'
'Should_'
'Shi_'
'Seri_'
'Scott_'
'Sayangnya_'
'Sang_'
'Rovers_'
'Putih_'
'Pulau_'
'Pri'
'Perjanjian_'
'PTBA_'
'Order_'
'Nuremberg_'
'Nak_'
'Mottaki_'
'Modal_'
'Mir'
'Min_'
'Mickelson_'
'MedcoEnergi_'
'Max_'
'Masyarakat_'
'Mamby_'
'Mahut_'
'MIT_'
'Lopez_'
'Lille_'
'Lieutenant_'
'Liberation_'
'Las_'
'Kur'
'Kroasia_'
'Komputer_'
'Khartoum_'
'Kha'
'Kep'
'Juga_'
'Journal_'
'Johnny_'
'Jersey_'
'Jen'
'Jelena_'
'Ireland_'
'Ir'
'Intel_'
'Information_'
'IN'
'IATA_'
'Hy'
'Human_'
'Hindu_'
'Her'
'Hentikan_'
'Harrison_'
'Har'
'Hampir_'
'Franck_'
'Father_'
'Es'
'Emirates_'
'Doha_'
'Dia'
'Democratic_'
'Cla'
'Cap'
'Cab'
'Bochum_'
'Bir'
'Bela'
'Ayahku_'
'Anggaran_'
'Angel_'
'Anda'
'Among_'
'Ami'
'Al'
'Ahli_'
'AT'
'69'
'1995_'
'1980s_'
'16'
'103_'
'- "_'
'-'
', '_'
'ym'
'ya'
'whoa_'
'vol'
'ville_'
'vi'
'venture_'
'utuh_'
'usi'
'ua'
'tur'
'truly_'
'tro'
'th'
'terpe'
'terke'
'tebal_'
'tang_'
'tail_'
'suck_'
'studying_'
'strugglers_'
'stocks_'
'ster'
'sse'
'soaring_'
'slowly_'
'sil'
'she'
'sentiment_'
'semut_'
'seeds_'
'seal_'
'sau'
'rte'
'rockets_'
'replacement_'
'rekening_'
'refugees_'
'reforms_'
'referring_'
'rebounds_'
'ratus_'
'rasi_'
'que'
'puts_'
'punggung_'
'provincial_'
'prospects_'
'productive_'
'produces_'
'prior_'
'powered_'
'potongan_'
'pop_'
'poly'
'pleasure_'
'pinggir_'
'perlawanan_'
'perka'
'perguruan_'
'penjahat_'
'penguin_'
'penglihatan_'
'pemungutan_'
'pemuda_'
'pemba'
'pelaksana_'
'pecah_'
'patrol_'
'particles_'
'pangsa_'
'pages_'
'organik_'
'ora'
'ona'
'oldest_'
'oi'
'officially_'
'ock_'
'occurs_'
'nyamuk_'
'noticed_'
'nja'
'networks_'
'nd'
'mura'
'micro'
'menyerap_'
'menghubungkan_'
'menghalangi_'
'mengguncang_'
'menerapkan_'
'mendi'
'mendanai_'
'mendalam_'
'memprediksi_'
'memberinya_'
'memalukan_'
'manufaktur_'
'manufacturing_'
'log_'
'lling_'
'lip'
'landasan_'
'lam_'
'ladies_'
'kingdom_'
'kilometers_'
'killer_'
'keyakinan_'
'ket_'
'keru'
'kas_'
'kalender_'
'ju'
'jelek_'
'jeda_'
'jaga_'
'ization_'
'ius_'
'ities_'
'ist_'
'interior_'
'insinyur_'
'inkan_'
'indicates_'
'humanity_'
'hu'
'hid'
'harm_'
'handling_'
'hambatan_'
'hal'
'hadir_'
'habitat_'
'gri'
'goo'
'go'
'gkan_'
'gift_'
'gga'
'gate_'
'gar_'
'finansial_'
'feathers_'
'factions_'
'fa_'
'expert_'
'exists_'
'exceed_'
'establishment_'
'establish_'
'es'
'ena'
'ele'
'edi'
'ed'
'ear'
'duakali_'
'dress_'
'diving_'
'diungkapkan_'
'ditambah_'
'dismissed_'
'disc'
'dipenuhi_'
'diluar_'
'dilancarkan_'
'diku'
'dicurigai_'
'dica'
'denominated_'
'delivered_'
'deli'
'delegasi_'
'cultural_'
'crackdown_'
'counterpart_'
'cor'
'contohnya_'
'contains_'
'composition_'
'collapse_'
'cat_'
'cair_'
'cH00FFFF_'
'buta_'
'buruh_'
'borders_'
'blame_'
'bir_'
'bet'
'berupaya_'
'bertandang_'
'bermanfaat_'
'berfokus_'
'berangkat_'
'bekerjasama_'
'batang_'
'banyaknya_'
'background_'
'autonomy_'
'authority_'
'atap_'
'at'
'asuransi_'
'assessment_'
'ali_'
'ala'
'aim_'
'Xinhua_'
'X'
'Wright_'
'WTA_'
'WA'
'Vegas_'
'Tre'
'Terry_'
'Teori_'
'Tenggara_'
'Tenang_'
'Tel'
'Tambang_'
'Ta'
'TO_'
'Sydney_'
'Switzerland_'
'Sti'
'Something_'
'So'
'Ski'
'She'
'Service_'
'Senator_'
'Sebab_'
'Se'
'School_'
'SC'
'Rp40_'
'Revolusi_'
'Republic_'
'Reggina_'
'Ras'
'Rahman_'
'Quartet_'
'Pun'
'Produk_'
'Power_'
'Portuguese_'
'Port_'
'Philippe_'
'Pengu'
'Pengadilan_'
'Pena'
'Peace_'
'Oliver_'
'Number_'
'Non_'
'Nick_'
'Nar'
'Muslims_'
'Mary_'
'Marine_'
'Mak'
'MDC_'
'Lippo_'
'Lana_'
'LNG_'
'Kun'
'Kata_'
'Kala'
'Kadang_'
'KA'
'Jur'
'Jas'
'Ivory_'
'Interior_'
'Insurance_'
'INCO_'
'Hanover_'
'Fin'
'Ferrari_'
'Eric_'
'Elizabeth_'
'EN'
'Dokter_'
'Dapatkan_'
'Daddy_'
'County_'
'Citi'
'Chloe_'
'Chechnya_'
'Cavaliers_'
'Camara_'
'Bu'
'Brown_'
'Bra'
'Boleh_'
'Block_'
'Ben'
'Bayangkan_'
'Back_'
'BUMI_'
'BE'
'Atom_'
'Anwar_'
'Anggota_'
'72'
'60'
'43'
'40'
'21'
'1986_'
'1970_'
'191'
'17th_'
'11th_'
'114_'
'10th_'
'101_'
'... '
'", _'
' ♪ ♪ _'
' ,' _'
'zer_'
'za_'
'y'
'ws_'
'wondering_'
'wet_'
'vaksin_'
'utk_'
'unclear_'
'ture_'
'tukang_'
'tre'
'transport_'
'transferred_'
'traded_'
'tou'
'tol_'
'tidaklah_'
'thermal_'
'tertangkap_'
'terror_'
'terpenting_'
'terakhirnya_'
'tend_'
'temui_'
'tally_'
'swimming_'
'susunan_'
'successive_'
'subscribers_'
'studied_'
'steal_'
'statistik_'
'standings_'
'standards_'
'spring_'
'split_'
'sme_'
'setia_'
'seorangpun_'
'sentence_'
'senegaranya_'
'senapan_'
'selamanya_'
'segar_'
'rumahnya_'
'rs'
'root_'
'rl'
'resep_'
'remove_'
'rely_'
'recover_'
'rec'
'rak'
'questioned_'
'quarters_'
'q_'
'proteins_'
'properly_'
'pray_'
'porsi_'
'pollution_'
'ple'
'playoff_'
'plat'
'plantations_'
'pit'
'pisau_'
'personally_'
'perpustakaan_'
'pere'
'penyimpanan_'
'pengelolaan_'
'pen'
'park_'
'output_'
'ousted_'
'ously_'
'opponents_'
'ongoing_'
'ome'
'od'
'ntu'
'nti'
'nmu_'
'nit'
'nis_'
'ngka'
'neuron_'
'nerve_'
'mut'
'mustahil_'
'mpo'
'minimal_'
'ming_'
'menyi'
'menyerbu_'
'menyarankan_'
'menyalahkan_'
'menja'
'meni'
'mengungkap_'
'mengikat_'
'mengemukakan_'
'menemui_'
'mendekat_'
'mendasar_'
'menanyakan_'
'memenangkan_'
'membagikan_'
'melampaui_'
'mate_'
'mandi_'
'manapun_'
'managers_'
'mac'
'liter_'
'library_'
'length_'
'len'
'lanjutnya_'
'lands_'
'lamp_'
'kurs_'
'kunang_'
'kue_'
'kua'
'kli'
'killings_'
'khas_'
'kese'
'kemerdekaan_'
'kemampuannya_'
'kecolongan_'
'kecerdasan_'
'kau'
'kapa'
'kampanye_'
'kacau_'
'k'
'jawabannya_'
'jajak_'
'j_'
'instructions_'
'ins_'
'imu_'
'impacts_'
'im'
'ier_'
'idn_'
'horse_'
'hikes_'
'herself_'
'hel'
'head'
'hadapan_'
'governance_'
'generate_'
'gejala_'
'gam'
'frame_'
'forgive_'
'forcing_'
'fled_'
'finger_'
'findings_'
'finalis_'
'fat'
'experienced_'
'ets_'
'ese_'
'emotional_'
'emi'
'element_'
'efficiency_'
'drama_'
'dividends_'
'disorder_'
'disi'
'discover_'
'disappear_'
'din_'
'dimanfaatkan_'
'dim'
'dilanjutkan_'
'diha'
'desktop_'
'dera'
'deeply_'
'debut_'
'debentures_'
'daun_'
'd'
'cru'
'criticism_'
'craft_'
'contrary_'
'continuously_'
'continuing_'
'concerns_'
'combination_'
'cloud_'
'clo'
'cita_'
'cit'
'circulation_'
'category_'
'caranya_'
'cak'
'bukit_'
'brengsek_'
'booked_'
'bol'
'berulang_'
'bersumpah_'
'berpotensi_'
'berkisar_'
'benua_'
'benci_'
'beer_'
'bayangan_'
'basah_'
'banjir_'
'bajingan_'
'baiknya_'
'ayahnya_'
'au'
'asteroid_'
'article_'
'ark'
'apartment_'
'apan_'
'angle_'
'ambassador_'
'allowing_'
'agresif_'
'adi'
'ad'
'acts_'
'abduction_'
'Walaupun_'
'Udinese_'
'Tunggal_'
'Tsonga_'
'Thierry_'
'THE_'
'Suzetta_'
'Super_'
'Sul'
'Spot_'
'Spi'
'Special_'
'Sor'
'Sin'
'Satonda_'
'Sarah_'
'Sampdoria_'
'Same_'
'Saham_'
'SI'
'Rp13'
'Roy_'
'Riyadh_'
'Res'
'Ram'
'RFID_'
'Pulp_'
'Perhaps_'
'Pergilah_'
'Pen'
'Pelosi_'
'Pas'
'Parlemen_'
'Pang'
'Pal'
'PA'
'OPEC_'
'Nuri_'
'Nona_'
'Nigerian_'
'Nanti_'
'Musharraf_'
'Mu'
'Mother_'
'Mos'
'Morgan_'
'Mauresmo_'
'Mau_'
'Matt_'
'Marga_'
'Makmur_'
'Lionel_'
'Limited_'
'Letnan_'
'Laudrup_'
'Lama_'
'LO'
'LA_'
'LA'
'Kuartet_'
'Kua'
'Klose_'
'Kesepakatan_'
'Kemampuan_'
'Keita_'
'Jer'
'Jena_'
'Jelas_'
'Jeff_'
'Jasa_'
'Jambi_'
'Irlandia_'
'Inggeris_'
'Industry_'
'Imagine_'
'Ia'
'Huelva_'
'Hewan_'
'Henri_'
'Hassan_'
'Gunung_'
'Guatemala_'
'Garcia_'
'Fo'
'FE'
'Eli'
'Dementieva_'
'Dechy_'
'Darwinism_'
'DE'
'Cri'
'Could_'
'Chuck_'
'Chennai_'
'Chavez_'
'Casillas_'
'Carlo_'
'Burns_'
'Band'
'BV_'
'Aston_'
'Aso_'
'Armando_'
'Apexindo_'
'Apabila_'
'Alves_'
'Alat_'
'Alain_'
'Adebayor_'
'Aaron_'
'Aah_'
'AA_'
'76'
'64'
'38'
'35'
'34'
'20th_'
'1993_'
'18th_'
'zo_'
'yata'
'worldwide_'
'windows_'
'whi'
'wee'
'wed_'
'we'
'visited_'
'variety_'
'variasi_'
'uran_'
'ura_'
'unp'
'unggas_'
'ung'
'unc'
'tutup_'
'ts'
'troubled_'
'trillions_'
'tries_'
'treat_'
'tradisi_'
'tors_'
'tissue_'
'tip_'
'timnas_'
'timah_'
'threats_'
'tetangganya_'
'terpengaruh_'
'tern'
'termites_'
'terjebak_'
'terge'
'temuan_'
'teks_'
'tape_'
'tankers_'
'tal_'
'ta'
'sus'
'surely_'
'suppose_'
'suffer_'
'suasana_'
'storage_'
'stomach_'
'ste'
'spell_'
'ske'
'shop_'
'sho'
'shift_'
'sexual_'
'severe_'
'seraya_'
'ser'
'semata_'
'sedemikian_'
'sand_'
'sad_'
'sacked_'
'rush_'
'run'
'roof_'
'roadside_'
'revolution_'
'resident_'
'relating_'
'ray_'
'rap'
'raid_'
'r'
'pura_'
'professor_'
'productivity_'
'processes_'
'preparing_'
'pped_'
'policemen_'
'polar_'
'perwira_'
'perjuangan_'
'penilaian_'
'penguins_'
'penghi'
'pengakuan_'
'pencegahan_'
'pemrotes_'
'pemberontakan_'
'pelacur_'
'passion_'
'participants_'
'paka'
'otoritas_'
'ose'
'optimal_'
'occupied_'
'obatan_'
'nucleus_'
'nsi_'
'nominal_'
'noise_'
'ngi_'
'nel'
'nci'
'murdered_'
'multilateral_'
'minoritas_'
'merugikan_'
'menun'
'mengucapkan_'
'menghapus_'
'mengecewakan_'
'menekankan_'
'menda'
'menara_'
'men'
'membran_'
'membentur_'
'memantau_'
'melon'
'melebar_'
'melayang_'
'manfaat_'
'mal'
'lutut_'
'lutein_'
'lowered_'
'lin'
'liat_'
'lia'
'lesson_'
'lapis_'
'land'
'laku_'
'lab'
'kunjungannya_'
'kreatif_'
'kotoran_'
'konsolidasi_'
'knowing_'
'kesenangan_'
'kering_'
'kele'
'kehormatan_'
'kehadiran_'
'keha'
'keda'
'keahlian_'
'karakter_'
'kanku_'
'kal_'
'jembatan_'
'ire_'
'intensive_'
'installed_'
'initially_'
'ing'
'indicate_'
'indi'
'inci_'
'impian_'
'imp'
'immediate_'
'imagin'
'ility_'
'ijin_'
'idi'
'identical_'
'ic'
'hydro'
'hunting_'
'housing_'
'honor_'
'honest_'
'helps_'
'heavily_'
'hadapi_'
'guns_'
'gro'
'gotten_'
'gon'
'girlfriend_'
'generations_'
'gaji_'
'fungi_'
'funded_'
'fruit_'
'forth_'
'fool_'
'foods_'
'flu'
'firm'
'fears_'
'fallen_'
'failing_'
'fa'
'explosive_'
'expenses_'
'exciting_'
'evil_'
'ethnic_'
'ered_'
'eo'
'enzim_'
'enya_'
'entrance_'
'enti'
'ena_'
'elemen_'
'ekonominya_'
'eg'
'earthquake_'
'dividend_'
'diturunkan_'
'ditargetkan_'
'disin'
'disetujui_'
'disappointed_'
'dipindahkan_'
'dipecat_'
'dinosaurs_'
'dibeli_'
'diba'
'diatas_'
'detected_'
'detect_'
'destruction_'
'delegation_'
'definition_'
'defending_'
'declared_'
'debitur_'
'dealing_'
'dasawarsa_'
'dar_'
'correct_'
'contain_'
'consisted_'
'concrete_'
'concentration_'
'commission_'
'cil'
'ci'
'ceasefire_'
'cake_'
'brief_'
'bridge_'
'bound_'
'bor'
'bis'
'bili'
'berinteraksi_'
'berbahan_'
'bee'
'bea'
'bas_'
'barisan_'
'bantu_'
'awak_'
'auto'
'atomic_'
'assault_'
'aro'
'architecture_'
'antioksidan_'
'antar'
'analisis_'
'anakku_'
'an'
'akar_'
'aka'
'aggressive_'
'ado'
'actively_'
'actions_'
'acting_'
'Zia_'
'Zealand_'
'Za'
'ZIS_'
'YOU_'
'Women_'
'Wigan_'
'Welcome_'
'Water_'
'Tru'
'Tin'
'Timah_'
'Target_'
'TPT_'
'TA'
'Svetlana_'
'Sumber_'
'Su'
'Somebody_'
'Siniora_'
'Silva_'
'Silakan_'
'Sheriff_'
'Sesuatu_'
'Sel'
'Schuster_'
'Saturnus_'
'Sand'
'SP'
'SM'
'Rp48'
'Rp300_'
'Rp28'
'Rp200_'
'Rp20'
'RUPSLB_'
'RP'
'RE'
'Qua'
'Q'
'Prof_'
'Prodi_'
'Prize_'
'Pres'
'Plame_'
'Pierre_'
'Pete_'
'Perseroan_'
'Perencanaan_'
'Pere'
'Pemegang_'
'Pegolf_'
'Ow_'
'Os'
'Nor'
'Ng'
'Natal_'
'Mur'
'Mumbai_'
'Mulai_'
'Mid'
'Menurutmu_'
'Mengenai_'
'Mena'
'Man'
'Mahadhesi_'
'Llodra_'
'Lin'
'Leg'
'Lake_'
'LI'
'Kom'
'Kevlar_'
'Kese'
'Kat'
'Kamerun_'
'Kambrium_'
'Kahn_'
'Jerry_'
'Hugo_'
'Houston_'
'Hosni_'
'Hol'
'Hitzfeld_'
'High_'
'Hid'
'Hans_'
'Gordon_'
'Fun'
'Fort_'
'FC_'
'Ex'
'Each_'
'ENRG_'
'Doc_'
'Division_'
'Din'
'Dev'
'Daily_'
'DA'
'Cukai_'
'Colonel_'
'Collins_'
'Chairman_'
'Cas'
'Cameroon_'
'CNN_'
'Buka_'
'Bre'
'Brantas_'
'Bola_'
'Billy_'
'Biasanya_'
'Belgia_'
'Bee'
'Bal'
'Bahana_'
'BTEL_'
'BHP_'
'Aviv_'
'Authority_'
'Asam_'
'Amman_'
'Am_'
'Ak'
'Agro_'
'Adhi_'
'92'
'731_'
'57'
'51'
'260_'
'25'
'196'
'157_'
'145_'
'." _'
'#_'
'"'
' ♫_'
' ]_'
'yakan_'
'wound_'
'wor'
'was'
'wajar_'
'vin_'
'vaccine_'
'usulan_'
'universal_'
'union_'
'une'
'umu_'
'ul'
'udi'
'tus'
'turunnya_'
'travelling_'
'trained_'
'totaling_'
'tertua_'
'ternak_'
'terbe'
'terbawah_'
'ten'
'tangannya_'
'tanganmu_'
'tackle_'
'tabrakan_'
'sy'
'swi'
'superb_'
'sun'
'substances_'
'stoppage_'
'stepped_'
'spe'
'snow_'
'smoking_'
'ska'
'sin_'
'simbol_'
'shoulder_'
'short'
'shipping_'
'settlement_'
'sera'
'separuh_'
'senator_'
'sempit_'
'sektarian_'
'seksual_'
'segmen_'
'sat'
'sampaikan_'
'safely_'
'sab'
'rural_'
'rugi_'
'ris'
'rings_'
'rian'
'ria'
'restore_'
'ren_'
'remarks_'
'rela'
'reform_'
'rapidly_'
'ra'
'quake_'
'purchasing_'
'provinces_'
'procedures_'
'planted_'
'pla'
'pintunya_'
'pilgrims_'
'photos_'
'photograph_'
'persyaratan_'
'permanent_'
'perilaku_'
'perhatikan_'
'performed_'
'perencanaan_'
'perception_'
'peni'
'pengurangan_'
'penghasil_'
'penga'
'penempatan_'
'pelaut_'
'pelajari_'
'peak_'
'payah_'
'panggung_'
'padi_'
'package_'
'os'
'oro'
'ori'
'opo'
'oning_'
'onal_'
'omi'
'obtain_'
'observe_'
'nya'
'nta'
'nda'
'nai'
'mun'
'mosque_'
'monitors_'
'moderate_'
'metre_'
'mess_'
'mere'
'mer'
'menyusun_'
'menyeluruh_'
'mention_'
'menje'
'mengundang_'
'menguji_'
'mengontrol_'
'mengo'
'mengkhawatirkan_'
'mengan'
'mengalihkan_'
'memulihkan_'
'memu'
'memories_'
'memerangi_'
'membunuhnya_'
'mem'
'melintasi_'
'mbi'
'massal_'
'malaria_'
'mala'
'lunch_'
'logistik_'
'lo'
'ln'
'lity_'
'lis_'
'likes_'
'lik_'
'lelang_'
'langka_'
'lan'
'ladang_'
'kun'
'konsentrasi_'
'koneksi_'
'komisi_'
'kombinasi_'
'kesana_'
'kepe'
'keme'
'kel_'
'kee'
'kebun_'
'keadilan_'
'ke'
'kantung_'
'kabupaten_'
'ize_'
'istana_'
'ira'
'involve_'
'invested_'
'intervention_'
'instrument_'
'instance_'
'insisted_'
'inner_'
'imi'
'hormon_'
'hol'
'hepatitis_'
'heaven_'
'hard'
'hannya_'
'hamil_'
'halt_'
'gy_'
'gul'
'guerrillas_'
'gs'
'gravitasi_'
'granted_'
'genocide_'
'genetika_'
'foot'
'fluid_'
'fluctuations_'
'flexible_'
'flash_'
'fit'
'fin'
'fighter_'
'fees_'
'fe'
'fault_'
'falls_'
'expectations_'
'existed_'
'etnya_'
'elo'
'ede'
'ech'
'earning_'
'drinking_'
'domain_'
'diversity_'
'diti'
'distr'
'disappeared_'
'diperdagangkan_'
'dilahirkan_'
'dikendalikan_'
'dii'
'dibahas_'
'dibagikan_'
'dibagi_'
'detil_'
'dea'
'de'
'curb_'
'ct'
'crew_'
'consumers_'
'consciousness_'
'commodity_'
'clu'
'closest_'
'chest_'
'ced_'
'car'
'capture_'
'by'
'but'
'bus'
'buka_'
'breath_'
'brains_'
'blocks_'
'blew_'
'beruang_'
'berterima_'
'berte'
'bertarung_'
'bersu'
'bersembunyi_'
'berpindah_'
'berpenduduk_'
'berpendapat_'
'berniat_'
'berminat_'
'berkualitas_'
'beristirahat_'
'berhak_'
'berdoa_'
'benih_'
'bendera_'
'ben'
'belong_'
'bandar_'
'bah_'
'badly_'
'ay'
'ata'
'assistant_'
'assigned_'
'aspects_'
'asa'
'arnya_'
'arin'
'argument_'
'are'
'apartemen_'
'ano_'
'anniversary_'
'analysts_'
'amp'
'alt'
'alien_'
'aktivis_'
'ade'
'Zvonareva_'
'Ze'
'Win'
'Wat'
'Walcott_'
'Vladimir_'
'Vi'
'Us'
'Ur'
'Up'
'Toulouse_'
'Tele'
'Tel_'
'Tata_'
'Sudanese_'
'Sud'
'Step_'
'Star_'
'Snow_'
'Si_'
'Si'
'Set'
'Services_'
'Serena_'
'Semoga_'
'Sejauh_'
'Samsung_'
'Rum'
'Rub'
'Rp16'
'Rp13_'
'Rome_'
'Razzano_'
'Queen_'
'Pir'
'Peraturan_'
'Penurunan_'
'Patrick_'
'Panitia_'
'PSV_'
'PK'
'Novak_'
'Northern_'
'Next_'
'Never_'
'Netherlands_'
'Nablus_'
'My'
'Mori'
'Mont'
'Mikhail_'
'Menga'
'Meles_'
'Mela'
'McLaren_'
'McCain_'
'Mas'
'Marcos_'
'Marc_'
'MS_'
'Louis_'
'Looks_'
'Lea'
'Larry_'
'Lang'
'Lane_'
'Lab'
'Kolonel_'
'Kesehatan_'
'Kerajaan_'
'Kema'
'Keegan_'
'Kandahar_'
'KI'
'Julio_'
'Jud'
'Jamie_'
'JM_'
'Ing'
'Inflasi_'
'Ilmuwan_'
'Hum'
'Hukum_'
'Hospital_'
'Hariri_'
'Gri'
'Gemayel_'
'Gadis_'
'Formula_'
'Empoli_'
'Ele'
'Eintracht_'
'Eduardo_'
'Den'
'Datang_'
'Coordinating_'
'Col'
'Cer'
'Ceko_'
'Carter_'
'Carquefou_'
'Cambrian_'
'Calleri_'
'Cairo_'
'Budget_'
'Bruce_'
'Brother_'
'Bro'
'Blue_'
'Billiton_'
'Beshir_'
'Bell_'
'Bea_'
'Aslim_'
'Art'
'Apple_'
'Annie_'
'Anderson_'
'Aku'
'Akhirnya_'
'AL'
'ABC_'
'90'
'81'
'47'
'39'
'29'
'275_'
'24'
'2020_'
'1992_'
'1984_'
'1982_'
'13th_'
'117_'
'06'
'. ( _'
' ... '
'younger_'
'yi'
'yan'
'wajahnya_'
'vowed_'
'voted_'
'visa_'
'viruses_'
'utusan_'
'uti'
'us'
'umat_'
'ujicoba_'
'ty'
'troop_'
'tissues_'
'tinggalkan_'
'thi'
'teru'
'terdekat_'
'temp'
'tele'
'tau'
'tama_'
'switch_'
'swa'
'sustained_'
'suspension_'
'suratkabar_'
'suck'
'subjects_'
'suami_'
'stri'
'stream_'
'stopping_'
'staf_'
'spirit_'
'soybean_'
'sorts_'
'som'
'solved_'
'smooth_'
'slipped_'
'sk'
'sip'
'show'
'shopping_'
'shirt_'
'shi'
'shell_'
'sepasang_'
'sendirinya_'
'sela'
'sel'
'seja'
'securities_'
'satisfied_'
'sandwich_'
'sand'
'sake_'
'saingan_'
'route_'
'ron'
'rolling_'
'rob'
'ringgit_'
'rin_'
'reward_'
'reverse_'
'resource_'
'resignation_'
'records_'
'reconciliation_'
'recognition_'
'ration_'
'rat'
'ramai_'
'radar_'
'qualify_'
'pun'
'pt_'
'procedure_'
'prec'
'poster_'
'portfolio_'
'por'
'po_'
'pin'
'pertukaran_'
'penyu'
'penyi'
'penyerapan_'
'pengumuman_'
'penggemar_'
'pengendalian_'
'pengamatan_'
'pende'
'penahanan_'
'pedesaan_'
'peacekeeping_'
'pat'
'password_'
'participation_'
'parliamentary_'
'panic_'
'pam'
'pa'
'overt'
'oti'
'orang'
'opsi_'
'opposed_'
'ok'
'nto'
'nse'
'nowhere_'
'ney_'
'new'
'neutron_'
'nationals_'
'multiple_'
'momentum_'
'mit'
'minds_'
'messages_'
'merawat_'
'menurutmu_'
'menghidupkan_'
'mengenali_'
'mengangkut_'
'mencabut_'
'menantang_'
'menabrak_'
'memperhitungkan_'
'mempercayai_'
'memerintahkan_'
'melo'
'melihatmu_'
'melangkah_'
'mechanisms_'
'mathematics_'
'mat_'
'mant'
'managing_'
'man'
'maksudku_'
'mad'
'ls'
'locations_'
'll'
'limits_'
'lik'
'lifted_'
'leverage_'
'let'
'layers_'
'latar_'
'lah'
'kus'
'kuda_'
'ks'
'kompetitif_'
'ketidak'
'keterbukaan_'
'ketawa_'
'kesembilan_'
'keragaman_'
'kera'
'keprihatinan_'
'kemu'
'keluarganya_'
'kejam_'
'kedi'
'kedelai_'
'kasar_'
'kacang_'
'kabur_'
'kabarmu_'
'iu'
'iti'
'ists_'
'isolated_'
'invented_'
'introduce_'
'intense_'
'independen_'
'impressive_'
'implementing_'
'hill_'
'heroin_'
'hentikan_'
'harder_'
'han'
'gumpalan_'
'gu_'
'gra'
'gos'
'gnat_'
'genius_'
'gen'
'gem'
'gelas_'
'gear_'
'gal'
'foundation_'
'fort'
'flowers_'
'floating_'
'finalists_'
'fik'
'fic'
'fi_'
'ffe'
'ff'
'fed_'
'fas'
'fairly_'
'faction_'
'facilitate_'
'explore_'
'excuse_'
'exc'
'exact_'
'esi'
'ere'
'ekspresi_'
'efisiensi_'
'ees_'
'dust_'
'drum_'
'drove_'
'drawing_'
'dorongan_'
'dolphins_'
'documents_'
'ditunjukkan_'
'disk_'
'diserahkan_'
'diperb'
'dilatih_'
'dija'
'difficulties_'
'diberlakukan_'
'dg'
'der'
'depannya_'
'dendam_'
'del_'
'defi'
'dee'
'declining_'
'debu_'
'dak'
'currencies_'
'cted_'
'crossing_'
'corn_'
'cooperative_'
'continent_'
'consolidated_'
'confi'
'collision_'
'collapsed_'
'cm_'
'cleared_'
'cla'
'ci_'
'chosen_'
'chemicals_'
'chaos_'
'cha'
'ceremony_'
'celebrate_'
'carrier_'
'campur_'
'burden_'
'bur_'
'bro_'
'briefly_'
'brand_'
'boycott_'
'bow'
'blind_'
'ble'
'bla'
'biology_'
'bik'
'bersa'
'berpe'
'berkomunikasi_'
'berge'
'berbohong_'
'berba'
'bel_'
'be'
'baiklah_'
'bah'
'ayahku_'
'audit_'
'attended_'
'attempts_'
'attacking_'
'attached_'
'apaan_'
'ans'
'anonymity_'
'ani_'
'anggapan_'
'amu_'
'ama_'
'alo'
'allies_'
'alliance_'
'aja'
'ah'
'adopted_'
'achievement_'
'abu_'
'abroad_'
'Zambia_'
'Wilayah_'
'Wanita_'
'WO'
'Venus_'
'UNTR_'
'UNICEF_'
'Tujuan_'
'Tol'
'Tinggi_'
'Sweden_'
'Sus'
'Supervisory_'
'Sungai_'
'Strip_'
'Sta'
'Space_'
'Sav'
'Sap'
'Rp18'
'Rp17_'
'Robin_'
'Regarding_'
'Ratings_'
'Qur_'
'Pet'
'Per_'
'Oxfam_'
'Oscar_'
'Oil_'
'ORI_'
'OECD_'
'Namanya_'
'Moskow_'
'Morales_'
'Model_'
'Mitra_'
'Mill'
'Mi'
'Meta'
'Mesin_'
'Menye'
'Menja'
'Mel'
'Medi'
'Mathieu_'
'Mari'
'MW_'
'Ly'
'Lupakan_'
'Lincoln_'
'Lim'
'Lil'
'Lepaskan_'
'Leonard_'
'Laurent_'
'Later_'
'Lampung_'
'Lagi_'
'Ki'
'Keputusan_'
'Kendati_'
'Kekuatan_'
'Kebijakan_'
'Kazim_'
'Karzai_'
'Justine_'
'Jorge_'
'Ikan_'
'Hyun_'
'Ho_'
'Hicks_'
'Hal'
'Hak_'
'Guys_'
'Guru_'
'Games_'
'Gambar_'
'Gam'
'Gab'
'Forum_'
'For'
'Fall'
'Enterprise_'
'Eelam_'
'Dun'
'Dip'
'Dhaka_'
'Dew'
'Dep'
'Deb'
'Darwinisme_'
'DO'
'Conference_'
'Christ_'
'Choi_'
'Camp_'
'CO'
'Bridge_'
'Bri'
'Bon'
'Berd'
'Basel_'
'BSM_'
'BB_'
'Awa'
'Arthur_'
'Armstrong_'
'Apapun_'
'Andre_'
'Amazon_'
'Abdul_'
'AI'
'? '
'82'
'56'
'45'
'4'
'28'
'21st_'
'1988_'
'193'
'109_'
'104_'
'0'
' . '
' - '
'♪_'
'zoo'
'wounds_'
'withdraw_'
'wheel_'
'water'
'wards_'
'ward_'
'walk'
'von_'
'ven_'
'varied_'
'values_'
'valid_'
'urnya_'
'unk'
'universities_'
'undian_'
'underground_'
'uh'
'tunai_'
'tuk_'
'trapped_'
'tracking_'
'tori'
'tor'
'tongue_'
'toilet_'
'tira'
'thick_'
'tertembak_'
'tersusun_'
'terpilih_'
'terkendali_'
'tent'
'teng'
'tempatnya_'
'tegas_'
'teeth_'
'tdk_'
'tawaran_'
'tap_'
'swim_'
'swear_'
'surrounding_'
'superior_'
'suaminya_'
'su_'
'struggled_'
'stressed_'
'stolen_'
'stem_'
'speaker_'
'sparked_'
'sop'
'smi'
'sma'
'slogan_'
'skandal_'
'sity_'
'simultaneously_'
'silahkan_'
'shi_'
'sheep_'
'shaped_'
'sese'
'sepa'
'sentenced_'
'seharga_'
'section_'
'saran_'
'sar'
'sahan_'
'rp'
'rne'
'rig'
'ric'
'rh'
'revealed_'
'returns_'
'resume_'
'responded_'
'respond_'
'rese'
'requirements_'
'require_'
'representative_'
'represent_'
'rent_'
'ren'
'religion_'
'referee_'
'ree'
'rd'
'rasakan_'
'radiasi_'
'racun_'
'pure_'
'puisi_'
'pu_'
'psychological_'
'ps'
'produktif_'
'prints_'
'pres'
'praktis_'
'pound_'
'pori_'
'pole_'
'phan'
'petang_'
'pet'
'pertarungan_'
'persepsi_'
'perancang_'
'penyediaan_'
'penguasa_'
'pengga'
'pendukungnya_'
'pemogokan_'
'peluncuran_'
'pelu'
'pas_'
'pant'
'panda_'
'palace_'
'padahal_'
'ought_'
'organized_'
'organisme_'
'operated_'
'on'
'ola'
'og'
'ny'
'nta_'
'nos'
'narrow_'
'nan'
'mortir_'
'mortality_'
'monster_'
'mes'
'mens'
'mengun'
'mengidentifikasi_'
'menggo'
'mengetahuinya_'
'mengesankan_'
'mengemudi_'
'menge'
'mengandalkan_'
'mengakuisisi_'
'mende'
'menanam_'
'memfokuskan_'
'memecat_'
'membedakan_'
'membatasi_'
'memasak_'
'med'
'margin_'
'mak'
'mainan_'
'magnitude_'
'lp'
'logy_'
'locked_'
'load_'
'lini_'
'line'
'lidah_'
'liberal_'
'lensa_'
'lembaran_'
'layaknya_'
'lawyers_'
'larut_'
'lancar_'
'kupon_'
'kupikir_'
'kuman_'
'kubilang_'
'kri'
'kontraktor_'
'klasik_'
'kiss_'
'kiloliters_'
'keyboard_'
'keter'
'kesimpulan_'
'kers_'
'kerosene_'
'keperluan_'
'kenangan_'
'keja'
'keindahan_'
'kegelapan_'
'kecaman_'
'kata'
'kartun_'
'karet_'
'karenanya_'
'kadar_'
'jenazah_'
'jen_'
'jan_'
'isa'
'invention_'
'intermediasi_'
'institusi_'
'ingly_'
'incredibly_'
'in'
'importance_'
'imbalan_'
'ikatan_'
'ik'
'ics_'
'ica'
'hor'
'holy_'
'hiburan_'
'halus_'
'gsa'
'gras_'
'grant_'
'god_'
'glu'
'gerbang_'
'gathering_'
'gad'
'fu'
'frozen_'
'free'
'fra'
'follows_'
'foie_'
'flexibility_'
'fingers_'
'favor_'
'fashion_'
'ext'
'explosions_'
'expanding_'
'eth'
'etan_'
'estimate_'
'escape_'
'eradication_'
'ensi_'
'enormous_'
'ende'
'ence_'
'emen'
'elected_'
'eld_'
'editor_'
'easier_'
'disarmament_'
'direktur_'
'diperiksa_'
'dipe'
'dina'
'diko'
'didesain_'
'dida'
'diarahkan_'
'dgn_'
'deserved_'
'demonstran_'
'delay_'
'degree_'
'dealers_'
'creates_'
'cow'
'corresponding_'
'coordination_'
'conversion_'
'consisting_'
'conducive_'
'computing_'
'composed_'
'compatriot_'
'commanders_'
'com'
'clearance_'
'circuit_'
'cincin_'
'chocolate_'
'chamber_'
'carefully_'
'candidate_'
'cameras_'
'cam'
'calendar_'
'calculation_'
'bullet_'
'bukunya_'
'buddy_'
'bron'
'broker_'
'breakthrough_'
'boo'
'boats_'
'black'
'biji_'
'bers'
'berpusat_'
'bero'
'berdasar_'
'belongs_'
'beli'
'belah_'
'beach_'
'bak'
'backhand_'
'attempted_'
'atoms_'
'ates_'
'asisten_'
'asikan_'
'ars_'
'arranged_'
'anticipate_'
'answers_'
'anggur_'
'ane_'
'and'
'ancestors_'
'all'
'alert_'
'alamiah_'
'ajang_'
'ain'
'actual_'
'abandoned_'
'Zo'
'Yahoo_'
'Wis'
'Wan'
'Valenciennes_'
'UN'
'ULFA_'
'Tyson_'
'Tyler_'
'Tutup_'
'Tomori_'
'Toba_'
'Tipsarevic_'
'The'
'Tax'
'Tari'
'Tar'
'Sy'
'Strasbourg_'
'Stewart_'
'Son_'
'Slam_'
'Sit_'
'Sim'
'Show_'
'Senat_'
'Sektor_'
'Sekali_'
'Sek'
'Seg'
'Sebentar_'
'Sebaiknya_'
'SMA_'
'SBN_'
'Rus'
'Rp26'
'Rp250_'
'Rp20_'
'Rp'
'Ros'
'Rep'
'Ref'
'Reco'
'RI'
'Quran_'
'Qu'
'Qin_'
'Pur'
'Previously_'
'Pretty_'
'Play_'
'Plat'
'Planet_'
'Petersburg_'
'Penemuan_'
'Pembebasan_'
'Palermo_'
'Ottmar_'
'Off'
'Ocean_'
'Norwegia_'
'Nicholas_'
'Nature_'
'Natural_'
'Napoli_'
'NPLs_'
'NPI_'
'NF'
'Mus'
'Mit'
'Miller_'
'Messi_'
'Membuat_'
'Membu'
'Medical_'
'May'
'Massimo_'
'Malam_'
'Makhluk_'
'Loan_'
'Little_'
'Lib'
'Les'
'Lebaran_'
'Leave_'
'Laba_'
'LE'
'Kurdi_'
'Kuba_'
'Krakatau_'
'Kid'
'Kenny_'
'Keane_'
'Kea'
'Kanoute_'
'Kalbe_'
'Kak'
'Kairo_'
'Johnson_'
'Jihad_'
'Jam'
'JA_'
'Institution_'
'Inc_'
'Hotel_'
'Hewitt_'
'Hantuchova_'
'HE'
'Gyanendra_'
'Gro'
'Greenland_'
'Gal'
'Gajah_'
'GMT_'
'Fucking_'
'Florida_'
'Fir'
'Felix_'
'Fe'
'Facebook_'
'Etienne_'
'Engineering_'
'Energie_'
'Enam_'
'Emily_'
'Dur'
'Doo'
'Disa'
'Didn_'
'Deportivo_'
'Democrats_'
'Deivid_'
'Dec'
'Czech_'
'Cruz_'
'Country_'
'Comp'
'Classic_'
'CPU_'
'Bulls_'
'Bud'
'Bucks_'
'Brian_'
'Bor'
'Blackburn_'
'Benfica_'
'Beckett_'
'Bang_'
'Ballack_'
'BPR_'
'BPPT_'
'Ay'
'Au'
'Asa'
'Arsene_'
'Anggito_'
'Analis_'
'Amy_'
'Almeria_'
'Aid'
'Ag'
'AS'
'88'
'5'
'42'
'375_'
'360_'
'33'
'31'
'220_'
'1970s_'
'185'
'15th_'
'13'
'115_'
'08'
'05'
'./_'
'*_'
' -- " _'
'é'
'â_'
'zin'
'yr'
'yon'
'yak_'
'wins_'
'winger_'
'wars_'
'vis'
'valuable_'
'usa'
'unt'
'undangan_'
'unbeaten_'
'uman_'
'ui_'
'uhkan_'
'udang_'
'tures_'
'tup'
'truce_'
'tropis_'
'trigger_'
'tria'
'tren_'
'tremendous_'
'treasury_'
'tower_'
'top'
'tit'
'tip'
'tha'
'tersenyum_'
'terka'
'terin'
'terduga_'
'tercepat_'
'tens_'
'temperatur_'
'tch_'
'tasnya_'
'tanggapan_'
'tak'
'tab'
'syaraf_'
'sum'
'suggested_'
'subsidiaries_'
'stunning_'
'structural_'
'sticks_'
'stealing_'
'stat'
'sta_'
'spider_'
'spesial_'
'somewhat_'
'sirkuit_'
'sional_'
'singa_'
'siklus_'
'sheet_'
'shame_'
'sesaat_'
'serves_'
'sensors_'
'sensitif_'
'sengit_'
'sembuh_'
'sema'
'selected_'
'seke'
'sec'
'searching_'
'scen'
'sarana_'
'sal_'
'rumahsakit_'
'rubber_'
'rou'
'roll_'
'rit_'
'rincian_'
'ril'
'rig_'
'ries_'
'rib'
'revolusi_'
'ret_'
'ress_'
'repeatedly_'
'repeated_'
'remind_'
'rem'
'reli'
'reka'
'refugee_'
'recording_'
'reasonable_'
'rantai_'
'raids_'
'rah'
'radiation_'
'qui'
'pup'
'pti'
'propinsi_'
'prompted_'
'prof'
'polymer_'
'poli'
'plenty_'
'pledged_'
'pik'
'pic'
'persa'
'peredaran_'
'percakapan_'
'perc'
'penyesuaian_'
'penda'
'penci'
'penambangan_'
'pemakaian_'
'pelindung_'
'pelajar_'
'pegunungan_'
'pay'
'pack_'
'oy_'
'otherwise_'
'ori_'
'ora_'
'options_'
'oni'
'ogen'
'odi'
'nukleus_'
'ntr'
'nose_'
'nia_'
'negotiator_'
'neck_'
'ndu'
'nde'
'navy_'
'naturally_'
'namamu_'
'nam'
'mystery_'
'mp_'
'mir'
'minor_'
'mina'
'methods_'
'meta'
'meru'
'merger_'
'merasakannya_'
'menyer'
'menyedihkan_'
'mengutuk_'
'mengusir_'
'mengu'
'mengecam_'
'menerobos_'
'menempel_'
'menelan_'
'menduga_'
'mendeteksi_'
'mendengarnya_'
'mendapati_'
'memutar_'
'memo'
'memilikinya_'
'membunuhmu_'
'membrane_'
'memberitahumu_'
'memberitahuku_'
'memberikannya_'
'membe'
'membahayakan_'
'meman'
'meletus_'
'mega'
'mbar'
'mb'
'matamu_'
'makna_'
'magnet_'
'mag'
'ly'
'lum'
'lon_'
'lle_'
'lla_'
'lipid_'
'late'
'largely_'
'laptops_'
'langan_'
'lang'
'lamban_'
'labor_'
'kut'
'kukatakan_'
'kuatnya_'
'kti'
'kriminal_'
'konsultan_'
'konservatif_'
'kom'
'kok_'
'kku_'
'keturunan_'
'keti'
'kena'
'kelangsungan_'
'keka'
'kei'
'kebiasaan_'
'keberuntungan_'
'kapitalisme_'
'jung_'
'journalist_'
'joke_'
'jakan_'
'jadwal_'
'isa_'
'irre'
'invited_'
'intinya_'
'instruction_'
'inst'
'ino'
'inflow_'
'indo_'
'inch_'
'hr'
'home'
'hik'
'hidupmu_'
'hidrokarbon_'
'harusnya_'
'haru'
'harmful_'
'hap'
'hang'
'hakim_'
'grenades_'
'gre'
'grants_'
'gh'
'gereja_'
'gebrakan_'
'ge'
'gah_'
'fuels_'
'freed_'
'fragile_'
'foto'
'fold_'
'feeding_'
'favourites_'
'fal'
'extremists_'
'expects_'
'ew'
'eta'
'essential_'
'ery_'
'equaliser_'
'entirely_'
'enta'
'engineer_'
'emosional_'
'ean_'
'ead_'
'dup'
'dramatic_'
'domba_'
'dom'
'ditem'
'disu'
'distribute_'
'dispute_'
'disepakati_'
'discovery_'
'diri'
'dirawat_'
'dipu'
'dipro'
'dipastikan_'
'dio'
'dimainkan_'
'dili'
'dilepaskan_'
'diki'
'dikhawatirkan_'
'dikalahkan_'
'dihitung_'
'digantikan_'
'diesel_'
'didominasi_'
'dide'
'dibi'
'diakui_'
'det'
'deserve_'
'des'
'demo'
'delighted_'
'defend_'
'def'
'dec'
'dealer_'
'dawn_'
'darkness_'
'dali'
'cus_'
'crossed_'
'cops_'
'convert_'
'contributing_'
'context_'
'contained_'
'concluded_'
'communicate_'
'colors_'
'cks_'
'cited_'
'cigarettes_'
'cetak_'
'categories_'
'camel_'
'cacat_'
'businessman_'
'bullying_'
'bul'
'breathing_'
'blu'
'bloody_'
'bite_'
'bio_'
'bility_'
'bike_'
'bes'
'bertolak_'
'berkekuatan_'
'berhati_'
'berga'
'bere'
'bercerita_'
'berc'
'berbatasan_'
'beliau_'
'begun_'
'begins_'
'bed'
'batasan_'
'bahu_'
'bagiku_'
'ayan'
'awa_'
'automotive_'
'attitude_'
'atlet_'
'atkan_'
'astro'
'astonishing_'
'aspect_'
'arrival_'
'armada_'
'apparently_'
'ao_'
'any'
'announcement_'
'ances_'
'alan'
'ago'
'ads_'
'actor_'
'accurate_'
'abductions_'
'Yesus_'
'Wong_'
'Wit'
'Wei'
'Wea'
'We'
'WP_'
'Vera_'
'Valas_'
'Twenty_'
'Turn'
'Tun'
'Torino_'
'Tingkat_'
'Tim'
'Thai_'
'Teknik_'
'Tang'
'Tampaknya_'
'Syrian_'
'Suma'
'Sum'
'Source_'
'Software_'
'Sergio_'
'Sent'
'Sat'
'San'
'Sala'
'SU'
'Ry'
'Rud'
'Rp15'
'River_'
'Rights_'
'Rick_'
'Revolutionary_'
'Reserve_'
'Rea'
'Rat'
'Rajapakse_'
'RO'
'Qui'
'Pong'
'Petr'
'Persero_'
'Pers'
'Peron_'
'Perdagangan_'
'Peningkatan_'
'Penggunaan_'
'Peng_'
'Out_'
'Organization_'
'Ok'
'Obi_'
'Not'
'Nistelrooy_'
'Niang_'
'Nevertheless_'
'Nasution_'
'Mun'
'Mor'
'Mira'
'Mini'
'Mexican_'
'Metro_'
'Menc'
'Mang'
'Mala'
'Mah'
'Ma_'
'Lak'
'LL'
'Kri'
'Klaus_'
'Khusus_'
'Kejadian_'
'KLBF_'
'Jun'
'Jerez_'
'JBIC_'
'Ind'
'IA'
'Hawaii_'
'Hasilnya_'
'Harapan_'
'Hai'
'Guillermo_'
'Greece_'
'Gore_'
'Garden_'
'Galaxy_'
'Forget_'
'Follow_'
'Fat'
'Eri'
'Edward_'
'Dua'
'Dil'
'Diane_'
'Deposit_'
'Dengarkan_'
'Delapan_'
'Del_'
'Death_'
'Dalai_'
'Cole_'
'Claire_'
'Cho'
'Championships_'
'Cari_'
'Campbell_'
'CI'
'Bol'
'Bernabeu_'
'Bay_'
'Batticaloa_'
'Bart'
'Bag'
'BO'
'Aziz_'
'Atlanta_'
'Assistance_'
'Artinya_'
'Ann'
'Anelka_'
'Ana'
'Amin_'
'Amb'
'Alzheimer_'
'Allen_'
'Ale'
'Alberto_'
'Alasan_'
'Aksi_'
'Akibatnya_'
'Aki'
'Airlines_'
'Age_'
'Ada'
'Ad'
'Abu'
'ATPK_'
'AN_'
'AC'
'86'
'7'
'66'
'59'
'420_'
'32'
'310_'
'202'
'14th_'
'02'
'..,.._'
''._'
'"..._'
' ] [ _'
' ? ._'
' ? , _'
'¶ _'
'yn'
'yar_'
'yar'
'worker_'
'wn'
'wedding_'
'weaken_'
'villages_'
'ven'
'vast_'
'useless_'
'usan_'
'urgent_'
'ura'
'upward_'
'untuknya_'
'unlikely_'
'uni'
'und'
'uli'
'ule'
'ulat_'
'uhan_'
'ugly_'
'ugh'
'ue'
'uba'
'typical_'
'tuturnya_'
'tul'
'tropical_'
'transitional_'
'traits_'
'tradition_'
'tongkat_'
'tiv'
'tis'
'timbul_'
'tile_'
'tia'
'thy_'
'thrown_'
'thoughts_'
'thin_'
'tertu'
'terowongan_'
'terlarang_'
'terku'
'terjaga_'
'terja'
'tenggara_'
'tends_'
'temporary_'
'teki_'
'teka_'
'tabungan_'
'super'
'successfully_'
'strikes_'
'storm'
'stor'
'stones_'
'sting_'
'statistics_'
'sp'
'soul_'
'sought_'
'sni'
'slip_'
'sleeping_'
'sle'
'skuad_'
'situations_'
'sheets_'
'seusai_'
'seruan_'
'seper'
'semi'
'semalam_'
'selam_'
'sekumpulan_'
'sejati_'
'sehubungan_'
'sedih_'
'sebaik_'
'scare_'
'san'
'sample_'
'ru'
'roo'
'roda_'
'rod'
'rey_'
'respon_'
'researcher_'
'reputation_'
'reno'
'removed_'
'relax_'
'rel_'
'rekayasa_'
'rek'
'reduction_'
'recognized_'
'recognise_'
'receives_'
'ranya_'
'rant'
'ramp'
'rama'
'rain'
'raf'
'qualified_'
'qualification_'
'prospect_'
'prisoners_'
'preventing_'
'prestasi_'
'presentasi_'
'pping_'
'poke'
'poison_'
'play'
'pis_'
'petempur_'
'pesa'
'perunding_'
'pertimbangan_'
'pertanda_'
'perse'
'permit_'
'pepohonan_'
'penyebaran_'
'pensiun_'
'penjual_'
'pengawas_'
'pener'
'penentu_'
'pendorong_'
'penasaran_'
'penanganan_'
'pemelihara_'
'pemasaran_'
'paspor_'
'panik_'
'panc'
'outs'
'ours_'
'orit'
'organism_'
'ordinary_'
'ord'
'op_'
'ood_'
'ond'
'omo'
'oh'
'oca'
'obstacles_'
'ob'
'nyeri_'
'nol_'
'nkan_'
'nis'
'ninth_'
'nia'
'ni'
'ngin'
'nge_'
'net'
'necessarily_'
'nasi_'
'nara'
'mpat'
'mpa'
'mood_'
'moments_'
'momen_'
'mistakes_'
'militia_'
'miliaran_'
'mikro'
'menyembunyikan_'
'menyatukan_'
'menyalakan_'
'mengindikasikan_'
'menggali_'
'mengendarai_'
'mengambilnya_'
'mengajari_'
'menci'
'menandai_'
'menakutkan_'
'memuaskan_'
'mempro'
'memorandum_'
'memelihara_'
'membu'
'memberlakukan_'
'membenarkan_'
'membantumu_'
'memasok_'
'memadai_'
'melt_'
'mechanical_'
'mbu'
'masjid_'
'mara'
'mal_'
'magnetic_'
'lupakan_'
'lulus_'
'loud_'
'login_'
'logic_'
'lob'
'lit'
'lers_'
'leg'
'lebaran_'
'leadership_'
'laugh_'
'lat_'
'landed_'
'landas_'
'lai'
'kurun_'
'kurangnya_'
'kumohon_'
'kos'
'konversi_'
'komite_'
'komando_'
'kloning_'
'kit_'
'kimiawi_'
'keterlibatan_'
'kes_'
'kemudahan_'
'kelemahan_'
'keba'
'kari'
'kandas_'
'kanannya_'
'kal'
'kaan_'
'jin'
'jal'
'iva'
'itra'
'isinya_'
'intervene_'
'intermediate_'
'inta'
'inspirasi_'
'ini'
'imported_'
'ile'
'ikannya_'
'iest_'
'idAA_'
'id'
'ici'
'hur'
'hu_'
'hot'
'hm_'
'hits_'
'hem'
'hektar_'
'hati'
'ham'
'gunfire_'
'gudang_'
'gru'
'ground'
'grab_'
'goreng_'
'glo'
'gi'
'gha'
'ggu_'
'gg'
'gerilya_'
'gat_'
'galaxies_'
'framework_'
'focusing_'
'fishing_'
'firing_'
'finishing_'
'fen'
'feared_'
'eye'
'expo'
'examine_'
'eva'
'et'
'estimates_'
'estate_'
'ert'
'ero_'
'ering_'
'erent_'
'engineers_'
'enforcement_'
'ency_'
'elite_'
'elektro'
'ekonom_'
'effectively_'
'eba'
'dynamic_'
'dul'
'duk'
'dropping_'
'downtown_'
'doors_'
'ditulis_'
'ditu'
'dipi'
'dipasang_'
'dioksida_'
'dikenakan_'
'dikembalikan_'
'dik_'
'dijatuhi_'
'dijalankan_'
'dihancurkan_'
'didasarkan_'
'dibuka_'
'detailed_'
'designer_'
'demonstrators_'
'demonstration_'
'demo_'
'delayed_'
'dasi_'
'dara'
'dar'
'cy'
'cute_'
'cucu_'
'cuckoo_'
'crushed_'
'covering_'
'coverage_'
'convoy_'
'contest_'
'consistent_'
'connect_'
'condemned_'
'complained_'
'commonly_'
'combustion_'
'collection_'
'coklat_'
'clay_'
'class'
'citing_'
'ciptaan_'
'cio'
'cht'
'cher_'
'chasing_'
'chap'
'cermin_'
'carries_'
'cargo_'
'card'
'capitalism_'
'capabilities_'
'camps_'
'bullshit_'
'buk_'
'broadband_'
'brilliant_'
'breeding_'
'breakfast_'
'bre'
'bra'
'bos'
'bol_'
'boil'
'berti'
'bertelur_'
'berpa'
'bernapas_'
'berma'
'berko'
'berja'
'bergu'
'bergolak_'
'berde'
'berbalik_'
'beracun_'
'ber'
'belief_'
'belakangnya_'
'bea_'
'bastard_'
'bai'
'babies_'
'bab'
'awesome_'
'awareness_'
'attend_'
'attackers_'
'atasnya_'
'asu'
'astronot_'
'ann'
'ani'
'ane'
'ami'
'amat'
'ama'
'alright_'
'alan_'
'al'
'aku'
'ajaran_'
'agreements_'
'advantages_'
'adik_'
'academic_'
'\u_'
'Z_'
'Yus'
'Youzhny_'
'Wo'
'Winston_'
'Wimbledon_'
'Wembley_'
'Wayne_'
'War'
'Wanderers_'
'Waluyanto_'
'WH'
'Vogts_'
'Terlalu_'
'Tangan_'
'TER'
'Swadesi_'
'Swa'
'Suns_'
'Summ'
'Suk'
'Struktur_'
'Stefan_'
'Speaking_'
'Southern_'
'Solana_'
'Soe'
'Small_'
'Sis'
'Sir'
'Sing'
'Silahkan_'
'Shin'
'Shim'
'Sepuluh_'
'Senate_'
'Selanjutnya_'
'Selalu_'
'Santos_'
'Sam'
'Salvador_'
'ST_'
'SA_'
'Rp76'
'Rp75_'
'Rp58_'
'Rp32'
'Rp31_'
'Rp23_'
'Rp22'
'Rot'
'Robredo_'
'Richards_'
'Republican_'
'Rem'
'Rek'
'Red'
'Reading_'
'Rancangan_'
'Ramallah_'
'Rad'
'Put'
'Pul'
'Produksi_'
'Prima_'
'Polri_'
'Pin'
'Piero_'
'Petraeus_'
'Perrin_'
'Perolehan_'
'Peristiwa_'
'Penjaga_'
'Penge'
'Pembayaran_'
'Pemb'
'Pauleta_'
'Papa_'
'Panama_'
'PP'
'PL'
'Orleans_'
'Origin_'
'Ol'
'Ochoa_'
'OC'
'Navy_'
'Nalbandian_'
'Nai'
'Moody_'
'Money_'
'Men_'
'Mecca_'
'Mass'
'Mana'
'Maha'
'MM'
'MA_'
'Lut'
'Local_'
'Lewis_'
'Lehmann_'
'Layanan_'
'Land'
'Laden_'
'Korsel_'
'Kis'
'Kirkuk_'
'Ked'
'Kate_'
'Kas'
'Kagame_'
'KS_'
'Justin_'
'Johansson_'
'Joachim_'
'Jazeera_'
'Jai'
'JMB_'
'Ibrahim_'
'IT'
'IP'
'IFC_'
'Hopefully_'
'Hollywood_'
'Hit'
'Hilton_'
'High'
'Hat'
'Happy_'
'Hakim_'
'Had'
'Gregory_'
'Gran'
'Gold'
'Gin'
'Ger'
'Gandhi_'
'Gala'
'Gai'
'GPS_'
'GA'
'Fuad_'
'Fore'
'Fil'
'Federasi_'
'Fabregas_'
'Essien_'
'Enough_'
'Ei'
'Eastern_'
'Dolar_'
'Djibril_'
'Dja'
'Diyala_'
'Directorate_'
'Detroit_'
'Del'
'Defense_'
'Danau_'
'Cur'
'Cuba_'
'Cro'
'Coruna_'
'Cool_'
'Conakry_'
'Com'
'Citra_'
'Caen_'
'Burundi_'
'Burnley_'
'Bung_'
'Buddha_'
'Bryant_'
'Bran'
'Bielefeld_'
'Bera'
'Ber'
'Bena'
'Begini_'
'Bed'
'Bas'
'Barry_'
'Banten_'
'Baluch'
'Bahrain_'
'Bahan_'
'Bah'
'Avram_'
'Ass'
'As'
'Around_'
'Arminia_'
'Arbil_'
'Ant'
'Anbar_'
'Amelie_'
'Amanda_'
'Alessandro_'
'Alba'
'Agen_'
'Abo'
'Abe'
'Abd'
'APOL_'
'AD'
'='
'80'
'68'
'16th_'
'121_'
'.'_'
'. ♫ ♫ _'
'," _'
' ¶_'
' ) '
' ''
'zz'
'yl_'
'ye_'
'yd'
'wit'
'wildcard_'
'welfare_'
'wel'
'wea'
'warganegara_'
'vig'
'vest'
'veri'
'vel'
'uri_'
'ups_'
'unusual_'
'unseeded_'
'unjuk_'
'unidentified_'
'unan_'
'uku_'
'tung'
'tum'
'tua'
'tril'
'trea'
'trauma_'
'tragedi_'
'tourists_'
'touched_'
'tos'
'tone_'
'ton'
'tombol_'
'tinya_'
'tikan_'
'ticket_'
'tersendiri_'
'terpi'
'terkecil_'
'terjatuh_'
'terdahulu_'
'terca'
'teratur_'
'tepuk_'
'tentaranya_'
'temanku_'
'telpon_'
'teenager_'
'tech_'
'tea'
'tasks_'
'tana'
'tamp'
'tam'
'sweetheart_'
'survived_'
'sumbangan_'
'sul'
'suk'
'suit_'
'streak_'
'stal'
'spontan_'
'sound'
'sor'
'sopan_'
'slower_'
'slowdown_'
'sli'
'skema_'
'sit'
'sik'
'sight_'
'sidelines_'
'sian_'
'shops_'
'serial_'
'sepertiga_'
'seperempat_'
'sepakbola_'
'sens'
'seluas_'
'scenario_'
'scar'
'sb'
'saves_'
'sama'
'sabar_'
'ruh_'
'rts_'
'royal_'
'routine_'
'roll'
'roles_'
'rog'
'rinci_'
'rik_'
'rian_'
'ri'
'rezim_'
'resigned_'
'rep'
'rel'
'regarding_'
'recipe_'
'rebuild_'
'reas'
'reactions_'
'react'
'rch'
'ram'
'rai_'
'rai'
'qi'
'provider_'
'prosperity_'
'promises_'
'programming_'
'programmes_'
'processed_'
'print_'
'pol'
'plunged_'
'pinggiran_'
'pilih_'
'phy_'
'pher'
'peziarah_'
'peternakan_'
'pet_'
'perusahaannya_'
'permohonan_'
'perg'
'penyelamat_'
'penundaan_'
'penjuru_'
'penghentian_'
'penghematan_'
'penembakan_'
'pendudukan_'
'penampilannya_'
'pemu'
'pemeringkat_'
'pembua'
'pembicara_'
'pember'
'pembelajaran_'
'pembantu_'
'peg'
'peda'
'paus_'
'pasukannya_'
'pameran_'
'paman_'
'pal'
'pad'
'owns_'
'ova_'
'outp'
'outcome_'
'ota_'
'originated_'
'ooh_'
'omo_'
'oll'
'oid_'
'offset_'
'offers_'
'o'
'ns'
'nitrogen_'
'nie_'
'ngga'
'newest_'
'nes'
'neighborhood_'
'negotiating_'
'ne'
'nch'
'mutual_'
'museum_'
'murni_'
'ms'
'motion_'
'mos'
'mortar_'
'mon_'
'mixed_'
'mistar_'
'mini_'
'milli'
'mile_'
'midnight_'
'merekam_'
'menyudahi_'
'menyo'
'menyangkal_'
'menyakiti_'
'meno'
'menjualnya_'
'menjauh_'
'menguatnya_'
'mengoperasikan_'
'menghimpun_'
'menggelar_'
'menganalisis_'
'menembak'
'mendadak_'
'memun'
'memprotes_'
'mempekerjakan_'
'meme'
'membubung_'
'memaksakan_'
'meluncur_'
'melemparkan_'
'melan'
'mau'
'maturity_'
'master'
'marry_'
'marinir_'
'mannya_'
'mamalia_'
'maha'
'mabuk_'
'lovely_'
'lov'
'lou'
'loo'
'lock_'
'lm'
'litera'
'lf'
'lemparan_'
'leak'
'laun'
'lapar_'
'landing_'
'lac'
'labah_'
'kur_'
'kulihat_'
'kuku'
'kreditor_'
'konyol_'
'konsisten_'
'kitchen_'
'kesuksesan_'
'kesejahteraan_'
'kepresidenan_'
'kena_'
'kecilnya_'
'kec'
'keber'
'kat'
'karan_'
'kandidat_'
'kampung_'
'kakak_'
'kai_'
'jumping_'
'jelaskan_'
'jarum_'
'ition_'
'isan_'
'irkan_'
'irah'
'ira_'
'invisible_'
'investments_'
'interface_'
'inh'
'ingkan_'
'inga'
'informed_'
'informa'
'infant'
'iness_'
'incidents_'
'impa'
'ime'
'ima'
'illus'
'ika'
'iga'
'ield_'
'identification_'
'idBBB_'
'ick_'
'ibumu_'
'hydrocarbon_'
'huruf_'
'hos'
'holder_'
'hive_'
'hitungan_'
'highway_'
'hidden_'
'hei_'
'hei'
'heart'
'has'
'hall_'
'gy'
'gugup_'
'gu'
'glasses_'
'gku'
'gko'
'git'
'gin'
'gigi'
'ght'
'getaran_'
'gers_'
'gandum_'
'ga'
'freely_'
'flawless_'
'firms_'
'fire'
'favourite_'
'fatal_'
'fan'
'fake_'
'facts_'
'extra'
'experiences_'
'exi'
'executed_'
'excellent_'
'evolutionist_'
'everyday_'
'ette_'
'ethic'
'eter'
'essentially_'
'eru'
'ente'
'engage_'
'enco'
'enci'
'emo'
'emergence_'
'embarrassing_'
'emb'
'elin'
'ekst'
'eksi_'
'economists_'
'dy'
'dugaan_'
'downward_'
'dominant_'
'dly_'
'dle_'
'div'
'diusir_'
'ditarik_'
'displays_'
'displaced_'
'dirasakan_'
'diragukan_'
'dipaksa_'
'dilindungi_'
'dikurangi_'
'dika'
'diizinkan_'
'diinginkan_'
'difficulty_'
'didapat_'
'dibu'
'dibiayai_'
'diameter_'
'dial'
'devices_'
'desire_'
'derby_'
'depth_'
'depress'
'deny_'
'deflation_'
'deflasi_'
'deeper_'
'decree_'
'debate_'
'dated_'
'dat'
'daratan_'
'dapur_'
'dancing_'
'dada_'
'custody_'
'cup_'
'ction'
'cracker_'
'crack_'
'cook_'
'conducting_'
'condemn'
'con_'
'coco'
'cocaine_'
'coastal_'
'clouds_'
'clever_'
'classified_'
'classes_'
'civilization_'
'ched_'
'chase_'
'chapter_'
'channeled_'
'centers_'
'cent'
'cau'
'cast_'
'cas'
'capitalist_'
'cad'
'ca'
'c'
'buru_'
'burst_'
'buaya_'
'briefing_'
'bou'
'bosan_'
'bohong_'
'bocah_'
'blood'
'blasts_'
'bits_'
'bios'
'biomass_'
'bingung_'
'bid'
'bi'
'beru'
'bertanggungjawab_'
'berpakaian_'
'berkeliling_'
'belonging_'
'bedanya_'
'bawahnya_'
'battles_'
'bati'
'basement_'
'baseline_'
'banding_'
'balasan_'
'aya'
'aver'
'automatic_'
'aun'
'audio_'
'attracted_'
'attending_'
'ata_'
'asta'
'assists_'
'assembly_'
'ash'
'aru'
'artist_'
'arsip_'
'apparent_'
'ant'
'alias_'
'alasannya_'
'aknya_'
'akan'
'ai'
'ahnya_'
'afterwards_'
'adults_'
'administrasi_'
'accordance_'
'accord_'
'accompanied_'
'aba'
'Ze_'
'Yaman_'
'Wid'
'Whoo_'
'Water'
'WIB_'
'Vavuniya_'
'Uruguay_'
'Unless_'
'Turn_'
'Ts'
'Try_'
'Trade_'
'Tha'
'Tera'
'Tepat_'
'Tentunya_'
'Taylor_'
'Tarik_'
'Tanzania_'
'Suzuki_'
'Super'
'Sugiharto_'
'Sport_'
'Species_'
'Spar'
'Skotlandia_'
'Sinar_'
'Sher'
'Shane_'
'Setidaknya_'
'Setiawan_'
'Sera'
'Sepak_'
'Sed'
'Scho'
'Sayap_'
'Satelit_'
'Sai'
'Sab'
'SE_'
'Rp52'
'Rp45'
'Rp42_'
'Rp27_'
'Rp25'
'Rp10'
'Rostock_'
'Roman_'
'Rivers_'
'Rig'
'Rid'
'Regulation_'
'Raya_'
'Ratu_'
'Rap'
'Quetta_'
'Prince_'
'Poll'
'Polandia_'
'Perundingan_'
'Perse'
'Penn'
'Penjualan_'
'Pengamat_'
'Penda'
'Pemi'
'Peman'
'Pem'
'Pelaku_'
'Ped'
'Pass'
'Partnership_'
'Pai'
'Padang_'
'PPnBM_'
'Oxford_'
'Owen_'
'Ou'
'Ott'
'Ori'
'Oman_'
'Om'
'Oh'
'Officials_'
'OS_'
'Ny_'
'None_'
'New'
'Nas'
'Nam'
'NI'
'MotoGP_'
'Mosul_'
'Moore_'
'Moo_'
'Misi_'
'Mengu'
'Menge'
'Meneg_'
'Melihat_'
'McEnroe_'
'Mascherano_'
'Masalahnya_'
'Masa'
'Mark'
'Mali'
'Malaysian_'
'Mal'
'Maka'
'Maggie_'
'Mag'
'MR'
'MD'
'Lobato_'
'Levin_'
'Lapisan_'
'Lankan_'
'LSM_'
'LPG_'
'LD'
'Kumohon_'
'Ku_'
'Kristen_'
'Kris'
'Kons'
'Keti'
'Kepulauan_'
'Kepa'
'Ken_'
'Kelly_'
'Kela'
'Kedutaan_'
'Kau'
'Kata'
'KUR_'
'Josh_'
'Jong_'
'Jam_'
'Jag'
'JE'
'Investors_'
'Ingat_'
'Ib'
'Holl'
'Hen'
'Hel'
'Hea'
'Harus_'
'Hart'
'HAM_'
'Gul'
'Gua'
'Grace_'
'Girl_'
'Gir'
'Gerard_'
'Genoa_'
'Gem'
'Gel'
'Gan'
'Front_'
'Fro'
'Fra'
'Fle'
'Filipina_'
'FT_'
'Europa_'
'Est'
'Emory_'
'Eight_'
'Ear'
'ES'
'EPS_'
'EM'
'ED'
'Dude_'
'Dor'
'Def'
'Dec_'
'Dea'
'Daw'
'Darat_'
'Danish_'
'Damon_'
'Cu'
'Cooperation_'
'Congratulations_'
'Compa'
'Cir'
'Cel'
'Caroline_'
'Carolina_'
'CA'
'Bus'
'Buana_'
'Brit'
'Bos_'
'Bla'
'Bis'
'Bio'
'Berbagai_'
'Benitez_'
'Benda_'
'Bara'
'BI'
'Award_'
'Asuransi_'
'Ara'
'Anti_'
'Antar'
'Also_'
'Alan_'
'Ala'
'Ah'
'Agu'
'ASII_'
'AP_'
'AK'
'97'
'77'
'48'
'44'
'3'
'225_'
'19th_'
'187'
'175_'
'165_'
'133_'
'1000_'
'10'
'080_'
'. ' _'
'% _'
'$_'
' "'
'ª_'
'zh'
'yla'
'yak'
'xt'
'writer_'
'wait'
'volley_'
'vis_'
'violation_'
'vin'
'villagers_'
'views_'
'valued_'
'usu'
'urs'
'urn'
'unexpected_'
'umb'
'ula_'
'ug'
'uap_'
'twenty_'
'turmoil_'
'turb'
'tumpukan_'
'tter'
'tte_'
'tt'
'trucks_'
'trophy_'
'trick'
'trai'
'tragedy_'
'tradable_'
'tracks_'
'trac'
'tra_'
'tong'
'tom'
'tol'
'tindak_'
'tim'
'tik'
'throwing_'
'thro'
'terumbu_'
'tertulis_'
'terti'
'tersimpan_'
'terkalahkan_'
'terje'
'terjangkau_'
'terikat_'
'terendah_'
'terce'
'terbu'
'tepatnya_'
'temperatures_'
'telecommunications_'
'tela'
'teg'
'tears_'
'tarikan_'
'tarik_'
'tap'
'tain'
'tad'
'tac'
'taan_'
'swor'
'surya_'
'stro'
'steroid_'
'steam_'
'staying_'
'stan'
'spots_'
'spor'
'spekulasi_'
'spaces_'
'sophisticated_'
'sonar_'
'skenario_'
'skeleton_'
'sive_'
'sisi'
'silam_'
'sie'
'side'
'shu'
'shower_'
'shocked_'
'shed_'
'shar'
'shake_'
'seru'
'sell'
'seksi_'
'sekira_'
'see'
'scandal_'
'scan'
'satupun_'
'santai_'
'sandera_'
'sana'
'sailors_'
'sahabat_'
'rutin_'
'rushed_'
'rung_'
'ruh'
'rt'
'rre'
'rounds_'
'rop'
'rol_'
'rocks_'
'rn'
'riti'
'rit'
'rises_'
'riot_'
'rintangan_'
'rif'
'rie'
'riding_'
'ridiculous_'
'ric_'
'reveal_'
'reportedly_'
'repay_'
'renew'
'relationships_'
'rekonsiliasi_'
'reiterated_'
'regulasi_'
'regularly_'
'rect'
'recruit'
'reco'
'rb'
'rang'
'ract'
'rab'
'quit'
'quest_'
'queen_'
'qua'
'pursue_'
'pump'
'pulling_'
'proto'
'properti_'
'promote_'
'promising_'
'profitabilitas_'
'proceeds_'
'proceed_'
'principal_'
'primitive_'
'prima_'
'prevented_'
'premier_'
'ppe'
'postponed_'
'possibilities_'
'por_'
'pool_'
'pond'
'pon'
'polls_'
'poison'
'pnya_'
'plot_'
'planting_'
'pita_'
'piled_'
'pil_'
'phi'
'peta'
'pertamakalinya_'
'perta'
'perlucutan_'
'percepatan_'
'perbudakan_'
'penyera'
'penyandang_'
'penuaan_'
'pent'
'penja'
'pengunjuk_'
'penghitungan_'
'pengendali_'
'pengaturan_'
'penetrat'
'pendiri_'
'pencari_'
'pemi'
'pemburu_'
'pembe'
'pembatasan_'
'pelan'
'pea'
'pe'
'payable_'
'pawai_'
'patungan_'
'pati'
'pastikan_'
'passenger_'
'partnership_'
'partly_'
'paramiliter_'
'paramilitary_'
'pang_'
'paleontologi_'
'pab'
'overs'
'our'
'otomotif_'
'otin'
'oth'
'osa_'
'organisation_'
'optimism_'
'optik_'
'opium_'
'opens_'
'opener_'
'ons'
'ono'
'oksida_'
'oke'
'od_'
'obyek_'
'nting_'
'nst'
'nob'
'nic'
'niat_'
'ngl'
'ngku_'
'ngannya_'
'netted_'
'negosiasi_'
'nas_'
'narkoba_'
'naked_'
'nah_'
'mysterious_'
'munculnya_'
'mud_'
'mothers_'
'mobil'
'mirror_'
'minu'
'min_'
'mim'
'migration_'
'meth'
'mes_'
'meri'
'menyusut_'
'menyepakati_'
'menunda_'
'menti'
'menju'
'mengubahnya_'
'menghu'
'menghentikannya_'
'menembakkan_'
'menduduki_'
'mencobanya_'
'menan'
'memulainya_'
'memisahkan_'
'membenci'
'memat'
'melumpuhkan_'
'meles'
'melemahnya_'
'mel'
'meal_'
'mbat_'
'maya_'
'matanya_'
'masukan_'
'mas_'
'mani'
'mammals_'
'makers_'
'mach'
'lurus_'
'lorong_'
'lma'
'likannya_'
'lihatlah_'
'levelled_'
'letting_'
'ler'
'lens_'
'leng'
'lega_'
'latter_'
'lasi_'
'lap'
'lak'
'lag'
'kumpulan_'
'ksi'
'kontroversi_'
'konse'
'kondusif_'
'kond'
'kon'
'komisaris_'
'knife_'
'kin'
'kil'
'kian_'
'kemi'
'kemakmuran_'
'keluarnya_'
'kelapa_'
'kekayaan_'
'kekasih'
'kedatangan_'
'kebuntuan_'
'karbo'
'kam'
'kaka'
'jur'
'jam'
'jai'
'jagung_'
'izing_'
'ive'
'itik_'
'itan_'
'istriku_'
'isti'
'iso'
'iran_'
'ip'
'investigating_'
'investigate_'
'invasi_'
'inva'
'interaksi_'
'intelligent_'
'inject'
'inflationary_'
'ined_'
'indication_'
'implementasi_'
'imagination_'
'ilnya_'
'ilitas_'
'ide'
'ida'
'ice'
'iPod_'
'hurts_'
'hun'
'hostages_'
'hop'
'hoo_'
'hon'
'hidung_'
'hic'
'hes_'
'hello_'
'heed_'
'hed_'
'hectares_'
'haruslah_'
'hall'
'hak'
'gurun_'
'gua_'
'gt'
'gna'
'gle'
'gir'
'gia'
'gent'
'geng_'
'garbage_'
'gai_'
'fracture_'
'founded_'
'fool'
'floods_'
'flag_'
'fis'
'fires_'
'filum_'
'filter_'
'fikasi_'
'fierce_'
'fied_'
'fel'
'fe_'
'fastest_'
'far'
'extreme_'
'extinct_'
'expression_'
'exit_'
'ewa'
'evolutionists_'
'erupted_'
'ernya_'
'entrepreneurs_'
'ening_'
'engines_'
'enga'
'eng'
'electro'
'ekt'
'ekstrim_'
'ekstra_'
'eh'
'ef_'
'ec'
'earnings_'
'ea'
'e'
'dura'
'dt'
'drunk_'
'dre'
'dou'
'doping_'
'donors_'
'dominan_'
'divestment_'
'dituntut_'
'ditunjuk_'
'ditinggalkan_'
'disusul_'
'diselamatkan_'
'discussing_'
'disclosed_'
'dipertahankan_'
'dipenjara_'
'dipengaruhi_'
'dimin'
'dimakan_'
'dik'
'dies_'
'dibicarakan_'
'dibe'
'dibayarkan_'
'dibatasi_'
'diar'
'dev'
'determination_'
'ders_'
'depending_'
'departemen_'
'demonstrasi_'
'democratic_'
'demanding_'
'dek'
'debat'
'datar_'
'database_'
'dare_'
'customs_'
'currents_'
'cure_'
'cultures_'
'cro'
'coup_'
'count'
'cott'
'cope_'
'cop_'
'constitution_'
'consist_'
'consideration_'
'conservative_'
'connect'
'concentrate_'
'compounds_'
'composite_'
'colony_'
'collaboration_'
'co'
'climbed_'
'clients_'
'citizen_'
'cigarette_'
'chu'
'chin'
'channeling_'
'ceritakan_'
'centuries_'
'cell'
'cass'
'carcinogen'
'camp'
'bu_'
'browser_'
'breathe_'
'bow_'
'boa'
'bioteknologi_'
'biotechnology_'
'bina'
'berun'
'bersenang_'
'berperang_'
'berpartisipasi_'
'bermu'
'berjumlah_'
'berdekatan_'
'berantakan_'
'belu'
'bell_'
'bell'
'bawang_'
'batteries_'
'basket_'
'barkan_'
'bali'
'bagai'
'aud'
'ational_'
'atic_'
'ate'
'arena_'
'approximately_'
'approached_'
'antr'
'ante'
'angiogenesis_'
'anger_'
'angel_'
'ande'
'ambi'
'amatir_'
'alokasi_'
'allocation_'
'alg'
'alah_'
'akannya_'
'aims_'
'aga'
'afford_'
'advertising_'
'adrift_'
'activated_'
'aca'
'absorption_'
'absolute_'
'absence_'
'`_'
'Zam'
'Yunus_'
'Yu_'
'Yong_'
'Yan'
'Xavi_'
'Wu'
'Wha'
'Wer'
'Want_'
'Wajima_'
'WK_'
'Vitamin_'
'Vie'
'Vani'
'Uribe_'
'Uri_'
'Uang_'
'Ty'
'Turk'
'Trafford_'
'Tom'
'Tigris_'
'Tia'
'Terutama_'
'Terus_'
'Temuan_'
'Tembak_'
'Tami'
'TR'
'Syi_'
'Sun'
'Stra'
'Some'
'Sk'
'Situs_'
'Sifat_'
'Siap_'
'Shemmari_'
'Shari'
'Sept_'
'Sepanjang_'
'Sem'
'Sekjen_'
'Sebastien_'
'Sebagaimana_'
'Sant'
'Sama'
'Rudd_'
'Rp77'
'Rp60'
'Rp38_'
'Rp27'
'Rp19'
'Rou'
'Rob'
'Riset_'
'Rico_'
'Rev'
'Rennes_'
'Realisasi_'
'Ran'
'RUU_'
'Qa'
'Prasad_'
'Pop'
'Pinjaman_'
'Pie'
'Phillips_'
'Petugas_'
'Perwakilan_'
'Perm'
'Perlindungan_'
'Perempuan_'
'Pemberontak_'
'Parker_'
'Paman_'
'PH'
'PDAM_'
'Overall_'
'Otherwise_'
'OSS_'
'Nyonya_'
'Nya_'
'Nya'
'Nikita_'
'Nik'
'NTS_'
'NG'
'NBA_'
'Morning_'
'Monte'
'Mommy_'
'Miroslav_'
'Milwaukee_'
'Miguel_'
'Merkel_'
'Merc'
'Menjadi_'
'Memba'
'Masa_'
'Mandela_'
'Mand'
'Mama_'
'MU'
'MP3_'
'MO'
'MFI_'
'MEDC_'
'ME'
'Lot'
'Lock'
'Ljubicic_'
'Lind'
'Leipheimer_'
'LeBron_'
'Lau'
'Lar'
'Lampard_'
'Lamarck_'
'Ky'
'Kutub_'
'Kukira_'
'Konferensi_'
'Kit'
'Kin'
'Kimia_'
'Kill_'
'Kho'
'Khalilzad_'
'Keluarga_'
'Keja'
'Ke'
'Kath'
'Karen_'
'Kaki_'
'KTT_'
'KE'
'Juande_'
'Jordania_'
'Jiabao_'
'Jan'
'Jama'
'Jake_'
'Jahja_'
'JB_'
'Ishikawa_'
'Indo_'
'Im'
'Il_'
'IS'
'IRNA_'
'INDF_'
'IM'
'Hugh_'
'Honey_'
'Holdings_'
'Hell_'
'Hay'
'Harian_'
'Gy'
'Gre'
'Gedi_'
'Gbagbo_'
'GE'
'Frederic_'
'Francesco_'
'Foundation_'
'Forest_'
'Ferrero_'
'Fen'
'Federation_'
'FS'
'FR0042_'
'FF_'
'Et'
'Esc'
'Emmanuel_'
'Emma_'
'Ea'
'ER'
'E8_'
'Dwi_'
'Durrani_'
'Domin'
'Domestic_'
'Ditanya_'
'Dir'
'Design_'
'Derek_'
'Demo'
'Demirel_'
'Demi_'
'Damascus_'
'Dal'
'Daisy_'
'Dag'
'DR'
'DKI_'
'Croatia_'
'Cornet_'
'Control_'
'Cons'
'Colo'
'Check_'
'Char'
'Chan_'
'Chan'
'Cavenaghi_'
'Cat'
'Cash_'
'Capello_'
'Capdevila_'
'Canas_'
'Cana'
'CR'
'CM'
'CB'
'Bunuh_'
'Bulu_'
'Bull'
'Brea'
'Bom_'
'Blo'
'Black'
'Bil'
'Beru'
'Berti'
'Benny_'
'Beni'
'Belgian_'
'Bartoli_'
'Barito_'
'Bang'
'BMRI_'
'BJP_'
'Aw'
'Aut'
'Assam_'
'Apps_'
'Ani'
'Ana_'
'Amr'
'Alright_'
'Alpha_'
'Alexandr'
'Alexander_'
'Agri_'
'Agni_'
'Add'
'Aa'
'96'
'950_'
'67'
'61'
'54'
'52'
'450_'
'272_'
'270_'
'203'
'20'
'1950_'
'189'
'123_'
'112_'
'102_'
'09'
'03'
'., _'
''?_'
'!"_'
'zer'
'yog'
'yer_'
'yearly_'
'ye'
'xon_'
'wrapped_'
'won'
'witness_'
'wire_'
'wewenang_'
'welcomed_'
'weed_'
'wasted_'
'wabah_'
'vy_'
'versus_'
'versi'
'vers_'
'vas'
'vai'
'utnya_'
'utan'
'usly_'
'upcoming_'
'ungnya_'
'ungkap_'
'unde'
'unchanged_'
'uncertain_'
'unaudited_'
'umin'
'ult'
'ui'
'ubung'
'tw'
'tus_'
'turis_'
'tuna_'
'trik_'
'transparent_'
'transition_'
'transformation_'
'toy_'
'toxic_'
'tomb'
'tok'
'toes_'
'tir_'
'tighten'
'tied_'
'tick'
'throne_'
'there'
'ther_'
'theme_'
'tersa'
'terpencil_'
'terpadu_'
'terla'
'tering_'
'terha'
'terh'
'terganggu_'
'terde'
'terbanyak_'
'tensions_'
'tension_'
'temanmu_'
'tely_'
'teleskop_'
'tasi_'
'tari_'
'tari'
'tang'
'tali_'
'synthetic_'
'symptoms_'
'sukuk_'
'sukarela_'
'suh'
'suggests_'
'subur_'
'subunit_'
'stunned_'
'struktural_'
'stronghold_'
'stretch_'
'stin'
'stan_'
'stakes_'
'sport_'
'spoil'
'spi'
'speculation_'
'spectrum_'
'spat'
'spare_'
'somehow_'
'solo_'
'snakes_'
'snake_'
'sluggish_'
'sinilah_'
'shootout_'
'shine_'
'sharply_'
'shadow_'
'setinggi_'
'seterusnya_'
'sete'
'seratus_'
'serat_'
'seputar_'
'separated_'
'sent'
'selu'
'sele'
'sekarat_'
'sedi'
'secepatnya_'
'screw'
'schedule_'
'sch'
'sca'
'sayapnya_'
'salah'
'saha'
'rui'
'ron_'
'rombongan_'
'road'
'rn_'
'rki'
'rivers_'
'rio_'
'rhodopsin_'
'review'
'resumed_'
'restrictions_'
'resistant_'
'rent'
'render'
'rendahnya_'
'reminds_'
'relief_'
'reliable_'
'relatives_'
'rejim_'
'register_'
'reconstruction_'
'react_'
'rc'
'ras'
'ral'
'rahan_'
'rad'
'quar'
'pul'
'propaganda_'
'promotion_'
'profitability_'
'privatisasi_'
'privat'
'presidency_'
'pregnant_'
'preferred_'
'pras'
'poultry_'
'pose_'
'politically_'
'polio_'
'pm'
'pleased_'
'pirolisis_'
'pie_'
'photo'
'ph'
'pesat_'
'peru'
'perte'
'perselisihan_'
'permen_'
'perjalanannya_'
'periksa_'
'perce'
'pepsis_'
'penyimpangan_'
'penyedia_'
'penjamin_'
'pengurus_'
'pengunjung_'
'pengunduran_'
'penghasilan_'
'pengembang_'
'pene'
'penasehat_'
'penalties_'
'pemrograman_'
'pemanfaatan_'
'pemandangan_'
'pelo'
'pela'
'pekerjaannya_'
'pato'
'pata'
'pacar_'
'overweight_'
'ote'
'osa'
'orbit'
'opti'
'ope'
'onia_'
'oi_'
'occupation_'
'observers_'
'oblig'
'northeast_'
'nk_'
'nk'
'nick'
'ngomong_'
'ngkat_'
'neurons_'
'nerves_'
'nen'
'nect'
'ndo_'
'nasa'
'naluri_'
'nafas_'
'multimedia_'
'mpulkan_'
'mpu'
'motivat'
'motif_'
'mother'
'molecular_'
'moderat_'
'moderat'
'miserable_'
'mis_'
'mini'
'min'
'militias_'
'midway_'
'meteor_'
'metana_'
'menyita_'
'menyebarkan_'
'menyakitkan_'
'menurutnya_'
'menunjukan_'
'menumbuhkan_'
'mengurus_'
'mengulangi_'
'mengontrak_'
'mengirim'
'menghambat_'
'menggulingkan_'
'menggenapi_'
'mengar'
'menerimanya_'
'menebak_'
'menca'
'menanamkan_'
'menam'
'memudahkan_'
'mempertanyakan_'
'memonitor_'
'memikirkannya_'
'memecah_'
'membubarkan_'
'membership_'
'membelinya_'
'membela_'
'membangkitkan_'
'melupakan_'
'melewatkan_'
'melengkapi_'
'melacak_'
'mei'
'marks_'
'manifest'
'mandiri_'
'main'
'macet_'
'luc'
'ltu_'
'loves_'
'long'
'lom'
'literature_'
'light'
'lezat_'
'lets_'
'lema'
'ld'
'lal'
'label_'
'la'
'kumuh_'
'kul'
'kubu'
'kra'
'koordinasi_'
'konteks_'
'konstitusi_'
'konsorsium_'
'kons'
'kompleksitas_'
'komoditi_'
'klinik_'
'kitan_'
'kirim_'
'kim'
'ki'
'kh'
'ketahanan_'
'keranjang_'
'keluar'
'kelopak_'
'keke'
'kegemukan_'
'kedalaman_'
'keberanian_'
'kar'
'kapitalisasi_'
'kap'
'kali'
'kala'
'kaku_'
'jur_'
'juk_'
'juk'
'ject'
'jat'
'jari'
'jani_'
'jaket_'
'jak'
'jah'
'itu'
'ith'
'items_'
'ist'
'iru'
'iri'
'intim'
'interaction_'
'intention_'
'intensif_'
'insurgent_'
'instruksi_'
'instantly_'
'inspiration_'
'inse'
'input_'
'innocent_'
'ingredients_'
'infected_'
'ines_'
'indu'
'inc'
'impoverished_'
'imal'
'iha'
'ified_'
'ich_'
'ically_'
'ias_'
'hyper'
'hybrid_'
'hurry_'
'hunt_'
'hostile_'
'hostage_'
'honour_'
'holiday_'
'hin_'
'hie'
'hendak_'
'haya'
'hatch'
'gur'
'gugur_'
'grams_'
'governors_'
'gn_'
'gis'
'gio'
'gemuk_'
'gata'
'garden_'
'gara_'
'gara'
'ganya_'
'frogs_'
'fri'
'flee'
'finds_'
'files_'
'favorable_'
'fault'
'fad'
'factories_'
'eze'
'eys_'
'exposure_'
'exposed_'
'explains_'
'exp'
'excess_'
'evolve_'
'eum'
'ete'
'estr'
'ester'
'ers'
'eral'
'envoy_'
'entertainment_'
'ene'
'emission_'
'embedded_'
'elle'
'eks'
'ef'
'edged_'
'ears_'
'dwelling_'
'diunggulkan_'
'ditolak_'
'ditemui_'
'ditandai_'
'ditampilkan_'
'districts_'
'distinct_'
'disiplin_'
'disappointment_'
'diru'
'dirty_'
'direksi_'
'directors_'
'dipublikasikan_'
'diprediksi_'
'diplomasi_'
'diplomacy_'
'dipers'
'dipan'
'dimungkinkan_'
'dimulainya_'
'dimensional_'
'dikirimkan_'
'dikemukakan_'
'dikan_'
'diin'
'diidentifikasi_'
'differently_'
'dif'
'die'
'didalam_'
'dibatalkan_'
'diabetes_'
'dh'
'devi'
'destroying_'
'desk_'
'designing_'
'describe_'
'depend_'
'dent'
'dem'
'delta_'
'deg'
'deca'
'darinya_'
'darimana_'
'dap'
'dampaknya_'
'dagang_'
'dab'
'curious_'
'cumi_'
'cum'
'cry'
'crown_'
'cross'
'crater_'
'cousin_'
'counts_'
'counter'
'cook'
'continuous_'
'conta'
'consumed_'
'constructed_'
'constantly_'
'consortium_'
'compr'
'commissioner_'
'coincidence_'
'classical_'
'cis'
'cher'
'chel'
'checking_'
'chair'
'ces'
'cast'
'cares_'
'capitalization_'
'bury_'
'bundar_'
'bull'
'bukannya_'
'broad'
'bot_'
'bot'
'boikot_'
'bli'
'bless'
'bias'
'bervariasi_'
'berteriak_'
'bertekad_'
'bersinar_'
'bersemangat_'
'berpi'
'berpen'
'bern'
'bermotor_'
'berlokasi_'
'berli'
'berkeras_'
'berf'
'beraksi_'
'belonged_'
'batkan_'
'bas'
'barrier_'
'bare'
'band'
'balls_'
'baha'
'ax_'
'avian_'
'att'
'ator_'
'atlah_'
'assa'
'arsitek_'
'arkan'
'arit'
'argue_'
'arch'
'appointment_'
'apo'
'api'
'announce_'
'angkat_'
'angkan_'
'amfibia_'
'alter'
'alb'
'aki_'
'ahi_'
'agi'
'aero'
'aco'
'aces_'
'ace'
'acc'
'abandon_'
'You'
'Yordania_'
'Yep_'
'Yen_'
'Yemen_'
'Yan_'
'Yamaha_'
'Xa'
'Woo_'
'Wilson_'
'Waktunya_'
'Wai'
'Wah_'
'WBC_'
'Vol'
'VI'
'Uru'
'USA_'
'Tutankhamun_'
'Tur'
'Truba_'
'Tit'
'Tinggalkan_'
'Timo_'
'Tik'
'Thousands_'
'Thom'
'Thirty_'
'Tennis_'
'Temp'
'Tay'
'Tam'
'Taj'
'TI_'
'Syahrial_'
'Sup'
'Sui'
'Steegmans_'
'Sri'
'Soviet_'
'Sol'
'Sik'
'Shan'
'Sey'
'Selandia_'
'Sau'
'Sara'
'Santiago_'
'Sale'
'SS'
'SMEs_'
'SH'
'Ruben_'
'Rp60_'
'Rp30_'
'Rp29'
'Rp14'
'Rp12'
'Rp11'
'Rodriguez_'
'Rin'
'Rich'
'Riau_'
'Rec'
'Rayap_'
'Rama'
'RT'
'RM'
'RE_'
'Quick_'
'Puerto_'
'Province_'
'Princess_'
'Poly'
'Poli'
'Plus_'
'Pit'
'Pic'
'Permainan_'
'Pengembangan_'
'Pengelolaan_'
'Pengawas_'
'Pendapatan_'
'Penan'
'Pema'
'Pay'
'Pan_'
'Pac'
'PTI_'
'PT'
'PR_'
'PN'
'PLTA_'
'PA_'
'Otak_'
'Ot'
'Orang'
'Operasi_'
'Od'
'Nusa_'
'Norway_'
'Nine'
'Neil_'
'Nam_'
'NA'
'Mutu_'
'Mul'
'Mount_'
'Mosque_'
'Moon_'
'Mol'
'Mineral_'
'Mik'
'Mengerti_'
'Mega'
'Maz'
'Matt'
'Match_'
'Manager_'
'Mam'
'Makassar_'
'Majelis_'
'Mahdi_'
'Lutfi_'
'Liz'
'Linux_'
'Lindsay_'
'Liberia_'
'Lewat_'
'Lapindo_'
'Kyuma_'
'Kye_'
'Kus'
'Kor'
'Kont'
'Kod'
'Kir'
'Khali'
'Kekalahan_'
'Kejuaraan_'
'Kee'
'Keadaan_'
'Kajaki_'
'Kab'
'KB'
'Jupiter_'
'Jeremy_'
'Jed'
'Jang'
'Jana'
'Jack'
'JA'
'Inti'
'Intelligence_'
'Ilmu_'
'Il'
'Ie'
'Ibrahimovic_'
'ISAT_'
'IN_'
'Hushovd_'
'Humas_'
'Hughes_'
'Hartadi_'
'Hart_'
'Harcourt_'
'Hand'
'Hamid_'
'Haa'
'Gun'
'Gue'
'Greek_'
'Gonzalez_'
'Gomez_'
'Given_'
'Gilbert_'
'Gad'
'Full'
'Fri'
'Free'
'Fre'
'Fran'
'Fitri_'
'Fit'
'Fire_'
'Feynman_'
'Ferguson_'
'Faktor_'
'FP'
'F1_'
'Eng'
'Ema'
'Elli'
'Dw'
'Down_'
'Dirk_'
'Didier_'
'Dha'
'Detective_'
'Derby_'
'Deng'
'Daya_'
'Daniele_'
'Dani'
'Dah'
'DP'
'Customs_'
'Creator_'
'Contoh_'
'Communication_'
'Commander_'
'Coke_'
'Coa'
'Children_'
'Charl'
'Change_'
'Chal'
'Celtics_'
'Cell'
'Cam'
'CT'
'CH'
'CDMA_'
'CBI_'
'Bulgaria_'
'Bukopin_'
'Brothers_'
'Boy'
'Boo'
'Bogor_'
'Bintang_'
'Bina_'
'Biasa_'
'Beli'
'Bast'
'Basque_'
'Bangun_'
'BTS_'
'BRPT_'
'BLTA_'
'BKPM_'
'BEI_'
'Aza'
'Az'
'Avatar_'
'Auxerre_'
'Atalanta_'
'At'
'Apa'
'Antar_'
'Ang'
'Andreas_'
'Ambassador_'
'Amar'
'Alwin_'
'Alon'
'Aja'
'Ai'
'Afgan_'
'Adalah_'
'Accra_'
'Accenture_'
'Acc'
'Academy_'
'Abi'
'AB'
'89'
'87'
'85'
'750_'
'73'
'650_'
'65'
'53'
'3D_'
'340_'
'325_'
'2012_'
'1989_'
'1975_'
'194'
'183'
'148_'
'132_'
'07'
', '
'$ _'
' :_'
' .. _'
' ). _'
' % , _'
' " '
'zu'
'zl'
'yi_'
'yell'
'yek'
'yayasan_'
'yarat_'
'yal'
'wujud'
'woke_'
'wise_'
'wireless_'
'wider_'
'wal'
'wak'
'wai'
'wahana_'
'wag'
'vu'
'vit'
'visits_'
'viral_'
'view'
'vie'
'verse_'
'var'
'val'
'uy'
'uts_'
'uter'
'uru'
'ured_'
'untung_'
'unit'
'unfortunately_'
'unfor'
'unacceptable_'
'una_'
'ume'
'ulu'
'ull'
'ulah_'
'ukurannya_'
'uhnya_'
'uf'
'ucapan_'
'ubi'
'uat'
'uas'
'ually_'
'tulis'
'tugasnya_'
'trol'
'transmission_'
'toni'
'tipu'
'tional_'
'tiket_'
'tidak'
'tia_'
'text'
'terta'
'tersel'
'territories_'
'terpu'
'terperangkap_'
'terintegrasi_'
'terg'
'tercipta_'
'terap'
'temple_'
'telescope_'
'tayangan_'
'tat_'
'task'
'tara'
'tahu'
'symbol_'
'sword_'
'survey'
'survei_'
'surrounded_'
'surrender_'
'surf'
'supports_'
'submarine_'
'sua'
'su'
'sto'
'sticking_'
'stic_'
'stem'
'stein_'
'sted_'
'statements_'
'ssion_'
'sse_'
'spreading_'
'spray'
'spoken_'
'specifically_'
'sole_'
'snatched_'
'sn'
'sman_'
'slavery_'
'skull_'
'skin'
'sintesis_'
'simetri_'
'silly_'
'shapes_'
'setan_'
'serpihan_'
'serigala_'
'serdadu_'
'sepekan_'
'seniman_'
'sen'
'semb'
'selesaikan_'
'sekretaris_'
'seka'
'sek'
'seimbang_'
'scu'
'sci'
'sayuran_'
'sannya_'
'sank_'
'sail'
'sac'
'rut_'
'runding_'
'ruan_'
'rooms_'
'rolled_'
'rja'
'rip'
'right'
'revive_'
'restrukturisasi_'
'restrict'
'reproduction_'
'reporter_'
'rema'
'rej'
'regret_'
'reflect_'
'recovery_'
'recon'
'reb'
'reaktif_'
'reactive_'
'ratu_'
'rational_'
'rasional_'
'rapid_'
'rant_'
'ranks_'
'ranking_'
'raga_'
'radicals_'
'quell_'
'putus_'
'putar_'
'pupuk_'
'puk_'
'pto'
'pta'
'psikologi_'
'psi_'
'proven_'
'prototype_'
'prosesor_'
'prompting_'
'profits_'
'princess_'
'primitif_'
'preserv'
'preparation_'
'prefer_'
'prediksi_'
'practical_'
'ppo'
'pp'
'ports_'
'porta'
'populations_'
'popul'
'pointing_'
'plo'
'plates_'
'plate_'
'placement_'
'pir'
'picking_'
'pia'
'photographs_'
'photographer_'
'pho'
'persentase_'
'pero'
'perlambatan_'
'pergantian_'
'perebutan_'
'percentage_'
'perbu'
'perbandingan_'
'perak'
'pengin'
'penggerak_'
'pencurian_'
'penan'
'pemo'
'pembekuan_'
'pembawa_'
'pemadam_'
'pelakunya_'
'pee'
'path'
'patan_'
'passes_'
'pasca_'
'pasang_'
'parkir_'
'pap'
'panjangnya_'
'panggil_'
'pang'
'pandai_'
'paksa_'
'painting_'
'paint_'
'owners_'
'owing_'
'overcame_'
'outfit_'
'otonomi_'
'ota'
'orn_'
'organise'
'ore'
'orangnya_'
'optical_'
'opera'
'oon_'
'oksi'
'oka'
'oe'
'odor'
'ode'
'oda'
'oceans_'
'occurrence_'
'obo'
'obligations_'
'objections_'
'obil'
'obesity_'
'nuts_'
'not'
'nom'
'nn'
'nilainya_'
'ner'
'nb'
'native_'
'naran_'
'nap'
'nanya_'
'nano'
'nangkan_'
'nakan_'
'nada_'
'mula_'
'mula'
'mu'
'mpe'
'mpah'
'movies_'
'mountains_'
'mount'
'mou'
'moni'
'mom'
'mohon_'
'mode_'
'mode'
'mn'
'mix_'
'misterius_'
'misteri_'
'minim'
'milikmu_'
'migrasi_'
'metals_'
'mero'
'menyimpulkan_'
'menyelenggarakan_'
'menyelam_'
'menyel'
'menyeba'
'meninggalkan'
'mengus'
'mengorbankan_'
'mengkonsumsi_'
'menghibur_'
'menggigit_'
'menggabungkan_'
'mengas'
'mengant'
'mengacu_'
'meng'
'menendang_'
'mendo'
'mendiskusikan_'
'mencium_'
'mence'
'menatap_'
'memukul'
'memproses_'
'memperkecil_'
'memik'
'memer'
'memburuk_'
'membujuk_'
'membua'
'membi'
'membatalkan_'
'mematuhi_'
'melting_'
'melesakkan_'
'meets_'
'marriage_'
'mangsa_'
'mana'
'mam'
'malaikat_'
'mainkan_'
'mai'
'mahluk_'
'mah_'
'lus'
'lukan_'
'lt'
'lover_'
'lot'
'los'
'loop'
'logis_'
'loaded_'
'lle'
'lilin_'
'liha'
'lett'
'lentur_'
'lembut_'
'lem_'
'lem'
'legitimate_'
'legacy_'
'leaf_'
'lb'
'lay'
'lati'
'lately_'
'lasting_'
'lasted_'
'laser_'
'las'
'lakan_'
'kura_'
'kultur_'
'kuil_'
'kucing_'
'ktif_'
'koreksi_'
'konsultasi_'
'konsulat_'
'kompl'
'kolam_'
'kit'
'kilograms_'
'kilo_'
'keys_'
'kesu'
'kerumunan_'
'kerja'
'keri'
'keping_'
'kepemimpinan_'
'kenda'
'kencang_'
'ken'
'kembalinya_'
'kemarahan_'
'keli'
'kelanjutan_'
'kelamin_'
'keen_'
'kawah_'
'katalis_'
'kasihan_'
'kasi'
'kart'
'kalori_'
'kala_'
'kain_'
'kade'
'kacamata_'
'junior_'
'jump'
'joy_'
'jit'
'jela'
'jar'
'iss'
'islands_'
'isla'
'ior'
'interactive_'
'intensity_'
'integration_'
'ino_'
'inis'
'ingnya_'
'infra'
'info_'
'imper'
'imajinasi_'
'ilm'
'illi'
'ij'
'ig'
'icon_'
'iat_'
'iar'
'hunger_'
'hs'
'hro'
'hou'
'hood_'
'hm'
'hir'
'hint'
'hilangnya_'
'hiding_'
'harvest_'
'har'
'hant'
'hama_'
'gua'
'grave_'
'goodbye_'
'goalless_'
'gni'
'gie'
'ges'
'gencar_'
'geli'
'gb'
'gau'
'gathered_'
'gall'
'gains_'
'fulfill'
'fucked_'
'fu_'
'fs_'
'freezing_'
'formally_'
'forgot_'
'fores'
'footage_'
'foe'
'flights_'
'fli'
'fix'
'film'
'fiksi_'
'fertilizer_'
'feather_'
'favour_'
'false_'
'fak'
'fair'
'expectation_'
'exhibition_'
'excessive_'
'exam'
'ev_'
'etnis_'
'etika_'
'ern'
'equali'
'epi'
'ep'
'environments_'
'entah_'
'ensi'
'enge'
'ener'
'enda'
'encouraged_'
'empat'
'emotion_'
'emat'
'ela_'
'ekspo'
'ekspektasi_'
'edu'
'edit'
'ect'
'echo'
'eased_'
'dulunya_'
'dots_'
'dos_'
'doo'
'dn_'
'diwa'
'divestasi_'
'diung'
'dito'
'ditingkatkan_'
'diter'
'diten'
'disse'
'disrupt_'
'diser'
'disasters_'
'disappointing_'
'directions_'
'diraih_'
'dir'
'diputuskan_'
'diperk'
'diperhitungkan_'
'dini'
'dinamakan_'
'dihukum_'
'didi'
'dick_'
'dice'
'dibo'
'dibantu_'
'diban'
'dian_'
'diam'
'diakibatkan_'
'dewa_'
'dest'
'deri'
'depression_'
'dependent_'
'depart'
'dep'
'denda_'
'definisi_'
'dedicated_'
'day'
'dark'
'dai_'
'dahsyat_'
'curah_'
'crowded_'
'creativity_'
'covers_'
'court'
'counted_'
'cosmo'
'coral_'
'cooperate_'
'cool'
'contingent_'
'connecting_'
'conclude_'
'conce'
'compress'
'communications_'
'commit_'
'colour_'
'coloni'
'colla'
'clock'
'ckl'
'cked_'
'circu'
'cide'
'chrom'
'char'
'channels_'
'chan_'
'cha_'
'cewek_'
'cerah_'
'celebrated_'
'cea'
'carri'
'cand'
'bungan_'
'bump'
'bulat_'
'brutal_'
'broadcast_'
'bri'
'brak_'
'bra_'
'bother'
'bong'
'bo'
'bisi'
'biomassa_'
'biom'
'bills_'
'biji'
'biar_'
'biak_'
'beserta_'
'berse'
'bersamaku_'
'berlan'
'berkelahi_'
'berkar'
'berkali_'
'bergejolak_'
'berdi'
'berburu_'
'berbunyi_'
'berbulan_'
'berbahasa_'
'berakhirnya_'
'bentuknya_'
'belahan_'
'begini_'
'bears_'
'batt'
'bathroom_'
'baseball_'
'baris_'
'bari'
'bara'
'bangkan_'
'bandwidth_'
'balon_'
'balas_'
'bak_'
'backs_'
'ava'
'aut'
'atu'
'attain'
'attach'
'atri'
'ative_'
'ath'
'asc'
'as'
'articles_'
'arm'
'arch_'
'arb'
'arah'
'apologi'
'anticipation_'
'ange'
'angannya_'
'ame'
'amana'
'am'
'alk'
'alarm_'
'akurat_'
'akt'
'akrab_'
'ag'
'after'
'administrati'
'administered_'
'adi_'
'act'
'accounted_'
'acce'
'absorb_'
'ab_'
'Zurich_'
'Zlatan_'
'Zah'
'Yogyakarta_'
'Yar'
'Yak'
'YE'
'Way_'
'Wallace_'
'WOM_'
'Volkan_'
'Var'
'Van'
'Valley_'
'Uda'
'UV'
'UNIFIL_'
'Tutsi_'
'Tul'
'Tujuh_'
'Tujuannya_'
'Tsunami_'
'Tonight_'
'Tomorrow_'
'Tindakan_'
'Tex'
'Tevez_'
'Ted_'
'Tat'
'Tanah_'
'Tama'
'Tad'
'TS'
'TO'
'Sung'
'Summit_'
'Suku_'
'Sukses_'
'Sugiyama_'
'Suci_'
'Subaru_'
'Steaua_'
'Standard_'
'Sragen_'
'Spa'
'Southeast_'
'Sou'
'Soro_'
'Soo'
'Soc'
'Sie'
'Shr'
'Shoot_'
'Shee'
'Sen'
'Selular_'
'Sela'
'Sejarah_'
'Sejahtera_'
'Seharusnya_'
'Seb'
'Samsuar_'
'Sales_'
'Sag'
'Saad'
'SB'
'Ruiz_'
'Ruang_'
'Rp83'
'Rp80_'
'Rp65'
'Rp21'
'Rp125_'
'Roo'
'Rom'
'Robbie_'
'Relax_'
'Raja'
'Radwanska_'
'RA'
'Que'
'Q_'
'Prix_'
'Private_'
'Prat'
'Posisi_'
'Pon'
'Pluto_'
'Plantations_'
'Pironkova_'
'Pip'
'Pia'
'Philadelphia_'
'Phi'
'Pertu'
'Perserikatan_'
'Permata_'
'Perlu_'
'Perkembangan_'
'Perk'
'Percayalah_'
'Pengetahuan_'
'Penerimaan_'
'Pene'
'Penca'
'Peme'
'Pavel_'
'Parti'
'Parma_'
'Parachinar_'
'Papua_'
'Pant'
'Pani'
'PSP_'
'PMA_'
'Out'
'Ohh_'
'Obviously_'
'Nou_'
'Nihat_'
'Nic'
'Newton_'
'Neumann_'
'Neraca_'
'Neither_'
'Negroponte_'
'Nathan_'
'Nan'
'Namibia_'
'Nal'
'Nakamura_'
'Nabi_'
'NSW_'
'NISP_'
'ND'
'Must_'
'Mundur_'
'Multi'
'Mujahideen_'
'Mission_'
'Mis'
'Mirza_'
'Midfielder_'
'Michel'
'Meshaal_'
'Mes'
'Meni'
'Menang'
'Memper'
'Memi'
'Mayat_'
'Mau'
'Mati'
'Mata'
'Masuk_'
'Mastrogiacomo_'
'Mash'
'Maryland_'
'Marinir_'
'Marian'
'Margaret_'
'Marcel'
'Marc'
'Maoist_'
'Mamadou_'
'Majesty_'
'Magic_'
'Made_'
'Lun'
'Log'
'Livorno_'
'Leon'
'Len'
'Lem'
'Ladies_'
'LTLS_'
'Kurdish_'
'Kuranyi_'
'Kunci_'
'Kud'
'Krkic_'
'Kraft_'
'Koreas_'
'Komunikasi_'
'Kome'
'Komandan_'
'Kol'
'Know'
'Kla'
'Kes'
'Kennedy_'
'Kecil_'
'Kebe'
'Kai'
'Kabinet_'
'KRI_'
'KA_'
'Joshua_'
'Joint_'
'Jo_'
'Jintao_'
'Jill_'
'Jae_'
'Jackson_'
'Jab'
'JU'
'Iya_'
'Io'
'Investi'
'Indians_'
'Indi'
'Iker_'
'Ike'
'ITB_'
'IDA_'
'ID'
'Hutu_'
'Hur'
'Hundreds_'
'Honda_'
'Holy_'
'His'
'Hills_'
'Hildebrand_'
'Has_'
'Hansa_'
'Hamad_'
'Hafiz_'
'HI'
'Gus'
'Gunners_'
'Granat_'
'Gor'
'Good'
'Golden_'
'Gmail_'
'Geo_'
'Gene'
'Gela'
'Gasquet_'
'Gard'
'Game_'
'Gall'
'GO'
'Forces_'
'Fli'
'Flexi_'
'Fei'
'Fay'
'Fars_'
'Fadel_'
'FR0045_'
'FA'
'Eun_'
'Entahlah_'
'Ellis_'
'Drayton_'
'Dragon_'
'Don'
'Doctor_'
'Dj'
'Diri'
'Direktorat_'
'Die'
'Dial'
'Der'
'Dear_'
'Davies_'
'Dai'
'Dahlan_'
'DR_'
'DBS_'
'Cross_'
'Cou'
'Corporate_'
'Coo'
'Common'
'Coc'
'Cle'
'Citroen_'
'Church_'
'Chin'
'Chile_'
'Chakvetadze_'
'Cassano_'
'Cara'
'Cannavaro_'
'Canadian_'
'CRT_'
'CPIN_'
'Buk'
'Buat'
'Brin'
'Brand'
'Borowski_'
'Boom_'
'Book_'
'Bodmer_'
'Bod'
'Bible_'
'Bha'
'Besok_'
'Bersatu_'
'Bernd_'
'Berk'
'Beritahu_'
'Berikut_'
'Beri'
'Bendtner_'
'Bend'
'Begitulah_'
'Baya'
'Batubara_'
'Bati'
'Barbie_'
'Bandar_'
'Bad'
'BP'
'BER'
'Authorities_'
'Assad_'
'Arti'
'Aplikasi_'
'Ans'
'Angkat_'
'Anfield_'
'Andres_'
'Andre'
'An'
'Amo'
'Amelia_'
'Ame'
'Am'
'Alt'
'Alo'
'Albert_'
'Ain_'
'Agnes_'
'Again_'
'Adv'
'Adi'
'Adams_'
'Achilles_'
'Aceh_'
'Absolutely_'
'ALL_'
'AG'
'480_'
'330_'
'320_'
'280_'
'1971_'
'162_'
'126_'
'107_'
'020_'
'007_'
'..."_'
'. " '
'- (_'
' ] '
' ? '
'zzle'
'zzi_'
'zor'
'zb'
'zan_'
'yuk'
'ysi'
'yn_'
'yin'
'yikan_'
'yed_'
'yangkan_'
'yang'
'wra'
'wished_'
'wired_'
'wich_'
'wheat_'
'wer_'
'warisan_'
'wara_'
'wali_'
'vitas_'
'videos_'
'vent'
'veni'
'vegetables_'
'vegeta'
'variations_'
'vag'
'uv'
'utter'
'uta'
'ust_'
'ust'
'urg'
'urat_'
'upgraded_'
'unre'
'unin'
'unh'
'ungu_'
'unfavorable_'
'undergoing_'
'unch'
'unbelievable_'
'unan'
'ump'
'umen'
'ultraviolet_'
'ultra_'
'ude'
'uari'
'uar'
'uali'
'tz'
'typ'
'twi'
'tutu'
'tunnel_'
'tuna'
'tud'
'tter_'
'truct'
'trou'
'trom'
'triumph_'
'trash_'
'transform_'
'trail_'
'tomat_'
'tle'
'time'
'til_'
'tig'
'tically_'
'ths_'
'thre'
'thr'
'thermo'
'therapi'
'textile_'
'tersan'
'terpan'
'terobosan_'
'terma'
'terinfeksi_'
'teren'
'tene'
'tembakannya_'
'telanjang_'
'tel'
'taxpayers_'
'taxation_'
'tangguh_'
'tanding_'
'tand'
'talent_'
'tal'
'synthesis_'
'syah_'
'swept_'
'suspicion_'
'suspensi_'
'surround'
'sur_'
'supir_'
'supermarket_'
'sulitnya_'
'subtle_'
'substantial_'
'subs'
'submitted_'
'strip'
'stres_'
'stre'
'strategies_'
'sters_'
'stance_'
'sprint_'
'sporting_'
'spin'
'speakers_'
'spark'
'songs_'
'son'
'soda_'
'slice_'
'siste'
'sis'
'simulat'
'silence_'
'silakan_'
'sih'
'shr'
'shin'
'sg'
'setoran_'
'setim'
'serv'
'serbuk_'
'seragam_'
'separatis_'
'sep'
'sentuhan_'
'sentiments_'
'semoga_'
'seling'
'selecti'
'seemingly_'
'secrets_'
'seba'
'seb'
'seats_'
'seas_'
'scru'
'sciences_'
'scary_'
'scal'
'satu'
'samudera_'
'sam'
'sain'
'safe'
'sacrifice_'
'rupee_'
'rupa_'
'runtuh_'
'rug'
'rubidium_'
'royalti_'
'roughly_'
'rot_'
'ros'
'rookie_'
'robber'
'rni'
'rk'
'ritel_'
'ritas_'
'rikan_'
'rik'
'rider_'
'revenge_'
'retired_'
'restored_'
'residu'
'repu'
'reptile_'
'reproduksi_'
'representing_'
'repeat_'
'rentan_'
'reminded_'
'remi'
'relative_'
'registered_'
'regarded_'
'refra'
'referen'
'redu'
'redi'
'recommend'
'recogniz'
'realis'
'rarely_'
'rape_'
'rap_'
'ransom_'
'ranging_'
'rang_'
'rable_'
'raan_'
'quen'
'qualities_'
'qa'
'q'
'putriku_'
'pushing_'
'punishment_'
'punish'
'pung_'
'punah_'
'psi'
'proyek'
'protested_'
'programmed_'
'produktivitas_'
'primer_'
'pric'
'pretend_'
'prediction_'
'pred'
'precious_'
'pra_'
'pou'
'potentially_'
'possession_'
'posi'
'port'
'pn'
'plum'
'pli'
'ple_'
'pistol'
'pipe_'
'pingsan_'
'pilot'
'pile'
'pian'
'philosophy_'
'pest_'
'pes_'
'pertan'
'perser'
'permanen_'
'permainannya_'
'perma'
'perluasan_'
'perlengkapan_'
'perkotaan_'
'perk'
'perincian_'
'pergilah_'
'pergeseran_'
'perang'
'penyelenggara_'
'penutup_'
'penolakan_'
'penindasan_'
'pengukuran_'
'penggalian_'
'pengembalian_'
'pengecualian_'
'pengangkutan_'
'peng'
'penerima_'
'penerbit_'
'pence'
'penanaman_'
'pen_'
'pemulihan_'
'pemukiman_'
'pemeri'
'pembi'
'pembeli_'
'pembantaian_'
'pemangsa_'
'peman'
'pemainnya_'
'peja'
'paste'
'passage_'
'pasa'
'parking_'
'paran'
'parallel_'
'pants_'
'panitia_'
'pal_'
'pai'
'pag'
'packed_'
'pack'
'oxide_'
'ov'
'ound'
'ote_'
'ort'
'originate_'
'oria'
'orde'
'orat'
'oral_'
'opa'
'onom'
'onally_'
'om'
'offshore_'
'of'
'nyiakan_'
'nto_'
'nted_'
'ntas'
'ntai'
'notebook_'
'nlah_'
'nika'
'night'
'nggak_'
'ners_'
'neighbors_'
'need'
'nder'
'nang_'
'name'
'muni'
'mum'
'mulia_'
'muk'
'muatan_'
'mpin'
'mpal'
'motivated_'
'monitored_'
'monarch_'
'ml'
'mkan_'
'mines_'
'milikku_'
'mig'
'mestinya_'
'meriam_'
'meredam_'
'mere_'
'menyisihkan_'
'menyimpannya_'
'menyia_'
'menyembuhkan_'
'menyembu'
'menyelamatkan'
'menyeberang_'
'menyatu_'
'menyajikan_'
'menurunnya_'
'ment'
'menol'
'menjelajahi_'
'menjalin_'
'meniru_'
'meninjau_'
'mengon'
'menginspirasi_'
'mengikuti'
'mengik'
'mengherankan_'
'menghadirkan_'
'menghadap'
'menggandakan_'
'mengesampingkan_'
'mengelilingi_'
'mengatasinya_'
'mengantarkan_'
'mengak'
'mengad'
'mengab'
'menetas_'
'menegangkan_'
'mendaki_'
'memproyeksikan_'
'memperma'
'memperebutkan_'
'memperbaikinya_'
'memeluk'
'membosankan_'
'membom_'
'membekukan_'
'memancing_'
'memancarkan_'
'memakannya_'
'median_'
'media'
'measured_'
'masukkan_'
'marines_'
'maraton_'
'mann'
'mang'
'mandat'
'manage'
'maksudnya_'
'maintaining_'
'lve'
'lur'
'lukisan_'
'luk'
'lti'
'loyal_'
'loose_'
'logist_'
'logika_'
'lobster_'
'llo'
'liver_'
'lisasi_'
'lis'
'lips_'
'lingku'
'lim_'
'lic_'
'lian_'
'lessons_'
'lemari_'
'lek'
'ledge'
'led'
'leap_'
'lash'
'lanta'
'lanc'
'lai_'
'laboratory_'
'kute'
'kui'
'konvensi_'
'konperensi_'
'konfirmasi_'
'kir'
'kidnapping_'
'kicked_'
'kewa'
'keu'
'kerama'
'kepu'
'kepi'
'keju_'
'keinginan'
'kehabisan_'
'kedu'
'kebe'
'kebaikan_'
'kb'
'katnya_'
'kati_'
'kapitalis_'
'kantor'
'kampus_'
'kalimat_'
'kah'
'judul_'
'jud'
'jub'
'juan'
'jeruk_'
'jenius_'
'jeep'
'jang'
'jailed_'
'jadi'
'jaan_'
'ize'
'iz'
'itor'
'itar'
'iri_'
'irama_'
'investing_'
'interna'
'intermediary_'
'interfer'
'interaktif_'
'intend_'
'instalasi_'
'ins'
'inovatif_'
'inn'
'infeksi_'
'iner'
'induknya_'
'inder_'
'inde'
'inci'
'improvements_'
'importantly_'
'iman_'
'illness_'
'illa'
'ikasi_'
'igi'
'iet'
'iden'
'iate'
'humor_'
'hum'
'hou_'
'honored_'
'hon_'
'homo'
'homework_'
'holl'
'hme'
'hma'
'hle'
'hla'
'hku_'
'historic_'
'hing_'
'high'
'heri'
'help'
'heal_'
'heal'
'hatimu_'
'harmoni'
'hara_'
'hammer'
'hah_'
'hadn_'
'hacker_'
'gut_'
'gung'
'gunanya_'
'gui'
'guerrilla_'
'grows_'
'grip_'
'grave'
'grate'
'grass_'
'graph'
'grafik_'
'grabbed_'
'got'
'golongan_'
'goddamn_'
'gizi_'
'gil'
'giants_'
'ghts_'
'ggle'
'ggi'
'gera'
'geometri'
'genus_'
'geno'
'geni'
'gemb'
'gel_'
'gather_'
'ganti_'
'gal_'
'fs'
'front'
'fortunate_'
'fol'
'fo_'
'fixing_'
'fia'
'ffer'
'fever_'
'fermentasi_'
'fantas'
'expecting_'
'exo'
'exceeded_'
'examined_'
'evi'
'evaporat'
'ett'
'etan'
'esia_'
'esh'
'ese'
'escaped_'
'erk'
'eri'
'enters_'
'enterprise_'
'ensuing_'
'enk'
'enjoying_'
'ened_'
'endorse'
'encroach'
'encouraging_'
'employment_'
'emissions_'
'emerge_'
'emba'
'em'
'elsewhere_'
'elpiji_'
'elli'
'ein_'
'ei_'
'efe'
'eco'
'easing_'
'eag'
'dz'
'dung_'
'dru'
'dramatis_'
'dra_'
'doubt'
'dop'
'don'
'dom_'
'doh'
'dive_'
'diuji_'
'disp'
'discipline_'
'diperkenalkan_'
'dinosaur_'
'dinikmati_'
'dimaksud_'
'dilan'
'dil'
'dikontrak_'
'dikonfirmasi_'
'diklaim_'
'dikarenakan_'
'dijinakkan_'
'dihar'
'digulingkan_'
'dige'
'diganti_'
'digabungkan_'
'dig_'
'dig'
'didapatkan_'
'dictator_'
'dico'
'diakses_'
'diagonal_'
'dhi'
'dge_'
'determining_'
'detention_'
'designs_'
'designers_'
'describes_'
'deputi'
'density_'
'defined_'
'defensive_'
'ded'
'declar'
'debtors_'
'dam'
'dag'
'cuts_'
'curl'
'curfew_'
'ctic_'
'crush_'
'creep'
'coupon_'
'cou'
'cord'
'cop'
'convicted_'
'conven'
'continu'
'consume_'
'consi'
'conflicts_'
'conceded_'
'communist_'
'color'
'collective_'
'coin'
'coc'
'clinched_'
'clean'
'classroom_'
'clan_'
'clam'
'cies_'
'church_'
'chick_'
'chemistry_'
'chatting_'
'chat'
'challenging_'
'cet'
'ceri'
'cere'
'cep'
'cc'
'catalyst_'
'cart'
'cari'
'cap_'
'cancelled_'
'cancel'
'cacing_'
'cac'
'cH5bffff_'
'butiran_'
'butan_'
'busuk_'
'burns_'
'bum_'
'bula'
'buk'
'bug'
'buah'
'bru'
'broad_'
'bro'
'brid'
'bran'
'bother_'
'blown_'
'bling_'
'bius_'
'binding_'
'bih'
'beti'
'berutang_'
'bersamanya_'
'berpura_'
'bernyanyi_'
'berki'
'berju'
'berisiko_'
'beres_'
'berda'
'bercinta_'
'beratnya_'
'beran'
'benturan_'
'beni'
'beneath_'
'bendungan_'
'bench_'
'belt_'
'bela'
'beh'
'beg'
'beb'
'bayaran_'
'batan'
'bata_'
'bases_'
'barang'
'balap_'
'bal_'
'baju_'
'bahnya_'
'badannya_'
'ay_'
'authors_'
'audit'
'attractive_'
'atori'
'atm'
'ater'
'atannya_'
'assi'
'assembl'
'assassination_'
'askan_'
'asasi_'
'arai_'
'approaching_'
'apple_'
'app'
'ape'
'anin'
'angkanya_'
'anc'
'anan_'
'ament'
'amendments_'
'ambisi_'
'amb'
'amateur_'
'aman'
'altitude_'
'alm'
'alamat_'
'alam'
'aki'
'aide_'
'agu'
'aggression_'
'aga_'
'affecting_'
'adviser_'
'adjust_'
'addict'
'acknowledged_'
'accounting_'
'acco'
'abs'
'ably_'
'ab'
'Zidan_'
'Wikipedia_'
'Whether_'
'Wel'
'Wartawan_'
'Wahana_'
'Wah'
'Virus_'
'Villareal_'
'Vas'
'Us_'
'Under'
'Una'
'Ul'
'Uc'
'UNSP_'
'UC'
'UB'
'Twi'
'Turin_'
'Treasury_'
'Transaksi_'
'Toyota_'
'Too'
'Tob'
'Tir'
'Tinggal_'
'Timber_'
'Tidakkah_'
'Thro'
'Thi'
'Terl'
'Telur_'
'Televisi_'
'Tau'
'Tamale_'
'Talk'
'Tahan_'
'Swaguna_'
'Sut'
'Susan_'
'Surya_'
'Suprijadi_'
'Sunnis_'
'Suga'
'Stuart_'
'Steer_'
'Stan'
'Stamford_'
'Square_'
'Sonia_'
'Society_'
'Soa'
'Slovakia_'
'Sl'
'Siad_'
'Shin_'
'Shh_'
'Shel'
'Seven_'
'Seti'
'Sertifikat_'
'Series_'
'Sepakbola_'
'Semakin_'
'Sele'
'Seja'
'Sedang_'
'Sedan_'
'Seberapa_'
'Scotland_'
'Say'
'Santoso_'
'Samp'
'Samir_'
'Salim_'
'Sad'
'Rp8'
'Rp62'
'Rp56'
'Rp54'
'Rp41_'
'Rp39_'
'Rp34'
'Rp33'
'Rp29_'
'Rp26_'
'Rp18_'
'Rossi_'
'Ris'
'Ricardo_'
'Reli_'
'Rel'
'Rekaman_'
'Regi'
'Reaksi_'
'Rapid_'
'Rand'
'Rafi'
'Radi'
'RUPS_'
'RC_'
'Putri_'
'Ps'
'Provi'
'Professor_'
'Prima'
'Play'
'Pinto_'
'Pinnacle_'
'Pink'
'Pho'
'Philips_'
'Ph'
'Pert'
'Pernah_'
'Peringkat_'
'Pereli_'
'Percy_'
'Penu'
'Penonton_'
'Pengun'
'Pendidikan_'
'Patty_'
'Pasangan_'
'Pari'
'PLTU_'
'PB'
'Oz'
'Ortega_'
'Orde_'
'Op'
'Olivia_'
'Offshore_'
'OU'
'OR'
'ON_'
'Nopember_'
'Noah_'
'Nit'
'Neg'
'Nash_'
'Nap'
'Nano'
'Najaf_'
'Naga'
'Nad'
'NY'
'NA_'
'Mustahil_'
'Musa_'
'Mulder_'
'Movement_'
'Mou'
'Mother'
'Mort'
'Montoya_'
'Montenegro_'
'Monte_'
'Monetary_'
'Monaco_'
'Moh'
'Moe'
'Mist'
'Minu'
'Minnesota_'
'Merkurius_'
'Mercurius_'
'Meier_'
'Mediacom_'
'Mat'
'Mas_'
'Marg'
'Map'
'Manu'
'Main'
'Maga'
'MS'
'MI_'
'MEN'
'Luke_'
'Looking_'
'Lon'
'Listrik_'
'Lip'
'Lim_'
'Liege_'
'Li_'
'Leh'
'Law'
'Lara'
'Laju_'
'LN_'
'LCD_'
'Kw'
'Kunjungan_'
'Kumasi_'
'Kub'
'Korban_'
'Komisaris_'
'Kisah_'
'Kind_'
'Kesa'
'Kepolisian_'
'Kena'
'Keith_'
'Kei'
'Kana'
'Kame'
'Kali'
'Kakak_'
'Kaca_'
'Jol'
'Joey_'
'Jet'
'Jennifer_'
'Jason_'
'Japex_'
'Jalan'
'Istanbul_'
'Israelis_'
'Inti_'
'Interfax_'
'Ins'
'Indah_'
'Ikuti_'
'Ice'
'Ibuku_'
'II'
'IBM_'
'Hye'
'Hud'
'Hub'
'Honduras_'
'Homo_'
'Hob'
'Hijau_'
'Hidayat_'
'Herr'
'Hang_'
'Hall'
'Guard_'
'Grow'
'Gon'
'Gol'
'Gl'
'Gha'
'Gempa_'
'Gatlin_'
'Gat'
'GU'
'Fur'
'Fretilin_'
'Foto_'
'Florence_'
'Find_'
'Ferr'
'Fernandez_'
'Feb'
'Fau'
'Far'
'Fabian_'
'FREN_'
'Express_'
'Excelcomindo_'
'Exactly_'
'Eve_'
'Evan_'
'Eu'
'Enterprises_'
'Ellison_'
'Eindhoven_'
'Ecuador'
'Easy_'
'Eagles_'
'EXCL_'
'Dum'
'Draskovic_'
'Doro'
'Divisi_'
'Ditambahkannya_'
'Disc'
'Dim'
'Did'
'Dapat_'
'Dak'
'Dae_'
'Cut_'
'Cuma_'
'Communist_'
'Command'
'Colombian_'
'Coch'
'Clear'
'Claude_'
'Christ'
'Chat'
'Cesar_'
'Certainly_'
'Cerita_'
'Cassini_'
'Carroll_'
'Carl'
'Caldwell_'
'Caesar_'
'CEO_'
'CD_'
'CBS_'
'Bunga_'
'Brussels_'
'Brengsek_'
'Boo_'
'Bonobo_'
'Bolelli_'
'Bimo_'
'Beth_'
'Berte'
'Bersenjata_'
'Berp'
'Berl'
'Bentrokan_'
'Bele'
'Belanja_'
'Bel'
'Beh'
'Becker_'
'Bayelsa_'
'Bau'
'Barn'
'Bangkok_'
'Bakteri_'
'Bak'
'Bac'
'Babel_'
'BS'
'BR'
'Aus'
'Audience_'
'Atas_'
'Asi'
'Arizona_'
'Arctic_'
'Apache_'
'Anyone_'
'Anton_'
'Antartika_'
'Ankara_'
'Aneka_'
'And'
'Analys'
'Aman_'
'Ama'
'Always_'
'Adrian_'
'Acce'
'Abkhazia_'
'Abdel'
'ALU_'
'? ._'
'99'
'91'
'74'
'313_'
'274_'
'192'
'0s_'
'01'
'/'
'.. .._'
'.. '
'. .._'
'. ) _'
'- - _'
',..'
')'
'"!_'
'" '
' ?" _'
' ;_'
' -- -- _'
' -- ( _'
' -'
' *_'
'”'
'é_'
'zones_'
'youth_'
'yield'
'yh'
'yards_'
'yanya_'
'yan_'
'yakin'
'yad'
'xa'
'worm'
'workshop_'
'woo_'
'wk'
'wind'
'whistle_'
'wes'
'wen'
'weigh_'
'wei'
'weakness_'
'wax_'
'warn'
'waki'
'wai_'
'vul'
'voting_'
'vor_'
'volcanic_'
'violations_'
'vio'
'vid'
'vicious_'
'variables_'
'variabel_'
'utili'
'urge_'
'upan'
'unveiled_'
'unlike_'
'unf'
'underneath_'
'uncon'
'uncle_'
'unce'
'umu'
'ult_'
'uli_'
'ulate'
'uknya_'
'uju'
'uge'
'uangnya_'
'ual'
'tut'
'turbulence_'
'tubuh'
'tubes_'
'tub'
'tting_'
'tti'
'trusted_'
'travels_'
'transplanta'
'transmit_'
'transdu'
'tran'
'trace_'
'tourist_'
'tora'
'topic_'
'topi_'
'tong_'
'toa'
'tmu_'
'tl'
'titi'
'tion'
'tikannya_'
'thl'
'tertanam_'
'terserang_'
'tersembunyi_'
'terrestrial_'
'termi'
'terli'
'terlepas_'
'terlatih_'
'terhormat_'
'terhitung_'
'tere'
'terci'
'terburu_'
'terbalik_'
'terangkat_'
'tendency_'
'temper'
'tema_'
'technological_'
'techniques_'
'tawon_'
'tawar_'
'tariffs_'
'targeting_'
'tall_'
'taku'
'taksi_'
'tag'
'tactics_'
'symp'
'sweat'
'suspend_'
'surp'
'suram_'
'superco'
'sup'
'sunlight_'
'suitable_'
'subdi'
'suap_'
'strip_'
'strict_'
'stream'
'strain_'
'stimulate_'
'stenc'
'steer'
'staring_'
'stand'
'staged_'
'stabil'
'ssan'
'square'
'sponsor'
'spectacular_'
'specially_'
'specialized_'
'spar'
'spa'
'soo'
'song'
'sometime_'
'someday_'
'solv'
'sol'
'sna'
'smuggling_'
'smo'
'sme'
'sly_'
'slu'
'slot_'
'slid'
'slic'
'slaves_'
'situated_'
'situ'
'sito'
'sir'
'sink_'
'singer_'
'sine'
'simu_'
'simpli'
'simpan'
'silver_'
'sile'
'sign'
'shout'
'shore_'
'shock'
'shifts_'
'shells_'
'shad'
'sha_'
'sf'
'settled_'
'seribu_'
'sequence_'
'sepotong_'
'sepertimu_'
'sentimeter_'
'sensi'
'senses_'
'sendi'
'seme'
'semburan_'
'selaku_'
'seksama_'
'seketika_'
'sekadar_'
'segment_'
'seg'
'sedimen_'
'seberang_'
'scrap_'
'sap'
'sanggup_'
'sak_'
'saingannya_'
'sai_'
'sahkan_'
'sabuk_'
's'
'rute_'
'rut'
'rum'
'rti'
'rth'
'royalties_'
'rough_'
'roots_'
'rong_'
'rom'
'rnal'
'rma'
'rly_'
'rium_'
'ritual_'
'rite_'
'ripped_'
'ring'
'riche'
'rica'
'rga'
'revo'
'reta'
'restor'
'restive_'
'resolved_'
'resign_'
'rer'
'requested_'
'repri'
'represents_'
'replace'
'repair'
'repa'
'reme'
'relie'
'relay'
'reinforce'
'rei'
'reh'
'reguler_'
'refu'
'ref'
'redit'
'red'
'recovering_'
'real'
'rds_'
'rato'
'rar'
'ranjau_'
'range'
'rakan_'
'railway_'
'rahang_'
'rag'
'radio'
'races_'
'quo'
'pyr'
'putuskan_'
'putrinya_'
'putr'
'purba_'
'pung'
'pump_'
'pulp_'
'puing_'
'ption_'
'psychology_'
'prov'
'prote'
'prose'
'proportion_'
'propor'
'progres'
'profil_'
'profesi_'
'producers_'
'processor_'
'priorities_'
'prinsipnya_'
'pregnancy_'
'prefektur_'
'prak'
'possess'
'pos'
'poor'
'politikus_'
'pocket_'
'pledge_'
'pixel_'
'piutang_'
'piss'
'piran'
'pig_'
'pig'
'piala_'
'physically_'
'phyla_'
'phere_'
'pesaing_'
'pertambahan_'
'perspective_'
'persnya_'
'perset'
'perpet'
'permission_'
'permisi_'
'peris'
'perbe'
'perayaan_'
'peran'
'penyihir_'
'penyerangan_'
'penyelundupan_'
'penyam'
'penumpasan_'
'penjagaan_'
'penis_'
'pengo'
'pengkhianat_'
'pengi'
'penger'
'pengelo'
'pengeboran_'
'pengaruhnya_'
'pengangguran_'
'penetration_'
'penetrasi_'
'pending_'
'penderita_'
'penandatanganan_'
'pembu'
'pembo'
'pembalasan_'
'pelacak_'
'peka_'
'pecandu_'
'pau'
'patterns_'
'participa'
'partial_'
'parent_'
'parado'
'pantat_'
'pannya_'
'panen_'
'pana'
'painful_'
'paha_'
'pada'
'pacar'
'ots_'
'ot'
'osis_'
'orm'
'origami_'
'organize_'
'organisers_'
'orangutan_'
'optimize'
'oo_'
'onl'
'onis_'
'omen'
'olo'
'oint'
'oft'
'och'
'obi'
'obese_'
'nye'
'nyawa'
'nurse_'
'nur'
'num'
'ntly_'
'ntin'
'nter'
'ntang'
'now'
'novel_'
'notably_'
'nota_'
'nist'
'nie'
'ngun'
'ngu'
'nglah_'
'ngku'
'ngki'
'ngi'
'nggu_'
'nding_'
'nder_'
'ndak'
'ncing_'
'nces_'
'nca'
'nasi'
'nampak_'
'naik'
'nai_'
'naan_'
'myth_'
'musik'
'mulutmu_'
'mudflow_'
'mr'
'mpung'
'mpat_'
'mpa_'
'mp'
'motorcycle_'
'motor'
'motivation_'
'moti'
'mot'
'mosqu'
'moo'
'mons'
'mitos_'
'miracle_'
'mill_'
'mila'
'mewa'
'methane_'
'metabolisme_'
'merek_'
'menyuruh_'
'menyundul_'
'menyisakan_'
'menyeret_'
'menyen'
'menyeberangi_'
'menyangka_'
'menyala_'
'menjaja'
'menjabat_'
'mengungguli_'
'mengkl'
'mengisyaratkan_'
'mengis'
'mengingat'
'menghindar'
'menggi'
'mengganti'
'mengeru'
'menger'
'mengena'
'mengeluh_'
'mengel'
'mengambang_'
'mengamankan_'
'mengam'
'mengalokasikan_'
'mengakses_'
'mengacaukan_'
'meng_'
'meneriakkan_'
'mener'
'mendengarmu_'
'mendatangi_'
'mendaftar_'
'mencu'
'mencampur'
'menandaskan_'
'menaik'
'memusatkan_'
'memperda'
'memperbesar_'
'memperagakan_'
'meminjam_'
'memen'
'membunuhku_'
'memberimu_'
'membeku_'
'membawamu_'
'membawaku_'
'membantunya_'
'membacanya_'
'memas'
'memanjat_'
'memanja'
'memangku_'
'melucuti_'
'melod'
'melihatku_'
'melapor_'
'medics_'
'matte_'
'matrix_'
'mates_'
'matang_'
'mask_'
'manu'
'mankind_'
'malang_'
'maintenance_'
'mafia_'
'macular_'
'lut'
'lumayan_'
'low'
'lord_'
'loom'
'lonjakan_'
'lonely_'
'lon'
'lls_'
'llar'
'lk'
'live'
'liti'
'lir'
'linking_'
'limon'
'liki_'
'lih'
'lifetime_'
'lif'
'lic'
'liberalization_'
'libe'
'leu'
'lera'
'leo'
'lenyap_'
'lend'
'legislat'
'legend_'
'leftist_'
'lef'
'lecture_'
'lda_'
'lawa'
'law'
'laugh'
'lass'
'lannya_'
'lanjutkan_'
'kusi'
'kumi'
'kumbang_'
'kukan_'
'kuk'
'kuc'
'kuburan_'
'kta'
'ksin'
'ksa'
'kre'
'kota'
'kosmo'
'kop'
'kontra_'
'kontin'
'konten_'
'kolonial'
'kole'
'kolabora'
'kok'
'kis'
'kilang_'
'kidnappings_'
'kidn'
'ketu'
'ketidakse'
'ketidakpastian_'
'keterbatasan_'
'keterampilan_'
'keta'
'kestabilan_'
'kesempurnaan_'
'kesalahan'
'kes'
'kepastian_'
'keparat_'
'kepalamu_'
'kentang_'
'kemunculan_'
'kematiannya_'
'keluarkan_'
'kelompoknya_'
'keliru_'
'kelan'
'kegem'
'kega'
'kedokteran_'
'kecer'
'kebi'
'keagamaan_'
'kawin_'
'karbondioksida_'
'karakteristik_'
'kara'
'kanya_'
'kanak'
'kak'
'jurang_'
'jung'
'jiwa'
'jin_'
'jets_'
'jen'
'jazz_'
'janji'
'jangkauan_'
'jana_'
'jalannya_'
'jalang_'
'jajaran_'
'jad'
'iya'
'ix_'
'ito_'
'itasi_'
'iskan_'
'irnya_'
'irin'
'iran'
'ipt'
'iot'
'invitation_'
'investigators_'
'investasinya_'
'invade'
'inu'
'inters'
'interact_'
'intact_'
'instruct'
'instant_'
'inspect'
'insist_'
'innovative_'
'injuring_'
'initiat'
'inisiatif_'
'ingin'
'inflows_'
'infla'
'inf'
'indikasi_'
'indicating_'
'imun'
'impro'
'imposing_'
'ils_'
'ilan_'
'ila_'
'ikuti_'
'iku'
'ija'
'ihnya_'
'ign_'
'idenya_'
'hw'
'hus'
'humili'
'human'
'hs_'
'hra'
'house'
'horr'
'hormat_'
'hor_'
'hip'
'hin'
'hil'
'hida'
'het'
'hesitat'
'hesi'
'heran_'
'hendaknya_'
'hed'
'haunt'
'hardware_'
'hardly_'
'hara'
'hantu_'
'hanan'
'halte'
'hair'
'gw'
'guh'
'gubernur_'
'guaranteed_'
'gres'
'graphics_'
'grandm'
'graf'
'governmental_'
'goro'
'gori'
'gor'
'gol'
'gm'
'globalization_'
'globalisasi_'
'gle_'
'gkan'
'gk'
'gim'
'gged_'
'gest'
'genetically_'
'geneti'
'gawa'
'gates_'
'gant'
'gampang_'
'gajah_'
'ful'
'fruits_'
'fro'
'foton_'
'fos'
'fortune_'
'formula_'
'folks_'
'fluorescen'
'flown_'
'flour'
'flood_'
'flare'
'fitur_'
'finger'
'financed_'
'fil'
'fewer_'
'festival_'
'fermentation_'
'feminis'
'fav'
'farmasi_'
'fare_'
'ey'
'extent_'
'extension_'
'express_'
'exploring_'
'explaining_'
'expertise_'
'executives_'
'exchanges_'
'exce'
'evaluate_'
'evaluasi_'
'eto'
'esti'
'establishing_'
'esta'
'ess'
'erna'
'erl'
'erectus_'
'eration_'
'eran'
'equally_'
'eous_'
'eon_'
'enzyme_'
'ents_'
'entry_'
'entrepreneur'
'ens'
'emu'
'empower_'
'embargo_'
'elit_'
'elder'
'eko'
'ej'
'ego_'
'ego'
'effectiveness_'
'eed_'
'eda'
'economics_'
'earliest_'
'duties_'
'duo_'
'duka'
'duk_'
'dua'
'drill_'
'dreaming_'
'drastis_'
'dragg'
'dosen_'
'dor'
'dona'
'dock_'
'doc'
'divide_'
'diverse_'
'diver'
'diusulkan_'
'ditun'
'ditempat'
'ditekan_'
'distributor_'
'distant_'
'dissolve'
'dispatch'
'disek'
'discon'
'disclose_'
'disahkan_'
'directorate_'
'directi'
'dipukul_'
'dipelajari_'
'dipanggil_'
'dipahami_'
'diolah_'
'din'
'dimu'
'diminish'
'dimension_'
'dilempar'
'dilang'
'dikabarkan_'
'dijatuhkan_'
'diisi_'
'diinterogasi_'
'digerakkan_'
'didu'
'dicuri_'
'dicer'
'dicatatkan_'
'dibuang_'
'dibaca_'
'diawali_'
'diat'
'dias'
'diag'
'dhar'
'developer_'
'devastating_'
'detonat'
'dese'
'description_'
'derbi_'
'deploy_'
'denomina'
'demonstrate_'
'del'
'decreased_'
'debutnya_'
'dealt_'
'dd'
'dataran_'
'dari'
'dala'
'dak_'
'cylinder'
'cyber_'
'cular'
'cub'
'cu_'
'cts_'
'ctive_'
'crop_'
'crap_'
'cran'
'courtesy_'
'cost'
'convenient_'
'contractor_'
'contr'
'contents_'
'conte'
'containing_'
'constitutional_'
'consol'
'conservation_'
'connections_'
'confrontation_'
'confer'
'conclusion_'
'comprehensive_'
'compare_'
'compa'
'commen'
'comm'
'comeback_'
'combine_'
'combin'
'coll'
'cokelat_'
'cognitive_'
'coe'
'coaches_'
'coached_'
'clot_'
'closure_'
'cloning_'
'clip_'
'climbing_'
'client_'
'cles_'
'cir'
'cipta_'
'chips_'
'checked_'
'charm'
'charity_'
'characters_'
'cemerlang_'
'cemas_'
'celana_'
'cel'
'cca'
'cautious_'
'cartoons_'
'carbon'
'captiv'
'capita_'
'capa'
'cangkang_'
'campaign'
'calculations_'
'cakan_'
'cak_'
'cai'
'bunyi_'
'bung'
'bullets_'
'bulk_'
'bulb_'
'build'
'bugs_'
'brilian_'
'brea'
'bras'
'branches_'
'brakes_'
'brak'
'boyfriend_'
'boxes_'
'borne_'
'boring_'
'bordering_'
'bonus_'
'bold_'
'bog'
'bloodshed_'
'bit'
'birokrasi_'
'biops'
'bill'
'bijaksana_'
'bicycle_'
'bertu'
'bertengkar_'
'bertaruh_'
'bertabrakan_'
'berspekulasi_'
'bersikeras_'
'bersel'
'bersaudara_'
'bersatu_'
'bersamamu_'
'bermuatan_'
'bermarkas_'
'berlindung_'
'berlalu_'
'berkelanjutan_'
'berjudul_'
'berin'
'berha'
'beredar_'
'berdaya_'
'berbau_'
'berawal_'
'bentrok_'
'bent'
'bensin_'
'beg_'
'beam'
'bb'
'bats_'
'bath_'
'barunya_'
'bars_'
'barre'
'barr'
'bankir_'
'bangku_'
'balok_'
'balapan_'
'bakat_'
'bail_'
'baik2_'
'bahas_'
'baginya_'
'bac'
'ayat_'
'aw'
'atura'
'atti'
'attacker_'
'asy'
'aster'
'assure_'
'assur'
'assess'
'asleep_'
'asks_'
'artillery_'
'art'
'ars'
'aris'
'ario'
'aria'
'arang_'
'aran'
'appreciated_'
'appre'
'appearances_'
'appealed_'
'apart'
'anxious_'
'anto_'
'anticipated_'
'antenna'
'answered_'
'ansi_'
'anod'
'anlah_'
'ankle_'
'angk'
'analog_'
'amu'
'ampun_'
'amp_'
'allocated_'
'allo'
'alleviation_'
'alkan_'
'alisi'
'alin'
'alik'
'alergi_'
'aktor_'
'akse'
'ake_'
'ail'
'aha'
'agr'
'affair_'
'aerod'
'advised_'
'advertisement_'
'adver'
'adapt'
'acy_'
'acu'
'activist_'
'acknowledge_'
'ach'
'aboard_'
'Zeiss_'
'Zapatero_'
'Youssef_'
'Youn'
'Yi_'
'Yas'
'Yama'
'Yakubu_'
'Yadav_'
'Woodward_'
'Won'
'Winners_'
'Who'
'Wester'
'Were_'
'Wen'
'Was'
'Wang_'
'Walt_'
'Walker_'
'WM'
'WGC_'
'WE'
'Vill'
'Ven'
'VTE_'
'Utusan_'
'Upaya_'
'Unikom_'
'Ukraina_'
'UNESCO_'
'UK'
'Tugu_'
'Tugas_'
'Tub'
'Tua'
'Trip'
'Trezeguet_'
'Titan_'
'Tikrit_'
'Th'
'Tero'
'Terkadang_'
'Terjadi_'
'Tenaga_'
'Telekomunikasi_'
'Telah_'
'Tech_'
'Tea'
'Tanks_'
'Taka'
'Tahu_'
'Tahap_'
'Tae_'
'TT'
'TA_'
'Szavay_'
'Sylvain_'
'Swede_'
'Swan'
'Supreme_'
'Sunderland_'
'Suka'
'Sue_'
'Strategis_'
'Stor'
'Stand_'
'Speedy_'
'Speak'
'Spe'
'Sov'
'South'
'Slo'
'Sister_'
'Single_'
'Sil'
'Sidang_'
'Sid'
'Siberia_'
'Sharafi_'
'Sham'
'Seta'
'Sering'
'Seo'
'Senyawa_'
'Sentral_'
'Semester_'
'Sebastian_'
'Scully_'
'Sco'
'Science_'
'Schnyder_'
'Sc'
'Sato'
'Sas'
'Sara_'
'Sao_'
'Sana'
'Sali'
'Sakit_'
'Saka'
'SW_'
'SL'
'SAARC_'
'Ryu_'
'Rp93'
'Rp779_'
'Rp72'
'Rp7'
'Rp59_'
'Rp55'
'Rp5'
'Rp40'
'Roll'
'Roland_'
'Roc'
'Robinson_'
'Ric'
'Ribuan_'
'Researchers_'
'Rese'
'Report_'
'Report'
'Rein'
'Ree'
'Read_'
'Ratusan_'
'Raptors_'
'Raj_'
'RA_'
'Qi'
'Pus'
'Prose'
'Profesor_'
'Privatization_'
'Preston_'
'Prem'
'Pranab_'
'Prajurit_'
'Polis'
'Pole_'
'Ple'
'Pha'
'Pesan_'
'Pervez_'
'Pertiwi_'
'Perta'
'Persada_'
'Perp'
'Permintaan_'
'Perdamaian_'
'Perc'
'Penyera'
'Pende'
'Pencipta_'
'Peg'
'Paz'
'Paypal_'
'Paulo_'
'Paul'
'Para'
'Paolo_'
'Palestine_'
'Palembang_'
'Pala'
'Pablo_'
'PM'
'Ow'
'Ould_'
'Osasuna_'
'Osama_'
'Organisation_'
'Operational_'
'Oma'
'Olivier_'
'Og'
'Observator'
'Ob'
'OC_'
'Nir'
'Nil'
'Nev'
'Nenek_'
'Nee'
'Nearly_'
'Nea'
'Nazarbayev_'
'Nana'
'Nairobi_'
'Na_'
'NT'
'NS'
'NPT_'
'Mussa_'
'Museum_'
'Muha'
'Much'
'Motor_'
'Motitoi_'
'Mot'
'Mosley_'
'Morocco_'
'Moratti_'
'Molly_'
'MoU_'
'Mina'
'Millonarios_'
'Military_'
'Michigan_'
'Met'
'Ment'
'Mengha'
'Mend'
'Memb'
'McG'
'Mb'
'Mayweather_'
'Maxim'
'Mauri'
'Matthew_'
'Mattek_'
'Marx_'
'Martin'
'Maoists_'
'Manunggal_'
'Manado_'
'Maluku_'
'Mahkamah_'
'Madam_'
'Mada'
'Macau_'
'Mac_'
'ME_'
'MB_'
'MB'
'MAN_'
'Luc'
'Lou_'
'Lou'
'Lorient_'
'Lorenzo_'
'Lopera_'
'Lomb'
'Loeb_'
'Liv'
'Lit'
'Line_'
'Lie'
'Let'
'Lavrov_'
'Las'
'Landreau_'
'Land_'
'Lam'
'LP_'
'LP'
'LL_'
'Kyoto_'
'Kuharap_'
'Kufuor_'
'Koran_'
'Komp'
'Kolombo_'
'Kolkata_'
'Kobe_'
'Kli'
'Kitty_'
'Kitab_'
'Kira'
'Kera'
'Kepe'
'Kemarilah_'
'Kemari_'
'Kelihatannya_'
'Kegiatan_'
'Keba'
'Katakanlah_'
'Kashima_'
'Johann'
'Jens_'
'Jenny_'
'Janko_'
'Jaman_'
'Jaga_'
'Itali'
'Istana_'
'Isa'
'Ira'
'Investor_'
'Intern'
'Interest_'
'Intelijen_'
'Int'
'Ingin_'
'Indolakto_'
'Indeks_'
'Imp'
'Ii'
'Ide_'
'IR'
'IGGI_'
'ICP_'
'Hop'
'Holcim_'
'Heh_'
'Hector_'
'Haya'
'Hasan_'
'Haryan'
'Harve'
'Hara'
'Haniyeh_'
'Hamilton_'
'Haj'
'Hadi'
'HM'
'HK_'
'HD'
'HA_'
'Guna'
'Gui'
'Guantanamo_'
'Greg_'
'Grass'
'Gould_'
'Goth'
'Goals_'
'Gig'
'Gary_'
'Garu'
'GI'
'Fort'
'Food_'
'FlexiCash_'
'Finn_'
'Finally_'
'Filip'
'Fift'
'Fic'
'Fi_'
'Feyenoord_'
'Family_'
'Faktanya_'
'Fai'
'Fabrice_'
'FR'
'FK'
'FIS'
'FI'
'FG_'
'FF'
'FD'
'Explorer_'
'Excel'
'Ever_'
'Erdogan_'
'Era'
'Engk'
'End_'
'Emirat_'
'Emi'
'Em'
'Ec'
'Eb'
'ETC_'
'Dulu_'
'Duduk_'
'Dong'
'Dom'
'Dol'
'Dise'
'Diperkirakan_'
'Dimitar_'
'Dili_'
'Diarra_'
'Deutsche_'
'Dennis_'
'Defoe_'
'Dani_'
'Dampak_'
'Damaskus_'
'Dam'
'DWT_'
'DEJ_'
'Crus'
'Cristiano_'
'Cr'
'Coupet_'
'Count_'
'Cordoba_'
'Cooper'
'Contra_'
'Conoco'
'Conce'
'Communications_'
'Commerce_'
'Columbia_'
'Colombo_'
'Clip'
'Claudio_'
'Cinta_'
'Cin'
'Chie'
'Chen_'
'Channel_'
'Chandra'
'Ch'
'Centre_'
'Celsius_'
'Cast'
'Casquero_'
'Cancellara_'
'Cambridge_'
'CF'
'CBA_'
'Bun'
'Buku_'
'Buffon_'
'Bue'
'Budha_'
'Buddhist_'
'Buda'
'Buch'
'Bua'
'Bryan_'
'Bruto_'
'Bru'
'Briton_'
'Bring_'
'Brigade'
'Briatore_'
'Brasil_'
'Brad'
'Boy_'
'Bosscha_'
'Bosnia_'
'Bondarenko_'
'Bommel_'
'Bom'
'Betapa_'
'Bert'
'Bern'
'Berbatov_'
'Berb'
'Beach_'
'Batt'
'Baterai_'
'Batam_'
'Bashir_'
'Barre_'
'Bann'
'Banks_'
'Balkan'
'Bald'
'BU'
'BPK_'
'BPKP_'
'BN'
'BG_'
'Azhar_'
'Ayahmu_'
'Aya'
'Awalnya_'
'Atomic_'
'Athens_'
'Asteroid_'
'Ask_'
'Arun'
'Artha_'
'Artha'
'Art_'
'Arr'
'Arpeni_'
'Arnaud_'
'Armed_'
'Arma'
'Arm'
'Arenas_'
'Anton'
'Angg'
'Aneh_'
'Andrea_'
'Anderlecht_'
'Alto_'
'Alla'
'Alize_'
'Alice_'
'Alb'
'Alam'
'Alabama_'
'Akibat_'
'Aka'
'Aires_'
'Abimanyu_'
'Abadi_'
'APEX_'
'AM'
'AL_'
'AF'
'98'
'58'
'550_'
'470_'
'430_'
'315_'
'210_'
'205_'
'201'
'1990s_'
'1983_'
'1979_'
'1976_'
'1958_'
'190_'
'190'
'12th_'
'118_'
'116_'
'11'
'108_'
'.../ _'
'. ''
','
'('
'', _'
'' '
'''
'". '
' ?'
' ....'
' ) -- _'
' " ._'
'´_'
'zoo_'
'zm'
'zip_'
'yu_'
'yst'
'yro'
'youngest_'
'yb'
'yap'
'yanto_'
'yana_'
'yaan_'
'xie'
'xe'
'writ'
'wrap_'
'worthy_'
'worlds_'
'wood'
'wono_'
'wn_'
'wisatawan_'
'whip_'
'wheel'
'whe'
'whale_'
'wet'
'welterweight_'
'watt_'
'wat'
'waspada_'
'wasp_'
'warrant_'
'warnings_'
'ware'
'ward'
'wanting_'
'walau_'
'wab_'
'vulnerable_'
'voli_'
'volcano_'
'volatility_'
'visible_'
'vic_'
'vic'
'vertical'
'vert'
'venti'
'vei'
'variation_'
'variable_'
'vampir_'
'val_'
'v'
'uz'
'utin'
'ute'
'uste'
'uskan_'
'usion'
'use'
'usage_'
'uruk'
'uraniumnya_'
'upsi'
'upa'
'ungka'
'ungi_'
'underwriters_'
'underw'
'understands_'
'underlying_'
'undergo_'
'unconscious_'
'uncomfortable_'
'uncertainty_'
'uma'
'ultas'
'uld'
'uit'
'uin'
'uf_'
'ube'
'ubah_'
'uang'
'turbin_'
'tune_'
'tun'
'tuhkan_'
'tude'
'tuber'
'tube_'
'tse'
'trili'
'trig'
'tricks_'
'tribu'
'transparan_'
'transmitted_'
'transmisi_'
'trak'
'towns_'
'towers_'
'tory_'
'topp'
'tle_'
'tir'
'tingkatan_'
'til'
'tid'
'tics_'
'tickets_'
'thump'
'thrilling_'
'threatening_'
'thread_'
'thrash'
'thorough'
'tha_'
'terwujud_'
'tersesat_'
'terpikir_'
'terperinci_'
'termite_'
'terl'
'terkon'
'terko'
'terkesan_'
'tergolong_'
'tergabung_'
'terdalam_'
'terdaftar_'
'terda'
'tep'
'teorinya_'
'tense_'
'tenda_'
'tema'
'telurnya_'
'teliti_'
'telefon_'
'telecom'
'tekstil_'
'teen'
'tebusan_'
'tebu_'
'tche'
'tch'
'tax'
'tawa'
'tast'
'tas'
'tarian_'
'tant'
'taktik_'
'taklimat_'
'tah'
'sweep_'
'sw'
'suspicious_'
'surg'
'supp'
'supersoni'
'sung'
'sumberdaya_'
'sukar_'
'sug'
'sucked_'
'succe'
'subyek_'
'substansi_'
'substan'
'subscri'
'submit_'
'studio_'
'stu'
'str'
'stores_'
'stops_'
'stop'
'stir'
'stimul'
'steri'
'stereo'
'steady_'
'stati'
'ssa_'
'spre'
'sponsored_'
'spo'
'sph'
'spee'
'specimen'
'specific'
'spaceship_'
'space'
'soli'
'softwares_'
'sof'
'sobat_'
'snow'
'sneak'
'snap'
'smell'
'smallest_'
'slo'
'slip'
'slight_'
'sley_'
'slee'
'slammed_'
'skri'
'sium_'
'sip_'
'sions_'
'sing'
'sindikasi_'
'simulation_'
'simul'
'silika_'
'silica_'
'sie_'
'shortage_'
'shifting_'
'shelter_'
'shatter'
'shadows_'
'seukuran_'
'sesuatunya_'
'seri'
'serang'
'sepupu'
'senantiasa_'
'semenit_'
'semba'
'seluk_'
'seju'
'seha'
'seh'
'sede'
'sebetulnya_'
'seasons_'
'seasonal_'
'scratch'
'scou'
'scholar'
'saus_'
'sastra_'
'sari_'
'sarapan_'
'sant'
'sanaan_'
'sambungan_'
'sam_'
'sali'
'salam_'
'sacred_'
'runya_'
'rumor_'
'rtu'
'rol'
'roboh_'
'rm'
'rite'
'risen_'
'ringing_'
'riders_'
'rial_'
'rew'
'rev'
'resulting_'
'restructuring_'
'ress'
'responses_'
'responding_'
'respect'
'resort_'
'resist'
'resenta'
'research'
'rescued_'
'resc'
'reruntuhan_'
'republic_'
'replied_'
'repair_'
'renounce_'
'remnants_'
'remembered_'
'rem_'
'rell'
'religius_'
'relativit'
'regu'
'reg'
'reflects_'
'reflection_'
'reel'
'recipient'
'realita'
'realistis_'
'realistic_'
'reak'
'reader'
're'
'rde'
'rawan_'
'rau'
'rati'
'rated_'
'rasia'
'rank_'
'rangan_'
'rand'
'rallies_'
'rallied_'
'rains_'
'rada'
'quoting_'
'quil'
'quietly_'
'quartet_'
'qualifiers_'
'putranya_'
'puta'
'punya'
'publisher'
'psikologis_'
'provoka'
'provisions_'
'providers_'
'protects_'
'protective_'
'prosesnya_'
'properties_'
'promosi_'
'promissory_'
'projections_'
'produk'
'prize_'
'priva'
'prisoner_'
'printing_'
'prevailing_'
'press'
'presents_'
'preparations_'
'premium_'
'praise'
'pot_'
'pot'
'positi'
'pompa_'
'pollin'
'pollen_'
'policeman_'
'poi'
'plunge_'
'plenary_'
'pleas'
'plast'
'piring_'
'pind'
'pillars_'
'pilar_'
'pidatonya_'
'pick'
'piano_'
'physiological_'
'photography_'
'photographe'
'phosphor'
'phili'
'phe'
'pha'
'ph_'
'peso'
'pesanan_'
'perun'
'pertanyaannya_'
'persidangan_'
'persekutuan_'
'perpi'
'peroleh_'
'pernafasan_'
'pern'
'permukaannya_'
'perkirakan_'
'pering'
'perf'
'peren'
'perda'
'perburuan_'
'perawat_'
'peraih_'
'penyerbuan_'
'penyelundup_'
'penta'
'penjelajah'
'penjaminan_'
'penjajahan_'
'pengun'
'pengik'
'penghujung_'
'penghancur'
'penggu'
'pengawal_'
'pengambilan_'
'penentang_'
'penderitaan_'
'pencipta_'
'penangka'
'penal'
'pemilih_'
'pemeliharaan_'
'pembia'
'pemberita'
'pembangun'
'pemakaman_'
'peli'
'pelayaran_'
'pelangga'
'pegang_'
'peel'
'payers_'
'pati_'
'patent'
'pastinya_'
'pasti'
'passionate_'
'pass'
'parame'
'pakan_'
'pain'
'pahami_'
'pah_'
'pagar_'
'packages_'
'oy'
'oxi'
'overhead_'
'outc'
'ott'
'ornya_'
'ordina'
'optimum_'
'onto'
'onta'
'onic_'
'oned_'
'one'
'onary_'
'ona_'
'oma'
'ologi_'
'oli_'
'ole'
'oksidasi_'
'og_'
'off'
'odo'
'odd_'
'obtaining_'
'obstacle_'
'oba'
'numerous_'
'numbered_'
'ntu_'
'ntie'
'nte'
'ntar'
'ntal_'
'nou'
'northe'
'nons'
'nona_'
'non'
'nois'
'nna_'
'nn_'
'nka'
'niu'
'nirkabel_'
'ning'
'nik_'
'nights_'
'ngs_'
'ngkin'
'ngkar_'
'nggi'
'ngengat_'
'nga'
'netto_'
'nets_'
'nent'
'nek'
'neighbor_'
'ndingkan_'
'ndahan'
'nc'
'navigat'
'naval_'
'nau'
'nationwide_'
'naka'
'nadi_'
'my'
'mustard_'
'must'
'mumi_'
'mpur_'
'mpan'
'motivasi_'
'monyet_'
'mme'
'mixture_'
'mito'
'missions_'
'miss'
'mism'
'miscellaneous_'
'misa'
'ministries_'
'mik_'
'migrat'
'midfield_'
'metric_'
'metr'
'meti'
'merun'
'mering'
'mereka'
'merdeka_'
'merchan'
'menyusu'
'menyoroti_'
'menyet'
'menusuk_'
'menurutku_'
'menum'
'menu_'
'menstabilkan_'
'menopang_'
'menji'
'menjaga'
'mengulang_'
'mengor'
'mengomentari_'
'mengko'
'mengisap_'
'mengint'
'menginginkannya_'
'menghubung'
'menghapuskan_'
'menghalau_'
'menggetarkan_'
'menggebrak_'
'mengge'
'menggantung'
'menggambar_'
'mengepung_'
'mengemu'
'mengang'
'menel'
'mendes'
'mencela_'
'memutus'
'mempr'
'mempert'
'memperingati_'
'mempel'
'memi'
'membranes_'
'membala'
'memaparkan_'
'memand'
'memahaminya_'
'meluas_'
'melt'
'melipat'
'melen'
'medic'
'meaning'
'mea'
'mbo'
'mber'
'matic'
'mask'
'masa'
'marr'
'marking_'
'mari'
'marga'
'march'
'marathon_'
'manya_'
'manufacturers_'
'mans'
'mann_'
'maks'
'make'
'makan'
'lung_'
'longest_'
'lompatan_'
'logical_'
'lobi_'
'load'
'lla'
'liquid'
'lions_'
'lida'
'license'
'leri'
'lemba'
'lelucon_'
'lee_'
'lect'
'leb'
'laya'
'lawatan_'
'lava_'
'lasts_'
'larvae_'
'lap_'
'lambung_'
'lamanya_'
'laman_'
'laki'
'lack'
'kwartal_'
'kutu_'
'kutan'
'kuper'
'kula'
'kuha'
'kuberi'
'kubah_'
'kuart'
'kuan_'
'ktr'
'kristal_'
'krip'
'kp'
'komunis_'
'komputasi_'
'komposi'
'kompet'
'kome'
'koloni_'
'know'
'kn'
'km'
'klorida_'
'klinis_'
'kiti'
'kirinya_'
'kins_'
'kindness_'
'kind'
'kid'
'kia'
'keun'
'ketenangan_'
'ketemu_'
'ket'
'kesepahaman_'
'kesenjangan_'
'kerumitan_'
'kere'
'kerap'
'kerabat_'
'ker'
'kendala_'
'kemenangannya_'
'kemasan_'
'kem'
'kel'
'kekeringan_'
'kekecewaan_'
'keji_'
'keho'
'kehancuran_'
'keh'
'kede'
'kedalam_'
'kecurigaan_'
'kecem'
'kecanduan_'
'kebu'
'keanekaragaman_'
'kc'
'kawanan_'
'kawa'
'karsinogen_'
'kantong_'
'kamb'
'kai'
'kabin'
'juru'
'jurnal'
'journal_'
'jikan_'
'jibaku_'
'jewel'
'jd'
'jaw'
'jan'
'jalan'
'jagoan_'
'jaga'
'ivi'
'ively_'
'itab'
'isolation_'
'islet_'
'ipi'
'ionization_'
'ione'
'ional'
'invent_'
'inv'
'intr'
'intervened_'
'interrogat'
'intern'
'interc'
'intend'
'intellectual_'
'intake_'
'inspectors_'
'inno'
'ink'
'init'
'inhabit'
'influ'
'infi'
'indo'
'incur'
'ince'
'inan'
'impressed_'
'impose_'
'impli'
'impasse_'
'ilusi_'
'ilus'
'ili_'
'ile_'
'ilannya_'
'iknya_'
'ifi'
'ids_'
'ido'
'ident'
'ida_'
'iblis_'
'ible_'
'ib'
'ially_'
'iah'
'hut'
'hung_'
'huan_'
'hter'
'hospitals_'
'hop_'
'hoo'
'hkan'
'hkah_'
'historical'
'hima'
'hidro'
'hidayah_'
'hia'
'hew'
'here'
'hen_'
'helme'
'helm_'
'heavyweight_'
'heating_'
'hearts_'
'hea'
'harimau_'
'harg'
'handled_'
'halangan_'
'habi'
'gust'
'gum'
'gula'
'gugus_'
'grid_'
'gravity_'
'granit'
'grandfather_'
'grand'
'grain_'
'govern'
'glia'
'glacier_'
'ginjal_'
'gian_'
'ggung_'
'get'
'geri'
'gerak'
'genuine_'
'gentleman_'
'genetics_'
'genera'
'gelandang_'
'gea'
'gay_'
'gard'
'gaps_'
'gap'
'gantung'
'gak'
'fying_'
'fus'
'fur'
'fundamentals_'
'fundamentally_'
'functioning_'
'functional_'
'fuckin_'
'fucker_'
'frustrasi_'
'fru'
'frog_'
'fragments_'
'foul_'
'formerly_'
'forma'
'forgotten_'
'forests_'
'followers_'
'fold'
'fn'
'fluids_'
'fluctuation_'
'flows_'
'flooding_'
'flash'
'fisher'
'fils'
'figur'
'ffs_'
'ferr'
'fea'
'fasting_'
'fascinating_'
'farthe'
'extract_'
'extinction_'
'extending_'
'exporter_'
'expense_'
'exe'
'exchanged_'
'evident_'
'eve_'
'eve'
'ett_'
'eta_'
'estan_'
'essence_'
'esc'
'erv'
'errors_'
'erio'
'erin'
'eric'
'eria'
'erect'
'erb'
'eradicate'
'equ'
'enve'
'entr'
'entit'
'ent'
'enggan_'
'enforce'
'endo'
'empowerment_'
'employ'
'emphasis'
'emotions_'
'embarrass'
'embark'
'eliminated_'
'eliminate_'
'electri'
'eld'
'eku'
'eksekutif_'
'ekse'
'ekn'
'eja'
'egois_'
'edisi_'
'eda_'
'economies_'
'ebr'
'ebo'
'ean'
'eager_'
'ea_'
'dus_'
'dun'
'dub'
'drought_'
'drivers_'
'dressed_'
'drank_'
'dosis_'
'doll'
'dle'
'dja'
'divisions_'
'ditum'
'ditukar_'
'ditimbulkan_'
'diteruskan_'
'distinguish_'
'disso'
'disr'
'disputes_'
'disposa'
'diso'
'disko'
'disetor_'
'diseli'
'disel'
'disbursement_'
'dires'
'directed_'
'diran'
'diproyeksikan_'
'dipo'
'diplomats_'
'diperpanjang_'
'diperl'
'diperhatikan_'
'diperbaiki_'
'dine'
'dilupakan_'
'diletakkan_'
'dijalan'
'dihindari_'
'dihi'
'dih'
'digi'
'digan'
'diga'
'didepa'
'dicu'
'diamati_'
'diagnosis_'
'determines_'
'deter'
'deta'
'destination'
'desk'
'derivati'
'depresi_'
'deplo'
'denga'
'demi'
'delivering_'
'dela'
'deko'
'defect'
'deck_'
'deciding_'
'decent_'
'dece'
'deb'
'daughters_'
'dau'
'datang'
'darling_'
'danger'
'dalan_'
'cutt'
'cure'
'crocodile'
'critics_'
'crawl'
'cracke'
'cow_'
'courts_'
'counting_'
'counterparts_'
'corrupt_'
'correlation_'
'correctly_'
'coo'
'conve'
'controversy_'
'contributions_'
'contradict'
'constraints_'
'constituen'
'const'
'conscious_'
'congressional_'
'conglomerate_'
'confused_'
'confirmation_'
'condo'
'concerning_'
'comprised_'
'compos'
'complaints_'
'competitions_'
'compatible_'
'comparison_'
'comfort_'
'colored_'
'collided_'
'col'
'coinciden'
'coat'
'coa'
'clothing_'
'cli'
'cleric_'
'clearing_'
'classic_'
'cit_'
'circles_'
'cinta'
'cian_'
'cia_'
'cho_'
'childhood_'
'ches'
'checks_'
'check'
'cheating_'
'cheated_'
'cheaper_'
'che_'
'chart'
'chant'
'chair_'
'cerobo'
'ceritanya_'
'ceramah_'
'cend'
'cati'
'catching_'
'catal'
'cara'
'caps'
'capkan_'
'cano'
'cang'
'canceled_'
'cana_'
'cambuk_'
'calories_'
'calculated_'
'cah'
'cH5EFFFF_'
'buy'
'butter_'
'butt_'
'buran_'
'buoy_'
'bull_'
'bulanan_'
'bug_'
'bubble_'
'broadcaste'
'break'
'bottles_'
'borrow_'
'boneka_'
'bombed_'
'blogg'
'blo'
'blend'
'blasted_'
'blank'
'bir'
'biologists_'
'biologist_'
'bing_'
'bila'
'bil'
'bie'
'bibir_'
'bia_'
'bia'
'berw'
'bertukar_'
'bertenaga_'
'bersejarah_'
'bersangkutan_'
'berpr'
'berpenghasilan_'
'berme'
'berku'
'berkonsentrasi_'
'berkomitmen_'
'berkemampuan_'
'berim'
'berhutang_'
'berbis'
'berbi'
'berapi_'
'beranta'
'beranggapan_'
'berang'
'benefit'
'beneficial_'
'bend'
'beluk_'
'belie'
'belerang_'
'belasan_'
'behalf_'
'beat'
'bear'
'bbl'
'bauksit_'
'bau'
'basan'
'barg'
'barely_'
'barb'
'baratlaut_'
'baratdaya_'
'baran_'
'balloon_'
'bala'
'bal'
'baka'
'bagimu_'
'badi'
'az'
'awake_'
'avo'
'avi'
'automobile'
'authori'
'atus_'
'attorney_'
'atif_'
'atas'
'assuming_'
'association_'
'assert'
'ass'
'asp'
'asnya_'
'ase'
'asalnya_'
'arts_'
'artists_'
'arth'
'arteri'
'arte'
'arra'
'aromati'
'ardi'
'approve_'
'approaches_'
'anu'
'anthr'
'anov'
'anon'
'ano'
'anj'
'ancestor_'
'analyze_'
'ampuh_'
'amounted_'
'amnest'
'amm'
'amin'
'amend'
'ambulan_'
'amandemen_'
'alongside_'
'alleg'
'alisasi_'
'algoritma_'
'algorithms_'
'algae_'
'alah'
'akut'
'akun'
'akte'
'aks'
'akibatnya_'
'akali'
'ajar_'
'ajaib_'
'aj'
'airplane_'
'ainya_'
'agen'
'affirmed_'
'adr'
'adopt_'
'adjust'
'adequate_'
'acte'
'ack'
'accuse_'
'accuracy_'
'accumulate'
'accidentally_'
'accent_'
'accelerated_'
'ac'
'abuse_'
'abadi_'
'aba_'
'aah_'
'Zhang_'
'Zh'
'Zakat_'
'Yun'
'Yeo'
'Yemeni_'
'Wr'
'Wor'
'Won_'
'Wolf'
'Wild'
'Waj'
'Wad'
'Viole'
'Verd'
'Valentin'
'VE'
'Urusan_'
'UM'
'Twe'
'Tumbuhan_'
'Tuhanku_'
'Tubuh_'
'Tradi'
'Touch'
'Tou'
'Till'
'Tid'
'Tibet_'
'Thor'
'Theo'
'Than'
'Tert'
'Terr'
'Terk'
'Terba'
'Tekanan_'
'Team_'
'Tanjung_'
'Tanda_'
'Tan_'
'Taking_'
'Take'
'Tak'
'Tadjuddin_'
'Tabl'
'TU'
'THAT_'
'Sz'
'Syl'
'Swe'
'Surp'
'Sure'
'Suni'
'Sulit_'
'Sudahlah_'
'Stru'
'Stein'
'Station_'
'Staf_'
'Sos'
'Soema'
'Soeharto_'
'Ske'
'Sisanya_'
'Siprus_'
'Sinyal_'
'Singkat'
'Siena_'
'Sidney_'
'Sic'
'Siachen_'
'Sia'
'Shot'
'Shell_'
'Shaw_'
'Share_'
'Seu'
'Sesungguhnya_'
'Seri'
'Sergei_'
'Serbian_'
'Send_'
'Semenanjung_'
'Seiring_'
'Segera_'
'Sec'
'Scr'
'Schu'
'Saw'
'Save_'
'Sasae_'
'Sampoerna_'
'Samb'
'Salam_'
'Sak'
'Safe'
'Sacr'
'SS_'
'SPP_'
'SPN_'
'SIM'
'SGRO_'
'SD_'
'SCTV_'
'Rp989_'
'Rp82_'
'Rp74_'
'Rp73'
'Rp46_'
'Rp45_'
'Rp43_'
'Rp31'
'Rp24_'
'Ross_'
'Ronaldinho_'
'Ron_'
'Return_'
'Resi'
'Repub'
'Rema'
'Reg'
'Rebe'
'Reali'
'Ready_'
'Ratio_'
'Rasa_'
'Rai'
'RU'
'RT_'
'RS_'
'ROA_'
'RDG_'
'Quit'
'Quiet_'
'Purnomo_'
'Proto'
'Prospe'
'Prophet_'
'Prop'
'Program'
'Produ'
'Prin'
'Premiership_'
'Prefecture_'
'Pot'
'Port'
'Polit'
'Poland_'
'Pokoknya_'
'Plantation_'
'Plan'
'Pikir'
'Philip_'
'Petrova_'
'Petrov'
'Pes'
'Pertanian_'
'Persi'
'Persatuan_'
'Perlombaan_'
'Perjalanan_'
'Perin'
'Perbendaharaan_'
'Perbedaan_'
'Perba'
'Penyele'
'Penyel'
'Penyakit_'
'Peninsula_'
'Pengi'
'Pengguna_'
'Penerbitan_'
'Penerbangan_'
'Pembicaraan_'
'Pelu'
'Pegang'
'Pasti'
'Palace_'
'Page'
'Pad'
'PNCR_'
'PDA'
'Outlook_'
'Orlando_'
'Organ'
'Operating_'
'Oo'
'Online_'
'Olga_'
'Ode'
'OO'
'Nowitzki_'
'Nov'
'Nota_'
'Normal'
'Nina_'
'Nig'
'Nata'
'NO_'
'NO'
'NI_'
'Mutasi_'
'Musim_'
'Music_'
'Mum'
'Mullah_'
'Mull'
'Mu_'
'Moz'
'Mountain_'
'Moneter_'
'Mom'
'Moham'
'Mister_'
'Mikel_'
'Michel_'
'Metropolitan_'
'Metode_'
'Mende'
'Member'
'Mele'
'Medan_'
'Mea'
'Mayapada_'
'Mavericks_'
'Mathematic'
'Mase'
'Marr'
'Marokko_'
'Marl'
'Marie_'
'Manajemen_'
'Malt'
'MRI_'
'Lumb'
'Lucy_'
'Luck'
'Lov'
'Loo'
'Lisa_'
'Lintasarta_'
'Leslie_'
'Lel'
'Lari_'
'Lanjutkan_'
'Lalat_'
'Lain_'
'Kristus_'
'Kre'
'Kra'
'Kosovo_'
'Korp'
'Kompo'
'Koizumi_'
'Koirala_'
'Kne'
'Kismayo_'
'Kiri'
'Kings_'
'Kingdom_'
'Kib'
'Khazanah_'
'Kh'
'Kettlewell_'
'Kete'
'Kenyan_'
'Kent_'
'Kemungkinan_'
'Kematian_'
'Kemana_'
'Kedengarannya_'
'Kay_'
'Karan'
'Kara'
'Kapa'
'Kant'
'Kand'
'Ka_'
'KO_'
'KK'
'Junior_'
'Julie_'
'Jul'
'Jufer_'
'Jordanian_'
'Jonas_'
'Joh'
'Joel_'
'Joan_'
'Jawab'
'It'
'Inv'
'Interesting'
'Inte'
'Institut'
'Insiden_'
'Inflation_'
'Income_'
'Impo'
'Hyun'
'Hutan_'
'Hut'
'Hungar'
'Hubungi_'
'Hope_'
'Hon'
'Hokkaido_'
'Hiroshima_'
'Himalaya'
'Hil'
'Herm'
'Hem'
'Heart_'
'Haw'
'Harusnya_'
'Haruskah_'
'Harris_'
'Harbo'
'Hani'
'Halim_'
'Half_'
'Hadiah_'
'Hadad_'
'Haas_'
'HT'
'Gunmen_'
'Gru'
'Grab_'
'Govern'
'Goodbye_'
'Goddamn_'
'God'
'Gla'
'Gil_'
'Gian'
'Geo'
'Gang'
'GM_'
'GA_'
'G8_'
'Friends'
'Franco_'
'Fourth_'
'Firm'
'Fed'
'Fast'
'Fari'
'FOR'
'Executive_'
'Ernesto_'
'Eritrea_'
'Encore_'
'Empire_'
'Embassy_'
'Els'
'Electronic_'
'Eksekutif_'
'Eko_'
'Eg'
'Effe'
'Education_'
'Edi'
'Dru'
'Donald_'
'Dod'
'Disi'
'Dis'
'Dik'
'Dijelaskan'
'Dewa_'
'Desp'
'Demi'
'Dawn_'
'DU'
'DPK_'
'DA_'
'DAU_'
'Crow'
'Coun'
'Corre'
'Corpor'
'Conta'
'Cont'
'Consider'
'Conf'
'Commissioner_'
'Clu'
'Cli'
'Clay_'
'Class'
'Clar'
'Citarum_'
'Christi'
'Chop'
'Chandra_'
'Champ'
'Cesc_'
'Cela'
'Cath'
'Carv'
'Cardiff_'
'Cand'
'Cancer_'
'CS'
'CPJ_'
'CE_'
'Byrd_'
'Buzz_'
'Burma_'
'Burgess_'
'Buenos_'
'Brooklyn_'
'Brom'
'Bot'
'Bonnie_'
'Blok_'
'Bidang_'
'Bhu'
'Berry_'
'Berna'
'Berbicara_'
'Bent'
'Bengkulu_'
'Bengal'
'Beau'
'Bea'
'Basi'
'Barb'
'Banj'
'Bagaimanapun_'
'BMW_'
'BMG_'
'BBIA_'
'BB'
'Aye_'
'Av'
'Atlantik_'
'Ast'
'Asse'
'Asasi_'
'Arg'
'Aqui'
'Apar'
'Anything_'
'Anti'
'Anders'
'Anaguid_'
'Amsterdam_'
'Ameri'
'Ambono_'
'Amara_'
'Aman'
'Alvaro_'
'Alu'
'Alm'
'Algeria'
'Alf'
'Alex'
'Alaska_'
'Alasannya_'
'Akhir_'
'Akale_'
'Airport_'
'Air'
'Aiko_'
'Ahm'
'Agama_'
'Ade'
'Adapun_'
'Acti'
'Act_'
'Abdullahi_'
'Abdallah_'
'AH'
'AEC_'
'AD_'
'AAJI_'
';_'
'94'
'84'
'770_'
'3000_'
'27'
'268_'
'250'
'2050_'
'2013_'
'200'
'197'
'188'
'1860_'
'172'
'155_'
'141_'
'128_'
'124_'
'075_'
'..'
'.!_'
'- [_'
'- ..._'
')._'
' ` _'
' ? ♫ ♫ _'
' " , _'
'♫_'
'​'
'zze'
'zoom_'
'zes_'
'zen'
'zar'
'yt'
'yk'
'yip_'
'yim'
'yg'
'ycl'
'yat_'
'xo'
'xic'
'xeno'
'wu'
'wreck'
'worsen'
'work'
'wondered_'
'wives_'
'wires_'
'wil'
'widespread_'
'wherever_'
'what'
'weekly_'
'weake'
'way'
'watches_'
'watchdog_'
'washing_'
'warnanya_'
'warm'
'warehouse_'
'walikota_'
'wage_'
'wage'
'waf'
'votes_'
'voluntary_'
'volatilitas_'
'voices_'
'vita'
'vertebrata_'
'veno'
'ved_'
'vat'
'vast'
'variet'
'varia'
'vani'
'vale'
'vagina_'
'vac'
'utilize_'
'utilize'
'uta_'
'usn'
'ury_'
'urit'
'urg_'
'uqu'
'upted_'
'upt'
'upstairs_'
'upah_'
'unu'
'unsur'
'unse'
'uno'
'unju'
'uni_'
'unemployment_'
'undisbursed_'
'underwriter_'
'underwent_'
'underway_'
'unders'
'undermine_'
'underc'
'umer'
'ultimately_'
'ulkan_'
'ulk'
'ulasi_'
'ulan_'
'uku'
'uka_'
'ues_'
'udah_'
'ucci_'
'tyres_'
'tyr'
'twist'
'twin_'
'tutor'
'tunnels_'
'tumpang'
'tugas'
'tuas'
'tuan'
'tto'
'ttg_'
'tted_'
'tte'
'tru'
'trips'
'tribes'
'trend'
'trem'
'treas'
'transform'
'transfer'
'traditionally_'
'tract'
'tow'
'tournaments_'
'tourism_'
'total'
'torture_'
'tom_'
'toleran'
'tog'
'tma'
'tips_'
'tinggal'
'tina'
'tightly_'
'tib'
'throat_'
'thriv'
'theories_'
'than'
'tete'
'tes'
'terus'
'tertahan_'
'tersu'
'tersed'
'terr'
'terpecah_'
'terpa'
'termo'
'terminal_'
'terkuat_'
'terkoreksi_'
'terjal'
'teria'
'terhadap'
'terf'
'terdi'
'terdakwa_'
'terbit_'
'terang'
'teral'
'teori'
'temu_'
'temporarily_'
'tembaga_'
'temb'
'tegasnya_'
'ted'
'tec'
'tebak'
'teater_'
'tear'
'team'
'taxpayer_'
'taste'
'tasan_'
'tary_'
'tangki_'
'tangkap'
'tanam_'
'tains_'
'tah_'
'tagihan_'
'tables_'
'sya'
'swift_'
'sweetie_'
'sweat_'
'susulan_'
'sustain_'
'surveillance_'
'superpower'
'superk'
'sunk_'
'sungguhan_'
'sums'
'suite'
'sugarcane_'
'sue'
'sudah'
'succession_'
'subsystem_'
'subsiste'
'subsidies_'
'suaian_'
'styl'
'stuff'
'strom'
'striv'
'striking_'
'strength'
'straw'
'strange'
'strain'
'ston'
'stock'
'stipulated_'
'stink'
'stic'
'stead'
'stays_'
'static_'
'starter'
'stai'
'stag'
'stabilize_'
'ssing_'
'ssal'
'squir'
'squeez'
'squander'
'spy_'
'spirit'
'spiral_'
'spies_'
'sphere_'
'spektrum_'
'span'
'spaghetti_'
'spada'
'sou'
'sosi'
'soni'
'solu'
'solely_'
'sok_'
'sodium_'
'snack'
'smooth'
'smile'
'slump'
'slogans_'
'slept_'
'sky'
'skilled_'
'skelet'
'sirip_'
'sional'
'sink'
'singk'
'singing_'
'sila'
'significance_'
'sight'
'sig'
'sif_'
'sidik_'
'siapkan_'
'siaga_'
'shoulders_'
'shorter_'
'shoot'
'ship'
'shing_'
'shifted_'
'shariah_'
'shareholder_'
'shal'
'shak'
'seti'
'servant_'
'serbuan_'
'serba_'
'sepe'
'separatist_'
'separately_'
'sentuh_'
'seni'
'sends_'
'semu'
'selera_'
'selebar_'
'selaras_'
'sekian_'
'seki'
'sekeliling_'
'sejenisnya_'
'seiz'
'sei'
'segments_'
'segel'
'sediment_'
'seda'
'securing_'
'sect'
'secretly_'
'sebe'
'sear'
'seandainya_'
'sealing_'
'seakan_'
'script_'
'scre'
'scraped_'
'scorer_'
'schi'
'sche'
'scfd_'
'sawa'
'save'
'saudari'
'sauce_'
'satisf'
'sara'
'sangan_'
'salmon_'
'salahku_'
'sakit'
'sack_'
'rumus_'
'rumahmu_'
'rumah'
'ruction_'
'rting_'
'rta_'
'rsi'
'rr'
'row'
'rounded_'
'rompi_'
'romantis_'
'romantic_'
'rock'
'robotic'
'rme'
'rmat'
'riv'
'rita'
'rio'
'rindu_'
'rid'
'rger_'
'rge'
'rgani'
'revitali'
'revisi_'
'rever'
'retak'
'resta'
'respecti'
'residence_'
'residen'
'reputasi_'
'republik_'
'reporting_'
'rente'
'removing_'
'remark'
'relocat'
'relevan_'
'relegated_'
'releases_'
'relat'
'rekreasi_'
'rehabilitation_'
'rehabilita'
'regulat'
'rega'
'refusing_'
'refusal_'
'reef_'
'redis'
'rede'
'reck'
'rebu'
'rdin'
'rdi_'
'rce'
'rays_'
'ray'
'rata'
'rapuh_'
'rapa'
'rans'
'rais'
'rainfall_'
'raihan_'
'rahim_'
'raging_'
'radius_'
'radiat'
'rade_'
'racis'
'racing_'
'raced_'
'quotes_'
'quet_'
'questioning_'
'quantit'
'puzzle_'
'puter'
'pusa'
'pursuit_'
'pur_'
'punca'
'puls'
'pula'
'ptan'
'psycho'
'psu'
'proyektor_'
'provoke'
'provis'
'protocol'
'prot'
'prosper'
'prosecutor_'
'prolog'
'projector_'
'profesor_'
'probability_'
'probab'
'prix_'
'primarily_'
'priest_'
'pret'
'present'
'predators_'
'precise_'
'prayers_'
'ppr'
'powder_'
'potentials_'
'pota'
'positively_'
'poro'
'pornogra'
'pora'
'pons'
'polic'
'poet'
'ples'
'pleaded_'
'pixels_'
'pita'
'pirate'
'pipi'
'pinc'
'pigs_'
'pigment_'
'pid'
'physici'
'phon'
'phil'
'phases_'
'pewarna_'
'petroleum_'
'petro'
'peti'
'pesisir_'
'perutnya_'
'pertun'
'perti'
'persuade_'
'persembunyian_'
'persamaan_'
'peroxid'
'peroksida'
'perlukan_'
'perli'
'perj'
'perh'
'perform'
'perceive_'
'perati'
'perad'
'peperangan_'
'penyiaran_'
'penyer'
'penyempurnaan_'
'penyem'
'penyelenggaraan_'
'penyebabnya_'
'penyangga_'
'pengisi'
'pengintai'
'pengikut_'
'penghalang_'
'penggelaran_'
'penggantian_'
'pengera'
'pengenaan_'
'pengen'
'pengan'
'pengamanan_'
'pengajaran_'
'pendahulu'
'pencuri_'
'pencetak_'
'pencatatan_'
'penanda'
'pemikir_'
'pemera'
'pemenuhan_'
'pembom_'
'pembela'
'pembangk'
'pembaca_'
'pemasok_'
'pem'
'pelumas_'
'pekerjaanmu_'
'pekerja'
'pek'
'peer_'
'peduli'
'pedagang_'
'pecundang_'
'peci'
'pav'
'patu'
'pate'
'passport_'
'pasif_'
'pasaran_'
'paru'
'participating_'
'parti'
'parad'
'pangkat_'
'pangg'
'paleontologist_'
'paleontologis'
'palan'
'paddy_'
'p53_'
'oz'
'oyo_'
'oxidation_'
'ows_'
'overwhelming'
'outbreak'
'ounded_'
'oto_'
'ost'
'oso'
'orth'
'ort_'
'orn'
'orma'
'ork'
'originates_'
'oriented_'
'orientation_'
'organisations_'
'orange_'
'optimistis_'
'optimis'
'opia'
'onions_'
'ometer_'
'oma_'
'olive'
'oleh'
'old'
'oku'
'oksidatif_'
'oin'
'oil'
'ofensif_'
'odds_'
'oco'
'oci'
'occasionally_'
'obligation_'
'obe'
'obat'
'oas'
'nutrisi_'
'nutrients_'
'ntik'
'ntic_'
'ntara'
'nsa'
'notion_'
'normali'
'nonsense_'
'nomo'
'nks_'
'nitrat'
'nip'
'nings_'
'nian_'
'ngo'
'ngkat'
'nggal'
'ngg'
'nger_'
'neutrali'
'neuro'
'nett'
'nests_'
'nera'
'nen_'
'nem'
'neighbours_'
'neighboring_'
'nee'
'nea'
'ndung'
'ncang_'
'navigation_'
'navigate_'
'navigasi_'
'nas'
'narrow'
'narrative'
'napas_'
'nannya_'
'naa'
'mumm'
'mulus_'
'multipli'
'mudahan_'
'muc'
'mourn'
'mount_'
'moons_'
'monst'
'moncong'
'monarchy_'
'mol'
'modification'
'modalnya_'
'mixing_'
'mistaken'
'misi'
'mint'
'mind'
'minal'
'mili'
'mil'
'mice_'
'mic'
'meyakini_'
'metod'
'metat'
'merindukan_'
'meria'
'meren'
'merem'
'merekrut_'
'menyusui_'
'menyulitkan_'
'menyiarkan_'
'menyesa'
'menyemprot'
'menyeimbangkan_'
'menyar'
'menyandang_'
'menyamar_'
'menjemput'
'menjelaskannya_'
'menjar'
'menjangkau_'
'menjadikannya_'
'menjad'
'mengupa'
'mengung'
'menguk'
'menginvestasikan_'
'mengintai_'
'mengimbangi_'
'mengijinkan_'
'menghina_'
'menghemat_'
'menghantarkan_'
'menghancurkan'
'menggem'
'menggan'
'mengeksplo'
'mengeksp'
'mengantar_'
'menganggapnya_'
'mengalahkan'
'mengal'
'menga'
'menerj'
'menenggelamkan_'
'menemani'
'menem'
'meneb'
'mendekat'
'mendefinisikan_'
'mendam'
'mencuci_'
'menco'
'mencermati_'
'mencer'
'menceng'
'mencarinya_'
'mencari'
'menangka'
'menak'
'menahannya_'
'memv'
'memperlakukan_'
'memp'
'memin'
'memil'
'memetakan_'
'memesan_'
'memenang'
'memberitahukan_'
'membelah_'
'membayarnya_'
'membantuku_'
'memasa'
'memanfaatkannya_'
'melukis'
'melindunginya_'
'melang'
'melanda_'
'megawatt'
'measurement_'
'mbun'
'mbang_'
'maturing_'
'matriks_'
'matemati'
'match'
'masalah'
'marti'
'maps_'
'manuver_'
'manus'
'manpower_'
'mall_'
'makalah_'
'mainstream_'
'mail'
'mahkota_'
'mahan_'
'mah'
'luna'
'loskan_'
'longsor_'
'lona'
'logg'
'loca'
'loa'
'lium_'
'lisi'
'lisensi_'
'linger'
'linc'
'lim'
'lika'
'lifestyle_'
'lici'
'libur_'
'liberalis'
'liat'
'liabilit'
'lia_'
'lf_'
'leve'
'letakkan_'
'lent'
'leher'
'legal'
'lebat_'
'leas'
'leak_'
'lding_'
'lc'
'layang_'
'lawmakers_'
'lanj'
'lana'
'lam'
'lakukan'
'laku'
'laka'
'laj'
'lain'
'lacked_'
'kung'
'kuncinya_'
'kubantu_'
'kuant'
'ksikan_'
'kronis_'
'kromosom_'
'kritik_'
'kris'
'krim_'
'kreditnya_'
'kreas'
'kov'
'kot'
'konstan_'
'konser'
'konglomerat_'
'kong'
'kompr'
'kompa'
'komin'
'koleksi_'
'kokoh_'
'kognitif_'
'kliring_'
'kk'
'kinya_'
'kilo'
'kills_'
'kila'
'kik'
'kie_'
'kie'
'ketiganya_'
'ketidak_'
'ketatnya_'
'kesukaan'
'kesepian_'
'kesel'
'keseha'
'kesal_'
'keruntuhan_'
'keringat_'
'kerdil_'
'keran'
'keraguan_'
'kepulauan_'
'kepompong_'
'kepingan_'
'kepadatan_'
'kembangkan_'
'kelu'
'kelinci_'
'kelemba'
'kekuatannya_'
'kek'
'keju'
'keistimewaan_'
'keg'
'kece'
'kebudayaan_'
'kebijaksanaan_'
'kebangkitan_'
'kean'
'katan_'
'karn'
'karan'
'kap_'
'kang'
'kaleng_'
'kalan_'
'kakek_'
'kaget_'
'kagak_'
'kad'
'junk'
'jumps_'
'judg'
'jua'
'jir'
'jem'
'jee'
'jawab'
'jani'
'jama'
'jala_'
'jaknya_'
'jah_'
'iw'
'itution'
'ita'
'istan_'
'isso'
'irkan'
'ipu'
'iono'
'involves_'
'investigations_'
'invest'
'invertebrat'
'intuiti'
'into'
'interrupt'
'interconnect'
'interactions_'
'interact'
'intell'
'intelektual_'
'integra'
'inte'
'insult'
'institu'
'install_'
'inspektur_'
'insists_'
'insane_'
'innya_'
'ink_'
'ingi'
'infra_'
'inform_'
'influenced_'
'infinite_'
'infer'
'infe'
'inexp'
'inevitable_'
'industrialized_'
'indis'
'indigenous_'
'indera_'
'impuls'
'implant'
'immuni'
'immigrants_'
'imigran_'
'imbangan_'
'imbal'
'ima_'
'ikon_'
'ikir'
'igu'
'igra'
'igat'
'ify'
'ifika'
'ification_'
'ideolog'
'identi'
'ico'
'icat'
'ibu'
'ibility_'
'iba'
'iat'
'iannya_'
'iag'
'hyu'
'humiliating_'
'humble_'
'hul'
'hre'
'hover'
'hosting_'
'honey'
'hone'
'homose'
'hired_'
'hira'
'hion'
'hijacke'
'henti'
'heli'
'hec'
'heb'
'haus_'
'hardest_'
'haram_'
'happily_'
'hala'
'haj_'
'hacke'
'gunship_'
'gum_'
'guide_'
'gug'
'greeting'
'greenhouse_'
'greed'
'gravitation'
'graph_'
'graduat'
'grades_'
'grad'
'grace_'
'governing_'
'god'
'goal'
'glow'
'globin_'
'gian'
'ger'
'geologi_'
'geng'
'generating_'
'gend'
'gelembung_'
'gelarnya_'
'gate'
'gat'
'gasoline_'
'ganograf'
'gangs_'
'ganan'
'gam_'
'galkan_'
'gagak_'
'fusion_'
'fusi_'
'fung'
'fun'
'fulfill_'
'fs1'
'frightened_'
'friendship_'
'frequent_'
'frank'
'fr'
'four'
'foundations_'
'fotografer_'
'formul'
'forge'
'fora'
'foc'
'fnya_'
'fluktuasi_'
'fleet_'
'fisikawan_'
'fisi'
'first'
'filo'
'filming_'
'fight'
'fie'
'festivities_'
'fertility_'
'fence_'
'feed'
'featured_'
'fasci'
'farmer_'
'fantastis_'
'fancy_'
'fakt'
'ez'
'extensive_'
'exploit_'
'experiencing_'
'expe'
'exception_'
'excellence_'
'exceed'
'este'
'est'
'essi'
'esok_'
'esis_'
'esen'
'escalat'
'esa'
'ert_'
'erre'
'err'
'ern_'
'eris'
'eras'
'equation_'
'epidemi'
'ep_'
'ential'
'engah_'
'energi'
'encountered_'
'ence'
'enal_'
'employed_'
'emphasize'
'emon'
'emiten_'
'eme'
'elimination_'
'elektroni'
'elaborate_'
'ekspedisi_'
'ekosistem_'
'eka'
'eho'
'efekti'
'educated_'
'ecti'
'ebut'
'ebe'
'eau_'
'eBay_'
'dwa'
'duta_'
'duration_'
'dung'
'dum'
'due'
'duce'
'drops_'
'drinks_'
'draft'
'dr_'
'dor_'
'dongeng_'
'dong'
'dominasi_'
'dokumentasi_'
'dlm_'
'divorced_'
'divid'
'diundang_'
'diukur_'
'diterj'
'diteliti_'
'ditangani_'
'distracti'
'distor'
'disputed_'
'disma'
'dism'
'disitu_'
'disiapkan_'
'dish'
'disguise'
'disertai_'
'diselu'
'discoveri'
'disbursed_'
'disamping_'
'disambut_'
'disadari_'
'disable_'
'direka'
'dir_'
'dipr'
'dipasa'
'dino'
'dinas_'
'dimengerti_'
'diman'
'dilu'
'dikontr'
'dikerjakan_'
'dikenali_'
'dikelilingi_'
'dikel'
'dikat'
'dikaitkan_'
'dihubungi_'
'dihadiri_'
'dignity_'
'digester_'
'digantung_'
'differ'
'dideteksi_'
'dider'
'didalamnya_'
'dictat'
'dict'
'dicetak_'
'dicari_'
'dicab'
'dibesarkan_'
'diberitahu_'
'diadili_'
'diabaikan_'
'detection_'
'detain'
'destructive_'
'destiny_'
'desperate_'
'deserves_'
'dere'
'depict'
'denti'
'dense_'
'demonstrations_'
'deliver'
'deflect'
'definiti'
[...]
