'<pad>_'
'<EOS>_'
', _'
'._'
'the_'
'a_'
'_'
'of_'
'to_'
'and_'
'in_'
's_'
'v_'
'se_'
'is_'
'-_'
'na_'
'that_'
'for_'
'y_'
'je_'
'by_'
'o_'
'on_'
'že_'
'The_'
'i_'
'. _'
' (_'
'e_'
'u_'
'be_'
'/_'
'it_'
'with_'
'I_'
'are_'
''_'
'as_'
'pro_'
'k_'
') _'
't_'
': _'
' - _'
'í_'
'do_'
'was_'
'not_'
'at_'
'this_'
'm_'
'from_'
'é_'
'or_'
'?_'
'have_'
'z_'
'you_'
'an_'
've_'
'we_'
'Hotel_'
'ing_'
'will_'
'á_'
'ou_'
'ch_'
'has_'
'which_'
'd_'
' – _'
'ed_'
'hotel_'
'za_'
'’_'
' _'
'ů_'
'European_'
'ě_'
'jsou_'
'které_'
'1_'
'all_'
'ho_'
'nebo_'
'their_'
'si_'
'can_'
'aby_'
'jako_'
' ._'
'would_'
'2_'
'l_'
'em_'
'but_'
'"_'
'ý_'
'its_'
'more_'
'A_'
'EU_'
'also_'
'our_'
'(_'
'3_'
'ale_'
'ých_'
' , _'
'one_'
',_'
'very_'
':_'
'they_'
'es_'
'V_'
'It_'
'been_'
'; _'
'In_'
'ní_'
'should_'
'po_'
'This_'
'být_'
'were_'
'n_'
'4_'
'5_'
'ého_'
'ly_'
'there_'
'tak_'
'other_'
'od_'
'only_'
'out_'
'no_'
'ze_'
'me_'
'bude_'
'like_'
'must_'
'li_'
'r_'
';_'
'než_'
'!_'
'který_'
'Commission_'
'he_'
'than_'
'We_'
'mi_'
'up_'
'ce_'
'his_'
'had_'
'která_'
'if_'
'co_'
'about_'
')._'
'so_'
'jak_'
'your_'
'jsem_'
'má_'
'time_'
'countries_'
'la_'
'), _'
'To_'
'new_'
'us_'
'who_'
'into_'
'však_'
'musí_'
'Europe_'
'také_'
'such_'
'my_'
'room_'
'te_'
'al_'
'ím_'
'when_'
'what_'
'jejich_'
'Komise_'
'good_'
'these_'
'people_'
' "_'
'States_'
'er_'
'de_'
'But_'
'této_'
'them_'
'any_'
'mezi_'
'6_'
'jí_'
'Member_'
'may_'
'bylo_'
'."_'
'most_'
'President_'
'could_'
')_'
'jeho_'
'ým_'
'some_'
'after_'
'mu_'
'well_'
'stay_'
'just_'
'en_'
'0_'
'ům_'
'rooms_'
'use_'
'need_'
'com_'
'world_'
'jen_'
'při_'
'now_'
'00_'
'byl_'
'ng_'
'Union_'
'pokoje_'
'byla_'
'Mr_'
'Je_'
'7_'
'není_'
'jsme_'
'24_'
'If_'
'může_'
'between_'
'8_'
'ne_'
'many_'
'své_'
'because_'
'economic_'
'years_'
'shall_'
'over_'
'Hodnocení_'
'make_'
'ke_'
'hostů_'
'even_'
'10_'
'first_'
'pokud_'
'% _'
' „_'
'když_'
'where_'
'way_'
'před_'
'S_'
'let_'
'Council_'
'g_'
'země_'
'two_'
'location_'
'uje_'
'Booking_'
'státy_'
'podle_'
'system_'
'nám_'
'No_'
'né_'
'Article_'
'proti_'
'right_'
'ky_'
'už_'
' “_'
'US_'
'bych_'
'toho_'
'those_'
'her_'
'Evropské_'
'You_'
'ém_'
'staff_'
'made_'
'said_'
' — _'
'oblasti_'
'year_'
'reviews_'
'ovat_'
'Parliament_'
'market_'
'under_'
'" _'
'report_'
'work_'
'Pokud_'
'policy_'
'important_'
'budou_'
'c_'
'see_'
'take_'
'financial_'
'ání_'
'information_'
'tím_'
'tohoto_'
'protože_'
'ové_'
'against_'
'support_'
'9_'
'opatření_'
'2008_'
'ty_'
'within_'
'much_'
'country_'
'ES_'
'tomu_'
'ci_'
'EUR_'
'," _'
'více_'
'nařízení_'
'velmi_'
'free_'
'mají_'
'long_'
'další_'
'being_'
'ích_'
'roce_'
' / _'
'political_'
'able_'
'city_'
'ještě_'
'unie_'
'how_'
'hotelu_'
'For_'
'tento_'
'He_'
'20_'
'2009_'
'vám_'
'až_'
' [[_'
'ani_'
'2007_'
'těchto_'
'h_'
'všech_'
'public_'
'him_'
'či_'
'know_'
'mohou_'
'kteří_'
'am_'
'ení_'
'2006_'
'day_'
're_'
'energy_'
'tyto_'
'12_'
' ..._'
'případě_'
'used_'
'per_'
'down_'
'As_'
'byly_'
'too_'
'ně_'
'le_'
'ka_'
'ion_'
'centre_'
'before_'
'roku_'
'již_'
'international_'
'There_'
'č_'
'own_'
'il_'
'same_'
'předsedající_'
'case_'
'English_'
'ými_'
'When_'
'Rooms_'
'great_'
'tomto_'
'rozhodnutí_'
' | _'
'naši_'
'bez_'
'available_'
'area_'
'through_'
'located_'
'back_'
'zejména_'
'pouze_'
'including_'
'cí_'
'kdy_'
'15_'
'want_'
'then_'
'ování_'
'set_'
'všechny_'
'less_'
'government_'
'Room_'
'tom_'
'což_'
'And_'
'part_'
'ému_'
'get_'
'possible_'
'kde_'
'What_'
'Service_'
'států_'
'ech_'
'does_'
'did_'
'Na_'
'ku_'
'zemí_'
'služba_'
'here_'
'global_'
'All_'
'China_'
'dne_'
'order_'
'development_'
'USA_'
'' _'
'both_'
'ují_'
'national_'
'They_'
'That_'
'Tento_'
'Regulation_'
'social_'
'lo_'
'proto_'
'p_'
'breakfast_'
'Zařízení_'
'ji_'
'still_'
'power_'
'measures_'
'place_'
'ek_'
'tu_'
'rights_'
'. - (_'
'while_'
'ation_'
'C_'
'rámci_'
'last_'
'close_'
'pobytu_'
'ější_'
'think_'
'law_'
'service_'
'go_'
'mít_'
'level_'
'rád_'
'stále_'
'st_'
'offers_'
'30_'
'„_'
'Rady_'
'change_'
'finanční_'
'Community_'
'without_'
'třeba_'
'řízení_'
'tedy_'
'high_'
'guest_'
'2004_'
' % _'
'United_'
'kterou_'
'course_'
'pak_'
'non_'
'access_'
'Bar_'
'možné_'
'number_'
'dnes_'
'50_'
'help_'
'growth_'
'she_'
'each_'
'Czech_'
'submitted_'
'její_'
'rs_'
'|_'
'tion_'
'Když_'
'small_'
'example_'
'osti_'
'EC_'
'away_'
'view_'
'point_'
'jež_'
'160_'
' & _'
'services_'
'posílají_'
'ies_'
'11_'
'zákazníci_'
'D_'
'&_'
'ách_'
'data_'
'costs_'
'2005_'
'today_'
' _'
'ry_'
'crisis_'
'..._'
'say_'
'- _'
'” _'
'politiky_'
'ers_'
'particular_'
'during_'
'členských_'
'human_'
'far_'
'products_'
'already_'
'tato_'
'customers_'
'best_'
'pokojů_'
'Fax_'
'ám_'
'T_'
'cannot_'
'state_'
'end_'
'Business_'
'nové_'
'&#_'
'economy_'
'ost_'
'next_'
'means_'
'health_'
'ami_'
'Pane_'
' '_'
'three_'
'společnosti_'
'since_'
'lidí_'
'jde_'
'friendly_'
'business_'
'Jak_'
'nbsp_'
'ním_'
'find_'
'few_'
'term_'
'pane_'
'odst_'
'another_'
'current_'
'měla_'
'000_'
'children_'
'Facilities_'
'?"_'
' '
'systému_'
'security_'
'jste_'
'P_'
'“ _'
'x_'
'el_'
'strany_'
'life_'
'legal_'
'práva_'
'language_'
'byste_'
'trade_'
'put_'
'comfortable_'
'bychom_'
'E_'
'come_'
'rovněž_'
'děti_'
'pod_'
'měli_'
'citizens_'
'based_'
'rules_'
'lze_'
'future_'
'modern_'
'Všechny_'
'řešení_'
'tuto_'
'nás_'
'informace_'
'čl_'
'problem_'
'common_'
'better_'
'zde_'
'aid_'
'taken_'
'et_'
'again_'
'night_'
'little_'
'Guest_'
'large_'
'State_'
'list_'
'therefore_'
'ta_'
'form_'
'evropské_'
'přístup_'
'price_'
'minutes_'
'clear_'
'areas_'
'really_'
'heart_'
'following_'
'fact_'
'old_'
'měl_'
'b_'
'provide_'
'needs_'
'excellent_'
'court_'
'během_'
'around_'
'například_'
'mnoho_'
'However_'
'um_'
'every_'
'svou_'
'mě_'
']] _'
'ná_'
'believe_'
'America_'
'process_'
'musíme_'
'might_'
'So_'
' ( _'
'trhu_'
'toto_'
'pomoci_'
'paní_'
'necessary_'
'll_'
'clean_'
'Co_'
'however_'
'větší_'
'become_'
'abychom_'
'ční_'
'whether_'
'star_'
'man_'
'hours_'
'právní_'
'nad_'
'ila_'
'different_'
'den_'
'conditions_'
'25_'
'ské_'
'question_'
'včetně_'
'ts_'
'real_'
'major_'
'central_'
'Desk_'
'using_'
'internet_'
'don_'
'dispozici_'
'avi_'
'off_'
'main_'
'result_'
'Toto_'
'Společenství_'
'Evropská_'
'situation_'
'návrh_'
'nou_'
'krize_'
'základě_'
'especially_'
'O_'
'L_'
'’ _'
'souladu_'
'facilities_'
'certain_'
'Evropě_'
'risk_'
'money_'
'helpful_'
'further_'
'agreement_'
'interest_'
'given_'
'ge_'
'jim_'
'issue_'
'food_'
'zařízení_'
'vlastní_'
'ten_'
'least_'
'zemích_'
'měly_'
'prostředí_'
'program_'
'systém_'
'ment_'
'left_'
'ble_'
'Tato_'
'value_'
'první_'
'protection_'
'ensure_'
'air_'
'Committee_'
'ný_'
'14_'
'nyní_'
'nabízí_'
'zda_'
'walk_'
'vlády_'
'sector_'
'role_'
'podporu_'
'ají_'
'Z_'
'Treaty_'
'problems_'
'parlamentu_'
'členské_'
'proposal_'
'ných_'
'K_'
'směrnice_'
'led_'
'kdo_'
'16_'
'ted_'
'regard_'
'příliš_'
'provided_'
'full_'
'veřejné_'
'stát_'
'skupiny_'
'nt_'
'Komisi_'
'American_'
'svých_'
'právo_'
'práv_'
'nejsou_'
'ie_'
'důležité_'
'cích_'
'open_'
'ny_'
'near_'
'km_'
'going_'
'něco_'
'nice_'
'řekl_'
'rate_'
'práce_'
'ons_'
'making_'
'words_'
'third_'
'neboť_'
'effective_'
'íme_'
'transport_'
'station_'
'období_'
'jiné_'
'ic_'
'family_'
'Kdy_'
'water_'
'světě_'
'ová_'
'lidé_'
'Ve_'
'New_'
'ti_'
'private_'
'pomoc_'
'decision_'
'always_'
'action_'
'Evropského_'
'. - _'
'vás_'
'recepci_'
'můžete_'
'Russia_'
'At_'
'vysoké_'
'ra_'
'nich_'
'needed_'
'možnost_'
'Proto_'
'second_'
'B_'
'short_'
'ních_'
'line_'
'Group_'
'zemi_'
'person_'
'mezinárodní_'
'found_'
'Hostelsclub_'
'100_'
'ions_'
'check_'
'Za_'
'Centre_'
'17_'
'13_'
'called_'
'ění_'
'cases_'
'Smoking_'
'Nekuřácké_'
'working_'
'služby_'
'přicestoval_'
'pomocí_'
'period_'
'institutions_'
'Court_'
'právě_'
'f_'
'budget_'
'authorities_'
'Directive_'
'části_'
'systems_'
'ohledem_'
'markets_'
'These_'
'18_'
'Článek_'
'respect_'
'jednání_'
'ubytování_'
'often_'
'jeden_'
'done_'
'climate_'
'ceny_'
'Pro_'
'why_'
'tam_'
'run_'
'méně_'
'low_'
'give_'
'building_'
'Ale_'
'Úschovna_'
'war_'
'th_'
'terms_'
'reception_'
'banks_'
'town_'
'prostřednictvím_'
'easy_'
'account_'
'France_'
'40_'
'problém_'
'letech_'
'hodinová_'
'Republic_'
'ting_'
'policies_'
'particularly_'
'local_'
'enough_'
'cílem_'
'DE_'
'státu_'
'rok_'
'resources_'
'M_'
'věci_'
'stejně_'
'production_'
'nic_'
'mnohem_'
'globální_'
'Germany_'
'2010_'
'ší_'
'basis_'
'application_'
'On_'
'start_'
'debt_'
'control_'
'bar_'
'II_'
'Breakfast_'
'zajistit_'
'ující_'
'druhé_'
'Trezor_'
'London_'
'Internet_'
'writing_'
'téměř_'
'name_'
'increase_'
'době_'
'debate_'
'stojí_'
'skutečně_'
'problémy_'
'politické_'
'home_'
'having_'
'dobře_'
'cooperation_'
'Friendly_'
'Evropa_'
'tax_'
'something_'
'single_'
'million_'
'já_'
'R_'
'22_'
'.”_'
'státech_'
'recent_'
'quality_'
'position_'
'issues_'
'ily_'
'dětí_'
'approach_'
'D'
'š_'
'úrovni_'
'růst_'
'investment_'
'With_'
'Commissioner_'
'women_'
'vote_'
'svého_'
'sociální_'
'situated_'
'never_'
'možná_'
'foreign_'
'force_'
'byli_'
'Safety_'
'Non_'
'zavazadel_'
'region_'
'naše_'
'místo_'
'governments_'
'body_'
'Our_'
'2003_'
' [_'
'ící_'
'teď_'
'svůj_'
'Debian_'
'): _'
'způsobem_'
'hope_'
'dalších_'
'centrum_'
'among_'
'Parlamentu_'
'Evropy_'
'restaurant_'
'members_'
'dále_'
'dohody_'
'ally_'
'age_'
'2000_'
'total_'
'reason_'
'ili_'
'general_'
'equipment_'
'ent_'
'billion_'
'almost_'
'ala_'
'vůči_'
'všichni_'
'though_'
'ových_'
'mohl_'
'include_'
'bank_'
'Western_'
'/ _'
'seznam_'
'rather_'
'rates_'
'prices_'
'parking_'
'once_'
'odvětví_'
'look_'
'greater_'
'environment_'
'asked_'
'Výtah_'
'Topení_'
'One_'
' $_'
'změny_'
'site_'
'mnoha_'
'ké_'
'face_'
'ar_'
'19_'
'znamená_'
'situaci_'
'several_'
'rozvoj_'
'regional_'
'ovi_'
'management_'
'Airport_'
'things_'
'pay_'
'ity_'
'group_'
'dva_'
'ace_'
'Front_'
'často_'
'některých_'
'nových_'
'městě_'
'companies_'
'Prádelna_'
'specific_'
'především_'
'programu_'
'oval_'
'ního_'
'mohli_'
'capital_'
'Storage_'
'Pokojová_'
'Check_'
'Bank_'
'zprávy_'
'trh_'
'situace_'
'present_'
'orgány_'
'U_'
'Půjčovna_'
'Gay_'
'Central_'
'.“_'
'... _'
'znovu_'
'zcela_'
'skutečnosti_'
'que_'
'práci_'
'Public_'
'Hour_'
'parties_'
'page_'
'os_'
'hospodářské_'
'She_'
'“._'
'vá_'
'taking_'
'proč_'
'matter_'
'hlasování_'
'ího_'
'yet_'
'whole_'
'together_'
'strong_'
'kterým_'
'ia_'
'either_'
'Kopírka_'
'ální_'
'times_'
'růstu_'
'military_'
'experience_'
'energie_'
'big_'
'accommodation_'
'60_'
'vé_'
'opportunity_'
'ns_'
'later_'
'hostels_'
'accordance_'
'Po_'
'Box_'
'žádné_'
'vždy_'
'subject_'
'rychle_'
'research_'
'přímo_'
'ever_'
'thing_'
'states_'
'side_'
'provides_'
'ochranu_'
'key_'
'eme_'
'continue_'
'banky_'
'activities_'
'TV_'
'M'
'Deposit_'
'21_'
'society_'
'prostředky_'
'poor_'
'les_'
'history_'
'hand_'
'got_'
'century_'
'call_'
'My_'
'until_'
'pracovní_'
'men_'
'jiných_'
'fully_'
'euro_'
'Restaurant_'
'čas_'
'w_'
'světa_'
'special_'
'soukromé_'
'model_'
'moci_'
'itself_'
'hard_'
'forward_'
'cost_'
'airport_'
'zpráva_'
'velké_'
'resolution_'
'quite_'
'mohla_'
'ago_'
'N_'
'23_'
'článku_'
'zprávu_'
'straně_'
'služeb_'
'schůze_'
'outside_'
'offer_'
'návrhu_'
'nikdy_'
'ni_'
'light_'
'ise_'
'dokonce_'
'sti_'
'samozřejmě_'
'days_'
'credit_'
'Windows_'
'V'
'Annex_'
'27_'
'úsilí_'
'various_'
'standard_'
'pravidla_'
'použití_'
'máme_'
'create_'
'[_'
'Private_'
'Podle_'
'Heating_'
'French_'
'Evropský_'
'Do_'
'vláda_'
'views_'
'towards_'
'pool_'
'others_'
'několika_'
'nároky_'
'industry_'
'finančních_'
'evropských_'
'changes_'
'P'
'Luggage_'
' ... _'
'tisk_'
'text_'
'písemně_'
'procedure_'
'několik_'
'nout_'
'nejen_'
'mělo_'
'jící_'
'individual_'
'bankety_'
'ací_'
'Rental_'
'Indeed_'
'B'
'2002_'
'soud_'
'safety_'
'nový_'
'lepší_'
'dvou_'
'Restaurace_'
'unii_'
'té_'
'sure_'
'náklady_'
'date_'
'bezpečnosti_'
'address_'
'] _'
'Park_'
'podmínky_'
'otázky_'
'oil_'
'některé_'
'longer_'
'kind_'
'každý_'
'evidence_'
'charged_'
'celém_'
'Laundry_'
'Jsem_'
'týkající_'
'politiku_'
'opinion_'
'kou_'
'impact_'
'framework_'
'dosáhnout_'
'celkem_'
'bed_'
'apply_'
'above_'
'Elevator_'
'80_'
'zároveň_'
'themselves_'
'pan_'
'legislation_'
'interests_'
'file_'
'extra_'
'education_'
'democratic_'
'child_'
'bit_'
'90_'
'část_'
'thought_'
'responsibility_'
'reach_'
'pánové_'
'místě_'
'kvůli_'
'dolarů_'
'developing_'
'democracy_'
'attention_'
'ate_'
'adopted_'
'Paní_'
'L'
'After_'
'vyšší_'
'nichž_'
'leaders_'
'income_'
'Tyto_'
'Snídaně_'
'By_'
'"._'
'zdrojů_'
'století_'
'stanoví_'
'společenství_'
'přes_'
'posledních_'
'ovšem_'
'known_'
'informací_'
'higher_'
'four_'
'etc_'
'efforts_'
'da_'
'U'
'Pokoje_'
'G_'
'svým_'
'ství_'
'results_'
'politika_'
'budeme_'
'beautiful_'
'Rezervace_'
'significant_'
'quiet_'
'našich_'
'natural_'
'hlavní_'
'five_'
'dobu_'
'difficult_'
'car_'
'Linux_'
'Iran_'
'How_'
'East_'
' %_'
'soudu_'
'required_'
'nebude_'
'naší_'
'nakonec_'
'klimatu_'
'keep_'
'jedné_'
'distance_'
'came_'
'Meeting_'
'Čistírna_'
'zvláštní_'
'type_'
'true_'
'stability_'
'past_'
'didn_'
'amount_'
'Photocopying_'
'Organizace_'
'2001_'
'welcome_'
'walking_'
'step_'
'show_'
'seen_'
'noc_'
'nemůže_'
'gas_'
'důsledku_'
'chtěl_'
'avšak_'
'aut_'
'F'
'víc_'
'tímto_'
'ss_'
'red_'
'navíc_'
'jednou_'
'hvězdičky_'
'goods_'
'early_'
'dvě_'
'cíle_'
'class_'
'World_'
'Služba_'
'Při_'
'Israel_'
'Chinese_'
'spolupráce_'
'serious_'
'seems_'
'reduce_'
'rapporteur_'
'přičemž_'
'party_'
'milionů_'
'implementation_'
'half_'
'ekonomiky_'
'center_'
'behalf_'
'Služby_'
'Parlament_'
'střední_'
'souvislosti_'
'ship_'
'ous_'
'ma_'
'ls_'
'likely_'
'celé_'
'Spojené_'
'Services_'
'S'
'ECB_'
'“_'
'project_'
'progress_'
'postižené_'
'package_'
'ness_'
'kdyby_'
'jménem_'
'guests_'
'funds_'
'field_'
'feel_'
'directly_'
'design_'
'concerned_'
'cena_'
'Paris_'
'House_'
'General_'
'Denní_'
'31_'
'29_'
'Čína_'
'workers_'
'spolupráci_'
'smoking_'
'ská_'
'připojení_'
'pokoji_'
'nutné_'
'nothing_'
'ling_'
'kontrolu_'
'jej_'
'internal_'
'ful_'
'direct_'
'\u_'
'Spojených_'
'J'
'A'
', "_'
'žehlení_'
'upon_'
'tě_'
'státní_'
'společné_'
'share_'
'případech_'
'představuje_'
'podpory_'
'complete_'
'care_'
'Madam_'
'Chcete_'
'činnosti_'
'wish_'
'software_'
'otázku_'
'ors_'
'nuclear_'
'nadále_'
'meeting_'
'increased_'
'bezpečnost_'
'agree_'
'K'
'Italy_'
'International_'
'vat_'
'values_'
'smlouvy_'
'občanů_'
'minute_'
'jsi_'
'ené_'
'dy_'
'deal_'
'civil_'
'appropriate_'
'VIP_'
'O'
'F_'
'Bush_'
'An_'
'základní_'
'regions_'
'provisions_'
'move_'
'months_'
'lot_'
'ize_'
'ive_'
'ice_'
'díky_'
'due_'
'concerning_'
'Fund_'
'FR_'
'Banquet_'
'26_'
'takové_'
'referred_'
'prostory_'
'proposals_'
'population_'
'podmínek_'
'financování_'
'equipped_'
'across_'
'Rada_'
'Now_'
'India_'
'voted_'
'sice_'
'rule_'
'poslední_'
'organizace_'
'oblastech_'
'něj_'
'nejlepších_'
'meet_'
'lack_'
'front_'
'doby_'
'decisions_'
'Musíme_'
'Design_'
'ustanovení_'
'tři_'
'solution_'
'simply_'
'provést_'
'product_'
'ový_'
'nelze_'
'města_'
'held_'
'f'
'established_'
'emissions_'
'ali_'
'tělesně_'
'turn_'
'snížení_'
'perfect_'
'národní_'
'lidských_'
'jehož_'
'ings_'
'house_'
'groups_'
'du_'
'book_'
'b'
'PL_'
'La_'
'Guests_'
'German_'
'28_'
'! _'
'ře_'
'údajů_'
'zprávě_'
'vzhledem_'
'tady_'
'společností_'
'reform_'
'range_'
'počet_'
'personal_'
'pana_'
'moc_'
'languages_'
'coming_'
'Very_'
'Lisbon_'
'Enterprise_'
'December_'
'shower_'
'road_'
'platí_'
'návrhy_'
'jasně_'
'improve_'
'head_'
'ds_'
'clearly_'
'R'
'HDP_'
'tions_'
'takže_'
'standards_'
'současné_'
'son_'
'remain_'
'regulation_'
'právních_'
'proceedings_'
'ným_'
'nekuřácké_'
'množství_'
'miliard_'
'ments_'
'final_'
'existuje_'
'basic_'
'actually_'
'T'
'Není_'
'Let_'
'CO2_'
'va_'
'traditional_'
'strategy_'
'remains_'
'property_'
'ohledně_'
'obchodu_'
'larger_'
'hospodářství_'
'economies_'
'ec_'
'demand_'
'bring_'
'along_'
'additional_'
'act_'
'Z'
'Spain_'
'Moreover_'
'G'
'Car_'
'whose_'
'většina_'
'soon_'
'principle_'
'pokoj_'
'ochrany_'
'komise_'
'employment_'
'der_'
'cy_'
'community_'
'centrální_'
'ať_'
'active_'
'ability_'
'Y_'
'Where_'
'Some_'
'Minister_'
'City_'
'ways_'
'vy_'
'usnesení_'
'stránky_'
'různých_'
'recently_'
'questions_'
'přístupu_'
'potential_'
'plan_'
'osob_'
'níž_'
'nost_'
'můžeme_'
'mohlo_'
'live_'
'exchange_'
'důvodu_'
'assistance_'
'ask_'
'allow_'
'Tak_'
'Ne_'
'May_'
'H'
'Dry_'
'British_'
'word_'
'výše_'
'top_'
'ter_'
'stop_'
'rise_'
'makes_'
'leave_'
'kterých_'
'hold_'
'culture_'
'choice_'
'ba_'
'ary_'
'W'
'Iraq_'
'Cleaning_'
'ubytoven_'
'týká_'
'trhy_'
'společně_'
'parts_'
'ostatní_'
'nce_'
'member_'
'komfortně_'
'idea_'
'existing_'
'document_'
'directive_'
'cultural_'
'benefit_'
'asi_'
'West_'
'Newspapers_'
'N'
'Ironing_'
'Express_'
'Exchange_'
'Evropskou_'
'", _'
'zvýšení_'
'zlepšení_'
'understand_'
'test_'
'technical_'
'ského_'
'předpisy_'
'programme_'
'ového_'
'ostí_'
'obchodní_'
'moment_'
'mohly_'
'mean_'
'looking_'
'lead_'
'komfortní_'
'j_'
'e'
'developed_'
'beds_'
'achieve_'
'Japan_'
'H_'
'CD_'
'1999_'
'žen_'
'získat_'
'thank_'
'společnost_'
'sebe_'
'requirements_'
'regionální_'
'prohlášení_'
'obsahuje_'
'network_'
'lly_'
'levels_'
'availability_'
'americké_'
'Yes_'
'Klimatizace_'
'Good_'
'70_'
'zdraví_'
'zatímco_'
'všem_'
'těch_'
'technology_'
'shopping_'
'sea_'
'předsedo_'
'předsednictví_'
'peace_'
'p'
'jednoho_'
'included_'
'fiscal_'
'export_'
'dámy_'
'currently_'
'considered_'
'company_'
'cen_'
'border_'
'benefits_'
'alone_'
'X_'
'Why_'
'GDP_'
'spaces_'
'return_'
'rest_'
'relations_'
'points_'
'muset_'
'i'
'entire_'
'effect_'
'drive_'
'charge_'
'authority_'
'North_'
'Greece_'
'Francie_'
'říci_'
'způsob_'
'vytvoření_'
'ure_'
'typu_'
'took_'
'thus_'
'splňuje_'
'reasons_'
'přijmout_'
'prostředků_'
'požadavky_'
'nezbytné_'
'jejichž_'
'ilo_'
'ideal_'
'features_'
'eurozone_'
'essential_'
'effects_'
'behind_'
'Of_'
'Members_'
',“ _'
'článek_'
'tí_'
'treatment_'
'street_'
'size_'
'quickly_'
'popular_'
'politických_'
'ovou_'
'fight_'
'environmental_'
'dostupné_'
'currency_'
'bus_'
'addition_'
'York_'
'NATO_'
'EEC_'
',” _'
'vůbec_'
'version_'
'velice_'
'translation_'
'train_'
'table_'
'svět_'
'steps_'
'sense_'
'self_'
'requires_'
'poté_'
'plně_'
'osobu_'
'ohledu_'
'mind_'
'malé_'
'finance_'
'enable_'
'doing_'
'documents_'
'cause_'
'bathroom_'
'UN_'
'Office_'
'Ano_'
'.'_'
'went_'
'využít_'
'totiž_'
'space_'
'ský_'
'similar_'
'safe_'
'přihlášení_'
'projects_'
'perhaps_'
'osoby_'
'media_'
'land_'
'investice_'
'indeed_'
'importance_'
'historic_'
'dítě_'
'courts_'
'ces_'
'E'
'vše_'
'probably_'
'practice_'
'parlament_'
'negotiations_'
'nachází_'
'mimo_'
'm'
'growing_'
'est_'
'enjoy_'
'designed_'
'ck_'
'actions_'
'Best_'
'ími_'
'zásadní_'
'zasedání_'
'vyžaduje_'
'procedures_'
'poverty_'
'patří_'
'official_'
'ného_'
'lety_'
'fotografii_'
'ding_'
'del_'
'competition_'
'atmosphere_'
'anti_'
'Terasa_'
'Mrs_'
'Já_'
' ) _'
'zvětší_'
'x'
'try_'
'told_'
'systémy_'
'svém_'
'status_'
'současnosti_'
'source_'
'response_'
'procesu_'
'pracovních_'
'potravin_'
'místa_'
'lower_'
'letiště_'
'late_'
'konkrétní_'
'kliknete_'
'hodnoty_'
'gentlemen_'
'freedom_'
'former_'
'cílů_'
'capacity_'
'bad_'
'W_'
'Grand_'
'Disabled_'
'C'
'veřejných_'
'supply_'
'soudní_'
'skutečnost_'
'odhlášení_'
'nebylo_'
'looked_'
'kolem_'
'hodin_'
'fundamental_'
'favour_'
'extremely_'
'everything_'
'consumers_'
'conflict_'
'concerns_'
'beach_'
'although_'
'agreed_'
'Směnárna_'
'OSN_'
'Not_'
'Expresní_'
'zdroje_'
'zapotřebí_'
'ujeme_'
'ton_'
'světové_'
'strategie_'
'spacious_'
'rozvoje_'
'režimu_'
'require_'
'related_'
'předseda_'
'postavení_'
'positive_'
'peníze_'
'omezení_'
'obvykle_'
'exkurzí_'
'evropského_'
'From_'
'Airconditioning_'
'35_'
'žádný_'
'Španělsko_'
'účelem_'
'výboru_'
'ves_'
'style_'
'rozsahu_'
'ring_'
'pozornost_'
'plán_'
'ované_'
'ků_'
'jobs_'
'hlediska_'
'effort_'
'created_'
'administration_'
'Square_'
'Even_'
'َ_'
'íte_'
'| _'
'zajištění_'
'ying_'
'snad_'
'shown_'
'relevant_'
'protect_'
'nu_'
'nebyl_'
'largest_'
'involved_'
'instituce_'
'installation_'
'ii_'
'emi_'
'des_'
'computer_'
'bod_'
'balance_'
'agricultural_'
'September_'
'June_'
'4hvězdičkový_'
'3hvězdičkový_'
'�_'
'won_'
'všechno_'
'vání_'
'setting_'
'professional_'
'play_'
'paid_'
'míru_'
'málo_'
'morning_'
'message_'
'maintenance_'
'bezpečnostní_'
'ano_'
'Tour_'
'THE_'
'Ri'
'Middle_'
'Kingdom_'
'2013_'
'07_'
' : _'
'Ú'
'wide_'
'význam_'
'války_'
'vytvořit_'
'sustainable_'
'success_'
's'
'restaurants_'
'opportunities_'
'názoru_'
'lost_'
'leading_'
'knowledge_'
'job_'
'ial_'
'historical_'
'ging_'
'double_'
'ant_'
'activity_'
'according_'
'While_'
'Smlouvy_'
'Proč_'
'Palace_'
'Other_'
'JavaScript_'
'First_'
'Development_'
'Africa_'
'? _'
'--_'
'život_'
'čí_'
'zájmu_'
'y'
'works_'
'tu'
'tell_'
'ských_'
'provádění_'
'proces_'
'priority_'
'pokračovat_'
'nástroje_'
'hour_'
'everyone_'
'dobré_'
'consider_'
'carried_'
'ca_'
'aci_'
'Russian_'
'Kromě_'
'Jako_'
'?" _'
' ('
'uvedené_'
'tomuto_'
'směrem_'
'rezervace_'
'recovery_'
'rd_'
'proti'
'proposed_'
'opět_'
'oblastí_'
'jednu_'
'hosty_'
'domestic_'
'certainly_'
'Many_'
'Legal_'
'Brussels_'
'Británie_'
'é'
'spíše_'
'sebou_'
'rich_'
'regionu_'
'purpose_'
'počtu_'
'otázka_'
'otázce_'
'menu_'
'krizi_'
'infrastructure_'
'industrial_'
'hot_'
'elegant_'
'dál_'
'dosažení_'
'cut_'
'cities_'
'below_'
'add_'
'War_'
'Vý'
'Vzhledem_'
'Další_'
'Currency_'
'Bylo_'
'32_'
'200_'
'“, _'
'če_'
'zam'
'zahraniční_'
'young_'
'ten'
'riziko_'
'reached_'
'příležitost_'
'předpisů_'
'providing_'
'pravděpodobně_'
'paragraph_'
'opravdu_'
'nature_'
'monetary_'
'lépe_'
'living_'
'laid_'
'jaké_'
'contact_'
'consumption_'
'comes_'
'brought_'
'ations_'
'Your_'
'Y'
'More_'
'Ireland_'
'Government_'
'života_'
'ž_'
'zboží_'
'webu_'
'un_'
'training_'
'sed_'
'rizika_'
'received_'
'použijte_'
'parkování_'
'největší_'
'ká_'
'ka'
'h'
'gs_'
'famous_'
'důsledky_'
'dříve_'
'door_'
'dlouho_'
'demokracie_'
'commitment_'
'Star_'
'I'
'Decision_'
'www_'
'wanted_'
'výsledky_'
'udělat_'
'trying_'
'síly_'
'sám_'
'spending_'
'request_'
'písm_'
'prospěch_'
'politics_'
'podniky_'
'nemá_'
'limits_'
'limit_'
'l'
'ko_'
'k'
'death_'
'consequences_'
'comfort_'
'carbon_'
'X'
'Vy'
'Such_'
'Staff_'
'Is_'
'EHS_'
'ři_'
'června_'
'území_'
'zavedení_'
'wrong_'
'week_'
'viz_'
'video_'
'via_'
'v'
'trhů_'
'toward_'
'starší_'
'risks_'
'regime_'
'principles_'
'pressure_'
'nová_'
'mého_'
'minut_'
'mentioned_'
'ladies_'
'jedna_'
'instantly_'
'huge_'
'cs_'
'budete_'
'av'
'an'
'Le'
'Ko'
'Book_'
'Bo'
'Although_'
'Al'
'údaje_'
'zpoplatněny_'
'výši_'
'vzdělávání_'
'vo'
'users_'
'types_'
'takes_'
'spolu_'
'snaží_'
'sektoru_'
'rozpočtu_'
'přitom_'
'produktů_'
'please_'
'nižší_'
'míst_'
'majority_'
'jiného_'
'existují_'
'ej_'
'effectively_'
'důvod_'
'došlo_'
'convenient_'
'ad'
'Terrace_'
'Please_'
'October_'
'Obama_'
'Madrid_'
'Inn_'
'IT_'
'Free_'
'De'
'500_'
'01_'
'systémů_'
'státům_'
'speak_'
'sound_'
'sobě_'
'simple_'
'reformy_'
'reference_'
'programy_'
'previous_'
'použít_'
'objectives_'
'např_'
'matters_'
'mail_'
'lidi_'
'každém_'
'internetové_'
'floor_'
'events_'
'důvodů_'
'district_'
'di_'
'despite_'
'decades_'
'd'
'circumstances_'
'base_'
'alespoň_'
'added_'
'accept_'
'Spa_'
'South_'
'Out_'
'November_'
'Just_'
'Click_'
'%, _'
'ští_'
'ňuje_'
'úroveň_'
'ímu_'
'án_'
'w'
'user_'
'throughout_'
'ter'
'successful_'
'spojení_'
'solidarity_'
'ráda_'
'rozvojových_'
'prezident_'
'prevent_'
'podniků_'
'nesmí_'
'metres_'
'innovation_'
'increasing_'
'granted_'
'g'
'fine_'
'felt_'
'fall_'
'ením_'
'ence_'
'decided_'
'da'
'consumer_'
'began_'
'avoid_'
'average_'
'applicable_'
'aniž_'
'Myslím_'
'January_'
'Great_'
'Agreement_'
'životní_'
'času_'
'záležitosti_'
'zhruba_'
'visit_'
'thinking_'
'tes_'
'study_'
'sources_'
'smyslu_'
'receive_'
'nejlepší_'
'nebyla_'
'měsíců_'
'mám_'
'jenž_'
'ist_'
'ina_'
'hear_'
'establishing_'
'efficient_'
'challenges_'
'challenge_'
'ad_'
'San_'
'Od_'
'Německo_'
'Most_'
'His_'
'16'
' . _'
'žádná_'
'ze'
'volby_'
'vnitřní_'
'unique_'
'unemployment_'
't'
'součástí_'
'rozšíření_'
'photo_'
'ovali_'
'nového_'
'místní_'
'learning_'
'labor_'
'komisaři_'
'integration_'
'instead_'
'initiative_'
'formulář_'
'financí_'
'ete_'
'elections_'
'develop_'
'cíl_'
'contribution_'
'chce_'
'beyond_'
'attractions_'
'anything_'
'annual_'
'Street_'
'Rusko_'
'Presidency_'
'Microsoft_'
'Hlídání_'
'Garden_'
') (_'
''._'
'žádosti_'
'zeměmi_'
'victims_'
'umožňuje_'
'tic_'
'te'
'sion_'
'reality_'
'přijetí_'
'produce_'
'problému_'
'packages_'
'ovala_'
'office_'
'nastavení_'
'míry_'
'myslím_'
'možnosti_'
'lu'
'každé_'
'increasingly_'
'gi'
'forces_'
'fear_'
'enter_'
'commercial_'
'celou_'
'card_'
'became_'
'allowed_'
']]._'
'Then_'
'OF_'
'Fi_'
'06_'
'%_'
'ž'
'Číny_'
'ík_'
'změnit_'
'zemědělství_'
'výzkumu_'
've'
'uji_'
'supported_'
'su_'
'skou_'
'reports_'
'prosince_'
'prezidenta_'
'politik_'
'peaceful_'
'partnerství_'
'on'
'odpovědnost_'
'náš_'
'lidem_'
'kontroly_'
'jedním_'
'j'
'intended_'
'inflation_'
'ické_'
'ian_'
'deficit_'
'cké_'
'aim_'
'Yet_'
'Turkey_'
'Le_'
'He'
'Doprava_'
'Asia_'
'45_'
'42_'
'300_'
'výrobků_'
'vést_'
'ul_'
'třídy_'
'sometimes_'
'running_'
'reforms_'
'ran'
'r'
'příležitosti_'
'potřeba_'
'path_'
'park_'
'online_'
'ob'
'novou_'
'note_'
'našeho_'
'nad'
'materials_'
'lou'
'hotels_'
'hodnocení_'
'establish_'
'easily_'
'cross_'
'compromise_'
'chvíli_'
'centru_'
'bodu_'
'beginning_'
'UK_'
'Since_'
'Možná_'
'March_'
'Family_'
'Amsterdam_'
'.)_'
'řešit_'
'ěji_'
'áním_'
'ána_'
'září_'
'zpět_'
'změn_'
'zen'
'výdaje_'
'vztahy_'
'utí_'
'třetí_'
'roky_'
'review_'
'relating_'
'před'
'powerful_'
'potřeby_'
'patients_'
'nákladů_'
'jednotlivých_'
'jednat_'
'fair_'
'expected_'
'event_'
'energetické_'
'efficiency_'
'dní_'
'direction_'
'c'
'bot_'
'aware_'
'ating_'
'ance_'
'achieved_'
']], _'
'Wi_'
'Tra'
'Te'
'Pen'
'Lu'
'Jestliže_'
'Inter'
'CA'
',' _'
' /_'
'výrobky_'
'velký_'
'velkou_'
'vaše_'
'up'
'tolik_'
'threat_'
'terrorism_'
'technologií_'
'team_'
'stejné_'
'st'
'sem_'
'rt'
'produced_'
'powers_'
'potřebné_'
'pleasant_'
'orgánů_'
'násilí_'
'nimi_'
'nez'
'nevy'
'n'
'listopadu_'
'hy_'
'forms_'
'eyes_'
'eur_'
'emisí_'
'emerging_'
'dohoda_'
'deep_'
'content_'
'connection_'
'calls_'
'budoucnosti_'
'boj_'
'be'
'ated_'
'Zpráva_'
'St_'
'Security_'
'Ru'
'Policy_'
'Pe'
'NE'
'Can_'
'Byl_'
'Avšak_'
'2'
', “_'
'ň_'
'úvahu_'
'zákona_'
'zat'
'voice_'
'vody_'
'useful_'
'ur_'
'stavu_'
'shows_'
'sh_'
'server_'
'responsible_'
'reduction_'
'president_'
'používat_'
'plánu_'
'offered_'
'obavy_'
'nebudou_'
'nearby_'
'met_'
'measure_'
'kých_'
'krok_'
'kept_'
'jurisdiction_'
'investic_'
'focus_'
'establishment_'
'en'
'dohodu_'
'daleko_'
'crime_'
'cover_'
'complex_'
'bility_'
'ans_'
'agenda_'
'administrative_'
'Web_'
'Výboru_'
'Vážený_'
'Také_'
'Prime_'
'Popis_'
'Party_'
'Only_'
'Ma'
'Having_'
'GNU_'
'Child_'
'95_'
'92_'
'%._'
'životního_'
'Š'
'čímž_'
'ány_'
'à_'
'zbraní_'
'zase_'
'věc_'
'výdajů_'
'vstupenek_'
'vede_'
'určité_'
'technologie_'
'swimming_'
'strana_'
'six_'
'served_'
'search_'
'potřebujeme_'
'pokroku_'
'pod'
'platnost_'
'phone_'
'pa'
'ováním_'
'ovaly_'
'obyvatel_'
'ning_'
'news_'
'naprosto_'
'month_'
'massive_'
'lives_'
'jinak_'
'jasné_'
'independent_'
'ik'
'ha_'
'green_'
'failed_'
'extent_'
'expect_'
'ely_'
'el'
'duty_'
'claim_'
'chování_'
'cheap_'
'celý_'
'caused_'
'cal_'
'assets_'
'abych_'
'Tu'
'Rodinné_'
'National_'
'11'
'). _'
''' _'
'ť_'
'čních_'
'členskými_'
'úlohu_'
'zřejmě_'
'window_'
'violence_'
'vhodné_'
'tra'
'technologies_'
'takový_'
'students_'
'stane_'
'section_'
'school_'
'rámec_'
'roli_'
'pár_'
'poskytnout_'
'panu_'
'oz'
'obchod_'
'nutí_'
'nd_'
'monitoring_'
'mis'
'me'
'kroky_'
'kem_'
'influence_'
'hospodářský_'
'himself_'
'han'
'enforcement_'
'ekonomické_'
'aspects_'
'answer_'
'alternative_'
'agreements_'
'Rome_'
'Ro'
'Navíc_'
'Finally_'
'Europeans_'
'Díky_'
'Description_'
'April_'
'15'
'05_'
'., _'
'žádost_'
'změně_'
'written_'
'worked_'
'wellness_'
'waste_'
'warm_'
'výsledek_'
'vliv_'
'umožní_'
'ul'
'turned_'
'společného_'
'ses_'
'seem_'
'ru_'
'průmyslu_'
'programs_'
'používání_'
'ped_'
'offering_'
'od'
'oblast_'
'objective_'
'němž_'
'návrhů_'
'nemají_'
'mění_'
'mg_'
'limited_'
'ks_'
'kromě_'
'konečně_'
'kernel_'
'justice_'
'includes_'
'highly_'
'guarantee_'
'ground_'
'gave_'
'fishing_'
'et'
'es'
'entry_'
'dělat_'
'diskuse_'
'die_'
'desk_'
'dangerous_'
'damage_'
'criminal_'
'communication_'
'code_'
'ce'
'budoucnost_'
'ar'
'ané_'
'Shop_'
'Sauna_'
'Plaza_'
'Last_'
'Jeho_'
'Itálie_'
'Iráku_'
'AR'
'08_'
'základních_'
'ví_'
'též_'
'tehdy_'
'sítě_'
'stran_'
'se'
'saw_'
'regarding_'
'read_'
'prosím_'
'promote_'
'pre_'
'pravidel_'
'post_'
'pon'
'pom'
'performance_'
'operation_'
'neza'
'material_'
'inside_'
'heard_'
'game_'
'fuel_'
'ey_'
'eri'
'dát_'
'dvěma_'
'dosud_'
'domácí_'
'dollar_'
'context_'
'concern_'
'by'
'bu'
'ba'
'assessment_'
'anti'
'Pod'
'Old_'
'Nej'
'Ne'
'MMF_'
'Latin_'
'Kosovo_'
'Ke'
'Hu'
'Here_'
'Babysitting_'
'2015_'
'1990_'
'řádu_'
'členským_'
'ární_'
'zi'
'výzkum_'
'vývoj_'
'vztahu_'
'uz'
'uni'
'um'
'tri'
'transfer_'
'talking_'
'sti'
'speed_'
'slova_'
'send_'
'sectors_'
'rozdíl_'
'ro_'
'release_'
'reading_'
'pět_'
'pre'
'později_'
'ovány_'
'obrovské_'
'obou_'
'někdy_'
'někdo_'
'nýbrž_'
'nej'
'máte_'
'maintain_'
'konci_'
'ko'
'king_'
'institucí_'
'ical_'
'hodnotu_'
'facing_'
'dokud_'
'disease_'
'ců_'
'criteria_'
'contribute_'
'confidence_'
'claims_'
'cestách_'
'cen'
'buffet_'
'bez'
'bazén_'
'advanced_'
'Trek_'
'Therefore_'
'Korea_'
'Italian_'
'IMF_'
'75_'
'!"_'
' ,,_'
'ženy_'
'řadě_'
'Čištění_'
'zo'
'změnu_'
'z'
'verze_'
'vedení_'
'ukáže_'
'task_'
'svobody_'
'stayed_'
'stage_'
'soubor_'
'pra'
'povinnost_'
'postup_'
'politice_'
'okamžitě_'
'ni'
'neexistuje_'
'mapě_'
'ký_'
'it'
'http_'
'gen'
'fire_'
'finally_'
'else_'
'dopravy_'
'dialogue_'
'cím_'
'contains_'
'changed_'
'cenu_'
'bodies_'
'bio'
'art_'
'anyone_'
'aimed_'
'Ukraine_'
'Ticket_'
'Sta'
'Skupina_'
'Přesto_'
'Per'
'Oh_'
'Od'
'Ju'
'Ja'
'Gu'
'Fitness_'
'Fi'
': '
'řekla_'
'závazky_'
'zásady_'
'zvířat_'
'zaměstnanosti_'
'yn'
'významné_'
'vlastně_'
'veškeré_'
'uvedených_'
'usually_'
'unless_'
'týče_'
'strategic_'
'sent_'
'seemed_'
'ropy_'
'rad'
'prvním_'
'prom'
'prepared_'
'podporovat_'
'partners_'
'ostatních_'
'ones_'
'občané_'
'občany_'
'nástroj_'
'nikoliv_'
'nedávno_'
'mission_'
'middle_'
'mezinárodních_'
'man'
'kop'
'kon'
'kapitálu_'
'jší_'
'jte_'
'illegal_'
'il'
'ha'
'gone_'
'getting_'
'firmy_'
'files_'
'failure_'
'external_'
'dost_'
'de'
'dat_'
'conference_'
'completely_'
'chcete_'
'bi'
'begin_'
'ační_'
'avast_'
'attack_'
'aly_'
'ali'
'Social_'
'Radě_'
'Pa'
'III_'
'Du'
'Dnes_'
'Arab_'
'34_'
'.._'
' ) ._'
'řadu_'
'čního_'
'účely_'
'zd'
'vztahů_'
'touto_'
'tool_'
'talk_'
'stí_'
'stalo_'
'spa_'
'snadno_'
'směrnici_'
'sm_'
'skupin_'
'sil_'
'serve_'
'scientific_'
'science_'
'scale_'
'sazby_'
'rukou_'
'rozvojové_'
'res_'
'republiky_'
'relation_'
'reducing_'
'record_'
'případ_'
'představují_'
'průběhu_'
'properly_'
'problémů_'
'pracovat_'
'pozměňovací_'
'posílení_'
'places_'
'pi'
'pat'
'ok'
'nější_'
'net_'
'nepo'
'ned_'
'nebyly_'
'nearly_'
'mo'
'methods_'
'ma'
'království_'
'jedná_'
'ine_'
'implement_'
'grounds_'
'formy_'
'follow_'
'ez'
'equal_'
'election_'
'draft_'
'demokracii_'
'dar'
'daně_'
'dalším_'
'centra_'
'car'
'built_'
'build_'
'animals_'
'aj'
'Un'
'Rád_'
'Před_'
'Ob'
'Nařízení_'
'Evropu_'
'Del'
'De_'
'Church_'
'Britain_'
'According_'
' –, _'
' ''_'
'ův_'
'ů'
'ština_'
'ěte_'
'čtyři_'
'července_'
'zákon_'
'zájmy_'
'zne'
'web_'
'und_'
'týkajících_'
'starting_'
'round_'
'přes'
'pu'
'pro'
'pravdu_'
'postoj_'
'post'
'port_'
'pokrok_'
'ping_'
'otherwise_'
'ory_'
'options_'
'officials_'
'odpověď_'
'nejméně_'
'map_'
'loss_'
'len'
'learn_'
'implemented_'
'hle_'
'happen_'
'furnished_'
'funding_'
'fond_'
'evropský_'
'ele'
'doesn_'
'degree_'
'applied_'
'appear_'
'amerických_'
'Už_'
'Section_'
'RE'
'Pří'
'Právě_'
'Palestinian_'
'PO'
'Nice_'
'Nations_'
'Mám_'
'Mon'
'Mar'
'0'
'.'
'ří_'
'ějších_'
'čím_'
'čí'
'Členské_'
'íci_'
'Ã_'
'Á'
'zůstává_'
'zdá_'
'wine_'
'věcí_'
'vzdělání_'
'vin'
'update_'
'union_'
'těmto_'
'ts'
'telephone_'
'statement_'
'sing_'
'selection_'
'schopnost_'
'regulations_'
'ready_'
'provision_'
'programmes_'
'produkty_'
'povinnosti_'
'podpora_'
'ova_'
'original_'
'older_'
'nut'
'nor_'
'nikoli_'
'naopak_'
'moderní_'
'mm_'
'minimum_'
'mas'
'mar'
'links_'
'latest_'
'kterém_'
'jestli_'
'ina'
'improving_'
'har'
'fy_'
'fiskální_'
'finančního_'
'ena_'
'dostat_'
'doporučení_'
'do'
'dit_'
'disk_'
'closed_'
'cho'
'cestu_'
'ati'
'animal_'
'amendments_'
'affected_'
'Zahrada_'
'Ver'
'Velká_'
'Tri'
'TE'
'Suite_'
'Si'
'Se'
'Resort_'
'Pi'
'PT_'
'Located_'
'July_'
'Jsou_'
'Jo'
'Human_'
'Gra'
'George_'
'El'
'Economic_'
'DVD_'
'Be'
'Austria_'
'://_'
': „_'
'48_'
'37_'
'číslo_'
'ád'
'zone_'
'značné_'
'zahraničí_'
'voting_'
'vnitrostátní_'
'učinit_'
'uvnitř_'
'ut'
'tried_'
'thumbnail_'
'stock_'
'snížit_'
'shuttle_'
'ser'
'ro'
'příslušné_'
'přistýlky_'
'programů_'
'processing_'
'potřebuje_'
'politickou_'
'podniku_'
'placed_'
'pil'
'ována_'
'ovací_'
'nejvyšší_'
'mal'
'laws_'
'inter'
'import_'
'id_'
'happy_'
'era_'
'eny_'
'ensuring_'
'elements_'
'dopad_'
'dle_'
'distribution_'
'defined_'
'covered_'
'cosy_'
'competitive_'
'coffee_'
'ck'
'cestě_'
'cesty_'
'bá'
'board_'
'approved_'
'Villa_'
'Vi'
'Ta'
'Shuttle_'
'Rights_'
'Pře'
'God_'
'En'
'Egypt_'
'EL_'
'Don_'
'CI'
': "_'
'55_'
'33_'
'ží_'
'zřejmé_'
'zvýšit_'
'zu'
'zp'
'znění_'
'zařízených_'
'wo'
'vládu_'
'val_'
'uvedeného_'
'ukazuje_'
'u'
'tro'
'tohle_'
'tní_'
'taxes_'
'target_'
'stávajících_'
'studies_'
'stand_'
'sou'
'solutions_'
'seznamu_'
'různé_'
'ročně_'
'regards_'
'případně_'
'přesto_'
'přesně_'
'proper_'
'povolen'
'podíl_'
'plus_'
'ován_'
'osobní_'
'ode'
'nation_'
'levé_'
'infrastruktury_'
'immigration_'
'image_'
'hodinu_'
'hlasovat_'
'hands_'
'hal'
'ge'
'garden_'
'expensive_'
'expenditure_'
'decide_'
'dark_'
'comprehensive_'
'cold_'
'chtějí_'
'che'
'chceme_'
'break_'
'anebo_'
'al'
'acts_'
'Ya'
'Well_'
'Unie_'
'Station_'
'Shoe_'
'Protože_'
'Pra'
'Plný_'
'Nyní_'
'Mediterranean_'
'Cor'
'Beach_'
'Bar'
'Articles_'
'Aby_'
'?“_'
'47_'
'00'
'še'
'ěl'
'člověk_'
'činnost_'
'zemědělské_'
'whom_'
'vr'
'vojenské_'
'veřejného_'
'ver_'
'velkých_'
'variety_'
'ur'
'tří_'
'tor_'
'thanks_'
'státě_'
'started_'
'star'
'stanovisko_'
'stanovené_'
'soudržnosti_'
'sol'
'slovy_'
'prosperity_'
'postupu_'
'podporuje_'
'ori'
'organisations_'
'opening_'
'ochraně_'
'ném_'
'názor_'
'noise_'
'mé_'
'minulosti_'
'milk_'
'metro_'
'jinými_'
'interested_'
'ia'
'hospodářskou_'
'hol'
'hi'
'fo'
'existence_'
'easier_'
'cího_'
'critical_'
'correct_'
'ci'
'choose_'
'born_'
'ble'
'ben'
'back'
'argument_'
'ající_'
'abyste_'
'University_'
'Sa'
'Ruska_'
'Prague_'
'No'
'Ji'
'J_'
'Full_'
'Di'
'Convention_'
'Byla_'
'Apartments_'
'88_'
'7'
'. '
' -- _'
'října_'
'řečeno_'
'ál_'
'Írán_'
'zdravotní_'
'worth_'
'využívání_'
'ust'
'sub'
'ste'
'skupina_'
'režim_'
'regulatory_'
'pěti_'
'průmysl_'
'plans_'
'out'
'ost'
'okamžitou_'
'nějaké_'
'nikdo_'
'můj_'
'mí'
'movement_'
'mohu_'
'mezi'
'maximum_'
'ler_'
'leadership_'
'knew_'
'intervention_'
'imports_'
'hranice_'
'ery_'
'ekonomika_'
'dubna_'
'domů_'
'dispute_'
'conditioning_'
'bly_'
'attempt_'
'applies_'
'apartmá_'
'agencies_'
'ably_'
'Všichni_'
'Software_'
'Shine_'
'Saint_'
'Pro'
'PPE_'
'Opera_'
'Lo'
'Lisabonské_'
'Indie_'
'Financial_'
'During_'
'Během_'
'Barcelona_'
'09_'
'š'
'řada_'
'ř'
'činí_'
'če'
'Číně_'
'úspěch_'
'áz'
'zemím_'
'wing_'
'weeks_'
'vedoucí_'
'understanding_'
'téma_'
'tou'
'ties_'
'taková_'
'stars_'
'správné_'
'scope_'
'reduced_'
'původu_'
'příjmy_'
'purposes_'
'prostoru_'
'pocit_'
'pe'
'oči_'
'over'
'ovaných_'
'organisation_'
'opposition_'
'obětí_'
'normal_'
'ng'
'nepro'
'nem'
'nd'
'medium_'
'managed_'
'lidská_'
'leader_'
'kur'
'kov'
'každého_'
'jméno_'
'is'
'instruments_'
'ideální_'
'ici'
'hospodářského_'
'generally_'
'forced_'
'fondu_'
'father_'
'evening_'
'eurozóny_'
'ekonomiku_'
'du'
'doubt_'
'dluhu_'
'discrimination_'
'des'
'cuisine_'
'creation_'
'competitiveness_'
'celkové_'
'burden_'
'bohužel_'
'ana_'
'akce_'
'adequate_'
'a'
'USD_'
'TO_'
'Saw_'
'Rozhodnutí_'
'Poland_'
'Například_'
'Me'
'Li'
'Justice_'
'Jacuzzi_'
'CS_'
'Berlin_'
'Ben'
'Because_'
'38_'
'3'
'27'
'25'
'ět_'
'úplně_'
'è'
'áme_'
'základ_'
'zaktivujete_'
'wants_'
'výkon_'
'un'
'tvoří_'
'trust_'
'trans'
'stanovení_'
'someone_'
'smlouva_'
'religious_'
'příloze_'
'péče_'
'právního_'
'producers_'
'presented_'
'politický_'
'politici_'
'parents_'
'oni'
'om'
'něm_'
'nosti_'
'nemusí_'
'mp'
'mid_'
'machine_'
'luxurious_'
'lovely_'
'link_'
'legislative_'
'jenom_'
'ish_'
'io_'
'investments_'
'internetu_'
'identity_'
'her'
'goes_'
'giving_'
'gives_'
'ejte_'
'convert_'
'arrival_'
'applications_'
'ant'
'analysis_'
'als_'
'alo_'
']._'
'Ty_'
'Today_'
'Při'
'Putin_'
'Pak_'
'Ni'
'Manhattan_'
'Israeli_'
'Eastern_'
'Che'
'Americans_'
'65_'
'196'
'+_'
'“'
'е'
'žen'
'říká_'
'řídí_'
'členského_'
'účinnosti_'
'účinky_'
'én'
'át_'
'álně_'
'zajistí_'
'zabezpečení_'
'white_'
'wealth_'
'většinu_'
'vědět_'
'vím_'
'vi_'
'vehicles_'
'ut_'
'uplatňování_'
'ujte_'
'transparency_'
'tive_'
'svými_'
'suite_'
'standing_'
'rural_'
'ruce_'
'rt_'
'raised_'
'prop'
'practices_'
'pouhých_'
'poskytuje_'
'persons_'
'participation_'
'pacientů_'
'ově_'
'overall_'
'oc'
'občanům_'
'obligations_'
'nicméně_'
'ner_'
'moře_'
'let'
'ke'
'ism_'
'ir_'
'iny_'
'instalaci_'
'individuals_'
'financing_'
'fi'
'ed'
'dí_'
'dra'
'dnešní_'
'default_'
'continues_'
'competent_'
'chtěla_'
'banking_'
'ban'
'attacks_'
'adoption_'
'To'
'Spanish_'
'Sp'
'Sea_'
'Re'
'People_'
'Instead_'
'IV_'
'Gentoo_'
'Euro'
'Ab'
'22'
'01'
'...'
', '
'ším_'
'ěl_'
'či'
'Č'
'ä'
'ává_'
'zab'
'vět'
'ue_'
'trzích_'
'travel_'
'tor'
'terorismu_'
'takto_'
'svobodu_'
'stylish_'
'stanovit_'
'správně_'
'specified_'
'species_'
'součást_'
'skills_'
'sites_'
'shops_'
'schopnosti_'
'satellite_'
'reakce_'
'příjmů_'
'přibližně_'
'potřebují_'
'pohled_'
'podpořit_'
'podobě_'
'plu'
'oznámení_'
'ou'
'ot_'
'operations_'
'obě_'
'normy_'
'neš'
'net'
'nena'
'najít_'
'měst_'
'mu'
'moral_'
'mode_'
'mobility_'
'mi'
'mainly_'
'lní_'
'lines_'
'kulturní_'
'jestliže_'
'jejích_'
'jedno_'
'investors_'
'independence_'
'im_'
'ify_'
'ie'
'ht'
'happened_'
'goals_'
'gar'
'ga'
'friends_'
'flu'
'fixed_'
'draw_'
'dr'
'dostatečně_'
'dlouhodobé_'
'din'
'ct_'
'creditors_'
'corruption_'
'changing_'
'chance_'
'celého_'
'ber'
'areálu_'
'ard_'
'applicant_'
'ana'
'adults_'
'Většina_'
'Stejně_'
'SV_'
'Mu'
'Its_'
'Děkuji_'
'Do'
'Archer_'
'Act_'
'87_'
'2020_'
') '
'о'
'ěr'
'zvláště_'
'zed_'
'začal_'
'weak_'
'ware_'
'war'
'věku_'
'výkonu_'
'využívat_'
'vlád_'
'těmito_'
'těm_'
'tourist_'
'tools_'
'tomorrow_'
'ti'
'thereof_'
'territory_'
'tel_'
'takového_'
'summit_'
'společnou_'
'speech_'
'shared_'
'selected_'
'says_'
'saying_'
'rozhodně_'
'recognition_'
'rec'
'ras'
'raise_'
'předtím_'
'představitelé_'
'prior_'
'possibility_'
'pokojích_'
'plant_'
'otázek_'
'název_'
'nemohou_'
'nebezpečí_'
'mě'
'moved_'
'manage_'
'lies_'
'lidské_'
'lic'
'labour_'
'ine'
'ians_'
'hlavním_'
'fresh_'
'farmers_'
'entered_'
'encourage_'
'een_'
'dospělí_'
'determined_'
'denně_'
'combination_'
'chudoby_'
'brzy_'
'boot_'
'amendment_'
'ale'
'accepted_'
'Zvukotěsné_'
'Wireless_'
'WTO_'
'Vol'
'Thus_'
'Those_'
'Soukromé_'
'Pre'
'Pool_'
'PA'
'Musí_'
'Ha'
'Global_'
'Each_'
'96_'
'31'
'2011_'
'říct_'
'úrovně_'
'át'
'zástupce_'
'zařízenými_'
'začít_'
'zan'
'zad'
'worse_'
'worldwide_'
'všeho_'
'vážně_'
'vysoce_'
'vládní_'
'vlastnictví_'
'uš'
'uvádí_'
'uses_'
'těžké_'
'tvrdí_'
'treaty_'
'tiv'
'testing_'
'terrace_'
'tele'
'sta'
'ssi'
'současně_'
'sm'
'sitting_'
'ret'
'remove_'
'rd'
'railway_'
'qua'
'prostor_'
'proof_'
'projekty_'
'požádat_'
'poskytování_'
'poprvé_'
'planet_'
'passed_'
'option_'
'operating_'
'oj'
'odi'
'neměla_'
'navzdory_'
'nav'
'namely_'
'nam'
'míře_'
'multi'
'menší_'
'membership_'
'meaning_'
'majetku_'
'lem_'
'ku'
'krizí_'
'konce_'
'kg_'
'join_'
'jednoduše_'
'iz'
'ir'
'implementing_'
'ible_'
'hov'
'helped_'
'hair_'
'fen'
'evropskou_'
'eth'
'er'
'ents_'
'důvěru_'
'důležitá_'
'dárky_'
'domnívám_'
'dobrou_'
'determine_'
'dan'
'creating_'
'compared_'
'che_'
'chci_'
'budoucí_'
'budoucnu_'
'bohatství_'
'binding_'
'amended_'
'allows_'
'agentury_'
'Ti'
'Teď_'
'System_'
'Swimming_'
'Su'
'Sat'
'Royal_'
'První_'
'Polish_'
'Ol'
'Obchod_'
'Izrael_'
'In'
'IP_'
'Greek_'
'GBP_'
'Domnívám_'
'CH'
'CE_'
'Bur'
'Bal'
'Ar'
'52_'
'49_'
'36_'
'237'
'2012_'
'197'
'* _'
'že'
'ějším_'
'člen_'
'účast_'
'ít_'
'zásadě_'
'zrušení_'
'zachování_'
'win_'
'výbor_'
'vys'
'vybavení_'
'vod'
'vil'
'vidět_'
'velká_'
'uti'
'tudíž_'
'tou_'
'suvenýry_'
'str'
'spoke_'
'spent_'
'sociálního_'
'sociálních_'
'sky_'
'separate_'
'scheme_'
'ri'
'relaxing_'
'relatively_'
'relationship_'
'raz'
'rady_'
'přinejmenším_'
'péči_'
'pursuant_'
'produkce_'
'prime_'
'pravomoci_'
'pořádku_'
'plat'
'peněz_'
'payment_'
'orgán_'
'org_'
'obecně_'
'někteří_'
'neo'
'nech'
'nations_'
'najdete_'
'motor'
'metrů_'
'mark_'
'manželství_'
'linked_'
'liked_'
'letter_'
'ledna_'
'kr'
'koliv_'
'klasifikovaný_'
'kandidát'
'joint_'
'jiný_'
'ist'
'interesting_'
'insurance_'
'hu_'
'hodně_'
'highest_'
'gro'
'ges_'
'except_'
'eno_'
'ene'
'ek'
'differences_'
'continued_'
'construction_'
'conclusion_'
'bodem_'
'blood_'
'ahead_'
'[[_'
'Young_'
'Val'
'Thank_'
'Ten_'
'Soviet_'
'Sen'
'Rovněž_'
'Pol'
'Man'
'LA'
'John_'
'Hi'
'Bu'
'Bel'
'An'
'Affairs_'
'86_'
','
'ي_'
'и'
'ši'
'čt'
'č'
'úřad_'
'Í_'
'zt'
'způsoby_'
'zaměstnanců_'
'zahájení_'
'zahrnuje_'
'ya'
'válce_'
'vá'
'využití_'
'vají_'
'ujících_'
'uch'
'tě'
'treated_'
'traffic_'
'souboru_'
'slow_'
'ske'
'seeking_'
'seek_'
'save_'
'rizik_'
'rising_'
'rig'
'replaced_'
'přesvědčen_'
'projektu_'
'priorities_'
'press_'
'pou'
'pn'
'plynu_'
'picture_'
'ovým_'
'opi'
'ol'
'obtained_'
'obchodních_'
'ná'
'neu'
'mini_'
'millions_'
'method_'
'map'
'lí'
'lá'
'ln'
'literature_'
'listed_'
'kterého_'
'kové_'
'kompletní_'
'kol_'
'ken'
'každou_'
'jejím_'
'jedno'
'iv'
'issued_'
'introduced_'
'immediate_'
'hřiště_'
'hlavních_'
'ger_'
'gap_'
'ga_'
'function_'
'for'
'fa'
'expressed_'
'evaluation_'
'enti'
'ent'
'ement_'
'ela_'
'dob'
'decade_'
'dal'
'cuts_'
'cop'
'click_'
'cer'
'cel'
'cally_'
'businesses_'
'bud'
'bodě_'
'black_'
'bel'
'appointed_'
'ak_'
'Zároveň_'
'Two_'
'Sha'
'Pu'
'Pot'
'PSE_'
'Návrh_'
'NÍ_'
'Může_'
'Mexico_'
'Location_'
'La'
'Jaké_'
'IT'
'Google_'
'Funds_'
'February_'
'Evropským_'
'Dom'
'Ci'
'Cel'
'Also_'
'?'_'
'1'
')(_'
' ?_'
' > _'
' "'
'žádnou_'
'žn'
'šího_'
'ři'
'úřadující_'
'ó'
'ét'
'yš'
'yourself_'
'wonderful_'
'website_'
'vyt'
'vydání_'
'vra'
'vely_'
'truth_'
'sílu_'
'sts_'
'stránek_'
'structure_'
'společný_'
'select_'
'sad'
'sa_'
'rov'
'ri_'
'reservation_'
'removed_'
'reakci_'
'rapid_'
'queries_'
'přílohy_'
'příklad_'
'prostě_'
'procent_'
'postupů_'
'politicians_'
'pleased_'
'plants_'
'pla'
'paměti_'
'opened_'
'ona_'
'národů_'
'numbers_'
'nes_'
'neod'
'negative_'
'možno_'
'mother_'
'mon'
'migration_'
'maximální_'
'lib'
'lat'
'lad'
'keeping_'
'jít_'
'jelikož_'
'introduction_'
'installed_'
'impossible_'
'há'
'fantastic_'
'expression_'
'exercise_'
'eva'
'enc'
'dly_'
'dialogu_'
'den'
'definition_'
'debtor_'
'crucial_'
'corporate_'
'coordination_'
'contain_'
'consideration_'
'con'
'compensation_'
'boji_'
'bod'
'ay_'
'arms_'
'approval_'
'appears_'
'apartments_'
'adopt_'
'accession_'
'Výbor_'
'USS_'
'Svatební_'
'Sk'
'Set_'
'Q'
'Phlox_'
'Op'
'Official_'
'Německu_'
'Některé_'
'Net'
'Měli_'
'Má_'
'Ku'
'Ka'
'Ještě_'
'Je'
'Islamic_'
'Go'
'Gi'
'Come_'
'Centrum_'
'Car'
'Bor'
'Amerika_'
'30'
'150_'
'02_'
'...._'
'členský_'
'činností_'
'úkol_'
'ících_'
'změna_'
'ys_'
'woman_'
'willing_'
'vývoje_'
'vynikající_'
'votes_'
'události_'
'udržet_'
'tí'
'trochu_'
'tre'
'temporary_'
'takových_'
'sufficient_'
'structural_'
'strategii_'
'stala_'
'sr'
'spend_'
'soudního_'
'si'
'ry'
'rozpočet_'
'rozhodnutím_'
'rn'
'requested_'
'represent_'
'recommend_'
'případů_'
'při'
'přep'
'prvního_'
'pros'
'poslanci_'
'pojištění_'
'podpoře_'
'podařilo_'
'par'
'ovalo_'
'ously_'
'otázkách_'
'os'
'origin_'
'ons'
'odv'
'odstranění_'
'nu'
'no'
'networks_'
'nejprve_'
'ms_'
'možností_'
'mov'
'mn'
'mit'
'marriage_'
'love_'
'lose_'
'lodi_'
'largely_'
'kvality_'
'jaký_'
'ium_'
'item_'
'instrument_'
'institutional_'
'ictví_'
'hor'
'holding_'
'friend_'
'elected_'
'edn'
'dé'
'dá_'
'dveře_'
'druhou_'
'dokument_'
'discussion_'
'dialog_'
'der'
'demands_'
'ded_'
'dd'
'dané_'
'cra'
'core_'
'committed_'
'března_'
'budu_'
'auto'
'amenities_'
'aktualizace_'
'accounts_'
'\\_'
'XviD_'
'Turecko_'
'Text_'
'Tal'
'So'
'SP'
'Romania_'
'Report_'
'Protocol_'
'PC_'
'Netherlands_'
'Muslim_'
'Mezinárodní_'
'Lake_'
'Kdo_'
'Information_'
'Ho'
'Health_'
'Harry_'
'Gar'
'Fa'
'Evropském_'
'Earth_'
'EC'
'Dále_'
'Co'
'Bezdrátové_'
'Ber'
'Area_'
'Are_'
'Ameriky_'
'African_'
'AT'
'91_'
'44_'
'39'
'13'
'),_'
'л'
'ších_'
'škol'
'Řecko_'
'ět'
'úřadu_'
'účinné_'
'ón_'
'zůstat_'
'zí_'
'zz'
'zní_'
'zing_'
'zin'
'zatím_'
'yt'
'xi'
'weapons_'
'wa'
'věd'
'východní_'
'vstupu_'
'vnější_'
'van'
'uk'
'the'
'targets_'
'tan'
'svá_'
'stá'
'structures_'
'strongly_'
'stone_'
'stations_'
'stal_'
'sleep_'
'series_'
'sen'
'sami_'
'sama_'
'sal'
'sa'
'rozhodnout_'
'resulting_'
'renovated_'
'reg'
'reforem_'
'publication_'
'právem_'
'projektů_'
'pri'
'pov'
'používá_'
'populace_'
'politická_'
'pohybu_'
'podstatě_'
'ole'
'okolností_'
'og'
'národních_'
'nts_'
'newly_'
'medical_'
'luxury_'
'losses_'
'lit'
'lidmi_'
'les'
'las_'
'judicial_'
'judge_'
'jistě_'
'jich_'
'jednotlivé_'
'jazyk_'
'jakým_'
'jakou_'
'integrace_'
'institution_'
'install_'
'iniciativy_'
'informed_'
'inform_'
'ile'
'ideas_'
'ide_'
'hrad'
'he'
'generation_'
'formou_'
'fore'
'firms_'
'fast_'
'expectations_'
'error_'
'ero'
'enterprises_'
'děje_'
'dot'
'dosaženo_'
'dojde_'
'dn'
'described_'
'dead_'
'contemporary_'
'concrete_'
'con_'
'committee_'
'collapse_'
'chránit_'
'carry_'
'booking_'
'bear_'
'ava'
'alt'
'alo'
'Syria_'
'Soundproofed_'
'Sol'
'Second_'
'RO_'
'Nicméně_'
'Network_'
'Mer'
'MA'
'Kon'
'Jejich_'
'Code_'
'Bez_'
'August_'
'Asian_'
'99_'
'26'
'1994_'
'02'
'—_'
'žení_'
'ří'
'čen'
'ö'
'í'
'zavést_'
'whereas_'
'wan'
'výsledků_'
'vir'
'vedle_'
'va'
'uznání_'
'us'
'týden_'
'to'
'tly_'
'technological_'
'supports_'
'substance_'
'stávající_'
'stu'
'strengthen_'
'stranu_'
'sporu_'
'sport_'
'spolupracovat_'
'south_'
'smrti_'
'sledování_'
'slab'
'sla'
'sign_'
'shift_'
'screen_'
'sauna_'
'ru'
'rozdělení_'
'ros'
'relative_'
'race_'
'příští_'
'příležitostí_'
'přispět_'
'přet'
'přestože_'
'předchozí_'
'provedení_'
'productivity_'
'používají_'
'potřebu_'
'potom_'
'postupy_'
'postupně_'
'politického_'
'oproti_'
'okamžiku_'
'obligation_'
'o'
'nými_'
'nul'
'notice_'
'nk'
'nepři'
'navržen'
'nar'
'na'
'mutual_'
'mot'
'modified_'
'ml'
'mise_'
'mezinárodního_'
'mention_'
'mel'
'meant_'
'lodí_'
'leisure_'
'le'
'killed_'
'je'
'jaderné_'
'inu_'
'increases_'
'in'
'hvězdičkami_'
'humanitarian_'
'hned_'
'gu'
'gon'
'gan'
'funkce_'
'fungování_'
'fund_'
'eventually_'
'eu'
'ere'
'era'
'equivalent_'
'emise_'
'ekonomice_'
'dnem_'
'decline_'
'daily_'
'condition_'
'communities_'
'cohesion_'
'causes_'
'can'
'buy_'
'bath_'
'banka_'
'balcony_'
'at'
'associated_'
'ade'
'Zá'
'Which_'
'Town_'
'Their_'
'Sm'
'Server_'
'Roma_'
'Research_'
'Před'
'Právní_'
'Paul_'
'PE'
'Ok'
'Naše_'
'Mo'
'Mil'
'LI'
'Kam'
'Her'
'Golf_'
'Gaza_'
'Furthermore_'
'Francii_'
'Euro_'
'Da'
'DE'
'Chtěl_'
'Barroso_'
'9'
'44'
'38'
'1996_'
'… _'
'škody_'
'šest_'
'členy_'
'čem_'
'úrokové_'
'ú'
'íš_'
'Íránu_'
'západní_'
'zjistit_'
'založení_'
'yb'
'whatever_'
'wait_'
'vě'
'výsledkem_'
'válka_'
'vzít_'
'vzájemně_'
'vyzývá_'
'vi'
'ven_'
'usi'
'určitě_'
'ukončení_'
'tvář_'
'transactions_'
'tours_'
'technické_'
'super'
'subsidies_'
'státních_'
'stress_'
'správy_'
'spotřebitelů_'
'spoken_'
'spojen'
'spa'
'sp'
'ském_'
'shed_'
'seven_'
'sat_'
'rá'
'rozprava_'
'rea'
'rav'
'pří'
'presence_'
'považuje_'
'pop'
'poněvadž_'
'plné_'
'physical_'
'peri'
'pages_'
'ož'
'ovými_'
'oprav'
'op'
'obědu_'
'oa'
'nějaký_'
'ními_'
'nt'
'nově_'
'nepod'
'neměli_'
'nejvíce_'
'mír_'
'muži_'
'miliardy_'
'mer'
'manner_'
'malých_'
'loď_'
'led'
'kého_'
'kam_'
'jn'
'jaderných_'
'ing'
'incentives_'
'ide'
'hu'
'goal_'
'fruit_'
'families_'
'energii_'
'ej'
'diseases_'
'details_'
'cts_'
'controls_'
'considerable_'
'concept_'
'colleagues_'
'closely_'
'cing_'
'chov'
'cestou_'
'bul'
'bs'
'az'
'avi'
'atd_'
'article_'
'arrangements_'
'alternativ'
'ain_'
'aims_'
'af'
'absence_'
'Win'
'TI'
'Roz'
'Ra'
'Po'
'NEW_'
'Musím_'
'Japonsko_'
'High_'
'Hamas_'
'HIV_'
'Existuje_'
'Ernst_'
'ES'
'EN_'
'EN'
'Despite_'
'David_'
'Chi'
'C6_'
'Before_'
'Ba'
'Agency_'
'62_'
'5'
'39_'
'20'
'1995_'
'194'
'04_'
'', _'
'šel_'
'ňování_'
'ěné_'
'čn'
'ón'
'áte_'
'zor'
'zi_'
'zení_'
'zation_'
'zas'
'zap'
'wouldn_'
'widely_'
'wi'
'wall_'
'věřitel'
'vě_'
'výrobu_'
'výrazně_'
'vyp'
'voters_'
'ving_'
'une'
'typical_'
'tvrd'
'trval'
'trip_'
'tory_'
'tn'
'thereby_'
'tha'
'summer_'
'storage_'
'stable_'
'spread_'
'spravedlnosti_'
'spe'
'snižování_'
'slo'
'sko'
'sights_'
'sha'
'seriously_'
'secure_'
'rozvoji_'
'roze'
'rou'
'rod'
'ries_'
'revenue_'
'restore_'
'respond_'
'represents_'
'rejected_'
'regiony_'
'recession_'
'rating_'
'přítomn'
'přípravku_'
'přináší_'
'přece_'
'published_'
'prvé_'
'pravda_'
'počátku_'
'posouzení_'
'police_'
'pohledu_'
'plány_'
'ple'
'planning_'
'para'
'pain_'
'osobních_'
'ora'
'odpovědnosti_'
'nění_'
'nástrojů_'
'následující_'
'noci_'
'nit'
'nev'
'nap'
'names_'
'mos'
'mikro'
'lt'
'list'
'leaving_'
'května_'
'konec_'
'kolik_'
'ju'
'ji'
'immediately_'
'hodnot_'
'ho'
'hit_'
'guarantees_'
'ger'
'geo'
'fázi_'
'functioning_'
'fondů_'
'firem_'
'ff'
'fellow_'
'express_'
'exports_'
'ex_'
'ese_'
'enormous_'
'ei'
'dro'
'doufám_'
'divorce_'
'difference_'
'deseti_'
'cům_'
'copy_'
'consensus_'
'compliance_'
'comments_'
'chy_'
'cha'
'ch'
'cars_'
'budgetary_'
'bu_'
'bri'
'break'
'boje_'
'becoming_'
'asking_'
'aných_'
'ak'
'advokát'
']_'
'Ze'
'Var'
'Uni'
'Takže_'
'Situated_'
'Severní_'
'See_'
'ST'
'SI'
'Prostor_'
'Par'
'Once_'
'Mezi_'
'Martin_'
'Mac'
'Lou'
'Like_'
'Komisí_'
'Kar'
'Jsme_'
'Jen_'
'Irish_'
'Har'
'Gri'
'For'
'Fed_'
'Excellent_'
'Enjoy_'
'Conference_'
'Ca'
'Bruselu_'
'Bicycle_'
'Balíčky_'
'Bad_'
'Any_'
'Africe_'
'Ad'
'8'
'50'
'4'
'29'
'23'
'. (_'
'špatně_'
'členů_'
'členství_'
'České_'
'ü'
'án'
'závisí_'
'zásad_'
'zovat_'
'zemědělských_'
'zdůraznit_'
'zdarma_'
'zbraně_'
'zaměstnanost_'
'zabránit_'
'yes_'
'vyd'
'virus_'
'village_'
'určitou_'
'ures_'
'una'
'třetích_'
'tým_'
'touch_'
'tj_'
'th'
'test'
'stav_'
'sse'
'srdci_'
'spojených_'
'so'
'slovo_'
'sledovat_'
'sis_'
'signed_'
'sen_'
'samotné_'
'rot'
'rostoucí_'
'rokem_'
'rezervovat_'
'restrictions_'
'ren'
'referendum_'
'reasonable_'
'předsedy_'
'primary_'
'presidential_'
'povolení_'
'posílit_'
'polo'
'podob'
'plnění_'
'pl'
'payments_'
'ote'
'osoba_'
'organizací_'
'oral_'
'opo'
'omo'
'omezit_'
'ochotn'
'obvious_'
'objev'
'obchodování_'
'neob'
'neměl_'
'nejv'
'music_'
'ms'
'motion_'
'metody_'
'memory_'
'mechanism_'
'látek_'
'li'
'levné_'
'kot'
'kla'
'kami_'
'jm'
'jakož_'
'isk'
'ip'
'ion'
'invest_'
'integrated_'
'illi'
'ij'
'ier_'
'humanitární_'
'helping_'
'furniture_'
'ft_'
'fort'
'foot_'
'fondy_'
'follows_'
'flexible_'
'fisheries_'
'fish_'
'fields_'
'feature_'
'exist_'
'ex'
'ered_'
'ep'
'ených_'
'eni'
'ended_'
'earlier_'
'dž'
'dítěte_'
'download_'
'dose_'
'dohodě_'
'dodržování_'
'dny_'
'dluh_'
'dle'
'deli'
'decorated_'
'dealing_'
'contracts_'
'combined_'
'com'
'collection_'
'charming_'
'býval'
'buď_'
'buildings_'
'bonds_'
'ber_'
'balíčku_'
'ato'
'architecture_'
'ara'
'appeared_'
'and'
'amending_'
'advance_'
'Who_'
'West'
'Vaše_'
'VE'
'Time_'
'Star'
'Samozřejmě_'
'Residence_'
'Přestože_'
'Perhaps_'
'Pan'
'NL_'
'Mus'
'Kin'
'Island_'
'IS'
'Ge'
'Every_'
'Done_'
'Dan'
'Dalším_'
'Club_'
'Bridal_'
'Ať_'
'Amendment_'
'81_'
'64_'
'56_'
'24'
'. _'
'!" _'
'št'
'ření_'
'částky_'
'členové_'
'čelí_'
'ó_'
'áv'
'závazné_'
'začátku_'
'zast'
'yp'
'write_'
'weight_'
'výjimkou_'
'víme_'
'vyh'
'vrátit_'
'vity_'
'vel'
'vac'
'určitých_'
'under'
'una_'
'ua'
'trend_'
'tr'
'tk'
'tin'
'thousands_'
'sí_'
'supposed_'
'submit_'
'ss'
'square_'
'spojené_'
'spirit_'
'specifically_'
'související_'
'sort_'
'sor'
'směr'
'ským_'
'skupinu_'
'silně_'
'she'
'see'
'san'
'ruku_'
'roční_'
'remember_'
'recommended_'
'příjezdu_'
'provozu_'
'praxi_'
'practical_'
'pr'
'postup'
'poslanců_'
'poskytne_'
'positions_'
'per'
'ováno_'
'otázkou_'
'oo'
'odo'
'občanské_'
'obtain_'
'němu_'
'nutno_'
'notes_'
'noisy_'
'nezbytná_'
'nezaměstnanosti_'
'neither_'
'neh'
'nedávné_'
'nas'
'my'
'mluvit_'
'minority_'
'minimální_'
'min'
'mezinárodním_'
'mes_'
'med_'
'lu_'
'loans_'
'liv'
'lift_'
'licence_'
'lhůty_'
'latter_'
'kům_'
'kol'
'ker'
'jících_'
'jiným_'
'ja'
'items_'
'intellectual_'
'inde'
'ili'
'ih'
'ideally_'
'hotelových_'
'hlas'
'gain_'
'film_'
'fighting_'
'falling_'
'fakt_'
'fac'
'explain_'
'exactly_'
'ers'
'ering_'
'ená_'
'english_'
'emo'
'důležitou_'
'důkazy_'
'dí'
'drawn_'
'doma_'
'doc'
'dnů_'
'dinner_'
'dic'
'dia'
'daní_'
'cu'
'cru'
'crises_'
'cons'
'completed_'
'clo'
'chá'
'character_'
'category_'
'box_'
'bo'
'bit'
'berg_'
'argue_'
'adapt_'
'War'
'Vo'
'Ur'
'Tro'
'Tre'
'Souvenirs_'
'Solarium_'
'Shi'
'SM'
'Potřebujeme_'
'Plat'
'Ná'
'Neu'
'NT'
'NO'
'NA'
'Lidé_'
'Ham'
'Given_'
'Gift_'
'Fre'
'Ed'
'EEA_'
'Civil_'
'CO'
'Auto'
'At'
'Another_'
'Ale'
'Afghánistánu_'
'85_'
'77_'
'41_'
'250_'
'1997_'
'195'
'10'
'- (_'
' -, _'
'živ'
'žena_'
'ě'
'čin'
'ést_'
'áno_'
'áni_'
'Úř_'
'zlepšit_'
'zjištěn'
'yho_'
'xa'
'west_'
'wasn_'
'warming_'
'waiting_'
'věst_'
'věnovat_'
'výrob'
'východě_'
'vítězství_'
'vz'
'vyhnout_'
'voz'
'vol'
'vlastního_'
'viděl_'
'ubytovny_'
'tů_'
'tržní_'
'trading_'
'tho'
'swa'
'supporting_'
'suitable_'
'studie_'
'studi'
'staré_'
'southern_'
'sorry_'
'snahy_'
'smlouvu_'
'sle'
'skutečností_'
'ska_'
'sdělení_'
'sb'
'sanctions_'
'rámce_'
'rz'
'rte'
'rozv'
'rk'
'resort_'
'residence_'
're'
'rapidly_'
'radio_'
'přiv'
'představ'
'ps'
'protected_'
'pole_'
'playing_'
'personnel_'
'pe_'
'ovaný_'
'opposite_'
'odpad'
'nta'
'nim_'
'nepře'
'nejz'
'natolik_'
'named_'
'naděje_'
'měsíce_'
'mr'
'mobile_'
'mnohé_'
'manžel'
'léta_'
'látky_'
'log_'
'lev'
'kuřáky_'
'kt'
'kre'
'konfliktu_'
'kitchen_'
'ki'
'jejího_'
'jednotliv'
'jediný_'
'ja_'
'iště_'
'initiatives_'
'indicated_'
'improvements_'
'ian'
'hy'
'hostel_'
'host_'
'hospodářských_'
'hlas_'
'hl'
'happens_'
'grant_'
'gra'
'governance_'
'globálního_'
'ght_'
'forget_'
'followed_'
'fitness_'
'feeling_'
'eš_'
'eye_'
'extreme_'
'experts_'
'exc'
'equality_'
'ený_'
'enlargement_'
'enjoyed_'
'employees_'
'emergency_'
'důkazů_'
'drop_'
'dom'
'dol'
'dochází_'
'dm'
'demokratické_'
'dalšími_'
'dal_'
'ct'
'concluded_'
'co'
'clients_'
'cit'
'chl'
'chi'
'campaign_'
'cable_'
'bydliště_'
'bran'
'books_'
'bohat'
'bat'
'bankovní_'
'balíček_'
'au_'
'as'
'ante'
'amounts_'
'ambi'
'ah_'
'advantage_'
'adjustment_'
'addressed_'
'absolutely_'
'[ _'
'Wo'
'Vienna_'
'Ve'
'Va'
'UR'
'Trade_'
'Tom'
'Sto'
'Sal'
'Pri'
'Poz'
'Pos'
'Os'
'Mi'
'Mala'
'Lebanon_'
'Dv'
'Doufám_'
'Dobře_'
'DO'
'Croatia_'
'Afghanistan_'
'AIDS_'
'82_'
'72_'
'43_'
'198'
'с'
'žít_'
'žit'
'ště'
'ře'
'ěž'
'ček_'
'závěru_'
'zápis_'
'základního_'
'začala_'
'zar'
'wireless_'
'wider_'
'vzor'
'vytváření_'
'vyn'
'voleb_'
'volbách_'
'vl'
'verzi_'
'ury_'
'urgent_'
'toilet_'
'television_'
'tea_'
'strengthening_'
'stated_'
'souhlas'
'soudních_'
'soubory_'
'slu'
'ski_'
'sens'
'sel'
'schopni_'
'run'
'rozdíly_'
'ria_'
'rh'
'rest'
'rese'
'reported_'
'reflected_'
'rap'
'prováděn'
'prost'
'projekt_'
'prohlásil_'
'prob'
'precisely_'
'platit_'
'pis'
'pam'
'označen_'
'ort'
'ordinary_'
'or'
'oni_'
'omezen'
'oko'
'ok_'
'obsah_'
'nějakou_'
'novým_'
'neustále_'
'nel'
'negativní_'
'ned'
'našem_'
'najevo_'
'míra_'
'muže_'
'mus_'
'moje_'
'mladší_'
'ming_'
'mil'
'men'
'mail'
'lt_'
'lov'
'looks_'
'lig'
'lidu_'
'leží_'
'lending_'
'kontrol'
'katastrof'
'jo'
'jisté_'
'jist'
'jinou_'
'ič'
'ita'
'isation_'
'inflace_'
'inclusion_'
'improved_'
'identified_'
'holiday_'
'hlavy_'
'heading_'
'globalizace_'
'gen_'
'flat_'
'ečn'
'exclusive_'
'esl'
'eni_'
'element_'
'electricity_'
'důvody_'
'driver_'
'dostal_'
'dopravu_'
'dobrý_'
'diskusi_'
'difficulties_'
'di'
'detailed_'
'dent'
'cur'
'counter'
'contrary_'
'contract_'
'congratulate_'
'comply_'
'collective_'
'coal_'
'cla'
'chu_'
'chosen_'
'charges_'
'bro'
'borders_'
'bars_'
'bar'
'awarded_'
'aspect_'
'arrived_'
'app'
'ape'
'ann'
'ani'
'americká_'
'allowing_'
'agriculture_'
'affect_'
'Washington_'
'Wall_'
'Us'
'Unfortunately_'
'Under_'
'Turkish_'
'Tor'
'Ten'
'Tar'
'St'
'Special_'
'Sl'
'Sec'
'Sar'
'SE'
'Post'
'Port'
'Pat'
'Pakistan_'
'Packed_'
'On'
'Obecné_'
'Na'
'Minutes_'
'ME'
'Luxembourg_'
'Lunches_'
'Len'
'LE'
'Ky'
'Klingon_'
'Kde_'
'Každý_'
'IC'
'Hyper_'
'Get_'
'Ev'
'Em'
'Edition_'
'EU'
'ER'
'Dea'
'DA'
'Chci_'
'Center_'
'Bri'
'Bol'
'Až_'
'Art_'
'Angel'
'98_'
'93_'
'57_'
'46_'
'"'
'–_'
'н'
'řá'
'ňují_'
'čínské_'
'čení_'
'úst'
'února_'
'ávání_'
'ár'
'´_'
' % _'
'zítra_'
'záruk'
'zájmů_'
'zvyšuje_'
'zr'
'zodpovědnost_'
'zace_'
'yl'
'wind_'
'vů'
'většinou_'
'věděl_'
'výroby_'
'vztahuje_'
'vstup'
'vo_'
'vis'
'veřejnosti_'
'valid_'
'uč'
'urban_'
'unií_'
'unde'
'udělal_'
'ud_'
'ud'
'ub'
'typ_'
'tru'
'tis'
'theory_'
'talks_'
'takovou_'
'surrounding_'
'subsidiarity_'
'strength_'
'stra'
'stanoviska_'
'societies_'
'significantly_'
'sche'
'sales_'
'rozhraní_'
'roz'
'rol'
'res'
'representatives_'
'repair_'
'regulace_'
'regionů_'
'reaching_'
'ran_'
'quarter_'
'předpokladu_'
'předmětem_'
'právu_'
'prove_'
'problémem_'
'počítače_'
'pozitivní_'
'použitelné_'
'pos'
'pointed_'
'poděkovat_'
'podání_'
'ploch'
'phase_'
'perspective_'
'permanent_'
'participate_'
'paper_'
'outcome_'
'oteplování_'
'organization_'
'oprávněn'
'operational_'
'op_'
'oficiální_'
'odškodnění_'
'odpovědi_'
'obzvláště_'
'obe'
'nik'
'nc'
'místních_'
'mužů_'
'musím_'
'mor'
'mo_'
'ml_'
'mimořádně_'
'meetings_'
'mat'
'mass_'
'lounge_'
'lo'
'line'
'launch_'
'kým_'
'ked_'
'kanál'
'jejíž_'
'ií_'
'instalace_'
'inov'
'industries_'
'hot'
'horší_'
'hop'
'hlad'
'hearing_'
'hand'
'greenhouse_'
'gli'
'glass_'
'games_'
'functions_'
'ft'
'front'
'flows_'
'flo'
'fal'
'fail_'
'facts_'
'factors_'
'exception_'
'ess_'
'entirely_'
'em'
'eat_'
'dě'
'disputes_'
'disaster_'
'dil'
'died_'
'design'
'desetiletí_'
'deliver_'
'database_'
'cre'
'contrast_'
'command_'
'cesta_'
'cent_'
'carefully_'
'broad_'
'bre'
'bin'
'announced_'
'americký_'
'amerického_'
'ae'
'aci'
'Yeah_'
'Wi'
'Veřejné_'
'Světové_'
'Saudi_'
'Radou_'
'Portugal_'
'OR'
'Nic_'
'Mor'
'Masáže_'
'Language_'
'LO'
'Georgia_'
'Gen'
'FI'
'El_'
'Cal'
'Argentina_'
'Anti'
'Ani_'
'Ali'
'94_'
'59_'
'35'
'34'
'1998_'
'šen'
'še_'
'řady_'
'čist'
'činy_'
'čelit_'
'čele_'
'úpravy_'
'óz'
'ír'
'­_'
'}}) _'
'zač'
'zavádění_'
'zav'
'zal'
'zacházení_'
'yo'
'ya_'
'win'
'wife_'
'vítám_'
'vyřešit_'
'vyjádřit_'
'vládou_'
'vital_'
'vet'
'ver'
'vedou_'
'var'
'uvedl_'
'usual_'
'určení_'
'unt'
'unable_'
'uj'
'uc'
'tisíc_'
'terrorist_'
'teri'
'supplies_'
'sun'
'strach_'
'story_'
'stocks_'
'sto'
'ster_'
'spočívá_'
'sporů_'
'speaking_'
'soudem_'
'souborů_'
'smysl_'
'službu_'
'severe_'
'seri'
'ser_'
'seeing_'
'schválení_'
'samo'
'ré'
'rozhodování_'
'relax_'
'regulační_'
'regularly_'
'refugees_'
'recognised_'
'realit'
'reagovat_'
'případy_'
'příkladem_'
'pul'
'pretty_'
'prepare_'
'praxe_'
'pracovníků_'
'poč'
'pot'
'poskytovat_'
'poptávky_'
'podnikání_'
'podaří_'
'po'
'ph'
'partnership_'
'pal'
'pacient'
'oč'
'ovém_'
'ostrov'
'okolí_'
'oi'
'odpovídající_'
'obr'
'obil'
'ník_'
'nádraží_'
'nutná_'
'nights_'
'nehod'
'měnové_'
'mysli_'
'muž_'
'musel_'
'mra'
'moving_'
'migrants_'
'machines_'
'lí_'
'lie'
'kva'
'kor'
'kontextu_'
'kontakt'
'konference_'
'kok'
'kar'
'kap'
'jednom_'
'itu'
'indi'
'hospodářská_'
'hip_'
'hin'
'grow_'
'go'
'fu'
'fra'
'focused_'
'fin'
'figure_'
'fe'
'extensive_'
'ena'
'elsewhere_'
'ejší_'
'eight_'
'dvoulůžkový_'
'dovolit_'
'dop'
'dokumentu_'
'dohledu_'
'discuss_'
'dining_'
'dea'
'dam'
'cz_'
'customs_'
'cul'
'cri'
'continuing_'
'conflicts_'
'communications_'
'commitments_'
'cký_'
'cky_'
'cht'
'candidate_'
'cal'
'ačkoliv_'
'atel'
'art'
'appeal_'
'aplikace_'
'aktivní_'
'aktiv_'
'ai'
'accessible_'
'], _'
'YORK_'
'Vám_'
'Vice_'
'Uv'
'Use_'
'Tele'
'Takové_'
'Sub'
'Strategy_'
'Sarkozy_'
'ROM_'
'RA'
'Q_'
'PRO'
'PC'
'Ostatní_'
'OK_'
'Nu'
'NI'
'Máme_'
'Mur'
'Mont'
'Mini'
'Mal'
'Let'
'Kosmetika_'
'Kong_'
'Ki'
'Jde_'
'Japanese_'
'Irsku_'
'Hong_'
'Home_'
'Han'
'Foreign_'
'Executive_'
'Dal'
'Cu'
'Comp'
'Close_'
'Chceme_'
'Bude_'
'Bro'
'Brazil_'
'BO'
'BI'
'Au'
'AS'
'AN'
'AL_'
'/'
', '_'
');_'
'); _'
' :_'
' -_'
' %._'
'т'
'životě_'
'Ž'
'šn'
'šetření_'
'šesti_'
'řídit_'
'řed'
'čně_'
'člověka_'
'íl'
'éri'
'získání_'
'záležitost_'
'zpráv_'
'zda'
'zavedl'
'založené_'
'zah'
'windows_'
'výk'
'válku_'
'vztah_'
'vysokou_'
'vulnerable_'
'vní_'
'vnitrostátních_'
'vládě_'
'vis_'
'večer_'
'vaší_'
'vašeho_'
'usa'
'upgrade_'
'universal_'
'une_'
'ual_'
'tvrzení_'
'transparent_'
'tradiční_'
'top'
'tl'
'telefon'
'síť_'
'sítí_'
'systémem_'
'sv'
'suffered_'
'stává_'
'smluv_'
'skutečné_'
'silné_'
'signs_'
'sight_'
'sides_'
'sharing_'
'shape_'
'shadow_'
'set'
'session_'
'sensitive_'
'selhání_'
'sar'
'ráno_'
'ryb'
'rp'
'roční'
'rozhodla_'
'requirement_'
'represented_'
'representative_'
'repeated_'
'remained_'
'reflect_'
'recommendations_'
'quick_'
'que'
'příštích_'
'přesvědčení_'
'předpokládá_'
'prázdn'
'promise_'
'primarily_'
'pozici_'
'povol'
'postav'
'por'
'pomalu_'
'pokles_'
'pin'
'paying_'
'parliamentary_'
'panel_'
'ovy_'
'osi'
'onto_'
'ont'
'om_'
'obor'
'obecn'
'něn'
'návštěv'
'nucen'
'notified_'
'neú'
'nespo'
'nes'
'nek'
'nebe'
'nač'
'měsíc_'
'má'
'myself_'
'musíte_'
'mostly_'
'mono'
'monitor_'
'mnozí_'
'mléka_'
'minister_'
'met'
'meat_'
'lit_'
'lai'
'lah'
'krát_'
'kou'
'konat_'
'koli_'
'kill_'
'kdysi_'
'ivní_'
'ith'
'itelné_'
'itel'
'ite_'
'ised_'
'io'
'involving_'
'inu'
'integraci_'
'improvement_'
'hi_'
'hardware_'
'fungovat_'
'factor_'
'eo'
'ekonomik_'
'educational_'
'ect'
'ební_'
'důležitý_'
'dávky_'
'dou_'
'don'
'dolaru_'
'dojít_'
'dk'
'divi'
'discussions_'
'dis'
'developments_'
'demonstrated_'
'del'
'dad_'
'ction_'
'cor'
'constitute_'
'cháp'
'chn'
'centrally_'
'celá_'
'cards_'
'capable_'
'bojovat_'
'bodů_'
'boasts_'
'bn'
'bezpečnostních_'
'ban_'
'balanced_'
'až'
'ař'
'ačkoli_'
'autorit'
'autor'
'asset_'
'articles_'
'amin'
'aktivity_'
'advice_'
'Zi'
'Zb'
'Zaprvé_'
'Without_'
'Wiki'
'Vá'
'Velké_'
'US'
'Times_'
'Sit'
'Sam'
'SO'
'Ren'
'Pol_'
'Or'
'Navzdory_'
'Nad'
'NH_'
'Mark'
'Mag'
'MO'
'Lze_'
'Kor'
'Golden_'
'Frankfurt_'
'Fo'
'FA'
'Er'
'Energy_'
'Dokonce_'
'Dat'
'DS9_'
'Congress_'
'Cold_'
'Cer'
'Captain_'
'Cap'
'Bre'
'Ban'
'B6_'
'Am'
'Ac'
'AND_'
'66_'
'600_'
'2014_'
'1992_'
'18'
', „_'
'''_'
'''
'…'
'”'
'д'
'životy_'
'živo'
'žije_'
'šíření_'
'řádně_'
'ěn'
'částí_'
'účtován_'
'účinek_'
'úd'
'íku_'
'ém'
'ář'
'ás'
'ztráty_'
'ztrát'
'zlat'
'zkušenosti_'
'zko'
'zh'
'zes'
'zeptal_'
'zem'
'začíná_'
'začali_'
'zaměřen'
'založen'
'zak'
'zabývat_'
'worry_'
'work'
'widespread_'
'warning_'
'všemi_'
'významný_'
'víte_'
'vytvářet_'
'vych'
'vessels_'
'uživatele_'
'uvědom'
'unre'
'units_'
'umožnit_'
'ukazují_'
'tá'
'tzv_'
'ty'
'thousand_'
'tests_'
'territorial_'
'tender_'
'tal_'
'tah'
'sy_'
'surveillance_'
'surrounded_'
'suites_'
'stv'
'spotřebitele_'
'sports_'
'sli'
'skutečný_'
'sir_'
'sil'
'ships_'
'settlement_'
'sets_'
'sebe'
'scra'
'savings_'
'sale_'
'rozb'
'rodiče_'
'returned_'
'restructuring_'
'resource_'
'reject_'
'rc'
'rati'
'rada_'
'race'
'přístav'
'pěšky_'
'pí'
'push_'
'pursue_'
'prů'
'prot'
'profile_'
'prod'
'požadavek_'
'povrch'
'pova'
'potraviny_'
'potenciál_'
'porad'
'plá'
'plyn'
'pli'
'pension_'
'pass_'
'partner_'
'partition_'
'ovn'
'ove'
'outdoor_'
'oste'
'ostatními_'
'operace_'
'ony_'
'odpo'
'obnovy_'
'něž_'
'ns'
'nis'
'nezaměstnanost_'
'nesou'
'nemůžeme_'
'nedosta'
'nechat_'
'native_'
'měny_'
'myslí_'
'mrtv'
'models_'
'mistake_'
'miliony_'
'malý_'
'lán'
'lád'
'lp'
'lists_'
'lie_'
'lam'
'kti'
'kroků_'
'judgment_'
'jinde_'
'jednotky_'
'jedinou_'
'iš'
'iteln'
'iso'
'investigation_'
'instance_'
'informační_'
'indoor_'
'indicate_'
'immigrants_'
'ility_'
'ig'
'id'
'hur'
'hrd'
'hovořit_'
'housing_'
'hou'
'hood_'
'hnutí_'
'hm'
'het_'
'harm_'
'gur'
'ged_'
'funkci_'
'formě_'
'flow_'
'figures_'
'extended_'
'existovat_'
'excessive_'
'eurozóně_'
'ethnic_'
'est'
'erg'
'ens_'
'enjoys_'
'efektivní_'
'druhů_'
'druhu_'
'druh_'
'driving_'
'dočasn'
'dostupnost_'
'dopady_'
'dollars_'
'dokumenty_'
'dluhopisů_'
'dlouhé_'
'divided_'
'devices_'
'def'
'deaths_'
'daňových_'
'contributions_'
'contained_'
'computers_'
'compar'
'compa'
'combat_'
'ckých_'
'cies_'
'chybí_'
'chtěli_'
'cent'
'careful_'
'bou_'
'block_'
'bitv'
'automatically_'
'au'
'ard'
'apo'
'aktiv'
'air'
'affairs_'
'actual_'
'Zu'
'Zav'
'Zatímco_'
'UPS_'
'Tennis_'
'Ste'
'Sou'
'Sisko_'
'Rom'
'Regional_'
'Rea'
'Programme_'
'Pr'
'Poslední_'
'PI'
'Note_'
'Nes'
'Neo'
'Můžete_'
'Moscow_'
'Mohu_'
'Kadeřnictví_'
'Journal_'
'Její_'
'IP'
'IN'
'Hal'
'HU_'
'Gor'
'Ga'
'Fra'
'Federal_'
'ET'
'EM'
'EHP_'
'Dutch_'
'Dis'
'Data_'
'DI'
'Communities_'
'Bulgaria_'
'Babylon_'
'Asii_'
'Ak'
'AM'
'AL'
'40'
'2hvězdičkový_'
'28'
'1993_'
'1980_'
'193'
'0s_'
'03_'
'({{_'
'ží'
'školy_'
'ša'
'ň'
'členském_'
'ýt_'
'úspěchu_'
'údajně_'
'íz'
'ín_'
'závěry_'
'zástupci_'
'záležitostí_'
'zá'
'zpátky_'
'zjevně_'
'zahraničních_'
'ym'
'worst_'
'wn_'
'ward_'
'walls_'
'většině_'
'vědomí_'
'výzvy_'
'vývoji_'
'ví'
'váš_'
'vyjednávání_'
'vybrat_'
'vpřed_'
'vozidla_'
'vlastních_'
'ves'
'ven'
'velkým_'
'vehicle_'
'uživatelů_'
'uzavření_'
'uv'
'ultimately_'
'ues_'
'třebaže_'
'troj'
'transition_'
'tradition_'
'tors_'
'tlak_'
'thro'
'textu_'
'tant'
'surprise_'
'stvím_'
'studené_'
'strategies_'
'stranou_'
'staying_'
'statements_'
'správní_'
'spo'
'splňující_'
'soutěže_'
'soudy_'
'soud'
'sob'
'smluvní_'
'sized_'
'silný_'
'signal_'
'showing_'
'sh'
'schválen'
'schopen_'
'sazeb_'
'roughly_'
'rodiny_'
'river_'
'rid'
'revenues_'
'resistance_'
'republice_'
'regular_'
'regula'
'rat_'
'ram'
'ral_'
'přispěl'
'přilehlém_'
'přijala_'
'předá'
'předložila_'
'pře'
'prvky_'
'pravomoc_'
'pp'
'povinností_'
'postelí_'
'poskytnutí_'
'politically_'
'pokr'
'personál_'
'permit_'
'peoples_'
'parti'
'pa_'
'oř'
'označení_'
'owing_'
'ought_'
'opa'
'ongoing_'
'ond'
'nímu_'
'námořní_'
'nne'
'nit_'
'nezávislost_'
'nejs'
'multi_'
'mne_'
'mistr'
'lně_'
'lk'
'leh'
'lake_'
'káv'
'kterému_'
'komisařko_'
'komisař_'
'knows_'
'klíčové_'
'klasifikován_'
'jimž_'
'jeví_'
'ized_'
'ite'
'interface_'
'inn'
'ingly_'
'idi'
'identify_'
'ic'
'hledání_'
'hle'
'hl_'
'here'
'heat_'
'gonna_'
'globalization_'
'genuine_'
'flexibility_'
'fix_'
'fer'
'fell_'
'feed_'
'ext'
'expe'
'everywhere_'
'eura_'
'eti'
'equity_'
'enta'
'energií_'
'emphasis_'
'ekonomického_'
'ejí_'
'eg'
'ef'
'důvodem_'
'děkuji_'
'duties_'
'druhy_'
'dostanete_'
'doručení_'
'dohod_'
'documentation_'
'dobrá_'
'div'
'discussed_'
'deset_'
'depend_'
'delivered_'
'delay_'
'defend_'
'dee'
'daňové_'
'cy'
'cutting_'
'courses_'
'counter_'
'convinced_'
'consistent_'
'chyby_'
'chyb_'
'chod'
'checked_'
'cem_'
'categories_'
'calling_'
'brát_'
'brání_'
'bilateral_'
'automaticky_'
'audio_'
'ative_'
'aro'
'amp_'
'am'
'alle'
'akcií_'
'aircraft_'
'adresu_'
'act'
'achieving_'
'ace'
'abo'
'Will_'
'Wa'
'USB_'
'Translation_'
'Tr'
'Tha'
'Tak'
'Sr'
'Soudní_'
'Sch'
'SS'
'SA_'
'Ruskem_'
'Rep'
'Radu_'
'RI'
'Pou'
'Ph'
'Over'
'Or_'
'Monetary_'
'Min'
'Maria_'
'Mari'
'Main_'
'Lázeňské_'
'Lar'
'Jízda_'
'Jedno_'
'Jadzia_'
'Inc'
'IA'
'Go_'
'Geneva_'
'GM'
'Frank'
'Framework_'
'Fla'
'Federation_'
'Evropských_'
'Es'
'EA'
'Dop'
'Did_'
'Debianu_'
'Costa_'
'Constitution_'
'Cha'
'Camp'
'CE'
'Bud'
'Brazílie_'
'Both_'
'Asie_'
'41'
'06'
'))_'
'" '
' !_'
'ِ_'
'žd'
'štěstí_'
'šení_'
'řen'
'ějí_'
'částku_'
'čtí_'
'čka_'
'ícího_'
'Ústav'
'zůstávají_'
'zákaz_'
'zpo'
'značně_'
'zhorš'
'zdravotnictví_'
'zastavit_'
'zaručen'
'zaměřené_'
'zahrad'
'ws_'
'welfare_'
'welcoming_'
'watch_'
'všechna_'
'vědí_'
'věcech_'
'významným_'
'výraz'
'vých_'
'vyv'
'vytváří_'
'vysvětlení_'
'vym'
'volného_'
'voj'
'vln'
'vlak'
'vie'
'uvést_'
'určena_'
'upřímn'
'upraven'
'uns'
'unacceptable_'
'ula_'
'twenty_'
'tví_'
'turning_'
'tude_'
'trpí_'
'tom'
'time'
'tepl'
'tam'
'ta'
'svému_'
'suggested_'
'substances_'
'stál'
'sty_'
'stornována_'
'stands_'
'ssion_'
'spr'
'spolu'
'společných_'
'společenstvím_'
'spokojen'
'soukromých_'
'soil_'
'snaze_'
'skr'
'serveru_'
'sektor_'
'rychlost_'
'ruš'
'rozsáhlé_'
'rost'
'rop'
'ric'
'resolve_'
'replace_'
'remaining_'
'relief_'
'rek'
'reaction_'
'působnosti_'
'půdy_'
'přiměřen'
'překážky_'
'pě'
'proměn'
'prohl'
'pred'
'požadavků_'
'postoje_'
'poro'
'pomůže_'
'polite_'
'podnik'
'podat_'
'pochyb'
'platby_'
'para_'
'očekávat_'
'ow_'
'oto'
'otevřené_'
'ota'
'ot'
'orgánu_'
'ono'
'ol_'
'ohled'
'oe'
'odstranit_'
'odpověděl_'
'odp'
'odhodlání_'
'obtížné_'
'objem_'
'obchodního_'
'náprav'
'námi_'
'nimiž_'
'nic'
'nezv'
'nesmírně_'
'nemělo_'
'neb'
'nde'
'napětí_'
'nan'
'nai'
'nahl'
'nabíd'
'mých_'
'musejí_'
'mountain_'
'motorway_'
'motor_'
'mnou_'
'mluv'
'ministers_'
'mid'
'mez'
'mb'
'lék'
'ly'
'lum'
'lor'
'lobby_'
'lhůtě_'
'legitimate_'
'ld'
'lay_'
'las'
'krokem_'
'kri'
'konkrétně_'
'komunit'
'kod'
'ker_'
'kam'
'kal'
'jiném_'
'jev'
'jedině_'
'jediným_'
'iž'
'inflaci_'
'imposed_'
'ický_'
'hro'
'hou_'
'hospitality_'
'hoo'
'hodnota_'
'hel'
'healthy_'
'ght'
'gender_'
'gas'
'fá'
'flight_'
'fla'
'finding_'
'fi_'
'ffi'
'experienced_'
'exceptional_'
'evropským_'
'estimated_'
'ern'
'engine_'
'edge_'
'ede'
'eb'
'druhého_'
'dodávek_'
'distributed_'
'disku_'
'detail_'
'det'
'defin'
'decor_'
'dealt_'
'conditioned_'
'club_'
'cli'
'class'
'chart'
'cení_'
'cation_'
'cash_'
'cas'
'běžné_'
'bringing_'
'booked_'
'bomb'
'blízko_'
'blo'
'bea'
'battle_'
'assume_'
'asse'
'ane'
'akci_'
'ah'
'ages_'
'aged_'
'afraid_'
'accompanied_'
'acceptable_'
'abroad_'
']]_'
']] [[_'
'Working_'
'Wor'
'Váš_'
'Vysoký_'
'Vir'
'Venkovní_'
'TO'
'TA'
'Sweden_'
'Stra'
'Starfleet_'
'Socialist_'
'Sho'
'Sel'
'Pok'
'Nikdo_'
'Má'
'Mezi'
'Management_'
'Kč_'
'Kra'
'Jelikož_'
'Ir'
'Indian_'
'Imp'
'IF'
'Ger'
'Fire'
'Fil'
'Existují_'
'Euratom_'
'Environment_'
'Employment_'
'Dra'
'Designated_'
'Democrats_'
'DVDRip_'
'Col'
'Char'
'Cas'
'Americe_'
'AP'
'AC'
'78_'
'67_'
'400_'
'36'
'21'
'1989_'
'. „_'
'* / _'
')'
' ] _'
'žalob'
'řád_'
'ěla_'
'čtvrt'
'čním_'
'čné_'
'čky_'
'čit_'
'účtu_'
'účinnost_'
'útok_'
'ör'
'ít'
'ín'
'ía_'
'éz'
'év'
'álních_'
'áb'
'Í'
'zákon'
'základn'
'zveřejněn'
'zuje_'
'znamenat_'
'zjištění_'
'zel'
'zdaleka_'
'zachovat_'
'youth_'
'wrote_'
'webové_'
'vědom'
'výhody_'
'výběr_'
'vý_'
'vyžadují_'
'vysvětlit_'
'vysoký_'
'vyj'
'vyhlášení_'
'vou_'
'vit'
'vision_'
'vid'
'velko'
'van_'
'ura'
'uplatnit_'
'united_'
'underground_'
'tting_'
'truly_'
'tree_'
'tov'
'tm'
'tlaku_'
'tem_'
'tch'
'tari'
'taky_'
'sy'
'superior_'
'succeed_'
'substantial_'
'su'
'student_'
'strukturální_'
'stronger_'
'stroj'
'streets_'
'stood_'
'standardy_'
'stabilitu_'
'spoj'
'spi'
'sovereign_'
'snažit_'
'smu_'
'složky_'
'skutečnou_'
'sku_'
'sko_'
'sit'
'sions_'
'shot_'
'schopností_'
'schopna_'
'sand'
'rž'
'ropo'
'rob'
'revolution_'
'renewable_'
'relativně_'
'rch'
'rat'
'quarters_'
'působí_'
'příspěvek_'
'přip'
'přijal_'
'přeprav'
'předložit_'
'ptá'
'průmyslové_'
'prostorách_'
'promoting_'
'projev'
'produktu_'
'produktivity_'
'prodej_'
'preparation_'
'praktik'
'pozdě_'
'použitím_'
'postaven'
'poptávka_'
'politicky_'
'policymakers_'
'podvod'
'podnik_'
'pochopit_'
'plynů_'
'pln'
'platform'
'pevn'
'pea'
'partly_'
'parental_'
'oš'
'očekávání_'
'oy'
'ow'
'ov_'
'oup'
'oro'
'oje'
'obsahu_'
'obraz_'
'názory_'
'nárůst_'
'náměstí_'
'nti'
'nov'
'north_'
'new'
'nest'
'nekon'
'navrhuje_'
'nat'
'nast'
'nalézt_'
'naléhavě_'
'naleznete_'
'mál'
'mp_'
'modul'
'moderate_'
'minor_'
'mechanisms_'
'mask'
'mandate_'
'léčby_'
'lé_'
'los_'
'leads_'
'lač'
'lar'
'lady_'
'kvalit'
'krá'
'konkurenční_'
'komplexní_'
'kolegové_'
'klient'
'kan'
'jimiž_'
'jejímž_'
'jednotn'
'jedin'
'jak'
'isn_'
'island_'
'involvement_'
'import'
'ill'
'ila'
'hundreds_'
'hranic_'
'hlavu_'
'hladin'
'hen'
'harmonisation_'
'ham_'
'gel'
'fs_'
'free'
'finished_'
'fill_'
'fied_'
'female_'
'failing_'
'explore_'
'expert_'
'execution_'
'ert'
'erg_'
'epi'
'ently_'
'entitled_'
'energetických_'
'emerge_'
'electronic_'
'eastern_'
'eas'
'dění_'
'dán'
'dá'
'dotčen'
'dost'
'disk'
'discerning_'
'disc'
'disa'
'dep'
'deficits_'
'declared_'
'crew_'
'creditor_'
'corr'
'controlled_'
'continent_'
'chova'
'catch_'
'burg_'
'brán'
'bra'
'bound_'
'boost_'
'blue_'
'biggest_'
'automatic_'
'ateln'
'approximately_'
'apparent_'
'aná_'
'amp'
'ambitious_'
'ality_'
'ake'
'ac'
'aa'
'Zv'
'Ye'
'Would_'
'Wellness_'
'Více_'
'Ví'
'VI_'
'Tv'
'Ts'
'Table_'
'Super'
'Small_'
'Silv'
'Show_'
'Santa_'
'SA'
'Rusku_'
'Rules_'
'Portage_'
'Pl'
'Obchody_'
'OU'
'Nez'
'Nepo'
'Nap'
'Nakonec_'
'NA_'
'My'
'MI'
'Lord_'
'Lit'
'Lan'
'King_'
'Jo_'
'Jižní_'
'Jean_'
'Jakmile_'
'Jack_'
'Itálii_'
'Irsko_'
'HO'
'Gran_'
'Food_'
'Evropané_'
'Est'
'England_'
'Dovolte_'
'Dos'
'Dar'
'Bas'
'Arabia_'
'Aparthotel_'
'A6_'
'?'
': %_'
'83_'
'80'
'58_'
'53_'
'1991_'
', [_'
' ``_'
' )._'
' ) , _'
'“ – _'
'– _'
'ت_'
'а'
'šle'
'ši_'
'ňa'
'částka_'
'člen'
'účel'
'účasti_'
'úvěrů_'
'útoky_'
'ústav'
'úmluvy_'
'úmluv'
'získal_'
'závislosti_'
'zájem_'
'zy_'
'zov'
'znal'
'změnám_'
'zlo'
'zle'
'zavádě'
'zaměstnání_'
'zahájil'
'zahájen'
'zabývá_'
'xo'
'winning_'
'wind'
'water'
'wake_'
'vůli_'
'vého_'
'vážn'
'vze'
'vzduchu_'
'vyžadovat_'
'vyšetřování_'
'vyvinul'
'vytvořen'
'vystaven'
'vyst'
'vyb'
'vu_'
'vodu_'
'vent'
'venkova_'
'vaši_'
'vast_'
'val'
'utím_'
'use'
'určen'
'uran'
'unsu'
'ule'
'týdnů_'
'tématu_'
'twice_'
'trial_'
'trees_'
'travellers_'
'tourism_'
'totally_'
'tia'
'telné_'
'tar'
'tal'
'tak'
'syn'
'sustained_'
'survival_'
'surface_'
'suffering_'
'subs'
'subjektů_'
'státem_'
'stro'
'strategií_'
'stranami_'
'ster'
'spol'
'soustavy_'
'souhlasí_'
'sought_'
'soudů_'
'sme'
'smaller_'
'sled'
'sk'
'situations_'
'sit_'
'sho'
'seš'
'sektor'
'sea'
'sch'
'saving_'
'sau'
'rybolovu_'
'rozšířen'
'rozvodu_'
'rozpravy_'
'romantic_'
'rom'
'rok'
'rightly_'
'revoluce_'
'rein'
'refer_'
'rar'
'rank'
'ral'
'případu_'
'přínos'
'příjem_'
'přání_'
'připraven'
'připojen'
'překlad'
'předem_'
'pás'
'pán'
'pád'
'pushed_'
'prosinci_'
'professionals_'
'probíhá_'
'prakticky_'
'použije_'
'potřebovat_'
'potíže_'
'porušování_'
'položky_'
'polohu_'
'pole'
'pol'
'podobně_'
'podnět'
'platnosti_'
'pit'
'phi'
'pevně_'
'pet'
'pes_'
'percentage_'
'passengers_'
'pas'
'pace_'
'ovaná_'
'ov'
'output_'
'organizations_'
'operators_'
'oma'
'oli'
'oh'
'oddělení_'
'occur_'
'obrátit_'
'objekt'
'něl'
'nějak_'
'numerous_'
'novin'
'notification_'
'none_'
'non'
'nk_'
'nejdříve_'
'negotiating_'
'nahoru_'
'nacházejí_'
'měsících_'
'muy_'
'multilateral_'
'mpe'
'moc'
'mk'
'milionu_'
'meta'
'mate'
'loo'
'lis'
'lid_'
'licencí_'
'liberal_'
'lia'
'lem'
'legislativ'
'lav'
'kém_'
'kultury_'
'kritérií_'
'kritéria_'
'konečném_'
'knih'
'klíčových_'
'kle'
'klad'
'kh'
'kategorie_'
'kamen'
'jím_'
'jí'
'já'
'justify_'
'jun'
'jiná_'
'jediná_'
'jan'
'investorů_'
'inovace_'
'ino_'
'innovative_'
'initial_'
'images_'
'ik_'
'ight_'
'ied_'
'ická_'
'ically_'
'hyper'
'hranici_'
'hr'
'hlavou_'
'hlav'
'heavy_'
'governing_'
'golf_'
'globálním_'
'globálních_'
'generace_'
'fossil_'
'formu_'
'foot'
'far'
'extend_'
'explained_'
'evropští_'
'entrance_'
'eme'
'ekonomickou_'
'economists_'
'ease_'
'ea'
'dáv'
'drugs_'
'drivers_'
'drinks_'
'dovoz_'
'dov'
'dopad'
'doba_'
'disket'
'dial_'
'ders_'
'depends_'
'cukru_'
'cti'
'couldn_'
'conclude_'
'concentration_'
'comfortably_'
'clock_'
'cc'
'bránit_'
'bratr'
'bor'
'boj'
'blízkosti_'
'belief_'
'barv'
'barriers_'
'bal'
'authorised_'
'author_'
'attractive_'
'ari'
'are'
'appreciate_'
'appearance_'
'ame'
'ag'
'ach_'
'Vířivka_'
'Vy_'
'Verts_'
'VST_'
'Tím_'
'Tady_'
'TP_'
'Swiss_'
'Summit_'
'Stále_'
'Son'
'Sca'
'River_'
'Project_'
'Pop'
'Picard_'
'PDF_'
'Open'
'Odpověď_'
'Národní_'
'Nová_'
'Met'
'Massage_'
'Market_'
'MS_'
'MP'
'Lie'
'Kdyby_'
'KO'
'Izraelem_'
'IM'
'ID_'
'Fu'
'Foundation_'
'Finanční_'
'Evropskému_'
'Et'
'Equipment_'
'Empire_'
'Dámy_'
'Dohody_'
'Dob'
'Den'
'Democratic_'
'Cro'
'Copenhagen_'
'Common_'
'Com'
'Chu'
'Cho'
'Children_'
'Change_'
'Chan'
'Canada_'
'CD'
'Bon'
'Blo'
'Bi'
'Beauty_'
'Beau'
'Arm'
'60'
'6'
'54_'
'192'
' €_'
' %, _'
'šéf'
'širší_'
'řešením_'
'řekn'
'řad'
'ěna_'
'ěj'
'čísla_'
'čov'
'čko'
'ývá_'
'účetní_'
'úrokových_'
'úrok'
'úlohy_'
'úct'
'íků_'
'ída'
'áš'
'ánsk'
'áhl'
'závazek_'
'zved'
'zu_'
'zruš'
'zpracování_'
'zon'
'znatelný_'
'zdrav'
'začne_'
'zahrnovat_'
'xt'
'xe'
'wr'
'wood_'
'wines_'
'vědeck'
'výrobce_'
'vámi_'
'vznikl'
'vyplývá_'
'vyhlídky_'
'vp'
'vola'
'vlastním_'
'vidím_'
'victory_'
'variable_'
'vané_'
'učitel'
'unity_'
'undertaking_'
'und'
'uncertainty_'
'ukázala_'
'týkají_'
'turistika_'
'tt'
'tran'
'tlačítko_'
'tky_'
'tent'
'temp'
'telling_'
'tate'
'takovým_'
'takovém_'
'superb_'
'summitu_'
'successfully_'
'subjekt'
'stn'
'stic_'
'stein_'
'stav'
'stanovil'
'stanoven'
'standard'
'stages_'
'srdce_'
'socialist'
'snížen'
'snadné_'
'smus_'
'smlouvě_'
'slouží_'
'sive_'
'sf'
'sever'
'separation_'
'sek'
'schválil'
'schemes_'
'sation_'
'samy_'
'rum'
'rozvíjejících_'
'row_'
'roads_'
'rim'
'ria'
'responsibilities_'
'rence_'
'rem_'
'recognize_'
'recognise_'
'raději_'
'radical_'
'quota_'
'příslušných_'
'připomínky_'
'přijata_'
'přihl'
'převod'
'představit_'
'pub'
'pta'
'prvotřídního_'
'prvních_'
'provádí_'
'propad'
'projevu_'
'profits_'
'proce'
'prezident'
'pravo'
'potentially_'
'porušení_'
'poorest_'
'politikou_'
'poko'
'poděkoval_'
'podstatně_'
'podporou_'
'podpis'
'podobn'
'podmínkách_'
'platební_'
'pie'
'pers'
'perfectly_'
'parliaments_'
'pad'
'oživení_'
'očekává_'
'osm'
'orn'
'organizaci_'
'ord'
'opl'
'ona'
'olo'
'oldest_'
'ola'
'odn'
'odkaz_'
'obyvatelstva_'
'obsahovat_'
'obra'
'oba_'
'nou'
'notably_'
'nost'
'neměly_'
'nedostatek_'
'nabídky_'
'měst'
'máš_'
'mol'
'mobiliz'
'mlad'
'minut'
'ministr_'
'metr'
'messages_'
'mental_'
'mechanismus_'
'materiály_'
'marketing_'
'lý'
'léky_'
'luxusní_'
'lli'
'lla'
'listin'
'lim'
'lea'
'laying_'
'late'
'kám_'
'kterými_'
'kost'
'kontra'
'konkurenceschopnosti_'
'komp'
'kom'
'justified_'
'jistý_'
'jeme_'
'jednoznačně_'
'jat'
'jasný_'
'japonsk'
'jakožto_'
'ičk'
'izraelský'
'ivi'
'isi'
'involves_'
'intensive_'
'inspection_'
'ini'
'impressive_'
'im'
'ier'
'hundred_'
'hod'
'hardly_'
'guide_'
'greatest_'
'get'
'gains_'
'fying_'
'funguje_'
'fuels_'
'formed_'
'flood'
'fix'
'finančním_'
'film'
'filled_'
'ffe'
'fan'
'falls_'
'faktory_'
'faith_'
'examples_'
'estr'
'env'
'endo'
'empty_'
'elektro'
'dává_'
'dovol'
'dostatek_'
'dohled_'
'dodavatel'
'display_'
'diskutovat_'
'diplomatic_'
'dimension_'
'destroyed_'
'depending_'
'demokratů_'
'define_'
'defense_'
'declaration_'
'debian_'
'debat'
'danger_'
'dalšího_'
'cycle_'
'couple_'
'constitution_'
'considering_'
'connections_'
'conce'
'compatible_'
'col'
'client_'
'citliv'
'cis'
'cin'
'chudých_'
'chu'
'cemi_'
'ced_'
'castle_'
'byt'
'bur'
'budov_'
'broken_'
'brain_'
'bell'
'ase'
'armád'
'ants_'
'ancient_'
'analýzy_'
'ama'
'allies_'
'afford_'
'adj'
'Zák'
'Země_'
'Zadruhé_'
'Věd'
'Vl'
'Unii_'
'Trans'
'TA_'
'Spa'
'Směrnice_'
'Smlouvu_'
'Slovak_'
'Sim'
'Serbia_'
'See'
'Secretary_'
'Science_'
'SK_'
'Rule_'
'Roman_'
'Right_'
'Quality_'
'Polsku_'
'Pla'
'Pin'
'Palestinians_'
'Ode'
'Místo_'
'McC'
'MB_'
'Luc'
'Law_'
'Kla'
'Keynes_'
'Kal'
'Is'
'Hol'
'Had'
'GNOME_'
'Florence_'
'Firefox_'
'Fe'
'Far'
'Emp'
'Ei'
'EX'
'Dre'
'Denmark_'
'Demo'
'Day_'
'Cílem_'
'Culture_'
'Cons'
'Con'
'Class'
'Cat'
'Británii_'
'Br'
'Bill_'
'Belarus_'
'Bay_'
'Barber_'
'Barack_'
'BA'
'Arc'
'Alt'
'Alp'
'Ah'
'ALE_'
'AI'
'AB'
'97_'
'84_'
'71_'
'54'
'17'
') – _'
''''
'!'
'，_'
'“ (_'
'м'
'з'
'žadatel'
'ší'
'řít_'
'řez'
'řel'
'ěš'
'ěst'
'ď_'
'čtení_'
'červen'
'ún'
'úmyslu_'
'ís'
'íne'
'ína'
'íd'
'ão_'
'áty_'
'ární'
'ác'
'zí'
'závěr_'
'závěr'
'zán'
'zvlášť_'
'zvláštních_'
'zvlád'
'zre'
'způsobil'
'zpravodaj_'
'zně'
'značk'
'změnil'
'zm'
'zim'
'zapojení_'
'zajišťuje_'
'zahrnut'
'yz'
'wit'
'we'
'výhradně_'
'výborn'
'víd'
'vzniku_'
'vyko'
'vstup_'
'vstoupil'
'voluntary_'
'vc'
'uzavřen'
'uveden_'
'usm'
'určitá_'
'uro'
'urn'
'university_'
'unit_'
'uhlí_'
'uh'
'tře'
'typ'
'tváří_'
'tur'
'tržních_'
'trvat_'
'tria'
'tongue_'
'titul'
'tisku_'
'til'
'ther_'
'texts_'
'text'
'tend_'
'taxation_'
'tag'
'svět'
'surge'
'sun_'
'suddenly_'
'subjekty_'
'středních_'
'stopped_'
'sto_'
'stejný_'
'statistics_'
'stag'
'sso'
'spouses_'
'spotřeby_'
'společným_'
'společná_'
'souvisejících_'
'soukromého_'
'son'
'solar_'
'softwaru_'
'soft'
'ski'
'siln'
'sightseeing_'
'showed_'
'setkal'
'sentiment'
'scar'
'různými_'
'rán'
'rychleji_'
'rychl'
'rva'
'rusk'
'runs_'
'ruk'
'rozpočtové_'
'rozl'
'rozhodne_'
'root_'
'rit'
'respected_'
'remind_'
'rela'
'reklam'
'ration_'
'rare_'
'rapporteurs_'
'půl_'
'příslušný_'
'případné_'
'přišel_'
'připravit_'
'přidělen'
'přeshraniční_'
'put'
'purchase_'
'průzkum'
'právními_'
'právním_'
'provádět_'
'protokolu_'
'propo'
'programming_'
'processes_'
'preparing_'
'použit'
'potřeb_'
'potenciálu_'
'postupem_'
'possibly_'
'possibilities_'
'polovinu_'
'podn'
'players_'
'planety_'
'pick_'
'patient_'
'overlooking_'
'ourselves_'
'omi'
'okr'
'odůvodnění_'
'odsouzen'
'oda'
'obs'
'obnovitelných_'
'obnovit_'
'objeví_'
'návrat_'
'nárok_'
'nie'
'nepřijatelné_'
'napříč_'
'nac'
'mínění_'
'multiple_'
'moři_'
'mou_'
'modem_'
'mnoho'
'mladých_'
'mix_'
'mini'
'mic_'
'mic'
'merely_'
'maxim'
'luv'
'lub'
'lots_'
'lle'
'lity_'
'lid'
'lete_'
'legitimacy_'
'lac'
'ká'
'konkurence_'
'konf'
'klo'
'ki_'
'kapacity_'
'jádro_'
'jádra_'
'joined_'
'jk'
'jd'
'jakékoliv_'
'ively_'
'ities_'
'ita_'
'investiční_'
'index_'
'ill_'
'if'
'idl'
'ida'
'ich'
'hrát_'
'hrozbu_'
'houses_'
'honor'
'hodnotě_'
'hezk'
'heim_'
'hed_'
'hard'
'gu_'
'gradually_'
'gg'
'fre'
'format_'
'forma'
'firm_'
'facilitate_'
'extra'
'exposed_'
'existenci_'
'examine_'
'equally_'
'enou_'
'end'
'email_'
'eln'
'eli'
'ejme_'
'effectiveness_'
'ec'
'east_'
'dynamic_'
'dvůr_'
'dv'
'duchu_'
'duc'
'druhý_'
'drink_'
'dri'
'dotaz'
'dotace_'
'dopravní_'
'domov'
'dokáže_'
'dl_'
'diver'
'dh'
'description_'
'dependent_'
'delivery_'
'definitely_'
'daňov'
'daň_'
'dalo_'
'criticism_'
'crimes_'
'covers_'
'count_'
'corresponding_'
'considers_'
'connected_'
'cn'
'closer_'
'claimed_'
'chyb'
'chudobě_'
'chráněn'
'certainty_'
'celo'
'candidates_'
'cancelled_'
'byť_'
'bug_'
'budování_'
'bridge_'
'boy_'
'boot'
'blok'
'bli'
'bla'
'bet'
'believed_'
'background_'
'ač'
'aus'
'audit'
'atn'
'ater'
'assess_'
'assa'
'aso'
'asi'
'appointment_'
'apartment_'
'anywhere_'
'answers_'
'ament'
'aktiva_'
'akt'
'agr'
'agentura_'
'Ze_'
'Wood'
'Vyp'
'Venice_'
'VI'
'Uz'
'Tru'
'Thi'
'Tan'
'Take_'
'Ta_'
'Switzerland_'
'Structural_'
'Slovenia_'
'Slov'
'Sheraton_'
'Ser'
'SU'
'Rakousko_'
'Prů'
'Poč'
'Pov'
'Pom'
'Pokoj_'
'Peter_'
'Pan_'
'PL'
'Online_'
'New'
'Nebyl'
'Mill'
'Mel'
'MS'
'Look_'
'Leg'
'LD'
'Kol'
'Key_'
'Kan'
'Judicial_'
'Islam_'
'Hyde_'
'Hotels_'
'Hor'
'Hlavní_'
'Gaze_'
'GI'
'Fun'
'Francisco_'
'Excel'
'Ex'
'Ele'
'ENT_'
'Dun'
'Dor'
'District_'
'Christ_'
'Charter_'
'Bra'
'Board_'
'Az'
'Air_'
'AD'
'89_'
'800_'
'74_'
'73_'
'68_'
'43'
'215'
'178'
'14'
', - _'
'" (_'
'的'
'• _'
'žádá_'
'špatné_'
'řet'
'řeck'
'Řím'
'ěme_'
'čtyř'
'článkem_'
'činů_'
'Če'
'úřady_'
'účet_'
'ór'
'áže'
'ák'
'É_'
'É'
'zákony_'
'zvolen'
'znalost'
'zemřel'
'zdanění_'
'zb'
'začlenění_'
'zapomínat_'
'zaměstnance_'
'zaměstnan'
'wonder_'
'webových_'
'wal'
'wage_'
'vůdce_'
'všude_'
'většiny_'
'významně_'
'významnou_'
'výhrad'
'vyč'
'vyvážen'
'vytvoří_'
'vyr'
'vypadá_'
'vyloučen'
'vydat_'
'vul'
'vs'
'von_'
'volume_'
'volba_'
'vn'
'vlast'
'vk'
'video'
'ved_'
'vd'
'variant'
'uvedená_'
'uspořádání_'
'určené_'
'upr'
'unlikely_'
'understood_'
'ue'
'udržiteln'
'uci'
'tří'
'těž'
'těn'
'trvale_'
'trouble_'
'trillion_'
'transparentnosti_'
'ton'
'tok'
'tit_'
'teč'
'ters_'
'tech_'
'tasks_'
'tab'
'světových_'
'sur'
'stří'
'státního_'
'stránku_'
'stru'
'store_'
'stimulus_'
'stavební_'
'stanovených_'
'srovnateln'
'splnění_'
'speakers_'
'spar'
'soutěž_'
'sophisticated_'
'skl'
'silnější_'
'setkání_'
'sep'
'satisfied_'
'rádi_'
'ruling_'
'rozvinutých_'
'rozpočtový_'
'rostlin_'
'ron'
'roc'
'ris'
'reálné_'
'reward'
'restauraci_'
'republika_'
'rely_'
'rei'
'regionálních_'
'refurbished_'
'ref'
'ree'
'recover'
'rce'
'raž'
'raw_'
'přírod'
'přistoupení_'
'předložen'
'pun'
'psa'
'ps_'
'průmyslových_'
'proved_'
'protest'
'protecting_'
'prosazování_'
'proportion_'
'produk'
'prison_'
'presidency_'
'prec'
'pping_'
'počítači_'
'počítač_'
'pozorovatel'
'pověřen'
'považuji_'
'pouhé_'
'potenciální_'
'poly'
'politickým_'
'policie_'
'pokrytí_'
'podstatn'
'pobyt_'
'plánování_'
'plays_'
'player_'
'played_'
'pilot_'
'piece_'
'peč'
'pek'
'pc'
'osp'
'osobně_'
'orde'
'opětovné'
'olej'
'off'
'odá'
'ody_'
'odvolání_'
'odraz'
'odborn'
'občan'
'obl'
'object_'
'němuž_'
'něhož_'
'níci_'
'národního_'
'náhrady_'
'noted_'
'northern_'
'neznamená_'
'nestačí_'
'nese_'
'nejdůležitější_'
'nef'
'neděl'
'nedostatky_'
'nce'
'nařízením_'
'nab'
'místech_'
'mut'
'movie_'
'mou'
'moment'
'mladé_'
'minibar_'
'mine_'
'micro'
'mer_'
'maybe_'
'manufacturing_'
'manager_'
'maintained_'
'mad'
'lékař'
'lus'
'loc'
'liší_'
'lik'
'learned_'
'koup'
'koordinace_'
'konzultace_'
'konkurenceschopnost_'
'kolo'
'kole_'
'kli'
'kinds_'
'kategori'
'jíž_'
'jov'
'jo_'
'jednoznačn'
'jednacího_'
'jar'
'izovat_'
'introduce_'
'interven'
'ins_'
'indick'
'imported_'
'ics_'
'ici_'
'ib'
'hurt_'
'hrozí_'
'hrozn'
'hrozb'
'household_'
'hotelov'
'hof_'
'hodin'
'hna'
'hlás'
'hluboce_'
'hlavního_'
'hem_'
'hell_'
'hav'
'hall_'
'gym_'
'gov'
'gold_'
'gol'
'globalizaci_'
'generate_'
'fáze_'
'funkcí_'
'fun'
'folder_'
'faces_'
'expansion_'
'exists_'
'ett'
'ese'
'erm'
'emp'
'ekonomikách_'
'eko'
'ee_'
'economics_'
'eco'
'ech'
'důraz_'
'dům_'
'dovozní_'
'dou'
'dos'
'doručen'
'dopis'
'dobrovoln'
'distribuce_'
'discovered_'
'disasters_'
'digital_'
'device_'
'destroy_'
'desire_'
'deposit_'
'depo'
'department_'
'dece'
'count'
'coordinated_'
'containing_'
'constitutional_'
'conf_'
'components_'
'component_'
'complicated_'
'combating_'
'cizí'
'chorob'
'cher'
'checks_'
'channels_'
'centuries_'
'cells_'
'carrying_'
'capitalism_'
'cad'
'burn'
'bs_'
'bottom_'
'boat_'
'blow'
'bill_'
'behavior_'
'beaches_'
'bav'
'bank'
'attend'
'ast'
'asn'
'armed_'
'aplikací_'
'apart_'
'ano'
'ang'
'amo'
'allocated_'
'aktuální_'
'adn'
'admir'
'acce'
'abuse_'
'aba'
'Wolf'
'Within_'
'Whether_'
'Vážená_'
'Voyager_'
'VO'
'Up_'
'Transport_'
'Though_'
'Tab'
'TNG_'
'TION_'
'Stá'
'Společn'
'Spo'
'Sin'
'Sil'
'Sign'
'Should_'
'Sau'
'Rou'
'Roman'
'Res'
'Qui'
'Popular_'
'Petr'
'Person'
'Part_'
'Palestine_'
'Outdoor_'
'Organization_'
'ON_'
'OD'
'Nic'
'Nev'
'Ned'
'Name_'
'ND'
'Mnoho_'
'Milan_'
'Mas'
'Mart'
'Mah'
'License_'
'Kur'
'Kas'
'KOMISE_'
'Jin'
'Jestli_'
'Jer'
'Jeden_'
'Jan_'
'Jan'
'ISO_'
'IO'
'Hr'
'Her_'
'Globální_'
'Frontex_'
'Fri'
'FR'
'Eng'
'Dur'
'DPH_'
'Cohesion_'
'Chapter_'
'Carl'
'CC'
'Brit'
'Black_'
'Bankruptcy_'
'BS'
'Ačkoliv_'
'Atlantic_'
'Air'
'AS_'
'ALDE_'
'="_'
'69_'
'61_'
'58'
'55'
'51_'
'42'
'37'
'191'
'/ '
'#_'
' »_'
' - '
'ْ_'
'к'
'žádostí_'
'šíř'
'šanci_'
'řádn'
'ř_'
'ď'
'část'
'čtvrti_'
'články_'
'čisté_'
'čil_'
'černo'
'úředník'
'územní_'
'ús'
'úkolem_'
'íli'
'íka_'
'ícím_'
'ê'
'éry_'
'átk'
'zích_'
'zápas'
'záp'
'zvýší_'
'zpravodaj'
'zneužívání_'
'znalostí_'
'zločin'
'zli'
'zl'
'zero_'
'zdůrazňuje_'
'zaz'
'zaměstnanci_'
'zachránit_'
'yk'
'wars_'
'vš'
'věří_'
'věstníku_'
'výš'
'výrobní_'
'vítěz'
'vážné_'
'vzájemné_'
'vzd'
'vyjádřil_'
'vsk'
'vražd'
'vov'
'volič'
'vnitřního_'
'vládních_'
'vlivu_'
'visiting_'
'violent_'
'viděli_'
'veřejnost_'
'var_'
'valuable_'
'uvedeno_'
'ute'
'usly_'
'určit_'
'uri'
'universities_'
'uložen'
'ui'
'uděl'
'událostí_'
'tříd'
'tát'
'tá_'
'tv'
'tut'
'trestní'
'tras'
'tid'
'tera'
'tentokrát_'
'temperature_'
'tek_'
'tariff_'
'tap'
'symbol_'
'supervision_'
'suggests_'
'suggest_'
'suffer_'
'subsequent_'
'stylu_'
'stupn'
'strom'
'strav'
'strange_'
'strachu_'
'stor'
'sten'
'statistik'
'stanovená_'
'stabilní_'
'srovnání_'
'spíš_'
'spl'
'současných_'
'současný_'
'soudním_'
'sněmovně_'
'snížil'
'slightly_'
'skleníkových_'
'sklen'
'signál_'
'sie'
'sic'
'sex_'
'servi'
'serves_'
'sell_'
'sedm'
'scen'
'saun'
'sankcí_'
'rý'
'rv'
'rti'
'rre'
'rozumí_'
'rozměr'
'rozm'
'rock_'
'riziku_'
'rio'
'resid'
'reserve_'
'reme'
'register_'
'redi'
'red'
'recon'
'rci'
'rakovin'
'raising_'
'radical'
'rac'
'quotas_'
'quantity_'
'q_'
'původ'
'přízniv'
'přístroje_'
'přírodní_'
'příběh_'
'připraveni_'
'přinese_'
'přijateln'
'přijat_'
'představoval'
'předložení_'
'pát'
'průměru_'
'proud'
'prospects_'
'pronik'
'profit_'
'produkci_'
'producing_'
'procentní'
'prioritou_'
'precautionary_'
'pracoval'
'pozoruhodn'
'pozornosti_'
'potvrzení_'
'posílil'
'porta'
'port'
'polož'
'poklesu_'
'pohyb'
'podv'
'podporují_'
'podobné_'
'pochází_'
'pochybnosti_'
'ped'
'path'
'parent_'
'pan'
'oxid'
'ováni_'
'ovoce_'
'ovatel'
'ovanou_'
'outl'
'osa'
'oru'
'organ'
'orders_'
'oppose_'
'oo_'
'onu_'
'odu'
'odstavci_'
'odst'
'odmíta'
'odle'
'och'
'ocen'
'obyvatele_'
'obecné_'
'níže_'
'následujících_'
'nulov'
'nijak_'
'nick'
'nezbytný_'
'nevě'
'neuv'
'nepochybně_'
'nep'
'nelegální'
'nejr'
'nejn'
'naším_'
'nastaven'
'namísto_'
'nahrazuje_'
'mírn'
'mír'
'mzdy_'
'mzd'
'mouth_'
'mountains_'
'motiv'
'mně_'
'min_'
'mie'
'merc'
'mba'
'manu'
'mant'
'lok'
'logy_'
'load'
'llo'
'lla_'
'link'
'lin'
'ley_'
'lep'
'length_'
'legally_'
'la'
'kát'
'kuř'
'ks'
'kosm'
'kolegy_'
'knihy_'
'kin'
'ken_'
'kdykoliv_'
'kaz'
'kas'
'jin'
'jel'
'jednolůžkový_'
'jed'
'jaká_'
'itě_'
'intentions_'
'int'
'insufficient_'
'inovací_'
'inform'
'iness_'
'indication_'
'ika'
'ific'
'ict'
'ico'
'hum'
'households_'
'hotel'
'hlavně_'
'hing_'
'hil'
'grown_'
'gri'
'grew_'
'governmental_'
'gne'
'glu'
'glo'
'glad_'
'gal'
'forecast'
'fon'
'filtr'
'fic'
'fe_'
'fax_'
'extension_'
'expertise_'
'existující'
'exceed_'
'evropská_'
'evn'
'esc'
'entity_'
'entertainment_'
'emn'
'emit'
'emission_'
'ee'
'eck'
'důležitější_'
'dět'
'děl_'
'děl'
'drá'
'dovoz'
'dostali_'
'dos_'
'dolů_'
'dit'
'diskriminace_'
'disciplin'
'discharge_'
'directives_'
'determination_'
'dete'
'desetiletích_'
'dek'
'debts_'
'datem_'
'cíli_'
'correctly_'
'continental_'
'confirm_'
'conduct_'
'conclusions_'
'competence_'
'comment_'
'comm'
'cia'
'chr'
'chlap'
'chee'
'celní_'
'celkov'
'caught_'
'cam'
'ca'
'bě'
'bohatých_'
'bl'
'bing_'
'becomes_'
'beauty_'
'bb'
'bas'
'balíčků_'
'baby_'
'ačn'
'auto_'
'attitude_'
'attached_'
'ator_'
'asc'
'arguments_'
'antivirus_'
'alive_'
'alg'
'alergiky_'
'ako'
'ai_'
'agentur_'
'adopting_'
'addressing_'
'adaptation_'
'ada'
'acting_'
'accelerated_'
'absolute_'
'Zo'
'White_'
'Welcome_'
'Věřím_'
'Vor'
'Ukrajin'
'Torre'
'Thanks_'
'Ted'
'TRA'
'TH'
'Syn'
'Sv'
'Studies_'
'Souhlasím_'
'Similarly_'
'Sie'
'Shops_'
'She'
'Seznam_'
'Sad'
'SK'
'Rh'
'RO'
'Pěší_'
'Program_'
'Portugalsko_'
'Partnership_'
'Palm'
'Over_'
'Ot'
'Open_'
'Om'
'OP'
'Náš_'
'Nový_'
'Northern_'
'Next_'
'News_'
'Nem'
'Nas'
'NU'
'Mě'
'Mun'
'Moje_'
'Mobil'
'Maybe_'
'Maintenance_'
'Kri'
'Kha'
'Kata'
'Jistě_'
'Jedna_'
'JE'
'Installation_'
'Image_'
'Hy'
'Hlasování_'
'Have_'
'Green_'
'Gre'
'Gran'
'Fle'
'Education_'
'EUROPEAN_'
'ER_'
'EP'
'EG'
'Dne_'
'Dia'
'DS'
'Computer_'
'Compa'
'Cli'
'Ch'
'Ce'
'Case_'
'CT'
'COM_'
'Budeme_'
'Big_'
'Available_'
'Authority_'
'Aug'
'Assembly_'
'Ass'
'Asi'
'As'
'Ari'
'Arab'
'Apartamentos_'
'Američané_'
'Ama'
'Agriculture_'
'76_'
'63_'
'61'
'.” _'
'-- _'
'):_'
'$_'
' : '
'в'
'žit_'
'žil_'
'ťan'
'ště_'
'šli_'
'šla_'
'šk'
'řeší_'
'Řecku_'
'ňte_'
'ňovat_'
'částečně_'
'čel'
'čekat_'
'čan'
'ý'
'účinně_'
'úprav'
'úmrtí_'
'údaj'
'íva'
'ív'
'íma'
'¡_'
'záznam'
'závisl'
'záruky_'
'zákonů_'
'zákonem_'
'změněn'
'zdrojem_'
'zby'
'zaznamenal'
'zavázal'
'zasl'
'zaručit_'
'zajist'
'yv'
'yl_'
'ychl'
'wl'
'winter_'
'whi'
'wed_'
'weapon_'
'wave_'
'vždycky_'
'výp'
'výhledem_'
'výběru_'
'vzácn'
'vztazích_'
'využívají_'
'vysokého_'
'vysoká_'
'vysoko'
'vysl'
'vyl'
'vrátí'
'vozidel_'
'viewed_'
'victim_'
'veřejný_'
'vers'
'verb'
'velmoc'
'velikosti_'
'vedlo_'
'veden'
'vaš'
'vala_'
'uživatel'
'učinila_'
'uvedla_'
'uveden'
'uspě'
'určitý_'
'upu'
'upper_'
'unp'
'unik'
'uměl'
'ult_'
'ukončena_'
'uit'
'uhl'
'udělen'
'udi'
'uda'
'těmi_'
'těla_'
'tun'
'tter'
'trick'
'trhem_'
'trestných_'
'trea'
'transmission_'
'tranquil'
'tourists_'
'tit'
'tik'
'threats_'
'terminal_'
'teprve_'
'tel'
'technika_'
'tch_'
'tang'
'tai'
'síla_'
'sí'
'svobodné_'
'supporters_'
'sub_'
'střet'
'stupně_'
'stunning_'
'stuff_'
'stráž'
'stri'
'straight_'
'ston_'
'stejnou_'
'stažení_'
'statut'
'starts_'
'stanice_'
'standardní_'
'spá'
'správce_'
'spotřebitel'
'soustav'
'soused'
'somewhat_'
'solidarit'
'sold_'
'soft_'
'sni'
'snažil_'
'směrnicí_'
'skončil'
'sk_'
'side'
'sia_'
'serving_'
'sedm_'
'scr'
'sample_'
'rys'
'rovnováhy_'
'roh'
'rodin'
'rní_'
'rf'
'restr'
'resolutions_'
'residential_'
'reporting_'
'remote_'
'rema'
'reliable_'
'regimes_'
'reform'
'reflects_'
'records_'
'ranging_'
'rail_'
'rai'
'qui'
'původní_'
'půjč'
'přistěhovalců_'
'připraveny_'
'přijme_'
'přijde_'
'přijat'
'přesvědčeni_'
'přestal'
'přel'
'předložil_'
'písmeno_'
'pti'
'pt_'
'právech_'
'proximity_'
'protest_'
'prosper'
'program'
'prefer'
'pravomocí_'
'pramen'
'požár'
'požad'
'pož'
'posílen'
'posl'
'porovnání_'
'polovině_'
'pollution_'
'pokračoval'
'poje'
'podpořil'
'podporovan'
'podporoval'
'pob'
'plnou_'
'plenary_'
'plain_'
'picturesque_'
'phrases_'
'patent'
'pass'
'partnery_'
'partner'
'parlamentem_'
'pala'
'očí_'
'oči'
'ovsk'
'ovo'
'ovlivn'
'ova'
'our'
'oucí_'
'osud'
'osobám_'
'originating_'
'operate_'
'one'
'ome'
'okamžik_'
'ohrožen'
'odstra'
'odráží_'
'odpovědět_'
'odoln'
'odhal'
'oddělen'
'oběti_'
'obzvlášť_'
'obsta'
'obsahem_'
'obranu_'
'nápo'
'nám'
'nákladní_'
'nz'
'nte_'
'nst'
'ností_'
'normální_'
'nn'
'night'
'neví'
'nevz'
'nestabilit'
'nepov'
'nepom'
'nemáme_'
'nejde_'
'nejb'
'nea'
'nche'
'naznačuje_'
'místnosti_'
'myšlenky_'
'miles_'
'medi'
'mato'
'marks_'
'mani'
'malaria_'
'lídři_'
'lož'
'losing_'
'log'
'local'
'lní'
'liquidity_'
'lil'
'lez'
'leto'
'letišt'
'letecké_'
'leg'
'launched_'
'label_'
'lab'
'ky'
'kurt_'
'krátkodobé_'
'krv'
'krevní'
'kousek_'
'kontrole_'
'kont'
'konflikt_'
'konce'
'kompromisu_'
'komisi_'
'kladn'
'kids_'
'každá_'
'kartu_'
'kapitál_'
'jímž_'
'jes'
'jakmile_'
'ization_'
'isti'
'interior_'
'inter_'
'icích_'
'hydro'
'humans_'
'humanity_'
'hovoří_'
'holidays_'
'hod_'
'heri'
'happening_'
'handling_'
'guidelines_'
'gru'
'gin'
'gent'
'fun_'
'fs'
'frequently_'
'frame'
'forest_'
'floors_'
'fire'
'financ'
'fees_'
'fat'
'faster_'
'false_'
'fallen_'
'ets_'
'este'
'estate_'
'escape_'
'erov'
'entirety_'
'ensi'
'encouraged_'
'elit'
'eho'
'ego'
'edo'
'earth_'
'důstojn'
'dív'
'držitel'
'dryer_'
'dry_'
'dramatic_'
'dovozu_'
'dosáhly_'
'dor_'
'doprav'
'doporučuje_'
'dopadů_'
'dohromady_'
'dobrých_'
'dobr'
'dnech_'
'dluhů_'
'discre'
'disco'
'directed_'
'die'
'dev'
'detail'
'destabiliz'
'deploy'
'denní_'
'delicious_'
'defence_'
'deb'
'dav'
'credible_'
'credibility_'
'cr_'
'cov'
'configuration_'
'cká_'
'chen'
'char'
'cestující_'
'centr'
'cast'
'capita_'
'calculated_'
'cab'
'běh'
'bí'
'busy_'
'britské_'
'brings_'
'brat'
'br'
'bou'
'bot'
'boh'
'blame_'
'birth_'
'bij'
'bigger_'
'bi_'
'bezpečí_'
'bedrooms_'
'bedding_'
'authorisation_'
'aut'
'attract'
'ate'
'association_'
'aside_'
'army_'
'argued_'
'architektur'
'aný_'
'alternativní_'
'alb'
'aga'
'affects_'
'adult_'
'acceptance_'
'absorb'
'`_'
'] '
'Zimbabwe_'
'Wel'
'Vě'
'Velmi_'
'Tě'
'Type_'
'Tohle_'
'Tho'
'Systém_'
'Sy'
'Sunday_'
'Suites_'
'Slovakia_'
'SPOLEČENSTVÍ_'
'SMEs_'
'SL'
'Rá'
'Rozprava_'
'Rot'
'Rod'
'Regula'
'Reco'
'Rat'
'RU'
'Que'
'Procedure_'
'Poznámky_'
'Okay_'
'Oddíl_'
'Oc'
'Německ'
'Někteří_'
'Nevertheless_'
'Naopak_'
'NG_'
'Měl_'
'Mé'
'Mercure_'
'Medi'
'Meanwhile_'
'Mc'
'May'
'Maastricht_'
'MT'
'ME_'
'LT'
'Kap'
'KA'
'Joint_'
'Jinými_'
'Jenže_'
'Jedin'
'James_'
'It'
'Inforegio_'
'Indii_'
'Il'
'Hostel_'
'Hosp'
'Hand'
'HAS_'
'Golfové_'
'Galileo_'
'GUE_'
'G20_'
'Firstly_'
'Finland_'
'FOR'
'FE'
'Exp'
'Dr_'
'Dr'
'Don'
'Des'
'Course_'
'Clinton_'
'Cla'
'Christian_'
'Charles_'
'California_'
'CL'
'Bru'
'Bank'
'Applause_'
'Ant'
'Alpha_'
'Airlines_'
'Af'
'Abychom_'
'=_'
':'
'32'
'19th_'
'126'
'120_'
'03'
'+ _'
' ['
'…_'
'‘_'
'životů_'
'žijí_'
'štít'
'Ř'
'ěk'
'ějšího_'
'čínsk'
'červ'
'čase_'
'Čínou_'
'ývající'
'útoč'
'útoku_'
'ústřední_'
'ústavní_'
'úspěšné'
'úrovní_'
'údržb'
'ø'
'íže'
'íše_'
'ávat_'
'ál'
'zásadu_'
'západ'
'způsobů_'
'zodpovědnosti_'
'znalosti_'
'zma'
'země'
'zelen'
'zbytečn'
'začaly_'
'zaměřit_'
'zakr'
'zada'
'zabezpeč'
'yst'
'wood'
'wm'
'withdrawal_'
'wer'
'web'
'warp_'
'warm'
'všeobecně_'
'vědc'
'vývozu_'
'vývoz_'
'výroba_'
'výdaj'
'více'
'válečn'
'vzp'
'vyř'
'vyvolává_'
'vysílání_'
'vystav'
'voln'
'voličů_'
'volební_'
'volební'
'vodou_'
'vice_'
'vhodných_'
'vhodná_'
'vest'
'vedoucí'
'vedly_'
'vedla_'
'vali_'
'uštěn'
'učiněn'
'utrpení_'
'ura_'
'upozornil_'
'unnecessary_'
'unions_'
'unfortunately_'
'undoubtedly_'
'umístěn'
'ujícím_'
'ujete_'
'ugh_'
'udělení_'
'udržitelný_'
'ubo'
'třech_'
'těžko_'
'ture_'
'tova'
'tional_'
'tin_'
'tie'
'terrorists_'
'terorismus_'
'technologick'
'tebe_'
'taste_'
'tajemství_'
'tain'
'tackle_'
'síc'
'světového_'
'svědky_'
'svoboda_'
'survey_'
'surprised_'
'surplus_'
'surely_'
'sugar_'
'such'
'střel'
'stře'
'stěn'
'stížnost'
'sty'
'stránka_'
'stran'
'stories_'
'stk'
'stin'
'stimul'
'stick'
'statistick'
'staro'
'stance_'
'squa'
'správu_'
'splnit_'
'span'
'sov'
'současnou_'
'soc'
'snižuje_'
'silnou_'
'shu'
'shodn'
'shing_'
'separated_'
'senior_'
'sdružení_'
'sd'
'scénář'
'sazba_'
'sake_'
'rub'
'rozsah_'
'rozhodující_'
'rozh'
'rova'
'rou_'
'roof_'
'rn_'
'rival'
'rip'
'retire'
'retain'
'reso'
'religion_'
'regulaci_'
'reformá'
'recip'
'receiving_'
'read'
'rb'
'ray_'
'rain'
'radi'
'ra'
'q'
'původně_'
'příspěvky_'
'příslušnost_'
'přírodních_'
'přípravky_'
'přistěhovalectví_'
'připad'
'přinesl'
'přijít_'
'přidružení_'
'překvap'
'přednost_'
'předkláda'
'pák'
'py_'
'py'
'putting_'
'prokázal'
'prodáva'
'prodeje_'
'pravidl'
'pravděpodobné_'
'pravděpodobností_'
'pracovník'
'pozv'
'pozice_'
'postavit_'
'poskytovatel'
'poruch'
'populations_'
'poptávku_'
'pojist'
'pohyb_'
'pohrom'
'podporován'
'podpor'
'pochopil'
'pochopení_'
'poblíž_'
'plateb_'
'planned_'
'periods_'
'performed_'
'perform_'
'percent_'
'pen'
'pas_'
'parliament_'
'panoramic_'
'ová'
'ovladač'
'overt'
'overs'
'overcome_'
'ouz'
'oun'
'ostatním_'
'ore'
'opinions_'
'opatrn'
'opakovaně_'
'olá'
'of'
'odpovědí_'
'odpovídá_'
'odhalil'
'odhad'
'odd_'
'odbor'
'ochot'
'obě'
'občanského_'
'obtížn'
'observed_'
'obraz'
'obrany_'
'obav'
'nějaká_'
'násob'
'následně_'
'nákladn'
'num'
'nsi'
'novém_'
'normally_'
'norem_'
'nin'
'nezávislosti_'
'nepří'
'nejd'
'nedo'
'nechal'
'nda_'
'naturally_'
'nastavit_'
'naprost'
'naj'
'nabíze'
'mů'
'město_'
'městech_'
'museli_'
'movements_'
'montáž'
'modelu_'
'minulý_'
'minul'
'minors_'
'ministrů_'
'mili'
'mezd_'
'menšiny_'
'ment'
'mber'
'matk'
'masa_'
'manželů_'
'managing_'
'mai'
'magnificent_'
'lé'
'lovn'
'loved_'
'loni_'
'load_'
'lný'
'literary_'
'ling'
'like'
'lights_'
'lifted_'
'lhůta_'
'legislat'
'landscape_'
'lak'
'kři'
'kyně_'
'kultur'
'král'
'kritik'
'krat'
'kontrolovat_'
'koloni'
'kláves'
'ket'
'kes_'
'kart'
'kapitán_'
'kapacit_'
'jednotné_'
'jednostrann'
'jednoduché_'
'jediné_'
'jasn'
'jakékoli_'
'ive'
'ists_'
'iro_'
'iri'
'ious_'
'investovat_'
'invasion_'
'intra'
'interim_'
'intend_'
'intelligence_'
'institut'
'iniciativu_'
'informován'
'informovat_'
'infa'
'incomp'
'ima'
'ils_'
'ignor'
'ien'
'hyb'
'hotelů_'
'hn'
'hluboké_'
'hladiny_'
'historické_'
'histori'
'hall'
'had'
'gua'
'gt'
'gs'
'granting_'
'gram'
'gla'
'girl_'
'gets_'
'geographical_'
'geno'
'generated_'
'gate_'
'fraud_'
'francouzské_'
'franc'
'fov'
'foundations_'
'formula'
'formal_'
'fie'
'federal_'
'favor_'
'farm_'
'fare_'
'faktorem_'
'facto_'
'faced_'
'exploit'
'ev'
'euro'
'eur'
'ere_'
'eno'
'enhance_'
'energi'
'energetiky_'
'enci'
'employ'
'elo'
'eliminate_'
'ekonomická_'
'ein'
'efektivit'
'efekt'
'důstojník'
'důkaz_'
'dvou'
'dvakrát_'
'dramatically_'
'down'
'dovolte_'
'dospěl'
'dor'
'doporučen'
'doh'
'dog_'
'doctor_'
'dobro'
'dlouhou_'
'diversity_'
'diss'
'dishes_'
'dio'
'dil_'
'dig'
'desát'
'dest'
'dependence_'
'demonstrate_'
'dej'
'deeply_'
'deeper_'
'deco'
'decentraliz'
'daughter_'
'daný_'
'cí'
'conveniently_'
'consultation_'
'consequence_'
'consent_'
'colleague_'
'coast_'
'civilní_'
'civilní'
'citizen_'
'cil'
'chů'
'chyba_'
'choices_'
'chemical_'
'chat_'
'cease'
'causing_'
'cap'
'cancer_'
'bývalý_'
'brz'
'broadcast'
'bright_'
'bottle'
'bolest_'
'bol'
'bezplatn'
'beside_'
'bere_'
'bed'
'bare'
'aviation_'
'autonom'
'aster'
'arrive_'
'arabsk'
'applying_'
'appeal'
'ap'
'anyway_'
'answered_'
'amu'
'americkou_'
'ama_'
'alise_'
'aliance_'
'aki'
'adapted_'
'adapta'
'acquis_'
'abe'
']'
'Zvláštní_'
'Zejména_'
'Zd'
'Zak'
'Vždyť_'
'Vz'
'Vys'
'Vlastn'
'Up'
'Um'
'Third_'
'Tenisový_'
'Sti'
'Standard_'
'Stan'
'Spojenými_'
'Space_'
'Sant'
'Sand'
'Ret'
'Reserve_'
'Red'
'Ram'
'RC'
'Qua'
'Představ'
'Pur'
'Protection_'
'Prince'
'Port_'
'Polo'
'Pav'
'Pass'
'Ov'
'Nothing_'
'Nizozemsko_'
'Nikdy_'
'Neměl'
'Nech'
'Nat'
'Muslims_'
'Mis'
'Metro_'
'Maďarsk'
'Lod'
'Lisboa_'
'Lev'
'Lau'
'Lab'
'Krytý_'
'Korean_'
'Konečně_'
'Kate'
'Jedním_'
'Jedná_'
'Jednou_'
'Japonsku_'
'Inte'
'Inst'
'Informace_'
'Inf'
'IR'
'ING_'
'Holiday_'
'Hall_'
'Fond_'
'File_'
'Fal'
'Egypt'
'EVROPSKÝCH_'
'ET_'
'Dev'
'Department_'
'DR'
'Conf'
'Blízkém_'
'Bene'
'Ben_'
'Barb'
'Baltic_'
'BE'
'Art'
'Arabic_'
'Apo'
'Alexander_'
'Al_'
'Ag'
'Action_'
'?”_'
'71'
'33'
'1979_'
'1970_'
'142_'
'139_'
'05'
'.“ _'
' &_'
'— _'
'živé_'
'ůd'
'ťte_'
'ť'
'štin'
'šl'
'řízen'
'říká'
'řídil'
'řit_'
'ěz'
'ěrn'
'ěle'
'Ě'
'čtyř_'
'člun'
'česk'
'čemu_'
'čas'
'Čt'
'účinnější_'
'úkon'
'újm'
'ön'
'íž'
'íze'
'éra_'
'él'
'ář_'
'ávají_'
'áh'
'}}'
'| '
'zář'
'závažný'
'zásoby_'
'základ'
'zák'
'zvýšil_'
'zvolit_'
'zvol'
'zrušen'
'zoval'
'zohledněn'
'zmínil_'
'zkr'
'zit'
'zen_'
'zaž'
'začnou_'
'zavá'
'zaslouží_'
'zaměřuje_'
'založena_'
'zaj'
'zahrnují_'
'zachoval'
'wishes_'
'whereby_'
'welcomes_'
'weather_'
'waters_'
'všeobecné_'
'věřitelů_'
'věz'
'věk'
'významu_'
'výrobců_'
'výnos'
'výměnou_'
'vým_'
'výhodn'
'vý'
'víz'
'vzpomínk'
'vyvolan'
'využíván'
'vyskyt'
'vyplývající_'
'vykonavatel'
'vt'
'vstupuje_'
'vrace'
'vost_'
'vor'
'volbu_'
'vojenských_'
'voices_'
'vodní_'
'vládn'
'vlajk'
'vič'
'visa_'
'vic'
'vešker'
'veri'
'vene'
'velitel'
'vegetables_'
'vec'
'vat'
'vary_'
'vak'
'vad'
'užívání_'
'ux_'
'uváž'
'uvedeny_'
'uty_'
'uto'
'uskutečnění_'
'updated_'
'univerzity_'
'uniform'
'ular_'
'ukázalo_'
'ubl'
'třetím_'
'tělo_'
'týdn'
'tán'
'tábor'
'tz'
'typically_'
'tte'
'troops_'
'tres'
'transportation_'
'transform_'
'transfer'
'tradice_'
'tobacco_'
'tkví_'
'tisíce_'
'tif'
'tické_'
'teaching_'
'taxpayers_'
'tax'
'svá'
'svat'
'sum_'
'stylov'
'stránce_'
'strá'
'strukturálních_'
'stol'
'stl'
'stepped_'
'steel_'
'stažen'
'stanoveny_'
'stain'
'srpna_'
'spravedlivé_'
'spouse_'
'společn'
'spolehliv'
'split_'
'soustřed'
'solid_'
'sociálním_'
'sn'
'smoke_'
'slušn'
'slowly_'
'slad'
'sl'
'skrze_'
'skot'
'sklad'
'skin_'
'sir'
'sing'
'shout'
'selling_'
'segment'
'sedmi_'
'secret_'
'sec'
'sdílení_'
'schůzk'
'schopn'
'sběr'
'samostatně_'
'sam'
'rta'
'rs'
'rozporu_'
'rozhodl_'
'rozd'
'rovnost_'
'roo'
'ront'
'rodičů_'
'rodič'
'rin'
'revision_'
'restrukturalizaci_'
'repeatedly_'
'repe'
'remarkable_'
'rel'
'regionech_'
'recognized_'
'realizaci_'
'raj'
'question'
'quer'
'příčin_'
'příručk'
'přišli_'
'přinést_'
'přesvědčena_'
'přesvědč'
'předsedovi_'
'předsed'
'předpokláda'
'přechodn'
'pěkn'
'psi'
'pryč_'
'prv'
'proz'
'protokol_'
'propaga'
'pron'
'prompt'
'promi'
'proc'
'problémům_'
'priorit'
'prin'
'present'
'premi'
'prefer_'
'pravidelně_'
'prací_'
'pořad'
'použiteln'
'pour_'
'poskytují_'
'poskytl'
'poplatek_'
'poněkud_'
'ponaučení_'
'pomal'
'pok'
'pohled'
'podl'
'pobřeží_'
'plenty_'
'ple_'
'plavidla_'
'pick'
'pha'
'personally_'
'pel'
'pati'
'partitions_'
'participants_'
'parlamentní_'
'parlament'
'palubě_'
'paliv_'
'ownership_'
'otro'
'otevření_'
'otevřen'
'osvědčení_'
'osv'
'oru_'
'organiz'
'organism'
'organic_'
'opustit_'
'opravdov'
'ope'
'opakuj'
'oně'
'okolní'
'ohrožení_'
'odstavce_'
'odliš'
'odk'
'odch'
'obsa'
'obrázk'
'obrovský_'
'obnoven'
'obn'
'oble'
'někoho_'
'níky_'
'následky_'
'náhle_'
'nym'
'nos'
'norm'
'noc'
'nil_'
'než'
'neznám'
'nezm'
'nevím_'
'neuro'
'nese'
'nepřátel'
'největším_'
'nejlépe_'
'nedokáže_'
'nedokázal'
'nechal_'
'našimi_'
'nahrazen'
'naději_'
'nade'
'měřítku_'
'měřen'
'mý'
'musela_'
'mt'
'monitorování_'
'mimo'
'metra_'
'media'
'mechanismy_'
'mbi'
'match_'
'maritime_'
'mali'
'maintaining_'
'magn'
'lý_'
'lived_'
'lh'
'letos_'
'lesson_'
'lek'
'lect'
'leaves_'
'laugh'
'lau'
'lasting_'
'křesťansk'
'kře'
'kvalitní_'
'kurzu_'
'krátkodob'
'krmiv'
'kontrolní_'
'konkurenci_'
'konal'
'kombinaci_'
'kola_'
'km'
'klimatických_'
'každoročně_'
'kabel'
'jším_'
'jícím_'
'jpg_'
'jih'
'jemn'
'jednáních_'
'jc'
'jazyky_'
'jack'
'ivé_'
'irre'
'invitation_'
'invent'
'interrupt'
'internetových_'
'installations_'
'inso'
'ink'
'informal_'
'impress'
'impose_'
'implications_'
'imi'
'ika_'
'ických_'
'ich_'
'háj'
'hry_'
'hospodářským_'
'hopes_'
'homes_'
'holo'
'hmotnost'
'hir'
'hill_'
'helps_'
'heads_'
'hat_'
'hat'
'harmful_'
'han_'
'grand'
'globaliz'
'girls_'
'ghte'
'gh'
'fér'
'functional_'
'fulfil_'
'freedoms_'
'fli'
'flash'
'fis'
'finances_'
'fica'
'ff_'
'fee_'
'favour'
'factory_'
'facility_'
'extraordinary_'
'exposure_'
'experiences_'
'exp'
'exemption_'
'exclusively_'
'excess_'
'etr'
'ete'
'estimates_'
'esti'
'erv'
'entre'
'ensu'
'engineer'
'engage_'
'energetickou_'
'ends_'
'emi'
'ema'
'elli'
'ekonomických_'
'ekonomický_'
'eal'
'důvěry_'
'důvěrn'
'dělá_'
'dur'
'dub'
'drží_'
'drž'
'dru'
'drag'
'dorf_'
'doors_'
'done'
'domu_'
'dominated_'
'dokonal'
'doctors_'
'docela_'
'dno'
'dni_'
'dluhov'
'dlouhá_'
'dlouhodob'
'dist'
'disabled_'
'digit'
'destruction_'
'desp'
'deseti'
'depart'
'dek_'
'deci'
'dde'
'db'
'dating_'
'dala_'
'cus'
'cure_'
'cun'
'cro'
'creative_'
'creates_'
'cova'
'conventional_'
'contributed_'
'concert'
'collected_'
'climb'
'cio'
'ching_'
'chen_'
'channel_'
'ces'
'cens'
'cenné_'
'celkového_'
'cat'
'care'
'capture_'
'bytost'
'bys_'
'bust'
'browser_'
'brief_'
'bral'
'boom_'
'black'
'bezd'
'best'
'bee'
'bedroom_'
'baru_'
'band'
'azyl_'
'ay'
'ax'
'await'
'aw'
'aver'
'autobus'
'austerity_'
'audit_'
'ata_'
'arise_'
'appe'
'alter'
'alliance_'
'agents_'
'afternoon_'
'after'
'advertising_'
'advantages_'
'administrativa_'
'aco'
'Zde_'
'Za'
'Wal'
'Vím_'
'VA'
'Topics_'
'Thu'
'Tam'
'THIS_'
'Světová_'
'Svět_'
'Supreme_'
'Subject_'
'Step'
'Steam_'
'Srbsk'
'Smith_'
'Slovenian_'
'Share'
'Ses'
'School_'
'Sc'
'San'
'ST_'
'STA'
'Rus'
'Rural_'
'Robert_'
'Republican_'
'Reform'
'Rec'
'Příslušn'
'Prosím_'
'Premier_'
'Praha_'
'Poté_'
'Potlesk_'
'Portuguese_'
'Polsko_'
'Place_'
'Pension_'
'Park'
'Palestinci_'
'Oxford_'
'Osob'
'Organisation_'
'Opravdu_'
'OS'
'Nové_'
'Norway_'
'Nor_'
'Nob'
'Nejvyšší_'
'Nejs'
'Nav'
'Máte_'
'Mot'
'Michael_'
'Mat'
'Mark_'
'MM'
'Lotyšsk'
'Lisabonská_'
'Las_'
'Kulečníky_'
'Kre'
'Kodani_'
'Kli'
'Kel'
'Kdy'
'KE'
'Jsi_'
'Jane'
'Interim_'
'IS_'
'IN_'
'IL'
'ICA'
'Hungary_'
'Hey_'
'Heathrow_'
'Has'
'Gree'
'Gr'
'Germans_'
'Gazy_'
'Gardens_'
'GO'
'Fundamental_'
'Fort'
'Fer'
'Fail'
'FO'
'Estonia_'
'ESF_'
'EIB_'
'Due_'
'Dublin_'
'Dominion_'
'Dam'
'DN'
'DA_'
'Cot'
'Control_'
'Communist_'
'Comfort_'
'Climate_'
'Cle'
'Christ'
'Chamber_'
'Chairman_'
'Cast'
'By'
'Bohužel_'
'Blue_'
'Blair_'
'Bet'
'Bak'
'Argument_'
'Applicable_'
'And'
'Alb'
'Abb'
': “_'
'79_'
'700_'
'45'
'202'
'189'
'180_'
'-'
'*'
')?_'
'牌'
'。_'
'у'
'žá'
'žova'
'ži'
'ža'
'Žid'
'ůž'
'ťov'
'šílen'
'šá'
'šok'
'šlo_'
'škod'
'Švýcarsk'
'Ši'
'říkají_'
'řin'
'řejn'
'ěni'
'číta'
'čku_'
'činit_'
'čet_'
'čekal'
'časové_'
'ýr'
'účt'
'účastník'
'út'
'ód'
'ížení_'
'íra'
'íny_'
'íkov'
'áše'
'áně'
'álním_'
'Úředním_'
'Úpln'
'­ _'
'zřízení_'
'zúčastněné_'
'zón'
'získala_'
'zíme_'
'závod'
'zájmem_'
'zvě'
'zvýšila_'
'zvyšování_'
'zvláštním_'
'způsoben'
'zpoplatněn_'
'zoufal'
'zodpovědn'
'zná'
'značnou_'
'znamen'
'zk'
'zdálo_'
'začátek_'
'zaveden'
'započ'
'zaměřil'
'zaměstnavatel'
'zakázán'
'zajištěn'
'zajistily_'
'zabi'
'yšlen'
'ys'
'worth'
'wha'
'western_'
'wei'
'warned_'
'walked_'
'vše'
'věřím_'
'věřil'
'věr'
'vědč'
'vědecké_'
'včas_'
'vč'
'výživné_'
'výživ'
'významn'
'vývozní_'
'výsledku_'
'výnosy_'
'výhled_'
'východ_'
'víš_'
'vítá_'
'vzdálenost_'
'vzdálen'
'vyřeš'
'vyvolal'
'vypracoval'
'vynaložen'
'vyjádření_'
'vyhrazen'
'vyhled'
'vydáva'
'vyberte_'
'vrátil_'
'volatil'
'voda_'
'vita'
'view'
'vidí_'
'versions_'
'velikost_'
'vedením_'
'vali'
'vai'
'užíva'
'uznává_'
'uzl'
'uvi'
'uss'
'urgently_'
'uplatňován'
'unfair_'
'unfa'
'undertaken_'
'unce'
'ukázal_'
'uklid'
'uje'
'udržitelného_'
'udržel'
'ube'
'těší_'
'twi'
'tures_'
'truc'
'translator_'
'transatlantic_'
'transaction_'
'trained_'
'tragedy_'
'totéž_'
'tos'
'tlak'
'tito_'
'tiny_'
'throw_'
'thre'
'teploty_'
'tempt'
'tely_'
'tape_'
'tank'
'talent_'
'tac'
'síl'
'syno'
'svěřen'
'svoje_'
'supervis'
'sum'
'subt'
'stěž'
'stránkách_'
'struktury_'
'strop'
'strengthened_'
'stov'
'stole'
'stock'
'stick_'
'steer'
'statistical_'
'state'
'stan_'
'stal'
'sta_'
'spory_'
'současného_'
'souhlasím_'
'souhlas_'
'som'
'soa'
'sně'
'sníží_'
'snaž'
'směru_'
'smile_'
'sma'
'slov_'
'skoro_'
'sklon'
'sin'
'silver_'
'silou_'
'silent_'
'sian_'
'shut_'
'short'
'shoot'
'sharp_'
'sez'
'ses'
'securities_'
'seal'
'scu'
'saved_'
'růstem_'
'rů_'
'rád'
'rychlý_'
'rse'
'rozšířit_'
'rozšiřování_'
'rozpravu_'
'rozhovory_'
'ron_'
'rodičovské_'
'riz'
'ring'
'revolution'
'returns_'
'resulted_'
'respective_'
'reserves_'
'requests_'
'renewed_'
'remo'
'remi'
'reli'
'released_'
'regarded_'
'refused_'
'refers_'
'recording_'
'ratio_'
'rali'
'radě_'
'rab'
'půjčky_'
'příštím_'
'příslušným_'
'příjmu_'
'připomenout_'
'přik'
'přijímá'
'přib'
'přezkumu_'
'přer'
'přehled_'
'předešl'
'přechod_'
'pěst'
'pěl'
'píš'
'provinci'
'provider_'
'prospěšn'
'prosazovat_'
'properties_'
'promluvit_'
'promised_'
'prol'
'professions_'
'productive_'
'proběhl'
'print_'
'preventing_'
'prete'
'preceden'
'pravi'
'pracuje_'
'pracuj'
'pracovníky_'
'pracovního_'
'ppe'
'požádal_'
'požadovat_'
'pošt'
'poškození_'
'považován'
'poste'
'pomáhat_'
'pokus'
'pokračuje_'
'pokračování_'
'podporuji_'
'pobíd'
'photos_'
'phon'
'pečlivě_'
'permitted_'
'permission_'
'passing_'
'passenger_'
'parameters_'
'paměť_'
'palestinský'
'pale'
'oče'
'ověření_'
'oví_'
'ovan'
'ous'
'ott'
'otevřená_'
'otevřel_'
'oss'
'ose_'
'oppo'
'oper'
'onali'
'omezené_'
'oku'
'ogra'
'odměn'
'odm'
'odkud_'
'ode_'
'ocit'
'ochrana_'
'occurred_'
'oblo'
'objemu_'
'obdržel'
'některá_'
'něk'
'něj'
'návratu_'
'náročn'
'náhradu_'
'nutně_'
'nský'
'nor'
'niz'
'nevid'
'nesta'
'nesl'
'nepřij'
'nenap'
'nen'
'největších_'
'nejt'
'nedal'
'nder'
'naznačují_'
'napo'
'nahradit_'
'nahr'
'nah'
'nadcházejících_'
'mód'
'míst'
'myšlenka_'
'mozk'
'mount'
'morální_'
'module_'
'mod'
'mmer'
'mirror_'
'mining_'
'micro_'
'metod_'
'mechani'
'mas_'
'mari'
'machinery_'
'mac'
'lů_'
'lídr'
'líb'
'lv'
'lon'
'logical_'
'lob'
'litera'
'linie_'
'lidov'
'lessons_'
'lera'
'lc'
'lb'
'lawyers_'
'law'
'latin'
'lan'
'ladn'
'labelling_'
'kód_'
'kv'
'kus'
'kul'
'ktu'
'koč'
'konz'
'komisaře_'
'kome'
'kolektivní_'
'klíč_'
'kl_'
'kk'
'keyboard_'
'kat_'
'kapitálových_'
'kapitálové_'
'judges_'
'js'
'ix_'
'ives_'
'itu_'
'italsk'
'ish'
'irské'
'iron_'
'ione'
'intervence_'
'intel'
'insul'
'instability_'
'insk'
'inh'
'informacím_'
'inequality_'
'industrializ'
'imprison'
'implement'
'impe'
'ime'
'ikov'
'identification_'
'ident'
'ického_'
'ibi'
'hypo'
'hromad'
'hran'
'hostům_'
'hospodářském_'
'hors'
'holds_'
'hlíd'
'hledat_'
'hlasů_'
'hlasoval_'
'hee'
'hed'
'heal'
'head'
'hair'
'guide'
'gui'
'gnome_'
'gir'
'gener'
'gem'
'gara'
'gan_'
'gained_'
'frekvence_'
'flying_'
'firm'
'fici'
'fertili'
'feed'
'federa'
'fate_'
'fashion_'
'fam'
'extremist'
'exploring_'
'expert'
'excluded_'
'etu'
'etik'
'ether'
'esi'
'enz'
'enk'
'engineering_'
'ending_'
'elsk'
'elektrárn'
'elektronick'
'ein_'
'edly_'
'edi'
'důsledkem_'
'důsled'
'důležitých_'
'dělal'
'dějin_'
'délk'
'dávno_'
'dárc'
'dvora_'
'držet_'
'draw'
'dovozc'
'dotyčné'
'dosáhl_'
'dostává_'
'dolar_'
'dohodnut'
'dodávky_'
'dnešních_'
'dlužník'
'dla'
'dite'
'disappoint'
'diplomatick'
'diminish'
'devi'
'destin'
'desktop_'
'demon'
'dem_'
'delší_'
'deflation_'
'decisive_'
'deals_'
'currencies_'
'cted_'
'crat'
'crack'
'constructive_'
'constantly_'
'constant_'
'confirmed_'
'comprises_'
'commonly_'
'colon'
'coalition_'
'classification_'
'cla_'
'cie'
'chyt'
'chudé_'
'chor'
'chla'
'celosvětové_'
'cell_'
'calm_'
'břehu_'
'bře'
'budgets_'
'breed'
'bolesti_'
'blind_'
'bis'
'bezpečné_'
'bc'
'band_'
'balíků_'
'bak'
'bail'
'bac'
'ažen'
'award_'
'attribute'
'ational_'
'atel_'
'aspekty_'
'aris'
'argumenty_'
'appropriations_'
'appoint'
'apart'
'anov'
'angl'
'anc'
'all'
'alize_'
'agency_'
'africké_'
'aff'
'adresy_'
'ado'
'ada_'
'actors_'
'ache'
'acco'
']]'
'Zr'
'Zemi_'
'Zdá_'
'Wei'
'Vít'
'Vis'
'View_'
'Vie'
'Vezm'
'Venezuel'
'Using_'
'UN'
'Turecká_'
'Tulip_'
'Trump_'
'Tool'
'Ti_'
'Three_'
'Tam_'
'Taj'
'Swedish_'
'Stre'
'Spi'
'Slovensk'
'Ski'
'Sir_'
'Senate_'
'SC_'
'Road_'
'Regulations_'
'Ref'
'Rad'
'RT'
'RN'
'Příprav'
'Pá'
'Prod'
'Problém_'
'Prob'
'Pouze_'
'Post_'
'Pon'
'Point_'
'Pic'
'Pers'
'Parní_'
'Para'
'PAR'
'Os_'
'Odv'
'Obl'
'Obecně_'
'Nov'
'Ner'
'Nemůžeme_'
'Monte'
'Ministers_'
'Michel'
'Micha'
'Marg'
'MP_'
'Love'
'Loc'
'Lin'
'Land'
'LA_'
'Kul'
'Kr'
'Kou'
'Kara'
'KI'
'Jon'
'Jem_'
'Jedno'
'Jar'
'Jam'
'Jaká_'
'Jak'
'Iranian_'
'Institute_'
'Innsbruck_'
'Indoor_'
'Hug'
'Hell'
'Hea'
'Gui'
'Glo'
'Further_'
'Forum_'
'Fl'
'Fin'
'Father_'
'Fan'
'Fac'
'FI_'
'Euros'
'EI'
'ED'
'Dů'
'Dohoda_'
'Dnešní_'
'Director_'
'DU'
'DC_'
'Což'
'Conver'
'Conc'
'Catholic_'
'Catal'
'COMP_'
'CAR'
'Bosnia_'
'Bla'
'Bio'
'Bezp'
'Bay'
'BR'
'Application_'
'Ap'
'Anna'
'Ana'
'Američan'
'Alternative_'
'Alf'
'Aid_'
'About_'
'AU'
'ATI'
'AG'
'AA'
'?' _'
'99'
'52'
'47'
'200'
'190'
'185'
'. .'
'*_'
'), '
'( _'
'! '
' * _'
'ы'
'žní'
'životaschopn'
'žijící_'
'ži_'
'ším'
'štěn'
'špatný'
'šov'
'šit_'
'Španělsku_'
'řej'
'ředn'
'řeb'
'Řecka_'
'ěním_'
'ěny_'
'členem_'
'činitel'
'čerstv'
'čer'
'Čínsk'
'Čl'
'Ča'
'ýš'
'úspor_'
'úkoly_'
'íta'
'írat_'
'íp'
'ím'
'éře_'
'és_'
'ér_'
'ér'
'éd'
'ção_'
'å'
'áž'
'ášen'
'ával'
'átní_'
'ály_'
'áhnout_'
'Ý'
'|'
'zřetelně_'
'záměr'
'záležitostech_'
'základy_'
'ztratil'
'způsobuje_'
'způsobit_'
'zpravodaji_'
'zol'
'zobrazen'
'známé_'
'zničit_'
'znečištění_'
'zkušeností_'
'zio'
'zer'
'zařízen'
'zastáva'
'zahájit_'
'za'
'yu'
'yr'
'yon'
'yla'
'yi'
'xu_'
'xic'
'witness_'
'whilst_'
'weigh'
'watching_'
'wages_'
'většího_'
'věnoval'
'výzvu_'
'výzv'
'vývoz'
'výstavb'
'výsled'
'výs'
'výrobku_'
'výjimečn'
'výhodu_'
'výchov'
'východu_'
'vína_'
'vzhůru_'
'vyznač'
'využíva'
'vytvářejí_'
'vysokých_'
'vyroben'
'vymezen'
'vylepš'
'vyjádřen'
'vyhledávací_'
'vydán'
'vybudovat_'
'vrchol'
'volně_'
'volen'
'vníma'
'vno'
'vliv'
'vlastnosti_'
'vla'
'visited_'
'virtual_'
'vin_'
'vesmíru_'
'venkov'
'uživatelé_'
'už'
'učinil'
'uve'
'usilovat_'
'urs'
'urge'
'ups'
'upozornit_'
'uplatňovat_'
'unwi'
'unu'
'uno'
'univerzit'
'undertakings_'
'undermine_'
'undergo'
'unc'
'umění_'
'umírněn'
'umožnilo_'
'uma'
'ulož'
'ulici_'
'uli'
'uis'
'uhlíku_'
'ught'
'ude'
'těžký'
'témata_'
'tém'
'tw'
'tvůj_'
'tváře_'
'tvor'
'tuc'
'tube_'
'tter_'
'trest'
'travel'
'translate'
'transakcí_'
'traditions_'
'tra_'
'touh'
'tivní_'
'ting'
'thumb_'
'there'
'terrible_'
'temporarily_'
'tell'
'telefon_'
'techno'
'tec'
'tebou_'
'teachers_'
'taught_'
'tajn'
'tactic'
'síťov'
'sym'
'světu_'
'svoji_'
'sus'
'survive_'
'surroundings_'
'suppose'
'sunny_'
'suggestions_'
'středu_'
'sté_'
'stál_'
'stáhnout_'
'studied_'
'strict_'
'stranách_'
'stoup'
'steri'
'stejn'
'stavě'
'stavb'
'stand'
'stall'
'ssa'
'spuštěn'
'správa_'
'spravedlnost_'
'spoustu_'
'spou'
'spotřebitelé_'
'splněny_'
'sphere_'
'speciální_'
'současná_'
'sod'
'smě'
'smíř'
'smo'
'službami_'
'složen'
'slep'
'skvěl'
'sklon_'
'situací_'
'situ'
'sili'
'shromáždění_'
'shoulder_'
'sheet_'
'shar'
'setup_'
'settings_'
'sett'
'semen'
'selecti'
'sed'
'scrutiny_'
'sci'
'schedule_'
'scenario_'
'satelitní'
'sat'
'ráz'
'rybář'
'ruské_'
'rui'
'rozvr'
'rozsudk'
'rozsudek_'
'rozpravě_'
'rozdíl'
'row'
'route_'
'rostoucí'
'rl'
'ril'
'rica'
'rezervní'
'rezerv'
'rever'
'resu'
'restored_'
'restaura'
'restart'
'ress_'
'respekt'
'reply_'
'rent'
'reno'
'relevance_'
'rejection_'
'regulators_'
'registration_'
'registered_'
'reforma_'
'realizovat_'
'ramen'
'qualified_'
'příčinou_'
'příz'
'příspěvků_'
'přímé_'
'příklad'
'příkaz'
'příběh'
'přizpůsobení_'
'přis'
'přinášejí_'
'přežití_'
'převážně_'
'přesvědčen'
'přerušení_'
'překr'
'přejí'
'předpověd'
'předměty_'
'písemnost_'
'ption_'
'pse'
'prudk'
'prověř'
'provoz'
'proud_'
'prote'
'prospě'
'promotion_'
'projevil'
'projednáva'
'profes'
'prof'
'produ'
'prodlouž'
'proda'
'principy_'
'principu_'
'princip'
'prezidentem_'
'previously_'
'prevention_'
'pressures_'
'pres'
'pravé'
'pravdy_'
'pracovním_'
'pped_'
'pozorova'
'povahu_'
'posou'
'posledního_'
'poskytnuta_'
'populistick'
'populist'
'pools_'
'politic'
'pokračoval_'
'pohl'
'poh'
'podrobn'
'plo'
'pleasure_'
'plate'
'placen'
'pipeline_'
'pig'
'phone'
'pensions_'
'pay'
'padesát'
'packe'
'pack'
'označen'
'ovi'
'oti'
'otevřeno'
'osvobození_'
'ose'
'organised_'
'ordered_'
'optic'
'opozice_'
'operací_'
'opera'
'onemocnění_'
'omen'
'okay_'
'ohromn'
'ohl'
'og_'
'odved'
'odt'
'odpor_'
'oddílu_'
'oddíl'
'ochrán'
'ochrann'
'occasion_'
'oby'
'obviously_'
'obrann'
'obohac'
'obchod'
'obc'
'něm'
'něho_'
'nízké_'
'níku_'
'nému_'
'nástrojem_'
'následn'
'národy_'
'národn'
'nár'
'náležit'
'náboženství_'
'ny'
'nty_'
'ntu'
'noticed_'
'nos_'
'ning'
'nil'
'nežádoucí_'
'nezávisl'
'nezn'
'nevys'
'nevyp'
'neuvěřiteln'
'nerovnost_'
'nemovitost'
'nemocí_'
'nel_'
'neexistují_'
'nee'
'nedot'
'nedostatku_'
'necháp'
'nechce_'
'nebudu_'
'nebezpečné_'
'nds_'
'ndi'
'našim_'
'naz'
'navrhla_'
'navigation_'
'naruš'
'napsa'
'naposledy_'
'nano'
'nabídnout_'
'měři'
'měření_'
'místem_'
'mín'
'myšlenku_'
'myslet_'
'myslel_'
'myln'
'muze'
'mus'
'mpa'
'mní'
'mme'
'mixed_'
'missing_'
'ministr'
'mezer'
'mens'
'mandát_'
'malári'
'mak'
'majitel'
'majetek_'
'lázeň_'
'logic'
'logi'
'llen'
'lled_'
'll'
'limit'
'lidskou_'
'liberální_'
'levn'
'leu'
'ler'
'lde'
'ld_'
'laptop_'
'kách_'
'kvalitu_'
'kup'
'ktor'
'krásn'
'krok'
'krk'
'krach'
'korupce_'
'kontrolou_'
'konstruktivní_'
'konkurz'
'konflikty_'
'konečn'
'komunist'
'komerční'
'kolegů_'
'kne'
'klíč'
'klu'
'klimatické_'
'keys_'
'kers_'
'kce_'
'jump'
'jiho'
'jezd'
'jem_'
'jednotný_'
'jasná_'
'ivo'
'ité_'
'ising_'
'ional_'
'invited_'
'inti'
'internetov'
'integrity_'
'insur'
'installer_'
'init'
'indicates_'
'impli'
'ije'
'icí_'
'ickou_'
'ica'
'ial'
'hvězd'
'husband_'
'hoř'
'hodnot'
'hodnocen'
'hlasy_'
'his'
'healthcare_'
'headed_'
'has'
'harmoni'
'happi'
'hairdryer_'
'habit'
'gree'
'gre'
'gna'
'gn'
'gle'
'ghe'
'genocid'
'gene'
'gard'
'fourth_'
'fosilních_'
'formalit'
'foremost_'
'ford_'
'fit_'
'firemní_'
'fication_'
'fewer_'
'favor'
'exporters_'
'exit_'
'executive_'
'examination_'
'exa'
'eto'
'eten'
'eta_'
'ession'
'ess'
'erst'
'enu'
'engaged_'
'eng'
'enda'
'encouraging_'
'enact'
'enabled_'
'emotion'
'emoc'
'embrace_'
'elevator_'
'elektrické_'
'eh'
'edl'
'eden'
'ect_'
'economically_'
'eci'
'důvěryhodn'
'důležitost_'
'dřív_'
'dějinách_'
'dívk'
'duš'
'dus'
'dumping_'
'drug_'
'drives_'
'driven_'
'dream_'
'dotčený'
'dostatečné_'
'doprováze'
'domácností_'
'domácnosti_'
'dome'
'dokážou_'
'doktor'
'dohodl'
'dodnes_'
'disposal_'
'dispon'
'directory_'
'diktatur'
'dikt'
'dialog'
'desk'
'derogation_'
'derived_'
'democrat'
'demo'
'dele'
'definován'
'deficit'
'debates_'
'date'
'cítit_'
'cture'
'ctive_'
'cos'
'corner_'
'cool_'
'converter_'
'convenience_'
'consonant'
'coni'
'confi'
'conferences_'
'conf'
'conducted_'
'conc'
'compulsory_'
'compound'
'complain'
'compe'
'communist_'
'color_'
'coin'
'coa'
'clon'
'cker'
'civ'
'ched_'
'centraliz'
'celkový_'
'cata'
'but'
'bublin'
'bubble_'
'brother_'
'broader_'
'boutique_'
'boom'
'bold_'
'blízk'
'blokov'
'blocks_'
'block'
'billions_'
'bil'
'bic'
'beneficial_'
'balíky_'
'baj'
'badly_'
'backed_'
'bach_'
'azil'
'atí'
'attentive_'
'attach'
'atr'
'ata'
'assum'
'assessing_'
'artist'
'ars_'
'ark'
'ane_'
'analýzu_'
'analýz'
'ambiciózní_'
'amazing_'
'amat'
'alongside_'
'alien'
'aktualiz'
'aho'
'aggressive_'
'age'
'affecting_'
'adí'
'adresát'
'adi'
'acknowledged_'
']] '
'Západu_'
'Zn'
'ZE'
'Yu'
'Year_'
'Work'
'Wikipedia_'
'Wea'
'Water'
'WA'
'Všechno_'
'Věc_'
'Vic'
'Via_'
'Uh'
'UT'
'USE_'
'URL_'
'UNI'
'Tř'
'Tol'
'Termini_'
'Tat'
'Taking_'
'TT'
'Svat'
'Support_'
'Střední_'
'Stru'
'Stor'
'Ster'
'Stav'
'Skype_'
'Skutečnost_'
'Simplified_'
'Sever'
'Sco'
'Santiago_'
'SIS_'
'Russ'
'Ross'
'Riker_'
'Ric'
'Rece'
'RS'
'Přij'
'Přes'
'Putinov'
'Počet_'
'Poznámka_'
'Posl'
'Pokr'
'Poj'
'Ping_'
'Petit_'
'Paříž'
'Paul'
'Parlamentem_'
'Opatření_'
'Oh'
'Obr'
'OT'
'ON'
'OL'
'OJ_'
'Název_'
'Not'
'Máš_'
'Mou'
'Mon_'
'Mol'
'Mnozí_'
'Mlad'
'Mili'
'Mid'
'Mic'
'Merc'
'Malta_'
'Mají_'
'MD'
'MA_'
'List_'
'LingvoSoft_'
'Likewise_'
'Libya_'
'Ladies_'
'LE_'
'LB'
'Kva'
'Kos'
'Kil'
'Ken'
'John'
'Joe_'
'Již_'
'Jaký_'
'Israelis_'
'Ing'
'Industrial_'
'Indi'
'Inde'
'Hun'
'Human'
'Hiking_'
'Hel'
'HR'
'Gro'
'Gil'
'Games_'
'Free'
'Forge_'
'Following_'
'Fir'
'Enforcement_'
'Eli'
'Ea'
'EUROPA_'
'Dě'
'Druh'
'Down'
'Det'
'DNA_'
'Cri'
'Credit_'
'Coo'
'Cond'
'Compensation_'
'Chyb'
'Cham'
'Certifi'
'Cam'
'CON'
'CES_'
'CAMBRIDGE_'
'Burg'
'Budapest_'
'Berlusconi_'
'Bed'
'Basic_'
'Barr'
'Balkans_'
'Avi'
'Av'
'Arts_'
'Arr'
'Annual_'
'Ann'
'Američanů_'
'AT_'
'ADOPTED_'
'; '
'90'
'49'
'2030_'
'130_'
'110_'
'105'
'-, _'
'('
'!'_'
' °_'
' . . . _'
' --_'
'ّ'
'ع_'
'ر_'
'р'
'п'
'е_'
'а_'
'železniční_'
'žel'
'škr'
'širokou_'
'šil'
'Št'
'Ša'
'řiv'
'řecké_'
'ňuj'
'ňoval'
'ł'
'ěno_'
'ěd'
'čl'
'četn'
'čerpa'
'ýl'
'ýk'
'ün'
'úvěr'
'úvod'
'útuln'
'ústavy_'
'úr'
'úplné_'
'únik'
'úlo'
'ña_'
'ñ'
'íži'
'íránské'
'íjí_'
'íc_'
'éha'
'édn'
'äu'
'ází_'
'ázal'
'áni'
'ála_'
'ák_'
'}}) '
'zřízen'
'zčásti_'
'závislost_'
'závažné_'
'zátěž_'
'zást'
'základním_'
'zákazník'
'zy'
'zvýšen'
'zvíře'
'zvyšovat_'
'zvyk'
'zvuk'
'zvolil'
'zv'
'zum'
'zraniteln'
'způsobí_'
'zprostředkovatel'
'zovan'
'zní'
'známky_'
'znak'
'zmínil'
'zlom'
'zkušenost_'
'zkouše'
'zjist'
'zemědělců_'
'zemního_'
'zelené_'
'zdůraznila_'
'zc'
'zbaven'
'zařízením_'
'zařazení_'
'zaznamenáv'
'založený'
'zajímavé_'
'zadní'
'zach'
'zabít_'
'yte'
'ysi'
'ylu'
'yesterday_'
'writer_'
'worsen'
'wor'
'wonder'
'wise_'
'wire'
'wid'
'webov'
'wear_'
'wea'
'wash'
'vší'
'věřit_'
'věrohodn'
'významných_'
'výzkumn'
'vývojář'
'výrobě_'
'výletů_'
'výkonnost'
'výklad'
'výchozí_'
'vál'
'vzrostl'
'vzk'
'vzdělávací_'
'vyšl'
'vyvr'
'využívá_'
'vytváře'
'vysvětl'
'vystoupení_'
'vyrovnat_'
'vyro'
'vypla'
'vypadal'
'vybaven'
'vrh'
'volunt'
'vnímá'
'vnit'
'viable_'
'vezme'
'vez'
'vesnic'
'vení_'
'vedlejší_'
'uvědomil'
'ute_'
'usti'
'uskuteční_'
'usilov'
'uprchlíků_'
'upn'
'uplatňova'
'upgraded_'
'uo'
'unprecedented_'
'unknown_'
'underline'
'umožňují_'
'ujícího_'
'uge'
'udržitelnost'
'udržení_'
'uct'
'ubi'
'třetin'
'tým'
'tář'
'tvar'
'tureck'
'tura_'
'triple_'
'treat_'
'tradičn'
'track_'
'tot'
'torture_'
'tori'
'toll'
'toli'
'tle_'
'tlan'
'tivní'
'title_'
'tick'
'tic'
'thou'
'therapy_'
'theo'
'teplot'
'tempo_'
'teln'
'telekomunika'
'tation_'
'tati'
'targeted_'
'taj'
'sílící'
'systémov'
'swee'
'svobodného_'
'sustainability_'
'surr'
'suit_'
'subway_'
'středo'
'studií_'
'struggle_'
'stroje_'
'strike_'
'strategick'
'stolu_'
'stev'
'stem_'
'stačí_'
'stave'
'start'
'stan'
'stabili'
'spouště'
'spot_'
'spoji'
'spojenci_'
'splá'
'speed'
'speciáln'
'specify_'
'sovereignty_'
'souč'
'soustředit_'
'sounds_'
'soul_'
'soukromí_'
'souhlasit_'
'soudnictví_'
'sotva_'
'solving_'
'smyslupln'
'složení_'
'sloužil'
'slib'
'skutečná_'
'skupinami_'
'skončení_'
'skonč'
'skeptic'
'silnic'
'sig'
'shin'
'sexuální'
'severu_'
'severo'
'sena'
'sem'
'sekund'
'sek_'
'sej'
'sehrá'
'seeks_'
'seat_'
'script_'
'sco'
'schodk'
'scheduled_'
'sce'
'scan_'
'satisfy_'
'samé'
'samospráv'
'salaries_'
'rč'
'rát_'
'rání_'
'rychlé_'
'rut'
'rozvíje'
'rozum'
'rozpozn'
'rozp'
'rozhodovací'
'rozhodli_'
'rová'
'roste_'
'rose_'
'rize_'
'ride_'
'rib'
'rg_'
'revoluci_'
'reveal'
'restaurace_'
'reputation_'
'republikán'
'republic'
'representing_'
'repeat_'
'remarks_'
'relationships_'
'reinforce'
'regret_'
'regardless_'
'reformě_'
'recognis'
'react'
'rdin'
'rator'
'rant'
'rani'
'raf'
'qui_'
'quantities_'
'příčin'
'přítel'
'přístupn'
'příslušná_'
'přípravu_'
'přípravek_'
'příkazu_'
'příkaz_'
'přátel'
'přispívá_'
'připraven_'
'připoj'
'přijímání_'
'přijímat_'
'přijatých_'
'přem'
'předloží_'
'přeb'
'pís'
'pár'
'pursued_'
'psychologi'
'průměrný_'
'právně_'
'pružn'
'prudce_'
'provádě'
'provoz_'
'provok'
'prov'
'protests_'
'prokázat_'
'prohibit'
'profesor'
'profesionální_'
'proceeding_'
'priorit_'
'principal_'
'prejudice_'
'preferred_'
'predict'
'pragmatick'
'pozor'
'poznámk'
'pozna'
'pozměněn'
'povinn'
'považují_'
'považovat_'
'použil'
'pouh'
'potřebných_'
'potka'
'posun_'
'postupovat_'
'possess'
'posilování_'
'por_'
'poplatků_'
'pong_'
'poměru_'
'poměr'
'polí'
'položku_'
'položka_'
'poli_'
'pokláda'
'podívat_'
'podílu_'
'podíle'
'podíl'
'podstaty_'
'podobný_'
'pode'
'pocket'
'poc'
'platné_'
'platform_'
'plastic_'
'photo'
'phenomenon_'
'pesticides_'
'perspectives_'
'pen_'
'pel_'
'pastor'
'past'
'parametr'
'palivo'
'padl'
'paci'
'oře'
'očekával'
'oznámen'
'ovo_'
'overr'
'overl'
'ovc'
'ouž'
'ouv'
'ouch'
'otřes'
'otn'
'osvobo'
'ors'
'orientovan'
'oriented_'
'orienta'
'opt_'
'opr'
'opposed_'
'opačn'
'opak'
'okno_'
'oin'
'offs'
'officer_'
'odstraněn'
'odsou'
'odr'
'odlišný'
'oddíl_'
'odb'
'ocitl'
'oceň'
'occup'
'oca'
'obyvatel'
'obt'
'obrazovk'
'obo'
'obnov'
'nů_'
'německé_'
'některým_'
'někde_'
'následuj'
'národním_'
'náklad'
'nuj'
'ntly_'
'nouz'
'nonetheless_'
'nome'
'nocí_'
'nobody_'
'nish'
'nie_'
'nezna'
'nezdar'
'nevyv'
'neutral'
'neus'
'nesmíme_'
'nere'
'nepřes'
'neobvykl'
'nent_'
'nemusel'
'nemovitostí_'
'nemohu_'
'nemohl_'
'nemo'
'neme_'
'neko'
'nejst'
'nejspíš_'
'nejpozději_'
'nebudeme_'
'nds'
'nct'
'našl'
'nař'
'naučil'
'nationals_'
'nationalism_'
'nastav'
'nak'
'nainstalova'
'nadměrné'
'nabízejí_'
'měnit_'
'místnost'
'myšlení_'
'mur'
'movi'
'modest_'
'modernis'
'mocn'
'mobilis'
'mm'
'mine'
'milova'
'mill'
'milion'
'migrant'
'mere_'
'menšin'
'mena'
'medicines_'
'med'
'mechanismu_'
'meal_'
'materiálů_'
'masov'
'magic_'
'lá_'
'lute'
'lunch_'
'lowest_'
'loud'
'lot'
'logo'
'logic_'
'lních_'
'lish'
'lise_'
'liberalisation_'
'lf'
'letters_'
'lett'
'lets_'
'lej'
'legislativní_'
'leas'
'lawyer_'
'laboratoř'
'káz'
'kyt'
'kvót_'
'kurz_'
'kter'
'kraj'
'koš'
'ková_'
'kouř'
'kouz'
'kos'
'kontrol_'
'konsenzu'
'konkurenceschopn'
'klon'
'klasick'
'kit'
'kel'
'kej'
'každo'
'karty_'
'kampaň_'
'jízd'
'jím'
'jíd'
'jícího_'
'jsk'
'jižní_'
'jisti'
'jen'
'jednotlivými_'
'jednot'
'jedinečn'
'jakého'
'iv_'
'ition_'
'itat'
'islámsk'
'interpretation_'
'interc'
'intention_'
'intent'
'integr'
'institucionální_'
'instalační'
'inspir'
'insist_'
'inse'
'inis'
'ining_'
'iniciativ'
'informovan'
'informa'
'index'
'incentive_'
'inca'
'ille'
'ile_'
'iká'
'iki'
'ignore_'
'igen'
'iest_'
'ice'
'há_'
'hvězdn'
'hust'
'hrub'
'hraje_'
'hostitel'
'hostil'
'honourable_'
'hole_'
'hnu'
'hind'
'hedge_'
'heating_'
'heart'
'hate'
'habita'
'gy'
'greatly_'
'gh_'
'geneticky_'
'generální_'
'gather'
'gardens_'
'gar_'
'fór'
'fyzické_'
'fungoval'
'freely_'
'fr'
'forth_'
'formát'
'fle'
'finish_'
'filed_'
'fil'
'fet'
'fem'
'feet_'
'fears_'
'fat_'
'farms_'
'eš'
'exporting_'
'expire'
'exhaust'
'examined_'
'ew'
'evident_'
'eutic'
'eurozón'
'euros_'
'etin'
'eta'
'equ'
'eov'
'eného_'
'enin'
'enhanced_'
'ene_'
'endorse'
'ende'
'emisemi_'
'emerged_'
'ell'
'elektřiny_'
'eld'
'ela'
'egi'
'ega'
'editor_'
'ebo'
'eb_'
'důvěř'
'důležitým_'
'důležit'
'dě_'
'déle_'
'dání_'
'dálk'
'dveří_'
'druh'
'drew_'
'dre'
'drawing_'
'dovozních_'
'doubts_'
'dosáhli_'
'dostupných_'
'dosahuje_'
'doprava_'
'dokumentac'
'dodržen'
'dně_'
'dní'
'dné_'
'dluhopisy_'
'distribu'
'dispos'
'displayed_'
'disku'
'discussing_'
'disadvantage'
'director'
'directions_'
'dire'
'dila_'
'difficulty_'
'dif'
'dictionary_'
'dia_'
'detek'
'desítky_'
'destru'
'desired_'
'dera'
'demokratick'
'delegace_'
'deduct'
'debi'
'dear_'
'datum_'
'dat'
'damages_'
'dable_'
'cílov'
'customer_'
'cula'
'cruise'
'crit'
'credits_'
'cott'
'costly_'
'contradict'
'constr'
'confusion_'
'confor'
'cond'
'compl'
'comparable_'
'communi'
'combines_'
'colour'
'coby_'
'clothes_'
'clos'
'cleaned_'
'cle'
'ckém'
'ckého_'
'civilizac'
'chybě_'
'chybn'
'chy'
'chtít_'
'charakter'
'characteristics_'
'chal'
'cha_'
'certificate_'
'cenných_'
'cano'
'campaign'
'běžných_'
'běž'
'burn_'
'bureaucratic_'
'budovy_'
'broad'
'brit'
'bread_'
'bond_'
'bon'
'bohaté_'
'bezplatné_'
'bets_'
'bench'
'believes_'
'begun_'
'bear'
'bay_'
'bal_'
'bab'
'aze'
'aur'
'audi'
'auc'
'attempting_'
'ativ'
'asylum_'
'assist_'
'arti'
'arro'
'arrest_'
'arm_'
'argument'
'arg'
'architectur'
'appar'
'aplikaci_'
'any'
'anou_'
'analog'
'ampl'
'ami'
'ambitions_'
'allocation_'
'alkoholu_'
'alizac'
'alike_'
'aktivní'
'affordable_'
'adverse_'
'adresář'
'ador'
'abi'
'Západ_'
'Zp'
'Zh'
'Zan'
'Wr'
'Watch_'
'Wall'
'Východ'
'VÝ'
'Vyh'
'Verona_'
'Van_'
'Van'
'Typ'
'Ty'
'Tuto_'
'Tower_'
'Temp'
'Takový_'
'Světov'
'Sul'
'Subs'
'Stability_'
'Source'
'Slav'
'Sko'
'Ski_'
'Sing'
'Shar'
'Set'
'Sea'
'Scott'
'Scotland_'
'Saddam_'
'SD'
'Ré'
'Rumunsko_'
'Roo'
'Roissy_'
'Ris'
'Reference_'
'QU'
'Přid'
'Pros'
'Princip'
'Poskyt'
'Poly'
'Podívej'
'Pil'
'Personal_'
'PRA'
'PH'
'PA_'
'Off'
'Obsah'
'Obs'
'Německa_'
'Nos'
'Nor'
'Neza'
'Nep'
'Naš'
'Nastavení_'
'Namísto_'
'NS'
'NP'
'Můj_'
'Ms_'
'Mov'
'Mess'
'Men'
'Mary_'
'Man_'
'Machine_'
'Luk'
'Lisabonskou_'
'Link'
'Lid'
'Libanonu_'
'Lei'
'Lee_'
'Lag'
'Koreji_'
'Kore'
'Kim_'
'Kabelové_'
'Jurisdiction_'
'José_'
'Jordan_'
'Jd'
'JA'
'Ic'
'Horn'
'HA'
'Guan'
'Gruzii_'
'Gruzie_'
'Govern'
'Germanic_'
'Geo'
'Gam'
'Form'
'Fel'
'Exc'
'Evropou_'
'Evropanů_'
'Everyone_'
'Eva'
'Ent'
'En_'
'Eco'
'Earl'
'EP_'
'ECTACO_'
'Dánsko_'
'Does_'
'Dobrá_'
'Die_'
'Def'
'Cur'
'Could_'
'Collection_'
'Chávez_'
'Chr'
'Chile_'
'Cen'
'Cav'
'Carlo'
'Cannes_'
'CS'
'CF'
'Budu_'
'Brother'
'Bridge_'
'Berlín'
'Bah'
'BC_'
'Automatic_'
'Athens_'
'Argentin'
'Angli'
'Andre'
'Among_'
'Alliance_'
'Albania'
'Ach'
'Access_'
'AH'
'A1'
';'
'88'
'64'
'240'
'1st_'
'150'
'100'
'04'
'..."_'
'.) _'
')|_'
'))'
'''._'
'' '
'") _'
'")'
'!!_'
'”, _'
'” (_'
'от'
'б'
'židovsk'
'Žádná_'
'ůjč'
'Ů_'
'šti'
'široké_'
'šesti'
'řádné_'
'řešil'
'ňující_'
'ňsk'
'ňov'
'ňk'
'čínských_'
'čár'
'čten'
'čnost'
'členka_'
'činu_'
'čast'
'časopis'
'ýs'
'účast'
'úspěšně_'
'úspěchem_'
'úrokovým'
'úkor_'
'éa'
'ážk'
'áze'
'átor'
'áti'
'á'
'ÝCH_'
'Úřad'
'§ _'
'{{_'
'zří'
'získali_'
'závazků_'
'záporn'
'záplav'
'záleží_'
'zákonn'
'zrod'
'způsobují_'
'zpětn'
'známý'
'znám'
'změ'
'zlepší_'
'zjednoduš'
'zisky_'
'zeměpisn'
'zdůrazn'
'zdánlivě_'
'zdroj'
'zbytku_'
'zbytek_'
'zbroj'
'zbraň_'
'zažil'
'zat_'
'zastup'
'zastav'
'zapojit_'
'zaplatit_'
'zamít'
'zakořeněn'
'zakláda'
'zajímav'
'zají'
'zajišťování_'
'zajistili_'
'zaci_'
'zachr'
'ym_'
'xit'
'xin'
'xeno'
'wre'
'welcomed_'
'wards_'
'waited_'
'výlet'
'vážen'
'vzorku_'
'vzestup_'
'vzdělá'
'vzdát_'
'vyžad'
'vyzv'
'vytr'
'vyspělých_'
'vypl'
'vyloučení_'
'vydal_'
'vyda'
'vstoupí_'
'vous_'
'volném_'
'voli'
'vně_'
'vní'
'vládc'
'visitors_'
'virtually_'
'veškerá_'
'vele'
'vegeta'
'varování_'
'vamp'
'vakcín'
'vaccinat'
'užívat_'
'uživatelům_'
'užit'
'učit_'
'uzavřel'
'uvedena_'
'utility_'
'usu'
'usn'
'usiluje_'
'urge_'
'uplatnění_'
'uplatněn'
'updates_'
'unw'
'uniform_'
'unemployed_'
'umožněn'
'umi'
'ume'
'ult'
'ukázat_'
'uhlíkov'
'uby'
'třicet'
'třemi_'
'těš'
'těsn'
'týkající'
'tý_'
'typy_'
'turist'
'tun_'
'tto'
'trvalý_'
'trvalé_'
'trp'
'trib'
'trials_'
'trestu_'
'transplant'
'translati'
'trace'
'toři_'
'tour_'
'topics_'
'tní'
'tivně_'
'tivi'
'tisíciletí_'
'tila_'
'tig'
'theat'
'testování_'
'terri'
'terminál'
'tered_'
'tep'
'tennis_'
'tender'
'televiz'
'technických_'
'tamní_'
'tajemník'
'tables_'
'sá'
'symboli'
'světov'
'světl'
'svi'
'surov'
'supplied_'
'supers'
'středně'
'střed'
'stěží_'
'struktu'
'struck_'
'stroll_'
'stresse'
'stream'
'stoupenc'
'steam_'
'ste_'
'starších_'
'starost'
'stanovena_'
'standardi'
'stakeholders_'
'stabiliza'
'ssing_'
'srov_'
'sq'
'správným_'
'spring_'
'společném_'
'specifik'
'specifický'
'specifick'
'specialist'
'speaker_'
'spare_'
'sousední'
'soupeř'
'soudce_'
'soub'
'solve_'
'solely_'
'sním'
'snídani_'
'směr_'
'smiled_'
'slá'
'slov'
'slavn'
'sl_'
'skými_'
'sjednocen'
'siti'
'silách_'
'silence_'
'significance_'
'shipment_'
'shares_'
'shaped_'
'sexuální_'
'sentence_'
'sděl'
'scientists_'
'scho'
'scandal_'
'sankce_'
'sal_'
'sah'
'různ'
'rus'
'ruled_'
'ruin'
'rozumn'
'rozpočtový'
'rozmanitost_'
'rozhodn'
'rozdělen'
'rovná_'
'rovnocenn'
'rove'
'rostlin'
'rodinné_'
'rno'
'rm_'
'rm'
'rizik'
'režimy_'
'revealed_'
'reti'
'resse'
'resign'
'rer'
'replacement_'
'repeal'
'rene'
'region'
'refund_'
'referenční_'
'refer'
'reductions_'
'reco'
'rece'
'reb'
'reasonably_'
'realise'
'reactions_'
'rds_'
'rational'
'rall'
'rak'
'racion'
'působ'
'přístupem_'
'příslušník'
'příslušnosti_'
'přípravků_'
'přínos_'
'přím'
'příležitost'
'příjme'
'přizpůsob'
'připomíná_'
'připojil'
'přil'
'přijm'
'přijdou_'
'přijali_'
'přihlási'
'přidat_'
'převá'
'přetrváva'
'přerušen'
'přepravy_'
'překroči'
'překonat_'
'přeje'
'přehlíže'
'předán'
'představitele_'
'předst'
'předsedkyně_'
'předmět'
'předchozím_'
'publish'
'publik'
'právům_'
'prst'
'prošl'
'provozní_'
'proved'
'protein'
'prospect_'
'proportion'
'promises_'
'profit'
'profese_'
'produktivit'
'produkt_'
'procesní'
'proceed_'
'procedur'
'problematik'
'prima'
'press'
'preserve_'
'preserv'
'premiéra_'
'premiér'
'pravdiv'
'požaduje_'
'poří'
'pořád_'
'pořadí_'
'počítač'
'pozorně_'
'poznamenal'
'potřebnou_'
'potravinářsk'
'pota'
'posuzování_'
'postel'
'poslancům_'
'poradenství_'
'poměrně_'
'pomáhá_'
'pomáha'
'pomohl'
'položit_'
'polov'
'politickém_'
'policejní_'
'poj'
'pohybuj'
'pohr'
'pohledáv'
'podstat'
'podr'
'podnikům_'
'podmíněn'
'podkopáv'
'podklad'
'podepsal'
'podep'
'pocház'
'pochopitelně_'
'pleas'
'plaz'
'play'
'plast'
'planetě_'
'planet'
'pira'
'phen'
'phan'
'petrol'
'permanently_'
'penalty_'
'peg'
'pattern_'
'patro'
'park'
'papírů_'
'panel'
'pachatel'
'oznámil_'
'ozen'
'owned_'
'ovláda'
'overse'
'otázkám_'
'osvět'
'ostra'
'orov'
'originally_'
'orgánům_'
'ore_'
'optimis'
'oprávnění_'
'operační_'
'operat'
'opatřeních_'
'ono_'
'onal_'
'omit'
'okupa'
'oka'
'oha'
'offices_'
'officers_'
'odstavec_'
'odsoudil'
'odmítá_'
'odkazy_'
'odd'
'odborníků_'
'ochotu_'
'oce'
'occupation_'
'obviněn'
'obu'
'obsahující_'
'obnovu_'
'objasn'
'obdobn'
'obdiv'
'obchodním_'
'ně'
'nč'
'návr'
'nástroji_'
'následoval'
'nárůstu_'
'nákupní'
'nákup'
'nád'
'náboženské_'
'nutri'
'nutnost_'
'novými_'
'novel'
'nohy_'
'nižším'
'nič'
'nist'
'nio'
'nimž_'
'nh'
'nge_'
'nf'
'nezákonn'
'nezbytnou_'
'nezap'
'nevyhnutelné_'
'nevertheless_'
'neur'
'neum'
'nerv'
'neroz'
'ner'
'nepr'
'nepodl'
'neplat'
'neom'
'nen_'
'nemoci_'
'nemluv'
'nem_'
'neli'
'nejpo'
'nejp'
'nejlepším_'
'nejh'
'neje'
'neighbourhood_'
'neighborhood_'
'nedostal'
'nedop'
'nedok'
'nearest_'
'ndo'
'ncy_'
'nci'
'navštív'
'navzájem_'
'navr'
'naviga'
'nato'
'nastol'
'narrow_'
'napsal_'
'nal_'
'nahrad'
'nabídku_'
'měr'
'měnový_'
'měkk'
'mírový'
'museums_'
'mud'
'mravní'
'moudr'
'mood_'
'momentálně_'
'mohutn'
'modr'
'moderní'
'model'
'mins_'
'minorities_'
'miliard'
'metabolit'
'mes'
'menšin_'
'mento'
'menti'
'meals_'
'master_'
'marked_'
'mann_'
'manažer'
'malá_'
'líto_'
'léči'
'lékařsk'
'lying_'
'luc'
'ls'
'louva'
'lost'
'londýnsk'
'lodě_'
'lod'
'loa'
'lné_'
'lize_'
'lively_'
'listen_'
'limp'
'license_'
'liberalizaci_'
'liability_'
'lg'
'leté_'
'lení_'
'len_'
'ledov'
'ledn'
'lati'
'lar_'
'lag'
'lace_'
'křiv'
'kč'
'kurz'
'kro'
'krizov'
'kreditní_'
'kraci'
'kra'
'kořen'
'korek'
'koordinovan'
'koordin'
'konzum'
'kons'
'konfigurac'
'konc'
'kno'
'kniha_'
'kmen'
'klíčovou_'
'klíče'
'klád'
'king'
'každodenní'
'kaj'
'joining_'
'jichž_'
'jednotek_'
'jednak_'
'jazyků_'
'jako'
'itost'
'itiv'
'italské'
'issuing_'
'ise'
'isa'
'ire_'
'ior'
'iona'
'invested_'
'introducing_'
'interpret'
'instruction_'
'instruct'
'insist'
'insight'
'iniciativ_'
'infrastruktur'
'ines_'
'incon'
'incomes_'
'inan'
'imun'
'impr'
'importantly_'
'implies_'
'impl'
'immuni'
'imm'
'ilo'
'ifi'
'ideology_'
'ideological_'
'hů'
'hý'
'hv'
'htm'
'hotov'
'hostin'
'horn'
'hork'
'hodno'
'hodiny_'
'hled'
'historický'
'highlights_'
'heritage_'
'heavily_'
'hazard'
'harde'
'hal_'
'gum'
'gul'
'gue'
'gth'
'grow'
'grou'
'graph_'
'gor'
'gly'
'glob'
'gers_'
'geografick'
'generální'
'generations_'
'ged'
'gate'
'gallery_'
'fut'
'furt'
'frequency_'
'fragment'
'fotografi'
'fot'
'formální'
'formation_'
'forem_'
'forcing_'
'focusing_'
'fly_'
'flaw'
'financovan'
'federální_'
'fault_'
'familiar_'
'fairly_'
'eňsk'
'exte'
'exploitation_'
'existoval'
'evropském_'
'eve'
'eum'
'eu_'
'etick'
'err'
'epidemi'
'eně'
'environmentální_'
'ensk'
'enjoyable_'
'enic'
'energeti'
'enemy_'
'enco'
'enabling_'
'empower'
'employers_'
'emphasise_'
'elegant'
'ekonomickým'
'ejší'
'educated_'
'eau_'
'důsledn'
'dětská_'
'děj'
'dávn'
'dávají_'
'dám'
'dálnic'
'dyna'
'dw'
'dvacát'
'dvacet_'
'duration_'
'duly_'
'držel'
'druhým_'
'druhá_'
'draft'
'downtown_'
'downs'
'dotk'
'dostanou_'
'dostalo_'
'dostala_'
'doplňkov'
'dopadu_'
'domnívá_'
'dominantní'
'doklad'
'dojem_'
'dlouhodobou_'
'dli'
'division_'
'discour'
'discard'
'disabilities_'
'dirty_'
'diktátor'
'dignity_'
'dge'
'dešt'
'deva'
'deserve_'
'depth_'
'demographic_'
'demanded_'
'dell'
'definovan'
'definitions_'
'defe'
'decent_'
'dcer'
'daného_'
'dají_'
'custody_'
'cukr'
'ctiv'
'critics_'
'cour'
'cou'
'corrupt_'
'convi'
'contemp'
'conte'
'contacts_'
'constitutes_'
'consists_'
'considerably_'
'configure_'
'condemn'
'complaint_'
'commerc'
'commen'
'comb'
'coll'
'coe'
'coc'
'closing_'
'clarity_'
'civilian_'
'cial'
'chvíle_'
'chv'
'chop'
'child'
'ches_'
'chair_'
'cest'
'cepti'
'celek_'
'ceiling_'
'career_'
'bíl'
'bun'
'budova'
'breach_'
'bow'
'bojoval'
'blood'
'blan'
'bish'
'biologick'
'bezm'
'beze_'
'bes'
'benz'
'beneath_'
'ben_'
'bankrot'
'bankers_'
'balí'
'ače'
'azy_'
'az_'
'aven'
'authentic_'
'atu'
'atte'
'ath'
'assigned_'
'ask'
'ascen'
'artificial_'
'armády_'
'arma'
'arising_'
'arb'
'api'
'annulment_'
'ank'
'anim'
'angry_'
'amic'
'alu'
'alto'
'align'
'alen'
'ail'
'agresivn'
'agent_'
'afrických_'
'advis'
'advertise'
'administrat'
'ade_'
'acknowledge_'
'acknowledg'
'achi'
'acet'
'accidents_'
'absenci_'
'abandoned_'
'ab'
'\'
'Západ'
'Zm'
'Zelen'
'Zač'
'Zas'
'Zab'
'ZO'
'William_'
'Wan'
'Výroba_'
'Vás_'
'Vyd'
'Vyberte_'
'Vulcan_'
'Vr'
'Vietnam'
'Vel'
'VIS'
'Ut'
'Under'
'UEN_'
'Tvr'
'Tur'
'Tour'
'Tou'
'Tob'
'Tis'
'Timo'
'The'
'Thailand_'
'Tel_'
'Technology_'
'Sýrii_'
'Swa'
'Stud'
'Stri'
'Still_'
'Stal'
'Společnost_'
'Some'
'Solidarity_'
'Sma'
'Slyšel'
'Scr'
'Schulz'
'Schl'
'Salzburg_'
'Sai'
'STO'
'SEC'
'Rozhodn'
'Romulan'
'Rok'
'Remo'
'Real_'
'Předpoklád'
'Předmět_'
'Prac'
'Poss'
'Plan_'
'Plan'
'Pana'
'Palestin'
'Pad'
'Outlook_'
'Out'
'Ote'
'Ostatně_'
'Ost'
'Ord'
'Odk'
'Občan'
'Obam'
'OM'
'Několik_'
'Někdy_'
'Ně'
'Nou'
'Notes_'
'Nelze_'
'Nedávn'
'Nedo'
'Near_'
'NC'
'Měla_'
'Museum_'
'Multi'
'Mos'
'Miss_'
'Mir'
'Martin'
'Mak'
'Main'
'Mad'
'Los_'
'Lind'
'Life_'
'Leh'
'Lea'
'Land_'
'Kosova_'
'Klaus'
'Kir'
'Kh'
'Kensington_'
'Kat'
'Jos'
'Jews_'
'Jen'
'Jediný'
'Izrael'
'Ital'
'Investment_'
'Imperial_'
'Hungarian_'
'Hotel'
'Host'
'Holl'
'Hl'
'High'
'Hay'
'Hamásu_'
'HO_'
'HI'
'Growth_'
'Goe'
'Georgi'
'GL'
'Font'
'Floren'
'Filip'
'FS'
'Exper'
'Exe'
'Everything_'
'Eu'
'Estonsk'
'Enc'
'Ekonomi'
'Eg'
'Eff'
'Eden_'
'Dětské_'
'Děl'
'Drag'
'Dod'
'Doc'
'Dl'
'Disc'
'DP'
'Cyprus_'
'Cris'
'Countries_'
'Corr'
'Constitutional_'
'Commerc'
'Comm'
'Clos'
'Chai'
'Cest'
'Care'
'CZ'
'CHF_'
'Byly_'
'Buď'
'Bulharsk'
'Building_'
'Brown_'
'Bow'
'Bot'
'Boh'
'Billiards_'
'Bell'
'Be_'
'Aus'
'Archi'
'Anglo_'
'Analy'
'Ameriku_'
'Americk'
'Allergy_'
'Ala'
'Ai'
'Aga'
'Afriky_'
'Afrika_'
'Admi'
'Addi'
'Abe'
'ALWIL_'
'AF'
'ACP_'
'74'
'70'
'69'
'65'
'62'
'48'
'350_'
'2016_'
'1987_'
'1950_'
'140_'
'138_'
'12'
'106'
'.. _'
'. "_'
', ...'
'% '
'!“'
' – „_'
' ...'
' ''[[_'
' #'
'ق_'
'ст'
'и_'
'žu'
'žov'
'životní'
'žaloby_'
'Že'
'ůzn'
'ůsta'
'šp'
'škál'
'šku_'
'škodlivé'
'Šp'
'řízením_'
'řím'
'říkal_'
'řské_'
'řov'
'řešen'
'řeč'
'ředitele'
'ěný_'
'ěm_'
'ěhl'
'ěc'
'číst_'
'částe'
'čtvrtin'
'čka'
'činil'
'čila_'
'červnu_'
'čaj'
'Číňané_'
'Čís'
'Čas'
'ýn'
'ýli'
'ýb'
'úřední'
'účinný_'
'úzce_'
'úvěrové_'
'úvahy_'
'úspěšný'
'úmysl'
'úder'
'ú_'
'ôte'
'ívá'
'íc'
'érie_'
'ça_'
'átory_'
'áte'
'ánc'
'álního_'
'áln'
'áli'
'álen'
'ále'
'ádě'
'áct'
'Úmluv'
'Î'
'Å'
'zůstane_'
'zůstal_'
'zřejm'
'získává'
'závazku_'
'zásah'
'zás'
'západní'
'zálož'
'záloh'
'zvířata_'
'zvukov'
'zvr'
'zrušit_'
'zrovna_'
'zra'
'způsob'
'zpoždění_'
'zování_'
'zován'
'zobraz'
'znepokojení_'
'značn'
'změní_'
'změnami_'
'zmizel'
'zmat'
'zločinu_'
'zjistí_'
'zjistil_'
'zjevné_'
'zjev'
'zisk_'
'zisk'
'zemřel_'
'zemědělsk'
'zemědělc'
'zemní_'
'zdrojov'
'zdroji_'
'zdokonal'
'zdi_'
'zbož'
'zba'
'začínají_'
'začína'
'zavádí_'
'zaujmout_'
'zastavení_'
'zase'
'zasah'
'zapi'
'zapa'
'zao'
'zako'
'zajistila_'
'zabra'
'ylo'
'yle'
'yer_'
'ye'
'yan'
'writ'
'worr'
'will'
'widen'
'wic'
'whenever_'
'wel'
'weakness_'
'weaken'
'wav'
'wa_'
'vůle_'
'vůdčí_'
'věž'
'vězni'
'vězení_'
'věnuje_'
'vědecký'
'včera_'
'výživného_'
'výz'
'výslovně_'
'výrazné'
'výpoč'
'výnosů_'
'výměn'
'výjimky_'
'výh'
'váž'
'vzn'
'vyživovací_'
'vyřešení_'
'vyčerp'
'vyzval_'
'vyvoláva'
'vysvětlil'
'vyslechn'
'vyrovnání_'
'vynaklád'
'vymáhání_'
'vyma'
'vyjednáva'
'vydal'
'vybaveny_'
'vy'
'volné_'
'volno'
'volbami_'
'vojenskou_'
'vod_'
'vnějších_'
'vklád'
'vit_'
'visible_'
'vidíme_'
'viditeln'
'versa'
'vem'
'vedl'
'vašem_'
'vas'
'vari'
'vani'
'užite'
'uře_'
'učí_'
'učení_'
'uznal'
'uzav'
'ux'
'uvědomit_'
'uvolni'
'uvidí'
'uvedeném_'
'uvažovat_'
'uvažov'
'uter'
'ustanovením'
'určit'
'ure'
'upo'
'upl'
'unse'
'unm'
'ung'
'unf'
'understandable_'
'umožňující_'
'umožnil_'
'umožnil'
'uml'
'ulic'
'ukáz'
'ukončit_'
'ukl'
'uja'
'udělali_'
'ude_'
'uali'
'ua_'
'třetího_'
'tř'
'týdny_'
'téh'
'té'
'táv'
'tvorbě_'
'tvorbu_'
'tv_'
'turb'
'ttle'
'tte_'
'tt_'
'trpěl'
'trips_'
'trendy_'
'trap'
'transparentnost_'
'transatlantick'
'towels_'
'tovn'
'torn'
'toky_'
'tment_'
'tiše_'
'tiz'
'tis_'
'tip'
'tim'
'tics_'
'tial_'
'thrown_'
'threshold_'
'threatening_'
'threatened_'
'thick'
'theme_'
'term'
'teorie_'
'tels'
'telno'
'technick'
'technic'
'teach'
'tat'
'takzvaný'
'tabák'
'tabled_'
'tab_'
'sň'
'sídl'
'sz'
'systémech_'
'systematick'
'syrsk'
'swift'
'sweet_'
'světový'
'světovou_'
'sví'
'svobodný'
'sva'
'suverenit'
'suspicio'
'suppliers_'
'supplement'
'sul'
'substantially_'
'stůl_'
'stála_'
'stáhl'
'styku_'
'stupeň_'
'strik'
'stream_'
'strain'
'stored_'
'stipulate'
'stimulate_'
'stea'
'staví_'
'statu'
'stará_'
'stara'
'stanoveným'
'stali_'
'stake_'
'ssions_'
'sse_'
'srdečně_'
'spěch'
'spur'
'správný_'
'správních_'
'spravedlivý'
'sportovní'
'spolupracov'
'special'
'součásti_'
'souvisí_'
'sousedství_'
'soukromý_'
'soukrom'
'soli'
'social'
'sní_'
'sne'
'snahu_'
'smr'
'smart_'
'slyšet_'
'slyšení_'
'složk'
'slogan'
'slip'
'skandál'
'sjednocení_'
'siv'
'simul'
'signál'
'signature'
'signa'
'sia'
'shromážd'
'shod'
'shift'
'shield'
'seznámi'
'sey_'
'setkáv'
'sest'
'sending_'
'seize'
'sehr_'
'sedí'
'secular_'
'seats_'
'schools_'
'scan'
'sburg'
'sbl'
'sazb'
'sati'
'sanita'
'sala'
'ruč'
'rulers_'
'rpo'
'rozvíjející_'
'rozvojový'
'rozvod'
'rozpětí_'
'rozpor'
'rozma'
'rozhovor'
'rozhodnou_'
'rovné_'
'rovno'
'rono'
'román'
'romantic'
'rodin_'
'rna'
'ript'
'rid_'
'reálných_'
'revised_'
'retain_'
'reta'
'restricti'
'restricted_'
'ressi'
'respecti'
'resp'
'resolved_'
'resc'
'repu'
'reproduc'
'ren_'
'removal_'
'relates_'
'rejstřík'
'refuse_'
'refus'
'rede'
'recorded_'
'recommendation_'
'recesi_'
'recese_'
'reas'
'realizova'
'realize_'
'rding_'
'rač'
'raket'
'rain_'
'radikáln'
'quo_'
'quant'
'qualit'
'qu'
'půl'
'přítomnost_'
'příspěvk'
'příslušníků_'
'příslušenství_'
'přípravě_'
'přínosy_'
'přímých_'
'příjmov'
'přátelé_'
'přistýlce_'
'přispěje_'
'přirozen'
'připomínk'
'přijímají'
'přijal'
'přidán'
'přidá'
'přesvědčiv'
'přesunu'
'přenosu_'
'přenos_'
'překlád'
'předvol'
'představitel'
'přednes'
'předch'
'přechodu_'
'puzzle'
'puts_'
'pus'
'pursuit_'
'pull_'
'puj'
'ptic'
'psycho'
'psychi'
'průměrn'
'průmyslov'
'prémi'
'právník'
'právn'
'prá'
'prvků_'
'prozkoum'
'proxy_'
'prováz'
'provozovatel'
'provedl'
'propriet'
'proná'
'projeví_'
'prohlásit_'
'prohlás'
'programem_'
'profesní'
'producer_'
'prodloužení_'
'probíhají'
'problematic'
'prisoners_'
'pris'
'princip_'
'prim'
'priced_'
'presum'
'preserved_'
'preparations_'
'preferences_'
'pravděpodobn'
'praktické_'
'pracovišt'
'poš'
'počasí_'
'poznámky_'
'pozměňovacích_'
'pozd'
'poz'
'power'
'povědomí_'
'povinný'
'použitý'
'použijí_'
'pouč'
'poukázal'
'potřebná_'
'potíž'
'potravinov'
'potenciál'
'postižen'
'postavil_'
'postara'
'poskytnut'
'posil'
'ports_'
'popí'
'popla'
'poorer_'
'poměr_'
'pomohl_'
'položen'
'polovina_'
'polici'
'pokyn'
'pokročil'
'podáva'
'podvodn'
'podrob'
'podporujeme_'
'podobným'
'podnika'
'pláže_'
'plánů_'
'plynoucí_'
'plyn_'
'plot'
'plodin_'
'plavidl'
'platná_'
'phrase_'
'petit'
'pes'
'person'
'permits_'
'peně'
'pend'
'patri'
'password_'
'partneři_'
'paral'
'par_'
'papír'
'ožen'
'ozval_'
'označov'
'owner_'
'ovský'
'ovlivňují'
'overwhelming_'
'overnight_'
'outr'
'outcomes_'
'otce_'
'ostr'
'oslav'
'osl'
'optimal'
'opatřeními_'
'opat'
'oná'
'omluv'
'omezený_'
'olu'
'ologi'
'okruh'
'okraj'
'okolo_'
'okolnosti_'
'okna_'
'oke'
'oid_'
'ohrožuj'
'ohlá'
'ogen'
'oft'
'offen'
'odrůd'
'odpočin'
'odpovídají_'
'odlišné_'
'odil'
'odděl'
'odborné_'
'ochr'
'oceán'
'občas_'
'obyčejn'
'obsluh'
'obrovskou_'
'obličej'
'obliged_'
'obli'
'objevil_'
'objedna'
'něte_'
'ní'
'násilné'
'nárok'
'nál'
'nákupu_'
'nw'
'nutrition_'
'ntá'
'ntra'
'nted_'
'nován'
'novo'
'novel_'
'notion_'
'not'
'norma'
'nol'
'nky_'
'nko'
'nika'
'nici'
'nezbytně_'
'nevyd'
'nesses_'
'ness'
'neschopnost_'
'ners_'
'nero'
'nepravděpodobn'
'nepodařilo_'
'nemám_'
'nemohli_'
'nemohla_'
'nemoc'
'nei'
'nedošlo_'
'nazýva'
'namen'
'nalé'
'nale'
'najednou_'
'najd'
'nadvlád'
'nabízen'
'nabídne_'
'městské_'
'městsk'
'měnového_'
'média_'
'mysln'
'muselo_'
'mož'
'mořský'
'mortgage_'
'moo'
'monument'
'monopol'
'monitor'
'mole'
'modifikovan'
'mlék'
'mladí_'
'mitigat'
'missed_'
'mil_'
'menu'
'mechanismů_'
'meaningful_'
'mati'
'marin'
'manufacturer_'
'malou_'
'mala'
'makers_'
'make'
'létě_'
'lét'
'loži'
'lock_'
'locations_'
'lm'
'lle_'
'livý'
'linii_'
'limitation'
'lift'
'liberalization_'
'liber'
'lever'
'leva'
'less'
'lepší'
'lei'
'leak'
'landing_'
'lacking_'
'label'
'kříž'
'kř'
'kými_'
'kán'
'kvóty_'
'kvalifikac'
'kut'
'kun'
'kulturu_'
'které'
'kruh'
'kritick'
'kořeny_'
'koru'
'konstrukce_'
'konferenci_'
'konečné_'
'koncem_'
'komunika'
'komplik'
'kombinova'
'kolej'
'koho_'
'kni'
'klidu_'
'klesající'
'killing_'
'kil'
'ket_'
'kat'
'kariér'
'kapitol'
'kampaně_'
'kace_'
'jších_'
'journey_'
'jména_'
'jist_'
'jede'
'jdou_'
'jakém'
'jad'
'iční'
'izraelsko_'
'izovan'
'izace_'
'ivní'
'iva'
'itá'
'iti'
'itelé_'
'ital'
'isté_'
'issa'
'inženýr'
'iná'
'invites_'
'investoři_'
'investory_'
'invaz'
'intr'
'internationally_'
'intern'
'intenzi'
'insulat'
'instal'
'inspired_'
'inspekc'
'insi'
'ins'
'ino'
'inno'
'injur'
'inher'
'inge'
'informac'
'info_'
'influence'
'induce'
'indu'
'individually_'
'ind'
'inci'
'impression_'
'imposing_'
'impos'
'impo'
'imme'
'imagine_'
'illa'
'ihned_'
'igu'
'ignored_'
'ign'
'iga'
'ideologick'
'ication'
'ibu'
'ias_'
'hř'
'hč'
'hání_'
'hypoték'
'hrál'
'hovoříme_'
'house'
'hospodářskému_'
'hon'
'homel'
'holi'
'holders_'
'holder_'
'hodn'
'hnout_'
'hlí'
'hluboko_'
'hli'
'hlasovali_'
'historie_'
'hire_'
'highlight_'
'hesl'
'hereby_'
'hear'
'hardwar'
'guy_'
'gula'
'grati'
'grants_'
'grammatical_'
'graf'
'gm'
'genetic_'
'geli'
'gat'
'fro'
'fri'
'fren'
'fought_'
'formulá'
'formov'
'fores'
'firstly_'
'firmly_'
'fini'
'finds_'
'findings_'
'financovat_'
'financed_'
'fel'
'fas'
'farming_'
'faktu'
'ež'
'eze'
'extract'
'express'
'explicitly_'
'explanation_'
'execute'
'exceed'
'ety_'
'etn'
'etl'
'etický'
'esp'
'eso'
'eru'
'ert_'
'erat'
'eras'
'epo'
'eo_'
'entries_'
'entra'
'entering_'
'enforceable_'
'eness_'
'emul'
'ems'
'embar'
'elo_'
'electro'
'ele_'
'ehn'
'ehl'
'ege'
'eds_'
'edit'
'eat'
'důchodu_'
'dů'
'dře'
'dětem_'
'dělá'
'dědictví_'
'dávek_'
'dvaceti_'
'dramaticky_'
'dp'
'dozví'
'dozor'
'download'
'dova'
'dostane_'
'dopředu_'
'dopravních_'
'domnívají_'
'dole'
'dokázal_'
'dokument'
'dokončení_'
'dohled'
'dobrého_'
'dlouhodobě_'
'dlouhodobém_'
'dla_'
'divadl'
'distributor'
'diskusí_'
'diskriminaci_'
'dioxide_'
'dine'
'digitální_'
'dicta'
'dial'
'dge_'
'df'
'dez'
'detected_'
'describe_'
'denatur'
'demonstr'
'demokratických_'
'demografick'
'democracies_'
'demanding_'
'deliberate'
'deadline_'
'databáze_'
'das_'
'cítím'
'cítil_'
'cími_'
'cé'
'cua'
'crus'
'counterpart'
'cord'
'convergence_'
'container'
'connect_'
'conducting_'
'complaints_'
'communism_'
'commodity_'
'comforts_'
'combine_'
'column_'
'collecti'
'coherent_'
'cohe'
'clin'
'cleare'
'cle_'
'circu'
'circle_'
'cid'
'church_'
'chladn'
'chic'
'chemi'
'chat'
'charm_'
'characters_'
'chaos_'
'chain_'
'chab'
'centrálních_'
'centres_'
'centers_'
'cell'
'cel_'
'caution_'
'catering_'
'cate_'
'cate'
'capabilities_'
'camp_'
'bři'
'buses_'
'budoucích_'
'brows'
'bron'
'broke_'
'breakdown_'
'bož'
'boys_'
'bolest'
'blon'
'blocked_'
'blaho'
'biskup'
'biot'
'biological_'
'bin_'
'bian_'
'bezpečn'
'bet_'
'bers'
'bern'
'benefi'
'beg'
'bearing_'
'bbe'
'bath'
'bate'
'bankéři_'
'aň'
'azí'
'azova'
'azn'
'azen'
'awareness_'
'awa'
'avil'
'ava_'
'automatické_'
'atory_'
'atic_'
'assembly_'
'ass'
'asing_'
'ash'
'arr'
'arn'
'argu'
'appro'
'appreciated_'
'apa'
'ansk'
'ances_'
'alizova'
'alarm'
'aktu'
'akcí_'
'akce'
'aid'
'aging_'
'agend'
'africk'
'affi'
'aero'
'advances_'
'adjustments_'
'acích_'
'accus'
'accounting_'
'accommodations_'
'accessed_'
'access'
'academic_'
'aca'
'abs'
'abr'
'abili'
'Zí'
'Zás'
'Zobrazit_'
'Zku'
'Zar'
'Women_'
'Wil'
'Wikimedia_'
'Wie'
'Whatever_'
'Wh'
'Wen'
'WC_'
'Vše'
'Věř'
'Viz_'
'Ven'
'Ved'
'Valley_'
'Ukrajině_'
'UP'
'UC'
'Té'
'Twi'
'Turn'
'Tun'
'Together_'
'Throughout_'
'Termin'
'Ter'
'Tentokrát_'
'Teh'
'Taiwan_'
'THB_'
'Sud'
'Stockholm'
'Stat'
'Standard'
'Stalin_'
'Správ'
'Spojeného_'
'Sol_'
'Slovinsko_'
'Slo'
'Simon_'
'Several_'
'Secondly_'
'Sd'
'Sche'
'Sav'
'Rum'
'Rose'
'Rog'
'Rio_'
'Ring'
'Rela'
'Rei'
'Registr'
'Reg'
'Rather_'
'R3_'
'Především_'
'Pyr'
'Ps'
'Proti'
'Prop'
'Prom'
'Program'
'Professional_'
'Prin'
'Požad'
'Powe'
'Porto_'
'Polic'
'Playground_'
'Pie'
'Piazza_'
'Peace_'
'Pas'
'Parties_'
'Pakt'
'PR'
'PM_'
'Očekáv'
'Oprava_'
'Operation'
'Oper'
'Offer'
'Oce'
'Oblast_'
'OS_'
'OLAF_'
'NÁ'
'Nova'
'None_'
'Nobel_'
'Nig'
'Než_'
'Nemá'
'Nemo'
'Nejsem_'
'Navrh'
'Nar'
'Naproti_'
'NGL_'
'Mubarak_'
'Mozilla_'
'Modern_'
'Mode'
'Mitt'
'Minister'
'Mimo'
'Mik'
'Medical_'
'Mars'
'Marc'
'Map'
'Mano'
'Mali'
'Make_'
'MU'
'Lí'
'Lui'
'Londýna_'
'Literature_'
'Lig'
'Liby'
'Libert'
'Laur'
'Latvia_'
'Latin'
'Lac'
'Kru'
'Každá_'
'Kanad'
'KB_'
'Judg'
'Jste_'
'Jinak_'
'Jac'
'Irák_'
'Irska_'
'Iraqi_'
'Insu'
'Ig'
'IND_'
'IE'
'ID'
'Hotspot_'
'Hongkong'
'Hizballáh'
'Hitler_'
'Hilton_'
'Hill_'
'Hill'
'Hezbollah_'
'Herna_'
'Hen'
'HTML_'
'Gru'
'GE'
'GA'
'Flo'
'Fischer_'
'Face'
'FT'
'FOR_'
'Explorer_'
'Elysées_'
'Ell'
'Edinburgh_'
'Easy_'
'EF'
'Druhou_'
'Din'
'Den_'
'Dele'
'Deborah_'
'Dax_'
'Daniel'
'DEM_'
'Cuba_'
'Cra'
'Convenient'
'Consider_'
'Colo'
'Chtěla_'
'Chtě'
'Chief_'
'Cathedral_'
'Casa_'
'Cargo_'
'Can'
'CR'
'Bělorusk'
'Býval'
'Burma_'
'Brun'
'Bringing_'
'Beck'
'Bath_'
'Bat'
'Base'
'Avenue_'
'Australia_'
'Association_'
'Ash'
'Arábie_'
'Appro'
'Appar'
'Ang'
'Andr'
'All'
'Agent'
'Adres'
'Act'
'Account'
'Academy_'
'ANNEX_'
'AKT_'
'AKCPE_'
'?)'
': '_'
'92'
'59'
'236'
'21st_'
'2050_'
'1990s_'
'184'
'183'
'181'
'125_'
'0000'
'.)._'
'+'
') - _'
'%'
' {{_'
' ]'
' [ _'
' ='
' -'
' )_'
' " _'
'و'
'ь'
'žádoucí_'
'žní_'
'žk'
'žive'
'žené_'
'ženami_'
'želez'
'žděn'
'žalobc'
'Žádn'
'Žád'
'ůst'
'ůr'
'ťován'
'ťa'
'špi'
'škole_'
'ška'
'široký'
'šim'
'řuje_'
'řil_'
'řečn'
'řeky_'
'řek'
'Říká'
'Říkal'
'Ří'
'ěn_'
'čísel'
'čínská_'
'čuje_'
'čován'
'článků_'
'čistý'
'čin_'
'černé'
'čelní'
'čel_'
'čeká'
'čehož_'
'čeho_'
'čc'
'Čínu_'
'Člen'
'Česká_'
'Čer'
'ýř'
'úřad'
'účastni'
'úvěry_'
'úvah'
'ústní_'
'úspěchy_'
'úspor'
'úrovních_'
'úro'
'íš'
'íčk'
'írání_'
'íránsk'
'ínu_'
'íky_'
'ík'
'íje'
'íben'
'éč'
'är'
'äl'
'áš_'
'ářs'
'ávn'
'átu_'
'átn'
'átkem_'
'átek_'
'ásn'
'ári'
'áne'
'álov'
'álními_'
'áky_'
'áka'
'ácen'
'Účetní_'
'Úst'
'Úspě'
'{_'
'zůstanou_'
'zřídi'
'zíra'
'závislé_'
'závazn'
'zástupců_'
'zásob_'
'zásob'
'zápisu_'
'zákazníků'
'zákaz'
'zvykl'
'zvolené'
'zva'
'zraněn'
'způsobu_'
'způsobilé_'
'zprávou_'
'zpravodaje_'
'zotavení_'
'znovu'
'zno'
'zničen'
'znevýhodněn'
'zneužív'
'znepokojuj'
'znam'
'změnou_'
'zmíněné'
'zklamán'
'zjistili_'
'zie'
'zic'
'zho'
'zeptat_'
'zek'
'zdůraznil_'
'zdů'
'zdroj_'
'zasáhl'
'zastaral'
'zasa'
'zaruč'
'zapr'
'zamysle'
'zajišťují'
'zahrnout_'
'zabíje'
'yče'
'yti'
'yste'
'yd'
'xid'
'ws'
'wle'
'wish'
'wipe'
'winner'
'willingness_'
'wen'
'vůdc'
'věnov'
'věcn'
'včel'
'výzvou_'
'vývozc'
'výtah'
'výt'
'výslech'
'výrobního_'
'výměny_'
'vým'
'výlučně_'
'výkon'
'výhod_'
'výhledu_'
'východo'
'výbore'
'vír'
'vát'
'váním_'
'váha'
'vzpom'
'vznik_'
'vzdělan'
'vzdálenosti_'
'vyžádá'
'vyzývám_'
'vyváž'
'vyvolá'
'vyvolat_'
'využila_'
'využi'
'vytá'
'vytvořili_'
'vysvětluje_'
'vystř'
'vyslov'
'vyprávě'
'vypracovat_'
'vypoč'
'vyk'
'vyjedna'
'vyhově'
'vyhnul'
'vydává'
'vybíra'
'vrácen'
'vrstv'
'vouc'
'vojensk'
'vodě_'
'vocabulary_'
'vnitro'
'vládám_'
'vlivem_'
'vlastními_'
'vlastník'
'visual_'
'viru_'
'vik'
'viděla_'
'veřejným'
'versi'
'vere'
'veni'
'velkého_'
'vedl_'
'vaze'
'vatel'
'variables_'
'valn'
'uživatelské'
'uži'
'uště'
'ušk'
'uznávan'
'uvězněn'
'uvedení_'
'uva'
'utn'
'utiliz'
'ustn'
'ustil'
'usta'
'urychlit_'
'upřednostň'
'uprostřed_'
'upravit_'
'uplynulých_'
'uplatn'
'upevn'
'unit'
'unders'
'uncon'
'unb'
'umb'
'ultra'
'uko'
'ukazatel'
'udržovat_'
'udrž'
'třída_'
'těhotenství_'
'týden'
'tý'
'tím'
'tz_'
'tyč'
'typick'
'twentieth_'
'tvoř'
'tus_'
'turns_'
'tti'
'trouble'
'trou'
'trh'
'trestního_'
'tren'
'treatments_'
'transi'
'transformation_'
'transformace_'
'transak'
'trafficking_'
'toč'
'toxicity_'
'toxic'
'totali'
'tore'
'topic_'
'tolerance_'
'toilet'
'tných_'
'tním_'
'tné_'
'tlum'
'tlin'
'tkov'
'till_'
'til_'
'tien'
'tich'
'thorough_'
'textile'
'terra'
'tern'
'terminology_'
'terminate'
'tensions_'
'tendenc'
'temperatures_'
'temn'
'televize_'
'techniques_'
'techniky_'
'tear'
'tea'
'takzvané_'
'tabulk'
'sán'
'synt'
'symbols_'
'symbol'
'switch_'
'swin'
'swe'
'světovém_'
'světla_'
'svobodně_'
'svo'
'summary_'
'suit'
'suggesti'
'sud'
'successor'
'subparagraph_'
'subjects_'
'státním_'
'stálé'
'styl_'
'stup'
'strukturu_'
'struktur_'
'strip'
'stres'
'stop'
'ston'
'stil'
'stejného_'
'steadily_'
'stays_'
'statk'
'stanovený_'
'stanoveno_'
'stanic'
'stahov'
'stadiu'
'stabiliz'
'ssy_'
'sses_'
'srbsk'
'správnou_'
'správc'
'sprav'
'spousta_'
'spot'
'spoluprac'
'společnostmi_'
'spla'
'spektr'
'specialt'
'spad'
'sour'
'soukromém_'
'sort'
'some'
'solved_'
'socialistick'
'soci'
'sno'
'snap'
'snaha_'
'sna'
'směs'
'směn'
'smutn'
'smrteln'
'smluvní'
'smell_'
'slí'
'služební'
'sleduj'
'sledoval_'
'slabé_'
'sla_'
'skvělé_'
'skutečným_'
'skop'
'ska'
'sjedn'
'sion'
'sine'
'simplify_'
'simpli'
'simp'
'simi'
'silo'
'silný'
'sile'
'sila'
'sick_'
'shor'
'shook_'
'shocks_'
'shock_'
'sheets_'
'sharply_'
'shal'
'shad'
'seznam'
'sev'
'sensiti'
'sekc'
'seděl'
'sectoral_'
'season_'
'sdělovací'
'sdělit_'
'schopné_'
'sc'
'sazbami_'
'sana'
'safer_'
'safely_'
'safe'
'ržen'
'růž'
'rá_'
'rychlo'
'rup'
'rst'
'rozvojovou_'
'rozumě'
'rozkl'
'rozkaz'
'rozhoduje_'
'rozhod'
'routes_'
'rostl'
'root'
'roma'
'roi'
'rodinu_'
'rně'
'rning_'
'rma'
'rises_'
'ridi'
'rge'
'reálná_'
'revo'
'reviv'
'revis'
'rev'
'resume'
'restrukturalizace_'
'restor'
'resolving_'
'reserved_'
'rep'
'relaxed_'
'relativní_'
'relate_'
'reh'
'reguláto'
'registra'
'registr'
'recruit'
'recommend'
'receives_'
'rebuild'
'rebel'
'reassur'
'rde'
'random'
'radioa'
'racis'
'původního_'
'působil'
'půjde_'
'pů'
'příštího_'
'přítomnosti_'
'přítele_'
'přístupy_'
'přísn'
'přírodní'
'přípravy_'
'příp'
'příloha_'
'přílišn'
'přispě'
'připomněl'
'přinesla_'
'přiměřené_'
'přijaté_'
'přijatelné_'
'přichází_'
'přeži'
'přezkum_'
'přev'
'přesun'
'přeměn'
'přej'
'přehnan'
'předvídateln'
'předsedou_'
'předp'
'písemné_'
'písem'
'pí_'
'pursuing_'
'purely_'
'punish'
'publici'
'právy_'
'prvkem_'
'prováděcí_'
'proven_'
'protějšk'
'prostředek_'
'prostu'
'prosto'
'prosecut'
'propr'
'propose_'
'promising_'
'project'
'profound_'
'profil'
'profession_'
'producent'
'procesů_'
'prevented_'
'presti'
'presidents_'
'precis'
'preca'
'pran'
'pragmati'
'pracujících_'
'pracující_'
'ppi'
'požadované_'
'požadavku_'
'poznámka_'
'poznamen'
'pozměňovací'
'pozitivní'
'pově'
'povstal'
'povinné_'
'povede_'
'považujeme_'
'používané'
'použita_'
'pound'
'poukazuje_'
'potřeb'
'potvrzuje_'
'potvrzen'
'potvrdit_'
'potr'
'posuzova'
'posun'
'posu'
'postupné'
'postu'
'postrád'
'postihuj'
'poslance_'
'poskytován'
'poskytly_'
'poskytl_'
'posedl'
'porte'
'porozumění_'
'pora'
'populac'
'poplatku_'
'popisuje_'
'popis_'
'poorly_'
'pomocn'
'položek_'
'poll'
'politiků_'
'politikami_'
'politickými_'
'pokyny_'
'pokut'
'pokusil'
'pointing_'
'podívá'
'podává_'
'podporoval_'
'podnikl'
'podnikatelsk'
'podléhají'
'podiv'
'pocházející_'
'pocho'
'poch'
'pm_'
'ploš'
'plod'
'plnit_'
'plemen'
'pilot'
'pillar'
'phy'
'philosophy_'
'petition_'
'pest'
'perv'
'personál'
'periphery_'
'penzi'
'peni'
'pending_'
'patřičn'
'patrně_'
'partnerů_'
'partners'
'partic'
'partial_'
'parlamentních_'
'parallel_'
'paragraphs_'
'panem_'
'pair'
'paint_'
'painful_'
'paděl'
'očích_'
'očekávan'
'očekáv'
'označování_'
'ox'
'ows'
'ovlivnit_'
'ovl'
'ovaným_'
'outstanding_'
'outline'
'oura'
'oud'
'ouc'
'otá'
'otočil_'
'otevřeně_'
'otevřel'
'ostn'
'osob'
'osm_'
'orno'
'originate'
'organis'
'orem_'
'opíra'
'optimism'
'oph'
'open'
'oot'
'omyl'
'omezování_'
'omer'
'ology_'
'olin'
'ohra'
'oga'
'oev'
'odvah'
'odpovědn'
'odní'
'odep'
'odej'
'oct'
'ocn'
'ochránce_'
'ocean_'
'obět'
'občanských_'
'obává'
'obvykl'
'obvinění_'
'obklop'
'objects_'
'obecných_'
'obecného_'
'oasis_'
'německý'
'někter'
'několikrát_'
'něko'
'níků'
'ník'
'né'
'názvem_'
'náv'
'nátlak'
'následovat_'
'námě'
'náh'
'náboženských_'
'nutný'
'nto'
'nte'
'novinář'
'noh'
'nodded_'
'nna'
'nka_'
'nistick'
'nikoho_'
'nezávislé_'
'nezákonné'
'nezbytných_'
'ney_'
'nevyřeš'
'nevyhnuteln'
'nevládní'
'nevinn'
'neutr'
'nete'
'nestan'
'nespl'
'nesn'
'nesmysl'
'nesk'
'neschopnosti_'
'nera'
'nepřím'
'nepřip'
'nepředstav'
'nepřed'
'nepa'
'neoch'
'neobsahuj'
'nenas'
'nemocn'
'nejvýznamnější'
'nejnovější_'
'neighbors_'
'negotiated_'
'neg'
'nedávných_'
'nedosáh'
'nebyli_'
'nci_'
'nazva'
'navrhuj'
'navrhova'
'naut'
'nau'
'natá'
'nata'
'nastal_'
'nasta'
'nasazení_'
'narůst'
'naráž'
'napln'
'napaden'
'naléhavo'
'naléhav'
'nal'
'nakr'
'nako'
'nakaž'
'naho'
'naf'
'měsíci_'
'měn'
'mív'
'mírové_'
'mírov'
'myšlen'
'myslel'
'muž'
'museum_'
'multipli'
'monarch'
'mon_'
'modules_'
'modernizac'
'moderniz'
'mocně'
'mocensk'
'mobilní_'
'mobilit'
'množ'
'mnohý'
'mit_'
'mist'
'misi_'
'minimálně_'
'minds_'
'migrace_'
'midnight_'
'mexick'
'metodu_'
'metoda_'
'metal'
'mene'
'mend'
'mem_'
'meets_'
'meantime_'
'mea'
'mc'
'mbur'
'matick'
'mateřsk'
'massa'
'marr'
'mark'
'mar_'
'manual_'
'managers_'
'mana'
'léčbě_'
'léčba_'
'lásk'
'lyží_'
'loose_'
'longe'
'logu'
'loan_'
'loaded_'
'ller_'
'livě_'
'live'
'liturgi'
'litr'
'lings_'
'lin_'
'lidové_'
'libr'
'liar'
'liabilities_'
'letectví_'
'letecký'
'leněn'
'lana'
'křehk'
'kys'
'kvalifikovan'
'kupředu_'
'kulturního_'
'kult'
'kuchyn'
'krátce_'
'krys'
'kovou_'
'kovn'
'koval'
'kore'
'kopie_'
'kopi'
'končí_'
'konvenční'
'kontinentu_'
'kontaktní'
'konečný'
'koncipov'
'kona'
'komunikace_'
'kompromis_'
'komodit'
'komisařka_'
'komisař'
'kombinace_'
'kole'
'kodex'
'knihovn'
'klidně_'
'klidné'
'klidn'
'klam'
'kladou_'
'kist'
'kind'
'kilomet'
'kill'
'kie'
'kdybychom_'
'kcí'
'kb'
'kapitálov'
'kapacit'
'kana'
'jídla_'
'judgements_'
'journalist'
'jointly_'
'jižní'
'jistotu_'
'jiní_'
'jind'
'jim'
'jedná'
'jednodušší_'
'jedn'
'jam'
'jakých_'
'jadern'
'iň'
'ize'
'iu'
'itou_'
'itol'
'ito_'
'ition'
'isu'
'istické'
'istic_'
'ista'
'iss'
'isku'
'ironi'
'ipa'
'ip_'
'ior_'
'involve_'
'inv'
'introduc'
'interval'
'integrat'
'insolven'
'inovativní'
'inova'
'injured_'
'injekc'
'inj'
'initially_'
'inhibit'
'inhabitants_'
'informoval'
'infl'
'infek'
'individuální_'
'incident'
'impuls'
'imp'
'imbalances_'
'imb'
'imate'
'iling'
'ikon'
'identit'
'icon_'
'ibe'
'hygien'
'hráči_'
'hráč'
'hru_'
'hrozi'
'hrozba_'
'hroz'
'hranicích_'
'hra'
'hr_'
'host'
'hok'
'hlubší_'
'hlubok'
'hlasem_'
'hit'
'hic_'
'het'
'hereinafter_'
'hen_'
'helpfull_'
'helm'
'hej'
'heated_'
'haven_'
'harmonised_'
'hange'
'hamm'
'gé'
'gá'
'guilt'
'gues'
'guaranteed_'
'grand_'
'grafi'
'graduate_'
'governed_'
'gourmet_'
'gos'
'gori'
'globalisation_'
'geni'
'generous_'
'gear'
'für'
'fyzický'
'fyzick'
'fur'
'fte'
'francouzské'
'fou'
'foster_'
'forum_'
'forgotten_'
'fool'
'fin_'
'fikac'
'figur'
'fatal'
'farma'
'farm'
'fami'
'fak'
'failures_'
'fai'
'facil'
'ez_'
'expos'
'experiments_'
'expense_'
'expand_'
'exact_'
'exacerbate'
'ew_'
'evropskými_'
'evolved_'
'everybody_'
'esy_'
'essentially_'
'esa'
'erá'
'erio'
'episode_'
'eným_'
'entů'
'entrepreneurs'
'engagement_'
'energetické'
'ener'
'encountered_'
'enables_'
'embrac'
'embo'
'elu'
'elné_'
'eli_'
'elektřin'
'electric_'
'ektiv'
'ekologické_'
'eit'
'eer'
'ede_'
'economist_'
'echt'
'echl'
'earn_'
'ear_'
'důkladně_'
'dětsk'
'děsiv'
'dělník'
'dějiny_'
'dávku_'
'dynamik'
'dvoj'
'dun'
'dské'
'dropped_'
'drinking_'
'dočasné_'
'dozvěděl'
'dovážen'
'dovoleno'
'dovnitř_'
'double'
'dosáhla_'
'dosáh'
'dostupnosti_'
'dostupn'
'dorm'
'doplněn'
'domén'
'domácích_'
'domác'
'dokázali_'
'dohodnout_'
'dohlíže'
'dogma'
'dodáva'
'dnešním_'
'dluhy_'
'dlouhé'
'diu'
'distribuci_'
'distinguish'
'disti'
'dispe'
'disp'
'dish'
'dise'
'discipline_'
'disagree'
'ding'
'differ_'
'differ'
'diet'
'diagnostic'
'diagn'
'diabet'
'determining_'
'determin'
'desperate'
'designated_'
'designat'
'deserves_'
'describes_'
'derivative'
'deriv'
'depress'
'deposits_'
'dependency_'
'denie'
'dence_'
'demonstration'
'demonstrac'
'demokratický_'
'demokra'
'deleted_'
'delegation_'
'dekád'
'dei'
'definovat_'
'definitive'
'defending_'
'deemed_'
'declare_'
'dech'
'deadl'
'day'
'dans_'
'dali_'
'církve_'
'cz'
'cyber'
'cvič'
'curtain'
'curio'
'cultivat'
'criminals_'
'crash_'
'craft_'
'covering_'
'cots_'
'cosm'
'corridors_'
'cope_'
'cook'
'convey'
'contributes_'
'consulting_'
'constraints_'
'consistency_'
'confront_'
'confe'
'comput'
'comprising_'
'compr'
'compos'
'complicat'
'compell'
'communicate_'
'collect_'
'clear'
'clean'
'classic_'
'clarifi'
'civilist'
'cia_'
'chysta'
'chut'
'chroni'
'chrom'
'chozí_'
'chodní'
'chlapc'
'chief_'
'chest'
'charakter_'
'chap'
'chao'
'cestovní_'
'certification_'
'certificates_'
'ceremon'
'cereals_'
'celebration'
'cele'
'catch'
'card'
'cant'
'camp'
'cag'
'bě_'
'bílé_'
'bydlení_'
'burz'
'budově_'
'brand'
'branch_'
'bojovník'
'boast'
'blíž'
'bles_'
'bilion'
'bili'
'bilaterální'
'bien_'
'bezo'
'bem_'
'behaviour_'
'beautifully_'
'beam'
'batter'
'bariér'
'bankou_'
'ball_'
'balení_'
'bag'
'bad'
'azo'
'avý'
'avk'
'ave'
'authors_'
'authoris'
'auta_'
'aty_'
'att'
'ats_'
'ators_'
'atmosféru_'
'aten'
'associations_'
'arte'
'arranged_'
'ardo'
'archiv'
'architekt'
'ara_'
'aqua'
'apparently_'
'aparát'
'aného_'
'antivirov'
'antiqu'
'antic'
'anniversary_'
'ande'
'analyse'
'allo'
'alis'
'algorit'
'alcoholi'
'alcohol_'
'alan'
'akciov'
'ající'
'aja'
'agre'
'affl'
'adviser'
'adu_'
'administrativní_'
'administrativ'
'adl'
'adapt'
'activists_'
'activ'
'acted_'
'acova'
'achievement_'
'ach'
'accu'
'accom'
'ac_'
'absolutn'
'abl'
'abandon_'
'Zpravodaj'
'Změn'
'Zat'
'Zap'
'Zam'
'Zahr'
'Zadejte_'
'ZP'
'You'
'Wu'
'Wired_'
'Wind'
'Will'
'Wien_'
'Whi'
'Wer'
'Wed'
'Web'
'Wat'
'Walk'
'Všeobecn'
'Výro'
'Vítám_'
'Vzd'
'Vypadá_'
'Vu'
'Vláda_'
'Vladim'
'Vatican_'
'VP'
'Uk'
'Turk'
'Turi'
'Tony_'
'Thursday_'
'Test_'
'Test'
'TVs_'
'TU'
'TR'
'TOTO_'
'Sur'
'Sudan_'
'Strasbourg_'
'Stay_'
'Statu'
'Současná_'
'Současn'
'Soud_'
'Soon'
'Something_'
'Sna'
'Sn'
'Situace_'
'Simpl'
'Sex'
'Serv'
'Select_'
'Saturday_'
'Sara'
'Sak'
'Saf'
'Saa'
'STR'
'SQL_'
'SAR'
'Ráda_'
'Rub'
'Rol'
'Richard_'
'Rich'
'Rez'
'Residen'
'Republik'
'Rap'
'Railway_'
'Radisson_'
'Quite_'
'Příl'
'Pákistánu_'
'Putin'
'Provi'
'Prot'
'Projekt_'
'Production_'
'Procedural_'
'PricewaterhouseCoopers_'
'Price_'
'Prezident_'
'Potřebuj'
'Potom_'
'Politi'
'Podpora_'
'Podobně_'
'Pocket_'
'Ple'
'Peter'
'Pel'
'Partner'
'Parental_'
'Pap'
'Panorama_'
'Pale'
'Pala'
'Pact_'
'PN'
'PM'
'Ovšem_'
'Ombudsman_'
'Olympic_'
'Oct_'
'Obviously_'
'OC'
'OB'
'Norw'
'Nepř'
'Nejv'
'Nebo_'
'Near'
'Naštěstí_'
'NG'
'Měst'
'Musí'
'Mr'
'Morocco_'
'Monta'
'Mod'
'Mit'
'Mira'
'Mayo'
'Max'
'Matte'
'Marb'
'Mao_'
'Manu'
'MEPs_'
'LÁ'
'Long_'
'Lithuania_'
'Limit'
'Lim'
'Libera'
'Lib'
'Left_'
'Law'
'Latinské_'
'Lanc'
'LL'
'Kter'
'Kreml'
'Kosovu_'
'Kle'
'Keynes'
'Ker'
'Ke_'
'Kau'
'KU'
'KOM_'
'Jordán'
'Jewish_'
'Jes'
'Jeruzalém'
'Jel'
'Jav'
'JP'
'Investi'
'Internetu_'
'Int'
'Institut'
'Instalační_'
'Import'
'Id'
'Iceland_'
'Ib'
'IES_'
'IDE_'
'Hop'
'Honor_'
'Hof'
'Hlasoval_'
'History_'
'Historic'
'Henry_'
'Head'
'Harri'
'Hans'
'HS'
'HE'
'Gy'
'God'
'Glasgow_'
'Gates_'
'Galway_'
'Fue'
'Fro'
'Francouzsk'
'Four_'
'Florida_'
'Fli'
'Finn'
'Federální'
'Evaluation_'
'Eurostat'
'Estonian_'
'Ep'
'Emi'
'Elect'
'ED_'
'EA_'
'Důležit'
'Dí'
'Duk'
'Druhým_'
'Dot'
'Domini'
'Dol'
'Dokud_'
'Doh'
'Divorce_'
'Directory_'
'Dig'
'Dep'
'Das_'
'DVD'
'Current'
'Criminal_'
'Creative_'
'Cre'
'Cr'
'Courts_'
'Cos'
'Copa'
'Cooperation_'
'Contact_'
'Cont'
'Consequently_'
'Commons_'
'Cod'
'Clearly_'
'Chad_'
'Cena_'
'Celkov'
'Carlos_'
'Cameron_'
'Call_'
'CV'
'CU'
'COMMISSION_'
'CH_'
'CES'
'CB'
'Bus'
'Buil'
'Brn'
'Brig'
'Boutique_'
'Belgi'
'Bajor'
'Bai'
'BER'
'Ax'
'Austrian_'
'Auditors_'
'Asse'
'Applica'
'Answer_'
'Amb'
'Alg'
'Ahoj_'
'Afri'
'Admiral_'
'Ada'
'Abu_'
'Abbás'
'ATM_'
'AD_'
'>'
';&_'
'85'
'82'
'720'
'67'
'51'
'1960_'
'175'
'125'
'124'
'116_'
'.’_'
'. ({{_'
',,_'
'***'
').'
' |'
' +'
'��'
'”_'
'” – _'
'’'
'ف_'
'ض_'
'د_'
'، _'
'о_'
'žím'
'žádném_'
'živý'
'žili_'
'žil'
'žij'
'žene'
'Ženev'
'Žalob'
'ůstá'
'šť_'
'štění_'
'ští'
'špatného_'
'španělsk'
'špa'
'šování_'
'školství_'
'škol_'
'škodlivý'
'šek_'
'šat'
'říž'
'říš'
'řízené_'
'řív'
'říkám_'
'říkal'
'řil'
'řetězc'
'ředitel_'
'ředitel'
'řazen'
'ı'
'ěřen'
'ěti'
'ěly_'
'čná_'
'člensk'
'činn'
'čili_'
'čené_'
'čem'
'Ček'
'ČL'
'ýz'
'ývá'
'üh'
'úžasn'
'účtů_'
'účty_'
'účtován'
'účinněj'
'účetn'
'účel_'
'územ'
'úz'
'ústup'
'úspěšn'
'úsporný'
'úsměv'
'úlev'
'úhrn'
'ño_'
'íst'
'írá_'
'íh'
'ícími_'
'íbil'
'íb'
'éc'
'ère_'
'än'
'ávající'
'Účastníci_'
'ÁN'
'« _'
'{'
'zůstaly_'
'zú'
'závažn'
'zát'
'zásadní'
'zám'
'zákazu_'
'zzo_'
'zvýšené'
'zvyšují_'
'zveřejnění_'
'zub'
'ztro'
'zrcadl'
'způsobený'
'způsobené_'
'způsobeno'
'zpřístupn'
'zpř'
'zprává'
'zpravodajsk'
'zpravodajka_'
'zpravidla_'
'zotav'
'zones_'
'zodpovědný'
'známk'
'známe_'
'znám_'
'znič'
'značný_'
'zna'
'zmr'
'zmenš'
'zme'
'zlato_'
'zkoumal'
'zka'
'zemědělskou_'
'zdržen'
'zdržel'
'zdravotn'
'zdr'
'zbývá_'
'zavře'
'zaujím'
'zasáhn'
'zastánci_'
'zastavil'
'zapojen'
'zapla'
'zaměřený_'
'zaměř'
'založeno_'
'zakaz'
'zajišťova'
'zahrnoval'
'zahl'
'zaha'
'zabránil'
'zabrán'
'zabav'
'ysk'
'yard_'
'yage'
'xt_'
'xp'
'xel'
'writers_'
'worried_'
'wie'
'wet_'
'wellbeing_'
'wearing_'
'was'
'wait'
'wag'
'všiml_'
'všem'
'věřící'
'věř'
'vější'
'výzkum'
'vývojem_'
'výv'
'výst'
'výsad'
'výměnu_'
'výběr'
'výbu'
'víře_'
'vítá'
'víry_'
'válkou_'
'vzájemné'
'vzájemn'
'vztah'
'vzor_'
'vznikla_'
'vyžadoval'
'vyš'
'vyzvat_'
'vyznání_'
'vyz'
'vyvíjejí'
'vyvíje'
'vyvinout_'
'vytrval'
'vyslal'
'vypracová'
'vypln'
'vylo'
'vykona'
'vykazuj'
'vyjasn'
'vyhrá'
'vyhledáva'
'vyhla'
'vydávání_'
'vydané'
'vychází_'
'vycháze'
'vybudování_'
'vybavené_'
'vu'
'vst'
'vrá'
'vosti_'
'volání_'
'volný_'
'volatility_'
'vojáků_'
'vlák'
'vlastni'
'vize_'
'viv'
'visit'
'violations_'
'ville_'
'vig'
'veškerých_'
'veřejném_'
'vessel_'
'vert'
'vené'
'velvyslan'
'vašich_'
'vař'
'vazby_'
'varova'
'validity_'
'vací_'
'užitečno'
'ušen'
'učiní_'
'učinil_'
'uznáva'
'uznán'
'uznat_'
'uzavírá'
'uvěři'
'uvádě'
'utte'
'utr'
'utk'
'utan'
'uspokojiv'
'usnadn'
'usmíření_'
'uskutečňova'
'uskutečnil'
'uskutečn'
'usc'
'určování_'
'uráž'
'urgency_'
'upt'
'uplynu'
'upa'
'unte'
'unpre'
'univerzální'
'underpin'
'umožnila_'
'ulá'
'ull'
'ulati'
'ukončen'
'ugu'
'ug'
'uff'
'událost'
'uchová'
'ubí'
'ually_'
'týmy_'
'tématem_'
'tyran'
'tvím'
'tváři'
'tvrzením_'
'tted_'
'tta_'
'très_'
'trvá_'
'troll'
'trigger_'
'trigger'
'trestné_'
'travelling_'
'travelers_'
'transpose'
'transform'
'transfers_'
'trade'
'tracking_'
'towe'
'tough_'
'toc'
'tobě_'
'toa'
'tně_'
'tlakem_'
'tisíc'
'tional'
'timely_'
'tie_'
'tickets_'
'tica'
'thu'
'thirty_'
'thie'
'theori'
'thank'
'textilní'
'tet'
'testova'
'tested_'
'teroristický'
'teroristické_'
'termín_'
'tempe'
'tema'
'telný_'
'tej'
'technického_'
'teams_'
'taxi_'
'tave'
'tau'
'targeting_'
'talked_'
'tali'
'talent'
'takový'
'takovému_'
'tail_'
'tablet'
'sů_'
'séri'
'sázce_'
'symp'
'swi'
'swap_'
'světem_'
'světeln'
'svobod_'
'svazk'
'suspect_'
'surprising'
'surpluses_'
'surovin_'
'suff'
'succeeded_'
'suc'
'subsidiar'
'submission_'
'stí'
'stvo_'
'stva_'
'studios_'
'studii_'
'student'
'strukturá'
'struggl'
'string'
'striking_'
'strašliv'
'strategický'
'strategické_'
'strategi'
'strat'
'stojí'
'stlač'
'stimulac'
'stické_'
'stic'
'stere'
'stejném_'
'statn'
'starý_'
'starship_'
'stared_'
'stanovisku_'
'stanov'
'stair'
'stagnation_'
'stabiln'
'srozumiteln'
'správná_'
'spočíva'
'spotřebitelům_'
'spor_'
'spor'
'společens'
'spojence'
'spin'
'spell'
'spekulativní'
'spectr'
'spect'
'specialized_'
'specialit'
'sová'
'souvisejí'
'soudržnost_'
'sooner_'
'song'
'solarium_'
'socio'
'sobe'
'sněmovn'
'snižovat_'
'snižov'
'snažili_'
'směřující_'
'směřování_'
'směrnic_'
'smrt_'
'smil'
'službě_'
'službách_'
'slučiteln'
'slowdown_'
'slove'
'slečn'
'slavnost'
'skř'
'ská'
'skutečné'
'skupině_'
'skupinou_'
'sku'
'skryt'
'skromn'
'sklo'
'siste'
'simultaneously_'
'should'
'shock'
'shit_'
'shell_'
'shel'
'sestav'
'sely_'
'seemingly_'
'secondary_'
'season'
'searching_'
'sdělil'
'sdílené'
'sdruž'
'sda'
'scén'
'scream'
'score_'
'schodky_'
'scene'
'sca'
'saw'
'satisfaction_'
'san_'
'rámcov'
'ráln'
'ryt'
'rybářsk'
'rybolov_'
'rve'
'ruského_'
'rush'
'ruch'
'rtis'
'rsk'
'rsi'
'rr'
'rozšířené_'
'rozš'
'rozvíjet_'
'rozr'
'rozpočt'
'rozhodovat_'
'rozděl'
'rozdíln'
'roy'
'rovnováhu_'
'routine'
'ropn'
'roots_'
'roll'
'rodinný_'
'rocket'
'rock'
'rmo'
'rly_'
'rizikové'
'rizikem_'
'riu'
'rhetoric_'
'rezoluc'
'rezervaci_'
'revize_'
'reverse'
'retro'
'retriev'
'retail_'
'respektovat_'
'repo'
'replied_'
'repli'
'replac'
'rent_'
'rena'
'reminded_'
'remembered_'
'relaxation_'
'rekord'
'regulated_'
'regulate_'
'refusal_'
'refrain_'
'refle'
'referring_'
'references_'
'reduk'
'reconstruct'
'recom'
'recognizes_'
'reck'
'reces'
'recept'
'realiz'
'realitu_'
'rational_'
'ratingov'
'rated_'
'rare'
'rans'
'rakousk'
'raises_'
'raf_'
'radikální_'
'raci'
'ques_'
'původním_'
'půjčov'
'příčiny_'
'přít'
'přísně'
'příjemné_'
'příjemn'
'přátelsk'
'přál_'
'přizpůsobit_'
'přiznal'
'přivíta'
'přit'
'připravil'
'připomína'
'přinu'
'přijato_'
'přečt'
'přezkoumá'
'přez'
'převa'
'přesahují'
'překážkou_'
'překážk'
'překážek_'
'překon'
'přek'
'přeh'
'představil'
'představen'
'předpis_'
'předn'
'předložený_'
'předejít_'
'přede'
'předchozího_'
'předchozích_'
'přebytky_'
'písmen'
'pyt'
'pur'
'pump'
'prvek_'
'prs'
'provedena_'
'proslul'
'prosad'
'proposing_'
'propojen'
'promluv'
'proká'
'projí'
'projednává'
'prohlížeč'
'prohlíže'
'produktivní_'
'prodejn'
'prochází'
'procháze'
'procenta_'
'privatizac'
'privati'
'prioritní'
'prevent'
'prev'
'pressing_'
'prescribed_'
'predict_'
'pravidlo_'
'pravděpodobnost_'
'prav'
'practi'
'pracovníci_'
'prach'
'pper'
'požád'
'poštovní_'
'poškozen'
'poškodi'
'pořád'
'pozná'
'pozadí_'
'povan'
'povahy_'
'pouhý'
'potýkají_'
'potýk'
'pot_'
'posílí_'
'posíl'
'posv'
'postižení'
'poslal'
'poskytoval'
'poskytnuté_'
'poskytn'
'position'
'portugalské'
'portfoli'
'porovn'
'popř'
'popsan'
'pono'
'ponechán'
'pomohou_'
'poloviny_'
'poli'
'pokusu_'
'pokus_'
'pokry'
'pokrok'
'pokle'
'pojď'
'pojme'
'pohon'
'pohlíž'
'pohledávka_'
'pohlaví_'
'podě'
'podílel'
'podzim'
'podpořila_'
'podnikatelské'
'podmínk'
'podezřel'
'pocit'
'pobí'
'pláž'
'plyne'
'plug'
'plen'
'plein_'
'platný'
'planetu_'
'pky_'
'pite'
'philosoph'
'pesticidů_'
'pert'
'personalit'
'persist'
'pení'
'pens'
'pav'
'pause'
'passes_'
'parks_'
'pari'
'paradox'
'papíry_'
'panuj'
'památk'
'palác'
'palestinsk'
'palace_'
'ozí_'
'ozdrav'
'owe'
'ový'
'ovk'
'ovin'
'overlook'
'oven_'
'ovacích_'
'outs'
'outer'
'ouk'
'otevřený_'
'otevřený'
'otec_'
'otc'
'osu'
'ostrovy_'
'osobě_'
'osobní'
'osmi_'
'oslabi'
'orá'
'orb'
'oprávněný'
'opravn'
'openness_'
'opatrně_'
'opakovan'
'omu'
'omezil'
'omb'
'oman'
'olympi'
'olive_'
'oli_'
'oka_'
'ois_'
'oid'
'odí'
'odz'
'odvád'
'odstranil'
'odrážejí'
'odráže'
'odpovědný'
'odpadu_'
'odně'
'odmítá'
'odmítnout_'
'odhod'
'odchodu_'
'odbornou_'
'ocel'
'oběť_'
'oběma_'
'oběh'
'obvod'
'obstacles_'
'observations_'
'obsažen'
'obsahují_'
'obrá'
'obrovské'
'obrat'
'obnovil'
'obnovení_'
'objem'
'obi'
'obdrží'
'obdrže'
'obchodník'
'obav_'
'obal'
'ob_'
'nů'
'nějších_'
'nějakého_'
'názvy_'
'názv'
'následné_'
'následek_'
'náročný'
'nápad_'
'námořní'
'námitky_'
'nálad'
'náhodn'
'nádherné'
'nádhern'
'nábožensk'
'nábo'
'nutnosti_'
'nul_'
'ntov'
'ntia'
'novému_'
'nová'
'noviny_'
'normali'
'nominal_'
'noi'
'nig'
'nich'
'nian'
'nia_'
'ngs_'
'neúspěch'
'nezá'
'nezb'
'nevzn'
'nestá'
'nesprávné'
'nesporn'
'nesouhlasí'
'nesna'
'nesmě'
'nerovnost'
'nepřek'
'neprodleně_'
'nent'
'nedůvě'
'nedovol'
'nedaleko_'
'neck'
'nechtěl'
'necessarily_'
'neboli_'
'nces_'
'naváz'
'navrhované_'
'nauč'
'nationality_'
'nasa'
'narůstající'
'narozen'
'naléhavé_'
'nakládání_'
'nakl'
'nainstalován'
'nacháze'
'místního_'
'místn'
'mí_'
'médií_'
'myslí'
'mutually_'
'murder_'
'munic'
'mp3_'
'mount_'
'moud'
'mora'
'moon_'
'monopoly_'
'monitorovací'
'monet'
'moji_'
'moderním_'
'modely_'
'mobil'
'mnoh'
'mlád'
'mlh'
'mladý_'
'mix'
'missile_'
'missi'
'miss_'
'ministerstv'
'minat'
'militant'
'miliardu_'
'mile_'
'mezinárodn'
'meters_'
'mess'
'memora'
'melt'
'medic'
'mechanical'
'mechanic'
'massage_'
'marginal'
'mann'
'manipul'
'mandát'
'malicious_'
'male_'
'mais_'
'mainstream'
'mad_'
'mach'
'léčiv_'
'látk'
'lve'
'lun'
'luggage_'
'lud'
'lování_'
'locked_'
'lněn'
'lizova'
'liquid_'
'linu'
'likvidit'
'lighting_'
'lighte'
'lidstv'
'lidský'
'lidského_'
'lich'
'licenci_'
'liberaliz'
'liberalism'
'liat'
'leč_'
'levných_'
'letý'
'letošního_'
'letní_'
'leti'
'lend'
'lehk'
'legs_'
'legitim'
'legacy_'
'lawful'
'lat_'
'lal'
'křesťan'
'kční_'
'kému_'
'květ'
'kuj'
'kuchyni_'
'kty_'
'krátk'
'králov'
'kových_'
'kovat_'
'kouření_'
'koně_'
'konte'
'konkrétních_'
'konferenční'
'koncept'
'komple'
'komodit_'
'komfort'
'kombin'
'kolektivní'
'koa'
'knut'
'knout_'
'kn'
'klíčovým_'
'klíčová_'
'klá'
'klinick'
'klen'
'kla_'
'kj'
'kilometrů_'
'kets_'
'keep'
'kdo'
'katastrofy_'
'kapitána_'
'kapitalistick'
'kandid'
'kan_'
'kali'
'kala'
'kak'
'jídlo_'
'juice_'
'joy'
'jnásob'
'jmenovan'
'jistou_'
'jistoty_'
'jet_'
'jet'
'jení_'
'jejími_'
'jednotného_'
'jednotlivců_'
'jednotlivce_'
'jednalo_'
'ject'
'jazyce_'
'jakýmkoli'
'jakýkoli'
'jakéhokoli_'
'jakákoli_'
'jakosti_'
'jakkoli_'
'jab'
'ičn'
'izing_'
'ivě_'
'ivost'
'ivo_'
'itali'
'ister'
'isolation_'
'ismu_'
'isla'
'irr'
'ira'
'iov'
'investoval'
'investing_'
'into'
'interpreted_'
'interact'
'intense_'
'intends_'
'intelligent_'
'institucím_'
'instant_'
'inst'
'innocent_'
'iniciativa_'
'informaci_'
'influen'
'infi'
'iner'
'inen'
'ined_'
'indicators_'
'indicating_'
'indicati'
'incorporated_'
'inadequate_'
'impéri'
'imper'
'impair'
'iment'
'iluz'
'illustrat'
'igli'
'ig_'
'ifying_'
'iel'
'ideál'
'ideologi'
'ickým_'
'ibility_'
'iate'
'iat'
'hůř'
'háze'
'human'
'hrůz'
'hrud'
'hrst'
'hrozby_'
'hračk'
'hraniční'
'hovořil_'
'hoval'
'hotelové_'
'hosta'
'horizon'
'hore'
'hoped_'
'honey'
'home'
'hodnotách_'
'hodnoti'
'hni'
'hmoty_'
'hlo'
'hlavními_'
'hla_'
'hie'
'hide_'
'hes_'
'hes'
'hers_'
'hemi'
'hekt'
'hasi'
'hars'
'ham'
'halt'
'hadn_'
'habe'
'guvernér'
'guestrooms_'
'guess_'
'graph'
'grant'
'gradual_'
'gradi'
'gott'
'got'
'gion'
'gin_'
'geopolitical_'
'genetick'
'general'
'generaci_'
'genc'
'gaze'
'garan'
'gant'
'fungují_'
'fung'
'frustra'
'fric'
'frequent_'
'foundation_'
'fotbalov'
'formátu_'
'formální_'
'formuláře_'
'forming_'
'formi'
'formerly_'
'forge'
'football_'
'foo'
'font'
'fl'
'fixing_'
'finger_'
'finančně_'
'fantas'
'falešn'
'fakt'
'facilitati'
'fa_'
'eče'
'extrémn'
'externí'
'expressing_'
'explanat'
'explain'
'experiencing_'
'expenses_'
'exi'
'exempl'
'exeku'
'exciting_'
'excite'
'ever'
'etí_'
'ette_'
'ethical_'
'está'
'esta'
'erc'
'erb'
'ept'
'eps'
'ep_'
'enzym'
'environmentally_'
'enrich'
'enn'
'enl'
'enko'
'enjoying_'
'enera'
'encrypt'
'employed_'
'emis'
'ements_'
'elný'
'eligible_'
'elektronické_'
'elderly_'
'ekto'
'ekonomové_'
'ekonomi'
'eil'
'efektivně_'
'een'
'edo_'
'editi'
'ecti'
'ební'
'ebn'
'eating_'
'easing_'
'dých'
'dít'
'dílo_'
'dynamic'
'dvojnásob'
'dveř'
'dule'
'ds'
'drůbeže_'
'dráh'
'dream'
'drastic'
'doza'
'dovednost'
'doved'
'doufat_'
'dostávají_'
'dostupná_'
'doruč'
'doplňk'
'dopis_'
'domény_'
'dominant_'
'dolar'
'dokumentů_'
'doj'
'dodržovat_'
'dodatečné_'
'docháze'
'dobách_'
'dobyt'
'dobrým_'
'dobou_'
'dnáv'
'dlužn'
'dlu'
'dlouhodobého_'
'dlo_'
'dl'
'divok'
'diversif'
'distorti'
'dispa'
'diskr'
'disi'
'disg'
'discover'
'discount_'
'dili_'
'dilem'
'digitální'
'did'
'diam'
'devět_'
'developers_'
'devalvac'
'devalu'
'devadesát'
'dev_'
'deteriorat'
'destinations_'
'destination_'
'desi'
'derive'
'dere'
'demonstrat'
'delivering_'
'definic'
'defeat_'
'deepen'
'declined_'
'decl'
'decides_'
'debaty_'
'dc'
'dated_'
'damn_'
'dament'
'cíl'
'cyklu_'
'cykl'
'cup'
'ctions_'
'ctiona'
'crowd'
'cow'
'correspond'
'corps'
'corn'
'consum'
'consulted_'
'consolidati'
'consist'
'conservative_'
'confuse'
'confident_'
'concentrated_'
'composition_'
'completion_'
'compete_'
'commu'
'committees_'
'commit_'
'commission_'
'coincide'
'cm'
'clu'
'clinical_'
'clause_'
'classical_'
'ckl'
'cked_'
'ción_'
'cizinc'
'civilians_'
'circulation_'
'ciona'
'chř'
'chudobou_'
'chrá'
'chm'
'chlor'
'chin'
'charakterizov'
'cest_'
'certifikát'
'cenové_'
'cenov'
'celosvětově_'
'capitali'
'bývá_'
'bývalé'
'bí_'
'bys'
'buz'
'buying_'
'button_'
'brutáln'
'bru'
'breathe'
'breath'
'bouř'
'bos'
'bon_'
'bojov'
'boards_'
'bní'
'biz'
'biop'
'bezv'
'bezprostřední_'
'bezpo'
'bezpečný'
'bezdrátové_'
'berou_'
'beings_'
'bec_'
'bathtub_'
'bathrooms_'
'basi'
'baro'
'barevn'
'bankovních_'
'bankovn'
'balíčk'
'bali'
'ažuj'
'aye'
'avoiding_'
'avec_'
'av_'
'automobilů_'
'automobil'
'automatiz'
'automatick'
'authoritarian_'
'atmosféře_'
'atic'
'ates_'
'ately_'
'asta'
'assure_'
'asso'
'aspekte'
'asist'
'asijský'
'array_'
'arov'
'armo'
'arit'
'arin'
'arily_'
'archa'
'appropriation_'
'ao'
'anu_'
'antid'
'annually_'
'announcement_'
'animat'
'angažova'
'ang_'
'analyz'
'amongst_'
'alternate_'
'alpha'
'ald'
'alarming_'
'alarm_'
'ala'
'akcionář'
'airs'
'airports_'
'aire_'
'ains_'
'agon'
'agen'
'advise_'
'adventure'
'adresa_'
'adres'
'adjusted_'
'adhere'
'adding_'
'adatel'
'adal'
'acquired_'
'acqu'
'acid_'
'``_'
']]"'
'] ['
'Zákon_'
'ZIP_'
'ZA'
'Yorku_'
'Written_'
'Water_'
'Wait_'
'WLAN_'
'WHO_'
'Výs'
'Vulkán'
'Vot'
'Vlády_'
'Vipassana_'
'Vil'
'Vas'
'Uvědom'
'User_'
'Určit'
'Upozor'
'Update'
'Unless_'
'Ukrajina_'
'Tý'
'Tímto_'
'Tucker'
'True_'
'Travel'
'Tow'
'Tok'
'Tibetan_'
'Thr'
'Th'
'Texas_'
'Terr'
'Tann'
'TY_'
'TS'
'TM'
'THEMES_'
'Sz'
'System'
'Stát'
'Styl'
'Students_'
'Spen'
'Spee'
'Speciali'
'Sov'
'Současně_'
'Soudní'
'Single_'
'Silk'
'Ship'
'Seri'
'Send'
'Se_'
'Scho'
'Schengen_'
'Saxon_'
'Sac'
'Sab'
'SL_'
'SH'
'SC'
'Ryan_'
'Roy'
'Rock'
'Roc'
'Robert'
'Resp'
'Repair_'
'Remarks_'
'Rein'
'Regions_'
'Red_'
'Reception_'
'Read'
'Raf'
'Rac'
'RM'
'RE_'
'RES'
'RAID'
'Queens'
'Queen_'
'Původn'
'Přej'
'PŘIJALA_'
'Pě'
'Provádě'
'Prov'
'Proje'
'Prohlášení_'
'Process'
'Prim'
'Pracovní'
'Pozměňovací_'
'Power_'
'Používá'
'Porta'
'Por'
'Pomo'
'Politick'
'Pokračuj'
'Plán'
'Picture'
'Philip'
'Phi'
'Pet'
'Peking'
'Pay'
'Paper_'
'Page_'
'Pack'
'PLN_'
'Ow'
'Otázk'
'Osa'
'Origin'
'Order_'
'Oprav'
'Oby'
'Obrá'
'OECD_'
'OBS'
'Nástroj_'
'Number_'
'Noti'
'Neus'
'Nesmíme_'
'Necht'
'Nastav'
'Najd'
'Nah'
'Nabucco_'
'NX_'
'NT_'
'Můž'
'Mut'
'Musel'
'Mountain'
'Moskv'
'Morg'
'Montáž_'
'Monitoring_'
'Mom'
'Moc'
'Mnohé_'
'Mluv'
'Mist'
'Michel_'
'Meta'
'Merkel_'
'Mauri'
'Marie_'
'Manuel_'
'Mandel'
'Malé_'
'Malo'
'Mail'
'Mada'
'Macedonia_'
'Mac_'
'MC'
'Lá'
'Luce'
'Live'
'Late'
'LONDON_'
'LAN_'
'Kř'
'Ká'
'Kyoto_'
'Kub'
'Kro'
'Kons'
'Kom'
'Kirk_'
'Karl'
'KY_'
'KR'
'Jonathan_'
'Jistěže_'
'Jim_'
'Jessica_'
'Jacques'
'Jack'
'Izraeli_'
'Iso'
'Islands_'
'Ing_'
'Inform'
'Indo'
'Indií_'
'Imm'
'Imag'
'Im'
'IU'
'II'
'Hur'
'Holy_'
'Herzegovina_'
'Help_'
'Haus'
'Hark'
'Hard'
'Hap'
'Hammam_'
'Haiti_'
'HL'
'Guide_'
'Governments_'
'Gore_'
'Gon'
'Gl'
'Gener'
'Gel'
'Gaz'
'Gate_'
'Gall'
'G8_'
'Fred'
'Fran'
'Fortunately_'
'Five_'
'Fisheries_'
'Fis'
'Fed'
'Fea'
'Expo'
'Except'
'Eth'
'Equal'
'EURO'
'ERDF_'
'EL'
'Dubrovnik_'
'Dou'
'Dosta'
'Doporuč'
'Disk'
'Dictionary_'
'Di_'
'Democracy_'
'Dej'
'Dec'
'Darfur_'
'DH'
'DECI'
'Cíl'
'Cycling_'
'Crowne_'
'Creati'
'Counter'
'Cost'
'Consumer_'
'Conn'
'Conditions_'
'Complete'
'Competiti'
'Communication_'
'Comb'
'College_'
'Clintonov'
'Claud'
'Circu'
'Chorvatsko_'
'Chicago_'
'Cau'
'Cash_'
'CO_'
'CM'
'CHAPTER_'
'Bushovy_'
'Bus_'
'Buc'
'Boží'
'Boasting_'
'Blízk'
'Bli'
'Ble'
'Bin'
'Bill'
'Besides_'
'Bes'
'Bernanke_'
'Belgium_'
'Bau'
'Barn'
'Bankomat_'
'Back'
'BM'
'BL'
'BIOS_'
'Austr'
'Atlanti'
'Angl'
'Angela_'
'Amo'
'Advo'
'Add_'
'Adam_'
'Acti'
'APT_'
'AM_'
'87'
'79'
'5hvězdičkový_'
'53'
'468_'
'1973_'
'170'
'169'
'160'
'145'
'135'
'122'
'101_'
'1000_'
'. ) _'
'*)'
'* ..._'
''', _'
'" - _'
' ; _'
' ,_'
' + _'
'€'
'х'
'не'
'г'
'ан'
'žádal'
'žné_'
'životně_'
'životním_'
'žijící'
'žaloba_'
'žadatel_'
'Živ'
'Ži'
'šťastn'
'šíří_'
'šířit_'
'švédské'
'šní_'
'šné_'
'škodu_'
'šet'
'šené_'
'říva'
'říjn'
'řn'
'řis'
'řeči_'
'řekne'
'ŘÍ'
'Ře'
'ŘE'
'ń'
'ětí_'
'ěným'
'ěná_'
'ěnou_'
'ědět_'
'ědom'
'čínský_'
'čtější_'
'čním'
'čil'
'čestn'
'černý'
'čeká_'
'častější'
'častěji_'
'časov'
'Ă_'
'ýšle'
'ýt'
'ým'
'ýlen'
'ür'
'úředníci_'
'účinná_'
'účastníky_'
'útoků_'
'úspěchů_'
'úspory_'
'úprava_'
'úpadek_'
'úm'
'úkolu_'
'úhrad'
'ös'
'íř_'
'íř'
'írá'
'ídlen'
'ícen'
'édl_'
'ço'
'ça'
'ätt'
'â'
'áží_'
'áva'
'átoři_'
'áre'
'ánské_'
'ánní'
'ám'
'ádám'
'ádají'
'áda'
'Íránem_'
'Ã'
'~'
'} '
'zůsta'
'zřetel'
'zúčastněných_'
'zóny_'
'získáva'
'získá'
'získal'
'získa'
'závažno'
'zásobov'
'zásad'
'záměrn'
'základními_'
'zád'
'zvýšily_'
'zvážit_'
'zvy'
'zvl'
'ztratí_'
'ztratila_'
'zrad'
'způsobilost'
'zprostředkov'
'zpomalení_'
'zpochybň'
'zpochybn'
'znemožn'
'zn'
'zmírnění_'
'zmí'
'zlepšuj'
'zlepšil'
'zkoumán'
'zkontrol'
'zeď_'
'zemědělská_'
'zemědělce_'
'zelený'
'zdrž'
'zdravotních_'
'zdravotní'
'zdravotnické_'
'zbývající'
'zaš'
'zařazen'
'začn'
'zaveden_'
'zava'
'zatčen'
'zapříčin'
'zapojil'
'zapn'
'zaplacen'
'zamezení_'
'založil'
'založená_'
'zakotv'
'zakládá'
'zakazuje_'
'zajímal'
'zajištěno_'
'zadáv'
'zadrže'
'zadlužení_'
'zac'
'ytn'
'ysl'
'yri'
'yov'
'ynul'
'yield_'
'ycl'
'ych'
'xy_'
'xon'
'xistuj'
'xia'
'xi_'
'works'
'word'
'wn'
'witnessed_'
'wisdom_'
'wild_'
'wild'
'wiki'
'weekend_'
'week'
'websites_'
'weaker_'
'way'
'waste'
'ward'
'wan_'
'všeobecn'
'větr'
'věl'
'vědě_'
'vědom_'
'vědeckých_'
'včasné'
'výč'
'výzvám_'
'výzva_'
'výzkumných_'
'výročí_'
'výroční_'
'výrobci_'
'výro'
'výrazněj'
'výrazný'
'výpočtu_'
'výkazu_'
'výjimka'
'východ'
'vážným'
'vážený_'
'vážení_'
'vář'
'vázan'
'vány_'
'ván_'
'ván'
'vztahují_'
'vzpomín'
'vzniká_'
'vznikl_'
'vznik'
'vznesen'
'vzne'
'vzhled'
'vzestupu_'
'vzdělávací'
'vzdal'
'vzbuz'
'vzal_'
'vyž'
'vyčleněn'
'vyzn'
'vyvážený'
'vyvážející'
'využitím_'
'využit'
'vytvořila_'
'vytvořil_'
'vysíla'
'vysvětlova'
'vystoupil'
'vysokými_'
'vysokým_'
'vyráb'
'vyrovnávací'
'vyrovná'
'vypu'
'vypra'
'vypořádat_'
'vyplác'
'vynikající'
'vykonávat_'
'vyklád'
'vyhýba'
'vyhn'
'vyhlídk'
'vyhlášen'
'vydě'
'vydala_'
'vybíz'
'vybrané'
'vybran'
'vstřícn'
'vrt'
'vro'
'vrcholu_'
'vowels_'
'volumes_'
'volit_'
'vojenský_'
'vnímání_'
'vné_'
'vládne_'
'vloži'
'vlny_'
'vlasy_'
'vlastností_'
'vku'
'vkladů_'
'visas_'
'viro'
'violation_'
'vio'
'vidn'
'vici'
'veřejně_'
'veřejnou_'
'večer'
'veto'
'verzí'
'verz'
'vers_'
'venkovských_'
'velkými_'
'velkém_'
'veliko'
'velení_'
'veil'
'vau'
'varia'
'vaný_'
'valy_'
'valo_'
'valley_'
'validate'
'vag'
'vaccine_'
'vacation'
'uží'
'uživateli_'
'užitečné_'
'ušetř'
'učil'
'uzavřít_'
'uváděn'
'uté'
'utváře'
'utráce'
'utili'
'uth'
'utaj'
'uspořáda'
'uspokojení_'
'usnadnění_'
'usnadnil'
'usl'
'usku'
'usilují'
'usil'
'určitého_'
'určených_'
'uriti'
'uring_'
'upozornění_'
'upné'
'upad'
'uous'
'unta'
'unstable_'
'unlike_'
'unifi'
'unfo'
'underlying_'
'uncomfortable_'
'ulk'
'ulate'
'ulan'
'ukrajinsk'
'ukaz'
'uk_'
'ujícím'
'ujistil'
'udo'
'ucho'
'ucha'
'uce'
'uard'
'třídě_'
'třeb'
'těžit_'
'těšit_'
'týdnech_'
'twin_'
'tva_'
'turn'
'tup'
'tumo'
'tuku_'
'tube'
'tský'
'tržn'
'trvání_'
'trusted_'
'trum'
'trpěliv'
'tropick'
'tribunal'
'trestný'
'trends_'
'treaties_'
'trati'
'transparentní_'
'transit_'
'transformac'
'tram'
'tragick'
'trad'
'trac'
'topo'
'tonight_'
'toleranc'
'tne'
'tlačítk'
'tiskov'
'tisk'
'tired_'
'timeline_'
'timber_'
'tická_'
'ths_'
'threaten_'
'thread'
'thes'
'tf'
'texty_'
'testimony_'
'tení'
'telně_'
'technologického_'
'technická_'
'teacher_'
'tav'
'tar_'
'taliz'
'takovéto_'
'tailor'
'síti_'
'sím_'
'síle_'
'série_'
'sál'
'syst'
'syndrome'
'sympath'
'swap'
'světlo_'
'svědč'
'svr'
'sve'
'suverénní'
'sustain'
'suspended_'
'suspend'
'surviv'
'suppl'
'supermarket'
'super_'
'sufficiently_'
'substitute_'
'substantive_'
'substa'
'středov'
'středomořsk'
'střednědobé'
'střediska_'
'stíh'
'stávajícího_'
'stávají_'
'ström'
'stretch'
'stranick'
'storm'
'stores_'
'stní'
'stle'
'stif'
'sten_'
'stejná_'
'steep'
'sted_'
'stačit_'
'stavebn'
'stanovov'
'stagna'
'stadt'
'srovnáv'
'spán'
'spustit_'
'správn'
'spravova'
'spotřeb'
'sportu_'
'společnostem_'
'společenské_'
'spok'
'splněn'
'spirit'
'specimen'
'sovětské'
'souhrnné'
'socialism'
'snídaně_'
'snažila_'
'snadn'
'směnný'
'smy'
'smu'
'smi'
'sman_'
'služ'
'sluneční'
'slunce_'
'složitý'
'složito'
'slow'
'sloužit_'
'sloupc'
'sledoval'
'sky'
'skvělý'
'skutk'
'skupinám_'
'skupin'
'skrýva'
'sio'
'sink'
'sin_'
'similarly_'
'silněj'
'silniční_'
'signali'
'shr'
'shortly_'
'shop'
'shoe'
'shody_'
'shipping_'
'shifting_'
'sexual_'
'settled_'
'sestavi'
'servers_'
'serv'
'separately_'
'sensible_'
'seni'
'sei'
'sections_'
'secre'
'seconds_'
'seat'
'sdílet_'
'sdíl'
'scéně_'
'schůzce_'
'schéma'
'schválené'
'sch_'
'scare'
'sarge_'
'sand_'
'sample'
'samotný'
'sak'
'sail'
'safeguard_'
'sacred_'
'sab'
'rš'
'rázn'
'rát'
'rální_'
'rusti'
'rukoj'
'rukama_'
'rude'
'rud'
'rty_'
'rtu'
'rth'
'rrh'
'rozvojovým_'
'rozvojové'
'rozvinuté_'
'rozvin'
'rozumný'
'rozumné_'
'rozt'
'rozsáhl'
'rozpouště'
'rozměr_'
'rozlo'
'rozlišov'
'rozhodnut'
'rovný'
'rooftop_'
'rodu'
'rodinných_'
'rodinné'
'robust_'
'rne'
'rme'
'riv'
'ritu'
'risk'
'rif'
'rie'
'riche'
'reáln'
'reve'
'restaurací_'
'responding_'
'respondent'
'resist'
'reservations_'
'requiring_'
'repressi'
'renowned_'
'renov'
'rend'
'removing_'
'remind'
'relocat'
'rele'
'rekonstrukc'
'rej'
'regulačních_'
'registry_'
'refugee_'
'refresh'
'referenční'
'redress_'
'recy'
'reci'
'reba'
'realistick'
'reakcí'
'reagoval'
'raš'
'ratification_'
'rasov'
'rasis'
'raketov'
'rah'
'rag'
'radost'
'radia'
'quietly_'
'quet'
'quenc'
'quar'
'qualify_'
'působení_'
'přístupov'
'příst'
'příslušnými_'
'příměří_'
'příjemce_'
'přída'
'přícho'
'přál'
'přá'
'přišla_'
'přiznán'
'přitažliv'
'přistá'
'přistoupil'
'přist'
'přirovn'
'připom'
'připojením_'
'přine'
'přijíma'
'přida'
'převzal'
'převyšuj'
'přesvědčit_'
'přesunout_'
'přesné_'
'přepravu_'
'přepo'
'přenáš'
'přehodno'
'představitelů_'
'předpisech_'
'předložily_'
'předložené'
'předběžný'
'předa'
'přebír'
'přebytk'
'pěstova'
'písemnosti_'
'pír'
'pásma_'
'pásm'
'puri'
'puls'
'ptáků_'
'pto'
'ptions_'
'pte'
'pt'
'průmyslového_'
'průl'
'průbě'
'právnický'
'prsty_'
'provozova'
'providers_'
'provedený'
'prove'
'proto'
'protivník'
'prostředk'
'prostorn'
'propadl'
'proof'
'prokl'
'prokaz'
'projev_'
'projedna'
'prohr'
'proh'
'progressi'
'prog'
'profesionál'
'prodejc'
'prodej'
'procesy_'
'problematic_'
'privileged_'
'privileg'
'priv'
'printer_'
'prevence_'
'premiér_'
'preliminary_'
'pregnan'
'pravidlech_'
'praktický'
'počtem_'
'pozorování_'
'poznatk'
'povolit_'
'používán'
'používal'
'poukáz'
'pouhým_'
'potlačov'
'potlač'
'postižených_'
'poslouch'
'poskytovan'
'posit'
'posiluje_'
'posed_'
'pose_'
'porodnost'
'porno'
'poradce_'
'populism'
'poplatky_'
'poo'
'ponecháv'
'pondělí_'
'polské_'
'polské'
'polohy_'
'politováníhodn'
'polit'
'polis'
'policejní'
'pola'
'poklad'
'poka'
'pojm'
'pojišťov'
'pohod'
'podívej'
'podíval_'
'podt'
'podstatné_'
'podp'
'podnít'
'podmínkou_'
'podan'
'pocity_'
'pochopiteln'
'plno'
'pivo'
'pipe'
'pic'
'phones_'
'phol'
'pevno'
'perspektivy_'
'pero_'
'perm'
'perform'
'perception_'
'peace'
'paye'
'patřil'
'patterns_'
'patrn'
'parte'
'parlamentů'
'pare'
'panik'
'pamatuj'
'palub'
'paliva_'
'palestinského_'
'pak'
'pai'
'padn'
'oživit_'
'ořil'
'oznámit_'
'oznámeno_'
'ozbrojené'
'owe_'
'ověřen'
'ovství_'
'ovateln'
'ovaném'
'ovaného_'
'ovací'
'outs_'
'otní'
'otic'
'otevře'
'otev'
'osvětl'
'osláv'
'osk'
'osit'
'orů'
'orit'
'originál'
'ories_'
'organizova'
'ores'
'ora_'
'optimistic'
'optim'
'opravy_'
'opozi'
'operated_'
'operaci_'
'opatřením_'
'onw'
'onov'
'onem_'
'oned_'
'onate'
'omm'
'ols_'
'ological_'
'oliv'
'ole_'
'okolnost'
'okamžité'
'oil'
'ogic'
'odůvodněn'
'odvráti'
'odvoz'
'odvolací'
'odsud_'
'odsu'
'odpovědné'
'odpovědností_'
'odpovídajících_'
'odlišno'
'odklad'
'odhaduje_'
'odeslán'
'odebrán'
'ochu'
'ochranou_'
'occurs_'
'occupied_'
'occasions_'
'occasional'
'occ'
'občanská_'
'občanskou_'
'obzoru_'
'obyvatelé_'
'obtížně_'
'obtaining_'
'observ'
'obsažený'
'obrátil_'
'obrovsk'
'obranné_'
'oblíbený'
'objevi'
'oat'
'některý_'
'něji_'
'nízký'
'nízko'
'nímž_'
'náš'
'nář'
'náva'
'následk'
'námitk'
'nálež'
'nákaz'
'nájem'
'náct_'
'nynějš'
'ntní'
'nth'
'nter'
'nsk'
'nse'
'noční_'
'nova'
'notář'
'notic'
'nota'
'nominální'
'nomic'
'niči'
'ničení_'
'niu'
'nitr'
'nine_'
'nik_'
'nia'
'neč'
'nezp'
'nezměn'
'nezaměstnan'
'nevš'
'nevěděl'
'nevztahuje_'
'nett'
'nesrovnalost'
'nesp'
'nesmírn'
'nesi'
'nepříjemn'
'nepřetržitě_'
'nepotřebuje'
'nepot'
'nepos'
'nepoch'
'nepatrn'
'neo_'
'nená'
'nemáte_'
'nemusí'
'nelíb'
'nejvyšší'
'nejhorší_'
'nejenže_'
'nedostatkem_'
'nedostatečně_'
'nedostatečné_'
'nedost'
'nedokonal'
'necít'
'necháv'
'nechce'
'necel'
'ncies_'
'nch_'
'našel_'
'nazývá'
'navržené'
'navrhovat'
'navrhl_'
'nati'
'nastan'
'naro'
'naprav'
'naplni'
'napadl'
'namířen'
'naléha'
'nalo'
'nala'
'nadšení'
'nadějí_'
'nadměrný'
'nadm'
'nadcházející'
'nacionalismu'
'nabídka_'
'měří'
'měrn'
'měnu_'
'měno'
'měna_'
'mým'
'mé'
'más_'
'mán'
'mysl_'
'muta'
'muslim'
'mund'
'multip'
'multilaterální'
'možný_'
'motions_'
'morali'
'monopoli'
'mokr'
'moduly_'
'modl'
'modern'
'mmol_'
'mmo'
'mize'
'mirror'
'minulého_'
'ministra_'
'minim'
'mimořádné_'
'mikrof'
'mig'
'microsoft_'
'metro'
'meter_'
'metaboli'
'mers'
'meri'
'menším'
'menov'
'memo'
'mechaniky_'
'mean'
'md'
'may'
'matka_'
'matern'
'materiálu_'
'materiál_'
'master'
'maso_'
'married_'
'marn'
'market'
'manifest'
'mandatory_'
'mam'
'maloobchodní'
'magi'
'magazine_'
'lédn'
'lázní'
'láz'
'lát'
'lám'
'lux'
'luti'
'los'
'logik'
'lno'
'lling_'
'lišt'
'lič'
'linuxov'
'lihood'
'libovoln'
'liberalizace_'
'liberal'
'lex_'
'levic'
'legitimit'
'legali'
'lec'
'lce_'
'laz'
'layout_'
'lari'
'lap'
'lant'
'lang'
'lands_'
'kůže_'
'ký'
'kódy_'
'kání_'
'kyn'
'květin'
'kvót'
'kupní_'
'kulturní'
'kultura_'
'kula'
'krás'
'kryt'
'krm'
'kritizova'
'krajin'
'koči'
'koz'
'kový_'
'kování_'
'kovi_'
'koupit_'
'koordinaci_'
'konzultaci_'
'kontrola_'
'konkrétním_'
'konkrétní'
'konfliktů_'
'koneckonců_'
'komunit_'
'komunismu_'
'komunikační_'
'kompetenc'
'komfortním_'
'komfort_'
'koli'
'kolegům_'
'kolaps'
'kojen'
'kně'
'knock'
'kmenov'
'klávesnic'
'kly_'
'klub'
'klima_'
'klid'
'klesa'
'klauzul'
'kl'
'každému_'
'kavárn'
'katol'
'kapitalismu_'
'kanceláře_'
'kancelář'
'kampan'
'kamarád'
'jížd'
'jme_'
'jit_'
'jistotou_'
'jer'
'jek'
'jednoty_'
'jednotka'
'jednomyslně_'
'jedna'
'jde'
'jaderného_'
'jadernou_'
'ižování_'
'izolaci'
'itor_'
'itor'
'itelnost'
'ital_'
'istick'
'isten'
'isolated_'
'ismus_'
'irs'
'irregular'
'ipt'
'ipi'
'ipat'
'inz'
'invit'
'investor_'
'inventor'
'internal'
'intenzivní'
'intensif'
'inteligentní'
'inteligenc'
'intelektuální_'
'instructions_'
'institucemi_'
'insti'
'instances_'
'instalovat_'
'instalac'
'inspector'
'inovac'
'initiated_'
'inici'
'infringement_'
'inflict'
'infectious_'
'inex'
'inevitable_'
'inely_'
'indispensable_'
'indic'
'incurred_'
'inco'
'inc'
'imo'
'immi'
'imigra'
'imagina'
'iluj'
'illness'
'ilia'
'iky_'
'ient'
'idiom'
'identifi'
'identical_'
'idad'
'ick'
'ibut'
'iam'
'hře'
'hydrogen_'
'hunt'
'hun'
'hují'
'hudb'
'hub'
'hte'
'hrdin'
'hova'
'hospodářsk'
'hospital_'
'honest_'
'homosexu'
'hodnotn'
'hodl'
'hoc_'
'hněd'
'hne_'
'hma'
'hlášen'
'hledá'
'hledal'
'hlasováním_'
'historii_'
'hills_'
'highlighted_'
'hidden_'
'hero'
'hens'
'hemo'
'heav'
'harmoniz'
'harbour_'
'handled_'
'habitación_'
'gz'
'gy_'
'gun_'
'guard'
'grid_'
'grave'
'grass'
'grasp_'
'grade_'
'grade'
'govern'
'good'
'god'
'gly_'
'globálním'
'globin_'
'gle_'
'glamo'
'gio'
'gins_'
'gick'
'ggin'
'gesti'
'geographic'
'generací_'
'ganiz'
'gall'
'gage'
'gad'
'fí'
'fyzik'
'fus'
'furnishing'
'funkční'
'fulfil'
'freeze'
'frankly_'
'francouzsk'
'fraction_'
'founded_'
'foto'
'formálně_'
'focuses_'
'floppy_'
'fleet_'
'flag_'
'fist'
'firmám_'
'firma_'
'fines'
'financován'
'filesystem'
'fikova'
'fik'
'fier'
'fiction_'
'ffer'
'fever'
'fest'
'fei'
'feels_'
'fear'
'farmaceutick'
'fans_'
'faithful_'
'fabulous_'
'eře'
'eye'
'export'
'explor'
'experiment'
'expecta'
'expanded_'
'exercis'
'exempt'
'exclusion_'
'exceptions_'
'excel'
'examin'
'evolu'
'evol'
'evo'
'evi'
'everyday_'
'ev_'
'europ'
'etnický'
'estimate_'
'establishments_'
'essen'
'ersk'
'eria_'
'equip'
'epš'
'epizod'
'epic'
'eních_'
'enth'
'entary_'
'enství_'
'ense'
'enlarge'
'energetická_'
'energeticky_'
'enemies_'
'empt'
'emphasise'
'emin'
'embry'
'embark'
'els_'
'ella_'
'ell_'
'elity_'
'elimination_'
'elimin'
'elektrick'
'elegance_'
'electorate_'
'electoral_'
'ekonomů_'
'ekonomie_'
'ekonom_'
'ejní'
'eir'
'eim'
'egyptsk'
'efficiently_'
'efficacy_'
'eel'
'eda_'
'ecký'
'echno'
'ead'
'dřevo'
'dřeva_'
'dětské'
'dětmi_'
'dělají_'
'díl_'
'dz'
'dy'
'dvoji'
'dvacátého_'
'duševního_'
'dumping'
'druž'
'druhém_'
'drought'
'drop'
'drobné'
'drobn'
'drah'
'dové'
'dotáz'
'dosáhneme_'
'dostav'
'dostatečný_'
'dospělý_'
'doprovod'
'dopravě_'
'doplni'
'door'
'donuc'
'donor'
'domníval'
'domain_'
'dolož'
'dokáže'
'dokončen'
'dokonalo'
'dok'
'dodatku_'
'dlouho'
'dividend'
'divide_'
'distributi'
'disproportionate'
'disponuj'
'displace'
'diskutuje'
'diskutova'
'disintegrat'
'discriminatory_'
'discover_'
'disarmament_'
'disappear_'
'director_'
'diplomacie_'
'din_'
'dimension'
'dictionaries_'
'dictator'
'descri'
'deregula'
'depres'
'departure_'
'dens'
'demokraté_'
'delighted_'
'delight'
'deg'
'defendant_'
'defen'
'debatu_'
'deadlines_'
'datov'
'databases_'
'dangers_'
'dairy_'
'cílen'
'czech'
'cut'
'custom'
'cum'
'cuje_'
'ctví_'
'ctors_'
'ctor_'
'cteris'
'cs'
'crystal'
'crop'
'critici'
'cred'
'creati'
'cování_'
'couple'
'countryside_'
'corp'
'cooperate'
'converti'
'convention_'
'conv'
'controversial_'
'contribut'
'contract'
'continu'
'contest'
'contents_'
'constituen'
'confer'
'condition'
'conclu'
'concepts_'
'complimentary_'
'completing_'
'compile'
'competing_'
'compensated_'
'comp'
'commit'
'colour_'
'college_'
'colla'
'codes_'
'coat'
'cluster'
'cloud_'
'classified_'
'classes_'
'clash'
'ckou_'
'cke'
'cite'
'cit_'
'cionální'
'cion'
'cif'
'chází_'
'chytr'
'chvál'
'chudší'
'chud'
'choroby_'
'chodem_'
'chemický'
'checking_'
'cheaper_'
'chapter_'
'chances_'
'champion'
'chairs_'
'chains_'
'ceně_'
'celkovou_'
'cca'
'captured_'
'captain_'
'capt'
'cap_'
'cali'
'calculat'
'calc'
'cake_'
'cac'
'březn'
'břemeno_'
'běžně'
'běžný'
'běžného_'
'bílý'
'byrokracie_'
'butt'
'bus'
'burdens_'
'buně'
'bull'
'budoucím'
'bub'
'bt'
'brutal_'
'britský'
'britská_'
'brig'
'briefly_'
'breathtaking_'
'brand_'
'brak'
'bra_'
'bouře'
'boro'
'boosting_'
'bookmark'
'book'
'bols'
'bole'
'boil'
'blíží_'
'blíže_'
'blur'
'blue'
'blu'
'blind'
'blin'
'blend'
'birds_'
'biometric'
'biomas'
'bilance_'
'bia_'
'bezpochyby_'
'bezpečnostním'
'bezp'
'beta_'
'berger_'
'believ'
'bei'
'beh'
'beer_'
'bble'
'bazénu_'
'battle'
'bases_'
'base'
'barel'
'barb'
'bann'
'ačním'
'azuj'
'azine'
'automati'
'autom'
'authentic'
'atus'
'atur'
'attended_'
'attempts_'
'atov'
'atmosfér'
'asto'
'asti'
'ass_'
'aspir'
'aspekt_'
'asp'
'asa'
'arrest'
'archive'
'arbit'
'arabských_'
'arab'
'approve_'
'approaches_'
'aní'
'antibioti'
'anglick'
'anger_'
'ange'
'anes'
'ander_'
'analytic'
'americkým_'
'americkému_'
'ambice_'
'alleged'
'alities_'
'alia_'
'alfa_'
'akční_'
'aku'
'aktuální'
'aktivita_'
'akcie_'
'akademi'
'aka'
'aje_'
'ago'
'adopt'
'administrativy_'
'administrativní'
'admi'
'adlo_'
'adjust_'
'adapting_'
'acute_'
'acu'
'achievements_'
'acent_'
'accounted_'
'accountable_'
'accordingly_'
'accepting_'
'abuses_'
'abundan'
'abstract'
'absolv'
'abor'
'`` _'
']]'''
'Závěr'
'Západě_'
'Způsob'
'Zpr'
'Zen'
'Zdroj'
'Zdrav'
'Zatím_'
'Zast'
'Zapo'
'Zaji'
'Zad'
'ZV'
'XML_'
'XI'
'Writ'
'Won'
'Wizard_'
'Wir'
'WOT_'
'WASHINGTON_'
'WAR'
'Všim'
'Výrobky_'
'Výkon'
'Vztah'
'Vyt'
'Vinc'
'Villa'
'Vig'
'Video_'
'Venet'
'Veli'
'Vale'
'VAT_'
'Urč'
'Upon_'
'Unit'
'UTC_'
'UNESCO_'
'Třetí'
'Turkmenist'
'Tube_'
'Try_'
'Travel_'
'Transp'
'Translate_'
'Train_'
'Top'
'Ton'
'Tokyo_'
'Tin'
'Ther'
'Tchaj_'
'Tas'
'Taková_'
'TF'
'TAR'
'TAK'
'Sýri'
'Sí'
'Systém'
'Swi'
'Sve'
'Sus'
'Stř'
'Stub'
'Stroj'
'Strategic'
'Stran'
'Stei'
'Statistic'
'Srbsko_'
'Sport_'
'Spol'
'Speci'
'Speak'
'Sparhawk'
'Soval_'
'Soubor'
'Sor'
'Sometimes_'
'Soli'
'Sofi'
'Slavic_'
'Slab'
'Skutečn'
'Sig'
'Shu'
'Sher'
'Semi'
'Schi'
'Schengen'
'Saddám'
'Sachs'
'SR_'
'SPECI'
'SOU'
'SDR_'
'SB'
'Rü'
'Rozp'
'Rozh'
'Roland'
'Rica_'
'Reve'
'Restr'
'Rem'
'Reli'
'Relations_'
'Region'
'Reform_'
'Rambla'
'Radi'
'Rab'
'Qa'
'Pů'
'Případ_'
'Přitom_'
'Připoj'
'Přip'
'Překlad_'
'Předn'
'Publi'
'Protokol'
'Propo'
'Produ'
'Proces'
'Proce'
'Prez'
'Preventi'
'Pravd'
'Použití_'
'Použ'
'Posu'
'Portugalsk'
'Polska_'
'Politici'
'Pojď_'
'Poh'
'Podí'
'Playa_'
'Peti'
'Partic'
'Parking_'
'Pali'
'PRI'
'PRE'
'P6_'
'Oznámení_'
'Otevře'
'Osv'
'Osm'
'Orl'
'Ora'
'Oliv'
'Ole'
'Odpověd'
'Ocean_'
'Objev'
'OI'
'Němci_'
'Násled'
'Nort'
'Norsk'
'Niko'
'Nie'
'Nevím_'
'Nest'
'Nemůž'
'Nel'
'Nejde_'
'Nei'
'Need'
'Neb'
'Nea'
'Nazi_'
'Nal'
'NS_'
'NIC'
'NCE'
'Můžeme_'
'Mü'
'Myslel'
'Monti'
'Monday_'
'Mitchell_'
'Missi'
'Milo'
'Mike_'
'Mezinárodního_'
'Mexiko_'
'Mem'
'Medic'
'Media_'
'Maxim'
'Made'
'MED'
'Lyž'
'Lyn'
'Lun'
'Ltd_'
'Louis_'
'Looking_'
'Londýně_'
'Loa'
'List'
'Leidse'
'League_'
'Lead'
'Lat'
'Lang'
'LDAP_'
'LAN'
'Krát'
'Konz'
'Kontrol'
'Kongresu_'
'Kongres'
'Klin'
'Klepn'
'Kl'
'Kari'
'Kali'
'Kai'
'KN'
'KG'
'Jug'
'Johnson'
'Jiné_'
'Jiho'
'Jenom_'
'Jednodu'
'Jedn'
'Janeway_'
'Italia'
'Islamist_'
'Investo'
'Internetové_'
'Ins'
'Initiative_'
'Indonési'
'Indonesia_'
'Indians_'
'Ideally_'
'IX_'
'IPA_'
'INTE'
'INI_'
'IA_'
'Hvězd'
'How'
'House'
'Hou'
'Hotelový_'
'Hostal_'
'Hors'
'Holocaust_'
'Hollande_'
'Hn'
'Hit'
'Heli'
'Hei'
'Hat'
'HOD'
'Guine'
'Gua'
'Gros'
'Graz'
'Gold'
'Gla'
'GP'
'Fried'
'Friday_'
'Freedom_'
'Francouz'
'Franco'
'Franci'
'Fox'
'Foun'
'Fish'
'Find_'
'Fen'
'Fatah'
'Fast'
'Exist'
'Event'
'Ess'
'Eric'
'Elektr'
'Ein'
'Egyptian_'
'Economi'
'ESVO_'
'EST'
'EME'
'Dáv'
'Dyna'
'Duch'
'Dub'
'Dost'
'Domnívá'
'Dokument'
'Documentation_'
'Dist'
'Direct'
'Die'
'Der'
'Demokrat'
'Deep_'
'Deco'
'Declaration_'
'Covent_'
'Corporat'
'Consult'
'Consensus_'
'Congr'
'Conce'
'Colum'
'Colon'
'Colle'
'Coc'
'Clari'
'Charlie_'
'Celý_'
'Castel'
'Carol'
'Carn'
'Cardassian_'
'Cardassi'
'Card_'
'Capital_'
'Canc'
'Calla'
'Call'
'Cab'
'CIA_'
'Bělorusko_'
'Bushe_'
'Bun'
'Britsk'
'Brexit_'
'Brea'
'Bos'
'Boro'
'Bob'
'Bled_'
'Blanc'
'Blai'
'Bilbao_'
'Bh'
'Berna'
'Bern'
'Belgii_'
'Basi'
'Background_'
'Bach'
'Bab'
'BB'
'Ačkoli_'
'Aud'
'Atta'
'Ata'
'Ast'
'Asi_'
'Asad'
'Ard'
'Ara'
'Aqua'
'Apartm'
'Ani'
'Ameri'
'Am_'
'Alternativ'
'Alte'
'Aktualiz'
'Agenda_'
'Age_'
'Adju'
'Accordingly_'
'Abych_'
'Abs'
'Abdul'
'AN_'
'?“ _'
'??'
'? '
'='
'91'
'900_'
'76'
'75'
'72'
'66'
'46'
'3hvězdičkovém_'
'320'
'210'
'20th_'
'201'
'1975_'
'1967_'
'176'
'172_'
'170_'
'123'
'121'
'103_'
'08'
'003'
'. ... _'
'--'
'- '
') .'
'%)'
'$'
'" | _'
' •'
' –'
' --> _'
' '%_'
' % '
'“) _'
'ُ'
'ل_'
'я_'
'ра'
'ж'
'žádám_'
'žádným_'
'žáda'
'žské'
'žlut'
'živote'
'žensk'
'železnic'
'žan'
'žad'
'Že_'
'Ža'
'ůže_'
'Ťi'
'šti_'
'šte'
'španělské'
'široká_'
'šedesát'
'Švédsku_'
'Španělsk'
'říz'
'říc'
'řádný'
'řádek_'
'řuj'
'řství_'
'řský'
'řidič'
'řeš'
'řečník'
'řetězec_'
'řes'
'řední'
'řadou_'
'Řekl_'
'ěží_'
'ěva'
'ěv'
'ěné'
'ěhoval'
'ěhn'
'ĚN'
'ďte_'
'ďm'
'ďa'
'číslem_'
'čísle'
'čísl'
'čínského_'
'částech_'
'čtě'
'čtvrtek_'
'člověkem_'
'čká'
'čit'
'čisté'
'čistot'
'červenc'
'čekají_'
'časový'
'časn'
'časem_'
'Čím_'
'Či'
'Černé'
'Čern'
'ČI'
'ČE'
'ą'
'ýval'
'ýlk'
'ýho'
'ück'
'úřední_'
'úřadů_'
'účinných_'
'účinnou_'
'útvar'
'úte'
'úsek'
'úpravě_'
'úplné'
'úpadku_'
'úpad'
'únoru_'
'úmysln'
'úloze_'
'úloha_'
'úkolů_'
'úhl'
'ózy_'
'íče'
'ísk'
'ílen'
'íkem_'
'ídi'
'íce_'
'ì'
'ére'
'éra'
'én_'
'â_'
'áče'
'áč'
'ával_'
'átoru_'
'áp'
'ánu_'
'álu_'
'álií_'
'ále_'
'áků_'
'áko'
'áhn'
'ádřil'
'ádí_'
'ádá'
'ádk'
'ádal'
'áda_'
'áci_'
'ábi'
'Úče'
'Úspěch_'
'Ó'
'Írán'
'ÉM'
'zřiz'
[...]
