'<pad>_'
'<EOS>_'
'._'
', _'
'?_'
''_'
'_'
'I_'
'- _'
'you_'
'the_'
's_'
'!_'
'to_'
'. _'
'a_'
't_'
'it_'
'of_'
'..._'
'that_'
'in_'
'is_'
'이_'
'and_'
'You_'
'-_'
'me_'
'는_'
'on_'
'm_'
'을_'
',_'
'for_'
're_'
'... _'
'가_'
'was_'
'this_'
'have_'
'my_'
'we_'
'be_'
'your_'
'의_'
'내가_'
'not_'
'그_'
'네_'
'수_'
'지_'
'It_'
'고_'
'know_'
'요_'
'다_'
'with_'
'? _'
'게_'
'The_'
'에_'
'are_'
'What_'
'can_'
'를_'
'do_'
'도_'
'난_'
'내_'
'We_'
'은_'
'한_'
'안_'
'거야_'
'don_'
'just_'
'what_'
'he_'
'He_'
'야_'
'up_'
'all_'
'할_'
'And_'
'out_'
'here_'
'No_'
'좀_'
'나_'
'get_'
'at_'
'like_'
'her_'
'그래_'
'll_'
'about_'
'go_'
'Oh_'
'! _'
'right_'
'him_'
'That_'
'해_'
'있어_'
'd_'
'there_'
'죠_'
'so_'
'.._'
'they_'
'왜_'
'she_'
'one_'
'"_'
'but_'
'그리고_'
've_'
'서_'
'더_'
'no_'
'She_'
'his_'
'우리_'
'어_'
'got_'
'will_'
'gonna_'
'want_'
'Yeah_'
'하지만_'
'잘_'
'from_'
'것_'
'로_'
'그는_'
'ing_'
'But_'
'ed_'
'now_'
'an_'
'나는_'
'있어요_'
'면_'
'정말_'
'무슨_'
'있는_'
'건_'
'think_'
'back_'
'으로_'
'us_'
'if_'
'see_'
'어떻게_'
'♪ _'
'걸_'
'Okay_'
'여기_'
'time_'
'그냥_'
'지금_'
'그럼_'
'거_'
'네가_'
'제가_'
'하고_'
'They_'
'e_'
'전_'
'So_'
'Well_'
'에서_'
'going_'
'as_'
'This_'
'날_'
'와_'
'우리가_'
'넌_'
'need_'
'were_'
'만_'
'과_'
'y_'
'좋아_'
'이제_'
'would_'
'good_'
'them_'
'had_'
'did_'
'하는_'
'그게_'
'뭐_'
'A_'
'제_'
'라고_'
'우린_'
'or_'
' ♪_'
'저_'
'아니_'
'돼_'
'has_'
'been_'
'down_'
'Yes_'
'our_'
'by_'
'Hey_'
'come_'
' - _'
'없어_'
'못_'
'오_'
'당신이_'
'way_'
'How_'
'다시_'
'There_'
'모든_'
'say_'
'아_'
'didn_'
'when_'
'could_'
'다른_'
'봐_'
'그렇게_'
'너무_'
'take_'
'때_'
'who_'
'how_'
'some_'
'하지_'
'man_'
'입니다_'
'니_'
'그건_'
'당신은_'
'거예요_'
' "_'
'too_'
'more_'
'그래서_'
'당신_'
'make_'
'over_'
'If_'
'그런_'
'Why_'
'이런_'
'이건_'
'에요_'
'am_'
'(_'
'something_'
'really_'
'Don_'
'해요_'
'기_'
'줄_'
')_'
'. - _'
' '_'
'Let_'
'어요_'
'tell_'
'나도_'
'Come_'
'우리는_'
'people_'
'mean_'
'okay_'
'little_'
'never_'
'좋은_'
'라_'
'look_'
'일_'
'should_'
'sorry_'
'off_'
'같이_'
'said_'
'잖아_'
'누가_'
'자_'
'알아_'
'널_'
'All_'
'아냐_'
'그녀는_'
'.. _'
'너_'
'있다_'
'없어요_'
'then_'
'much_'
'랑_'
'마_'
'thing_'
'let_'
'doing_'
'어떤_'
'아주_'
'또_'
'같은_'
'love_'
'전에_'
'into_'
'했어_'
'work_'
'그의_'
'뭘_'
'그가_'
'Do_'
'안돼_'
'이게_'
'[_'
'습니다_'
'오늘_'
'two_'
'help_'
'My_'
'한다_'
'위해_'
'아니야_'
'' _'
'에게_'
'될_'
'말_'
'Just_'
'인_'
'했다_'
'아직_'
'very_'
'any_'
'합니다_'
'세요_'
'네요_'
'군_'
'only_'
'겁니다_'
'n_'
'것을_'
'day_'
'일이_'
'때문에_'
'es_'
'still_'
'before_'
'Now_'
'? - _'
'find_'
'Are_'
'말이야_'
'진_'
'why_'
'talk_'
'Who_'
'이렇게_'
'어서_'
'where_'
'이야_'
'닥터_'
'well_'
'than_'
'진짜_'
'이'
'여기서_'
'괜찮아_'
'예요_'
'알고_'
'모두_'
'데_'
'even_'
'바로_'
'nbsp_'
'사람이_'
'근데_'
'their_'
'일을_'
'된_'
'는데_'
'Dr_'
'얼마나_'
'Look_'
'한테_'
'Is_'
'because_'
'God_'
'있습니다_'
'first_'
'er_'
':_'
'응_'
'대해_'
'빨리_'
'아니에요_'
'않아_'
'몇_'
'같아_'
'Where_'
'Please_'
'제발_'
'안녕_'
'많은_'
'give_'
'again_'
'."_'
'그들은_'
'life_'
'Your_'
'수도_'
'sure_'
'put_'
'Thank_'
'까지_'
'함께_'
'있지_'
'home_'
'두_'
'지만_'
'씨_'
'것이다_'
'그걸_'
'night_'
'away_'
'음_'
'엄마_'
'니까_'
'Good_'
'처럼_'
'r_'
'좋아요_'
'years_'
'made_'
'doesn_'
']_'
'아뇨_'
'old_'
'anything_'
'이거_'
'어디_'
'Uh_'
'Not_'
'Get_'
'사람_'
'많이_'
'계속_'
'thought_'
'must_'
'When_'
'던_'
'these_'
'won_'
'please_'
'after_'
'항상_'
'지'
'거지_'
'ly_'
'알았어_'
'비'
'당신을_'
'through_'
'o_'
'always_'
'Go_'
'그를_'
'told_'
'other_'
'Mr_'
') _'
'하나_'
'아'
'다고_'
'new_'
'이미_'
'맞아_'
'군요_'
'guy_'
'great_'
'--_'
'해서_'
'feel_'
'better_'
'했어요_'
'집에_'
'last_'
'안'
'들이_'
'당신의_'
'uh_'
'저는_'
'keep_'
'call_'
'Can_'
'가'
'things_'
'name_'
'l_'
'말을_'
'long_'
'every_'
'] _'
'그렇지_'
'거죠_'
'around_'
'Did_'
'해야_'
'아빠_'
'동안_'
'those_'
'; _'
'스'
'말이_'
'everything_'
'보고_'
'place_'
'그래요_'
'가서_'
'sir_'
'ng_'
'lot_'
'사'
'너는_'
'나한테_'
'기'
'stop_'
'-- _'
'있을_'
'뭐야_'
'려고_'
'고마워요_'
'fine_'
'bad_'
'줘_'
'만약_'
'돼요_'
'nothing_'
'없는_'
'사람들이_'
'괜찮아요_'
'done_'
'came_'
'가장_'
'wrong_'
'might_'
'car_'
'baby_'
';_'
'둘_'
'대'
'갈_'
'house_'
'hear_'
'뭐라고_'
'고요_'
'거에요_'
'happened_'
'ever_'
'안녕하세요_'
'스_'
'수'
'미'
'들을_'
'하게_'
'젠장_'
'잖아요_'
'자'
'보다_'
'일은_'
'어'
'나'
'거든_'
'S_'
'Because_'
'알아요_'
'뭐가_'
'말은_'
'길_'
'그거_'
'고'
'안에_'
'시'
'다'
'구나_'
'" _'
'큰_'
'있다고_'
'같아요_'
'guys_'
'girl_'
'else_'
'소'
'볼_'
'talking_'
'i_'
'온_'
'아무도_'
'부'
'leave_'
'무'
'몰라_'
'나를_'
'today_'
'course_'
'잠깐_'
'부터_'
'father_'
'Then_'
'하면_'
'엔_'
'않아요_'
'그만_'
'구요_'
'가지고_'
'가자_'
'wanted_'
'remember_'
'것도_'
'son_'
'left_'
'big_'
'저기_'
'있고_'
'이걸_'
'며_'
'들_'
'which_'
'kind_'
'care_'
'Here_'
'주'
'수가_'
'란_'
'들은_'
'까_'
'trying_'
'together_'
'does_'
'best_'
'believe_'
'절대_'
'나요_'
'kill_'
'k_'
'isn_'
'하'
'이다_'
'본_'
'번_'
'고마워_'
'Maybe_'
'전부_'
'없다_'
'아무것도_'
'아마_'
'보'
'밖에_'
'너도_'
'coming_'
': _'
'우리의_'
'오'
'세상에_'
'내'
'긴_'
'understand_'
'next_'
'일'
'리'
'들어_'
'그녀가_'
'hard_'
'being_'
'Right_'
'질_'
'아무_'
'소_'
'봐요_'
'말고_'
'든_'
'도'
'그들이_'
'것은_'
'시간이_'
'사람은_'
'그러니까_'
'mother_'
'hell_'
'enough_'
'한'
'전'
'적_'
'뭔가_'
'마'
'로'
'라도_'
'되는_'
'대한_'
'너의_'
'그'
'거'
'year_'
'soon_'
'room_'
'job_'
'In_'
'Hello_'
'지금은_'
'중_'
'당장_'
'는지_'
'boy_'
'대_'
'니가_'
'wasn_'
'own_'
'얘기_'
'됐어_'
'꼭_'
'그럴_'
'간_'
'may_'
'g_'
'T_'
'저'
'이젠_'
'세'
'먼저_'
'말야_'
'나의_'
'거기_'
'someone_'
'family_'
'Wait_'
'To_'
'지도_'
'여긴_'
'시간_'
'동'
'것이_'
'가요_'
'world_'
'try_'
'three_'
'al_'
'친구_'
'조'
'바'
'도록_'
'그래도_'
'감사합니다_'
'same_'
'looking_'
'getting_'
'dead_'
'ask_'
'For_'
'자기_'
'이봐_'
'아니면_'
'구'
'went_'
'school_'
'morning_'
'money_'
'His_'
'2_'
'1_'
'치'
'절_'
'유'
'않을_'
'서'
'단_'
'yeah_'
'wife_'
'few_'
'Hi_'
'예_'
'어때_'
'선_'
'사람들은_'
'um_'
'pretty_'
'knew_'
'파'
'있는데_'
'신'
'라'
'곧_'
'woman_'
'whole_'
'matter_'
'적이_'
'있잖아_'
'우'
'다는_'
'내게_'
'took_'
'gotta_'
'fucking_'
'작은_'
'있었어요_'
'내일_'
'가는_'
'surgery_'
'seen_'
'head_'
'hand_'
'face_'
'C_'
'타'
'사실_'
'모'
'거나_'
'개'
'wait_'
'maybe_'
'lost_'
'found_'
'해'
'적인_'
'인'
'완전_'
'없이_'
'사람을_'
'노'
'yourself_'
'used_'
'use_'
'saw_'
'Or_'
'One_'
'차_'
'주세요_'
'있죠_'
'방금_'
'미안해_'
'매우_'
'move_'
'days_'
'another_'
'already_'
'장'
'우릴_'
'아니라_'
'거라고_'
'거든요_'
'히_'
'제'
'이상_'
'여_'
'애'
'냐_'
'stay_'
'idea_'
'friend_'
'Of_'
'피'
'카'
'자네가_'
'있나_'
'순_'
'라는_'
'다들_'
'show_'
'Dad_'
'! - _'
'했지_'
'으면_'
'세_'
'새_'
'그런데_'
'그녀의_'
'start_'
'live_'
'able_'
'Thanks_'
'Stop_'
'필요해_'
'중에_'
'이에요_'
'여기에_'
'없습니다_'
'성'
'meet_'
'heart_'
'Sorry_'
'인데_'
'물론_'
'그녀를_'
'거의_'
'h_'
'ago_'
'왔어요_'
'올_'
'시간을_'
'돈을_'
'같은데_'
'ion_'
'heard_'
'guess_'
'Take_'
'D_'
'있었어_'
'이나_'
'알았어요_'
'발'
'구_'
'problem_'
'했는데_'
'있나요_'
'여'
'엄마가_'
'신_'
'생각해_'
'맞아요_'
'말'
'가지_'
'real_'
'nice_'
'end_'
'door_'
'O_'
'한번_'
'저도_'
'위한_'
'왔어_'
'완전히_'
'에'
'싶지_'
'싶어_'
'살_'
'문제가_'
'겠지_'
'yet_'
'open_'
'most_'
'men_'
'le_'
'late_'
'die_'
'couldn_'
'bit_'
'actually_'
'토'
'지난_'
'전혀_'
'상'
'살'
'그러니_'
'♪_'
'run_'
'mind_'
'happy_'
' (_'
'했죠_'
'해도_'
'코'
'직접_'
'아는_'
'새로운_'
'면서_'
'만'
'들'
'됐어요_'
'데요_'
'wouldn_'
'patient_'
'p_'
'later_'
'crazy_'
'OK_'
'화'
'혼자_'
'참_'
'재'
'되지_'
'갖고_'
'side_'
'saying_'
'mom_'
'many_'
'anyone_'
'As_'
'트_'
'트'
'진'
'지는_'
'있다는_'
'었어_'
'불'
'말해_'
'디'
'대로_'
'until_'
'needs_'
'eyes_'
'Like_'
'한다고_'
'하려고_'
'추'
'정'
'일이야_'
'요'
'아빠가_'
'선'
'산'
'봤어_'
'매'
'러_'
'도움이_'
'너희_'
'공'
'겠어_'
'거요_'
'without_'
'once_'
'hope_'
'gone_'
'chance_'
'See_'
'R_'
'밤_'
'반'
'맙소사_'
'드'
'돈_'
'년_'
'그러면_'
'게요_'
'가고_'
'while_'
'water_'
'second_'
'part_'
'case_'
'Nothing_'
'3_'
', "_'
'알_'
'못'
'말도_'
'그저_'
'ready_'
'myself_'
'ers_'
'doctor_'
'called_'
'brother_'
'[ _'
'후_'
'중요한_'
'자네_'
'오래_'
'아직도_'
'미안해요_'
'리_'
'week_'
'rs_'
'minutes_'
'friends_'
'dad_'
'both_'
'Um_'
'1'
' -_'
'하죠_'
'있으면_'
'우리를_'
'없지_'
'않고_'
'싫어_'
'실_'
'보면_'
'대체_'
'tonight_'
'such_'
'haven_'
'everyone_'
'alone_'
'Really_'
'Mom_'
'Have_'
'E_'
' ._'
'차'
'은'
'위해서_'
'와서_'
'에는_'
'선생님_'
'방'
'문_'
'마지막_'
'레'
'래_'
'다음_'
'너한테_'
'나와_'
'yes_'
'worry_'
'under_'
'taking_'
'shot_'
'says_'
'probably_'
'play_'
'party_'
'line_'
'gave_'
'fire_'
'cause_'
'asked_'
'10_'
'후'
'하는데_'
'자신의_'
'열'
'여자_'
'배'
'두'
'ts_'
'speak_'
'ry_'
'minute_'
'makes_'
'killed_'
'hours_'
'having_'
'deal_'
'Give_'
'이리_'
'알지_'
'알겠습니다_'
'뿐이야_'
'모르겠어_'
'루'
'다가_'
'나랑_'
'건가요_'
'team_'
'st_'
'means_'
'fun_'
'cut_'
'comes_'
'body_'
'Our_'
'6_'
'혹시_'
'초'
'처음_'
'짓을_'
'이지_'
'이요_'
'야'
'알겠어요_'
'딱_'
'되었다_'
'단'
'다면_'
'나에게_'
'것입니다_'
'wanna_'
'shit_'
'blood_'
'With_'
'Tell_'
'중'
'죽을_'
'왜냐면_'
'아니요_'
'실'
'보여_'
'몰라요_'
'남자_'
'그렇죠_'
'그들의_'
'게'
'건데_'
'가진_'
'watch_'
'tomorrow_'
'sister_'
'safe_'
'gets_'
'five_'
'Y_'
'후에_'
'필요_'
'크'
'집_'
'제일_'
'장_'
'있어서_'
'있다면_'
'의'
'연'
'않으면_'
'아마도_'
'아니지_'
'수술_'
'서로_'
'버'
'thank_'
'since_'
'person_'
'hospital_'
'children_'
'change_'
'ass_'
'alive_'
'호'
'할게_'
'하기_'
'텐데_'
'이번_'
'않는_'
'아침_'
'생각_'
'사람들을_'
'분_'
'말이죠_'
'만큼_'
'더'
'대해서_'
'는게_'
'네'
'거라_'
'supposed_'
'started_'
'kid_'
'hurt_'
'huh_'
'happen_'
'far_'
'died_'
'Listen_'
'Ah_'
'5_'
'포'
'위'
'었다_'
'언제_'
'아버지_'
'생각을_'
'물'
'려_'
'되면_'
'데리고_'
'단다_'
'늘_'
'겠죠_'
'~_'
'wants_'
'story_'
'rest_'
'read_'
'phone_'
'pain_'
'mine_'
'eat_'
'child_'
'against_'
'했던_'
'첫_'
'죄송해요_'
'입'
'이야기_'
'여러분_'
'엄청_'
'양'
'알겠어_'
'않았어_'
'않는다_'
'생'
'물_'
'망할_'
'너'
'날'
'나중에_'
'까요_'
'기다려_'
'경'
'것처럼_'
'working_'
'te_'
'ship_'
'point_'
'led_'
'husband_'
'hold_'
'drink_'
'ble_'
'4_'
' ?_'
'확실히_'
'티'
'제대로_'
'잠깐만_'
'있는지_'
'이름을_'
'이라고_'
'외'
'여전히_'
'양_'
'싶은_'
'사는_'
'뒤에_'
'되고_'
'간'
'sleep_'
'c_'
'Will_'
'Excuse_'
'했습니다_'
'차를_'
'지요_'
'죄송합니다_'
'적으로_'
'원하는_'
'오늘은_'
'없을_'
'없다고_'
'알'
'아닌_'
'시_'
'수는_'
'부인_'
'보지_'
'문'
'말이지_'
'마세요_'
'린_'
'르'
'러'
'두고_'
'누구_'
'기를_'
'그들을_'
'감'
'word_'
'walk_'
'ty_'
'th_'
'reason_'
'pay_'
'knows_'
'kids_'
'its_'
'each_'
'check_'
'ce_'
'bring_'
'anymore_'
'Alex_'
'준_'
'죽은_'
'주_'
'정도_'
'이름이_'
'원'
'왜요_'
'였다_'
'사람들_'
'드_'
'더라_'
'당신에게_'
'님_'
'난'
'wish_'
'thinking_'
'ted_'
'set_'
'ma_'
'looks_'
'lives_'
'listen_'
'king_'
'inside_'
'feeling_'
'brought_'
'also_'
'Stay_'
'On_'
'좋지_'
'자신을_'
'자넨_'
'이유가_'
'우리'
'였어_'
'여보세요_'
'야지_'
'않은_'
'별로_'
'릴_'
'된다_'
'달'
'단지_'
'니까요_'
'그것은_'
'겠어요_'
'거기서_'
'young_'
'tion_'
'stupid_'
'oh_'
'light_'
'hands_'
'god_'
'fuck_'
'daughter_'
'ahead_'
'Which_'
'A'
'5'
'훨씬_'
'태'
'치_'
'체'
'준비_'
'정말로_'
'인가_'
'여자가_'
'없고_'
'어때요_'
'어디서_'
'앞에_'
'않았다_'
'손'
'메'
'멋진_'
'래요_'
'라면_'
'데'
'당연히_'
'너가_'
'red_'
'moment_'
'miss_'
'goes_'
'clear_'
'business_'
'YOU_'
'These_'
'People_'
'Hold_'
'키'
'친구가_'
'천'
'줘요_'
'잘못_'
'자고_'
'일에_'
'었어요_'
'어디로_'
'않았어요_'
'안돼요_'
'아닙니다_'
'아니고_'
'싶어요_'
'벌써_'
'말이에요_'
'때까지_'
'너에게_'
'남'
'나쁜_'
'관'
'곤_'
'갈'
'question_'
'making_'
'less_'
'happens_'
'ge_'
'food_'
'fight_'
'break_'
'book_'
'beautiful_'
'Mm_'
'Her_'
'10'
'... - _'
'하세요_'
'필요해요_'
'터'
'타_'
'잡'
'이름은_'
'을'
'어쩌면_'
'악'
'아이를_'
'아이'
'성_'
'서요_'
'새'
'맘에_'
'돌'
'기도_'
'글쎄_'
'결국_'
'갑자기_'
'x_'
'turn_'
'tried_'
'sick_'
'se_'
'ment_'
'ie_'
'hit_'
'half_'
'death_'
'couple_'
'cool_'
'ain_'
'L_'
'John_'
'3'
'20_'
'허'
'타고_'
'집으로_'
'중이야_'
'조금_'
'전화_'
'적'
'있었다_'
'위에_'
'알았지_'
'식'
'손_'
'서는_'
'분'
'보세요_'
'박'
'미안_'
'명'
'매일_'
'말할_'
'말아요_'
'듣고_'
'됩니다_'
'당'
'그것을_'
'개_'
'though_'
'send_'
'save_'
'quite_'
'months_'
'met_'
'longer_'
'fault_'
'exactly_'
'em_'
'dinner_'
'different_'
'ation_'
'afraid_'
'Fuck_'
'At_'
'2'
'했다고_'
'집에서_'
'질'
'죽일_'
'있던_'
'있게_'
'울'
'었지_'
'없었어_'
'어느_'
'보자_'
'문제_'
'머리_'
'려'
'니'
'너를_'
'나가_'
'게다가_'
'yours_'
'true_'
'touch_'
'times_'
'ten_'
'shall_'
'possible_'
'hey_'
'free_'
'forget_'
'ch_'
'bed_'
'Great_'
'Derek_'
'8_'
'# _'
'했잖아_'
'통'
'주고_'
'저녁_'
'자를_'
'이봐요_'
'에도_'
'얘기를_'
'아침에_'
'아버지가_'
'수술'
'손을_'
'받을_'
'더이상_'
'달_'
'누'
'남자가_'
'나가'
'그러지_'
'교'
'win_'
'truth_'
'ter_'
'police_'
'plan_'
'honey_'
'girls_'
'game_'
'front_'
'dream_'
'brain_'
'behind_'
'Me_'
'Keep_'
'Bailey_'
' ♪ ♪ _'
'하자_'
'테'
'총을_'
'총'
'좋아하는_'
'일단_'
'유일한_'
'엄마는_'
'어쨌든_'
'어야_'
'아이가_'
'사_'
'보는_'
'병'
'뭔지_'
'문을_'
'모르겠어요_'
'만나서_'
'막_'
'당신도_'
'당신과_'
'눈_'
'냐고_'
'꺼야_'
'기회를_'
'금'
'구만_'
'것에_'
'건'
'weeks_'
'top_'
'stuff_'
'stand_'
'ring_'
'news_'
'music_'
'married_'
'least_'
'important_'
'easy_'
'country_'
'almost_'
'Mrs_'
'Meredith_'
'Jesus_'
' ]_'
'했을_'
'프'
'팔'
'테니까_'
'집'
'잠깐만요_'
'잘'
'있지만_'
'있잖아요_'
'이랑_'
'온'
'열_'
'여길_'
'없었어요_'
'애_'
'앉아_'
'솔직히_'
'속에_'
'속'
'생각은_'
'사랑해_'
'번'
'밤에_'
'말하지_'
'말하는_'
'렴_'
'따라_'
'누군가_'
'께_'
'과'
'걱정_'
'거다_'
'가야_'
'waiting_'
'power_'
'full_'
'finally_'
'de_'
'close_'
'chief_'
'cannot_'
'calling_'
'Grey_'
'?"_'
'0_'
'. (_'
'% _'
'주는_'
'저희_'
'인지_'
'왜냐하면_'
'심'
'술_'
'소리_'
'생각이_'
'봤어요_'
'별'
'베'
'벌'
'뭐죠_'
'모습을_'
'먹고_'
'마요_'
'때가_'
'때'
'될거야_'
'다니_'
'눈을_'
'꽤_'
'가족을_'
'town_'
'shouldn_'
'ns_'
'living_'
'lady_'
'ies_'
'ic_'
'hour_'
'felt_'
'fact_'
'everybody_'
'boys_'
'bitch_'
'Shut_'
'Cristina_'
'7_'
'4'
' _'
'했지만_'
'했고_'
'할게요_'
'하다_'
'탄'
'찾을_'
'찾고_'
'즈_'
'저를_'
'자는_'
'있네_'
'임'
'이고_'
'워'
'용'
'역'
'어제_'
'아이_'
'아들_'
'쓰'
'습니까_'
'순'
'소리'
'보게_'
'밀'
'둘이_'
'되어_'
'되'
'기분이_'
'기다리고_'
'그만해_'
'광'
'거고_'
'갔다_'
'가면_'
'whatever_'
'trouble_'
'table_'
'shut_'
'past_'
'machine_'
'four_'
'en_'
'coffee_'
'asking_'
'Whatever_'
'Never_'
'May_'
'히'
'테니_'
'커'
'최고의_'
'처'
'줄게_'
'잠시_'
'이상한_'
'운_'
'영'
'였어요_'
'여기가_'
'엄청난_'
'아님_'
'아니죠_'
'아니라고_'
'씨가_'
'쉬'
'삼'
'빌어먹을_'
'분명히_'
'보러_'
'보내'
'방법을_'
'미친_'
'미국_'
'땐_'
'디_'
'들이'
'놈이_'
'길을_'
'그러나_'
'그대로_'
'겠습니다_'
'겁니까_'
'건가_'
'같네요_'
'간다_'
'strong_'
'six_'
'promise_'
'perfect_'
'order_'
'million_'
'high_'
'expect_'
'dog_'
'city_'
'black_'
'ate_'
'M_'
'Be_'
'000_'
' ] _'
'회'
'행'
'해봐_'
'합'
'할까_'
'할거야_'
'필요한_'
'채'
'지마_'
'존_'
'조용히_'
'인가요_'
'으니까_'
'원래_'
'예'
'얘야_'
'않을거야_'
'않습니다_'
'아니'
'십시오_'
'술'
'뭐지_'
'물을_'
'못해_'
'모르는_'
'먹'
'머'
'린'
'레이'
'들어봐_'
'는데요_'
'는'
'누구야_'
'놈들이_'
'너와_'
'너랑_'
'남자'
'남은_'
'그에게_'
'그레이_'
'국'
'거기에_'
'가끔_'
'z_'
'rather_'
'parents_'
'nt_'
'needed_'
'ne_'
'month_'
'luck_'
'hmm_'
'handle_'
'ground_'
'giving_'
'finish_'
'cold_'
'board_'
'answer_'
'along_'
'Sir_'
'P_'
'Fine_'
'By_'
'50_'
'100_'
'/_'
'." _'
'. -_'
'형_'
'헤'
'했는지_'
'항'
'하나'
'퍼'
'철'
'종'
'져_'
'저희가_'
'저한테_'
'저기요_'
'자기야_'
'운'
'없잖아_'
'어디에_'
'앤_'
'알아서_'
'알렉스_'
'알게_'
'쓸_'
'숙'
'살고_'
'빈'
'브'
'뭔데_'
'모두가_'
'면요_'
'마다_'
'론_'
'등'
'들었어요_'
'들었어_'
'들고_'
'대요_'
'노_'
'꼬'
'까'
'길'
'금방_'
'그렇지만_'
'그랬어_'
'곳에_'
'겠다_'
'건지_'
'women_'
'wake_'
'small_'
'scared_'
'running_'
'ons_'
'office_'
'moving_'
'lose_'
'ia_'
'funny_'
'dr_'
'damn_'
'birthday_'
'become_'
'V_'
'Two_'
'Sure_'
'Claire_'
'B_'
'' '_'
'힘을_'
'한다면_'
'학'
'총_'
'집을_'
'죽는_'
'절'
'전화를_'
'저게_'
'잡아_'
'일찍_'
'왕'
'와'
'올'
'여기'
'앞에서_'
'셨어요_'
'색'
'살아_'
'빼'
'본'
'보이지_'
'보니_'
'받아_'
'받고_'
'목'
'맞지_'
'만한_'
'막'
'마치_'
'라고요_'
'떠날_'
'따'
'듯이_'
'둬_'
'돈이_'
'눈'
'놔_'
'그럼요_'
'그러'
'걸요_'
'worth_'
'taken_'
'sometimes_'
'sit_'
'sent_'
'pick_'
'lie_'
'hot_'
'himself_'
'happening_'
'fell_'
'f_'
'decided_'
'Yang_'
'Whoa_'
'U_'
'B'
'After_'
'30_'
'/ _'
', '_'
'할까요_'
'탈'
'친'
'줄'
'죽었어_'
'좋을_'
'잔_'
'잔'
'있어야_'
'일이'
'일어나_'
'옷_'
'영원히_'
'언제나_'
'얘들아_'
'약_'
'약'
'앞'
'알잖아_'
'신경_'
'석'
'산_'
'사이'
'불_'
'보이'
'백'
'뭐하는_'
'뭐'
'물이_'
'무엇을_'
'면'
'만든_'
'마음에_'
'뒤로_'
'겨'
'weird_'
'tired_'
'telling_'
'sex_'
'outside_'
'ous_'
'leaving_'
'kept_'
'hair_'
'government_'
'either_'
'early_'
'ck_'
'anyway_'
'age_'
'Some_'
'Shepherd_'
'O'
'N_'
'Honey_'
'George_'
'D'
' '
'할지_'
'통해_'
'짓'
'좋았어_'
'잠시만요_'
'있었죠_'
'입_'
'이죠_'
'이란_'
'울_'
'우리에게_'
'왔'
'옷을_'
'옆에_'
'업'
'애를_'
'애들_'
'앞으로_'
'아빠는_'
'아빠'
'아니지만_'
'아가_'
'싸'
'슨_'
'셋_'
'사랑하는_'
'볼'
'복'
'베일리_'
'배를_'
'방_'
'뭐든_'
'문제'
'멀리_'
'맞'
'말라고_'
'래'
'더군요_'
'답니다_'
'담'
'낼_'
'기분_'
'기가_'
'근'
'경찰이_'
'걸'
'같다_'
'wearing_'
'trust_'
'ting_'
'shoes_'
'seem_'
'seeing_'
'playing_'
'patients_'
'lunch_'
'letter_'
'known_'
'careful_'
'army_'
'Wow_'
'Move_'
'G_'
'? !_'
'7'
'. [_'
'- '_'
'"?_'
'환자가_'
'형사님_'
'한데_'
'한다는_'
'하지마_'
'필요가_'
'평'
'패'
'투'
'키_'
'크_'
'콘'
'충분히_'
'출'
'쳐'
'청'
'직'
'지내'
'준비가_'
'점점_'
'절대로_'
'저건_'
'자가_'
'이유는_'
'월'
'용_'
'여기는_'
'알았는데_'
'앉아서_'
'아니다_'
'아녜요_'
'아기_'
'수술을_'
'소리를_'
'삶을_'
'비_'
'방법이_'
'바라'
'믿어_'
'못하'
'멍청한_'
'마지막으로_'
'란'
'떠'
'됐'
'돈'
'도움을_'
'도요_'
'도대체_'
'당연하지_'
'당신'
'는거야_'
'누군지_'
'놈_'
'네게_'
'꺼'
'그렇'
'관한_'
'골'
'결'
'격'
'갔어_'
'worse_'
'worried_'
'worked_'
'wedding_'
'watching_'
'system_'
'spend_'
'somebody_'
'simple_'
'questions_'
'ping_'
'piece_'
'number_'
'ls_'
'land_'
'kidding_'
'human_'
'follow_'
'figure_'
'fast_'
'deep_'
'date_'
'broke_'
'aren_'
'across_'
'Would_'
'THE_'
'Phil_'
'New_'
'Mother_'
'IT_'
'Help_'
'Everything_'
'Even_'
'Doctor_'
'Damn_'
'C'
'An_'
'9_'
'8'
') (_'
' -- _'
'훌륭한_'
'화_'
'혼'
'했잖아요_'
'하루_'
'하는지_'
'하네_'
'폭'
'칼'
'책을_'
'진정해_'
'조금만_'
'적어도_'
'자신이_'
'있었지_'
'있었는데_'
'있소_'
'있니_'
'은요_'
'으니_'
'위험한_'
'워_'
'우리도_'
'오는_'
'여보_'
'없었다_'
'얼마_'
'얼굴을_'
'얘기'
'암'
'아저씨_'
'싫어요_'
'시간'
'설'
'생각해요_'
'생각'
'사랑_'
'변'
'밥_'
'반드시_'
'반_'
'밖에서_'
'믿지_'
'민'
'미_'
'못한_'
'맨'
'맥'
'마이크_'
'때는_'
'들도_'
'누구'
'뇌'
'내려'
'기로_'
'급'
'그것도_'
'겠지만_'
'걔가_'
'가지'
'write_'
'voice_'
'serious_'
'seems_'
'secret_'
'ran_'
'poor_'
'ourselves_'
'loved_'
'learn_'
'hungry_'
'hate_'
'future_'
'eye_'
'evening_'
'dying_'
'arm_'
'air_'
'act_'
'Those_'
'TV_'
'Remember_'
'Nice_'
'Hmm_'
'Does_'
'Captain_'
'6'
'*_'
'화가_'
'현'
'혀'
'할'
'하니까_'
'하나도_'
'푸'
'편'
'터_'
'타이'
'코_'
'찾아'
'찾'
'창'
'진정한_'
'줘서_'
'중이'
'조심해_'
'졌다_'
'점'
'전화'
'잠'
'있네요_'
'있'
'이야기를_'
'이것_'
'왔는데_'
'오면_'
'영화'
'여기로_'
'없는데_'
'얼른_'
'어이_'
'아니잖아_'
'아니었어_'
'씨발_'
'씨'
'싸우'
'시오_'
'생각엔_'
'상황이_'
'사건_'
'법'
'배_'
'바_'
'문제는_'
'모르겠다_'
'명이_'
'먼_'
'먹을_'
'머리를_'
'말하고_'
'마라_'
'또한_'
'딸_'
'듯_'
'독'
'도와줘_'
'대신_'
'니다_'
'는거_'
'눈에_'
'나야_'
'끔찍한_'
'깨'
'기는_'
'그렇다면_'
'그거야_'
'군'
'고맙습니다_'
'경찰_'
'겨우_'
'걸로_'
'강'
'갈게_'
'가세요_'
'~ _'
'white_'
'tree_'
'straight_'
'station_'
'showed_'
'respect_'
'picture_'
'ned_'
'na_'
'looked_'
'ling_'
'key_'
'gun_'
'dear_'
'company_'
'clothes_'
'calm_'
'bleeding_'
'ball_'
'ally_'
'\u_'
'Very_'
'S'
'Miss_'
'F_'
'Cause_'
'AND_'
' / _'
' ..._'
'환자는_'
'형'
'해주'
'하여_'
'풍'
'표'
'폐'
'페'
'크리스티나_'
'친구'
'초_'
'참'
'지가_'
'조_'
'있습니까_'
'일어나'
'원하'
'왔다_'
'엘'
'었죠_'
'었'
'어딨어_'
'어디'
'않다_'
'않'
'아침'
'아까_'
'싶'
'승'
'쉽게_'
'순간_'
'속에서_'
'셨'
'사이에_'
'사랑하'
'사람이'
'빌'
'분이'
'분명_'
'부르'
'부_'
'별_'
'버리'
'방법은_'
'박사님_'
'뭔_'
'몰'
'목을_'
'명의_'
'명_'
'멈춰_'
'맞죠_'
'망'
'말했다_'
'만날_'
'립'
'로는_'
'라구_'
'때마다_'
'들어가_'
'들과_'
'뒤'
'된다고_'
'되었'
'됐다_'
'달러_'
'느낌이_'
'놈은_'
'기회가_'
'그래야_'
'그들_'
'그것_'
'계'
'같지_'
'같은데요_'
'같습니다_'
'가족이_'
'가게_'
'yesterday_'
'works_'
'window_'
'thanks_'
'sing_'
'return_'
'paper_'
'normal_'
'mouth_'
'mountain_'
'mistake_'
'missing_'
'meant_'
'ity_'
'ha_'
'fix_'
'fighting_'
'feet_'
'feels_'
'est_'
'during_'
'conversation_'
'control_'
'between_'
'ated_'
'ar_'
'amazing_'
'accept_'
'Shit_'
'Shh_'
'Ooh_'
'Nobody_'
'Lily_'
'King_'
'I'
'H_'
'E'
'9'
'12_'
'12'
'- [_'
'," _'
'힘든_'
'현재_'
'함'
'하는거야_'
'판'
'쿠'
'케'
'칠_'
'칠'
'치료'
'책_'
'쯤_'
'쪽으로_'
'지금까지_'
'좋아해_'
'정신_'
'정신'
'저거_'
'잡고_'
'작'
'자기가_'
'있을까_'
'있었던_'
'있었'
'일로_'
'이해가_'
'이번엔_'
'의해_'
'의사_'
'의사'
'원해_'
'왔습니다_'
'여자를_'
'없죠_'
'없네_'
'없'
'엄마를_'
'애가_'
'알지만_'
'알았'
'아버지를_'
'써_'
'써'
'심지어_'
'식으로_'
'시작하'
'술을_'
'소리야_'
'세상은_'
'새끼_'
'상상'
'분이_'
'봤지_'
'봤'
'법을_'
'받'
'밖으로_'
'믿을_'
'못하고_'
'몰라도_'
'말하'
'만들'
'만나'
'마음을_'
'로부터_'
'떠나'
'따르면_'
'뒷'
'될까요_'
'도와주세요_'
'데릭_'
'던데_'
'답'
'달라고_'
'났'
'나서_'
'께서_'
'극'
'계시'
'게이'
'걘_'
'간에_'
'weren_'
'war_'
'wall_'
'suit_'
'store_'
'ss_'
'snow_'
'sky_'
'shoot_'
'sense_'
'report_'
'rain_'
'pressure_'
'often_'
'nobody_'
'ness_'
'nce_'
'message_'
'lead_'
'ke_'
'ive_'
'ings_'
'girlfriend_'
'ful_'
'fair_'
'ent_'
'ds_'
'dark_'
'changed_'
'cat_'
'buy_'
'b_'
'accident_'
'U'
'Torres_'
'Someone_'
'Sherlock_'
'Put_'
'Izzie_'
'ING_'
'Huh_'
'From_'
'English_'
'Could_'
'15_'
'00_'
'0'
'. "_'
'%_'
'환자_'
'환자'
'했었지_'
'해줘_'
'한번도_'
'하러_'
'피를_'
'평생_'
'팀이_'
'팀_'
'클레어_'
'친구들_'
'쳐_'
'찾아_'
'짓이야_'
'지를_'
'즈'
'좋아하'
'조지_'
'정말요_'
'점을_'
'저런_'
'잘못된_'
'자리를_'
'자네는_'
'있을거야_'
'일이에요_'
'이리와_'
'의사가_'
'으'
'육'
'원_'
'운이_'
'완'
'오지_'
'오랫동안_'
'였'
'연기'
'어린_'
'얘길_'
'압'
'안해_'
'아프'
'아니오_'
'아내가_'
'십니까_'
'식_'
'스스로_'
'수를_'
'서둘러_'
'생각하'
'상황을_'
'상태가_'
'상_'
'사람들의_'
'봉'
'병원_'
'배우'
'방에_'
'모르겠네요_'
'메이'
'먹어_'
'머리'
'말해봐_'
'만난_'
'려면_'
'들어'
'됐지_'
'돌아왔'
'돌아가'
'더니_'
'더군_'
'달라_'
'닥쳐_'
'는군_'
'놈을_'
'넘'
'남자는_'
'그때_'
'곳은_'
'검'
'개의_'
'같'
'words_'
'weather_'
'visit_'
'terrible_'
'stopped_'
'speaking_'
'sign_'
'short_'
'pull_'
'position_'
'plane_'
'near_'
'low_'
'information_'
'hasn_'
'glad_'
'given_'
'fly_'
'floor_'
'field_'
'drop_'
'driving_'
'der_'
'ded_'
'dance_'
'completely_'
'camera_'
'building_'
'books_'
'anybody_'
'] [_'
'Watch_'
'Was_'
'Vi'
'V'
'Three_'
'Richard_'
'Mark_'
'Jack_'
'Everybody_'
'Every_'
'Daddy_'
'?._'
'50'
'20'
'11'
'!"_'
' : _'
'힐'
'환'
'해야지_'
'한거야_'
'학교_'
'하잖아_'
'하시'
'하도록_'
'피_'
'플'
'풀'
'특히_'
'캐'
'카드'
'천천히_'
'째_'
'짐_'
'진짜로_'
'죽어_'
'좋겠어_'
'정도로_'
'저리_'
'잊지_'
'있을'
'있어도_'
'이러지_'
'이라도_'
'이라_'
'이거'
'음'
'운동'
'오고_'
'여자는_'
'알죠_'
'아들을_'
'신이_'
'습'
'스타'
'스는_'
'송'
'세계_'
'생각하고_'
'샘_'
'상태'
'사진_'
'사실은_'
'사람이야_'
'비가_'
'봐야_'
'봐봐_'
'보호'
'병원에_'
'바보'
'바랍니다_'
'모두들_'
'말했'
'말한_'
'만드는_'
'막을_'
'마약'
'리가_'
'라구요_'
'드는_'
'됐습니다_'
'데려가'
'는요_'
'놓고_'
'놓'
'높은_'
'놀'
'내내_'
'나오는_'
'끼'
'꺼져_'
'기대'
'그치만_'
'그랬'
'괜찮은_'
'겠네_'
'걔_'
'가까이_'
'w_'
'train_'
'totally_'
'tie_'
'test_'
'special_'
'realize_'
'rate_'
'ped_'
'pass_'
'page_'
'ors_'
'orders_'
'meeting_'
'lucky_'
'lu'
'loves_'
'les_'
'join_'
'ist_'
'instead_'
'ine_'
'hole_'
'hang_'
'fit_'
'da_'
'blue_'
'bang_'
'ance_'
'among_'
'THAT_'
'Somebody_'
'Ra'
'ON_'
'Manny_'
'Leave_'
'Karev_'
'Haley_'
'Du'
'Didn_'
'Cam_'
'About_'
'200'
'하겠습니다_'
'필요할_'
'판_'
'틀'
'특'
'크게_'
'칼_'
'처음으로_'
'처음부터_'
'착'
'찍'
'지나'
'증'
'줄래_'
'준'
'주지_'
'좋은'
'제게_'
'정보를_'
'적은_'
'잘했어_'
'자식_'
'자기'
'있었습니다_'
'있는'
'있거든_'
'일하는_'
'일도_'
'익'
'이야기'
'이럴_'
'이가_'
'을때_'
'을거야_'
'웃'
'열어_'
'에이'
'없었'
'없어서_'
'없다는_'
'얼마'
'얘기해_'
'얘기는_'
'알아야_'
'알아'
'않았'
'아이들을_'
'아세요_'
'아닌데_'
'씩_'
'쓰고_'
'시다_'
'스가_'
'숨겨'
'손에_'
'셜록_'
'셔_'
'성공'
'생각하지_'
'생각이'
'사람의_'
'밑에_'
'물론이죠_'
'문제야_'
'못할_'
'목숨을_'
'모르지_'
'모르'
'메러디스_'
'맨_'
'맥스_'
'말이'
'많아_'
'만들어_'
'만들어'
'만들_'
'마음_'
'름'
'르_'
'랜'
'똑같은_'
'떼'
'들어갈_'
'들어가'
'드리'
'드디어_'
'뒤_'
'되죠_'
'더는_'
'다고요_'
'님이_'
'눈이_'
'누구도_'
'놈들_'
'년'
'내려_'
'나무_'
'끝났어_'
'기억'
'기다리'
'그랬지_'
'그녀_'
'계획이_'
'겐_'
'겁'
'가족_'
'”_'
'wind_'
'welcome_'
'usually_'
'turned_'
'trip_'
'till_'
'the'
'teacher_'
'takes_'
'sweet_'
'song_'
'share_'
'sh_'
'seven_'
'road_'
'ps_'
'prison_'
'none_'
'ly'
'law_'
'la_'
'ks_'
'killing_'
'forgot_'
'forever_'
'favor_'
'fall_'
'evil_'
'dress_'
'da'
'closer_'
'choose_'
'catch_'
'boyfriend_'
'anywhere_'
'W'
'Tom_'
'Should_'
'Ne'
'Master_'
'Mary_'
'Ki'
'Jay_'
'Isn_'
'Grace_'
'Gloria_'
'Christmas_'
'Before_'
'Actually_'
'.'
' :_'
' $_'
'흠_'
'황'
'활'
'혼자'
'형제'
'혈'
'헤이_'
'향'
'했'
'하실_'
'하셨'
'하라고_'
'하_'
'필요하'
'파티_'
'퇴'
'킹'
'켜'
'치는_'
'축'
'최'
'찾았어요_'
'차가_'
'쥐'
'줬'
'중국_'
'죽이지_'
'주십시오_'
'좋습니다_'
'좋다_'
'존재'
'조차_'
'제이_'
'전쟁'
'전문가'
'적이'
'잘하'
'자주_'
'있을까요_'
'있도록_'
'있는거야_'
'있거든요_'
'입고_'
'인도'
'이유'
'이것은_'
'움직이'
'우_'
'왔을_'
'완벽한_'
'옥'
'역시_'
'여자'
'었는데_'
'엄'
'억'
'어쩔_'
'애들이_'
'알겠지_'
'쓴_'
'신경'
'시키는_'
'시죠_'
'슬'
'선생님은_'
'생겼'
'사실을_'
'사가_'
'봐도_'
'보통_'
'벤'
'범'
'번째_'
'버리고_'
'버려_'
'발_'
'박사_'
'뭐라고요_'
'뭐라_'
'모든걸_'
'메리_'
'멀'
'맞는_'
'말아라_'
'루시어스_'
'때도_'
'들의_'
'듣'
'된다면_'
'돈은_'
'도울_'
'델'
'던'
'더욱_'
'대화를_'
'대단한_'
'당_'
'뉴'
'누군가가_'
'냄새가_'
'나오'
'꽉_'
'기에_'
'글'
'그리_'
'그렇다고_'
'그렇군요_'
'그랬죠_'
'그들에게_'
'권'
'굴'
'괜찮을_'
'곳을_'
'곳에서_'
'고맙다_'
'결코_'
'가져가'
'가능한_'
'가능성이_'
'ying_'
'ways_'
'walked_'
'ves_'
'ure_'
'turns_'
'state_'
'star_'
'space_'
'sounds_'
'soul_'
'somewhere_'
'smell_'
'sad_'
'ride_'
'resident_'
'quick_'
'post_'
'per_'
'papers_'
'ones_'
'neck_'
'ms_'
'middle_'
'marriage_'
'm'
'lly_'
'list_'
'liked_'
'laughing_'
'knock_'
'ions_'
'interest_'
'in'
'held_'
'ged_'
'duty_'
'drive_'
'crying_'
'crap_'
'chest_'
'captain_'
'box_'
'boss_'
'bar_'
'bank_'
'apartment_'
'X_'
'Teddy_'
'T'
'Something_'
'Red_'
'Most_'
'Love_'
'Li'
'Joe_'
'Has_'
'G'
'First_'
'FBI_'
'Callie_'
'Bye_'
'Bo'
'15'
'- (_'
'( _'
'힘이_'
'흐'
'호_'
'혀_'
'해보'
'함을_'
'할수_'
'하면서_'
'하루종일_'
'하는게_'
'파티'
'클'
'큰'
'크리스'
'침'
'친구는_'
'친_'
'최선을_'
'초대'
'책'
'찾아야_'
'찾는_'
'착한_'
'차라리_'
'질문을_'
'즐거운_'
'줘야_'
'줄까_'
'죽었어요_'
'죽었'
'죽게_'
'주면_'
'좋았'
'정도'
'저렇게_'
'재_'
'장을_'
'장소'
'잡아'
'자네의_'
'있는데요_'
'읽어'
'일하'
'이유를_'
'이름_'
'이러'
'음악_'
'윈'
'위로_'
'위대한_'
'요즘_'
'와우_'
'영화_'
'였지_'
'연락'
'여러_'
'엔'
'에선_'
'없지만_'
'얼'
'언'
'어머니_'
'어려운_'
'약속을_'
'애들은_'
'않게_'
'안전한_'
'아무리_'
'아나_'
'씨는_'
'쏴_'
'쌓'
'실례합니다_'
'손으로_'
'소리가_'
'성을_'
'생각하는_'
'상대'
'불러'
'부서'
'봤는데_'
'보죠_'
'보낸_'
'보내_'
'버릴_'
'바보_'
'미안하지만_'
'뭐요_'
'물어보'
'문제를_'
'무기'
'몸이_'
'몸'
'몰랐'
'모르겠지만_'
'모두에게_'
'며칠_'
'먹는_'
'말입니다_'
'만약에_'
'만났'
'리고_'
'를'
'란다_'
'떨어져_'
'때문이야_'
'들었다_'
'들었'
'들리'
'드릴_'
'됐네_'
'돌아가_'
'도와줘요_'
'도시_'
'도망가'
'닫'
'다시는_'
'는건_'
'느냐_'
'녀석_'
'납'
'낙'
'나갔'
'나가서_'
'꺼_'
'깊은_'
'기억하'
'기억나_'
'기억_'
'그녀'
'구할_'
'굉장히_'
'괜찮'
'곳이_'
'곡'
'결정'
'겠다고_'
'것이'
'것'
'검사'
'거짓말을_'
'거잖아_'
'거리'
'거니까_'
'거긴_'
'각'
'가치가_'
'¶ _'
'{\\_'
'wonderful_'
'wine_'
'wear_'
'warm_'
'ven'
'u_'
'tumor_'
'themselves_'
'swear_'
'street_'
'stick_'
'standing_'
'sound_'
'sitting_'
'sell_'
'seconds_'
's'
'river_'
'record_'
'protect_'
'promised_'
'program_'
'pro'
'n'
'mission_'
'mis'
'letting_'
'learned_'
'joke_'
'interested_'
'idiot_'
'ial_'
'history_'
'heavy_'
'grow_'
'foot_'
'et_'
'er'
'empty_'
'el_'
'ding_'
'difficult_'
'bye_'
'busy_'
'bought_'
'bird_'
'Y'
'Ugh_'
'Their_'
'TO_'
'Su'
'Still_'
'R'
'President_'
'More_'
'Make_'
'M'
'London_'
'Last_'
'L'
'J_'
'Happy_'
'H'
'Father_'
'Everyone_'
'Avery_'
'Any_'
'30분_'
'25_'
'... '
', - _'
' [_'
' )_'
' !_'
'힘'
'해라_'
'합니까_'
'함장님_'
'함께'
'하려는_'
'하던_'
'필_'
'폭발'
'편_'
'팔_'
'특별한_'
'컨'
'치고_'
'츠'
'체포'
'채로_'
'짜'
'집이_'
'집은_'
'줬어_'
'준비하'
'준비됐어_'
'죽지_'
'죽였어_'
'죽여_'
'죄'
'좋은데_'
'좋'
'제발요_'
'정확히_'
'정보'
'전엔_'
'적도_'
'잠시만_'
'있으니_'
'있었고_'
'있긴_'
'입니까_'
'일이죠_'
'일어나는_'
'이사'
'이러한_'
'요리'
'와의_'
'열심히_'
'여기요_'
'여기까지_'
'에이미_'
'어젯밤_'
'어서요_'
'얘기해'
'얘_'
'약간의_'
'액'
'았'
'알려주'
'않나_'
'앉'
'안되'
'아시'
'아버지는_'
'아무'
'아기를_'
'아가씨_'
'씨의_'
'신의_'
'시키'
'시작했다_'
'스를_'
'슈'
'쇼_'
'셀'
'선택을_'
'선을_'
'상관_'
'사진을_'
'사랑해요_'
'뻔_'
'빛'
'분석'
'부르지_'
'봅시다_'
'밤'
'받지_'
'받았어요_'
'반대'
'믿고_'
'뭔데요_'
'뭔가를_'
'물건을_'
'무리'
'몰랐어요_'
'모든게_'
'모두를_'
'명을_'
'명령'
'말하면_'
'많'
'만들었'
'만들고_'
'링'
'른'
'류'
'로스_'
'렸'
'랍니다_'
'라이'
'땅'
'따라와_'
'든'
'뒀'
'둘'
'둔_'
'돌아올_'
'도와줄_'
'도와_'
'도망'
'데려다_'
'다른'
'닉_'
'는걸_'
'느'
'누군가를_'
'놨'
'농'
'내고_'
'날이_'
'나왔'
'나온_'
'나봐요_'
'나봐_'
'끝까지_'
'꿈'
'기술'
'글쎄요_'
'그치_'
'그와_'
'그러게_'
'그날_'
'그것이_'
'귀'
'괴'
'곳으로_'
'계획을_'
'계세요_'
'경찰을_'
'걸어'
'거군요_'
'개가_'
'같네_'
'갔어요_'
'갔'
'감을_'
'가족'
'가져와_'
'가도_'
'y'
'whether_'
'weight_'
'universe_'
'ton_'
'throw_'
'throat_'
'talked_'
'surprise_'
'strange_'
'step_'
'sort_'
'sea_'
'reading_'
'quickly_'
'que_'
'price_'
'present_'
'plans_'
'personal_'
'others_'
'offer_'
'nearly_'
'names_'
'moon_'
'lying_'
'leg_'
'ker_'
'keeping_'
'il_'
'hurry_'
'horse_'
'fully_'
'forward_'
'fish_'
'finished_'
'fat_'
'entire_'
'enemy_'
'en'
'ely_'
'ed'
'earlier_'
'drunk_'
'drugs_'
'double_'
'damage_'
'caught_'
'cancer_'
'c'
'built_'
'blow_'
'blind_'
'beat_'
'apologize_'
'Welcome_'
'Want_'
'Since_'
'Say_'
'Ro'
'P'
'Kill_'
'IS_'
'Hurry_'
'Got_'
'Ga'
'Five_'
'Chuckles_'
'Christ_'
'Chief_'
'Burke_'
'Bring_'
'American_'
'25'
'18_'
'17_'
'..."_'
'"._'
' --_'
'흉'
'회사_'
'확인_'
'화를_'
'홀'
'했었'
'했네_'
'해주세요_'
'한잔_'
'학교에서_'
'하나의_'
'하나는_'
'필'
'프로'
'풀어'
'콜'
'카메라_'
'층_'
'취'
'충'
'첫'
'찾았'
'진행'
'진실을_'
'지나가'
'줄을_'
'죽인_'
'죽이'
'주의_'
'죄를_'
'좌'
'좋아해요_'
'종류의_'
'졌어_'
'져'
'제임스_'
'정신이_'
'저랑_'
'잭_'
'자야_'
'자세히_'
'자꾸_'
'있으니까_'
'있겠지_'
'있겠죠_'
'잃은_'
'이식'
'이상'
'이라는_'
'이걸로_'
'의심'
'의미'
'유지'
'위하여_'
'원치_'
'움직이지_'
'움직여_'
'우리한테_'
'왕_'
'옳은_'
'올리'
'오세요_'
'였죠_'
'얼굴이_'
'언니_'
'어젯밤에_'
'얘기하고_'
'얘기하'
'애들'
'알리'
'않지_'
'안으로_'
'악마'
'아름다운_'
'아닐_'
'아는데_'
'아내를_'
'싸우고_'
'싶으면_'
'심장'
'실래요_'
'시험'
'시켜_'
'시작'
'쉽지_'
'쉽'
'숨'
'속_'
'소식을_'
'셔서_'
'세게_'
'섬'
'선수'
'선생님이_'
'서도_'
'생각했어요_'
'상사'
'살아'
'사람에게_'
'사람도_'
'뿐이에요_'
'뿐_'
'빼고_'
'브리'
'브_'
'불러_'
'북'
'부인'
'부부'
'보다는_'
'보냈'
'보낼_'
'병_'
'벤_'
'배는_'
'방해'
'발을_'
'받았'
'믿어요_'
'믿'
'미쳤어_'
'뭐하는거야_'
'뭐하고_'
'뭐예요_'
'몰랐어_'
'모르지만_'
'멘'
'멈추'
'머리에_'
'매니_'
'맡'
'맞았어_'
'말해야_'
'말인데_'
'만이_'
'마음이_'
'릴'
'리지_'
'록'
'력'
'렌'
'라니_'
'떨'
'딸이_'
'들에게_'
'든지_'
'둘다_'
'되었습니다_'
'돼서_'
'돌아와_'
'데도_'
'당신이'
'닭'
'달러'
'다음은_'
'다섯_'
'다섯'
'다니'
'높'
'놈들'
'넣어'
'내버려_'
'남자를_'
'나갈_'
'나가요_'
'끝내'
'끝'
'꿈을_'
'긴'
'기사'
'기록'
'그리'
'그럴'
'그러다_'
'그러고_'
'그녀와_'
'권을_'
'관해_'
'관계를_'
'고도_'
'결혼'
'것들이_'
'것들_'
'것과_'
'걸어_'
'걸세_'
'거짓말_'
'거래'
'거기'
'가야'
'가만히_'
'ze_'
'x'
'worst_'
'wood_'
'within_'
'tic_'
'thousand_'
'teach_'
'sy_'
'surgeon_'
'stuck_'
'spent_'
'smile_'
'service_'
'saved_'
'rea'
'radio_'
'public_'
'procedure_'
'pre'
'passed_'
'opportunity_'
'nd_'
'murder_'
'moved_'
'mess_'
'mar'
'lived_'
'likes_'
'itself_'
'holding_'
'ha'
'go'
'ga'
'following_'
'fo'
'finger_'
'film_'
'explain_'
'ess_'
'escape_'
'ec'
'dy_'
'do'
'decision_'
'crime_'
'clock_'
'clean_'
'class_'
'choice_'
'cho'
'che'
'burn_'
'breakfast_'
'bigger_'
'band_'
'babies_'
'US_'
'Ti'
'Sta'
'South_'
'Se'
'Scott_'
'Sa'
'Quot_'
'Lord_'
'Le'
'La'
'K_'
'Jo'
'Holmes_'
'F'
'Check_'
'Ba'
'April_'
'America_'
'30'
'24_'
'24'
'14_'
'...?_'
'... ♪_'
',"_'
' , _'
' #_'
'효'
'해치지_'
'해야할_'
'해야만_'
'합시다_'
'할거'
'하였다_'
'하여금_'
'하루'
'하긴_'
'필요없어_'
'필요는_'
'프리'
'프_'
'편지를_'
'편지'
'펜'
'퍼_'
'판매'
'파티를_'
'튼'
'턴_'
'키가_'
'코스'
'카라_'
'출혈이_'
'최악의_'
'최소한_'
'최고_'
'천_'
'처리'
'찾으러_'
'찾았어_'
'참을_'
'차에_'
'쫓아'
'징'
'짓_'
'짐'
'진심이야_'
'진다_'
'지냈'
'증_'
'중입니다_'
'중이에요_'
'중국'
'준비해_'
'죽'
'주에_'
'주었다_'
'좋네_'
'존나_'
'져서_'
'제기랄_'
'접'
'점심_'
'전해'
'전에도_'
'전부'
'저희는_'
'저의_'
'잠을_'
'잘못'
'자유'
'자신'
'자들은_'
'있다'
'있겠어요_'
'있겠어_'
'입은_'
'잃었'
'일하고_'
'일치'
'일이지_'
'인해_'
'이후로_'
'이었어_'
'이만_'
'이를_'
'이기'
'응'
'음을_'
'음악'
'으며_'
'위에서_'
'웠'
'움'
'왼쪽_'
'왜죠_'
'올게_'
'오기_'
'예를_'
'영국_'
'염'
'여지가_'
'엘_'
'없잖아요_'
'엄마'
'얼굴에_'
'얻'
'어머니는_'
'어머_'
'야죠_'
'야겠어_'
'알고있'
'않을'
'않는다면_'
'안에서_'
'아이들이_'
'아빠를_'
'아리'
'아들이_'
'아니었'
'쓰지_'
'싸울_'
'싶어서_'
'십니다_'
'심각한_'
'실수를_'
'실수'
'신호'
'신이'
'시켜'
'시간은_'
'승리'
'수사'
'쇼'
'솔'
'션'
'셔야_'
'섹스'
'세상을_'
'세상에서_'
'서로를_'
'샤'
'생각에_'
'새로_'
'상관없어_'
'살인_'
'살려'
'사람한테_'
'사람들도_'
'사람'
'빠져_'
'비켜_'
'비밀을_'
'비밀_'
'부를_'
'봤죠_'
'보트'
'보자고_'
'보여요_'
'보라고_'
'보고'
'병원에서_'
'벽'
'번이나_'
'받은_'
'바꿔'
'미리_'
'물론이지_'
'못해요_'
'몸을_'
'몰아'
'몬'
'모를_'
'먼'
'먹이'
'맨날_'
'매_'
'말했어요_'
'말해줘_'
'말해'
'마침내_'
'마이클_'
'링_'
'립니다_'
'린다_'
'리는_'
'론'
'려는_'
'뜨'
'뛰어_'
'똥'
'떨어졌'
'딸을_'
'딸'
'딴_'
'따르'
'들어왔'
'들어가서_'
'될까_'
'동_'
'돕'
'돌려'
'데이트'
'던데요_'
'던가_'
'덕분에_'
'덕'
'당신한테_'
'달러를_'
'달라'
'다음에_'
'다리를_'
'다리'
'다르'
'다구요_'
'는다_'
'느라_'
'느낄_'
'누굴_'
'놈의_'
'녹'
'넣'
'널'
'낸_'
'내겐_'
'낮'
'남아_'
'날이'
'나이'
'나은_'
'나면_'
'나머지_'
'나가는_'
'끝났어요_'
'꾸'
'길에_'
'기회'
'기억해_'
'기억이_'
'기다렸'
'그레이'
'그러는_'
'그래'
'그것'
'그거'
'구조'
'관심_'
'과장님_'
'고통을_'
'고쳐'
'경찰'
'경우_'
'것만_'
'것들을_'
'검사_'
'걱정'
'거잖아요_'
'거란_'
'개를_'
'갖다_'
'갑시다_'
'감옥에_'
'감사해요_'
'갈래_'
'갈거야_'
'각_'
'가질_'
'가리'
'}_'
'ys_'
'ya_'
'writing_'
'wonder_'
'walking_'
'un_'
'travel_'
'to'
'ties_'
'thinks_'
't'
'sun_'
'ste'
'starting_'
'stage_'
'speech_'
'smoke_'
'situation_'
'single_'
'shop_'
'sho'
'shed_'
'sha'
'selling_'
'self_'
'scene_'
'round_'
'rock_'
'ra'
'purpose_'
'pulled_'
'problems_'
'possibly_'
'ocean_'
'ny_'
'ni'
'nervous_'
'mention_'
'medical_'
'match_'
'mad_'
'letters_'
'large_'
'ked_'
'judge_'
'ice_'
'i1_'
'hu'
'honest_'
'ho_'
'hiding_'
'hide_'
'hi'
'har'
'group_'
'form_'
'fear_'
'fake_'
'everywhere_'
'eight_'
'ea'
'dollars_'
'definitely_'
'danger_'
'daddy_'
'cute_'
'cook_'
'color_'
'coat_'
'cell_'
'buddy_'
'bridge_'
'born_'
'bear_'
'attack_'
'ary_'
'appointment_'
'and'
'als_'
'above_'
'\\_'
'Turn_'
'Tomorrow_'
'Time_'
'Sometimes_'
'Si'
'Show_'
'Seriously_'
'Seattle_'
'Run_'
'Po'
'Peter_'
'Pablo_'
'Ok_'
'North_'
'N'
'Mmm_'
'Max_'
'Mar'
'Man_'
'Luke_'
'K'
'IN_'
'Hunt_'
'Ha_'
'Frank_'
'Four_'
'Ed'
'Amy_'
'Al'
'2주'
'.. - _'
'- "_'
'* _'
'! '
'희생'
'휴'
'회복'
'확인했'
'확인하'
'행운을_'
'행동을_'
'했다면_'
'했다는_'
'해줄_'
'함_'
'하자고_'
'하신_'
'하려_'
'하니_'
'하네요_'
'하겠'
'필요로_'
'피해'
'피가_'
'플로'
'프랭크_'
'품'
'폴_'
'폴'
'평화'
'평범한_'
'틀렸'
'튼_'
'트리'
'톰_'
'톨'
'테러'
'털'
'탐'
'크리스마스_'
'쿠키_'
'켜_'
'커피_'
'카_'
'최대한_'
'쳤'
'찾은_'
'짜리_'
'지키'
'지옥'
'증언'
'줄은_'
'줄곧_'
'죽였'
'좋게_'
'좀더_'
'졸'
'조직'
'졌'
'점_'
'전화가_'
'전체를_'
'장난_'
'잡았'
'잘됐네_'
'잖니_'
'있었다고_'
'있었는지_'
'있었나_'
'있기를_'
'일어났'
'인생의_'
'인간의_'
'인간'
'이해해_'
'이해_'
'이면_'
'이런'
'이길_'
'이곳에_'
'이것'
'의하면_'
'윌_'
'위치를_'
'웠어_'
'원한다면_'
'원하지_'
'욕'
'요원_'
'왔죠_'
'오직_'
'오빠_'
'오른쪽_'
'예상'
'열어'
'에서는_'
'에겐_'
'엉'
'없으면_'
'없었지_'
'없네요_'
'얼굴'
'어쩌'
'어떠한_'
'어디야_'
'얘'
'약을_'
'야해_'
'애들을_'
'알아냈'
'않는'
'안하'
'안전'
'안보'
'안되는_'
'아이는_'
'아요_'
'아빠랑_'
'아래_'
'아는'
'아내'
'씻'
'쏘'
'십'
'실로_'
'실례'
'신을_'
'스트'
'쉬_'
'수업'
'소식이_'
'소를_'
'셨죠_'
'생기'
'생각도_'
'샌'
'사용하'
'사실이'
'사랑했'
'사람이에요_'
'사람들에게_'
'사과'
'빠지'
'빠르게_'
'빌려'
'비행'
'블'
'분노'
'부인이_'
'부스_'
'봤을_'
'봐라_'
'봐'
'보이는_'
'보냈어_'
'벽에_'
'밥'
'받아'
'받는_'
'바람'
'뭐하'
'뭐라'
'물러나'
'무엇'
'무서운_'
'무기를_'
'못했어요_'
'못했어_'
'모양이'
'모르죠_'
'명이'
'맞았어요_'
'맛'
'말해주'
'말하자면_'
'말로는_'
'만일_'
'만에_'
'만드'
'마찬가지'
'마주'
'마시'
'로서_'
'련'
'려서_'
'럼'
'럴'
'런'
'랑'
'뜻이'
'떠나지_'
'따로_'
'등_'
'들어요_'
'된다는_'
'되는데_'
'동생_'
'돌아다니'
'돌려_'
'도와주'
'데이트_'
'데이'
'대표'
'당신들은_'
'당신들_'
'답을_'
'달린_'
'다신_'
'닐'
'닉'
'놈이'
'년에_'
'녀'
'너희들이_'
'냉'
'내리'
'내놔_'
'납치'
'남편이_'
'나타나'
'나왔어요_'
'나쁜'
'꽤나_'
'께요_'
'깐_'
'김'
'급_'
'그렇습니다_'
'그대'
'규'
'국_'
'구하'
'괜찮지_'
'관심이_'
'관련된_'
'공을_'
'공연'
'공_'
'곳이'
'고있'
'계산'
'곁에_'
'결혼_'
'게도_'
'것이라고_'
'것보다_'
'걸렸'
'건강'
'거리가_'
'거래를_'
'거니_'
'거냐_'
'걔는_'
'갖'
'갔는데_'
'갈게요_'
'간의_'
'가져갔'
'가시'
'가보'
'under'
'ue_'
'treat_'
'suppose_'
'support_'
'study_'
'struck_'
'sti'
'steal_'
'stars_'
'speed_'
'smart_'
'sleeping_'
'skin_'
'secure_'
'seat_'
'res_'
'received_'
're'
'quit_'
'proud_'
'practice_'
'pool_'
'poison_'
'pictures_'
'perfectly_'
'op_'
'om_'
'nurse_'
'ner_'
'na'
'milk_'
'med_'
'marry_'
'magic_'
'ma'
'lovely_'
'legs_'
'l'
'knowing_'
'ki_'
'jo'
'interview_'
'intern_'
'insane_'
'imagine_'
'ill_'
'huge_'
'gs_'
'grab_'
'gotten_'
'gods_'
'ging_'
'gift_'
'gentlemen_'
'general_'
'force_'
'ff'
'fer'
'fail_'
'extra_'
'excuse_'
'excited_'
'due_'
'drug_'
'dies_'
'deserve_'
'data_'
'cra'
'court_'
'college_'
'church_'
'cat'
'cal'
'bus_'
'build_'
'bu'
'bro'
'bodies_'
'boat_'
'bo'
'ast'
'asleep_'
'ant_'
'amount_'
'alright_'
'agree_'
'ag'
'actual_'
'Z'
'West_'
'W_'
'Try_'
'Tonight_'
'Today_'
'Think_'
'Ri'
'Perhaps_'
'Over_'
'Open_'
'Only_'
'Once_'
'Next_'
'Mo'
'Man'
'Looks_'
'Lo'
'Europe_'
'Chinese_'
'Car'
'Ben_'
'Aw_'
'Ar'
'? (_'
'? '_'
'? '
'5분_'
'17'
'... .._'
' “_'
'환자를_'
'확인해_'
'혼자서_'
'혹은_'
'형이_'
'형은_'
'헤이'
'해야죠_'
'한테도_'
'한잔'
'한거'
'학교에_'
'하진_'
'하잖아요_'
'하든_'
'핀'
'피터_'
'프레'
'표를_'
'파티에_'
'파트너'
'파는_'
'통해서_'
'토_'
'텔'
'테스트'
'택시_'
'크리스_'
'케이스'
'케이'
'컸'
'카레브_'
'친구들이_'
'치료를_'
'츠_'
'충분한_'
'춤'
'추가'
'최근에_'
'최고'
'촬영'
'체_'
'첫번째_'
'천사'
'척_'
'척'
'처음엔_'
'차례'
'쪽'
'짓도_'
'집이'
'질투'
'질문'
'진짜'
'진심으로_'
'지켜보'
'지켜'
'지지_'
'지지'
'지역'
'지불'
'증명'
'줄이'
'준비를_'
'준비'
'준다고_'
'죽이려_'
'죽이는_'
'죽이고_'
'죽었을_'
'죽기_'
'주사'
'죄수'
'좋아하지_'
'좋겠다_'
'종일_'
'종교'
'조지'
'조각'
'제한'
'제이'
'정치'
'정말이야_'
'정_'
'젊은_'
'전해_'
'전투'
'전이'
'적의_'
'저요_'
'쟤가_'
'재밌'
'재미있'
'장에_'
'잡을_'
'작전'
'자동차_'
'자넬_'
'있을지도_'
'있었잖아_'
'있는게_'
'있기_'
'있군_'
'잇'
'일인데_'
'일세_'
'일부러_'
'인이'
'인사'
'인데요_'
'인간_'
'이후_'
'이쪽으로_'
'이여_'
'이야기는_'
'이라면_'
'이것도_'
'음악을_'
'음식을_'
'은행_'
'으론_'
'유령'
'위험'
'위_'
'우연히_'
'왔지_'
'올게요_'
'오셨'
'오리'
'오래'
'옛날_'
'예쁘'
'영웅이_'
'였는데_'
'연구'
'역_'
'여잔_'
'여자친구'
'여성'
'여름'
'엘리'
'에서도_'
'었고_'
'없이는_'
'없다면_'
'엄마한테_'
'엄마도_'
'얻을_'
'억_'
'어차피_'
'어머니가_'
'어리'
'어를_'
'어딨'
'어도_'
'얘긴_'
'앨'
'알려_'
'알고'
'안했어_'
'안했'
'안의_'
'아파_'
'아직은_'
'아이들은_'
'아버지'
'아들은_'
'아닌가_'
'아나'
'쓸'
'쓰는_'
'싶었'
'싶다_'
'싫어하는_'
'신은_'
'신세'
'시작_'
'시면_'
'시고_'
'슨'
'스티븐스_'
'스테'
'숨을_'
'쇠'
'솔직하게_'
'손가락'
'세상_'
'서를_'
'생활'
'생각할_'
'생각한다_'
'생각하면_'
'상황은_'
'상관'
'살해'
'살아있'
'사실'
'사망'
'사랑을_'
'사랑에_'
'사라졌'
'사건을_'
'뿐이'
'빵'
'빙'
'빈_'
'부족'
'부자'
'볼까_'
'보시'
'보내는_'
'병이_'
'별일_'
'변호사'
'범죄'
'벌을_'
'벌_'
'버크'
'버_'
'백만_'
'배웠'
'방문'
'발사_'
'발사'
'받으'
'받았다_'
'반가워요_'
'박스'
'바이러스'
'바람_'
'밑에서_'
'밑'
'믿어'
'미친'
'뭔가가_'
'뭐라도_'
'뭐라구요_'
'뭐냐_'
'문이_'
'못했다_'
'못했'
'몸_'
'목_'
'모르고_'
'명령을_'
'머리가_'
'말해요_'
'말할'
'말이다_'
'말씀_'
'말라'
'만은_'
'만나러_'
'만나고_'
'마크_'
'마음'
'마시고_'
'마르'
'림'
'리더'
'료'
'력을_'
'랜드'
'뜻이야_'
'뛰어'
'떠나_'
'따라서_'
'들어보'
'득'
'드립니다_'
'드리죠_'
'될'
'되어'
'되는'
'되겠'
'되_'
'됐고_'
'동맥'
'독일'
'도시를_'
'데이비드_'
'데려왔'
'덜_'
'더라고_'
'당시_'
'다이'
'늦었'
'늘'
'는거에요_'
'놨어_'
'노력'
'노래를_'
'노래_'
'너희들_'
'냐'
'냈'
'낫'
'나왔어_'
'나올_'
'나빠'
'나머지는_'
'끝났'
'끝나'
'끊임없이_'
'끊'
'끈'
'꺼내'
'길이_'
'기만_'
'기다려'
'글로리아_'
'그렇고_'
'그런'
'그러죠_'
'그랬어요_'
'그동안_'
'그녀에게_'
'그곳에_'
'괴물'
'괜찮겠'
'관리'
'관계'
'과는_'
'고칠_'
'계획이'
'계획은_'
'계획'
'겼'
'결과를_'
'견'
'겠소_'
'게임'
'것으로_'
'거대한_'
'거겠지_'
'개인_'
'같군요_'
'같군_'
'강력한_'
'감정'
'감이_'
'간호사'
'가졌'
'가져'
'가봐_'
'가능하'
'가는데_'
'wolf_'
'wild_'
'ward_'
'vo'
'ved_'
've'
'ur'
'uncle_'
'tu'
'tough_'
'tiny_'
'tight_'
'te'
'tape_'
'ta_'
'subject_'
'storm_'
'stories_'
'ster_'
'stayed_'
'sta'
'spot_'
'spirit_'
'slept_'
'simply_'
'silly_'
'seriously_'
'seemed_'
'sed_'
'security_'
'se'
'ro_'
'rings_'
'rin'
'relax_'
'realized_'
'reached_'
'rd_'
'race_'
'putting_'
'proper_'
'pregnant_'
'pleasure_'
'planet_'
'park_'
'paid_'
'pa'
'os'
'opinion_'
'oo'
'nk_'
'mo'
'missed_'
'ming_'
'meat_'
'matters_'
'mate_'
'lt_'
'liver_'
'listening_'
'level_'
'le'
'language_'
'lab_'
'kinda_'
'k'
'jump_'
'ish_'
'ical_'
'horrible_'
'ho'
'heal_'
'goal_'
'gives_'
'ger_'
'gay_'
'gas_'
'gar'
'further_'
'football_'
'fool_'
'filled_'
'fi'
'famous_'
'ey_'
'experience_'
'exact_'
'easily_'
'dropped_'
'disappeared_'
'destroy_'
'decide_'
'dare_'
'ction_'
'ct_'
'cover_'
'complete_'
'code_'
'clearly_'
'charge_'
'certainly_'
'certain_'
'ce'
'can'
'brothers_'
'broken_'
'bra'
'birth_'
'bet_'
'beach_'
'ban'
'bag_'
'attention_'
'asshole_'
'appreciate_'
'ani'
'angry_'
'al'
'Were_'
'Up_'
'Too_'
'Things_'
'Ta'
'Stevens_'
'Ste'
'Spanish_'
'RI'
'Police_'
'Plus_'
'Paris_'
'Papa_'
'Na'
'NO_'
'Mu'
'Mor'
'Mama_'
'LA'
'Jim_'
'Henry_'
'Guys_'
'Gra'
'Go'
'Gar'
'El'
'Earth_'
'David_'
'Com'
'Call_'
'Bob_'
'Benjamin_'
'Back_'
'Alright_'
'Alan_'
'Agent_'
'Ad'
'? -_'
'2년_'
'23_'
'1년_'
'1년'
'11_'
'., _'
' ♪ _'
'힌_'
'희망을_'
'흥분'
'흔들'
'휘'
'훔쳐'
'훌륭하'
'후회'
'회사의_'
'회사를_'
'환자의_'
'확보'
'확'
'호출'
'형제_'
'협력'
'협'
'헨리_'
'헌트_'
'해치'
'해주지_'
'해서요_'
'해보자_'
'해냈'
'해결'
'하라_'
'하는거_'
'하길_'
'하기로_'
'하겠지_'
'하겠어요_'
'필요없'
'피해자'
'피우'
'프라이'
'푹_'
'표시'
'폰'
'포기하'
'팔을_'
'파운드'
'파_'
'팅'
'팀'
'틴_'
'티_'
'트럭'
'통제'
'통_'
'탄_'
'키스'
'크리스마스'
'친절하'
'치워'
'춤추'
'축하'
'추적'
'촉'
'처리할_'
'책이_'
'채_'
'찾으'
'창고'
'쪽_'
'집니다_'
'질병'
'지원'
'증거'
'즉시_'
'줬어요_'
'중에서_'
'준다_'
'죽음의_'
'죽여'
'주소'
'좋아했'
'좋아'
'좋네요_'
'좋겠어요_'
'좋겠'
'좀비'
'존'
'족'
'조사를_'
'젤_'
'제안'
'제시_'
'정부는_'
'점은_'
'절단'
'전화하'
'전쟁을_'
'전쟁_'
'전까지_'
'적응'
'저에게_'
'저들이_'
'재밌는_'
'장이_'
'장난'
'잡히'
'잘하고_'
'잘라'
'작업을_'
'자원'
'자요_'
'자연'
'자들'
'자네를_'
'자네도_'
'있으니까요_'
'있단다_'
'있군요_'
'있고요_'
'입었'
'임무를_'
'임마_'
'잃'
'읽고_'
'일종의_'
'일부'
'일들이_'
'인생_'
'인걸_'
'인거'
'인간이_'
'이해할_'
'이해하'
'이잖아_'
'이었어요_'
'이래_'
'이것이_'
'의견을_'
'을까_'
'유_'
'윌'
'운명'
'우주'
'우선_'
'요원'
'왜'
'완벽하게_'
'옮기'
'온거야_'
'연구_'
'연결'
'여기선_'
'엎드려_'
'없으니_'
'없었죠_'
'없었던_'
'없소_'
'엄마의_'
'언제'
'언니'
'어울리'
'어머니'
'어딜_'
'얜_'
'얘기할_'
'약속_'
'약간_'
'애는_'
'압니다_'
'알았죠_'
'알았다_'
'알아보'
'않은데_'
'안전하게_'
'아이고_'
'아무래도_'
'아래로_'
'아들이'
'아닐까요_'
'아니잖아요_'
'아니예요_'
'아니었어요_'
'아기'
'쓰레기'
'싫'
'실을_'
'식물'
'식량'
'시킬_'
'시키고_'
'시켰'
'시체를_'
'시도'
'시네요_'
'시간이'
'스티브_'
'스탠'
'쉿_'
'숨어_'
'숨기'
'수있'
'손이_'
'손가락_'
'소문이_'
'션_'
'셔'
'셈이'
'세계'
'선택의_'
'서서_'
'생일_'
'생명을_'
'상황에_'
'상황'
'상당히_'
'삶이_'
'삶의_'
'살인'
'사회'
'사인'
'사무실'
'사를_'
'뿐인데_'
'뿐이지_'
'빠'
'빌_'
'비상'
'비록_'
'비는_'
'붙여'
'불을_'
'불쌍한_'
'부상'
'부분은_'
'부분'
'부리'
'봅니다_'
'볼게요_'
'볼게_'
'보라'
'보네_'
'보고하'
'벽을_'
'벨'
'벗어나'
'법_'
'버렸'
'뱀'
'배신'
'배리_'
'방에서_'
'발표'
'발이_'
'받아야_'
'받게_'
'바래_'
'믿는_'
'미안한데_'
'미스터_'
'뭐에요_'
'물이'
'물에_'
'묶'
'못한다_'
'몸에_'
'모르겠'
'몇몇_'
'몇'
'멋있'
'먹었'
'맞을_'
'맞는'
'망치'
'맛있는_'
'말했잖아_'
'말인지_'
'말로_'
'많지_'
'많은'
'만들지_'
'릴리'
'릭'
'리를_'
'록_'
'로요_'
'로스'
'량'
'랄'
'락'
'라인'
'띄'
'뛰'
'똑같이_'
'떨어지'
'때문이_'
'때리'
'따위_'
'들으면_'
'들어오'
'들려_'
'든가_'
'둥'
'되잖아_'
'되나요_'
'돼지'
'동생'
'도움'
'데려오'
'덩어리'
'더라고요_'
'댁'
'대화'
'대통령님_'
'대장'
'대위_'
'대를_'
'대기'
'대고_'
'당했'
'당한_'
'당하'
'당연하죠_'
'담배_'
'달아'
'다만_'
'니깐_'
'늦게_'
'늦'
'능력을_'
'는거'
'높이_'
'놈들은_'
'노는_'
'년이_'
'녀석이_'
'넣어_'
'너네_'
'낯선_'
'남편_'
'남았'
'나한테서_'
'나타났'
'끝난_'
'끝나면_'
'꽃'
'꺼지'
'기자'
'기다려요_'
'기관'
'그만'
'그래서요_'
'그들'
'균'
'굽'
'구했'
'관련_'
'공주'
'곳_'
'곰'
'골절'
'고생'
'고맙'
'고객'
'결정을_'
'겠네요_'
'검사를_'
'걱정하'
'거라면_'
'같은거'
'강아지'
'감히_'
'가치'
'가족이'
'가족들'
'가져오'
'가져다_'
'가르치'
'가로'
'가라고_'
'– _'
'zing_'
'zed_'
'yell_'
'ya'
'whi'
'west_'
'waste_'
'wa'
'village_'
'view_'
'ver'
'va'
'uni'
'un'
'type_'
'tube_'
'trained_'
'traffic_'
'track_'
'threw_'
'thi'
'tch_'
'taught_'
'su'
'student_'
'strike_'
'stealing_'
'stands_'
'soldiers_'
'slow_'
'si'
'shi'
'shh_'
'sees_'
'scrub_'
'sat_'
'risk_'
'ries_'
'ress_'
'repair_'
'ray_'
'raise_'
'ra_'
'quiet_'
'qui'
'pu'
'possibility_'
'picked_'
'partner_'
'paged_'
'ol_'
'og'
'officer_'
'oc'
'oa'
'notice_'
'note_'
'north_'
'noise_'
'no'
'nine_'
'ney_'
'natural_'
'mu'
'ments_'
'members_'
'mark_'
'major_'
'lots_'
'lord_'
'locked_'
'local_'
'len'
'lately_'
'keeps_'
'ka_'
'ju_'
'ji'
'ja'
'ise_'
'is'
'ir'
'ing'
'ideas_'
'hy'
'horses_'
'hoping_'
'hero_'
'he'
'hardly_'
'hadn_'
'guard_'
'grown_'
'gri'
'green_'
'g'
'fucked_'
'ft_'
'for'
'fellow_'
'favorite_'
'failed_'
'factory_'
'faces_'
'f'
'exciting_'
'except_'
'evidence_'
'ered_'
'energy_'
'ear'
'e'
'dreams_'
'doubt_'
'dist'
'difference_'
'destroyed_'
'dd'
'covered_'
'continues_'
'computer_'
'common_'
'club_'
'cla'
'character_'
'cars_'
'carry_'
'calls_'
'cake_'
'ca_'
'bucks_'
'bringing_'
'breath_'
'block_'
'blo'
'blank_'
'balance_'
'back'
'ba'
'awesome_'
'awake_'
'aw'
'arms_'
'area_'
'ar'
'animals_'
'animal_'
'afternoon_'
'admit_'
'ad'
'action_'
'Yep_'
'Ya'
'Washington_'
'Wan'
'Wa'
'Vo'
'United_'
'Un'
'Tu'
'State_'
'So'
'Sloan_'
'San'
'Sam_'
'ST'
'SE'
'Queen_'
'Probably_'
'Pro'
'Pre'
'Ohh_'
'OR_'
'Monday_'
'Mitchell_'
'LY_'
'Kate_'
'Ju'
'Hang_'
'Ha'
'Guess_'
'Fucking_'
'Find_'
'Fi'
'Fa'
'FA'
'Dude_'
'Doesn_'
'Do'
'Danny_'
'Dan'
'Congratulations_'
'Con'
'City_'
'Charlie_'
'Carl_'
'CIA'
'Bu'
'Bar'
'An'
'== _'
'80'
'60'
'23'
'22_'
'19'
'18'
'16_'
'16'
'100'
'... (_'
'. '
') - _'
' .._'
'효과가_'
'회사에_'
'회_'
'확신'
'혔'
'헬'
'헤어'
'행위'
'행복하게_'
'행복하'
'행동하'
'행동'
'했다'
'했나_'
'해지'
'해줄'
'해보고_'
'해고'
'해결해'
'학교'
'하시죠_'
'하며_'
'하나만_'
'하나가_'
'필요하다고_'
'필요도_'
'필요'
'핀_'
'표_'
'포장'
'편이'
'펴'
'펠'
'팬'
'팀을_'
'트롤'
'트레'
'투표'
'통신'
'토레스_'
'토레스'
'텐데요_'
'턱'
'퀸'
'콜_'
'커피'
'캠_'
'칭'
'친구야_'
'친구를_'
'치워_'
'치를_'
'춤을_'
'최근_'
'총에_'
'체크'
'찬_'
'찬'
'차는_'
'찍어'
'쪽에_'
'집중하'
'지에_'
'지어'
'지내고_'
'지구'
'중요하지_'
'중단'
'죽음을_'
'죽으면_'
'주인'
'주시'
'주셨'
'죄송하지만_'
'좋죠_'
'좋아한다_'
'좋다고_'
'종_'
'조심해요_'
'조니_'
'졌어요_'
'젠'
'제길_'
'제거하'
'젖'
'정해'
'정맥'
'접근'
'점이_'
'전화해서_'
'전체_'
'적이고_'
'저흰_'
'저녁'
'저기'
'장이'
'작품'
'작업'
'자살'
'자매'
'자리에_'
'자네'
'자기를_'
'잊'
'있으세요_'
'있었으면_'
'있었다면_'
'있어'
'있구나_'
'잃고_'
'읽'
'일인지_'
'일어날_'
'일들을_'
'일들'
'인형_'
'인이_'
'인생을_'
'인사_'
'이번'
'이리로_'
'이라'
'이네_'
'의지'
'의미가_'
'의무'
'음식'
'을요_'
'은행'
'으로서_'
'유혹'
'유명한_'
'위해서'
'웨'
'원하면_'
'웃기'
'우주_'
'용의자'
'왕자'
'왕이'
'왔었'
'왔다고_'
'왔는지_'
'옷'
'옮겨'
'올라가'
'오말리_'
'오랜_'
'오늘'
'오게_'
'영혼을_'
'였고_'
'열쇠'
'연락하'
'역할을_'
'역사'
'여자들이_'
'여왕'
'여동생'
'에이버리_'
'없으니까_'
'없어지'
'엄마랑_'
'언젠가_'
'언론'
'어찌_'
'어쩔'
'어릴_'
'어렸을_'
'어떻게요_'
'어떻게든_'
'어떤지_'
'얘는_'
'얘기도_'
'얘기가_'
'양이_'
'앨리슨_'
'앤'
'애야_'
'애기'
'알잖아요_'
'알려줘_'
'않지만_'
'않죠_'
'않잖아_'
'않았죠_'
'않나요_'
'앉으세요_'
'안전을_'
'안다_'
'안가'
'아이디어'
'아이구_'
'아버진_'
'아무한테도_'
'아멘_'
'아담'
'아닌'
'아니라'
'아니니까_'
'아니네_'
'아니겠지_'
'아기가_'
'쏟아'
'써야_'
'싶지만_'
'싶다면_'
'심장을_'
'실패'
'실제로_'
'실은_'
'실망'
'신부님_'
'신문'
'시험을_'
'시합'
'시절'
'시작했'
'시간이야_'
'스티'
'스터'
'스키'
'스카이'
'스럽'
'슈퍼'
'수술은_'
'수술실에_'
'수록_'
'손상'
'속으로_'
'소서_'
'셋'
'센'
'섹시하'
'세이'
'세워'
'세상이_'
'성이_'
'선택이'
'선택'
'선생_'
'선물_'
'생산'
'생기면_'
'생각해보'
'생각합니다_'
'생각할'
'색_'
'새끼가_'
'상처를_'
'상의_'
'상관없어요_'
'살이'
'살아있는_'
'살게_'
'사업'
'사무실에_'
'사랑은_'
'사람들'
'사건'
'빵_'
'빠진_'
'빠져나'
'빠른_'
'빅'
'비를_'
'븐'
'붙'
'분은_'
'부모님_'
'부모님'
'봐야'
'봉쇄'
'복수를_'
'보일_'
'보여줘_'
'보여줄_'
'보았다_'
'보았'
'보안'
'보드'
'보냈어요_'
'보내주'
'보내고_'
'보_'
'변화가_'
'베스'
'법률'
'번은_'
'번만_'
'번도_'
'버릴'
'버린_'
'배치'
'배가_'
'방법_'
'밤을_'
'밟'
'발전'
'발로_'
'발견하'
'받아들이'
'반갑습니다_'
'바퀴'
'바이'
'바르'
'바람을_'
'바라보'
'바꿔_'
'바꿀_'
'바꾸'
'바깥'
'민_'
'미래'
'미국의_'
'물었'
'물건_'
'물건'
'문제에_'
'무장'
'무슨일이_'
'무서워_'
'몰래_'
'목소리를_'
'목소리'
'모아'
'모릅니다_'
'모른다고_'
'모르잖아_'
'모르는'
'면을_'
'면서요_'
'먹어'
'맛있'
'맘'
'말했어_'
'말해줘요_'
'말해줄_'
'말해서_'
'말이오_'
'말에_'
'말씀드리'
'말씀'
'말만_'
'만을_'
'막아'
'마찬가지야_'
'마약_'
'마셔_'
'릿'
'릴리_'
'른_'
'루크_'
'루시'
'롭'
'롤'
'로니'
'령'
'려고요_'
'랬'
'람'
'띠'
'뛰어난_'
'똑같'
'떠날'
'땡'
'때부터_'
'때문이죠_'
'때나_'
'딘_'
'등록'
'들에_'
'들었는데_'
'들어온_'
'듣기_'
'듣기'
'뒤에서_'
'둘이서_'
'둔'
'됬'
'될지_'
'된'
'되요_'
'되는지_'
'되는거야_'
'되네_'
'되나_'
'됐죠_'
'동생이'
'동생을_'
'동물들'
'돌아오'
'돈이'
'도전'
'데이브_'
'데려갔'
'덥'
'던거_'
'더러운_'
'대학_'
'대하여_'
'대답하'
'대니_'
'당신은요_'
'닥치'
'다쳤'
'다리가_'
'다니까_'
'다녀'
'닝_'
'님'
'늦었어_'
'뉴스'
'누구죠_'
'농담이'
'놈아_'
'놀아'
'놀라'
'논'
'노출'
'노래'
'너처럼_'
'너나_'
'내에_'
'내말은_'
'내렸'
'남편은_'
'남자와_'
'남기'
'난다_'
'낚시'
'나을_'
'나에_'
'나아'
'나만_'
'나간_'
'꽃을_'
'껴'
'깔'
'까진_'
'까지는_'
'깊'
'길로_'
'기차'
'기어'
'기름'
'기도'
'그만해요_'
'그만하'
'그림'
'그런거_'
'그놈_'
'귀여운_'
'권_'
'궁금해_'
'궁'
'군대를_'
'군대'
'구해'
'교회'
'괜찮습니다_'
'광대'
'과거'
'공주님_'
'공개'
'곳'
'곤'
'고문'
'고기'
'경험'
'경찰은_'
'경쟁'
'경우'
'경계'
'격리'
'겨_'
'게임을_'
'건너'
'걱정하지_'
'거절'
'거였어_'
'거리_'
'거라고요_'
'같은'
'갔다'
'값'
'갑니다_'
'간단'
'가족은_'
'가져왔'
'가봐야_'
'가득_'
'zz'
'yn_'
'yl'
'yellow_'
'woods_'
'wondering_'
'willing_'
'weekend_'
'weak_'
'we'
'wash_'
'war'
'vote_'
'using_'
'uses_'
'ur_'
'upon_'
'up'
'unt'
'uc'
'ua'
'tur'
'tri'
'trapped_'
'tone_'
'tit'
'tions_'
'thousands_'
'theory_'
'terms_'
'tea_'
'tation_'
'target_'
'sync_'
'sy'
'survive_'
'surprised_'
'strength_'
'sisters_'
'severe_'
'several_'
'ses_'
'sco'
'safety_'
'sa'
'row_'
'returned_'
'raised_'
'r'
'push_'
'ps'
'prisoner_'
'prefer_'
'points_'
'pocket_'
'po'
'played_'
'pi'
'percent_'
'peace_'
'para'
'ow_'
'over'
'ori'
'onto_'
'ona'
'on'
'ome'
'ob'
'numbers_'
'nose_'
'ng'
'nerve_'
'neither_'
'needle_'
'nd'
'mistakes_'
'min'
'miles_'
'messed_'
'mercy_'
'mer'
'me'
'market_'
'mail_'
'loud_'
'll'
'lines_'
'lights_'
'ley_'
'lay_'
'laughs_'
'knife_'
'kitchen_'
'kick_'
'ju'
'je'
'ize_'
'it'
'invite_'
'impressed_'
'impossible_'
'id_'
'ici'
'hurts_'
'hotel_'
'hol'
'higher_'
'herself_'
'helping_'
'hel'
'heaven_'
'headed_'
'guilty_'
'gro'
'grand_'
'goods_'
'gold_'
'glass_'
'gen'
'ge'
'gate_'
'fro'
'fre'
'forgive_'
'followed_'
'flight_'
'feed_'
'faster_'
'families_'
'fa'
'especially_'
'enjoying_'
'earth_'
'dry_'
'driver_'
'dragged_'
'doo'
'dogs_'
'doctors_'
'disease_'
'dirty_'
'dating_'
'dancing_'
'crowd_'
'cross_'
'count_'
'cou'
'cord_'
'complicated_'
'col'
'co_'
'co'
'card_'
'car'
'cHBFFFFF_'
'breathe_'
'border_'
'blame_'
'bla'
'began_'
'beer_'
'bedroom_'
'became_'
'bar'
'badly_'
'available_'
'attitude_'
'arrived_'
'anger_'
'ami'
'allow_'
'all'
'advantage_'
'acting_'
'a'
'X'
'Woman_'
'While_'
'Va'
'Until_'
'Te'
'Talk_'
'TI'
'TH'
'Sunday_'
'Stark_'
'Sister_'
'Sighs_'
'SI'
'Ru'
'Ready_'
'Ray_'
'Professor_'
'Paul_'
'Patrick_'
'PA'
'OF_'
'No'
'NG_'
'Mommy_'
'Mine_'
'Mi'
'Mc'
'Majesty_'
'Ma_'
'MO'
'MA'
'Lu'
'Long_'
'Little_'
'Lisa_'
'Kim_'
'KNOW_'
'James_'
'Ja'
'IN'
'Holy_'
'Hit_'
'Harry_'
'French_'
'FBI'
'Enough_'
'Daniel_'
'Cu'
'Clara_'
'Big_'
'As'
'Anyway_'
'Anyone_'
'Absolutely_'
'Aah_'
'ALL_'
'AL'
'5년_'
'42'
'40'
'30분'
'2번_'
'21'
'13'
'10년_'
'.. '
'.'_'
'- ♪ _'
') '
'''
'! -_'
'! (_'
' ¶_'
'희망'
'희'
'흥'
'흔'
'흑인_'
'훈련'
'후보'
'환영'
'확실해요_'
'확실해_'
'확실하'
'확실'
'확신하'
'화해'
'화학'
'홀로_'
'혹'
'형태'
'형을_'
'형사_'
'혈액'
'혈관'
'행사'
'행복한_'
'행동이'
'했군_'
'해줘서_'
'해야'
'해리_'
'해리'
'해군'
'해결할_'
'합의'
'할머니가_'
'할머니_'
'할래_'
'할겁니다_'
'할거에요_'
'한테는_'
'한명'
'한대_'
'하이'
'하얀_'
'하실'
'하시는_'
'하셨어요_'
'하더군요_'
'하거든_'
'필요하다면_'
'피트_'
'피부'
'프로젝트'
'프로그램'
'프랑스_'
'포_'
'평가'
'편에_'
'페이지'
'페니'
'판단'
'파블로_'
'파괴'
'틴'
'티아나'
'트를_'
'트라'
'트가_'
'통과'
'텐'
'태어났'
'태도'
'탓이'
'탈_'
'탁'
'타는_'
'큼_'
'클로'
'퀴'
'커다란_'
'칼을_'
'카스'
'카라'
'침대에_'
'치프'
'측_'
'측'
'취소'
'충격'
'출입'
'축하하'
'최대_'
'쳐다보'
'첼'
'체계'
'청소'
'첩'
'처음이'
'챙겨_'
'책임'
'찾아서_'
'찰'
'차에서_'
'차려_'
'쫒'
'집도_'
'짐을_'
'질문이_'
'진심'
'직업'
'지에서_'
'지미_'
'지도자'
'지니'
'지냈어_'
'지금쯤_'
'지금도_'
'지금'
'지구_'
'지고_'
'증명하'
'증가'
'죽은'
'죽여야_'
'죽는'
'죽고_'
'주치의'
'주입'
'주의를_'
'주의'
'주위를_'
'주려고_'
'조언'
'조금도_'
'제자'
'정상'
'정보가_'
'정도는_'
'점심'
'절개'
'전에는_'
'전부터_'
'전달'
'저장'
'저도요_'
'잭슨_'
'잭'
'재판장님_'
'재판'
'장님'
'장기'
'장군님_'
'장군'
'잤'
'잡았어_'
'잖나_'
'작동'
'자체'
'자의_'
'자세'
'자백'
'자면_'
'자리_'
'자리'
'있을지_'
'있었네_'
'있었나요_'
'있어야'
'있다고요_'
'있는거_'
'입을_'
'입으'
'임무'
'일의_'
'일요일'
'일까_'
'인정해_'
'인정하'
'인생은_'
'인상'
'이해했'
'이쪽_'
'이지'
'이제야_'
'이전에_'
'이유_'
'이용'
'이시'
'이상해_'
'이상하'
'이름으로_'
'이름'
'의원'
'을지_'
'은하'
'율'
'윌슨_'
'위험하'
'위험을_'
'위해선_'
'위치'
'위장'
'웨버'
'월_'
'움직이면_'
'운전_'
'우유'
'우와_'
'우리와_'
'요청하'
'요구'
'외과_'
'왔던_'
'왔다'
'완벽하'
'완료_'
'옵니다_'
'올려'
'오후_'
'오케이_'
'오웬'
'오시'
'오빠가_'
'오래된_'
'오는'
'옛_'
'예전에_'
'영국'
'였습니다_'
'열쇠를_'
'열쇠_'
'연락을_'
'연관'
'연_'
'여행'
'여자의_'
'여자애'
'여성_'
'여섯_'
'여러분의_'
'엘리엇_'
'에어'
'었습니다_'
'얼음'
'얼간이'
'얻고_'
'언니는_'
'어째서_'
'어로_'
'어떻'
'어두운_'
'얘가_'
'야만_'
'암_'
'알면_'
'알라'
'알다시피_'
'않을까_'
'않을거에요_'
'않으'
'않았지만_'
'않았을_'
'않아서_'
'않아도_'
'않도록_'
'않네_'
'안전하지_'
'안아'
'안내'
'안그'
'아이들_'
'아시잖아요_'
'아빠한테_'
'아들'
'아닌가요_'
'아니라면_'
'아내는_'
'아내_'
'아까'
'쏴'
'썼다_'
'썼'
'싶어하는_'
'싶어'
'싶군요_'
'심하'
'심장_'
'심리'
'심_'
'싫어하'
'실험'
'실종'
'신호를_'
'시장'
'시작했어_'
'시작한_'
'시에_'
'시는_'
'시는'
'시기'
'슬론_'
'스토'
'숫자'
'순간'
'숙여_'
'수수께끼'
'쇼를_'
'소년'
'셨어_'
'셨습니다_'
'섹스_'
'세우'
'세계를_'
'설치'
'선거'
'서야_'
'생물'
'생겼어_'
'생각했어_'
'생각했는데_'
'생각했'
'생각이야_'
'생각나'
'상태로_'
'상을_'
'상승'
'상상도_'
'상담'
'샀'
'삶은_'
'사촌'
'사진이'
'사진들'
'사진'
'사방에_'
'사무실에서_'
'사랑의_'
'사람이라'
'사라졌어_'
'사고_'
'사건이_'
'사건은_'
'뿔'
'뿐입니다_'
'뿐이다_'
'뿌리'
'뼈'
'뻔했'
'뺏'
'빨리'
'빠졌'
'빌딩'
'비행기_'
'비행기'
'비어'
'비밀로_'
'블랙'
'붕'
'불이_'
'불에_'
'불안'
'부하'
'부모'
'부르는_'
'부대'
'뵈'
'봐서_'
'보험'
'보스_'
'보려고_'
'보기_'
'보고싶'
'보겠'
'병원'
'별로'
'변화'
'변호사_'
'변명'
'베이'
'베_'
'벗겨'
'법정에서_'
'벌어'
'밴드'
'방을_'
'방으로_'
'발견'
'반응'
'반은_'
'반가웠어요_'
'밖'
'박사'
'바랐'
'바란다_'
'바라는_'
'바닥에_'
'바다'
'바뀌'
'밀어'
'미터'
'미안하다_'
'미안하'
'미래를_'
'뭐해_'
'뭐든지_'
'물어'
'묻'
'문자를_'
'무사'
'무_'
'못할'
'못하는_'
'못하게_'
'몰고_'
'모자를_'
'모자_'
'모욕'
'모르겠네_'
'모두'
'명도_'
'멍청이'
'멈춰요_'
'멈출_'
'먹게_'
'머_'
'맹세'
'맥주_'
'맥주'
'맡기'
'맞춰_'
'맞추'
'맞은_'
'맞았'
'말했지_'
'말했잖아요_'
'말한'
'말하는거야_'
'말라_'
'말고요_'
'만들었어_'
'만나는_'
'만나게_'
'마저_'
'마이크'
'마이'
'마십시오_'
'마셨'
'마리_'
'림_'
'리아'
'리스'
'루시퍼_'
'로도_'
'렸다_'
'력이_'
'렐'
'렉시_'
'레드_'
'랩'
'랑은_'
'뜻'
'뚝'
'떨어진_'
'떨어지고_'
'떠났'
'떠난_'
'때문이지_'
'때문이다_'
'때문에요_'
'때려'
'때때로_'
'땅을_'
'땀'
'딴'
'딱'
'들었지_'
'들어와서_'
'들어올_'
'들어라_'
'들어가면_'
'들로_'
'들려요_'
'듣는_'
'드릴게요_'
'될거'
'되세요_'
'돼'
'돌아갈_'
'돌아가서_'
'돌아가는_'
'돌보'
'돋'
'도시의_'
'도박'
'도둑'
'데이터를_'
'데릭'
'데로_'
'덤'
'던지'
'던가요_'
'대하'
'대통령_'
'대상'
'대사'
'대비'
'대부분_'
'대로'
'대답해'
'대단하'
'대가_'
'닿'
'당신들이_'
'당신들의_'
'담당자'
'닮았'
'다치'
'다물어_'
'다녔'
'다가'
'님의_'
'능력'
'늙은_'
'늙'
'는거죠_'
'느니_'
'느끼고_'
'느꼈다_'
'누워_'
'누구에게도_'
'누구든_'
'놈들을_'
'놀이'
'놀랍'
'놀고_'
'노아_'
'넬'
'네이'
'넣었'
'넘어'
'너보다_'
'냄새_'
'냄새'
'내려놔_'
'내는_'
'남편이'
'남자친구'
'남을_'
'남겼'
'남겨'
'날을_'
'날리'
'난리'
'나이트'
'나이가_'
'나이_'
'나와'
'나갈'
'나가면_'
'끼리_'
'끝에_'
'끌어'
'꿈이'
'꿈_'
'꼼짝_'
'꼴을_'
'껏_'
'까지'
'까봐_'
'길래_'
'긴장_'
'기업'
'기억하지_'
'기억나'
'기분'
'기꺼이_'
'기간'
'금을_'
'그에_'
'그분'
'그린_'
'그려'
'그럴거'
'그라'
'그때'
'그딴_'
'그걸로_'
'귀엽'
'권력'
'굿'
'군이_'
'국장'
'구경'
'교육'
'교수님_'
'괜찮을거야_'
'괜찮으'
'괜찮았'
'관심을_'
'관_'
'과의_'
'공장'
'곡_'
'고하'
'고있어_'
'고양이_'
'고맙네_'
'고는_'
'고객들'
'계셨'
'계_'
'결과'
'견딜_'
'견디'
'견뎌'
'겐'
'게임_'
'게이_'
'검을_'
'검은_'
'걸릴_'
'걸린_'
'건배_'
'건데요_'
'거짓말이'
'거짓말'
'거리는_'
'거래_'
'거라'
'개인적인_'
'갚'
'같아서_'
'강한_'
'강요'
'감염'
'감각이_'
'간다고_'
'가져가_'
'가져_'
'가정'
'가자고_'
'가자'
'가입'
'가야지_'
'가슴에_'
'가슴'
'가방_'
'가르'
'가라_'
'가까운_'
'가기_'
'가격'
'가겠'
'가가_'
'♪ ♪_'
'yo_'
'xi'
'ws_'
'wrote_'
'written_'
'writer_'
'whose_'
'whoa_'
'w'
'video_'
'victims_'
'valve_'
'v'
'uns'
'uniform_'
'ts'
'trick_'
'trees_'
'tra'
'total_'
'tor_'
'tons_'
'thoughts_'
'ther'
'tests_'
'tain'
'ta'
'symptoms_'
'sweetie_'
'surgeons_'
'super'
'summer_'
'sub'
'style_'
'stood_'
'stole_'
'split_'
'sp'
'soft_'
'so'
'slowly_'
'size_'
'sit'
'sight_'
'shirt_'
'shine_'
'sheets_'
'serve_'
'ser'
'sel'
'screwed_'
'science_'
'scare_'
'sal'
'sake_'
'sa_'
'ry'
'ru'
'rooms_'
'romantic_'
'rit'
'rig'
'rid_'
'ret'
'restaurant_'
'research_'
'remove_'
'records_'
'rd'
'ran'
'qua'
'project_'
'private_'
'princess_'
'pri'
'por'
'pleased_'
'ple'
'player_'
'pit'
'pen_'
'pe_'
'paying_'
'par'
'pack_'
'owe_'
'out'
'ours_'
'ou'
'opening_'
'ol'
'nurses_'
'nu'
'nta'
'ning_'
'nights_'
'named_'
'mus'
'mp'
'mood_'
'mile_'
'memory_'
'master_'
'man'
'mama_'
'mai'
'loss_'
'lock_'
'lin'
'lift_'
'lawyer_'
'ladies_'
'ky_'
'knowledge_'
'kiss_'
'kinds_'
'kills_'
'kicked_'
'jealous_'
'involved_'
'interesting_'
'inter'
'injured_'
'inf'
'inc'
'ie'
'hundred_'
'honor_'
'holiday_'
'hired_'
'hill_'
'helped_'
'hat_'
'hal'
'guests_'
'greatest_'
'gre'
'grateful_'
'goddamn_'
'ght_'
'games_'
'gain_'
'ft'
'fruit_'
'freaking_'
'foreign_'
'flying_'
'fla'
'fate_'
'falling_'
'facing_'
'expected_'
'examination_'
'et'
'est'
'equipment_'
'epi'
'eo'
'engine_'
'eggs_'
'ef'
'eas'
'divorce_'
'disc'
'dis'
'din'
'di'
'designed_'
'des_'
'den_'
'den'
'dam'
'd'
'cutting_'
'cup_'
'cry_'
'cru'
'cro'
'critical_'
'corrected_'
'conce'
'clinic_'
'clamp_'
'ci'
'ching_'
'chicken_'
'cha'
'ch'
'ces_'
'center_'
'cells_'
'cc'
'carefully_'
'candy_'
'cal_'
'burning_'
'breaks_'
'book'
'bin'
'bi'
'ber'
'belt_'
'beginning_'
'begin_'
'battle_'
'bastard_'
'ay_'
'avoid_'
'ass'
'as'
'appears_'
'ama'
'agreed_'
'agent_'
'access_'
'ac'
'Yu'
'York_'
'Yo_'
'Wi'
'We'
'WI'
'Valentine_'
'Uncle_'
'UN'
'Tri'
'THIS_'
'Steve_'
'States_'
'St_'
'Slow_'
'Six_'
'Sha'
'Saturday_'
'ST_'
'SP'
'Ross_'
'Pe'
'Owen_'
'Ou'
'NOT_'
'NE'
'Murphy_'
'Me'
'Many_'
'Malley_'
'Mac'
'MI'
'ME_'
'Loki_'
'Kepner_'
'Ka'
'Instead_'
'Hu'
'Half_'
'HA'
'Grand'
'Grab_'
'Gasps_'
'Follow_'
'Fe'
'Except_'
'Exactly_'
'Enjoy_'
'En'
'ES_'
'Door_'
'Detective_'
'Day_'
'Dave_'
'Commander_'
'Clark_'
'Cla'
'Cheers_'
'Che'
'Cap'
'CA'
'Beth_'
'Believe_'
'Barry_'
'Baby_'
'Aye_'
'Ay_'
'Arizona_'
'Aren_'
'Anything_'
'Anna_'
'40_'
'3번_'
'300'
'22'
'200_'
'15분_'
'. ♪_'
'. '_'
'- - _'
'$ _'
' *_'
'힘든'
'희생자의_'
'흘러'
'흘'
'훔쳤'
'효과'
'회장'
'회사에서_'
'회사'
'확인해'
'확실한_'
'화나'
'혼란'
'호흡'
'혜'
'현장에_'
'헬렌_'
'헨리'
'허락'
'행_'
'했으니까_'
'핵'
'해킹'
'해주고_'
'해외_'
'해야겠어_'
'해봐요_'
'해방'
'해드'
'해낼_'
'해결해야_'
'항해'
'함은_'
'함선'
'할지도_'
'한테서_'
'한시간'
'한달'
'한단_'
'한다는'
'한다'
'한건_'
'한거_'
'한가'
'학생'
'학_'
'하다고_'
'하는'
'하느님_'
'하나를_'
'하기'
'하겠어_'
'필요한'
'필요하면_'
'필요하다_'
'피하'
'피곤하'
'플_'
'프란시스'
'품이'
'품을_'
'풀_'
'폭력'
'포기하지_'
'편을_'
'페인'
'펄'
'팔려'
'판을_'
'파악'
'파리'
'파괴하'
'통하'
'털_'
'터를_'
'태워_'
'탐정'
'탄이_'
'타라'
'킬_'
'키모'
'키는_'
'클라라_'
'크래'
'크라'
'켰'
'켓'
'케이트_'
'커서_'
'캠'
'캐롤_'
'침입'
'침실'
'침대_'
'친구들을_'
'친구들은_'
'치료법'
'치가_'
'췄'
'충분하'
'충고'
'춤_'
'출_'
'축하해_'
'추억'
'촬영_'
'쳤다_'
'천재'
'척하'
'챙겨'
'책임자'
'책임이_'
'찾지_'
'찾아야'
'찾아보'
'창조'
'창문'
'참이'
'찰리_'
'착륙'
'차이'
'찌'
'쯤은_'
'쪽에서_'
'짖고_'
'집에'
'질문_'
'진짜야_'
'진정하'
'진정'
'진단'
'지키는_'
'지의_'
'지은_'
'지었'
'지방'
'지문'
'지금부터_'
'즐'
'줬지_'
'중이지_'
'중이었'
'중력'
'중독자'
'줄리'
'줄게요_'
'죽일'
'죽이려고_'
'죽어'
'죽겠지_'
'주차'
'주여_'
'주실래요_'
'주셔서_'
'주문을_'
'주목'
'주겠'
'죄송'
'좋다'
'종종_'
'좀'
'존스_'
'조차도_'
'조지가_'
'조이_'
'조심하'
'조심_'
'조사해'
'조사하'
'조사'
'조니'
'조금씩_'
'조가_'
'제안을_'
'제시'
'정찰'
'정신적_'
'정말이지_'
'정리'
'정도의_'
'접수'
'점에_'
'젊은이'
'전화번호'
'전하'
'전력'
'전기'
'적을_'
'저희'
'저러'
'저들'
'저기서_'
'쟤는_'
'쟤_'
'재밌어_'
'재미_'
'재료'
'잘했다_'
'잘했'
'자에'
'자신에게_'
'자신_'
'자식들'
'자비'
'자르'
'자라'
'자동차'
'자도_'
'자금'
'잉'
'있대요_'
'있다가_'
'있는거'
'입장'
'입술'
'임을_'
'잃어버렸'
'일할_'
'일한_'
'일지도_'
'일주일_'
'일주일'
'일이라고_'
'일어나고_'
'일곱_'
'인형'
'인터뷰'
'인의_'
'인은_'
'인생이_'
'이해를_'
'이틀'
'이쪽은_'
'이제는_'
'이제'
'이용할_'
'이안_'
'이번에는_'
'이름이'
'이루어'
'이론'
'이동'
'이니까_'
'이는_'
'이네요_'
'이군요_'
'이군_'
'의심을_'
'응급실'
'음식은_'
'음식_'
'은거'
'으려고_'
'유감이'
'위협'
'위험해_'
'위해서는_'
'위를_'
'웰'
'원해요_'
'원한다_'
'원이'
'워싱턴_'
'울지_'
'울리'
'운전'
'운명을_'
'우스'
'용기를_'
'왼쪽으로_'
'왕이_'
'완성'
'와요_'
'와는_'
'옷장_'
'올려_'
'올라'
'온갖_'
'오르'
'오늘밤_'
'오기'
'옛날에_'
'예정'
'예전_'
'예전'
'옆에서_'
'영화를_'
'영_'
'였던_'
'열정'
'열이_'
'열어요_'
'연습'
'연락_'
'역을_'
'여덟_'
'여기야_'
'여기를_'
'엔진_'
'에스코바'
'에서요_'
'에디'
'에드'
'엉망이'
'없을'
'없었습니다_'
'없다고요_'
'없는'
'없나_'
'없거든_'
'업자'
'언제든지_'
'언급'
'어쩌고_'
'어제'
'어울리는_'
'어야'
'어떨까_'
'어떤'
'어떡해요_'
'어디지_'
'어디있'
'어깨'
'얭_'
'약해'
'약이_'
'약속했'
'앨범'
'애도'
'앙'
'압력'
'알렉스가_'
'알거야_'
'않을거'
'않았지_'
'않았습니다_'
'않았는데_'
'않다면_'
'않다는_'
'않는다'
'않고'
'앉아'
'안을_'
'안되요_'
'안됐'
'악한_'
'아파트'
'아주머니_'
'아저씨가_'
'아빤_'
'아무튼_'
'아무런_'
'아들아_'
'아드님'
'아닌데요_'
'아니라고요_'
'아가야_'
'씌'
'쐈'
'쏠_'
'쏜_'
'썩'
'써보'
'쌍'
'싸움'
'싶었어요_'
'싶었어_'
'싶었는데_'
'싶다고_'
'심한_'
'심하게_'
'심장이_'
'실제'
'실례해요_'
'신청'
'신사_'
'신뢰'
'식사_'
'시킬'
'시킨_'
'시작됐'
'시아'
'시신'
'시스템을_'
'시민'
'시리'
'시간에_'
'시간과_'
'승인'
'습니다만_'
'슬퍼'
'슨이'
'스펜서_'
'스타크'
'스키_'
'스크'
'스의_'
'스위'
'스런_'
'쉬운_'
'쉬고_'
'숨어'
'순간이_'
'숙녀'
'수행'
'수상'
'수도'
'수고'
'손님_'
'속도_'
'소피'
'소식이'
'소식은_'
'소식'
'소릴_'
'소녀'
'소개해'
'셰'
'셨지_'
'셔도_'
'세지'
'세스_'
'세상의_'
'성적'
'성에_'
'설_'
'서명'
'서류를_'
'서류'
'샤워'
'샤_'
'생활을_'
'생긴_'
'생긴'
'생각했죠_'
'생각해'
'샘플'
'색이_'
'새끼'
'상황이'
'상하'
'상이'
'상관없'
'삼촌_'
'살해_'
'살인자'
'살면서_'
'사람이다_'
'사람으로_'
'사라지'
'사라졌어요_'
'사라_'
'사라'
'사내'
'사귀'
'사고를_'
'사고가_'
'사고'
'삐'
'뿐만_'
'빼앗'
'빵을_'
'빠져나가'
'빚'
'빌리_'
'빌리'
'비행기를_'
'비스'
'비밀은_'
'블레이'
'브라이언_'
'브라'
'불행'
'불리'
'분의_'
'분을_'
'부정'
'부분을_'
'부모님이_'
'부로_'
'봤다고_'
'봐야지_'
'복잡한_'
'복수'
'복_'
'보호자'
'보인다_'
'보였'
'보여줬'
'보여주'
'보여'
'보스'
'보석'
'보려'
'보니까_'
'보기'
'보관'
'별을_'
'벼'
'벨리'
'베일리가_'
'법이'
'범죄를_'
'범인'
'번이'
'버전'
'버리지_'
'버렸어_'
'백_'
'배달'
'방이_'
'방이'
'방어'
'방송_'
'밤새_'
'밝혔다_'
'밝'
'발작'
'받을'
'받아요_'
'반지'
'반복'
'바스'
'바람이_'
'바람에_'
'밀어_'
'미쳤'
'미쳐'
'미국'
'믄_'
'뭘'
'뭐였'
'뭐에_'
'뭉'
'물러나_'
'문은_'
'무언가를_'
'무시'
'무섭'
'무기_'
'몽'
'못한다면_'
'못하면_'
'몰려'
'몫'
'목이_'
'목소리가_'
'모이'
'모여_'
'모스'
'모른다_'
'모르겠는데_'
'모래_'
'명은_'
'명단'
'멜'
'멋져요_'
'먹히'
'먹기_'
'맺'
'매장'
'매니'
'맛이_'
'맘대로_'
'말해주지_'
'말하는'
'말하기_'
'말하기'
'말씀하'
'말게_'
'많았'
'많아요_'
'만족'
'만져'
'만들어서_'
'만났어_'
'만난'
'만나기로_'
'마일'
'마음대로_'
'마을'
'마실'
'마비'
'마법의_'
'마냥_'
'립_'
'릭_'
'리기_'
'류_'
'루시어스'
'루_'
'료를_'
'로군_'
'령_'
'레스'
'레드'
'레_'
'렀'
'런던에_'
'램'
'람_'
'라니까_'
'뜻은_'
'똑똑한_'
'똑똑하'
'또'
'떨어졌다_'
'떨어져'
'떠나는_'
'때였'
'땅에_'
'따지'
'따라'
'디아'
'디스'
'들으'
'들여'
'들어주'
'들면_'
'들게_'
'듣지_'
'든요_'
'드리고_'
'드려요_'
'드레스_'
'드가_'
'듀'
'뒤져'
'둘이'
'두분'
'두번째_'
'두려워_'
'두개'
'될거에요_'
'된다'
'된거'
'되잖아요_'
'되는거'
'되게_'
'돼지_'
'동의했'
'동안'
'돕는_'
'돕고_'
'돌아와서_'
'돌아온_'
'돌아오지_'
'돈도_'
'도착하면_'
'도착하'
'도우'
'도와줄게_'
'도시'
'도리_'
'도로_'
'덴'
'데이트를_'
'데이빗_'
'데리러_'
'데려다'
'데다_'
'덮'
'던지_'
'더라도_'
'댈_'
'댄_'
'대회'
'대학'
'대접'
'대신에_'
'대변'
'대령'
'당해'
'당장은_'
'담배를_'
'달을_'
'달리_'
'달렸'
'달려'
'단체'
'단어'
'닥'
'다하'
'다시'
'다리_'
'다르게_'
'다는'
'다구_'
'님을_'
'능'
'느낌'
'느껴지'
'느껴'
'누군가는_'
'누군'
'누구나_'
'놔'
'놓치지_'
'놓은_'
'놓아'
'농담_'
'농담'
'놈'
'놀라운_'
'노예'
'노력해'
'년을_'
'녀석을_'
'넷_'
'넷'
'넣고_'
'넘어졌'
'너에_'
'냈어_'
'냈다_'
'냅'
'내용은_'
'내야_'
'내로_'
'낳'
'낭비'
'낭'
'났어_'
'남자친구_'
'남아있'
'날씨가_'
'날개를_'
'나한텐_'
'나타날_'
'나와서_'
'나쁘지_'
'나보다_'
'나무'
'나라를_'
'나갔어요_'
'나가야_'
'끝이_'
'끝내주는_'
'끝날_'
'끌'
'끊었'
'꿇'
'꽂'
'꼬마'
'껍'
'깜'
'깃'
'기지'
'기절'
'기적이'
'기억을_'
'기술을_'
'기사_'
'기뻐_'
'기록을_'
'기라도_'
'기대하'
'기다리는_'
'금_'
'긁'
'근무'
'근거'
'극장'
'그자'
'그만두'
'그리고는_'
'그려_'
'그레이스_'
'그럴게요_'
'그런거'
'그러셨'
'그랬으면_'
'그땐_'
'그놈'
'그것에_'
'그것보다_'
'귀찮게_'
'귀여워'
'권리'
'구해주'
'관찰'
'관심'
'관련이_'
'과장님이_'
'공포'
'공격하'
'공간'
'골랐'
'골라'
'고통'
'고작_'
'고아'
'고려'
'고기_'
'계약'
'경찰에_'
'경기_'
'경관'
'경_'
'결혼식_'
'결정했다_'
'겠군요_'
'것들은_'
'걸어서_'
'걸렸어_'
'걱정마_'
'거에_'
'거라도_'
'거라는_'
'거네요_'
'거기가_'
'같지만_'
'같이'
'강하'
'강도'
'감정이_'
'감정을_'
'감사'
'간단한_'
'간다'
'가져왔어_'
'가슴을_'
'가만_'
'가득'
'가끔은_'
'♬ _'
'z'
'yard_'
'wow_'
'wing_'
'warning_'
'ving_'
'victim_'
'va_'
'ut'
'ured_'
'ura'
'upstairs_'
'und'
'unc'
'ug'
'ud'
'turning_'
'truck_'
'tru'
'trial_'
'ton'
'tle'
'tiger_'
'tied_'
'third_'
'thieves_'
'teeth_'
'taste_'
'surgeries_'
'supplies_'
'suffered_'
'suck_'
'sts_'
'stroke_'
'stops_'
'stone_'
'stomach_'
'sto'
'staying_'
'starts_'
'stairs_'
'squa'
'spy_'
'souls_'
'soldier_'
'sla'
'signs_'
'sighs_'
'shows_'
'shower_'
'served_'
'scr'
'schedule_'
'san'
'salesman_'
'sacrifice_'
'run'
'rules_'
'rude_'
'rough_'
'rot'
'roof_'
'roads_'
'ro'
'risks_'
'ridiculous_'
'ric'
'ri_'
'remains_'
'remain_'
'religion_'
'reli'
'regret_'
'red'
'reach_'
'queen_'
'pulse_'
'pti'
'pt_'
'prove_'
'protocol_'
'pretending_'
'pres'
'prepared_'
'potential_'
'population_'
'pop_'
'places_'
'pin'
'pic'
'piano_'
'personally_'
'per'
'path_'
'pat'
'parts_'
'parking_'
'package_'
'p'
'owner_'
'ordinary_'
'opened_'
'older_'
'oil_'
'od'
'nuts_'
'novel_'
'non_'
'nightmare_'
'net'
'nes_'
'necessary_'
'nation_'
'naked_'
'movies_'
'movie_'
'mon_'
'mon'
'mommy_'
'mmy_'
'mme'
'miserable_'
'mirror_'
'mil'
'mi_'
'metal_'
'meds_'
'mb'
'mal'
'maid_'
'loving_'
'lor'
'lonely_'
'log'
'lifetime_'
'library_'
'liar_'
'li'
'learning_'
'lea'
'latest_'
'las'
'lar'
'knee_'
'kins_'
'kidney_'
'kel'
'ke'
'jobs_'
'jacket_'
'iss'
'introduce_'
'internal_'
'injuries_'
'ine'
'ile'
'ied_'
'ic'
'hunting_'
'her'
'heat_'
'hearing_'
'healthy_'
'health_'
'hat'
'harder_'
'happiness_'
'hanging_'
'hand'
'growing_'
'gosh_'
'giant_'
'gas'
'fuckin_'
'freak_'
'fort'
'font_'
'focus_'
'flowers_'
'fli'
'flesh_'
'fle'
'fired_'
'fingers_'
'fill_'
'file_'
'figured_'
'feelings_'
'fe'
'faith_'
'failure_'
'express_'
'exp'
'exchange_'
'exc'
'example_'
'exam_'
'ex_'
'event_'
'es'
'ert'
'ents_'
'entered_'
'enter_'
'enemies_'
'ends_'
'ended_'
'emp'
'emergency_'
'eli'
'elderman_'
'el'
'ei'
'eating_'
'easier_'
'dollar_'
'discovered_'
'direction_'
'direct_'
'desk_'
'dep'
'demand_'
'dece'
'dawn_'
'cy_'
'cus'
'cure_'
'crew_'
'cost_'
'correct_'
'cor'
'continue_'
'cont'
'consider_'
'comm'
'closes_'
'closed_'
'climb_'
'claim_'
'ck'
'circumstances_'
'cing_'
'chose_'
'ches_'
'cheese_'
'cha_'
'cell'
'caused_'
'cases_'
'cares_'
'career_'
'cards_'
'ca'
'button_'
'bur'
'bunch_'
'bullet_'
'bright_'
'bri'
'bread_'
'bottle_'
'bones_'
'bone_'
'blew_'
'bill_'
'biggest_'
'bet'
'bes'
'belong_'
'begging_'
'becomes_'
'bathroom_'
'bal'
'bags_'
'awkward_'
'attending_'
'aside_'
'arr'
'ari'
'ard_'
'apart_'
'anti'
'ant'
'ano'
'ann'
'ane'
'an'
'alarm_'
'ages_'
'address_'
'ad_'
'You'
'Win'
'Webber_'
'Way_'
'Warren_'
'Val'
'VI'
'Use_'
'Unless_'
'Tru'
'Thomas_'
'Ten_'
'Tar'
'Tal'
'TV'
'TA'
'Sun_'
'Stiles_'
'Sit_'
'Sink_'
'Sim'
'Sho'
'Shi'
'She'
'Sc'
'SO'
'SIGHS_'
'Robbins_'
'Res'
'Re'
'RA'
'Que'
'Pu'
'Princess_'
'PD_'
'Or'
'Nor'
'Ni'
'NA'
'Mum_'
'Morning_'
'Mon'
'Michael_'
'Men'
'Mag'
'MY_'
'Lin'
'Laughs_'
'LO'
'LING_'
'Korea_'
'Ko'
'Ke'
'Katniss_'
'Ji'
'Jer'
'Ins'
'II_'
'Her'
'He'
'Hard_'
'HAVE_'
'Gro'
'Goodbye_'
'German_'
'Friday_'
'Fre'
'Fire_'
'Emily_'
'Easy_'
'Each_'
'Dunphy_'
'Drop_'
'Dear_'
'De'
'Da'
'DO_'
'DO'
'DA'
'Cro'
'Cra'
'Colombia_'
'Col'
'Ci'
'Chi'
'Cal'
'Ca'
'CT'
'CIA_'
'CHUCKLES_'
'CE'
'Bush_'
'Bri'
'Boy_'
'Bon'
'Bill_'
'Bi'
'Being_'
'BE'
'BA'
'Awesome_'
'Ask_'
'Army_'
'Apparently_'
'Americans_'
'Am_'
'Also_'
'Air_'
'Ab'
'AT'
'70'
'60_'
'54'
'500'
'45_'
'3년'
'36'
'27'
'24시간_'
'195'
'13_'
'120'
'... ._'
'... . _'
'. [ _'
'- '
', '
''._'
'', _'
'$_'
'" "_'
' ?._'
' = #_'
' ,_'
'힘들_'
'흠'
'흘리'
'흔적'
'흑'
'흉터'
'휴가'
'훔친_'
'훔치'
'후로_'
'회의에_'
'회수'
'회사가_'
'환영합니다_'
'확인하고_'
'확실하게_'
'화장'
'화성'
'홍'
'홈즈'
'홈'
'호텔에_'
'호텔'
'호주'
'형사'
'협박하'
'헤일리'
'헐'
'허락하지_'
'허_'
'향한_'
'행복'
'했으면_'
'했는데요_'
'했나요_'
'했거든요_'
'했거든_'
'햇'
'핸드'
'해왔'
'해야돼_'
'해서는_'
'해볼까_'
'해본_'
'해내'
'해가_'
'항공'
'합법'
'함이_'
'할아버지가_'
'할아버지_'
'할머니'
'한지_'
'한번만_'
'한게_'
'하지도_'
'하셔야_'
'하루만_'
'하던'
'하더니_'
'하다니_'
'하다'
'하늘을_'
'하는거죠_'
'하고'
'하겠소_'
'하겠네_'
'하거나_'
'필요했'
'필수'
'플레이'
'프린'
'품은_'
'품에_'
'폭탄을_'
'폭탄'
'폐하_'
'펼'
'팔에_'
'팔았'
'팔아'
'팔렸'
'파티가_'
'파트너_'
'파이'
'팀장'
'팀이'
'팀에_'
'트로'
'튀'
'투자'
'투여'
'통화'
'통과시'
'톰'
'톤'
'토르'
'토론'
'토끼'
'테이'
'테니까요_'
'테고_'
'테_'
'털어'
'태워'
'태어나'
'태아'
'탑'
'타면_'
'킴'
'킬'
'킨_'
'키스_'
'클라'
'크림_'
'크로'
'콩'
'코드_'
'케_'
'컴퓨터를_'
'컴퓨터'
'컬'
'커녕_'
'커_'
'캘리'
'캐시_'
'침묵'
'침대'
'친절'
'친다'
'친구에게_'
'친구들'
'치즈'
'치면_'
'층'
'측의_'
'취했'
'취하'
'취급'
'출동'
'추측'
'추가_'
'최후'
'최악이'
'총이_'
'총은_'
'총알'
'촌'
'천사_'
'처럼요_'
'책임을_'
'책이'
'책상에_'
'책상'
'채워'
'찾아왔'
'창문_'
'창녀'
'창_'
'참석'
'찰스_'
'차이가_'
'차별'
'차리'
'차로_'
'찔'
'찍었'
'쪼'
'짝_'
'짝'
'짓은_'
'질문이'
'질문에_'
'진정하세요_'
'진술'
'직장'
'지하'
'지점'
'지적'
'지않'
'지시'
'지면_'
'지내_'
'지났'
'지난번에_'
'지나_'
'지금이_'
'지금껏_'
'지구의_'
'지게_'
'증인'
'증거를_'
'증거가_'
'즐거웠'
'쥬'
'줬으면_'
'중지_'
'중이다_'
'중요한'
'중계'
'줄래요_'
'준비했'
'준비됐'
'준다'
'죽음에_'
'죽을'
'죽었다_'
'죽어요_'
'죽기'
'죽겠'
'주제에_'
'주의자'
'주변의_'
'주변_'
'주문'
'주마_'
'주님의_'
'좋을거야_'
'좋아하잖아_'
'좋아하고_'
'좋아졌'
'좋군_'
'좋겠네요_'
'좆'
'종이_'
'종양_'
'졸업'
'졸라'
'존스'
'조정'
'조이'
'조언을_'
'조심해야_'
'조심해'
'제품'
'제작'
'제를_'
'제도'
'제거'
'정확하게_'
'정했'
'정하'
'정지_'
'정지'
'정부_'
'정보_'
'정리하'
'점이'
'젊'
'전화했'
'전화해_'
'전화기'
'전설'
'전까진_'
'적절한_'
'적당'
'저질렀'
'저지른_'
'저절로_'
'저와_'
'저녁에_'
'쟤'
'재생'
'재산'
'재능이_'
'장전'
'장에서_'
'장식'
'장비'
'장래'
'장담'
'잡혀_'
'잡혀'
'잡지'
'잡았어요_'
'잡았다_'
'잘해'
'잘생긴_'
'잘못이야_'
'잘못이'
'잘라_'
'잖소_'
'작용'
'작성'
'작가'
'작_'
'자존심'
'자식'
'자선'
'자말_'
'자들을_'
'자는'
'자녀'
'자네한테_'
'자네에게_'
'자네들이_'
'자긴_'
'자격이_'
'자격'
'있을거에요_'
'있을거'
'있으'
'있단_'
'있다는거'
'있다는'
'있다구요_'
'있다구_'
'있는거죠_'
'있구요_'
'있겠'
'있게'
'입으로_'
'임신_'
'임무는_'
'임_'
'잃을_'
'일하러_'
'일지_'
'일정'
'일인'
'일이라'
'일이다_'
'일어난_'
'일반'
'일까요_'
'인정'
'인생에서_'
'이후에_'
'이후'
'이해해요_'
'이해하기_'
'이해'
'이익을_'
'이유로_'
'이오_'
'이었다_'
'이어'
'이야기하'
'이상하게_'
'이상의_'
'이사_'
'이분'
'이모_'
'이모'
'이렇게'
'이러는_'
'이따_'
'이들'
'이기도_'
'이곳을_'
'이곳은_'
'이겼'
'이겨'
'의상'
'의료'
'의견'
'은행에_'
'으로요_'
'으로는_'
'융'
'유행'
'유리'
'윗'
'위험_'
'위원회'
'웨이'
'월급'
'원하는게_'
'원을_'
'워요_'
'워싱턴'
'웅'
'웃어_'
'움직일_'
'울어'
'운영'
'운명이_'
'우주선'
'우승'
'우리에겐_'
'우리랑_'
'우리들은_'
'우려'
'우는_'
'용감한_'
'요새_'
'왕비'
'왔소_'
'왔네요_'
'와이프'
'와야_'
'옷이_'
'옷이'
'옵'
'올리고_'
'온거'
'오히려_'
'오해'
'오실_'
'오신_'
'오스카_'
'오빠를_'
'오빠'
'예의'
'예수님_'
'예쁜_'
'옆'
'영혼'
'영향을_'
'영웅'
'영상을_'
'영광이'
'였다고_'
'열고_'
'연애'
'연락이_'
'여행을_'
'여자랑_'
'여인'
'여섯'
'여서_'
'여러'
'여기에요_'
'여기에서_'
'여기까지'
'에스'
'에서'
'에밀'
'에다_'
'엉덩이'
'었지만_'
'었잖아_'
'었을_'
'없단다_'
'없는거'
'없게_'
'업무_'
'엄_'
'얼굴_'
'언젠가는_'
'언제부터_'
'언어'
'언니를_'
'언니가_'
'어쩌다_'
'어쨌'
'어머니를_'
'어린이'
'어린'
'어떨까요_'
'어떡하'
'어떠'
'어땠'
'어느날_'
'어느'
'얘기야_'
'양반_'
'약한_'
'약이'
'야말로_'
'야겠다_'
'액_'
'애나_'
'압박'
'알지도_'
'알아봤'
'알아내'
'알려줄_'
'알려'
'알기_'
'알겠지만_'
'알겠니_'
'않았을'
'않았고_'
'않다고_'
'않는다는_'
'않겠'
'앉아있'
'안한'
'안타깝'
'안전하'
'안고_'
'안가요_'
'악수'
'아프게_'
'아파트에_'
'아파트_'
'아이스크림_'
'아이들'
'아예_'
'아시겠지만_'
'아서_'
'아부'
'아버지의_'
'아무데도_'
'아닐'
'아닌거_'
'아니거든_'
'아내에게_'
'아기는_'
'씬_'
'써요_'
'싸워야_'
'싶어했'
'싶습니다_'
'심했'
'심판'
'심을_'
'싫은_'
'싫다'
'실현'
'실행'
'실에_'
'신호가_'
'신용'
'신사'
'신기'
'신가요_'
'식사를_'
'시켰어_'
'시켜서_'
'시청'
'시지_'
'시작해'
'시작할_'
'시작하지_'
'시라'
'시가_'
'승진'
'승인_'
'습관'
'슬픔을_'
'슬픈_'
'슬프'
'슬퍼하'
'슬로'
'스피'
'스파'
'스틸'
'스타일'
'스타_'
'스콧_'
'스캔'
'스에_'
'스미스'
'스럽게_'
'숙녀_'
'수치'
'수입'
'수영'
'수습'
'수술하'
'수녀'
'손해'
'손님이_'
'속이_'
'속이'
'속도를_'
'소유'
'소에_'
'소스'
'소개'
'셨나요_'
'셜'
'셋이_'
'셀_'
'세트'
'세탁'
'세부_'
'세대'
'세금'
'세계에서_'
'성하_'
'성질'
'성경'
'섬_'
'설명하'
'설명_'
'설명'
'설마_'
'설득하'
'선택할_'
'선택하'
'선택_'
'선이_'
'선생님'
'선배'
'선발'
'선물을_'
'선물'
'섞'
'서있'
'서로'
'서랍'
'서라'
'생길_'
'생겼다_'
'생겨'
'생각하세요_'
'생각하나_'
'생각보다_'
'샘'
'새끼야_'
'새끼들'
'상태를_'
'상의'
'상사_'
'상관없이_'
'삶이'
'살짝_'
'살인을_'
'살아남'
'살아가'
'산에_'
'사항'
'사진이_'
'사자'
'사의_'
'사용_'
'사용'
'사실이야_'
'사실이_'
'사실대로_'
'사리'
'사령관'
'사랑이'
'사랑'
'사람이었'
'사람에_'
'사람들이'
'사람들과_'
'사냥'
'사기꾼'
'사기'
'사과하'
'사격'
'사건에_'
'뿐이었'
'뿐'
'뿌려'
'뽑'
'뼈가_'
'뻗'
'빼면_'
'빨'
'빠져'
'빠르'
'빠뜨'
'빚을_'
'빈센트_'
'비켜'
'비아'
'비슷하'
'비밀'
'비디오'
'블루_'
'브라보_'
'뷰'
'붙어있'
'붉은_'
'불었'
'불어'
'불만'
'불렀'
'불가능한_'
'불가'
'분명해_'
'분도_'
'부터'
'부탁합니다_'
'부모님을_'
'부르고_'
'부담'
'부끄러워'
'봉합'
'봉사'
'봄'
'본인_'
'본데_'
'복잡해'
'복잡하'
'보증'
'보이는'
'보이네요_'
'보이네_'
'보여주지_'
'보안_'
'보면서_'
'병이'
'병을_'
'병에_'
'병신'
'변했다_'
'벨트_'
'벨_'
'베티_'
'베르'
'범인을_'
'벌이'
'벌레'
'번째'
'버트_'
'버스_'
'버스'
'버렸어요_'
'백작'
'백신'
'배고'
'배경'
'방향으로_'
'방해하지_'
'방송'
'밟아'
'밝히는_'
'발견한_'
'받는'
'반갑다_'
'바지'
'바에_'
'바빠서_'
'바래요_'
'바라지_'
'바가_'
'믿었'
'믿게_'
'미치'
'미안합니다_'
'미소'
'미국에_'
'뮤'
'뭔가요_'
'뭐랄까_'
'뭐니_'
'물질'
'물어봐도_'
'물어볼_'
'물리'
'물론이'
'물러서_'
'물고기'
'묻었'
'무엇이_'
'무슨말'
'무슨'
'무서워'
'묘사'
'못할거야_'
'못하도록_'
'몰라서_'
'목표'
'모자'
'모래'
'모니터'
'모건_'
'몇달'
'몇년'
'멸'
'면역'
'멤버'
'메시지를_'
'메리'
'메디'
'멍청'
'멈춰'
'멈추지_'
'먹지_'
'먹을래_'
'먹으'
'머피'
'맹'
'맥박이_'
'매일'
'매번_'
'매달'
'매기_'
'맡았'
'맡아_'
'맞춰'
'맞서'
'맞다_'
'맞네_'
'망쳐'
'맘_'
'말했듯이_'
'말해봐요_'
'말해보'
'말하려고_'
'말인가요_'
'말인가_'
'말아'
'말씀하시'
'말씀이'
'말씀을_'
'말썽'
'말대로_'
'많고_'
'만요_'
'만들었어요_'
'만들었다_'
'만나_'
'막아야_'
'막아_'
'마틴_'
'마크'
'마취'
'마지막'
'마이애미'
'마을에_'
'마리'
'리차드_'
'리스트'
'리라_'
'루크'
'로그'
'렸어_'
'레인'
'럽'
'럼_'
'럭'
'러시아'
'랩_'
'랜드_'
'랐'
'랍'
'락_'
'라디오_'
'라가_'
'뚫고_'
'똑똑'
'또다른_'
'떼_'
'떨어'
'때에_'
'때문이'
'때문'
'때를_'
'따라가'
'듯한_'
'들으셨'
'들어와_'
'들어봐요_'
'들어갔어요_'
'들어갈'
'들리는'
'드시'
'드릴까요_'
'드레스'
'드래곤'
'뒤를_'
'두려움'
'두고'
'됩니까_'
'되찾'
'되서_'
'되려고_'
'됐지만_'
'됐는데_'
'됐나_'
'동료_'
'돌연변이'
'돌_'
'독일_'
'독립'
'독_'
'도착했'
'도착'
'도왔'
'도와달라고_'
'도시에_'
'도시는_'
'도망가_'
'도로'
'데려온_'
'데가_'
'던져_'
'던져'
'더라면_'
'더그'
'댄'
'대형_'
'대해서는_'
'대한'
'대통령은_'
'대통령'
'대지_'
'대중'
'대에_'
'대량의_'
'대는_'
'당신측의_'
'당신에_'
'당신네_'
'당기'
'당겨_'
'담_'
'달리'
'달고_'
'단테'
'단서'
'단계'
'다했'
'다음엔_'
'다물'
'다뤄'
'다니는_'
'님은_'
'니들_'
'능_'
'늘어'
'는가_'
'늑대'
'느라고_'
'느끼'
'느꼈'
'뉴욕_'
'눌'
'눈으로_'
'누나'
'누군데_'
'누구예요_'
'누구세요_'
'뇌는_'
'높아'
'놈들이'
'놀자_'
'놀랐'
'노인'
'노력을_'
'년이'
'네드_'
'네놈'
'넘겨_'
'넓'
'너희의_'
'너희를_'
'너희들은_'
'너희는_'
'너무'
'냥'
'낸'
'내주'
'내일부터_'
'내일'
'내렸다_'
'내려가'
'납치했'
'납니다_'
'남편과_'
'남편'
'남았어_'
'날짜'
'날에_'
'날아'
'날씨'
'날개'
'나한테는_'
'나아_'
'나보고_'
'나라_'
'나라'
'나고_'
'나가자_'
'끝을_'
'끝낼_'
'끝났습니다_'
'끝_'
'끓'
'끊어'
'꿈이_'
'꼴'
'께선_'
'꺾'
'꺼내_'
'깨어나'
'깨끗하게_'
'깡패'
'깊이_'
'깊게_'
'길이'
'긴급'
'기지_'
'기준'
'기전에_'
'기억해'
'기사를_'
'기쁘게_'
'기부'
'기다릴_'
'기다려봐_'
'기구'
'긋'
'급히_'
'금지_'
'금지'
'금이_'
'금발'
'글자'
'글을_'
'글로리아'
'근처에_'
'그쪽_'
'그만뒀'
'그림을_'
'그림_'
'그리곤_'
'그렇군_'
'그렇겠지_'
'그런걸_'
'그런가요_'
'그러한_'
'그러시'
'그러는데_'
'그랬었'
'그들과_'
'그대로'
'그녀에_'
'그나저나_'
'그곳'
'그것들이_'
'귀를_'
'귀_'
'권리가_'
'국적'
'국에_'
'국가'
'구하기_'
'구멍'
'구리'
'교환'
'괜히_'
'광고'
'관이_'
'관을_'
'과거의_'
'공식'
'공부'
'공기'
'공급'
'공격을_'
'공격_'
'곳이야_'
'골목'
'곡을_'
'고향'
'고자_'
'고양이는_'
'고소'
'고르'
'고개를_'
'계집'
'계신'
'계를_'
'계단을_'
'경제'
'경우는_'
'경비_'
'경고'
'겸'
'결혼식에_'
'결혼식'
'결함'
'결정했'
'결정하'
'견인'
'겠습니까_'
'겠군_'
'겠'
'게서_'
'것인지_'
'겁쟁이'
'검토'
'걸까_'
'건네'
'걱정하는_'
'거짓'
'거리에서_'
'거리를_'
'거란다_'
'거두'
'걔를_'
'같진_'
'강력'
'갔다가_'
'갑'
'감자'
'감아'
'감싸'
'감시'
'간호사_'
'가질'
'가지마_'
'가지는_'
'가져왔어요_'
'가에서_'
'가슴_'
'가방'
'가를_'
'가능성'
'가는'
'가까워'
'¡­_'
'ze'
'yöu_'
'yt'
'ys'
'yoga_'
'yang_'
'work'
'wo'
'witness_'
'wit'
'wire_'
'winter_'
'wins_'
'windows_'
'wi'
'whom_'
'whenever_'
'wet_'
'weapon_'
'waves_'
'wasting_'
'wan'
'vol'
'vision_'
'vis'
'virus_'
'van_'
'val_'
'ut_'
'us'
'university_'
'um'
'ult'
'ui'
'twice_'
'truly_'
'treatment_'
'transplant_'
'training_'
'tour_'
'tongue_'
'tissue_'
'ti'
'ter'
'tear_'
'teaching_'
'tea'
'tar'
'tan'
'swimming_'
'sweetheart_'
'swe'
'supply_'
'sunshine_'
'sugar_'
'suddenly_'
'su_'
'students_'
'stor'
'stolen_'
'steps_'
'stepped_'
'star'
'stable_'
'ssed_'
'spoke_'
'spi'
'spe'
'spare_'
'source_'
'sou'
'sooner_'
'somehow_'
'sold_'
'smoking_'
'sm'
'slo'
'sleep'
'skills_'
'ski'
'sive_'
'site_'
'sis_'
'sides_'
'si_'
'ships_'
'shepherd_'
'shape_'
'shame_'
'sexy_'
'settle_'
'sets_'
'section_'
'search_'
'scu'
'sche'
'sb'
'san_'
'rule_'
'ros'
'rolling_'
'roll_'
'ringing_'
'ril'
'ria'
'ri'
'revenge_'
'rest'
'responsible_'
'request_'
'reply_'
'ren'
'release_'
'recognize_'
'rap'
'rac'
'prop'
'proof_'
'prom'
'priest_'
'press_'
'president_'
'pping_'
'pper_'
'pp'
'pound_'
'pot'
'port_'
'plays_'
'planning_'
'planned_'
'pipe_'
'pills_'
'photos_'
'ph'
'particular_'
'pants_'
'pale_'
'pair_'
'paint_'
'ow'
'overs'
'ova'
'organ_'
'ordered_'
'ord'
'operating_'
'oni'
'ong'
'ona_'
'omi'
'official_'
'off'
'obvious_'
'object_'
'nuclear_'
'nowhere_'
'ne'
'mr_'
'mor'
'monster_'
'model_'
'minister_'
'military_'
'meredith_'
'medicine_'
'main_'
'magazine_'
'lungs_'
'lower_'
'lot'
'locker_'
'lle_'
'lle'
'lity_'
'lis'
'lion_'
'lin_'
'lie'
'lia'
'lf'
'legal_'
'lap'
'lake_'
'lad'
'labs_'
'la'
'km_'
'kl'
'keys_'
'ka'
'jack_'
'ized_'
'ium_'
'iti'
'issue_'
'ip'
'invited_'
'interns_'
'interests_'
'ins_'
'infection_'
'ines_'
'inde'
'impl'
'image_'
'ight_'
'ide'
'id'
'ia'
'i'
'horn_'
'hor'
'hom'
'holes_'
'hob'
'hidden_'
'hen'
'hello_'
'hearts_'
'heads_'
'harm_'
'handsome_'
'handed_'
'hair'
'gun'
'guards_'
'grass_'
'grandfather_'
'grand'
'graft_'
'gra'
'goo'
'glo'
'glasses_'
'gin'
'ght'
'gger_'
'genius_'
'gene_'
'garden_'
'fur'
'forgotten_'
'fog_'
'flew_'
'flat_'
'flat'
'final_'
'fifth_'
'ffe'
'ff_'
'fed_'
'fat'
'fan_'
'falls_'
'expe'
'exist_'
'exe'
'ering_'
'era'
'enjoy_'
'eni'
'ema'
'eg'
'ee_'
'education_'
'edge_'
'eaten_'
'ears_'
'dull_'
'drove_'
'drinking_'
'dra'
'discuss_'
'disappointed_'
'directly_'
'dig_'
'dia'
'dge_'
'desire_'
'des'
'derek_'
'defense_'
'de'
'dangerous_'
'cream_'
'crack_'
'cow'
'court'
'courage_'
'costume_'
'cops_'
'cop_'
'cooking_'
'contra'
'connected_'
'concerned_'
'concentrate_'
'con'
'compared_'
'comfortable_'
'clo'
'cleared_'
'clan'
'chu'
'childhood_'
'changing_'
'changes_'
'chances_'
'chair_'
'century_'
'ced_'
'carrying_'
'capable_'
'cap'
'brilliant_'
'breathing_'
'breaking_'
'bre'
'bottom_'
'bother_'
'bloody_'
'bled_'
'ble'
'bite_'
'beg_'
'bea'
'bby_'
'based_'
'barely_'
'badge_'
'awful_'
'aver'
'ative_'
'ating_'
'artery_'
'art_'
'arrive_'
'arrest_'
'ap'
'annoy'
'allowed_'
'ak_'
'aid_'
'agreement_'
'adult_'
'ade'
'ada'
'account_'
'according_'
'absolutely_'
'abs'
'aboard_'
'ability_'
'] '
']'
'Zola_'
'Zi'
'Ze'
'Yesterday_'
'Whe'
'Watson_'
'Wake_'
'WHAT_'
'WH'
'Victor_'
'Ve'
'Union_'
'US'
'Trust_'
'Tre'
'Tou'
'Thursday_'
'TS_'
'Sweetheart_'
'Such_'
'Stu_'
'Street_'
'Sl'
'Sk'
'Shar'
'Security_'
'Save_'
'Sasha_'
'San_'
'Same_'
'Sam'
'Sally_'
'SU'
'Robert_'
'Rob_'
'Rem'
'Relax_'
'Reg'
'Rea'
'Ragnar_'
'RS_'
'Q_'
'Pull_'
'Pri'
'Previously_'
'Play_'
'Pi'
'Parker_'
'Park_'
'Page_'
'Pa'
'Out_'
'Obviously_'
'OH_'
'Nope_'
'Nancy_'
'NI'
'My'
'Must_'
'Munni_'
'Ms_'
'Miranda_'
'Miles_'
'Mike_'
'Mer'
'May'
'Mat'
'Mari'
'Ly'
'Louie_'
'Los'
'Lea'
'Laura_'
'Land'
'Johnnie_'
'Jeff_'
'Je'
'Japan_'
'Jackson_'
'J'
'India_'
'In'
'IS'
'IM'
'IA'
'However_'
'Ho'
'Hell_'
'Head_'
'Hal'
'HO'
'Ger'
'GRUNTING_'
'GASPS_'
'Frankie_'
'Fin'
'Far'
'FR'
'Escobar_'
'EE'
'Down_'
'Denny_'
'Dar'
'DC'
'Coming_'
'Co'
'Clear_'
'China_'
'Cha'
'Ce'
'Caleb_'
'CNN_'
'CH'
'CAN_'
'Brother_'
'Blue_'
'Better_'
'Best_'
'Ben'
'Becca_'
'BB'
'Anybody_'
'Another_'
'Annie_'
'Ann'
'Altman_'
'Allen_'
'Adele_'
'Addison_'
'AT_'
'ARE_'
'AN'
'?" _'
'90_'
'90'
'7시'
'6개월'
'600'
'5천'
'500_'
'45'
'3년_'
'38'
'34'
'2주_'
'2분_'
'2분'
'2년'
'194'
'14'
'11시'
'10분_'
'10년'
'000'
'... ..._'
'-'
')._'
')'
''?_'
'"... _'
'"'
'! [_'
' ! _'
'힘들어요_'
'힘들어_'
'힘들게_'
'힘들'
'힘껏_'
'힘_'
'흰_'
'흥미'
'흔적은_'
'휴가를_'
'훔쳐_'
'훌륭'
'훈련_'
'후회하게_'
'후회하'
'후에는_'
'후드'
'횡단'
'회의가_'
'회의'
'회사는_'
'환호'
'확장'
'확인'
'화학_'
'화재'
'화장실_'
'화이트'
'화요일'
'화물'
'호텔에서_'
'호출했'
'호스트'
'형편없는_'
'혔다_'
'협의'
'협상'
'혐의'
'현지시간_'
'현재'
'현장에서_'
'현장_'
'헛소리'
'헛'
'헌터'
'헌'
'허나_'
'허가를_'
'허가'
'향기'
'행복해_'
'행복할_'
'했을'
'했었어요_'
'했었어_'
'했어야지_'
'했소_'
'했던'
'했다는'
'했고요_'
'했겠죠_'
'햇빛'
'핸드폰_'
'해줄게_'
'해준_'
'해야겠'
'해서'
'해봤'
'해냈어_'
'핫'
'할지'
'할만한_'
'할때_'
'할까봐_'
'할거라'
'한이_'
'한데요_'
'한다고요_'
'한국_'
'한계'
'한걸'
'한거죠_'
'한가지_'
'학자'
'학교를_'
'하킴'
'하지않'
'하우스'
'하시고_'
'하셨죠_'
'하셔'
'하루는_'
'하려면_'
'하라'
'하던데요_'
'하니까요_'
'하늘'
'하는데요_'
'하는군_'
'하는거'
'하느님'
'하나요_'
'하나님_'
'하곤_'
'하고싶'
'하게'
'핑계'
'필립'
'피해자는_'
'피할_'
'피트'
'피타_'
'피어스'
'피어'
'피는_'
'프란시스_'
'프라'
'풋'
'풀어주'
'표현'
'폰이'
'폰_'
'폭풍이_'
'폭풍'
'포스'
'포로'
'포드'
'폐쇄'
'평화를_'
'평소'
'편하게_'
'퍼지'
'팬이'
'패턴'
'팔로_'
'판막'
'파커'
'파일을_'
'파일_'
'파블로'
'파란_'
'팅_'
'팀은_'
'틀린_'
'틀렸어_'
'트의_'
'트래비스_'
'튜브'
'투어_'
'통화_'
'통증'
'통제하'
'톤_'
'토스'
'토미_'
'토마'
'테스트_'
'테리_'
'테디_'
'테디'
'털어놓'
'터지'
'터졌어_'
'탱크'
'택'
'태양'
'탑승'
'탈출했'
'타입'
'타요_'
'킬라'
'킨스'
'키우'
'키를_'
'키고_'
'클리어_'
'클리닉'
'클레어'
'클럽_'
'크리'
'크기'
'크고_'
'크가_'
'퀘'
'콧'
'코치'
'코드'
'코너_'
'켰다_'
'켈리'
'케이트'
'커플'
'커크'
'커스'
'캣'
'캡'
'캠프'
'캔'
'캐릭터'
'칼이_'
'칼리_'
'칸_'
'카피'
'카메라'
'카를로스_'
'카르'
'칭찬'
'침_'
'친구였'
'친구도_'
'치즈_'
'치며_'
'치료제를_'
'취해'
'취직'
'충분해_'
'충돌'
'춥'
'춤추고_'
'출혈을_'
'출신이'
'출발하'
'출발_'
'축하해요_'
'축복'
'추락'
'최선'
'초대장'
'쳐서_'
'체포하'
'체스'
'청혼'
'청소하'
'첨'
'철_'
'천만에_'
'천국'
'척추'
'처리하'
'처_'
'책은_'
'채우'
'찾을'
'찾으면_'
'찾았습니다_'
'찾아가'
'찾는'
'참여하'
'찰_'
'찬성'
'착각'
'차지'
'차량'
'차단'
'찢어'
'쭉_'
'쫓는_'
'쫄'
'째'
'짧'
'짚'
'짓이'
'집중해'
'집단'
'질이'
'진행하'
'진짜가_'
'진저_'
'진을_'
'진실이'
'진실은_'
'직원들'
'지켜야'
'지워'
'지옥에_'
'지식'
'지불하'
'지배'
'지마'
'지도를_'
'지대'
'지는'
'지난'
'지기_'
'지금이야_'
'지금의_'
'증거는_'
'즐기'
'즐겁게_'
'즉_'
'즈에'
'쥐고_'
'쥐_'
'줬는데_'
'줘봐_'
'중인데_'
'중의_'
'중요한건_'
'중요하'
'중격'
'줍'
'준비됐어요_'
'준다면_'
'죽음으로_'
'죽음_'
'죽었을'
'죽어도_'
'죽어가고_'
'주지사'
'주요_'
'주실_'
'주신_'
'주시겠어요_'
'주변에_'
'주님'
'주길_'
'주겠다고_'
'주겠다_'
'주거'
'죠'
'좋으'
'좋아할_'
'좋아하는'
'좋아지'
'종양'
'좁'
'졸라_'
'존중'
'존재를_'
'존이'
'조치를_'
'조종사'
'조절'
'조작'
'조용해'
'조용한_'
'조용하'
'조나'
'조금이라도_'
'조각_'
'져요_'
'제임스'
'제니'
'제국의_'
'제공하'
'제공'
'정확한_'
'정확하'
'정체를_'
'정체'
'정작_'
'정의'
'정을_'
'정에_'
'정신을_'
'정밀'
'정글'
'점프'
'전해줘_'
'전하_'
'전진'
'전자'
'전의_'
'전에요_'
'전술'
'전송'
'전세계'
'전문_'
'전문'
'적어_'
'적어'
'저쪽'
'저주'
'저어라_'
'저번에_'
'저들의_'
'저들은_'
'저녁이'
'저녁식사'
'저기에_'
'재활'
'재밌을_'
'재미'
'장의_'
'장애'
'장소_'
'장님_'
'장난감'
'장군이_'
'장관님_'
'잡혔'
'잡지_'
'잠재'
'잠자리'
'잠수함'
'잠들'
'잠깐'
'잠_'
'잘했어요_'
'잘한다_'
'잘못했'
'잘못이_'
'잘못되었'
'잘됐네요_'
'잔해'
'잔뜩_'
'작정이'
'작전_'
'작은'
'작별_'
'자유를_'
'자연의_'
'자식이_'
'자식아_'
'자산'
'자리에서_'
'자리는_'
'자리가_'
'자료'
'자로_'
'자랑스럽'
'자라고_'
'자넷_'
'잎'
'잊고_'
'잉_'
'있을수'
'있을게요_'
'있을게_'
'있었잖아요_'
'있었다는_'
'있었거든요_'
'있는가_'
'있기'
'있겠다_'
'있겠네_'
'임신했어_'
'임신'
'일일'
'일이었'
'일으키'
'일어나지_'
'일어나서_'
'일반_'
'일만_'
'일과_'
'일거'
'인턴이'
'인터뷰_'
'인터넷_'
'인터넷'
'인질'
'인종'
'인을_'
'인물'
'인류'
'인내'
'인간이'
'익숙'
'이혼'
'이해하지_'
'이하'
'이탈리아'
'이지만_'
'이전'
'이일'
'이의_'
'이웃'
'이용해_'
'이용하'
'이었죠_'
'이었'
'이야기했'
'이야기가_'
'이상한'
'이상을_'
'이상은_'
'이사회'
'이번에_'
'이르'
'이륙'
'이로_'
'이러다_'
'이러고_'
'이랬'
'이래요_'
'이란'
'이라크'
'이들은_'
'이든_'
'이동_'
'이대로_'
'이기_'
'이곳에서_'
'의학'
'의심하'
'의식을_'
'의식'
'의사를_'
'의사들은_'
'의미_'
'의논'
'음식도_'
'을까요_'
'은데_'
'은게_'
'으시'
'으로써_'
'으로부터_'
'으려'
'으라고_'
'으나_'
'유진_'
'유지하'
'유인'
'유대인'
'유감이야_'
'윙'
'위험이_'
'위험에_'
'위탁'
'위원회에_'
'위안'
'위는_'
'위기'
'웬_'
'웨이_'
'웨스트'
'월터_'
'월터'
'월요일'
'월에_'
'월드'
'원했던'
'원이_'
'워커'
'워낙_'
'웃는'
'웃기는_'
'움직'
'움이_'
'울었'
'울면서_'
'운전자'
'운동을_'
'용품'
'용이'
'용의_'
'용서하'
'용감하'
'욕을_'
'욕구'
'외상_'
'외상'
'외과의'
'외과'
'왕자를_'
'왕국을_'
'왓슨_'
'옷은_'
'옳지_'
'옳'
'올리비아'
'올랐다_'
'올라가_'
'올라_'
'온라인'
'온다고_'
'온다_'
'온게_'
'오스'
'오버_'
'오버'
'오말리'
'오렴_'
'오랜만'
'오늘이_'
'예약'
'예수_'
'예뻐요_'
'영원한_'
'영웅이'
'영업'
'영어'
'영국인'
'열차'
'열쇠가_'
'열리'
'연하'
'연주하'
'연주'
'연장'
'연락했'
'연락해_'
'연락해'
'엮'
'역사를_'
'여친'
'여쭤'
'여정'
'여자분'
'여자들은_'
'여야_'
'여성들'
'여사'
'여름_'
'여깄'
'여기있'
'여기도_'
'여겨'
'엘크리스'
'엘리자베스_'
'에이브'
'에스코바르'
'에서의_'
'에만_'
'에드워드_'
'에너지_'
'에너지'
'에게서_'
'었다고_'
'없을까_'
'없을거야_'
'없을거'
'없으니까요_'
'없었다'
'없단_'
'없다구요_'
'없나요_'
'업_'
'엄청나게_'
'엄청'
'얼룩'
'얼_'
'얻어'
'언젠간_'
'언제였'
'억지로_'
'어찌'
'어쨋든_'
'어지'
'어서'
'어린애'
'어리석은_'
'어렸'
'어려'
'어떻게'
'어떡해_'
'어땠어_'
'어때서_'
'어딨지_'
'어딘가_'
'어두워'
'얘기하는_'
'양이'
'양의_'
'양을_'
'양육'
'약에_'
'약속한_'
'약속하'
'야하'
'야겠네요_'
'야겠'
'애디슨'
'애나'
'앞에'
'앞_'
'았어_'
'암호'
'암살자'
'앓'
'알았으면_'
'알아야'
'알아볼_'
'알려줬'
'알렉스는_'
'알겠다_'
'알겠네_'
'알겠나_'
'알겠'
'않을까요_'
'않을겁니다_'
'않은'
'않았다면_'
'않았나_'
'않아'
'않네요_'
'앉으'
'안죽'
'안전_'
'안이_'
'안은_'
'안부를_'
'안드레'
'안된다고_'
'안된다_'
'안되지_'
'안되_'
'안됐어_'
'안다고_'
'안녕히_'
'안나_'
'안나'
'악몽을_'
'아휴_'
'아플_'
'아프간'
'아파요_'
'아파서_'
'아저씨'
'아이의_'
'아이에게_'
'아시다시피_'
'아름답'
'아름다워_'
'아니었다'
'아니라는_'
'아니네요_'
'아니까_'
'아니겠지만_'
'아는거'
'아놀드'
'아껴'
'씹'
'씬'
'씨를_'
'쓴'
'싸웠'
'싸우지_'
'싸우는_'
'싶은'
'십_'
'심실'
'싫으면_'
'싫어했'
'싫어한다_'
'실제_'
'실력이_'
'신성한_'
'신선한_'
'신비한_'
'신분증'
'신부'
'신발_'
'신문에_'
'신들'
'신다면_'
'신고_'
'신경쓰'
'신거_'
'식사'
'식당'
'식구'
'시티'
'시켰다_'
'시체가_'
'시작해_'
'시작하면_'
'시작이'
'시인'
'시에'
'시신을_'
'시스템_'
'시스템'
'시설을_'
'시내'
'시겠'
'습격'
'슬픔'
'스파이'
'스트라'
'스튜디오'
'스테이'
'스캇_'
'스카'
'스스로를_'
'스러'
'쉬어_'
'쉐'
'숲에서_'
'숲'
'숨기고_'
'숨_'
'술집에_'
'순간에_'
'수정_'
'수용'
'수술이_'
'수술실에서_'
'수술도_'
'수로_'
'수고하'
'쇼핑'
'쇄'
'손대'
'손가락을_'
'속을_'
'속도로_'
'속도가_'
'속도'
'소환'
'소하'
'소피아'
'소중히_'
'소중한_'
'소에서_'
'소설을_'
'소망'
'소령'
'소나'
'소개하'
'셔츠'
'섹스를_'
'세고_'
'성하'
'성인'
'성이'
'성공한_'
'성공하'
'섰'
'설치하'
'설정'
'설명할_'
'설득'
'설계'
'선적'
'선은_'
'선언'
'선생이_'
'선생'
'선물이'
'선고'
'석_'
'서비스_'
'서류에_'
'서류_'
'서둘러요_'
'서둘러'
'생활에_'
'생일이'
'생이'
'생명'
'생겼어요_'
'생각했지_'
'생각했던_'
'생각하니_'
'생_'
'색이'
'샅샅이_'
'상태야_'
'상처'
'상관이야_'
'삶에_'
'살펴보'
'살펴_'
'살인범'
'살이었'
'살을_'
'살아나'
'살아갈_'
'산소'
'사탕_'
'사탕'
'사촌_'
'사지'
'사장님_'
'사장'
'사이즈'
'사이에서_'
'사이가_'
'사용하는'
'사업이'
'사악한_'
'사실이에요_'
'사랑이_'
'사람입니다_'
'사다리'
'사귀고_'
'사건이'
'뺏어'
'빼내'
'빨아'
'빨래'
'빨간_'
'빡'
'빛나는_'
'빙의'
'빌어'
'빌라'
'비켜요_'
'비치'
'비슷한_'
'비밀이_'
'블랙_'
'블_'
'붙여_'
'불빛'
'불법_'
'불법'
'불멸'
'불리는_'
'불꽃'
'불가능해_'
'불가능하'
'분야'
'분리'
'북쪽으로_'
'부하들이_'
'부탁_'
'부족해_'
'부족하'
'부적절한_'
'부인은_'
'부엌'
'부분이'
'부딪'
'봤잖아_'
'봤었'
'봤습니다_'
'봐야겠'
'볼일_'
'볼수_'
'볼까요_'
'본인이'
'본다_'
'복부'
'복도'
'보호하'
'보호_'
'보트_'
'보지'
'보자'
'보이는데_'
'보이기_'
'보이고_'
'보여줄게_'
'보여주는_'
'보시면_'
'보수'
'보라구_'
'보도'
'보낼'
'보내줘_'
'보기에_'
'보군_'
'병원을_'
'병원으로_'
'병들'
'별들'
'별거_'
'변화를_'
'변호사들'
'변하지_'
'벽_'
'베일리'
'베어'
'베를린'
'베넷_'
'벗어나게_'
'벗어_'
'벗어'
'범죄_'
'범인이_'
'벌었'
'벌어진_'
'번호_'
'번의_'
'버텨'
'버리는_'
'버려'
'뱉'
'백작_'
'백인_'
'배워'
'배울_'
'배우_'
'방향_'
'방은_'
'방아쇠를_'
'방식으로_'
'방사선'
'방법이'
'밤이_'
'밤이'
'밝혀'
'발생하'
'발레'
'발견된_'
'받았습니다_'
'받아야'
'반항'
'반을_'
'반란군'
'반대하'
'반갑'
'바짝_'
'바쁘'
'바비_'
'바보같은_'
'바라요_'
'믿을수_'
'믿을'
'믿으세요_'
'믿으'
'미팅'
'미치마_'
'미치겠'
'미쳤다고_'
'미스'
'미래의_'
'뭣_'
'뭐였어_'
'뭐래'
'뭉개'
'물으'
'물었다_'
'물어봐'
'묻는_'
'묻고_'
'문화'
'문제죠_'
'문제로_'
'문서'
'무척_'
'무지'
'무슨일이야_'
'무슨일이'
'무사히_'
'무릎_'
'무료_'
'무덤'
'무대'
'못했다'
'못하겠'
'못된_'
'몰랐죠_'
'몰랐네_'
'목소리_'
'모였'
'모양으로_'
'모시'
'모른다는_'
'모르겠군요_'
'모든'
'모는_'
'모_'
'명하'
'명예'
'멕시코'
'메세지를_'
'메기'
'멀어'
'먹은_'
'먹으러_'
'머스'
'머물'
'맥스'
'매를_'
'매년_'
'맡아'
'맡게_'
'맞습니다_'
'맞고_'
'망했'
'맛보'
'말했죠_'
'말했었'
'말했던_'
'말했다'
'말해줬'
'말해주는'
'말한다_'
'말일세_'
'말씀하셨'
'말씀드려'
'많잖아_'
'만해'
'만지지_'
'만세_'
'만들죠_'
'만들면_'
'만들려'
'만났을_'
'만났다_'
'만나보'
'만나면_'
'마티'
'마침_'
'마치'
'마자_'
'마을_'
'마실_'
'마시면_'
'마사지'
'마무리'
'마리아_'
'마누라'
'린다'
'릭스_'
'리즈_'
'리아_'
'룸'
'루이'
'루시퍼'
'루시_'
'루스_'
'뢰'
'롱'
'롭_'
'로지'
'로즈'
'로빈'
'로만'
'로라'
'로구나_'
'렸어요_'
'렴'
'려구요_'
'레이첼_'
'레이더'
'렁'
'런_'
'래도_'
'란걸_'
'라지'
'라그나'
'라고'
'뜻인지_'
'뜻이에요_'
'뜻대로_'
'뚱'
'뚫'
'똑바로_'
'떠오르는_'
'떠나야_'
'때요_'
'딸이'
'따윈_'
'따님'
'딩이'
'딩_'
'등장'
'등이_'
'들지_'
'들을'
'들어올'
'들어야_'
'들어갔'
'들어가는_'
'들리지_'
'들리나_'
'들려'
'들겠'
'드세요_'
'드려_'
'드러'
'드라'
'뒤집어_'
'뒤집어'
'뒀어요_'
'둘을_'
'둘은_'
'두지_'
'두었'
'두는_'
'되었어_'
'되어가'
'되려'
'되길_'
'되고'
'되겠네_'
'되거든_'
'됐는지_'
'동지'
'동의하'
'동생이_'
'동봉'
'동물_'
'동물'
'동료'
'동력'
'돌아오면_'
'돌아가지_'
'돌아가셨'
'돌아가면_'
'돌아_'
'돌봐'
'돈으로_'
'도중에_'
'도우러_'
'도와주는_'
'도와드릴까요_'
'데스_'
'데스'
'데려와_'
'던졌'
'던거야_'
'던거'
'더라구_'
'댁_'
'대해선_'
'대표님'
'대출'
'대의_'
'대위'
'대부분의_'
'대도_'
'대답해_'
'대니'
'대기하'
'당했어요_'
'당한'
'당장'
'당신이랑_'
'당신에게'
'담배'
'달이'
'단을_'
'단어를_'
'단순히_'
'다친_'
'다음주에_'
'다음'
'다에'
'다르다_'
'다니까요_'
'다가가'
'님께서_'
'니네_'
'늦은_'
'늦게까지_'
'는것'
'는건'
'느끼는_'
'느끼는'
'느껴지는_'
'느_'
'뉴스_'
'뉴_'
'눈치_'
'눈치'
'눈물'
'누나_'
'누군가'
'누구한테_'
'누구지_'
'누구라도_'
'놨어요_'
'놓치'
'놀리'
'놀라게_'
'녹음'
'노이'
'노를_'
'노동자'
'녀석이'
'네트워크'
'넘어가'
'넘기'
'넘겨주'
'너희들'
'너야_'
'너만'
'냈습니다_'
'냅니다_'
'냄새를_'
'낼'
'낸다'
'내지_'
'내부'
'내면_'
'내릴_'
'내리는_'
'내놓'
'내기'
'내게'
'났었'
'났어요_'
'낫겠'
'남편을_'
'남자에게_'
'남았어요_'
'날카로운_'
'날이야_'
'날려'
'나올'
'나온다_'
'나오지_'
'나오면_'
'나았'
'나아질_'
'나아가'
'나서'
'나쁠_'
'나쁘'
'나보'
'나무는_'
'나머진_'
'나니_'
'나는'
'나눠'
'나누'
'나갔어_'
'나가려'
'나가라고_'
'낑'
'끔찍하'
'끔찍'
'끌어_'
'끌고_'
'끄러'
'끄'
'꿈에'
'꾼_'
'꾼'
'꾸며'
'꼼짝'
'꼬맹아_'
'꼬마야_'
'꼬마_'
'꼈'
'꺼에요_'
'깨우'
'김에_'
'긴장'
'기타_'
'기차를_'
'기저귀'
'기엔_'
'기에'
'기억들'
'기술_'
'기생충'
'기쁨'
'기쁘다_'
'기념'
'극적인_'
'그쪽'
'그애'
'그만한_'
'그만큼_'
'그만둬_'
'그리워'
'그룹'
'그레'
'그런건_'
'그러자_'
'그래야지_'
'그래야'
'그도_'
'그다지_'
'그니까_'
'그냥'
'그날'
'그곳에서_'
'균형'
'규칙을_'
'권이'
'궁금해서_'
'굴지_'
'굴복'
'굳'
'군인'
'군은_'
'군사'
'구한'
'구속'
'구성'
'교황'
'교수'
'교대'
'괴물이_'
'괜찮니_'
'광산'
'괄'
'관점'
'관련'
'관계는_'
'관계_'
'과학자'
'과학'
'과연_'
'공동'
'공기를_'
'곳이지_'
'곳에'
'고향이'
'고해'
'고통받'
'고통_'
'고치'
'고집'
'고든_'
'고대_'
'계약을_'
'계속하'
'경험을_'
'경을_'
'경영'
'경기를_'
'경기'
'겼다_'
'결혼했'
'결과가_'
'결과_'
'격이'
'겠다는_'
'겠다'
'겠니_'
'겠나_'
'겟'
'게는_'
'겁_'
'걸릴'
'걸려_'
'걷'
'건물을_'
'건물_'
'건들지_'
'건들'
'건드'
'건강하'
'걱정할_'
'걱정이_'
'걱정이'
'걱정을_'
'걱정마세요_'
'걱정마'
'거짓말쟁이_'
'거짓말쟁이'
'거인'
'거시기'
'거부'
'거래는_'
'거네_'
'거길_'
'거기에'
'걜_'
'걔도_'
'걔네'
'갤'
'개자식_'
'개인적으로_'
'개월_'
'개는_'
'같은건_'
'같으니_'
'같애_'
'같다고_'
'같고_'
'갔을'
'값을_'
'갑판'
'감옥에서_'
'감옥_'
'감소'
'감사드립니다_'
'감사_'
'감동'
'감기'
'감_'
'갈라'
'간수'
'간단하'
'각종_'
'각자'
'가짜'
'가졌어_'
'가이'
'가위'
'가야돼_'
'가스'
'가비'
'가방을_'
'가르쳤'
'가르쳐'
'가려'
'가라앉'
'가들'
'가드'
'가동'
'가능'
'가는거'
'가깝'
'가격_'
'가게'
'♪ '_'
'¡­ ¡­_'
'¡_'
' ?_'
'~'
'zone_'
'za_'
'za'
'yourselves_'
'you'
'yn'
'ym'
'ye_'
'ye'
'wound_'
'wore_'
'winning_'
'wind'
'win'
'wide_'
'wherever_'
'wer'
'weigh'
'wee'
'weapons_'
'warrior_'
'wanting_'
'vous_'
'vie'
'vel'
'vag'
'vacation_'
'v_'
'usual_'
'urine_'
'upset_'
'unsub_'
'unlike_'
'unknown_'
'una'
'ul'
'ub'
'ual_'
'u'
'tting_'
'tter_'
'troops_'
'trauma_'
'trash_'
'trade_'
'track'
'tools_'
'tim'
'til'
'thunder'
'ths_'
'thre'
'thin_'
'th'
'tes_'
'terrorist_'
'ten'
'tells_'
'telephone_'
'task_'
'tar_'
'tall_'
'talent_'
'sword_'
'swim_'
'surrounded_'
'surgical_'
'surface_'
'suits_'
'suffering_'
'sucking_'
'structure_'
'stronger_'
'streets_'
'strategy_'
'stra'
'ston_'
'sters_'
'step'
'steel_'
'stare_'
'staff_'
'stab_'
'sse'
'ssa'
'span'
'spa'
'sor'
'someplace_'
'social_'
'sniff'
'smooth_'
'skull_'
'sion_'
'singing_'
'sing'
'sin_'
'silent_'
'showing_'
'shopping_'
'shooting_'
'shining_'
'sh'
'sey_'
'services_'
'ser_'
'sentence_'
'senior_'
'sending_'
'season_'
'screams_'
'screaming_'
'sci'
'scar'
'scan_'
'rus'
'rse'
'ron_'
'ron'
'roa'
'rl'
'ris'
'rich_'
'rh'
'rg'
'responsibility_'
'respond_'
'respect'
'resources_'
'residents_'
'rep'
'remind_'
'rem'
'relationship_'
'registered_'
'reco'
'recently_'
'reas'
'raw_'
'rati'
'ram'
'rai'
'quarter'
'pure_'
'pupils_'
'protecting_'
'professional_'
'process_'
'prince_'
'prime_'
'pretend_'
'pped_'
'powerful_'
'pour_'
'pounds_'
'possessed_'
'popular_'
'poo'
'pon'
'pol'
'plus_'
'play'
'plat'
'pla'
'pin_'
'pilot_'
'pil'
'pig_'
'pieces_'
'pie_'
'picking_'
'pick'
'physics_'
'pet_'
'pers'
'pen'
'pee_'
'pee'
'pea'
'pe'
'pap'
'packed_'
'outta_'
'outl'
'our'
'ott'
'ot_'
'os_'
'ort_'
'original_'
'organs_'
'opposite_'
'operation_'
'ope'
'oo_'
'ola'
'ok_'
'officers_'
'offered_'
'obviously_'
'numb'
'nts_'
'nti'
'nt'
'ns'
'noticed_'
'night'
'nie_'
'neighborhood_'
'negative_'
'nec'
'nc'
'nature_'
'native_'
'nasty_'
'nar'
'murderer_'
'murdered_'
'mum_'
'moves_'
'mop_'
'moments_'
'mixed_'
'mit'
'missi'
'messages_'
'mentioned_'
'mbl'
'marked_'
'manager_'
'manage_'
'lum'
'lt'
'losing_'
'location_'
'lo'
'lit'
'limit_'
'lex'
'lets_'
'let'
'ler_'
'leaves_'
'leads_'
'leader_'
'ld'
'lay'
'laundry_'
'lat'
'lands_'
'lack_'
'lac'
'knocked_'
'kissed_'
'kg'
'ket'
'justice_'
'jun'
'jumped_'
'joy_'
'jor'
'je_'
'iz'
'ita'
'issues_'
'iron_'
'io'
'investigation_'
'internet_'
'insist_'
'ins'
'ini'
'indi'
'incredible_'
'increased_'
'increase_'
'including_'
'importance_'
'imper'
'imp'
'immediately_'
'illness_'
'illegal_'
'ill'
'ig'
'if'
'ier_'
'ider_'
'ide_'
'ices_'
'ice'
'ian_'
'hum'
'hug_'
'hooked_'
'hon'
'homework_'
'hing_'
'hi_'
'heavily_'
'head'
'hates_'
'ham_'
'hall_'
'h'
'guts_'
'guilt_'
'gue_'
'gru'
'grandpa_'
'gorgeous_'
'glowing_'
'glory_'
'gifts_'
'gi'
'ghosts_'
'gh_'
'gg'
'ges_'
'ger'
'george_'
'gasps_'
'gall'
'galaxy_'
'fun'
'fuel_'
'fu_'
'fu'
'fresh_'
'formed_'
'forest_'
'focused_'
'flu_'
'fits_'
'firm_'
'finding_'
'financial_'
'fin'
'fever_'
'fence_'
'feeding_'
'fee'
'favour'
'fancy_'
'fallen_'
'failing_'
'extra'
'exten'
'existence_'
'exhausted_'
'exh'
'excellent_'
'ex'
'ew'
'eu'
'ets_'
'ery_'
'ers'
'ero'
'ern'
'eri'
'ere'
'engineer'
'ened_'
'ena'
'emotional_'
'embarrass_'
'elevator_'
'electricity_'
'egg_'
'ega'
'effort_'
'effects_'
'ee'
'earn_'
'ear_'
'dumb_'
'dude_'
'du'
'dro'
'draw_'
'drank_'
'dor'
'doll_'
'doin_'
'doc'
'div'
'dish_'
'dirt_'
'dig'
'difficulties_'
'differently_'
'differences_'
'dictionary_'
'ders_'
'deliver_'
'delicious_'
'del'
'dee'
'deck_'
'dar'
'dan'
'cul'
'cu'
'crown_'
'cross'
'cried_'
'creative_'
'create_'
'cre'
'craft_'
'covering_'
'contain'
'contact_'
'considered_'
'confess_'
'condition_'
'concern_'
'con_'
'competition_'
'comp'
'command_'
'com'
'coincidence_'
'coa'
'clu'
'clouds_'
'client_'
'clear'
'cked_'
'circu'
'cin'
'chi'
'cheated_'
'cheap_'
'charges_'
'char'
'chan'
'ceremony_'
'cer_'
'celebrate_'
'castle_'
'cas'
'cardio_'
'capital_'
'campaign_'
'cage_'
'cab_'
'buying_'
'bust'
'burned_'
'brush_'
'bru'
'boring_'
'bore_'
'bon'
'boil'
'bo_'
'blu'
'blow'
'blessing_'
'blade_'
'bit'
'bility_'
'bble_'
'battery_'
'bathing_'
'basically_'
'basement_'
'bailey_'
'aware_'
'ash'
'asc'
'artist_'
'article_'
'ard'
'approve_'
'appropriate_'
'answers_'
'anne_'
'alter'
'alle'
'ali'
'aircraft_'
'ain'
'ah'
'afford_'
'aff'
'adjust'
'ach_'
'accused_'
'accepted_'
'ably_'
'abandoned_'
'ab'
'Yukawa_'
'Young_'
'Yo'
'YEAH_'
'World_'
'Won_'
'Without_'
'White_'
'Wh_'
'Wel'
'Wall_'
'Walk_'
'Wal'
'WE_'
'WE'
'Vietnam_'
'Ver'
'Vegas_'
'Van'
'VE_'
'Unfortunately_'
'Tom'
'Thro'
'Ted_'
'THERE_'
'Sy'
'Super'
'Stupid_'
'Stu'
'Stra'
'Stand_'
'Spi'
'Sounds_'
'Son_'
'Sol'
'Smith_'
'Simon_'
'Seven_'
'Sea'
'Sca'
'Sal'
'Russian_'
'Rose_'
'Rick_'
'Rec'
'Rachel_'
'Quiet_'
'Pol'
'Perfect_'
'Penny_'
'Pat'
'PO'
'PE'
'Ow_'
'Os'
'None_'
'Neither_'
'Nan'
'Nam'
'Na_'
'NS'
'Mou'
'Monsieur_'
'Mind_'
'Mil'
'Matthew_'
'Matt_'
'Martin_'
'Mal_'
'Ma'
'ME'
'Looking_'
'Light_'
'Lieutenant_'
'Lan'
'Lady_'
'LI'
'LE'
'Korean_'
'Kno'
'Keep'
'Katie_'
'Kan'
'KE_'
'June_'
'Joseph_'
'Johnny_'
'Jew'
'Jenn'
'Jem_'
'Jake_'
'Jack'
'Is'
'Internet_'
'IE'
'ID_'
'ID'
'Howard_'
'House_'
'High_'
'Hi'
'Heather_'
'Hank_'
'Han'
'HER_'
'Gun'
'Grunts_'
'Groans_'
'Grandma_'
'Gon'
'Gol'
'God'
'Getting_'
'GRUNTS_'
'GI'
'Fu'
'Forget_'
'For'
'Flo'
'Fish'
'Finally_'
'Fifty_'
'Et'
'Especially_'
'Empire_'
'Em'
'Eh_'
'ER_'
'ERING_'
'EN'
'Drink_'
'Drew_'
'Dragon_'
'Doug_'
'Double_'
'Donn'
'Doctors_'
'Di'
'Department_'
'Dec'
'Death_'
'DR'
'DI'
'DE'
'Cut_'
'Cre'
'Council_'
'Couldn_'
'Cor'
'Cons'
'Connie_'
'Comrade_'
'Coa'
'Close_'
'Cl'
'Christian_'
'Chris_'
'Chan'
'Cath'
'Cao_'
'Can'
'Calm_'
'Caesar_'
'CO'
'CL'
'CI'
'Bur'
'Bro'
'Brad_'
'Both_'
'Boo'
'Black'
'Bla'
'Between_'
'Bet'
'Ber'
'Behind_'
'Bas'
'Bal'
'Bad_'
'BS'
'BE_'
'Attention_'
'Ass'
'Answer_'
'Andrew_'
'Am'
'Although_'
'Almost_'
'Allison_'
'Air'
'Aga'
'Ae'
'AC'
'9시'
'8시'
'71'
'65'
'5월_'
'5분'
'5년'
'48'
'47_'
'41'
'3주'
'3일'
'3번'
'3명'
'3개'
'35_'
'31'
'300_'
'2일'
'29'
'28'
'26'
'20분_'
'20분'
'198'
'197'
'193'
'10시'
'10만_'
'00'
'... -_'
'-- '
','
') - (_'
'('
'" (_'
'! '_'
' ♬ _'
' /_'
' ... _'
' - '
'히틀러'
'희망이_'
'흩어'
'흥미로운_'
'흥_'
'흡'
'흘리고_'
'흔들어_'
'흉부'
'흉내'
'휴대폰'
'훈련을_'
'후보자'
'회의_'
'회복할_'
'회복하'
'회복_'
'회는_'
'황제'
'황금'
'환장'
'환자예요_'
'환자분'
'환자들_'
'환자들'
'환영한다_'
'환상적이'
'환경'
'환각'
'확인해봐'
'확률이_'
'확_'
'화장실'
'화상'
'화났어_'
'화난_'
'홈즈_'
'혹시'
'호의'
'호수'
'호랑이'
'형제야_'
'형이'
'형사님'
'협회'
'협박'
'혐오'
'현장'
'현실'
'현명하'
'현금으로_'
'혁명'
'헬기'
'헤로인'
'험한_'
'헌트가_'
'허락해'
'향해_'
'행하'
'행크_'
'행운이'
'행복했'
'행동은_'
'행동_'
'했을때_'
'했었다_'
'했어야_'
'했습니까_'
'했단다_'
'했는'
'했겠'
'핵심이'
'해커'
'해줬어_'
'해줬'
'해주시'
'해주는_'
'해져'
'해야되'
'해야겠다_'
'해야겠네_'
'해볼_'
'해변_'
'해명'
'해두'
'해놨'
'해결하'
'해결되'
'해결_'
'항_'
'함정이'
'함에_'
'함대'
'함께하'
'할아버지'
'할수'
'할머니는_'
'할래요_'
'할때'
'할께_'
'한텐_'
'한테'
'한스'
'한방'
'한명의_'
'한명_'
'한대'
'한달_'
'한다니'
'한국의_'
'한국'
'한것_'
'한것'
'학위를_'
'학위'
'학대'
'학교로_'
'하퍼_'
'하키_'
'하찮은_'
'하질_'
'하지'
'하에_'
'하루에_'
'하루가_'
'하려고요_'
'하드'
'하던데_'
'하더라고요_'
'하더군_'
'하늘이_'
'하는지'
'하는것_'
'하느라_'
'하냐_'
'하나로_'
'하고있어'
'하게도_'
'하거든요_'
'핏'
'필요합니다_'
'필요할'
'필요하겠'
'피운'
'피부_'
'프트'
'프로젝트_'
'프렌'
'프가_'
'품_'
'풀이_'
'풀어줘_'
'풀렸'
'표하'
'표정'
'표적'
'폼'
'폭탄이_'
'폭탄이'
'포함'
'포트'
'포착'
'포도주'
'포기할_'
'포기_'
'폐하'
'폐를_'
'평소_'
'평생을_'
'평범하'
'편집'
'편안하'
'펫'
'페퍼'
'퍼스'
'팽'
'패배자'
'팝'
'팔이_'
'판사가_'
'판사'
'파티는_'
'파워'
'파내'
'틀림없'
'틀리'
'틀려'
'특수'
'특별_'
'트럭이_'
'트럭_'
'트러'
'트랙'
'튀어나'
'튀어_'
'퉁'
'툭'
'투쟁'
'투_'
'퇴학'
'퇴원'
'통할'
'통치'
'통이_'
'통에_'
'통과하'
'톱'
'톡'
'토요일에_'
'토끼_'
'텔레비전'
'테이프_'
'테마'
'털이'
'터의_'
'터에'
'태어나기_'
'태양을_'
'태양_'
'탕_'
'탕'
'탔'
'탓하'
'탓'
'탐험'
'탈출하'
'탈출'
'탄생'
'탁자'
'타키_'
'타임_'
'타임'
'타일러_'
'타이어'
'타격'
'타가_'
'킹_'
'킬러'
'킨'
'키워'
'키스해'
'키스를_'
'클럽이'
'클럽에서_'
'클럽'
'클래'
'크를_'
'크레'
'큐'
'쿨'
'쿠_'
'쾌'
'콜롬비아_'
'코프'
'코니'
'켄'
'케프너'
'케이크'
'컵_'
'커트'
'커버'
'캡틴_'
'캠프_'
'캠이_'
'캔디스'
'캐스_'
'캐서린_'
'캐나다'
'칼리'
'카우보이'
'카메라를_'
'카리'
'카드를_'
'칩'
'침을_'
'침대로_'
'친한_'
'친구의_'
'친구랑_'
'친구들이'
'칙'
'치프_'
'치유'
'치료할_'
'치기'
'층에_'
'측은_'
'취재'
'췌장'
'충성'
'충돌_'
'출혈_'
'출혈'
'출석'
'출발해'
'출발하자_'
'출발'
'출구'
'춘_'
'축하한다_'
'축하_'
'추수감사절'
'추방'
'최소_'
'최근의_'
'최고야_'
'최고로_'
'총알이_'
'총리'
'초를_'
'초능력'
'쳤어요_'
'쳐버'
'쳐도_'
'쳐다봤'
'첸'
'체육'
'청산'
'첫번째'
'첩_'
'철이_'
'철수'
'천만에요_'
'척이'
'처음에_'
'처방'
'처리해_'
'처럼'
'챙기'
'챙겼'
'책임이'
'찾은'
'찾으려고_'
'찾아요_'
'찾아오'
'찾아봐_'
'찾아내'
'찾게_'
'창피'
'참여'
'참석하'
'참고하'
'참고'
'찰스'
'착오'
'차서_'
'차례야_'
'차도_'
'차고_'
'찢어졌'
'찢'
'찔러'
'찍어_'
'쯤에_'
'쫓아_'
'쫓겨'
'쫓'
'쪽이'
'쩍_'
'짤'
'짖'
'짓이_'
'집중_'
'집어_'
'집어'
'집안_'
'집사람'
'질을_'
'질러'
'진행해'
'진지하게_'
'진지'
'진정해요_'
'진전'
'진이_'
'진이'
'진심이'
'진실이_'
'진다고_'
'직장을_'
'직원이'
'직원'
'지휘관'
'지하철을_'
'지하철'
'지팡이'
'지켜야_'
'지체'
'지진'
'지자'
'지을'
'지원하'
'지원_'
'지옥으로_'
'지역_'
'지어_'
'지랄'
'지니_'
'지났어요_'
'지나갔'
'지나가는_'
'지기'
'지금으로'
'지겹'
'증이_'
'증을_'
'증오'
'증거_'
'즐기는_'
'즐겁'
'즐거워'
'즈니'
'즈는_'
'즈가_'
'쥐새끼'
'줬잖아_'
'줬다'
'줬고_'
'줘야'
'중요해_'
'중심'
'중상'
'준비하고_'
'준거'
'죽인'
'죽음'
'죽였다고_'
'죽었지_'
'죽었다는_'
'죽어가는_'
'죽길_'
'주죠_'
'주제'
'주장하'
'주워'
'주었'
'주시오_'
'주시면_'
'주시기_'
'주소를_'
'주소는_'
'주문_'
'주먹'
'주말_'
'주던'
'주겠네_'
'주가_'
'죄다_'
'좋은데요_'
'좋았어요_'
'좋아했어요_'
'좋아할'
'좋아보이'
'좋군요_'
'좋고_'
'좆_'
'종이'
'종양이_'
'존재한다'
'족을_'
'조합이'
'조카'
'조직_'
'조용'
'조엘_'
'조사_'
'조명'
'조금은_'
'조금'
'졌습니다_'
'젬'
'젠장할_'
'젠_'
'제정신이'
'제인'
'제이크_'
'제비'
'제말은_'
'제레미'
'제군들'
'제겐_'
'정착'
'정의의_'
'정신병'
'정상이'
'정비'
'정부를_'
'정당'
'접속'
'접근할_'
'접근_'
'점차_'
'점에서_'
'젊고_'
'절했'
'절친'
'절차'
'절제술'
'절반이'
'절반'
'절개를_'
'전환'
'전화해'
'전화할'
'전혀요_'
'전해주'
'전할'
'전하는_'
'전파'
'전투_'
'전체의_'
'전원_'
'전력을_'
'전략'
'전국'
'적이지'
'적으로'
'저희를_'
'저항군'
'저자'
'저리'
'저래_'
'저녁을_'
'저긴_'
'저걸_'
'쟨_'
'재정'
'재잘'
'재앙을_'
'재미없어'
'재단'
'장치'
'장소를_'
'장미'
'장난이_'
'장군_'
'장관'
'잡은_'
'잡으'
'잡아요_'
'잡는_'
'잠시'
'잠그'
'잘할_'
'잘하는_'
'잘못했어요_'
'잘못되'
'잘난_'
'잘가'
'잔이'
'작전을_'
'작용을_'
'작성하'
'작별'
'작년에_'
'작년_'
'자체가_'
'자제'
'자전거'
'자일'
'자이'
'자유롭게_'
'자와_'
'자식을_'
'자살하'
'자살을_'
'자말'
'자랐어_'
'자랐'
'자란_'
'자네들'
'자나_'
'자길_'
'자기들'
'자궁'
'자국이_'
'자게_'
'잊으'
'잊어버려_'
'잊어_'
'있잖'
'있음'
'있을때_'
'있을꺼야_'
'있으며_'
'있으라'
'있었을_'
'있었을'
'있든_'
'있더라'
'있대_'
'있다니_'
'있는지도_'
'있는데'
'있는건_'
'있겠지만_'
'있겠네요_'
'입증'
'입원했'
'입원'
'입어야_'
'입어_'
'임시'
'임무_'
'잃었어요_'
'잃어'
'잃게_'
'읽을_'
'읽었는데_'
'읽는_'
'일했다_'
'일했'
'일하는데_'
'일주일에_'
'일이잖아요_'
'일으켜'
'일에는_'
'일어났어_'
'일어날'
'일상'
'일부분'
'일부_'
'일본_'
'일본'
'일러'
'일년'
'일거야_'
'인턴_'
'인터'
'인지는_'
'인줄_'
'인원'
'인식'
'인쇄'
'인류의_'
'인디'
'이혼한_'
'이해한다'
'이해하려고_'
'이틀_'
'이층'
'이자_'
'이자'
'이예요_'
'이었지_'
'이었습니다_'
'이었는데_'
'이었고_'
'이어_'
'이안'
'이스라엘'
'이상하다'
'이쁘'
'이빨'
'이비_'
'이브'
'이번에도_'
'이마'
'이리와'
'이름들'
'이름도_'
'이뤄'
'이런거_'
'이래서_'
'이래'
'이따가_'
'이동하'
'이는'
'이냐_'
'이기는_'
'이기고_'
'이겼다'
'이겨내'
'이것을_'
'이것들은_'
'이거야_'
'의존'
'의자에_'
'의원님'
'의외'
'의미하는'
'의미도_'
'의문'
'의뢰인'
'응답하'
'음이_'
'음악은_'
'음식이_'
'음성'
'음모'
'음료'
'은총'
'으셨'
'으로'
'으니까요_'
'육체'
'유카와_'
'유전자_'
'유전'
'유리_'
'유령_'
'위원회의_'
'웹'
'웬'
'웨딩'
'원했던_'
'원하던_'
'원자'
'원은_'
'원으로_'
'워드'
'웃음'
'움직임'
'운전해_'
'운명은_'
'운명_'
'우주의_'
'우정'
'우울증'
'우연'
'우리집'
'우리보다_'
'우리들의_'
'우리들'
'우드_'
'우니까_'
'우가_'
'용해'
'용서_'
'용서'
'용사'
'용도'
'용기'
'욜'
'요점은_'
'요원들'
'요소'
'요리를_'
'요구했'
'요구하'
'외출'
'외국인'
'외국'
'외교'
'외계인'
'왜냐'
'왕은_'
'왕관'
'왔고_'
'완수'
'완벽해_'
'완_'
'와줘서_'
'와주셔서_'
'와주'
'와봐_'
'와도_'
'옮겨_'
'올바른_'
'올림픽_'
'올라오'
'올라갔'
'올라갈'
'올거'
'온지_'
'온종일_'
'온전'
'온도'
'온다'
'온건_'
'옥상'
'오후에_'
'오지'
'오줌_'
'오웬_'
'오염'
'오셨습니다_'
'오브'
'오버리_'
'오를_'
'오른쪽으로_'
'오로지_'
'오려'
'오라'
'오디'
'오다니_'
'오니'
'오늘밤'
'오겠'
'옛날'
'예약해'
'예수'
'예방'
'옆으로_'
'영화관'
'영역'
'영어_'
'영상'
'영리하'
'영리'
'영광입니다_'
'영감'
'염색'
'열차_'
'열받'
'열렸'
'연인'
'연설_'
'연설'
'연기하'
'연극'
'역할'
'역이'
'역사상_'
'여행에_'
'여행_'
'여지'
'여자친구가_'
'여자인'
'여자와_'
'여자예요_'
'여자에'
'여자야_'
'여자들'
'여있'
'여유가_'
'여부를_'
'여러분이_'
'여러분들'
'여러분께_'
'여기저기_'
'엠파이어'
'엘프'
'엘리베이터'
'엘레'
'엔지니어'
'에피'
'에이전트'
'에릭_'
'에다가_'
'에너지가_'
'에게는_'
'엉덩이에_'
'었던_'
'었다'
'없인_'
'없으'
'없었다고_'
'없어진'
'없어졌'
'없더'
'없다니_'
'없다'
'없니_'
'없는데요_'
'없겠지_'
'업을_'
'업무'
'업계'
'엄만_'
'엄마와_'
'엄마야_'
'얽'
'얼음_'
'얼굴이'
'얼굴도_'
'얻었'
'얻기'
'언제든_'
'언덕'
'언_'
'어쩐'
'어울려_'
'어야지_'
'어머니의_'
'어머니도_'
'어른'
'어렵'
'어라_'
'어떨지_'
'어떤가요_'
'어떠세요_'
'어딘지'
'어딘가에_'
'어디있는지_'
'어디에서'
'어디가_'
'어기'
'얘들'
'얘기한_'
'얘기하지_'
'얘기하자_'
'양초'
'양은_'
'얌'
'약혼'
'약하'
'약쟁이'
'약은_'
'약물'
'야망'
'야구'
'앨범_'
'앨리슨'
'앨런_'
'애플'
'애인이'
'애인_'
'애니'
'앞으로의_'
'앞으로도_'
'앞서'
'았다_'
'암흑'
'암시'
'암살'
'알파_'
'알트먼'
'알을_'
'알았을_'
'알았다고_'
'알았는데요_'
'알았고_'
'알아두'
'알아낼'
'알아내는'
'알려드'
'알렉스'
'알레'
'알고있다_'
'않을게요_'
'않으려'
'않았던_'
'않았다고_'
'않았기_'
'않소_'
'않던'
'않는데_'
'않는단다_'
'않길_'
'않기_'
'앉아있는_'
'안하고_'
'안전히_'
'안식'
'안먹'
'안들'
'안됬'
'안된다'
'안된_'
'안되는거'
'안다'
'안녕'
'안나가'
'안그래_'
'안겨'
'악을_'
'악몽'
'악_'
'아픈_'
'아팠'
'아침입니다_'
'아침이'
'아직'
'아지'
'아일랜드_'
'아이작_'
'아이스'
'아이들의_'
'아유_'
'아야_'
'아시죠_'
'아빠도_'
'아버지와_'
'아버지라'
'아버님'
'아무에게도_'
'아메'
'아마도요_'
'아마'
'아름다웠'
'아래에서_'
'아라'
'아들이에요_'
'아들과_'
'아동'
'아델_'
'아닙니까_'
'아니카'
'아니니_'
'아니거든요_'
'아내와_'
'아기들'
'아가'
'씻어'
'쓸만'
'쓴다'
'쓰지'
'쓰리'
'쓰려'
'쓰는데_'
'쑤셔'
'쎄'
'싹_'
'싹'
'싸이'
'싸워_'
'싸워'
'싸움이'
'싸움_'
'싸_'
'싶진_'
'싶을_'
'싶은데요_'
'싶은게_'
'싶으세요_'
'싶어하'
'싶어서요_'
'싶다'
'싱크_'
'싱'
'십대'
'심판을_'
'심장이'
'심장에_'
'싫지만_'
'싫으'
'실패하'
'실시'
'실망시'
'실례하겠습니다_'
'신호_'
'신체'
'신원_'
'신상'
'신부님'
'신부_'
'신발을_'
'신념'
'신고'
'식품'
'식탁'
'식이'
'식을_'
'식사는_'
'식별'
'식당에서_'
'시험해_'
'시험_'
'시트'
'시체들'
'시체'
'시장님'
'시작하는_'
'시의_'
'시시'
'시스'
'시설이'
'시설'
'시뮬레이션_'
'시몬'
'시도해'
'시도하고_'
'시도하'
'시내에_'
'시나'
'시기_'
'시간이다_'
'승부'
'승객'
'슬론'
'스페인'
'스티븐스'
'스티븐_'
'스트레스_'
'스튜어트'
'스터_'
'스타일즈_'
'스캔들'
'스웨덴'
'스와_'
'스에'
'스물'
'스도_'
'스노우'
'슈퍼걸'
'슈_'
'쉬지_'
'쉬는_'
'쉐퍼드_'
'숲을_'
'숭배'
'순찰'
'숙청'
'숙제'
'숙모'
'수화'
'수호'
'수행해'
'수잔'
'수없'
'수술하는_'
'수술실로_'
'수술실'
'수송'
'수색'
'수밖에_'
'수면'
'수많은_'
'수리하'
'수라'
'수동'
'수년_'
'수관'
'수고했'
'수감자'
'송이'
'손은_'
'손바닥'
'손대지_'
'속옷_'
'속보'
'소화'
'소지'
'소원'
'소식_'
'소스_'
'소송을_'
'소속이'
'소속'
'소문'
'소리지르'
'소년_'
'소개할_'
'셰퍼드'
'셨다'
'셔야겠'
'셈'
'섹스하'
'세포'
'세척'
'세워_'
'세상엔_'
'세상에나_'
'세상'
'세명'
'세리'
'세기_'
'세기'
'세계로'
'성장'
'성자'
'성병'
'성명'
'성기'
'설명해줄'
'설명해_'
'설리'
'설교'
'선전'
'선장'
'선에서_'
'석방'
'서쪽_'
'서울_'
'서신'
'서비스를_'
'서로에게_'
'서두르'
'샤인_'
'샤오'
'생존'
'생명체'
'생긴거'
'생각한_'
'생각하시'
'생각하는데_'
'생각하는거'
'생각하겠'
'생각에는_'
'생각났'
'색으로_'
'새를_'
'새가_'
'상황인'
'상해'
'상품을_'
'상품'
'상태였'
'상점'
'상자에_'
'상자를_'
'상자가_'
'상업'
'상대를_'
'삽관'
'삼촌이'
'삼촌'
'삼각'
'살해당'
'살피'
'살인사건'
'살이야_'
'살이_'
'살았'
'살아있다'
'살릴_'
'살리'
'산업'
'산산조각_'
'산드'
'삭'
'사적인_'
'사인_'
'사이의_'
'사이에'
'사이먼'
'사에_'
'사업을_'
'사업_'
'사부님_'
'사무실로_'
'사무'
'사막_'
'사르'
'사랑했어요_'
'사랑할_'
'사랑한다_'
'사랑하지_'
'사랑하고_'
'사랑스럽'
'사람이예요_'
'사람이라고_'
'사람이나_'
'사람들한테_'
'사람들로_'
'사람과_'
'사라진_'
'사다_'
'사는데_'
'사는'
'사나이'
'사기_'
'사과를_'
'뿐이고_'
'뻐'
'빼돌'
'빼_'
'빠지지_'
'빠져나갈_'
'빗'
'빌려주'
'빌려_'
'빈센트'
'빅터_'
'비판'
'비통'
'비워'
'비웃'
'비용'
'비에'
'비싼_'
'비스_'
'비숍'
'비서'
'비누'
'비교적_'
'비교'
'브론'
'브로'
'브레'
'브랜'
'브래'
'브라이언'
'브라이'
'붙잡'
'붙어'
'붐'
'불평하'
'불어서_'
'불안정한_'
'불쌍하'
'불사'
'불명'
'불길'
'불구하고_'
'불공평해_'
'불가능'
'분해'
'분만'
'분들_'
'분들'
'북한'
'부활'
'부품'
'부패'
'부탁해요_'
'부탁하'
'부탁드'
'부탁'
'부처'
'부인이'
'부인을_'
'부유'
'부위'
'부여'
'부에'
'부시'
'부스'
'부숴'
'부수'
'부상자'
'부를'
'부른다_'
'부른_'
'부르면_'
'부러'
'부디_'
'부는_'
'부끄럽'
'부가_'
'봤자_'
'봤다'
'봤니_'
'봤고_'
'봐주'
'볼트'
'본적이_'
'본능'
'복종'
'복귀하'
'복구'
'보험_'
'보존'
'보조장치'
'보조'
'보장'
'보이지만_'
'보이면_'
'보이게_'
'보아하니_'
'보아_'
'보실'
'보셨'
'보상'
'보살'
'보렴_'
'보단_'
'보다도_'
'보는게_'
'보는거야_'
'보냈죠_'
'보낸'
'보고있'
'변했'
'변함없'
'변하고_'
'벽화'
'벽난로'
'벳'
'벨트'
'벤자민'
'베프'
'베티'
'베일리는_'
'베일'
'베리'
'벙'
'벗었'
'법적으로_'
'법원'
'범죄자'
'범인은_'
'범은_'
'벌리'
'번호판'
'번역_'
'버틸_'
'버티'
'버튼'
'버크가_'
'버스에_'
'버리겠'
'버렸지_'
'버렸죠_'
'버거'
'뱀파이어'
'밴드_'
'밴'
'배후'
'배제'
'배에_'
'배반'
'방침'
'방지'
'방식이_'
'방식은_'
'방송을_'
'방법'
'방문자'
'밥을_'
'밤새도록_'
'밝히'
'밝은_'
'발음'
'발생했'
'발목'
'발리'
'발렌타인_'
'발견되었'
'발가락'
'받은'
'받으면_'
'받았지'
'받았다고_'
'받아주'
'받겠'
'반했'
'반사'
'반납'
'반가웠'
'반가워_'
'밖이'
'박사의_'
'박동'
'바지_'
'바에'
'바람과_'
'바랄_'
'바라지'
'바라고_'
'바라_'
'바는_'
'바뀌었'
'밑바닥'
'및_'
'밀러'
'믿어주'
'믿어야_'
'믿는다_'
'민들'
'미치광이'
'미치_'
'미안하네_'
'미안하게_'
'미스_'
'미술'
'미상'
'미사'
'미래가_'
'미니'
'미국인이'
'미국이_'
'미가_'
'므로_'
'뭡니까_'
'뭘로_'
'뭐가요_'
'물체'
'물질이'
'물은_'
'물어봤'
'물어_'
'물론입니다_'
'물건이_'
'물건이'
'물가'
'묻혀'
'문제의_'
'문장이_'
'문자_'
'문자'
'문명'
'묵'
'무지_'
'무엇이든_'
'무어_'
'무섭지_'
'무선'
'무서웠'
'무서운'
'무례하'
'무례'
'무단'
'무너뜨'
'무게가_'
'묘'
'못할거'
'못한다고_'
'못하다'
'못하겠지만_'
'못찾'
'못봤어_'
'못봤'
'몹'
'몬_'
'목적'
'목욕'
'목숨_'
'목구멍'
'목격자'
'모헨조_'
'모텔'
'모인_'
'모양'
'모습이_'
'모습으로_'
'모습_'
'모범'
'모리'
'모를거'
'모를'
'모른다'
'모르니_'
'모르는데_'
'모르게_'
'모든것'
'모델'
'몇주'
'몇분'
'몇년동안_'
'명이나_'
'명사'
'면회'
'며칠'
'멜로'
'멜라'
'멜_'
'멕시코_'
'메일'
'메스를_'
'메스_'
'메러디스'
'메가'
'멍청아_'
'멍'
'멋진'
'멋지네요_'
'멋지'
'멋'
'멈추고_'
'멈'
'멀쩡해_'
'먹자_'
'먹을'
'먹었어요_'
'먹어야'
'먹기'
'머무'
'머리카락'
'머니'
'맥이_'
'매주_'
'매복'
'매력_'
'맡을_'
'맡은_'
'맞이'
'맞다'
'맞나요_'
'맞게_'
'망쳤어_'
'망쳤'
'망설'
'망상'
'망가지'
'말해줄게_'
'말해준'
'말해주세요_'
'말하는데_'
'말하는거'
'말좀_'
'말자'
'말이예요_'
'말씀해주'
'말씀해_'
'말씀드렸'
'말려들'
'말들'
'말과_'
'많이'
'많은데_'
'많으'
'많아서_'
'많아'
'만큼'
'만질_'
'만족하'
'만으로_'
'만났던_'
'만날'
'막히'
'막지_'
'막대'
'마크가_'
'마커스'
'마찬가지로_'
'마이클'
'마에'
'마시자_'
'마법이'
'마법을_'
'마법_'
'마법'
'마르코_'
'마련'
'마디도_'
'마디_'
'마는_'
'릴거야_'
'린을_'
'리허설_'
'리치'
'리처드_'
'리오_'
'리오'
'리사_'
'리비'
'리다'
'릉'
'르네'
'륨_'
'룰'
'룩'
'루카스_'
'루이스_'
'루이_'
'루스'
'루소'
'롱_'
'롭고_'
'롬'
'롤로_'
'로프'
'로키'
'로운_'
'로우'
'로스는_'
'로빈슨_'
'로빈스_'
'로버트_'
'로를_'
'로렐_'
'로드_'
'로드'
'렬'
'력_'
'려야_'
'렛'
'렉시'
'레지던트_'
'레지던트'
'레딩'
'렇'
'렁_'
'럽게_'
'러운_'
'러시아_'
'러스'
'러셀_'
'략'
'랫'
'락이_'
'라이트'
'라이온'
'라이언_'
'라이더'
'라에'
'라스'
'라디오'
'라니'
'라는'
'라네_'
'뜻이_'
'뜯'
'뜩'
'뜨면_'
'뜨고_'
'뛰어넘'
'뛰어가'
'뚜'
'또는_'
'떼어놓'
'떨어트'
'떡'
'떠났죠_'
'떠난다'
'떠나서_'
'떠나기_'
'때문이라고_'
'때만_'
'때린'
'때로는_'
'땅_'
'딸이죠_'
'딸은_'
'따라오세요_'
'따라오'
'딜_'
'딜'
'딕'
'디는_'
'등을_'
'듯하'
'듯'
'들은'
'들었을_'
'들어있'
'들어와'
'들어온'
'들어오세요_'
'들어봤'
'들어본_'
'들어보세요_'
'들어갔다_'
'들어간다'
'들어가야_'
'들어가고_'
'들어가게_'
'들르'
'들러리'
'들고'
'든다'
'드릴께요_'
'드릴'
'드를_'
'드라마'
'뒤졌'
'뒀다'
'둬요_'
'둥이'
'둘러보'
'둘러'
'두번'
'두배'
'두리'
'두려워하지_'
'두려워'
'두드'
'두겠'
'됬어_'
'될겁니다_'
'된건'
'된거죠_'
'되지'
'되어서_'
'되시'
'되도록_'
'되더'
'되다니_'
'되니까_'
'되기_'
'되겠지_'
'되겠어요_'
'되겠네요_'
'됐다'
'됐네요_'
'됐군_'
'돼있'
'동의를_'
'동의_'
'동의'
'동안에_'
'동물이'
'동무'
'동맥을_'
'동네_'
'동기'
'동굴'
'돌아와'
'돌아올게요_'
'돌아오는_'
'돌아다'
'돌아간'
'돌아'
'도청'
'도착_'
'도의_'
'도와줄게요_'
'도와줄'
'도와주시'
'도와주고_'
'도시에'
'도망치'
'도리'
'도둑이'
'도니_'
'도는_'
'도나_'
'도그'
'데릭은_'
'데를_'
'데려올_'
'데려갈_'
'데려가서_'
'데려가_'
'데려'
'데렉'
'데니스'
'데니'
'더해'
'더럽'
'더러_'
'더러'
'더라구요_'
'댔어요_'
'댔어_'
'댁이_'
'대화_'
'대피'
'대통령이_'
'대장님_'
'대응'
'대위님'
'대부분은_'
'대략_'
'대동맥'
'대단'
'대니얼_'
'당황'
'당했다_'
'당했다'
'당신측'
'당신처럼_'
'당신만_'
'당신들을_'
'당겨'
'답게_'
'담당하'
'달에_'
'달려있'
'달러가_'
'달래요_'
'달라지'
'닫히'
'닫아_'
'단어가_'
'단순한_'
'단백질'
'단걸_'
'닦'
'닥치라고_'
'다행이다_'
'다이너'
'다음날_'
'다음과_'
'다운_'
'다야_'
'다스'
'다를_'
'다닐'
'다녀오'
'다녀_'
'다가오'
'닝'
'닌_'
'니아'
'니스'
'니네'
'늦지_'
'늦어'
'는데도_'
'는다'
'는구나_'
'는거지_'
'느리'
'느낌_'
'느껴졌'
'느껴져요_'
'눕'
'눈은_'
'눈에'
'누르'
'누나가_'
'누군지도_'
'누구인지_'
'누구와_'
'누구시죠_'
'누구를_'
'누구냐'
'뇨_'
'뇌에_'
'놔요_'
'놔야'
'놔둘_'
'놓으면_'
'놓았다_'
'높이'
'놈이라'
'놀이_'
'녹화'
'노크'
'노조'
'노인네'
'노벨'
'노릇'
'노력했어요_'
'노력했'
'노력해야_'
'노력하'
'노래는_'
'노동'
'년대'
'넬_'
'넥타이'
'네놈들'
'넣을_'
'넣는_'
'넘게_'
'너흰_'
'너무나_'
'너라'
'냐는_'
'냐구요_'
'냐구_'
'냈지_'
'냈어요_'
'냄새는_'
'낼거야_'
'내일이_'
'내사'
'내부_'
'내버려'
'내면'
'내려와_'
'내년에_'
'내기_'
'낮은_'
'낭만'
'났다_'
'낫다'
'납셨'
'남자랑_'
'남이'
'남은'
'남았습니다_'
'남성'
'남동생'
'남_'
'날인'
'날거'
'나하고_'
'나타나서_'
'나치_'
'나오는'
'나오게_'
'나무들'
'나무가_'
'나마'
'나리_'
'나라면_'
'나네요_'
'나가지_'
'나가주'
'나가라'
'나가고_'
'끼_'
'끝장'
'끝이다_'
'끝이'
'끝내주'
'끝나고_'
'끔찍하고_'
'끌어내'
'끌고가'
'끊어야'
'끄덕'
'꿈속에서_'
'꽃이_'
'꽁'
'꼴이_'
'꼴_'
'께서는_'
'껄_'
'깨졌'
'깨어났'
'깨달았'
'깨닫'
'깎'
'까지요_'
'길에서_'
'길어'
'길거리'
'기증'
'기원'
'기억하는_'
'기억에_'
'기억나요_'
'기쁜_'
'기뻐요_'
'기분이'
'기밀'
'기만'
'기름_'
'기다리게_'
'기다려보'
'기능'
'금이'
'금속'
'글리'
'글라스'
'극복'
'그분이_'
'그분은_'
'그만할'
'그림이'
'그리스'
'그리고'
'그릇'
'그렸'
'그레이스'
'그렇다_'
'그렇네요_'
'그렇구나_'
'그렇겠죠_'
'그렇게'
'그럴까_'
'그럴게_'
'그런지_'
'그런식'
'그런데'
'그런다고_'
'그런게_'
'그러네_'
'그러길_'
'그러고'
'그러게요_'
'그랬을'
'그랬는지_'
'그래보'
'그때는_'
'그들에'
'그놈이_'
'그놈들'
'그것들을_'
'규칙이_'
'규칙'
'귀중'
'귀족'
'귀엽다_'
'귀엽네_'
'권총'
'권리를_'
'궁금해'
'궁금한'
'굶어'
'굴려'
'굳이_'
'군의_'
'군데_'
'군대는_'
'국제'
'국의_'
'국가_'
'구할'
'구하는_'
'구하고_'
'구치'
'구입'
'구원자'
'구역에_'
'구역'
'구멍을_'
'구름이_'
'구두'
'구덩이'
'구급차'
'교황이'
'교수님이_'
'교과서'
'교_'
'괴롭히'
'괴롭'
'괜한_'
'괜찮은데_'
'괜찮은'
'괜찮으시'
'괜찮아질_'
'괜찮다고_'
'괜찮다'
'괜찮네_'
'관해서_'
'관은_'
'과제'
'과정을_'
'과장님'
'과장'
'과소평가'
'공화국'
'공항'
'공평하'
'공원_'
'공원'
'공식_'
'공부하'
'공부를_'
'공군'
'공간이_'
'곱'
'곰_'
'골칫거리'
'골라_'
'곧'
'고프'
'고통스럽'
'고통스러'
'고정'
'고있다_'
'고위'
'고용하'
'고용'
'고요하'
'고양이가_'
'고백'
'고발'
'고모'
'고맙소_'
'고마웠어요_'
'고마워하'
'고리'
'고를_'
'고려해'
'고등학교'
'계획_'
'계좌_'
'계좌'
'계약서'
'계십니다_'
'계신_'
'계시죠_'
'계시는'
'계속'
'계셔_'
'계단_'
'경찰한테_'
'경찰이'
'경찰에'
'경찰관'
'경이'
'경우에'
'경사'
'경보'
'경매'
'경로'
'결혼하고_'
'결혼하'
'결혼을_'
'결정할_'
'결국엔_'
'견해'
'견학'
'겪은_'
'겪'
'격하'
'겨서_'
'게해'
'게이트'
'게나_'
'것입니까_'
'것인'
'것이요_'
'것이었다_'
'것이었'
'것뿐이야_'
'것뿐이'
'것들'
'겁을_'
'겁에_'
'겁먹'
'겁나_'
'걸쳐'
'걸이'
'걸을_'
'걸리지_'
'걸리'
'걸려요_'
'걸려서_'
'걸고_'
'건축'
'건이_'
'건의'
'건은_'
'건물'
'건강을_'
'걱정했'
'걱정은_'
'거짓말하'
'거주지'
'거울_'
'거였'
'거부하'
'거면_'
'거릴_'
'거린'
'거라구_'
'거기로_'
'거기도_'
'거기까지_'
'거겠죠_'
'걔랑_'
'걔네들은_'
'걔'
'갱'
'개인'
'개방'
'같지는_'
'같죠_'
'같았어요_'
'같소_'
'같구나_'
'갖는'
'갖고'
'갖게_'
'강화'
'강해'
'강의'
'강을_'
'강간'
'갔지_'
'갓_'
'감추'
'감지'
'감은_'
'감으'
'감수'
'감사를_'
'감사드려요_'
'감독'
'감당할_'
'감각'
'갈수록_'
'갈수'
'갈망'
'갈까_'
'갈거'
'간호사들이_'
'각자_'
'가짜_'
'가주'
'가져올'
'가져온'
'가져갔어_'
'가자구_'
'가야겠어요_'
'가야겠네요_'
'가슴이_'
'가수'
'가서'
'가버'
'가발'
'가문'
'가면서_'
'가만'
'가르쳐주'
'가르쳐_'
'가르시아_'
'가려고_'
'가라'
'가두'
'가다가_'
'가능해요_'
'가능해_'
'가능하죠_'
'가는게_'
'가기로_'
'가격이_'
'가게에서_'
'♪♪'
'“_'
'zy_'
'yri'
'yelled_'
'yd'
'yc'
'xe'
'wreck_'
'wounds_'
'worries_'
'wor'
'wooden_'
'wood'
'woo_'
'woke_'
'wne'
'wn_'
'wives_'
'whoever_'
'whe'
'wed_'
'web'
'wave_'
'wav'
'water'
'washing_'
'warn_'
'walks_'
'waking_'
'vow'
'vomit'
'volunteer'
'vita'
'visitor_'
'visi'
'virgin_'
'vin_'
'vin'
'vi'
'ver_'
'uts_'
'uti'
'usi'
'useful_'
'uring_'
'uri'
'ures_'
'uno'
'unless_'
'units_'
'unf'
'unexpected_'
'une'
'unde'
'uit'
'ue'
'tz'
'ty'
'twenty_'
'turtle'
'turkey_'
'ture_'
'tub_'
'tted_'
'tt'
'trusted_'
'trou'
'troll'
'tries_'
'treating_'
'tre'
'transform'
'trans'
'toy_'
'towards_'
'toward_'
'tortured_'
'too'
'tom'
'toe_'
'tle_'
'tive_'
'title_'
'ting'
'tickets_'
'tic'
'throwing_'
'thro'
'threatened_'
'thless_'
'there'
'ther_'
'theories_'
'that'
'tha'
'terrified_'
'terr'
'tender_'
'tend'
'temple_'
'temperature_'
'television_'
'tel'
'technology_'
'teachers_'
'tches_'
'tax'
'tattoo_'
'tast'
'tail_'
'tail'
'tac'
'switch_'
'swelling_'
'sweep_'
'sweater_'
'sweat'
'swallow_'
'survived_'
'surprises_'
'sun'
'suggested_'
'suction_'
'success_'
'suc'
'subconscious_'
'studying_'
'studies_'
'stu'
'stro'
'stress_'
'stranger_'
'stones_'
'stink'
'stays_'
'status_'
'statement_'
'stat'
'staring_'
'stag'
'sso'
'ss'
'spoken_'
'spli'
'spleen_'
'spite_'
'speaks_'
'space'
'south_'
'sons_'
'songs_'
'son'
'solution_'
'snarling_'
'snap_'
'smiling_'
'slip_'
'slide_'
'sleeve'
'sle'
'slap'
'ske'
'sin'
'silver_'
'silk_'
'signal_'
'sic'
'shr'
'shown_'
'short'
'shocked_'
'shock_'
'shelf_'
'sheep_'
'shared_'
'shan'
'shaking_'
'shake_'
'shade_'
'sexual_'
'sessions_'
'servant_'
'seize'
'sec'
'seat'
'searching_'
'searched_'
'screw_'
'score'
'school'
'scary_'
'sav'
'sat'
'sanction'
'samples_'
'sales_'
'sale_'
'sailing_'
'rush'
'runs_'
'ruling_'
'ruined_'
'rti'
'rte'
'rt'
'roy'
'row'
'rose_'
'rope_'
'rop'
'roo'
'rn_'
'rm_'
'rm'
'rises_'
'rily_'
'rights_'
'rid'
'rice_'
'rib'
'rew'
'review_'
'revi'
'retire'
'results_'
'ressed_'
'rer_'
'require'
'requested_'
'reports_'
'ren_'
'reminds_'
'remark'
'remain'
'relieved_'
'released_'
'regular_'
'reg'
'ree'
'redi'
'recent_'
'rec'
'reasons_'
'reality_'
'real'
'read'
'rc'
'rb'
'rated_'
'rat'
'ras'
'rare_'
'rally_'
'rain'
'radar_'
'raci'
'quicker_'
'quer'
'py'
'puts_'
'punish'
'pump'
'pulling_'
'prov'
'protection_'
'propose_'
'profit'
'products_'
'production_'
'product_'
'prize_'
'pride_'
'prices_'
'present'
'pray_'
'practic'
'ppy_'
'powers_'
'post'
'portrait_'
'policy_'
'plenty_'
'pleasant_'
'plate_'
'plants_'
'pit_'
'piss_'
'pink_'
'pile'
'photograph'
'pho'
'pet'
'period_'
'peri'
'perhaps_'
'penis_'
'passing_'
'passes_'
'pas_'
'panting_'
'panic_'
'pan'
'pal_'
'pager_'
'ows_'
'outcome_'
'otherwise_'
'ot'
'ost'
'ory_'
'orit'
'ore_'
'ore'
'option_'
'operate_'
'opens_'
'op'
'ones'
'oli'
'ole'
'oi'
'odd_'
'nut_'
'nsi'
'noble_'
'nke'
'niece_'
'nia'
'newspaper_'
'nerves_'
'nephew_'
'need'
'neck'
'nearby_'
'nder_'
'nde'
'nci'
'nat'
'narrow_'
'mysterious_'
'mpl'
'mountains_'
'motherfucker_'
'mother'
'monsters_'
'mono'
'monk_'
'modern_'
'mock'
'mining_'
'minim'
'mid'
'mic_'
'mic'
'mi'
'meth'
'merge'
'menta'
'meet'
'medica'
'medi'
'measure_'
'meaning_'
'mean'
'meal_'
'mea'
'mature_'
'matic_'
'material_'
'massive_'
'marks_'
'marching_'
'map'
'mani'
'managed_'
'male_'
'maker_'
'magnet'
'lut'
'low'
'lous'
'lon'
'log_'
'ln'
'llo'
'lla'
'liv'
'lips_'
'likely_'
'lies_'
'lied_'
'lesson_'
'ler'
'leading_'
'ld_'
'laws_'
'laugh_'
'lan'
'laid_'
'kon'
'knight'
'kit'
'kis'
'kingdom_'
'kin_'
'kie_'
'kie'
'kicking_'
'ki'
'kha'
'key'
'kee'
'judgment_'
'journey_'
'jo_'
'jan'
'izing_'
'istic_'
'ist'
'ison_'
'irs_'
'ire_'
'invent'
'interrupt_'
'intensi'
'inte'
'int'
'insurance_'
'inst'
'infi'
'infect'
'indicate'
'inco'
'inches_'
'ina_'
'ina'
'imm'
'ima'
'ility_'
'ili'
'ile_'
'ify_'
'iev'
'ield_'
'ida'
'ically_'
'ica'
'ib'
'hyun_'
'hyper'
'humans_'
'ht'
'houses_'
'hou'
'host'
'hoped_'
'hin'
'hes'
'here'
'hem'
'helps_'
'helpful_'
'hee'
'hec'
'headache_'
'harm'
'hard'
'happily_'
'hall'
'gy'
'gus'
'guns_'
'guarantee_'
'gu'
'gt'
'groans_'
'gress'
'grat'
'gram'
'goodness_'
'good'
'gn'
'gle'
'gl'
'ghe'
'gent_'
'generations_'
'generation_'
'gates_'
'gan_'
'gam'
'fus'
'function_'
'fulfill'
'fucker_'
'fru'
'frozen_'
'froze_'
'fri'
'freak'
'frankly_'
'fortune_'
'former_'
'forge'
'fore_'
'fore'
'folded_'
'fold_'
'fluid_'
'flo'
'flashlight_'
'flash_'
'flash'
'fixed_'
'fix'
'fire'
'filthy_'
'fica'
'farm_'
'fantastic_'
'faint'
'facts_'
'ey'
'explosion_'
'explanation_'
'expectations_'
'exercise_'
'exce'
'evi'
'eve'
'eva'
'ett'
'eto'
'estate_'
'erly_'
'ep_'
'entr'
'enthusiasm_'
'ens'
'enjoyed_'
'ener'
'ending_'
'ence_'
'enc'
'emotion_'
'emi'
'ement'
'embarrassing_'
'emb'
'em'
'ell_'
'ell'
'election_'
'elected_'
'elder_'
'ela'
'ek'
'ein'
'effect_'
'edit'
'ect'
'ebe'
'eau_'
'east_'
'eag'
'ead'
'dust_'
'dump'
'dresses_'
'dread'
'drawer_'
'drain'
'dragon_'
'dragging_'
'dos'
'don'
'dle'
'disturbing_'
'distance_'
'dishes_'
'disgusting_'
'disaster_'
'disappear'
'disagree_'
'disabled_'
'dis_'
'dick_'
'dge'
'devil_'
'device_'
'developed_'
'details_'
'deserves_'
'der'
'deposit_'
'depend'
'dens'
'delivery_'
'delight'
'defeat_'
'def'
'deer_'
'deci'
'deca'
'dealing_'
'deal'
'dea'
'db'
'daughters_'
'darling_'
'damaged_'
'dal_'
'customers_'
'cur'
'cue'
'cts_'
'ct'
'cs_'
'crushed_'
'crisis_'
'cripple_'
'creepy_'
'credit_'
'crawl'
'crashing_'
'crash_'
'coward_'
'couples_'
'counter'
'count'
'cos'
'corner_'
'core_'
'coo'
'convinced_'
'continued_'
'continu'
'confidence_'
'comrades_'
'complained_'
'collect_'
'collect'
'colla'
'clue_'
'clown_'
'closing_'
'click_'
'classes_'
'class'
'clam'
'cks_'
'ckl'
'cke'
'cil'
'cie'
'chuckles_'
'choos'
'choices_'
'chip'
'childish_'
'cher'
'chemical_'
'chem'
'ched_'
'cheating_'
'cheat_'
'chasing_'
'chart_'
'chain_'
'cere'
'cer'
'cav'
'cast'
'cash_'
'cart'
'care'
'cam'
'cakes_'
'bypass_'
'by'
'butcher_'
'but'
'burns_'
'buried_'
'bull'
'bul'
'buck_'
'bruise'
'bride_'
'brid'
'breath'
'break'
'branch_'
'brains_'
'box'
'bow_'
'bout_'
'borrow_'
'bond_'
'bombs_'
'bol'
'boards_'
'bly_'
'blocks_'
'black'
'bien_'
'bie_'
'beyond_'
'benefit_'
'belongs_'
'believes_'
'believed_'
'belief_'
'behavior_'
'begun_'
'beeping_'
'bee'
'beauty_'
'bbi'
'battlefield_'
'bath_'
'bastards_'
'barr'
'band'
'bananas_'
'balls_'
'bail'
'bag'
'babe_'
'ba_'
'ave'
'au'
'attacked_'
'atr'
'ato'
'ati'
'assist_'
'arrival_'
'arrested_'
'ark_'
'ards_'
'approach_'
'appl'
'appear_'
'appe'
'any'
'ants_'
'ans_'
'anonymous_'
'announce'
'angel_'
'anc'
'alien_'
'alie'
'alcohol_'
'airport_'
'ai'
'agen'
'aer'
'advise_'
'advice_'
'ado'
'ack'
'ace_'
'acco'
'acce'
'abroad_'
'abdominal_'
'\u'
'Zach_'
'Yuki_'
'Yet_'
'YOUR_'
'Wouldn_'
'Wind'
'Whose_'
'Whoo_'
'Western_'
'War'
'WOMAN_'
'Vic'
'VER_'
'Ur'
'Tyler_'
'Ty'
'Twi'
'Turns_'
'Tur'
'Tuesday_'
'Tony_'
'Tommy_'
'Told_'
'Times_'
'Thor'
'Third_'
'Theo_'
'Texas_'
'Tate_'
'Tam'
'Tak'
'TT'
'TO'
'THINK_'
'THING_'
'THE'
'TARDIS_'
'Sur'
'Stuart_'
'Str'
'Stick_'
'Starting_'
'Star'
'Stannis_'
'Stan_'
'Spec'
'Sound_'
'Soo'
'Some'
'Sla'
'Shin'
'Sherman_'
'Shaw'
'Shame_'
'Sex'
'Set_'
'Ser_'
'Seoul_'
'Sel'
'Secretary_'
'Sec'
'Screw_'
'Says_'
'Sad'
'SS_'
'SS'
'SHE_'
'SE_'
'SA'
'Russians_'
'Rudy_'
'Roger_'
'Rock'
'Rep'
'Read_'
'Raymond_'
'RT'
'RES'
'RE'
'Qua'
'Push_'
'Pur'
'Prince_'
'Pres'
'Phil'
'Per'
'Pen'
'Peabody_'
'Pea'
'Par'
'PLAYING_'
'PL'
'Over'
'Op'
'Off_'
'Oc'
'Ob'
'OR'
'ON'
'Nine_'
'Night_'
'Nick_'
'Nick'
'Nat'
'NN'
'ND'
'NCE_'
'Mos'
'Mort'
'Moriarty_'
'Molly_'
'Mnh_'
'Minister_'
'Milk_'
'Mich'
'Met'
'Mas'
'Mart'
'Mal'
'Makes_'
'Mad'
'MP'
'MM'
'MB'
'Lucy_'
'Low'
'Love'
'Louis_'
'Lots_'
'Lothbrok_'
'Lor'
'Logan_'
'Lights_'
'Lett'
'Leo_'
'Left_'
'Lee_'
'Laurel_'
'Lannister_'
'LOU'
'LIKE_'
'LD_'
'Kris'
'Kind_'
'Kelly_'
'Justice_'
'Juan_'
'Jon_'
'Jimmy_'
'Jason_'
'Japanese_'
'January_'
'Jane_'
'JA'
'Isaac_'
'Iron_'
'Ing'
'Inc'
'Imagine_'
'Im'
'IC'
'Hy'
'Hun'
'Hope_'
'Hope'
'Hon'
'Him_'
'Hen'
'Hea'
'Haven_'
'Harris_'
'Hans'
'Hands_'
'Hand'
'Ham'
'Hahn_'
'HM'
'Guy_'
'Gotta_'
'Gordon_'
'Gold_'
'Glory_'
'Girl_'
'Gimme_'
'Gil_'
'Gil'
'Gi'
'Germans_'
'Ge'
'GO'
'GE'
'GA'
'Fujii_'
'France_'
'Fort'
'Forgive_'
'Focus_'
'Fla'
'Fl'
'Fantastic_'
'FF'
'FE'
'Ex'
'Ew_'
'Eu'
'Erica_'
'Er'
'Enter'
'Emperor_'
'Ellen_'
'Ele'
'El_'
'Either_'
'Eight_'
'Eat_'
'Ea'
'EV'
'ER'
'EL'
'ED_'
'During_'
'Dramatic_'
'Dong'
'Don'
'Dick_'
'Dia'
'Det'
'Definitely_'
'Dead_'
'Dan_'
'Dam'
'DON_'
'DEA'
'DAY_'
'Cris'
'Criminal_'
'Course_'
'Conn'
'Cho'
'Child'
'Ch'
'Cesar_'
'Cau'
'Cas'
'Careful_'
'CT_'
'CR'
'CONTINUES_'
'COME_'
'CK_'
'CK'
'Broadway_'
'British_'
'Born_'
'Bobby_'
'Blo'
'Bit'
'Been_'
'Be'
'Ban'
'BY_'
'BI'
'BEL'
'Arm'
'Andy_'
'And'
'Alzheimer_'
'Ale'
'Ain_'
'Age'
'Ag'
'According_'
'ATM'
'APOS_'
'; - _'
'98'
'94'
'8시_'
'8년'
'8개'
'86'
'84'
'7년_'
'75'
'6명'
'6개월_'
'67'
'65_'
'5시'
'5개'
'52'
'4시'
'4년'
'44'
'43'
'400_'
'3일_'
'3시에_'
'3분_'
'38_'
'37'
'35'
'33_'
'33'
'30초_'
'2개'
'2nd_'
'250'
'220'
'1초'
'1주일_'
'1시간'
'1분'
'1번_'
'1등'
'19_'
'199'
'17살이'
'12년'
'11살'
'10월_'
'...? _'
'....'
'... [_'
'...'
'.. ?_'
'. - '
'"..._'
'" '
' ↔_'
' * _'
' ('
'힘이'
'힘으'
'힘들지'
'힘들었'
'힘들어'
'힘들다'
'힘드네요_'
'힘내_'
'힐러'
'힐_'
'히도_'
'히는_'
'히고_'
'희한'
'희생자들'
'희생자가_'
'희생을_'
'희망한다_'
'흥분되'
'흥미를_'
'흥미가_'
'흡연'
'흙'
'흔적을_'
'흔들리'
'흑인'
'흐르는_'
'흐르'
'휴전'
'휴대폰을_'
'휘플_'
'휘말'
'휘두르'
'훌륭해_'
'훌륭해'
'훌'
'훈장'
'훅'
'후회할_'
'후퇴_'
'후에도'
'효과적'
'획득'
'회전'
'회의실'
'회의는_'
'회에_'
'회를_'
'활동을_'
'활동'
'환자였'
'환상'
'환_'
'확인해보'
'확인을_'
'확신해요_'
'확신은_'
'화재_'
'화시'
'화성_'
'화산_'
'화물은_'
'화면_'
'화면'
'화내'
'화난'
'화끈'
'혼자가_'
'혼인'
'호텔_'
'호출해_'
'호에서_'
'호수에서_'
'호를_'
'호르몬'
'호는_'
'호기심'
'호가'
'형의_'
'형씨_'
'형사가_'
'형님_'
'형과_'
'협조_'
'협조'
'협상하'
'협상_'
'협곡'
'혈압이_'
'혈압'
'혈관_'
'현지어'
'현실이_'
'현상'
'현명한_'
'혁신'
'혁'
'혀있'
'혀서_'
'헷갈려'
'헬프'
'헬리콥터'
'헬기_'
'헨'
'헤일리_'
'헤엄'
'헤어져'
'헤드라'
'헛소리_'
'허먼'
'허리'
'허드슨_'
'허구'
'향하고_'
'향_'
'행성이'
'행성_'
'행복을_'
'행렬'
'했을텐데_'
'했을지'
'했을까요_'
'했을까_'
'했으니_'
'했으'
'했었죠_'
'했던거'
'했대_'
'했니_'
'했는지'
'했구나_'
'햄버거'
'햄릿'
'햄_'
'해피_'
'해치지'
'해질_'
'해줬어요_'
'해줘요_'
'해줄래_'
'해주면_'
'해졌다_'
'해졌'
'해적'
'해있'
'해왔어'
'해야해요_'
'해야해_'
'해야하'
'해안'
'해선_'
'해봤어요_'
'해봐야'
'해봐도_'
'해볼래'
'해볼'
'해보죠_'
'해보자고_'
'해병'
'해변에_'
'해리스'
'해달라고_'
'해냈다_'
'해낸'
'해결하기_'
'해결책'
'항생제'
'항구에'
'항구'
'함장_'
'함교'
'할텐데_'
'할지를_'
'할줄'
'할아버지는_'
'할수있'
'할로'
'할라'
'할께요_'
'할꺼'
'할걸_'
'할건가'
'할거다_'
'한참_'
'한적'
'한심한_'
'한번에_'
'한바'
'한명이'
'한동안은_'
'한동안_'
'한단다_'
'한글'
'한거지_'
'한거에요_'
'한가요_'
'학년_'
'학년'
'하하하'
'하트'
'하킴_'
'하치'
'하지말'
'하자는_'
'하자'
'하이_'
'하와이'
'하였'
'하십시오_'
'하신'
'하시오_'
'하소서_'
'하셨어_'
'하셨는데_'
'하사'
'하마'
'하려'
'하다가_'
'하늘의_'
'하늘에서_'
'하늘에_'
'하늘로_'
'하는지도_'
'하는것'
'하는건데_'
'하는거에요_'
'하느님이_'
'하나에'
'하나야_'
'하나씩_'
'하나라'
'하나님의_'
'하나님'
'하기에_'
'하기를_'
'하기는_'
'하군요_'
'하군_'
'하구요_'
'하고있'
'하겠다_'
'하겠다'
'핑'
'필을_'
'필욘_'
'필요해서'
'필요하시'
'필요하세요_'
'필립_'
'필름_'
'픽'
'피해자들'
'피해_'
'피하려'
'피츠_'
'피츠'
'피에'
'피아노'
'피아_'
'피스'
'피쉬'
'피바디_'
'피리'
'피그'
'피곤해_'
'피곤해'
'피고'
'플리'
'플러'
'플래시_'
'플래'
'픈_'
'프로스트'
'프로그램은_'
'프로_'
'프랭키_'
'프랭클린'
'프랭크가_'
'프랭크'
'프랜'
'프랑스에'
'프랑스어'
'프랑스'
'프는_'
'풍이_'
'풀장'
'풀어_'
'풀리'
'푼_'
'표현이'
'표준'
'표정이_'
'표적이_'
'표시했다_'
'표본'
'폴리스'
'폭풍우'
'폭파'
'폭격'
'폭_'
'포장하'
'포인트'
'포르'
'포기했'
'폐에_'
'평온'
'평생'
'평범'
'평균_'
'평가해'
'편이_'
'편안해'
'펭'
'펠로우'
'펜이'
'페트'
'페스'
'페르'
'페레'
'펌프'
'퍽이나_'
'퍼졌'
'퍼레이드'
'팸'
'팬티_'
'팬더'
'팩'
'팟을_'
'팝스'
'팔았어'
'팔린'
'팔리'
'판타지'
'판사_'
'판결'
'팍'
'파트너가_'
'파크'
'파지엔자'
'파일에_'
'파이퍼'
'파이를_'
'파열'
'파업_'
'파시스트'
'파산'
'파블로가_'
'파리_'
'파도'
'파괴되'
'파견'
'틸'
'틱_'
'틱'
'티켓을_'
'티켓'
'티셔츠'
'티비'
'티렐'
'티는_'
'티나'
'틈'
'틀어'
'틀림없어_'
'틀리지_'
'틀렸다_'
'튼이'
'특정'
'특별히_'
'특별하'
'특별'
'트에_'
'트릭시'
'트리아'
'트리스_'
'트렌'
'트랙터'
'툴'
'투입'
'투성이'
'퇴직'
'통화했'
'통하는_'
'통이'
'통수'
'통보'
'톱_'
'토요일'
'토니_'
'템'
'텐가_'
'텍사스에서'
'테일러'
'테일'
'테이프를_'
'테이블_'
'테이블'
'테스_'
'테리'
'테러리스트_'
'테니'
'텅'
'털어놔'
'턴'
'터커_'
'터질'
'터졌'
'터져_'
'터뜨'
'탱'
'탯줄'
'택시'
'태웠'
'태워버'
'태우'
'태어났어'
'태어날_'
'태어난_'
'태어난'
'태양이_'
'탔어_'
'탓인'
'탐사'
'탈장'
'탈옥'
'탈락'
'탁_'
'타인_'
'타이어_'
'타운'
'타리'
'타를_'
'타락'
'타도'
'타깃_'
'키스하'
'키로'
'키려'
'키라'
'킁'
'클레이'
'클레어는_'
'클럽에_'
'큰일_'
'큰소리로_'
'크면_'
'크립톤'
'크리스티나'
'크리스티_'
'크루즈'
'큐_'
'퀼'
'퀸_'
'쿵'
'쿠키'
'콤'
'콜슨은_'
'콜슨_'
'콜롬비아'
'콜라'
'콘서트_'
'콘도르'
'콘_'
'코트_'
'코카인_'
'코에'
'코브라팀'
'코브'
'코르'
'켜야_'
'켈리_'
'케힐'
'케프너_'
'케이지'
'케이스_'
'케빈'
'컸어요_'
'컷_'
'컷'
'컴'
'커밍'
'캥'
'캣니스_'
'캘리포니아_'
'캘리가_'
'캘리_'
'캘'
'캐스'
'캐롤'
'캐런_'
'캄보디아'
'칼라'
'칸이'
'칵테일_'
'카일_'
'카이'
'카운'
'카르텔'
'카렌'
'카레프_'
'카레브'
'카드가_'
'카드_'
'카가_'
'칭_'
'칩니다_'
'침해'
'침투'
'침입_'
'칠면조_'
'친했'
'친척'
'친근'
'친구들에게_'
'친구들과_'
'치하'
'치자_'
'치우'
'치에'
'치야_'
'치명적'
'치마'
'치료하'
'치료_'
'치는'
'치과'
'치게_'
'측면'
'츄'
'취향'
'취할'
'취한_'
'취미'
'춰_'
'춰'
'충분'
'충동'
'출혈은_'
'출판'
'출신'
'출생'
'출산'
'출근_'
'출국'
'축제'
'축적'
'축구'
'추적하'
'최선이야_'
'총이'
'총알을_'
'총격'
'촛불이_'
'초조'
'초안'
'초기_'
'쳤어_'
'쳐요_'
'쳐야'
'쳐박혀_'
'쳐다봐_'
'첸_'
'체험'
'체를_'
'체가_'
'청하'
'청소를_'
'청_'
'첫날_'
'천장'
'천에_'
'천국이'
'처형'
'처치'
'처음'
'처리해'
'처리하지_'
'처리_'
'책에'
'채워야'
'채식주의자'
'채널'
'찾았지_'
'찾았다고_'
'찾았다'
'찾았나'
'찾아와_'
'찾아냈어'
'찾던_'
'찾는데_'
'찾기_'
'찾기'
'찾겠어_'
'창이_'
'창을_'
'찼'
'찻'
'참치_'
'참으'
'참아'
'참관'
'참고로_'
'참가할_'
'참가'
'찰리'
'찮'
'찬양하'
'찬성하'
'찬란'
'착하게_'
'착하'
'착지'
'착각하'
'차트_'
'차트'
'차림'
'차량_'
'차들'
'차고'
'찔렀'
'찍힌_'
'찍은_'
'찍었어'
'찍는_'
'찍고_'
'쯤이'
'쯤'
'쭉'
'쫓아가'
'쫓고_'
'쫌_'
'쪽은_'
'쩔'
'쩍'
'짭새'
'짧은'
'짜증나는_'
'짜증나_'
'짜증나'
'짜증'
'징후'
'짓이지_'
'짓이에요_'
'짓이었'
'집중해야'
'집중하고_'
'집주인'
'집어치'
'집안'
'짐작'
'질주'
'질수'
'질병이'
'질문은_'
'질리'
'질거'
'진행할_'
'진하'
'진짜예요_'
'진짜로요_'
'진정_'
'진입'
'진심이에요_'
'진실'
'진료소'
'직한_'
'직접'
'직전'
'직장에'
'직장_'
'직원_'
'직업이_'
'직업을_'
'직_'
'지휘'
'지하에_'
'지킬_'
'지킨다'
'지켜줄'
'지켜주'
'지켜봤'
'지켜봐_'
'지켜_'
'지침'
'지쳤어요_'
'지지하'
'지점에_'
'지적이'
'지원해'
'지원을_'
'지옥에나_'
'지역에서_'
'지역에_'
'지시를_'
'지속되'
'지붕에_'
'지붕_'
'지배하'
'지말'
'지도'
'지는군_'
'지낼_'
'지난번_'
'지나치게_'
'지나지_'
'지나간'
'지긋'
'지금요_'
'지금까지는_'
'지구에_'
'지경이'
'지겠'
'지갑'
'지각'
'증인을_'
'증에_'
'증세'
'증상'
'증명해'
'즐거웠어요_'
'즐거'
'즉흥적'
'즈를_'
'줬죠_'
'줬다_'
'줘야겠어_'
'줘도_'
'줘'
'중지'
'중인_'
'중이었어_'
'중으로_'
'중요하게_'
'중시'
'중대한_'
'줌'
'줄리아나_'
'줄리_'
'줄기'
'줄거야_'
'준비했어'
'준비해야'
'준비한'
'준비되면_'
'준비됐나_'
'준비는_'
'죽이면_'
'죽이려는'
'죽이려'
'죽이는'
'죽이겠'
'죽을거야_'
'죽으'
'죽였지_'
'죽였을거'
'죽였어요_'
'죽여서_'
'죽었다고_'
'죽었다'
'죽어가'
'죽는다고_'
'죽는다'
'주차장'
'주장을_'
'주장'
'주인이_'
'주인님_'
'주의하'
'주유소'
'주위에'
'주에서'
'주어진'
'주어야_'
'주시겠습니까_'
'주변을_'
'주변에'
'주방에서_'
'주민들'
'주먹을_'
'주머니에_'
'주머니_'
'주머니'
'주말에_'
'주리'
'주려'
'주라'
'주디스'
'주님을_'
'주님께서_'
'주는거'
'주기_'
'주기'
'주겠어_'
'주게_'
'죄책감'
'좌표를_'
'좌심실_'
'좋지만_'
'좋잖아_'
'좋을까'
'좋을'
'좋으시'
'좋았고_'
'좋아한다고_'
'좋아하시'
'좋아하니_'
'좋아질_'
'좋아서_'
'좋소_'
'좋구나_'
'좋겠는데_'
'좋겠네_'
'좆도_'
'종을_'
'종류'
'좀있'
'졸업생'
'존재야_'
'존은_'
'존경하'
'존경심'
'존경'
'족_'
'조타'
'조카가_'
'조직을_'
'조준_'
'조종'
'조절_'
'조용_'
'조마'
'조립'
'조리'
'조롱'
'조라'
'조끼'
'조그만_'
'조건을_'
'조건'
'졌네'
'져야_'
'져버'
'젯_'
'젤리'
'젤'
'제프리'
'제품이_'
'제작_'
'제인이'
'제외하고'
'제안은_'
'제시하'
'제시카_'
'제사'
'제물'
'제리_'
'제롬'
'제때에_'
'제니_'
'제국'
'제거해'
'제거_'
'젖었'
'정확히는_'
'정확해'
'정책'
'정직'
'정전'
'정이_'
'정원_'
'정오'
'정신차려_'
'정서'
'정부에_'
'정부가_'
'정부'
'정보에_'
'정보는_'
'정말이에요_'
'정말이'
'정말로요_'
'정도면_'
'젓'
'접촉하'
'접촉'
'접을_'
'접시'
'접속하'
'접근하'
'점수'
'점령'
'절제'
'절반은_'
'절망'
'절도'
'전화했었'
'전화했어_'
'전화할게_'
'전화하세요_'
'전화로_'
'전했다_'
'전통적'
'전통'
'전적으로_'
'전쟁이_'
'전쟁이'
'전쟁은_'
'전쟁에서_'
'전이야_'
'전을_'
'전원'
'전염병'
'전에서_'
'전시회'
'전시'
'전사'
'전부다_'
'전망'
'전달되'
'전까지'
'전기_'
'전과'
'적합한_'
'적임'
'적이군'
'적으론_'
'적용'
'적대적'
'적대'
'적군의_'
'저하'
'저쪽이에요_'
'저쪽으로_'
'저쪽에_'
'저예요_'
'저에_'
'저에'
'저녁은_'
'저길_'
'저격'
'저거'
'저가_'
'쟤들'
'쟁이들'
'쟁이_'
'쟁'
'잽싸게_'
'잰'
'재판_'
'재킷'
'재수'
'재배'
'재밌었'
'재미없'
'재능'
'재고'
'장학금'
'장치를_'
'장이라'
'장은_'
'장식_'
'장소에서_'
'장소가_'
'장사'
'장벽_'
'장면이_'
'장만'
'장례식'
'장담하'
'장님이'
'장난해_'
'장난이'
'장교_'
'장교'
'잡혀있'
'잡을'
'잡았다'
'잡아주'
'잡아야'
'잡아서_'
'잠수'
'잠든'
'잠겨있'
'잘해요_'
'잘해_'
'잘하는데_'
'잘못이지_'
'잘못을_'
'잘못됐어_'
'잘못됐'
'잘되'
'잘도_'
'잘가_'
'잔소리'
'잔디'
'작해'
'작전에_'
'작업_'
'작동하는'
'작고_'
'작가_'
'자해'
'자전거_'
'자유의_'
'자유로'
'자에게_'
'자야'
'자세한_'
'자막'
'자리로_'
'자루_'
'자료를_'
'자랑하'
'자랑스러워_'
'자랑_'
'자랑'
'자랐다'
'자라는_'
'자동차를_'
'자네와'
'자네들_'
'자극'
'자국을_'
'자구_'
'자고요_'
'자가'
'잊을_'
'잊어버리'
'잊어버렸'
'있지'
'있을지는_'
'있을겁니다_'
'있을걸_'
'있으시'
'있었지만_'
'있었던거야_'
'있었던'
'있었다'
'있었냐'
'있었구나_'
'있었거든_'
'있어서'
'있던'
'있더라도_'
'있더군요_'
'있단거'
'있다네_'
'있는걸_'
'있냐고_'
'있냐_'
'있길_'
'있구'
'있겠다고_'
'있겠니_'
'있겠나_'
'있거라_'
'입히'
'입자'
'입이_'
'입어'
'입양'
'입력'
'임자'
'임무에_'
'잃지_'
'잃으'
'잃었지'
'잃어버린_'
'잃기_'
'잃고'
'읽으면'
'읽었어'
'읽었'
'일했어'
'일해요_'
'일하는'
'일치하'
'일지'
'일이든_'
'일이고_'
'일으킨다'
'일원'
'일에'
'일어난거'
'일어난'
'일어나라고_'
'일생'
'일본에서_'
'일반적인_'
'일리'
'일라'
'일기장'
'일거에요_'
'인터넷에서_'
'인지'
'인정해'
'인으로_'
'인수'
'인생이'
'인생에_'
'인사를_'
'인들이'
'인들'
'인다_'
'인기'
'인공'
'인것'
'인간은_'
'인간들'
'익_'
'이후로는_'
'이혼_'
'이해했어_'
'이해할'
'이해하겠'
'이트'
'이쯤'
'이지는_'
'이즈'
'이제부터_'
'이잖아요_'
'이자를_'
'이자들'
'이있'
'이유에'
'이웃이'
'이에_'
'이었던'
'이야기해'
'이야기의_'
'이스'
'이세'
'이상해요_'
'이상해'
'이사람'
'이리'
'이름만_'
'이른_'
'이론이_'
'이론을_'
'이런게_'
'이란다_'
'이라는'
'이든'
'이동해'
'이더'
'이니_'
'이놈의_'
'이놈아_'
'이놈들'
'이놈_'
'이놈'
'이끄는_'
'이긴_'
'이기적인_'
'이기적이'
'이글'
'이구'
'이곳이_'
'이곳의_'
'이곳으로_'
'이곳에'
'이겼어_'
'이겠'
'이것저것_'
'이것들이_'
'이것과_'
'이거나_'
'의원님_'
'의심스러운_'
'의식_'
'의사에'
'의사들이_'
'의사들'
'의미한다_'
'의미하'
'의미를_'
'의료_'
'의도'
'의대'
'의견이_'
'의견은_'
'의견에_'
'의견_'
'의가_'
'응답'
'읍시다_'
'음주'
'음성_'
'음반'
'을텐데_'
'을테'
'을수_'
'을때'
'을까봐_'
'은행이_'
'은퇴하'
'윤리'
'육지'
'유치'
'유지하도록_'
'유죄'
'유적'
'유용'
'유언장'
'유언'
'유산'
'유발'
'유명'
'유머'
'유럽_'
'유니'
'유기'
'유가_'
'윗층에'
'윌리엄'
'윌레건'
'윈터'
'윈_'
'위험해요_'
'위험한'
'위험하다'
'위해서야_'
'위한'
'위태'
'위치에_'
'위층'
'위임'
'위의_'
'위에'
'위성_'
'위반'
'위대'
'위가_'
'웹사이트'
'웰_'
'웬일이야_'
'웬디'
'웨인_'
'웨어'
'웨슬리_'
'웨스트_'
'월요일에_'
'원했'
'원해서_'
'원할거'
'원한다고_'
'원한다'
'원하는데_'
'원하는대로_'
'원하는걸_'
'원하고_'
'원장'
'원인이_'
'원에'
'원고'
'워터_'
'워커들'
'워져'
'워렌_'
'웃음을_'
'웃음_'
'웃으'
'웃었다_'
'웃기지_'
'움직이지'
'움직이는'
'울이_'
'울고_'
'운전하'
'운전은_'
'운을_'
'운반'
'우편'
'우주에서_'
'우주선_'
'우주가_'
'우스_'
'우선'
'우리에게'
'우리에_'
'우리라'
'우리들에게_'
'우루'
'용서해주'
'용서해_'
'용서해'
'용서하세요_'
'용맹'
'용기가_'
'욕심'
'욕실'
'요원이_'
'요원이'
'요원님'
'요가'
'왼쪽'
'외치'
'외에는_'
'외에_'
'외부'
'외로'
'외과의사'
'외계인이'
'외계인_'
'왠'
'왕좌'
'왕국'
'왔을때_'
'왔었어_'
'왔대_'
'왔단다_'
'왔니_'
'왔는'
'왔네_'
'왔나'
'왈'
'와인을_'
'와이어트'
'와야지_'
'와야'
'와서는_'
'옷들'
'옵션'
'옳았'
'옳다'
'옮길_'
'옮겼'
'올해_'
'올릴_'
'올리버'
'올려주'
'올려야'
'올랐'
'올라와'
'올라서'
'올라가서_'
'올때'
'올거야_'
'온다면_'
'온거에요_'
'오해를_'
'오픈'
'오크'
'오줌을_'
'오전_'
'오전'
'오자'
'오이'
'오우_'
'오셨어요_'
'오셨네요_'
'오셔서_'
'오브_'
'오바'
'오른쪽'
'오른'
'오래전에_'
'오래전_'
'오래걸'
'오라고_'
'오딘'
'오든_'
'오늘날'
'오는데_'
'오냐_'
'옛'
'예전의_'
'예의가_'
'예언이'
'예언'
'예스_'
'예술가'
'예술'
'예수님이_'
'예수님'
'예산'
'예뻐_'
'예비'
'예기'
'옆집에'
'영혼은_'
'영혼_'
'영토'
'영업_'
'영양'
'영수증_'
'영사'
'영리한_'
'영국에_'
'였다'
'염산'
'염려'
'열어줘_'
'열어주'
'열어라_'
'열려_'
'연합'
'연필'
'연약'
'연습했'
'연습을_'
'연쇄_'
'연말'
'연료'
'연락할_'
'연락처'
'연기자'
'연구실에_'
'연구실'
'연결해_'
'연결되어_'
'여하'
'여자친구_'
'여자였'
'여자에요_'
'여자도_'
'여요_'
'여왕의_'
'여성이_'
'여러분을_'
'여동생이_'
'여동생을_'
'여도_'
'여는_'
'여깄어_'
'여기저기'
'여기서부터_'
'여기서는_'
'여기서'
'엣_'
'엣'
'엠파이어에'
'엘리_'
'엔진을_'
'엑스레이'
'엑스'
'엑소'
'에프'
'에크'
'에이프릴_'
'에이제이_'
'에반'
'에밀리_'
'에그'
'엎'
'엉망이_'
'엉_'
'었니_'
'었는지_'
'었네요_'
'었나요_'
'었나'
'엇'
'없잖'
'없었다면_'
'없었다는_'
'없었는데_'
'없어졌어'
'없어서요_'
'없애'
'없던_'
'없대'
'없다니까'
'없다네_'
'없는지_'
'없군_'
'없구나_'
'없겠'
'엄마에게_'
'얼마든지_'
'얼굴에'
'얻었다_'
'언제까지'
'언이'
'언급했'
'어찌나_'
'어쩜_'
'어쩌죠_'
'어쩌려고_'
'어쩌겠어'
'어지러'
'어졌'
'어머나_'
'어른들'
'어른_'
'어렵지'
'어떤것도_'
'어떠냐고_'
'어딨어요_'
'어디든_'
'어디다_'
'어디가'
'어둡고_'
'어둡'
'어둠의_'
'어둠을_'
'어둠_'
'어둠'
'어는_'
'어겼'
'얭'
'얘기했'
'얘기하면_'
'얘기잖아'
'얘기만_'
'양해'
'양육권'
'양아'
'양수'
'양성'
'양반이'
'양반'
'양말'
'얄'
'얀'
'약속해요_'
'약속해_'
'약속할게_'
'약속할'
'약속이'
'약물_'
'야해요_'
'야외'
'야생'
'야구_'
'야겠군_'
'앨리스_'
'앨리샤'
'액이_'
'액을_'
'애정'
'애의_'
'애쓰'
'애리조나'
'애들이'
'애들의_'
'애들아_'
'애들도_'
'애니_'
'애기가_'
'앞서_'
'았지_'
'앗'
'압박을_'
'압도'
'암에_'
'앓고_'
'알파'
'알콜'
'알았나_'
'알았겠'
'알아챈'
'알아차'
'알아주'
'알아봐야겠'
'알아봐_'
'알아봐'
'알아보시'
'알리는_'
'알렸'
'알려진_'
'알려줄게_'
'알려드리'
'알고싶어_'
'알겠죠_'
'알겠는데_'
'알게'
'알거든_'
'않을게_'
'않으실'
'않으니까_'
'않았잖아'
'않았을까_'
'않았단'
'않았다는_'
'않았나요_'
'않아서'
'않습니까_'
'않더라'
'않다'
'않기로_'
'않군'
'않겠죠_'
'않겠다고_'
'않겠나_'
'앉았'
'앉아요_'
'안했어요_'
'안해요_'
'안해'
'안할래'
'안할'
'안티'
'안토니오'
'안토니'
'안타깝게도_'
'안쪽'
'안젤라'
'안정적이'
'안정적'
'안정시'
'안정'
'안전해_'
'안전한'
'안전하다'
'안왔'
'안에'
'안쓰'
'안심'
'안락'
'안드레우_'
'안드레_'
'안될'
'안된'
'안돼'
'안다구'
'안녕하십니까_'
'안그랬'
'안경'
'안개'
'안갈'
'악의'
'악마들'
'악마가_'
'악당'
'아픈'
'아프다_'
'아프가니스탄'
'아파트로_'
'아티스트'
'아키텍트'
'아직이'
'아줘'
'아일'
'아이였'
'아이야_'
'아이비'
'아이러니'
'아이디어가_'
'아웃'
'아에'
'아아_'
'아십니까_'
'아실'
'아시겠죠_'
'아스나_'
'아셨어요_'
'아버지에게'
'아버지에_'
'아버지로'
'아버지랑_'
'아버지들_'
'아버지께'
'아버님_'
'아버'
'아미'
'아무것'
'아메리카'
'아름답군'
'아로_'
'아래층'
'아래쪽'
'아래에_'
'아래'
'아랍'
'아들의_'
'아들들'
'아닐지'
'아니였어요_'
'아니였'
'아니었는데_'
'아니란다_'
'아니라서_'
'아니라구요_'
'아는게_'
'아내분'
'씩'
'씨와_'
'씨발'
'쓸데없는_'
'쓰여_'
'쓰레기_'
'쓰러뜨렸다_'
'쓰러뜨'
'쓰는'
'쓰기'
'쑤시'
'쐈어_'
'쏴버리'
'쏴버'
'쏟'
'쏜'
'쏘지_'
'써야해'
'써도_'
'쌌'
'쌈'
'쌀'
'싸인_'
'싸고_'
'싶지'
'싶은건'
'싶은거'
'싶었습니다_'
'싶다구요_'
'싶네요_'
'싶나'
'싶겠'
'싶거든'
'싱글'
'싱_'
'십자가'
'심해'
'심어'
'심부름'
'심박수'
'심박'
'심문'
'심리학'
'심각하'
'심각'
'싫은데_'
'싫은'
'싫었'
'싫어한'
'싫다는_'
'싫고_'
'실험실에서_'
'실험실_'
'실패했'
'실컷_'
'실이'
'실외'
'실시간_'
'실시_'
'실수였어_'
'실수였'
'실망했'
'실력_'
'실려'
'실거'
'신혼여행_'
'신청을_'
'신장을_'
'신입'
'신음'
'신앙'
'신속'
'신선'
'신분을_'
'신발에'
'신발'
'신뢰를_'
'신들께'
'신도'
'신다_'
'신나'
'신경이_'
'신경을_'
'신경쓰지_'
'신경도_'
'식사하'
'식민'
'식당이'
'식기'
'시험에_'
'시합에'
'시한'
'시티에'
'시킨다'
'시키지_'
'시키려'
'시즌'
'시저'
'시장이'
'시장에_'
'시작했는데_'
'시작해야_'
'시작한'
'시작하기_'
'시위'
'시요_'
'시와_'
'시야가_'
'시애틀_'
'시도는_'
'시더'
'시대는_'
'시네_'
'시끄럽'
'시긴'
'시기에_'
'시궁창'
'시계를_'
'시겠습니까_'
'시겠다'
'시간의_'
'시각'
'승자'
'승_'
'슬픈'
'슬슬_'
'슬러_'
'슬_'
'슨의_'
'스포츠_'
'스트립'
'스트리'
'스투'
'스톤_'
'스턴_'
'스턴'
'스탠리'
'스탈'
'스타일을_'
'스코틀랜드'
'스코'
'스케줄'
'스캇'
'스카프'
'스웨터'
'스웨거'
'스에서_'
'스스로'
'스로_'
'스러운_'
'스러운'
'슐'
'슈퍼걸_'
'슈트'
'쉽죠_'
'쉴드_'
'쉴드'
'쉰'
'쉬웠'
'쉬워'
'쉬어야_'
'쉬어'
'쉐퍼드가_'
'숲이'
'숨지'
'숨이_'
'숨어있'
'숨쉬'
'숨는_'
'숨기는_'
'술이_'
'술이'
'순식간에_'
'순결'
'순간이'
'순간부터_'
'숙제를_'
'수호자'
'수학'
'수표를_'
'수표'
'수컷들'
'수천_'
'수천'
'수집'
'수정'
'수잔_'
'수작'
'수영하'
'수영을_'
'수십'
'수신'
'수술하지_'
'수술에_'
'수술에'
'수술방에_'
'수술로_'
'수수'
'수법'
'수백만_'
'수백_'
'수백'
'수만_'
'수리'
'수고했어_'
'송하'
'송신'
'송금'
'솟'
'솜씨'
'솔로'
'손잡이'
'손자'
'손도_'
'손님이'
'손녀'
'손길이_'
'속임수'
'속의_'
'속였'
'속에서'
'소행성'
'소한'
'소재'
'소유하'
'소용없'
'소아외과'
'소아과_'
'소수의_'
'소수'
'소송'
'소설_'
'소변'
'소방'
'소문을_'
'소린_'
'소리인'
'소리에'
'소리로_'
'소리는_'
'소령님_'
'소련'
'소다'
'소년이'
'소녀들'
'소녀는_'
'소규모'
'소가_'
'셰퍼드_'
'셨던_'
'셨는데_'
'셨거든요_'
'셜록이'
'셔츠_'
'셔야죠_'
'셔야'
'셋이'
'섹시한_'
'세탁기'
'세인트'
'세웠'
'세월이_'
'세월'
'세운'
'세우고_'
'세바스'
'세를_'
'세력'
'세는_'
'세가_'
'성직자'
'성적이'
'성인이'
'성애'
'성실하'
'성실'
'성분'
'성령'
'성도_'
'성냥'
'성공할_'
'성공적인_'
'섬유'
'설치되'
'설명해'
'설령_'
'설계도'
'선택했'
'선택해_'
'선택해'
'선택한_'
'선택권이_'
'선정'
'선장님'
'선원들'
'선수_'
'선생님이'
'선생님께서_'
'선배가_'
'선반'
'석탄'
'서있었'
'서의_'
'서에_'
'서약'
'서서히_'
'서부'
'서방'
'서류들'
'서가_'
'섀'
'샬'
'생활_'
'생존을_'
'생일에_'
'생명이_'
'생략'
'생긴다'
'생기지_'
'생겨요_'
'생각했지만_'
'생각했을'
'생각했다_'
'생각했거든'
'생각해서_'
'생각해봐_'
'생각한다면_'
'생각한'
'생각하십니까_'
'생각하는'
'생각하기'
'생각이에요_'
'생각이다_'
'생각들'
'생각과_'
'샘이_'
'샌드위치_'
'색하'
'색을_'
'색깔'
'새처럼_'
'새벽_'
'새라'
'새는_'
'새끼를_'
'상황에서'
'상했'
'상한_'
'상태는'
'상처입'
'상징'
'상이_'
'상원_'
'상어'
'상실'
'상수가_'
'상속'
'상세한_'
'상부'
'상대하'
'상대가_'
'상당한_'
'상당'
'상담_'
'상관하'
'삼촌이_'
'삶'
'살해하'
'살해되'
'살펴봐'
'살지_'
'살인자가_'
'살인이'
'살았어요_'
'살아요_'
'살아야_'
'살아남았'
'살렸'
'살기_'
'살거'
'산책하'
'산이'
'산물'
'산드라_'
'산더미'
'산다'
'삭제'
'사항을_'
'사태'
'사제'
'사정'
'사전'
'사적'
'사장_'
'사자_'
'사이코'
'사이_'
'사원'
'사우스'
'사용해'
'사용한_'
'사용하지_'
'사용하고_'
'사용되'
'사에서_'
'사실이라면_'
'사시'
'사슴'
'사설_'
'사서_'
'사샤_'
'사생활을_'
'사상'
'사망했'
'사망한_'
'사망자_'
'사만다_'
'사막'
'사로잡'
'사령관님_'
'사려'
'사랑했어_'
'사랑했다'
'사랑해'
'사랑한다고_'
'사랑한_'
'사랑한'
'사랑이야_'
'사랑받'
'사람인지'
'사람이죠_'
'사람이랑_'
'사람에'
'사람들이라'
'사람들에'
'사라지는_'
'사라지고_'
'사라져_'
'사도'
'사느'
'사나'
'사기를_'
'사기꾼이'
'사관_'
'사과할게_'
'사과드'
'사고는_'
'사건의_'
'쁜'
'뿐이죠_'
'뿅_'
'뽑았'
'뽑아_'
'뽑아'
'뼈를_'
'뻤'
'뻔뻔'
'뻔'
'뻑'
'뺐'
'뺏은'
'뺏어가'
'빼먹'
'빨리요_'
'빨랑_'
'빨라'
'빤'
'빠질_'
'빠르고_'
'빛나'
'빗자루'
'빌이'
'빅터'
'빅_'
'비행_'
'비하면_'
'비판적'
'비추'
'비참'
'비의_'
'비우'
'비열한_'
'비슷해요_'
'비슷'
'비상_'
'비밀번호'
'비명'
'비니_'
'비난할_'
'비난'
'블록'
'블로'
'블레이크_'
'블랙홀'
'블라_'
'브리짓_'
'브를_'
'브룩스'
'브레이크'
'브랜드_'
'브라질'
'브라이스_'
'브가_'
'붙인_'
'붙이면_'
'붙여놓'
'불평'
'불쾌하'
'불지'
'불이'
'불어_'
'불쑥_'
'불만을_'
'불렀어_'
'불능'
'불과하'
'불가능해요_'
'분홍색'
'분파'
'분들이_'
'분들이'
'분대'
'북쪽'
'북부_'
'북부'
'북극'
'북_'
'부활이'
'부터요_'
'부터는_'
'부탁해_'
'부탁이야_'
'부친'
'부장'
'부작용'
'부인에게_'
'부인께_'
'부의_'
'부위가_'
'부었'
'부상이'
'부분_'
'부모님은_'
'부모님들이_'
'부모님도_'
'부른다'
'부르겠'
'부러워'
'부러뜨'
'부딪히'
'부드러운_'
'부동산_'
'부대의_'
'부끄럽게_'
'부끄러운_'
'부검'
'뵙죠_'
'뵙게_'
'뵙'
'봤나_'
'볼래요_'
'본적_'
'본인'
'본이_'
'본보기'
'본능을_'
'복을_'
'복사본'
'복사'
'복무'
'복귀'
'보호하려'
'보하'
'보지도_'
'보조_'
'보자구_'
'보입니다_'
'보일러'
'보인다'
'보이죠_'
'보이니_'
'보이는군_'
'보이나_'
'보이_'
'보우'
'보였어_'
'보여줘봐_'
'보여줘'
'보여주러_'
'보여주는'
'보여드릴'
'보여드리죠_'
'보시지_'
'보스턴_'
'보스턴'
'보셨나요_'
'보물'
'보모'
'보며_'
'보류'
'보로_'
'보드민'
'보도록_'
'보던'
'보냈습니다_'
'보냈다'
'보낸거'
'보내줘'
'보내야_'
'보내서_'
'보내면_'
'보내드'
'보내기_'
'보기엔_'
'보그'
'보고서'
'볕'
'병은_'
'병원은_'
'병원에'
'병실'
'병신_'
'병사를_'
'병사들'
'별의_'
'별명'
'변환'
'변호인'
'변호사도_'
'변호사는_'
'변호사가_'
'변형인간'
'변한_'
'변하는_'
'벽이_'
'벨을_'
'벡_'
'베트남_'
'베키'
'베이비시터'
'베라'
'베개'
'베가'
'벗을'
'벗어날_'
'벗'
'법적'
'법이_'
'법안'
'법무장관'
'범인_'
'범을_'
'범위'
'벌하'
'벌처'
'벌이_'
'벌어진'
'벌어졌'
'벌써'
'번역'
'번개'
'버크한테_'
'버크_'
'버스에서_'
'버스를_'
'버렸다_'
'버드'
'버그'
'뱅'
'뱃'
'밸'
'백성들'
'백만'
'배터리'
'배웠어_'
'배우는_'
'배신했어'
'배신하'
'배리'
'배고픈_'
'배고파_'
'밭'
'방향'
'방해해서_'
'방해하'
'방이야_'
'방울'
'방식을_'
'방식'
'방법이야_'
'방법으로_'
'방법으로'
'방문하'
'밤의_'
'밤은_'
'밤에는_'
'밝혔'
'밝혀졌'
'밝혀낼'
'발전기'
'발신'
'발생할_'
'발생한'
'발견했지_'
'발견했어요_'
'발견했어_'
'발견했'
'발견됐어'
'받으셔야_'
'받으러_'
'받았어_'
'받았는데_'
'받아서'
'받아들이지_'
'받아들이는_'
'받아들였'
'받아들'
'받아도_'
'받아내'
'받기_'
'받기'
'반짝이'
'반짝'
'반지_'
'반장'
'반응을_'
'반응_'
'반으로_'
'반영'
'반역'
'반복한다_'
'반면_'
'반란'
'반경_'
'반갑네'
'밖에'
'박한_'
'박수_'
'바지랑기_'
'바지가_'
'바이탈'
'바이올'
'바에서_'
'바쁜_'
'바쁘게_'
'바비'
'바보야_'
'바보가_'
'바로잡'
'바로는_'
'바랬'
'바라며_'
'바닥'
'바다에서_'
'바다로_'
'바네사'
'바뀔_'
'바뀔'
'바꿨어_'
'바꿔야'
'바꿀'
'바꾸고_'
'밍'
'밋첼_'
'밋'
'밀라'
'밀고자'
'밀_'
'믿습니다_'
'믿기'
'민간인_'
'믹'
'미칠_'
'미치지_'
'미쳤어요_'
'미쳤다'
'미쳤나'
'미안하구나_'
'미셸'
'미사일을_'
'미사일_'
'미린'
'미리암_'
'미를_'
'미로'
'미래에_'
'미국인들'
'뭣'
'뭘요_'
'뭔지'
'뭔갈_'
'뭔가'
'뭐하는거'
'뭐로'
'뭐라구_'
'뭐든간에_'
'뭐가'
'물어보지_'
'물어보는_'
'물어보고_'
'물려받'
'물러서요_'
'물러_'
'물러'
'물들'
'물도_'
'물기'
'물고_'
'물건에_'
'물건들_'
'묻히'
'묻어'
'문학'
'문제없'
'문제라도_'
'문장'
'문의'
'문에_'
'문신을_'
'문신'
'무지개'
'무죄'
'무엇입니까_'
'무엇보다_'
'무실'
'무식'
'무시하'
'무슨짓을_'
'무섭다'
'무섭네'
'무서워해'
'무서워하'
'무서울_'
'무사하'
'무리하'
'무릎'
'무료'
'무도회_'
'무대에_'
'무당'
'무너'
'무기들'
'무기는_'
'무고한_'
'무거운_'
'무가_'
'묘한_'
'못할걸_'
'못한'
'못하지_'
'못하겠어요_'
'못하겠어_'
'못생긴_'
'몸값'
'몰리_'
'몰랐을'
'몰랐다'
'몰라'
'몬트'
'몬스터'
'목표물'
'목표가_'
'목표_'
'목적이'
'목에_'
'목숨'
'목록에_'
'목록'
'모험이'
'모험'
'모조'
'모자라'
'모임_'
'모임'
'모은'
'모어'
'모양이지_'
'모습은_'
'모른'
'모르오_'
'모르시'
'모르면'
'모르겠다'
'모두에'
'모글리_'
'몇몇은_'
'몇명'
'몇개'
'몇가지_'
'명심해_'
'명심하'
'명령이다_'
'명령이'
'명령_'
'면허'
'면전에서_'
'면에'
'면서'
'면담'
'며'
'메트'
'메타'
'메시'
'메모'
'메러디스는_'
'메러디스가_'
'메뚜기'
'멋지지_'
'멋지네_'
'멋지게_'
'멋져_'
'멋있는_'
'멈춰라_'
'멈출'
'멀쩡하'
'멀리'
'먹칠'
'먹여'
'먹었잖아_'
'먹어도_'
'먹는거'
'먹고'
'머피_'
'머저리'
'머잖아'
'머시'
'머릿'
'맺은_'
'맹장'
'맹세합니'
'맹세하'
'맸'
'맨이_'
'맥도날드'
'맥_'
'매혹적'
'매튜'
'매리'
'매력적인_'
'맡겨_'
'맞잖아_'
'맞을'
'맞서_'
'맞는데_'
'맞는다'
'맞나_'
'맞거'
'망을_'
'망신'
'망설이'
'망가뜨'
'맛이'
'맛_'
'맙시다_'
'맑'
'말했잖'
'말했을_'
'말해줘'
'말해줄까_'
'말해준_'
'말해주시'
'말할거'
'말한거'
'말하지만_'
'말하지'
'말하려'
'말하라고_'
'말하길_'
'말하고'
'말투'
'말처럼_'
'말입니까_'
'말이라도_'
'말이냐_'
'말이군요_'
'말의_'
'말예요_'
'말았어'
'말아야'
'말아_'
'말씀하시길_'
'말씀드릴_'
'말려'
'말든_'
'말고는_'
'맏'
'많을_'
'많겠'
'만해_'
'만한'
'만하'
'만큼은_'
'만의_'
'만들어지'
'만들어야'
'만들기_'
'만든'
'만났죠_'
'만났는데_'
'만나요_'
'만나는'
'막혔'
'막으려'
'막는_'
'마트'
'마크는_'
'마차'
'마일을_'
'마음은_'
'마음속에_'
'마을은_'
'마우'
'마오'
'마약상'
'마신_'
'마시는_'
'마스크_'
'마스크'
'마스'
'마셨어_'
'마샬'
'마비_'
'마부'
'마법사_'
'마리의_'
'마를'
'마로'
'마라'
'마누라는_'
'마녀'
'마나'
'마귀'
'림을_'
'릴리가_'
'릴라'
'릴거'
'린이_'
'린데'
'린다면_'
'릭이_'
'리포'
'리틀'
'리처드'
'리즈'
'리의_'
'리에_'
'리스트에_'
'리스_'
'리만'
'리라'
'리디아_'
'리듬'
'리드_'
'리드'
'리그'
'릅'
'름_'
'르고_'
'류는_'
'류가_'
'뤄'
'룸메이트'
'룰_'
'루프'
'루퍼'
'루머'
'루디_'
'롯_'
'롭게_'
'롤_'
'로켓_'
'로즈_'
'로우_'
'로열'
'로에_'
'로빈스'
'로비'
'로봇'
'로맨틱'
'로마'
'로렌'
'로라_'
'로난'
'례'
'렷'
'려요_'
'려던_'
'렙'
'렘_'
'렌_'
'렉터'
'렉'
'레스트'
'레베카'
'레몬'
'레나'
'럽_'
'럴_'
'런던을_'
'런던에서_'
'러요_'
'량한_'
'량이_'
'랴'
'랭'
'램_'
'랜스'
'랄프_'
'랄까_'
'란다'
'라일'
'라이온_'
'라이언'
'라운지'
'라우_'
'라서요_'
'라서_'
'라면서요_'
'라를_'
'라더'
'라는데'
'라는거'
'라나_'
'라기'
'뜻이지_'
'뜻이죠_'
'뜻을_'
'뜻_'
'뜰'
'뜨거'
'뛰지_'
'똥구멍'
'똥_'
'똑같아'
'떴'
'떨어지는_'
'떨어뜨려'
'떠올랐다_'
'떠들'
'떠났지_'
'떠났어_'
'떠났다고_'
'떠났다_'
'떠난'
'떠나요_'
'떠나면_'
'때의_'
'때에는_'
'때문이었'
'때론_'
'때렸다'
'땅이'
'딸기'
'딱히_'
'따를_'
'따른'
'따르는_'
'따라잡'
'따라올'
'따뜻한_'
'따뜻하게_'
'따님이_'
'따끔'
'따_'
'딩'
'딜런이'
'딜런_'
'딘'
'디자인'
'듭신다_'
'들인'
'들이요_'
'들이랑_'
'들이닥'
'들으세요_'
'들으니'
'들여보내_'
'들여다보'
'들에'
'들었다'
'들었네_'
'들어줄'
'들어있었'
'들어왔어요_'
'들어야'
'들어간_'
'들어가도_'
'들어가기'
'들아_'
'들만_'
'들릴_'
'들린다_'
'들리는_'
'들까'
'듣기론_'
'듣게_'
'든지요_'
'든다_'
'드와이트_'
'드와이트'
'드실_'
'드실'
'드멜자'
'드리겠습니다_'
'드루드'
'드로_'
'드렸'
'드려도_'
'드레'
'드러내'
'드라이버'
'드라이'
'드라마_'
'드니'
'드는데_'
'드는'
'듀란'
'뒤지'
'뒤떨어'
'둬야'
'둥지'
'둘러싸'
'두통이_'
'두어'
'두셨'
'두사람'
'두번_'
'두명'
'두면_'
'두려운_'
'두려'
'두가지'
'된거야_'
'되진_'
'되었어요_'
'되었는'
'되어있다_'
'되어있'
'되어야_'
'되셨'
'되면'
'되든_'
'되돌아_'
'되돌아'
'되돌릴_'
'되니_'
'되는데요_'
'되냐'
'되기'
'되겠죠_'
'되겠습니까_'
'됐잖아_'
'됐을_'
'됐었'
'됐든'
'돼서요_'
'돛'
'동화'
'동창회'
'동쪽'
'동정'
'동의해'
'동의한'
'동의하지_'
'동을_'
'동성애자'
'동생은_'
'동생들'
'동상'
'동부'
'동료를_'
'동네에'
'동네'
'돕기'
'돕겠'
'돌진'
'돌을_'
'돌았어'
'돌아왔을_'
'돌아왔어_'
'돌아올'
'돌아오게_'
'돌아서_'
'돌아다니지_'
'돌아갈'
'돌아가자_'
'돌아가요_'
'돌아가셨어요_'
'돌아가게_'
'돌면'
'돌리고_'
'돌리'
'돌려받'
'돈이라'
'독재'
'독자'
'독일인'
'독일군'
'독감'
'도착했습니다_'
'도착할'
'도착한_'
'도주_'
'도울'
'도우려'
'도와줄까_'
'도와주지_'
'도와주실'
'도와주려는_'
'도와드릴'
'도스'
'도서관'
'도망칠_'
'도망치지_'
'도리가_'
'도르사_'
'도로를_'
'도둑이_'
'도달했'
'도난'
'도구'
'뎅이'
'델타_'
'덱'
'데커입니다_'
'데이비드'
'데이먼'
'데스크에_'
'데릴_'
'데릭이_'
'데려와'
'데려가세요_'
'데려_'
'데니_'
'데는_'
'덮어'
'덩어리가_'
'덜'
'던피'
'덕_'
'더해_'
'더하'
'더요_'
'더스'
'더미'
'댔지_'
'댔다_'
'댐'
'댄스'
'대화하'
'대화가_'
'대했'
'대해서'
'대포'
'대충'
'대체'
'대처'
'대책'
'대전'
'대장_'
'대자'
'대원들'
'대원'
'대우'
'대역'
'대신하'
'대신'
'대비해서_'
'대부분이_'
'대박_'
'대면_'
'대령_'
'대답했'
'대답을_'
'대답_'
'대답'
'대단해_'
'대기실에'
'대금'
'대강'
'대가리'
'대가'
'당했지_'
'당했어_'
'당하고_'
'당에'
'당신측이_'
'당신들'
'당분간_'
'당분간'
'당당'
'당나귀'
'당국은_'
'답지_'
'답장'
'담요_'
'담당이'
'담당_'
'닮았네'
'닮아'
'닮'
'달이_'
'달아나'
'달아_'
'달라졌'
'달라는거'
'달라는'
'달걀이'
'닫았'
'단정'
'단이_'
'단어는_'
'단단히_'
'단단'
'단거'
'닥터'
'다행히'
'다행이에요_'
'다행이야_'
'다할_'
'다툼'
'다크_'
'다이아몬드'
'다이_'
'다요_'
'다수의_'
'다면'
'다리에_'
'다름없'
'다른사람'
'다른건_'
'다르지_'
'다르다고_'
'다듬'
'다닌다'
'다닌_'
'다니엘_'
'다녔어_'
'님이'
'님들'
'닐_'
'닌'
'니키_'
'니콜라'
'니카'
'니를_'
'니들'
'니꺼'
'늦었다_'
'늦었네요_'
'능력이_'
'늙어'
'는지도_'
'는지'
'느냐'
'느낀다_'
'느꼈어'
'눌러서_'
'눈엔_'
'눈빛'
'눈물이_'
'누워서_'
'누나는_'
'누군가에게_'
'누구의_'
'누구요_'
'누구랑_'
'뇨'
'뇌의_'
'뇌를_'
'놨지_'
'놨다'
'놨는데_'
'놔주'
'놔야_'
'놔서_'
'놔둬_'
'놔둔'
'놔두고_'
'놓치면_'
'놓쳤'
'놓을_'
'놓을'
'놓으라고_'
'놓았'
'놓는'
'농담하'
'농담을_'
'농구'
'놈한테_'
'놈에'
'놈들에게_'
'놀러'
'놀래'
'놀랍지_'
'논쟁'
'논의_'
'논의'
'논리'
'녹색'
'노트북'
'노트'
'노부'
'노먼_'
'노력했다_'
'노력하고_'
'노력은_'
'노려'
'노래하'
'노래에'
'노래도_'
'노래가_'
'념'
'년아_'
'녀석의_'
'녀석들이_'
'녀석들'
'녀석'
'녀_'
'넨'
'네시'
'네스'
'네들'
'넣은_'
'넣어야_'
'넣는'
'넘치'
'넘었'
'넘어지'
'넘는_'
'넘겼'
'널드_'
'넉'
'너희'
'너무나도_'
'너만_'
'내줄'
'내용'
'내요_'
'내야'
'내생각'
'내보내'
'내보'
'내버려둬_'
'내버려두'
'내방'
'내말'
'내린_'
'내리고_'
'내려오'
'내려서_'
'내려고_'
'내려간다_'
'내려가서_'
'내라고_'
'내다보'
'내가'
'낳았'
'낮추'
'낮잠'
'낮아'
'낭비하지_'
'났네_'
'낫지_'
'납치해'
'남편한테_'
'남편의_'
'남편분'
'남쪽으로_'
'남지_'
'남자친구가_'
'남자라'
'남자들은_'
'남자들'
'남의_'
'남았다_'
'남았는'
'남아'
'남들'
'남는_'
'남는'
'남고_'
'남겨_'
'날이었'
'날에'
'날아오'
'날아_'
'날씨는_'
'날려버리'
'난민'
'난다'
'난거'
'낙태'
'나타난_'
'나타'
'나치'
'나처럼_'
'나지_'
'나중'
'나잇_'
'나을'
'나와요_'
'나온거야_'
'나온'
'나였어'
'나에게'
'나선_'
'나서는_'
'나쁘다'
'나비_'
'나보네_'
'나로_'
'나라의_'
'나라에는_'
'나라에_'
'나도'
'나눴'
'나눠_'
'나나_'
'나겠'
'나게_'
'나갔다_'
'나간다'
'나가게_'
'낄'
'끼어들'
'끝이야_'
'끝내야_'
'끝났다_'
'끝나지_'
'끗'
'끔찍하게_'
'끌었'
'끌어들이'
'끌려'
'끌_'
'끊으'
'끊어_'
'끊겼다_'
'끈_'
'꿨'
'꿀꺽_'
'꿀'
'꾸민_'
'꾸미고_'
'꽃이'
'꽃_'
'꼽'
'껍질'
'껌'
'꺼졌'
'꺼냈'
'꺼내줄'
'깨지'
'깨워'
'깨어있'
'깨어_'
'깨닫지_'
'깨끗해'
'깨끗한_'
'깨끗하'
'깡'
'깜짝_'
'깜박'
'깐요_'
'까다'
'깊어'
'깊숙'
'깃발'
'깁니다_'
'깁'
'김을_'
'길고_'
'긴급_'
'기회라'
'기한'
'기차는_'
'기차_'
'기지에_'
'기절한_'
'기적을_'
'기장'
'기자_'
'기의_'
'기울'
'기운이_'
'기억할'
'기억하기_'
'기시'
'기술이_'
'기소'
'기쁩니다_'
'기분을_'
'기본적인_'
'기본'
'기발'
'기름을_'
'기르'
'기록했'
'기록해'
'기록이'
'기들'
'기독교인'
'기도하'
'기다릴'
'기다린'
'기다리지_'
'기다리다'
'기념일'
'기관_'
'기계를_'
'급이'
'금은_'
'금요일_'
'금고'
'글자는_'
'글로리_'
'글렌_'
'글_'
'근한'
'근처에서_'
'근처_'
'근처'
'근접'
'근사'
'근거로_'
'근_'
'그쵸_'
'그사람이_'
'그보'
'그만하라고_'
'그만하고_'
'그만둔'
'그립'
'그리워_'
'그리스도'
'그로'
'그레이가_'
'그렇진_'
'그렇긴_'
'그럴만한_'
'그럴리가_'
'그런일'
'그런대'
'그런거야_'
'그런가_'
'그러지마_'
'그러려고_'
'그러던'
'그러더'
'그러니깐_'
'그러는'
'그러냐_'
'그랬잖아요_'
'그랬을_'
'그랬듯이_'
'그랬던_'
'그랬다'
'그랬겠지_'
'그랜트_'
'그다음'
'그는'
'그놈들_'
'그년'
'그녀에게'
'그녀도_'
'그것들'
'그거지_'
'그거였어'
'규정을_'
'규모_'
'귀환_'
'귀한_'
'귀엽고_'
'귀에_'
'귀신이_'
'귀신'
'귀가_'
'권한이_'
'권총_'
'권고'
'궁전'
'궁금'
'굶주'
'굴어_'
'굴_'
'군중을_'
'군인들이_'
'군에_'
'군사_'
'군다'
'국장님'
'국왕_'
'국민'
'국내'
'국경'
'구했어요_'
'구했어_'
'구해준_'
'구하려고_'
'구축함'
'구제'
'구워'
'구역의_'
'구역을_'
'구에'
'구석'
'구명'
'구먼_'
'구름'
'구려'
'구글'
'교회_'
'교통'
'교차로'
'교에'
'교수님'
'교사'
'교도소'
'괴롭히는_'
'괴로'
'괜찮아'
'괜찮나_'
'괜찮_'
'광장에'
'광이'
'광경'
'관할'
'관이'
'관으로_'
'관에'
'관심있'
'관심도_'
'관리하는'
'관리_'
'관련해서_'
'관두'
'관광객'
'관계자'
'관계에_'
'관계가_'
'관객'
'과정에'
'과정'
'과일'
'과부'
'과대'
'과거에_'
'과거_'
'공황'
'공항에서_'
'공포증'
'공포에_'
'공평'
'공짜'
'공정'
'공장이'
'공이_'
'공식적으로_'
'공사'
'공부했'
'공동_'
'공기_'
'공구'
'공공'
'공격한다'
'공격이'
'공격당'
'공간에'
'곳인'
'곳이죠_'
'곳이에요_'
'곳엔_'
'골치_'
'골_'
'곤란해'
'곤란하'
'고통스럽게_'
'고통과_'
'고추'
'고쳐_'
'고장났'
'고장'
'고있어요_'
'고있는'
'고용주'
'고양이를_'
'고양이'
'고약한_'
'고싶어_'
'고스트_'
'고서'
'고민'
'고문_'
'고맙지'
'고마'
'고르는'
'고등학교_'
'고되'
'고객이_'
'고개_'
'계획대로_'
'계집애'
'계십니까_'
'계신다'
'계시잖아요_'
'계속해서_'
'계속해'
'계가_'
'곁을_'
'곁에'
'경호원'
'경호'
'경험이'
'경험_'
'경찰서'
'경쟁자'
'경우엔_'
'경비대'
'경비'
'경력을_'
'경과_'
'경고하'
'겸_'
'결혼해'
'결혼할_'
'결혼한_'
'결혼반지'
'결하'
'결정해야_'
'결정한_'
'결정하고_'
'결정이_'
'결정이'
'결정_'
'결국에는_'
'결국'
'견본'
'견딜'
'겪었던_'
'겪었'
'겪고_'
'격려'
'겨울_'
'겠대'
'겠는데_'
'겔'
'게되'
'게다_'
'게끔_'
'겉모습'
'겉'
'것일_'
'것일'
'것이지_'
'것이죠_'
'것이오_'
'것보'
'것같'
'겁쟁이_'
'겁이_'
'겁나'
'검색'
'걸프'
'걸지도_'
'걸지'
'걸음'
'걸어가'
'걸면_'
'걸리죠_'
'걸리는_'
'걸리는'
'걸로요_'
'걷어'
'건지'
'건이'
'건설'
'건드리지_'
'건드리'
'건다_'
'건국의_'
'건강에_'
'거칠'
'거짓말하는_'
'거짓말이_'
'거지요_'
'거절했'
'거울'
'거였어요_'
'거였는데_'
'거북이'
'거보'
'거물이'
'거렸다_'
'거려'
'거랑_'
'거라곤_'
'거대'
'거는_'
'거군_'
'거구요_'
'거구나_'
'거같'
'걔들'
'걔네한테_'
'걔네들'
'걔네가_'
'갤러리'
'개조'
'개자식아_'
'개자식'
'개입'
'개인적'
'개의치_'
'개월'
'개야_'
'개시'
'개새끼'
'개발'
'개로_'
'개념'
'같은거_'
'같으니'
'같았어_'
'같았'
'같나요_'
'같나_'
'같거든요_'
'갖추'
'갖다'
'강하게_'
'강조'
'강제로_'
'강인'
'강아지_'
'강도_'
'강경'
'강_'
'갔을_'
'갔던_'
'갔다고_'
'갔는'
'감정이'
'감이'
'감옥이_'
'감옥'
'감염됐'
'감염_'
'감시카메라'
'감시_'
'감사하'
'감독관'
'감독_'
'감당'
'감기에_'
'갈아입고_'
'갈아입'
'갈아'
'갈비'
'갈께_'
'갈까요_'
'갈거에요_'
'갇혔다'
'갇혀_'
'간호사가_'
'간이'
'간신히_'
'간다는_'
'각하'
'각을_'
'각시'
'각도'
'각각_'
'각각'
'가지지_'
'가죽'
'가족에_'
'가족에'
'가족들이_'
'가족들_'
'가족과_'
'가졌다_'
'가져가려고_'
'가정부'
'가워'
'가운데_'
'가운데'
'가운_'
'가야해'
'가야겠어_'
'가야겠다_'
'가실'
'가시죠_'
'가스_'
'가솔린'
'가속'
'가셔서_'
'가석방_'
'가사'
'가봐요_'
'가봐야겠어_'
'가봐야겠'
'가볼게요_'
'가버렸어_'
'가방에_'
'가르쳐줬'
'가루_'
'가루'
'가로_'
'가려는_'
'가둬'
'가도록_'
'가다_'
'가능하지_'
'가능성을_'
'가는거야_'
'가네_'
'가나_'
'가끔씩_'
'가까이'
'가까스로_'
'가길_'
'ㅋㅋㅋ'
'ㅋㅋ_'
'ㅇ'
'♪ ♪ _'
'ñ'
'í'
'é_'
'á'
' '
'~~~'
'}'
'zie'
'zh'
'yr'
'yp'
'younger_'
'yed_'
'yal'
'xio'
'xic'
'write'
'wrist'
'wre'
'wrap'
'wr'
'worn_'
'workers_'
'with'
'wishes_'
'wished_'
'wipe_'
'wil'
'wid'
'wicked_'
'wic'
'whore_'
'whip'
'wheelchair_'
'what'
'were'
'week'
'weakness_'
'weak'
'watch'
'wasted_'
'wash'
'warehouse_'
'walls_'
'walk'
'wald_'
'waist_'
'vy_'
'voi'
'visitors_'
'visiting_'
'vir'
'vintage_'
'views_'
'vie_'
'vid'
'victory_'
'vic'
'vest_'
'vessel'
'vert'
'version_'
'vers_'
'venti'
'vein_'
'vei'
'vat'
'vase'
'vanish'
'van'
'valuable_'
'vac'
'ution_'
'uterus_'
'uter'
'ute_'
'ute'
'ust'
'usion_'
'usage_'
'ury'
'urge'
'ups_'
'upper_'
'uo'
'unli'
'unite'
'unit_'
'union_'
'unh'
'ung_'
'unfair_'
'underwear_'
'understood_'
'underneath_'
'uncon'
'unb'
'unacc'
'ump'
'umbilical_'
'umb'
'ulo'
'uli'
'ula'
'ul_'
'ugh_'
'ugh'
'ues_'
'ued_'
'ud_'
'uck'
'type'
'twisted_'
'twist'
'tut'
'tus_'
'ture'
'tunnel_'
'tum'
'ttering_'
'tter'
'tt_'
'trousers_'
'troph'
'tro'
'tric'
'tremendous_'
'trem'
'treated_'
'treasure_'
'tre_'
'travel'
'trap_'
'trap'
'transport_'
'transport'
'translated_'
'transfer_'
'trai'
'tradition_'
'tradi'
'trace'
'toys_'
'toxi'
'touch'
'tou'
'torture_'
'torn_'
'tori'
'torch_'
'topic_'
'tolera'
'tol'
'tly_'
'tis'
'tire'
'tip_'
'tine'
'tin'
'timing_'
'tide_'
'tick_'
'thy_'
'thu'
'thrill'
'thr'
'thorough_'
'thief_'
'therapy_'
'therapist_'
'theme_'
'thankful_'
'tha_'
'testing_'
'tested_'
'tes'
'term_'
'teri'
'tera'
'tent_'
'tened_'
'tempora'
'tem'
'telly_'
'tele'
'teenage_'
'technically_'
'tech_'
'teams_'
'tcher_'
'tch'
'tate_'
'tastes_'
'targets_'
'tap'
'tank'
'tamp'
'tal_'
'tal'
'tag'
'tab'
'syndrome_'
'swor'
'switch'
'swin'
'swi'
'sweet'
'sw'
'suspect_'
'susp'
'survivor'
'surviv'
'surveillance_'
'surrender_'
'surprising_'
'surg'
'suppos'
'supplie'
'supp'
'super_'
'sunset_'
'sunrise_'
'suit'
'suicide_'
'suggest_'
'sue_'
'subscri'
'stuffed_'
'stubborn_'
'strip'
'stream_'
'stream'
'strangers_'
'str'
'stl'
'stink_'
'sting'
'stin'
'stick'
'stic_'
'stevens_'
'stea'
'states_'
'state'
'starv'
'stam'
'stall'
'stain'
'st'
'ssions_'
'squea'
'spring_'
'spread_'
'spots_'
'sports_'
'spon'
'spoil_'
'spo'
'spin_'
'spin'
'spends_'
'spending_'
'spell_'
'spee'
'specifica'
'speciali'
'special'
'spea'
'sparkle_'
'spar'
'soup_'
'sound'
'sore_'
'somethin_'
'some'
'solv'
'solo_'
'solid_'
'solar_'
'sol'
'soi'
'socks_'
'society_'
'social'
'sni'
'sne'
'snapped_'
'snack_'
'sna'
'smiled_'
'smells_'
'smelled_'
'sm_'
'slow'
'sloan_'
'slipped_'
'slip'
'sli'
'sl'
'sk_'
'sk'
'sip'
'sink_'
'singer_'
'similar_'
'sim'
'signi'
'signature'
'sig'
'sia_'
'shouting_'
'shoulder_'
'shoo'
'shoe_'
'shit'
'shirts_'
'shipped_'
'shift'
'shes_'
'shel'
'she'
'shallow_'
'shadows_'
'shadow_'
'sgiving_'
'settlement_'
'settled_'
'setting_'
'serv'
'separate'
'sense'
'sens'
'selfish_'
'seizure'
'seek_'
'seed'
'see'
'sedat'
'secrets_'
'sec_'
'sea'
'screw'
'scream_'
'scope_'
'scientists_'
'scientist_'
'schools_'
'scent_'
'scan'
'scale_'
'scal'
'sca'
'sauce_'
'satisf'
'sand'
'sample_'
'sam'
'salt_'
'salary_'
'sail_'
'sail'
'safe'
'sacr'
'rv'
'rupture'
'rumors_'
'rum'
'rtha'
'rsed_'
'rs'
'routine_'
'rounds_'
'roses_'
'rooster_'
'rolled_'
'rol'
'rog'
'rocket_'
'robot_'
'robe'
'rob'
'roar'
'rne'
'rna'
'rmi'
'rling_'
'rk'
'riv'
'risk'
'rise_'
'rip_'
'riot_'
'rio'
'rif'
'riding_'
'rick_'
'rhy'
'rhe'
'reward_'
'revol'
'reverse_'
'reveal'
'retr'
'retain'
'resume_'
'resu'
'restrain'
'resistance_'
'resign'
'resi'
'reserved_'
'resent'
'rese'
'repu'
'represent_'
'repr'
'repeated'
'repeat_'
'repa'
'render'
'reme'
'remarkable_'
'related_'
'relat'
'rela'
'reh'
'regret'
'regard'
'refuse_'
'refu'
'referr'
'reduce_'
'reconstruction_'
'reckon_'
'reci'
'reception_'
'receiving_'
'receive'
'receipt_'
'rebuild_'
'rebo'
'reb'
'realise_'
'realis'
'reaction'
'react_'
'rder_'
'razor_'
'rate'
'rar'
'rapid'
'raped_'
'rank_'
'range_'
'rang_'
'random_'
'rand'
'ram_'
'raine'
'rag'
'radio'
'radic'
'quote_'
'quot'
'quet'
'quar'
'quality_'
'q'
'put'
'pushing_'
'purs'
'pump_'
'pul'
'puff'
'pub'
'ption_'
'pt'
'provin'
'prospect'
'pros'
'proposal_'
'propos'
'project'
'progressi'
'progress_'
'programme'
'professor_'
'prof'
'prod'
'print_'
'princip'
'pressed_'
'presence_'
'prescri'
'prep_'
'predict'
'prea'
'pray'
'praise'
'pple'
'pour'
'pou'
'potatoes_'
'possess'
'position'
'pos_'
'pom'
'political_'
'politic'
'polite_'
'policeman_'
'poison'
'poet'
'plum'
'plu'
'ple_'
'plastic_'
'pizza_'
'pissed_'
'pirate'
'pillow'
'pigs_'
'phy'
'phones_'
'pher_'
'person'
'pers_'
'perm'
'performing_'
'perform_'
'penny_'
'peeled_'
'pect'
'pecke'
'pay'
'pattern_'
'pathetic_'
'path'
'passion'
'passengers_'
'pass'
'partners_'
'parties_'
'particularly_'
'paralysis_'
'pant'
'pane'
'palm_'
'palace_'
'pal'
'painted_'
'pai'
'packing_'
'pac'
'pa_'
'ox'
'owed_'
'overse'
'overnight_'
'overb'
'outs'
'ounc'
'ou_'
'oto'
'otion'
'oti'
'oth'
'osi'
'ortho_'
'orted_'
'orte'
'orp'
'oro'
'orney_'
'orn'
'orm'
'ork'
'organi'
'ora'
'options_'
'opinions_'
'ook_'
'ony_'
'online_'
'oned_'
'om'
'olf_'
'ok'
'oin'
'officially_'
'offense_'
'odo'
'occasion'
'obsessi'
'observe_'
'objects_'
'oat'
'o'
'nut'
'nth'
'nte'
'notes_'
'note'
'nons'
'nom'
'nne'
'nn'
'nl'
'nk'
'nity_'
'nit'
'nist'
'nin'
'nig'
'nie'
'nica'
'nic_'
'nic'
'neu'
'nesse'
'ners_'
'negotiat'
'neat'
'ndu'
'nding_'
'nda_'
'navy_'
'nap_'
'nap'
'my'
'mutilated_'
'mute_'
'muscles_'
'murder'
'multiple_'
'mul'
'muff'
'ms'
'mrs_'
'mpe'
'movement_'
'mov'
'mous'
'moti'
'mosqu'
'morta'
'moon'
'monkey_'
'monitor_'
'mol'
'mobile_'
'mo_'
'mn'
'mm_'
'mister_'
'mint'
'mini'
'miner'
'minds_'
'mike_'
'mia'
'method'
'messing_'
'mes_'
'mes'
'ment'
'menopause_'
'mend'
'men'
'memories_'
'mem'
'medic'
'math_'
'masters_'
'marvel'
'marti'
'marble'
'map_'
'manu'
'manner'
'mann_'
'mankind_'
'mand_'
'malley_'
'mal_'
'mainl'
'mad'
'lve'
'lure'
'lump_'
'ls'
'lph'
'loy'
'lover_'
'lou'
'lose'
'loose_'
'look'
'lonesome_'
'located_'
'loc'
'loan_'
'loaded_'
'lling_'
'lla_'
'lively_'
'literature_'
'literally_'
'lip_'
'lings_'
'lined_'
'lily_'
'light'
'lig'
'lift'
'lica'
'lexie_'
'lesion'
'les'
'lend_'
'lem'
'learnt_'
'lb'
'lawyers_'
'law'
'latte'
'lation_'
'lati'
'large'
'lam'
'labor'
'kung_'
'ko_'
'ko'
'knocking_'
'knees_'
'kle_'
'killer_'
'kidnapped_'
'ket_'
'kes_'
'kers_'
'karev_'
'juice_'
'judg'
'journal_'
'joint_'
'joined_'
'jewel'
'jar'
'jam_'
'jail_'
'j_'
'iv'
'ito_'
'ite_'
'itation'
'ita_'
'isti'
'iste'
'iso'
'irre'
'ir_'
'ique_'
'ious_'
'ional'
'io_'
'invisible_'
'invi'
'invented_'
'inva'
'introduc'
'into'
'interfere_'
'intense_'
'intended_'
'inten'
'instinct_'
'instant'
'insec'
'inquiry_'
'initiate'
'initial_'
'inh'
'informa'
'inform'
'inent_'
'indicat'
'increasing_'
'inappropriate_'
'impr'
'import'
'impatien'
'imme'
'iment_'
'ime'
'images_'
'im'
'ily_'
'ils_'
'iling_'
'il'
'ign'
'igh'
'iga'
'ified_'
'ific'
'idio'
'idents_'
'ident'
'ict'
'icks_'
'ibu'
'ibi'
'iati'
'ians_'
'iP'
'hyp'
'hunter_'
'hundreds_'
'humor'
'humiliating_'
'house'
'hot'
'hostage_'
'horror_'
'horn'
'hopes_'
'hop_'
'hook_'
'hook'
'hood_'
'honor'
'honeymoon_'
'hl'
'hitting_'
'his'
'hir'
'hip_'
'hint'
'hink'
'hil'
'hike'
'high'
'hic'
'hh'
'hers_'
'hero'
'helmet_'
'hei'
'hed_'
'heart'
'hears_'
'heap_'
'healing_'
'heading_'
'haunt'
'has'
'hardware_'
'harde'
'hant_'
'hang'
'handl'
'handi'
'han'
'hale'
'hahn_'
'habit_'
'gut_'
'guin'
'gui'
'guarded_'
'growth_'
'ground'
'grill'
'grew_'
'gravity_'
'grav'
'grant'
'gran'
'graduate_'
'grade_'
'grad'
'governor_'
'gon_'
'goin_'
'godd'
'goat_'
'gn_'
'gm'
'gloves_'
'gla'
'gin_'
'gie_'
'ghi'
'ggo'
'gged_'
'gest'
'germ'
'geo'
'gel'
'gasping_'
'gard'
'gar_'
'gap'
'gang_'
'galaxies_'
'ga_'
'fy_'
'furniture_'
'fund'
'fuck'
'friendship_'
'friendly_'
'freezing_'
'freeze_'
'fran'
'frame_'
'fr'
'fourth_'
'fought_'
'fou'
'forth_'
'form'
'forgiv'
'forgetting_'
'foolish_'
'fool'
'fond_'
'folks_'
'flow'
'floo'
'flip_'
'flies_'
'fleet_'
'flaw'
'flame'
'fixing_'
'fit'
'fishing_'
'firm'
'fine'
'files_'
'filed_'
'fil'
'fighter_'
'fic'
'ffle_'
'fet'
'fences_'
'fel'
'feast_'
'fears_'
'fashioned_'
'fascinating_'
'fam'
'fak'
'fairy_'
'fair'
'factor'
'fact'
'faci'
'fab'
'ez_'
'eye'
'extremely_'
'extraordinary_'
'exposed_'
'explode_'
'experiment_'
'experiment'
'experienc'
'expenses_'
'expens'
'exist'
'exercises_'
'execute'
'exception_'
'exa'
'ew_'
'eventually_'
'ete_'
'essa'
'ess'
'escort_'
'escaped_'
'errand'
'err'
'ern_'
'erm'
'era_'
'equal_'
'equa'
'epo'
'entrance_'
'entering_'
'ense_'
'enor'
'engage'
'ene_'
'endeavor'
'ende'
'end'
'ency_'
'enclos'
'employees_'
'embarrassed_'
'els_'
'elle_'
'eles'
'element'
'electro'
'electric'
'ele'
'eks'
'eh_'
'eff'
'een'
'edly_'
'ects_'
'ecti'
'eco'
'eb'
'ease_'
'dw'
'duck'
'dson_'
'drum'
'drown'
'drops_'
'drones_'
'drivers_'
'driven_'
'drill_'
'dri'
'drawn_'
'drama_'
'downtown_'
'dot'
'dorm'
'dop'
'documents_'
'document_'
'dn'
'dly_'
'dling_'
'diversi'
'dition'
'disturb'
'distress_'
'distraction'
'distracted_'
'diso'
'disguise_'
'disease'
'disco'
'discharg'
'disa'
'dine_'
'dim'
'diet_'
'dict'
'dic'
'dial'
'di_'
'determined_'
'determine_'
'detail_'
'detai'
'destiny_'
'dest'
'despi'
'design_'
'desi'
'deserved_'
'dera'
'department_'
'depart'
'dent_'
'deni'
'demons_'
'demand'
'dem'
'deli'
'delete'
'delegat'
'degrees_'
'defending_'
'defend_'
'defeat'
'deeply_'
'declare'
'decent_'
'deb'
'dealer'
'dash'
'darkness_'
'dance'
'damp'
'daily_'
'cyst'
'cut'
'custom'
'curtain_'
'cultur'
'cuffs_'
'ctur'
'ctic'
'cted_'
'crush_'
'critic'
'creep'
'cred'
'creatures_'
'creature_'
'created_'
'crea'
'crashed_'
'crack'
'cow_'
'counts_'
'countryside_'
'countries_'
'counting_'
'counter_'
'cough'
'cotton_'
'cott'
'costs_'
'corridor_'
'correct'
'corn_'
'copie'
'conversations_'
'conver'
'convent'
'conv'
'contract_'
'contained_'
'contacted_'
'consistent_'
'consequences_'
'consent_'
'conse'
'cons'
'congratulations_'
'confuse'
'confirm'
'confident_'
'confe'
'cond'
'concert_'
'compliment_'
'complication'
'compe'
'companies_'
'communist_'
'communication_'
'communicate_'
'communi'
'commit'
'commission'
'commen'
'comfort_'
'colo'
'colleagues_'
'collapsed_'
'cod'
'cock_'
'cock'
'coaster_'
'closet_'
'close'
'clin'
'clic'
'clever_'
'cleaned_'
'clean'
'classic'
'claimed_'
'cken'
'civil'
'cis'
'christmas_'
'chr'
'choi'
'chin'
'chess_'
'cheer'
'checking_'
'checked_'
'cheaper_'
'che_'
'chase_'
'charming_'
'characters_'
'chap'
'challenge_'
'cess'
'certifi'
'cent_'
'cent'
'cemetery_'
'cement_'
'cel'
'cast_'
'cared_'
'cardiac_'
'carb'
'capa'
'cap_'
'camp_'
'cad'
'cH80ffff_'
'butter'
'butt_'
'busines'
'bury_'
'burst_'
'burg'
'bumpe'
'bum_'
'budget_'
'bs_'
'brown_'
'broad_'
'brighte'
'brief_'
'breast_'
'brave_'
'bowe'
'bother'
'bor'
'boom_'
'boobs_'
'bomber_'
'bomb_'
'bomb'
'blown_'
'blink'
'blind'
'bless'
'blend'
'bleed_'
'blad'
'birds_'
'biology_'
'bills_'
'bid'
'bets_'
'bers_'
'berry_'
'ben'
'below_'
'belly_'
'bell_'
'bee_'
'bed'
'becoming_'
'beaten_'
'beast_'
'bber'
'bathe'
'bath'
'bat'
'basket_'
'basic_'
'basi'
'base'
'bas'
'bare'
'barbe'
'banne'
'balloon_'
'ball'
'bake'
'backwards_'
'backpack_'
'background_'
'bac'
'aye'
'ax'
'await'
'avoiding_'
'ava'
'auto'
'au_'
'attractive_'
'attracted_'
'attended_'
'attend'
'attempt_'
'attacking_'
'attach'
'ats_'
'ator_'
'athy_'
'athe'
'ates_'
'ate'
'astro'
'assume_'
'assigned_'
'assi'
'asses_'
'assembl'
'assassinat'
'asks_'
'ash_'
'arrow'
'armor_'
'argument'
'argue_'
'arg'
'aren'
'areas_'
'are'
'approaching_'
'appro'
'appreciat'
'appea'
'apparent'
'aortic_'
'anxious_'
'ante'
'answering_'
'answered_'
'anie'
'angrily_'
'ang_'
'ang'
'anesthe'
'ane_'
'ancient_'
'anchor_'
'analy'
'ana_'
'amo'
'amends_'
'amed_'
'ame_'
'amb'
'am'
'alty_'
'alt'
'allowing_'
'alg'
'alert_'
'ale'
'airs'
'air'
'ah_'
'aggressive'
'agency_'
'afterwards_'
'after'
'affair_'
'af'
'advised_'
'advis'
'advance_'
'adults_'
'adopti'
'adopted_'
'admir'
'admi'
'addi'
'actor_'
'active_'
'act'
'acquire'
'ache'
'accounts_'
'acceptance_'
'abso'
'aba'
'ab_'
'aa'
'] - '
'Z_'
'Yoo'
'Year_'
'YO'
'YE'
'Write_'
'Work'
'Words_'
'Wood'
'Wilson_'
'Will'
'Whoever_'
'Whisper'
'Whimpers_'
'Wheel'
'Werner_'
'Wednesday_'
'Wasn_'
'Warm_'
'Ward_'
'War_'
'Walter_'
'WAY'
'WAN'
'WAIT'
'Vol'
'Vincent_'
'Vik'
'Vicky_'
'Valley_'
'Us_'
'University_'
'Under_'
'Ul'
'UT'
'UR'
'UM_'
'Tw'
'Ts'
'Tric'
'Trea'
'Trans'
'Tra'
'Tower'
'Thu'
'Throw_'
'Thr'
'Though_'
'Thi'
'Theo'
'Tha'
'Th'
'Tex'
'Terri'
'Tea'
'Taylor_'
'Tan'
'Taking_'
'TV에'
'TV를_'
'TR'
'THU'
'THRO'
'TE_'
'TER'
'TE'
'TC'
'Syd'
'Swe'
'Swan_'
'Susan_'
'Suddenly_'
'Suc'
'Su_'
'Steph'
'Step_'
'Stefan_'
'Stanton_'
'Stan'
'Squ'
'Spider_'
'Spen'
'Speaking_'
'Spare_'
'Spa'
'Sp'
'Southern_'
'Sou'
'Soon_'
'Soo_'
'Song'
'Son'
'Sold'
'Solange_'
'Sof'
'Snow_'
'Sna'
'Smo'
'Smi'
'Smart_'
'Sm'
'Sli'
'Sleep_'
'Si_'
'Show'
'Shouldn_'
'Sher'
'Shelby_'
'Shan'
'Shall_'
'Sergeant_'
'Ser'
'September_'
'Senator_'
'Selena_'
'Seem'
'Search_'
'Sean_'
'Saw'
'Satine_'
'Sand'
'Samu'
'Sai'
'SHO'
'SH'
'SEE_'
'SCREAMING_'
'SC'
'Ryan_'
'Rox'
'Ross'
'Ros'
'Room_'
'Ronnie_'
'Roman'
'Rol'
'Robin'
'Road_'
'Ring'
'Rich'
'Rh'
'Rey'
'Republic_'
'Rel'
'Rei'
'Reek_'
'Real_'
'Rav'
'Ram_'
'RO'
'RN_'
'RE_'
'REN'
'REA'
'Quin'
'Quick_'
'Qui'
'QU'
'Q'
'Prop'
'Pra'
'Por'
'Pope_'
'Poor_'
'Ponti'
'Plan'
'Pla'
'Pink'
'Pier'
'Pay'
'Patch_'
'Pal'
'Pain'
'PRE'
'PR'
'POW'
'PLA'
'Otherwise_'
'Om'
'Ols'
'Old_'
'Ol'
'Offic'
'Oa'
'OM'
'OL'
'Nu'
'Non_'
'Noah_'
'Nina_'
'Navy_'
'Name_'
'NOW_'
'NO'
'NG'
'NEW_'
'Music_'
'Mus'
'Moo'
'Mont'
'Mitch_'
'Missi'
'Mir'
'Min_'
'Milky_'
'Mickey_'
'Mexican_'
'Mercy_'
'Merci'
'Mel'
'Meg'
'Medi'
'Meanwhile_'
'Mea'
'Mav'
'Masters_'
'Mary'
'Maria_'
'Marc'
'Mand'
'Maddie_'
'Madam_'
'MaIaIa_'
'MUSIC_'
'MUCH_'
'MEAN'
'MAN_'
'MAN'
'MAL_'
'Luck'
'Lower_'
'Load_'
'Liar_'
'Lewis_'
'Les'
'Leonard_'
'Leon'
'Legal'
'Lauren_'
'Latin'
'Later'
'Lar'
'Lam'
'Ladies_'
'Lac'
'La_'
'LOOK_'
'LL_'
'LHC'
'LAUGHING_'
'Ky'
'Ku'
'Kr'
'Kl'
'Kira_'
'Kimm'
'Kerry_'
'Kee'
'Kara'
'Kali_'
'KNO'
'Jun_'
'Julia_'
'Juli_'
'Jules_'
'Jona'
'Jin'
'Jess_'
'Jeong_'
'Jee'
'Jean_'
'Jan_'
'Jamal_'
'Jam'
'Itsuki_'
'Its_'
'Island_'
'Isa'
'Ir'
'Interest'
'Inter'
'Ind'
'Imp'
'Il'
'IT'
'IL'
'Hou'
'Hotch'
'Hot_'
'Hos'
'Hop'
'Hoo'
'Home_'
'Hol'
'Hitler_'
'Hitchcock_'
'Hill'
'High'
'Heh_'
'Heart_'
'Hay'
'Harvey_'
'Hand_'
'Han_'
'Hamlet_'
'Halloween_'
'Hail_'
'HI'
'HERE_'
'HEA'
'HE'
'Gw'
'Gus'
'Guryong_'
'Gua'
'Gu'
'Grant_'
'Gor'
'Good'
'Glenn_'
'Glad_'
'Give'
'Girls_'
'Giggl'
'Gaviria_'
'Gate'
'Game'
'Gal'
'GS_'
'GROANS_'
'GRO'
'GR'
'GO_'
'GM'
'GH'
'GER'
'Frost_'
'Fres'
'Franklin_'
'Franc'
'Found_'
'Fol'
'Fly_'
'Fle'
'Fitz'
'Fir'
'Finn_'
'Feel_'
'Federa'
'Fat'
'Faster_'
'Family_'
'Fall'
'Fai'
'FT_'
'FRANKIE_'
'FBI가_'
'Eyes_'
'Exp'
'Exhales_'
'Evi'
'Eva_'
'Ev'
'Eun_'
'Ethan_'
'Erik_'
'Er_'
'England_'
'Eng'
'Elli'
'Elizabeth_'
'Elis'
'Eddie_'
'East_'
'EXHALES_'
'EX'
'EN_'
'EM'
'EHOME이_'
'E5'
'Dri'
'Draw'
'Dorne_'
'Dora'
'Done_'
'Dog_'
'Doc_'
'Dis'
'Ding'
'Die_'
'Die'
'Dev'
'Deucalion_'
'Des'
'Den'
'Del'
'Deep_'
'Declaration_'
'December_'
'Deb'
'Dea'
'De_'
'Davi'
'Dastan_'
'DU'
'DIE'
'Cutter_'
'Cox_'
'Count'
'Cou'
'Cop'
'Cool_'
'Contr'
'Continue_'
'Compa'
'Communi'
'Commi'
'Clear'
'Chun'
'Chop'
'Chicago_'
'Char'
'Chapman_'
'Central_'
'Cats_'
'Carry_'
'Carri'
'Capitol_'
'Canyon'
'Canada_'
'Cameron_'
'Cai'
'COURSE_'
'CON'
'CHA'
'CB'
'Bus'
'Bun'
'Bud'
'Bruce_'
'Brothers_'
'Brook'
'Britain_'
'Brilliant_'
'Brian_'
'Breathe_'
'Brea'
'Brazil_'
'Bra'
'Boyd_'
'Bourne_'
'Bor'
'Bond_'
'Blow'
'Bli'
'Black_'
'Bitch_'
'Besides_'
'Bern'
'Berlin_'
'Benway_'
'Bell'
'Bel'
'Beeps_'
'Beaut'
'Bear_'
'Beach_'
'Bea'
'Bay'
'Bang_'
'Bach_'
'BUT_'
'BEE'
'Ava_'
'Aunt_'
'Atta'
'Athe'
'Ash'
'Arr'
'Arnie_'
'Arie'
'Ap'
'Antonio_'
'Anti'
'Angela_'
'Ang'
'Andre'
'Anatomy_'
'Ana'
'Ami'
'America'
'Amelia_'
'Amazing_'
'Ama'
'Alpha_'
'Alicia_'
'Ahh_'
'Again_'
'Afro_'
'Af'
'Ada'
'Abraham_'
'AU'
'ANN'
'ANI'
'? ..._'
'? , _'
'? "_'
': "_'
'9월_'
'9살'
'95'
'92'
'91'
'8월'
'85'
'82'
'80_'
'800'
'7일_'
'7번'
'6월_'
'6시간'
'6시_'
'5초'
'5살'
'5분만_'
'5명이'
'5명'
'50달러_'
'4명'
'4년_'
'45분'
'3시'
'3개월'
'3개_'
'32_'
'32'
'31_'
'30년'
'2층'
'2시'
'28_'
'26_'
'240'
'21_'
'20년_'
'20년'
'2011'
'2010'
'1일'
'1월'
'18세'
'16th_'
'15년_'
'150_'
'140'
'13살'
'12월_'
'12시'
'10분'
'10번_'
'09'
'.?_'
'...!_'
'... '_'
'.. -_'
'." - _'
'. ♪ _'
'. / _'
'. .'
'-(_'
'- ( _'
'(*)'
''!_'
'' ♪_'
'%'
'", _'
'!"'
' ♪ - ♪ _'
' ‘_'
' ¡°_'
' {\\_'
' [ _'
' ? _'
' == @_'
' - - _'
' ) _'
' "'
'ﬂ'
'힘의_'
'힘들겠'
'힘들거란'
'힘드니'
'힌다'
'힉스_'
'히하'
'히피들'
'히트'
'히로코'
'히로'
'흰색_'
'흰'
'희생자'
'희생이'
'희미'
'희망합니다_'
'희망이'
'희귀'
'희_'
'흥분하'
'흥분돼_'
'흥미롭군'
'흥미롭'
'흥미로웠'
'흥미로'
'흡수하'
'흡수'
'흘렸'
'흘러가는'
'흔적이_'
'흑인들'
'흐르게_'
'흉이'
'휴지'
'휴일'
'휴식_'
'휴대폰이'
'휴대폰_'
'휴대'
'휴가_'
'휴_'
'휠체어_'
'휠'
'휘트니_'
'훗날'
'훔치고_'
'훔쳤어_'
'훔쳐가'
'훔'
'훌륭하네'
'훌륭하군_'
'후회했다_'
'후지이_'
'후지'
'후의_'
'후원'
'후에'
'후안_'
'후면_'
'후드_'
'후두'
'후계자'
'효율성'
'횡'
'획'
'회화'
'회할_'
'회하'
'회의에서_'
'회의를_'
'회원'
'회색'
'회사라'
'회복하는'
'회계'
'회견'
'황화'
'황소'
'황새'
'활용'
'활성'
'활력'
'활동_'
'환자한테_'
'환자에게_'
'환자야_'
'환자들을_'
'환영해_'
'환영하'
'환상적인'
'환기'
'확인했다_'
'확인해봤어'
'확인할_'
'확인이'
'확신해'
'확신한'
'확신하는_'
'확신을_'
'확산'
'확률'
'확대해'
'확고'
'화점'
'화장실에서_'
'화장실에_'
'화이트_'
'화원'
'화약을_'
'화수'
'화성의_'
'화성에'
'화산'
'화려하'
'화됐'
'화도'
'화낼_'
'화내고_'
'화났어'
'화났다'
'화난게_'
'화나게_'
'화가'
'홍수'
'홈즈씨'
'홀이'
'홀을_'
'홀에'
'홀리요크'
'혼합'
'혼자인'
'혼자서는_'
'혼자만의_'
'혼이_'
'혼수'
'혼란스러워'
'혼란스러'
'혹한_'
'혹이'
'호흡기_'
'호프'
'호텔로_'
'호텔도_'
'호출하고_'
'호출하'
'호적'
'호의에_'
'호스'
'호민관님'
'호모'
'호릭'
'호레이스'
'호러'
'호가_'
'형편없'
'형제들이'
'형제는_'
'형적'
'형에'
'형수'
'형성'
'형상'
'형벌_'
'형님이'
'혔잖아'
'혔어_'
'협조해'
'협정을_'
'협정은_'
'혐의를_'
'혐의로_'
'혐오스'
'혈통'
'혈종'
'혈압은_'
'혈소판_'
'현장을_'
'현실을_'
'현실에'
'현실_'
'현상이_'
'현상금'
'현미경'
'현금_'
'현금'
'현관'
'현_'
'혁명_'
'혀를_'
'헬멧'
'헬렌'
'헨더슨'
'헥'
'헤쳐'
'헤집'
'헤이워'
'헤어지는_'
'헤어지고_'
'헤어졌'
'헤어나'
'헤아'
'헤리티지'
'헤르'
'헤드'
'헤나'
'헛소리가_'
'헛된_'
'헛간'
'험난'
'헐크'
'헌트를_'
'헌터들'
'헌신'
'헌데_'
'헉'
'허튼'
'허접'
'허용'
'허약'
'허브'
'허락할_'
'허락한다'
'허락_'
'허니_'
'향했다'
'향이'
'향수_'
'향상시키'
'향상'
'행해'
'행크'
'행이'
'행위를_'
'행위_'
'행운의_'
'행성을_'
'행성에'
'행성'
'행복해지'
'행복_'
'행동했'
'행동거지'
'했지요_'
'했잖'
'했을거'
'했으니까요_'
'했으나_'
'했었잖아'
'했었으니'
'했었던_'
'했었다고'
'했었나'
'했더라'
'했더'
'했다며_'
'했다던'
'했네요_'
'했냐_'
'했냐'
'했나봐'
'했길'
'했기_'
'했구'
'했겠지_'
'햄프셔'
'햄'
'핸드폰을_'
'핸드폰에'
'핸드폰'
'핸'
'핵_'
'해피'
'해킹했'
'해칠'
'해치진_'
'해질'
'해진다_'
'해지는_'
'해지거'
'해줬으면_'
'해줘야지'
'해줘야겠어_'
'해줘야'
'해줄까'
'해준다면_'
'해준다고_'
'해주죠_'
'해주었'
'해주십시오_'
'해주시죠_'
'해주시겠습니까_'
'해주셔'
'해주는'
'해제'
'해적들'
'해이'
'해오'
'해에'
'해야할지_'
'해야한'
'해야하는지_'
'해야하는'
'해야된다'
'해야돼'
'해야겠지_'
'해야겠네요_'
'해야겠군'
'해안에'
'해수'
'해석할'
'해석'
'해산'
'해봤지'
'해봤어_'
'해봤는데_'
'해봐야겠'
'해볼게'
'해보시'
'해보셨'
'해보세요_'
'해보라고_'
'해보니'
'해보는건_'
'해보는'
'해보길_'
'해변이'
'해변'
'해버'
'해방_'
'해리포터'
'해드릴게'
'해드리죠_'
'해독'
'해대고_'
'해당'
'해답이'
'해답'
'해달라고'
'해는'
'해놓고'
'해나_'
'해나'
'해군이_'
'해결하고_'
'해결책이_'
'항해_'
'항할_'
'항복하'
'항복_'
'항바이러스'
'항로'
'항공_'
'핫도그_'
'핫_'
'합쳐'
'합의하'
'합병증이_'
'합병증'
'합병_'
'합병'
'합리적'
'합리'
'합류'
'합니다'
'합_'
'함정'
'함을'
'함으로'
'함선에'
'함께하지_'
'함께하고_'
'핥'
'할일이_'
'할일'
'할인'
'할아버지를_'
'할아'
'할수있는_'
'할수있는'
'할수없'
'할멈'
'할로윈_'
'할려고_'
'할렘'
'할때까'
'할꺼야_'
'할것_'
'할것'
'한편으'
'한편'
'한테만_'
'한척'
'한창_'
'한참'
'한차례'
'한쪽_'
'한은_'
'한번은_'
'한번'
'한밤중'
'한명을_'
'한마디_'
'한마'
'한때_'
'한두_'
'한두'
'한데'
'한다는데_'
'한다구_'
'한놈이'
'한나'
'한결'
'한건가요_'
'한거예요_'
'한거라고'
'한가운데_'
'학적_'
'학자에'
'학생이_'
'학생에'
'학생들이_'
'학생들은_'
'학생들에'
'학생_'
'학기'
'하진스가_'
'하진스_'
'하진스'
'하지만'
'하지마요_'
'하지마세요_'
'하지는_'
'하자면_'
'하이킹_'
'하이드라'
'하여'
'하야_'
'하신다면_'
'하신거'
'하시는'
'하시겠습니까_'
'하시게_'
'하수'
'하소연'
'하셨잖아요_'
'하셨을'
'하셨다_'
'하산'
'하비에르'
'하비_'
'하면요_'
'하면서'
'하르'
'하룻밤'
'하려던_'
'하려는거'
'하란_'
'하란'
'하라는_'
'하라구'
'하든지'
'하도'
'하더라도_'
'하더라구요_'
'하더라고_'
'하더라_'
'하니'
'하는지는_'
'하는겁니다_'
'하는걸_'
'하는건_'
'하는건'
'하는거요_'
'하는거라'
'하는거니'
'하는거고_'
'하냐고_'
'하나였다'
'하나였'
'하나씩'
'하나봐'
'하기엔_'
'하기에는_'
'하기도_'
'하그로브'
'하구_'
'하고자_'
'하고있는'
'하고요_'
'하고싶어'
'하고만_'
'하고나'
'하겠다고_'
'하게될거야_'
'핑거'
'핑_'
'필요했어_'
'필요했던_'
'필요한데'
'필요한건'
'필요하지_'
'필요하죠_'
'필요하잖아'
'필요하단_'
'필요하다는_'
'필요하니까_'
'필요하거든요_'
'필요가'
'필사적으로_'
'필라'
'필드'
'피해를_'
'피터는_'
'피지'
'피자_'
'피웠'
'피우려고'
'피오나_'
'피어_'
'피아'
'피셔'
'피닉_'
'피난'
'피곤'
'피고인'
'피고_'
'플루'
'플레'
'플래시'
'프터'
'프에'
'프스'
'프림'
'프론'
'프로듀서'
'프로그램에_'
'프로그'
'프레이'
'프레스턴_'
'프레데릭'
'프랭키'
'프랑키_'
'프랑'
'퓨'
'풍부한_'
'풍구'
'품입니다_'
'품고_'
'풀지'
'풀어줘'
'풀어주고_'
'풀릴'
'풀려나'
'푼도_'
'푼'
'푸스'
'푸르'
'표현했'
'표지'
'표정_'
'표식'
'표면'
'폴이_'
'폴을_'
'폴리_'
'폴로'
'폴란드_'
'폰으로_'
'폭행'
'폭풍이'
'폭풍우로_'
'폭파시'
'폭탄은_'
'폭죽'
'폭신'
'폭발물이'
'폭발_'
'폭력적'
'포함해서_'
'포함해'
'포함시'
'포지'
'포즈_'
'포자'
'포인트_'
'포위'
'포옹'
'포스터'
'포르노_'
'포드가_'
'포드_'
'포도주_'
'포도'
'포기하는'
'폐하를_'
'폐부종'
'평생동안_'
'편히_'
'편해'
'편하'
'편지에_'
'편지로_'
'편지는_'
'편지가_'
'편의_'
'편의'
'편안한_'
'편안'
'편리하'
'펭귄'
'펨브로크씨'
'펜트'
'펜실'
'페이스'
'페이_'
'페이'
'페어'
'페리'
'페레즈'
'페달'
'페가수스'
'펑크'
'펀치'
'펀드'
'퍼질'
'퍼센트_'
'퍼뜩_'
'퍼드_'
'팻'
'팬케이크'
'팬들'
'패혈증'
'패티_'
'패트릭'
'패스'
'패션'
'패들_'
'패드'
'패거리들이_'
'팥_'
'팝콘'
'팝니'
'팔자_'
'팔은_'
'팔아요_'
'팔아넘'
'팔머'
'팔려고'
'판이_'
'판사님_'
'판도라'
'판다'
'판결을_'
'파편'
'파티에서_'
'파일럿'
'파일'
'파이프_'
'파이프'
'파이팅_'
'파이어'
'파의_'
'파운드를_'
'파완_'
'파열_'
'파업을_'
'파상풍_'
'파블로는_'
'파멸'
'파리의_'
'파리에_'
'파를_'
'파르'
'파랑'
'파란색_'
'파란'
'파기'
'파괴했어'
'파괴했'
'파괴해_'
'파고'
'팀이었'
'팀이야_'
'팀과_'
'틸_'
'틴이'
'티지'
'티스'
'티모어'
'티리온'
'티가_'
'틀렸다고_'
'특히나_'
'특이한'
'특이점'
'특수요원_'
'특권이'
'트와_'
'트에'
'트릭'
'트리를_'
'트루'
'트로이'
'트렸'
'트레일러'
'트레이_'
'트레이'
'트렁크에_'
'트렁크'
'트니'
'트는_'
'트기'
'튬'
'튜브_'
'튜_'
'튕'
'튀었어'
'튀니'
'튀김_'
'퉁이'
'투자자'
'투스'
'투수'
'투명인간'
'투를_'
'퇴원시'
'퇴각_'
'통화할_'
'통화하'
'통화를_'
'통한'
'통지'
'통증을_'
'통제실'
'통제불능'
'통제_'
'통을_'
'통신을_'
'통신_'
'통상_'
'통로'
'통과해'
'톰이'
'토퍼'
'토스_'
'토비가_'
'토비_'
'토미'
'토머스'
'토리_'
'토론하'
'토로했다_'
'토로'
'토드_'
'템플이'
'텐트'
'텍사스'
'텍'
'테크'
'테지만'
'테이프'
'테이블에_'
'테온_'
'테오'
'테레사_'
'테러_'
'테라'
'테디는_'
'테드_'
'텀'
'턴하'
'터키_'
'터진_'
'터즈'
'터스'
'터무니없는_'
'터리_'
'터리'
'터는_'
'터널_'
'터가_'
'탱이'
'탱_'
'택했'
'택시를_'
'택_'
'태워버리'
'태울_'
'태운'
'탐사_'
'탈출_'
'탈이'
'탈의'
'탈을_'
'탈수'
'탈거야_'
'탄약'
'탁월한_'
'탁아소에'
'타코'
'타카'
'타지'
'타잔_'
'타자기'
'타자'
'타임즈'
'타일'
'타인'
'타이틀'
'타이어가_'
'타이밍이'
'타이_'
'타워를_'
'타워'
'타에_'
'타야_'
'타스'
'타세요_'
'타서_'
'타살'
'타박상'
'타미_'
'타디스'
'타는'
'타늄'
'타나'
'타기_'
'타고난_'
'타게'
'킷'
'킵니다_'
'킵'
'킬로미터'
'킬로'
'키트'
'키지'
'키우는'
'키우고_'
'키에'
'키미'
'키로_'
'키는'
'키나'
'큼'
'클린턴'
'클린_'
'클레어에'
'클레'
'클램프_'
'클락의_'
'클락'
'클라이'
'클_'
'큰일이'
'크지'
'크에'
'크시'
'크스_'
'크림'
'크리켓'
'크리스틴_'
'크리스티나는_'
'크리스마스를_'
'크루'
'크로스_'
'크레이'
'크레아'
'크레스'
'크래커'
'크라울리_'
'크다'
'크네'
'큐브'
'퀸시'
'쿤'
'쿠퍼_'
'쿠키를_'
'콩_'
'콜슨이_'
'콜슨'
'콜비_'
'콜린스'
'콘이_'
'콘돔이'
'콕스'
'코플'
'코트'
'코인_'
'코비'
'코넬_'
'코끼리가_'
'코끼리'
'코가_'
'켜지'
'켜서_'
'켈'
'케일'
'케인'
'케익_'
'케익'
'케이티_'
'케이크는_'
'케이크_'
'케이시_'
'케이시'
'케이드'
'케빈_'
'케니'
'케네'
'컴퓨터는_'
'컴퓨터가_'
'컨설'
'컨디션'
'커피를_'
'커터'
'커질'
'커리'
'커는_'
'캡틴'
'캠프에서_'
'캘빈_'
'캘리포니아에_'
'캔디_'
'캐피'
'캐롤라인'
'칼에_'
'칼슨_'
'칼로_'
'칸다'
'카페테리아에'
'카페'
'카트'
'카테'
'카터'
'카지노_'
'카지노'
'카일'
'카이_'
'카우보이_'
'카시'
'카모'
'카메론'
'카메라에'
'카메라가_'
'카를로스'
'카레브랑_'
'카라브락소스'
'카데'
'칭찬하는_'
'칫솔'
'칫'
'칩_'
'침착해_'
'침착하'
'침입했'
'침입한_'
'침이'
'침실에서_'
'침대에서_'
'침대는_'
'칠판'
'칠면'
'칠레'
'칠거야_'
'친하'
'친척이'
'친구한테'
'친구인_'
'친구인'
'친구이'
'친구와_'
'친구분'
'친구로_'
'친구니'
'치지'
'치우고_'
'치오'
'치아'
'치시'
'치료했'
'치료하기'
'치료하고_'
'치료제가_'
'치료가_'
'치로'
'치려'
'치도'
'치다_'
'치다'
'치노'
'치기_'
'측정'
'측이_'
'측을_'
'츠는_'
'취향이_'
'취했다'
'취약'
'취소했'
'취소해야'
'취소해'
'취소할_'
'취소하'
'취소_'
'취미를_'
'취급하'
'췄다_'
'충직'
'충전해'
'충실하'
'충실'
'충분해'
'충분할'
'충분하지_'
'충돌했'
'충격적인_'
'충격이_'
'충격이'
'충격_'
'춥다'
'출하'
'출처'
'출입금지'
'출을_'
'출연'
'출신인_'
'출신이_'
'출소'
'출세'
'출발했'
'출발해야'
'출발할'
'출발하기'
'출마'
'출력'
'출근'
'춘삼'
'춘다'
'춘'
'축해'
'축하드립니다_'
'축제에'
'축구_'
'축_'
'추행'
'추천'
'추진'
'추정'
'추적해_'
'추적할'
'추적_'
'추워_'
'추세'
'추론이'
'추락한'
'최초'
'최종'
'최신_'
'최소한이'
'최선의_'
'최상의_'
'최대한으로_'
'최대'
'최고라'
'최고가'
'총장님'
'총으로_'
'총알에'
'총상'
'총도_'
'총기_'
'총격전'
'총각'
'촉진'
'초콜릿_'
'초콜'
'초청'
'초자연적'
'초음파_'
'초음파'
'초에_'
'초상'
'초록'
'초래'
'초등학교'
'쳤지'
'쳤다'
'쳐주'
'쳐먹'
'쳐들어'
'쳐다보는'
'쳐넣'
'쳇_'
'체포해'
'체포될'
'체포됐'
'체코'
'체중_'
'체이스_'
'체이스'
'체온이'
'체스터_'
'체리'
'체로_'
'청해'
'청중'
'청이'
'청소기'
'청부'
'첫째_'
'첫인상'
'첫번째로_'
'첫날'
'첨_'
'철학'
'철저히_'
'철거'
'천진'
'천사같아'
'천문학'
'천만'
'천국에서_'
'척해'
'척하지'
'처해_'
'처음이야_'
'처음은_'
'처음에는_'
'처음봐'
'처분'
'처벅'
'처리할게요_'
'처리하고_'
'처를_'
'처녀인'
'챙겨서_'
'챘'
'챔피언_'
'챔'
'챌_'
'챈들러'
'책임질_'
'책임감'
'채찍'
'채웠'
'채소'
'채무'
'채를_'
'채드_'
'채널이'
'채기'
'찾을거'
'찾으셨'
'찾으세요_'
'찾으려_'
'찾았다_'
'찾아왔어'
'찾아봤어'
'찾아볼게'
'찾아볼'
'찾아보자_'
'찾아보는_'
'찾아냈다'
'찾아낼_'
'찾아낸'
'찾는다_'
'찾는다'
'창한_'
'창하'
'창조주'
'창자를_'
'창이'
'창의'
'창백'
'창문을'
'창문으로_'
'창녀들'
'창고에서_'
'찼다'
'참이었어_'
'참으로_'
'참아_'
'참나_'
'참가하'
'찬양'
'착하지_'
'착취'
'착수하'
'착륙하는_'
'착륙장'
'착륙을_'
'착륙_'
'차인'
'차이점'
'차이_'
'차의_'
'차원_'
'차원'
'차에'
'차분'
'차버'
'차려입고_'
'차려입'
'차려'
'차량이_'
'차량을_'
'차라'
'차관'
'차갑'
'찢어진'
'찔렸어'
'찐'
'찍을'
'찍으면_'
'찌질이'
'찌질'
'쫓을'
'쫓아오'
'쪽에'
'쪽바리'
'쩡'
'쩔어_'
'째에'
'째야_'
'째로_'
'짱이죠_'
'짱이'
'짱'
'짠_'
'짝이'
'짜르'
'짜니'
'짜_'
'짚고'
'징징'
'징_'
'짓인지_'
'짓이라'
'짓고'
'짓거리'
'집행'
'집착'
'집중할_'
'집중을_'
'집중'
'집인'
'집이야_'
'집의_'
'집에서는_'
'집어넣어'
'집어넣'
'집안일'
'집들'
'집도'
'집단이'
'집결'
'집게'
'짐이_'
'짐이'
'짐승이야_'
'짐승이'
'짐승_'
'질환'
'질투심'
'질투_'
'질이_'
'질서를_'
'질병을_'
'질려_'
'질렀'
'질러_'
'질게_'
'질거에요_'
'질거야_'
'진흙탕'
'진흙_'
'진행했'
'진행되고_'
'진행_'
'진한_'
'진통제_'
'진통'
'진탕'
'진찰'
'진짜인_'
'진짜요_'
'진짜에요_'
'진정시'
'진정부터_'
'진전이_'
'진작에_'
'진실만'
'진실되'
'진실과_'
'진실_'
'진술을_'
'진보'
'진다면_'
'진다는'
'진것'
'직전이었'
'직전이'
'직을_'
'직원이_'
'직업은_'
'직선'
'직무를_'
'지휘하는_'
'지혜의_'
'지혈'
'지하실'
'지하_'
'지팡이를_'
'지키기_'
'지키고_'
'지켰'
'지켜요_'
'지켜보고'
'지치'
'지쳤어_'
'지쳐'
'지질학'
'지진_'
'지지해'
'지점_'
'지저분'
'지을거'
'지원할_'
'지원자'
'지워지'
'지워졌'
'지워_'
'지우'
'지옥이_'
'지옥이'
'지옥_'
'지연'
'지역의_'
'지역을_'
'지않아_'
'지아'
'지신'
'지시했다_'
'지속적'
'지속'
'지상에'
'지상'
'지불했다'
'지불할'
'지분'
'지방_'
'지미'
'지문이_'
'지명'
'지만요_'
'지루해'
'지루'
'지뢰'
'지로_'
'지로'
'지랄_'
'지라'
'지독한_'
'지더'
'지네'
'지냈니_'
'지낸다'
'지내자'
'지내야'
'지내면'
'지내냐'
'지났어_'
'지난해_'
'지난주에_'
'지난주'
'지나쳤'
'지나서_'
'지나갑니다_'
'지껄이는_'
'지껄이'
'지급'
'지금처럼_'
'지금쯤'
'지금이에요_'
'지금이나_'
'지금이'
'지금까지'
'지구에'
'지구상에'
'지구를_'
'지겨워'
'증조'
'증인이_'
'증언을_'
'증언에'
'증서'
'증명_'
'증기'
'증권'
'증가하'
'즘'
'즐길_'
'즐기고_'
'즐겨'
'즉각_'
'쥐어'
'쥐가_'
'줘야해_'
'줘야지_'
'줘야겠'
'중인'
'중이잖아_'
'중이라서'
'중이고_'
'중위_'
'중요합니'
'중요하다'
'중요'
'중에는_'
'중에'
'중얼거리'
'중앙_'
'중심이'
'중심에_'
'중반'
'중독이'
'중독_'
'중독'
'중국에'
'중간_'
'중간'
'줄지'
'줄일'
'줄여_'
'줄어'
'줄리아'
'줄로'
'줄께'
'줄까요_'
'줄거에요_'
'준비해야_'
'준비해'
'준비할'
'준비하지_'
'준비시켜'
'준비되어_'
'준비되'
'준비됐습니다_'
'준비됐니_'
'준대_'
'준거야_'
'죽일려고_'
'죽일거에요_'
'죽일거야_'
'죽인다고_'
'죽인다'
'죽음이_'
'죽음은_'
'죽음도_'
'죽을지'
'죽을만'
'죽을거'
'죽였잖아_'
'죽였습니다_'
'죽였던_'
'죽였다'
'죽였는'
'죽여주'
'죽여야만_'
'죽여버릴_'
'죽여버리'
'죽여버'
'죽여라_'
'죽었잖아'
'죽었습니다_'
'죽어야_'
'죽어서_'
'죽든'
'죽기전'
'죽겠어_'
'죽게'
'죽거나_'
'죽_'
'주파수를_'
'주책아_'
'주차장에'
'주주'
'주제를_'
'주제가_'
'주정뱅이'
'주전'
'주잖아_'
'주자_'
'주자'
'주일'
'주인이'
'주인들'
'주인님이'
'주인공이'
'주인_'
'주의적'
'주연'
'주었습니'
'주어'
'주십'
'주식회사'
'주식을_'
'주소가_'
'주셨으면_'
'주변'
'주방'
'주문이'
'주문서'
'주무실'
'주무시'
'주무셨'
'주무세요_'
'주목해'
'주머니에'
'주머니를_'
'주름'
'주를_'
'주로'
'주렴_'
'주려는'
'주러_'
'주라고_'
'주디_'
'주디'
'주든_'
'주둥'
'주된_'
'주다'
'주님이_'
'주님_'
'주니어_'
'주니까_'
'주까지'
'주고받'
'죄책감을_'
'죄의'
'죄송합니다만_'
'죄송한데_'
'죄값'
'죄가_'
'죄_'
'좌우'
'좌석에_'
'좋지'
'좋을걸'
'좋은거_'
'좋았을텐데_'
'좋았던_'
'좋았다'
'좋았겠지'
'좋아했잖아_'
'좋아했었'
'좋아했다'
'좋아한대'
'좋아한다'
'좋아하진_'
'좋아하셨'
'좋아하세요_'
'좋아하기'
'좋아하겠'
'좋다면_'
'좋구'
'좋겠지만_'
'좋겠군'
'좋게도_'
'종착역'
'종족_'
'종양이'
'종말이_'
'종료'
'좀비들'
'좀만'
'졸업했다'
'졸업식'
'졸라를_'
'존중하'
'존재하지'
'존재하'
'존슨'
'존과_'
'존경하는_'
'존경을_'
'족이'
'족의_'
'족은_'
'조합'
'조촐하'
'조직에'
'조지에'
'조종할'
'조종하'
'조조'
'조절기'
'조잡'
'조의_'
'조약_'
'조앤이'
'조앤_'
'조안'
'조심히_'
'조심하세요_'
'조심스'
'조셉_'
'조선'
'조사했는데_'
'조사할_'
'조사하고'
'조만'
'조르'
'조디'
'조던'
'조난'
'조깅'
'조기_'
'조금요_'
'조그마한_'
'조국을_'
'조건이_'
'조건_'
'졌죠_'
'졌을_'
'졌으니_'
'졌다고'
'졌거든'
'져야만'
'젤로_'
'젤라'
'젤다_'
'제프_'
'제출하'
'제출'
'제조업자'
'제임스호'
'제인은_'
'제이콥_'
'제이슨_'
'제이드'
'제이는_'
'제의'
'제외하'
'제왕_'
'제어하'
'제약'
'제안하는_'
'제안이'
'제스'
'제법_'
'제발'
'제목'
'제멋대로'
'제리'
'제로'
'제레미_'
'제단'
'제다이'
'제는_'
'제네바_'
'제나_'
'제기'
'제공할_'
'제거할_'
'제가'
'정황'
'정확하지_'
'정확'
'정형외과'
'정해야'
'정할_'
'정한'
'정하는'
'정치적'
'정체성'
'정체는_'
'정책에_'
'정직하게_'
'정중하게_'
'정중'
'정장_'
'정자'
'정이'
'정의를_'
'정원에서_'
'정원에_'
'정원'
'정신적으로_'
'정신없이_'
'정신없'
'정신병자'
'정신과_'
'정식으로_'
'정식_'
'정식'
'정상회담'
'정상적이'
'정상적'
'정상이_'
'정부의_'
'정부와'
'정부에서'
'정복'
'정보원이_'
'정보원'
'정보부'
'정반'
'정면으로_'
'정말이요_'
'정말'
'정리해야'
'정리하고_'
'정돈_'
'정도였'
'정도가_'
'정답'
'정기'
'정교한_'
'정교'
'정관'
'정거장에_'
'접속_'
'접근했'
'접근하는_'
'점잖'
'점원'
'점심을_'
'점심시간'
'점수_'
'점들'
'젊은이들'
'젊었'
'젊어'
'절한'
'절약'
'절박'
'전화해야겠'
'전화할_'
'전화하는'
'전화로'
'전화는_'
'전했'
'전해주세요_'
'전해드리'
'전합니다_'
'전학'
'전하께'
'전하게_'
'전투에_'
'전체에_'
'전체에'
'전체가_'
'전체'
'전처'
'전직'
'전장'
'전염되지_'
'전염되'
'전속력으로'
'전선을_'
'전사가_'
'전부예요_'
'전부였'
'전보를_'
'전방에_'
'전방'
'전문가가_'
'전멸'
'전례'
'전략이'
'전략을_'
'전도_'
'전단'
'전날_'
'전까지는_'
'전과가_'
'전공'
'적혈구'
'적혀'
'적합하'
'적절하'
'적인데'
'적인'
'적이죠_'
'적이잖아_'
'적이었'
'적에'
'적수'
'적색'
'적들'
'적극적'
'적게_'
'저희한테'
'저희에게'
'저희도'
'저항'
'저한텐_'
'저한테'
'저택'
'저지르'
'저주받'
'저승'
'저스'
'저번'
'저버'
'저만_'
'저만'
'저러다_'
'저라'
'저들을_'
'저놈은_'
'저놈_'
'저녁에'
'저녁부터'
'저기로'
'저곳'
'저것_'
'쟤도_'
'쟈니_'
'쟈'
'쟁이'
'쟁반'
'잽_'
'잭을_'
'잭슨'
'재즈'
'재주'
'재앙'
'재산을_'
'재빨리_'
'재밌어'
'재밌다'
'재미있어_'
'재미있어'
'재미있는_'
'재미나'
'재무부'
'재를_'
'재로_'
'재개'
'장치는_'
'장치가_'
'장치_'
'장착'
'장점이'
'장전_'
'장인'
'장으로_'
'장악하'
'장비를_'
'장비가_'
'장부는_'
'장벽'
'장면을_'
'장면'
'장례식에'
'장들'
'장난하'
'장난치'
'장기간'
'장기_'
'장관이'
'장관_'
'장갑이_'
'잤어_'
'잤다'
'잣'
'잡힐_'
'잡히면_'
'잡혔어'
'잡지들'
'잡으려는_'
'잡으려고_'
'잡으러_'
'잡으라고_'
'잡아먹'
'잡아당'
'잡아가'
'잠잠'
'잠이나_'
'잠옷'
'잠에서_'
'잠에_'
'잠수함이_'
'잠수하'
'잠들었어_'
'잠도_'
'잠깐이'
'잠겨'
'잘했네_'
'잘해주'
'잘해야_'
'잘해봐_'
'잘한_'
'잘하면_'
'잘하네_'
'잘지'
'잘생겼'
'잘못했어'
'잘못한_'
'잘리'
'잘려'
'잘랐'
'잘라내'
'잘들'
'잘된'
'잘됐어_'
'잘됐다_'
'잘됐군'
'잘됐'
'잘났'
'잖습니까_'
'잖'
'잔혹한_'
'잔인한_'
'잔인하'
'잔을_'
'작품_'
'작자'
'작이'
'작을_'
'작아_'
'작살을_'
'작별인사_'
'작동이'
'작동_'
'작년'
'작곡가'
'작거'
'자회사'
'자하_'
'자켓'
'자책하'
'자지도_'
'자지_'
'자지'
'자존심_'
'자전거를_'
'자자_'
'자입니다_'
'자인'
'자위'
'자아'
'자신들의_'
'자신들을_'
'자스'
'자수하'
'자세를_'
'자서'
'자살_'
'자산을_'
'자부심'
'자문'
'자매가_'
'자만'
'자막_'
'자마'
'자르고_'
'자료에'
'자려고_'
'자러_'
'자랑스럽구나'
'자랑스러'
'자라지_'
'자라서_'
'자라게_'
'자들이_'
'자들_'
'자동차는_'
'자동차가_'
'자동'
'자던_'
'자넷'
'자기의_'
'자기에게_'
'자기만'
'자기도_'
'자기는_'
'자금_'
'자국이'
'잊혀지'
'잊지마'
'잊지'
'잊은_'
'잊었어'
'잊었'
'잊어버린'
'잊어버려'
'잊어'
'잉크'
'잉글'
'있진_'
'있지요_'
'있지도_'
'있을만'
'있을래_'
'있을걸'
'있을거라고'
'있으신가'
'있으면서_'
'있었어'
'있었소_'
'있었단_'
'있었다니_'
'있었다고'
'있었는'
'있었기_'
'있었군요_'
'있었겠죠_'
'있었겠'
'있어줘_'
'있어봐'
'있어라_'
'있든지_'
'있던데'
'있더라고'
'있더군_'
'있단'
'있다면'
'있다니까'
'있는지를_'
'있는것'
'있는건'
'있는거지_'
'있냐'
'있나봐_'
'있겠습니'
'있겠군_'
'입혔'
'입찰'
'입지_'
'입장에서_'
'입에_'
'입에'
'입었다_'
'입수'
'입는다'
'입구'
'임하'
'임이'
'임신했'
'임신한_'
'임신중'
'임신을_'
'임상실험'
'임무가_'
'임대'
'임금'
'잃었었'
'잃었어_'
'잃었다'
'잃어버'
'잃는다'
'읽었을_'
'읽어봤어요_'
'읽어보'
'읽기'
'일환'
'일행'
'일했죠_'
'일했던_'
'일해_'
'일해'
'일항'
'일한다'
'일하시'
'일텐데_'
'일치_'
'일주'
'일정이_'
'일정을_'
'일자리'
'일입니다_'
'일인가_'
'일이지만_'
'일이었어요_'
'일이었어_'
'일이랑_'
'일이라는'
'일이니_'
'일이네요_'
'일이나_'
'일은'
'일으킬_'
'일으켰'
'일어서'
'일어났어요_'
'일어났던'
'일어났다'
'일어날지'
'일어나야_'
'일어나면_'
'일어나는지_'
'일어나는'
'일어_'
'일시'
'일수도_'
'일생을_'
'일생에'
'일뿐이'
'일본이'
'일반적으로_'
'일명_'
'일리가_'
'일류_'
'일때_'
'일들은_'
'일당'
'일까'
'일기'
'인형이_'
'인한_'
'인턴들은_'
'인턴들'
'인턴'
'인터넷이'
'인터넷에_'
'인치_'
'인질들을_'
'인정할'
'인정받'
'인장'
'인원_'
'인연'
'인에'
'인생'
'인상적이'
'인상이'
'인상을_'
'인사해'
'인사하는'
'인사하고'
'인사드'
'인사나'
'인물이'
'인물들'
'인류는_'
'인들을_'
'인들에게_'
'인도에_'
'인도네시아_'
'인도_'
'인다'
'인구'
'인과_'
'인걸요_'
'인건_'
'인건'
'인거_'
'인간이라'
'인간을_'
'인간에게_'
'인간들이'
'익스'
'익숙해지'
'익사'
'이혼했'
'이혼하'
'이해해주'
'이해해'
'이해한'
'이해하고_'
'이틀전'
'이태리_'
'이탈했'
'이크'
'이치'
'이쪽입니다_'
'이쪽이야_'
'이쪽'
'이집트에'
'이집'
'이중'
'이정도'
'이전_'
'이유지'
'이유였'
'이유야_'
'이용했어'
'이용해서_'
'이용하는_'
'이와_'
'이였죠_'
'이였'
'이었다고'
'이었군'
'이야길_'
'이야기하지_'
'이야기야_'
'이야기도_'
'이야'
'이식을_'
'이슬람'
'이스트'
'이스라엘_'
'이션'
'이성적'
'이새끼들'
'이상하지'
'이상하네'
'이상하군_'
'이상하게도_'
'이상이_'
'이사벨'
'이쁜_'
'이비자'
'이브_'
'이분이'
'이보다_'
'이반_'
'이미지에'
'이미지를_'
'이미지'
'이모티콘'
'이모는_'
'이모가_'
'이면서_'
'이며_'
'이메일_'
'이리오렴_'
'이름에_'
'이룬'
'이루었'
'이루'
'이론의_'
'이론은_'
'이력'
'이렇'
'이럴수가_'
'이런짓을_'
'이런일이_'
'이런식'
'이러지마'
'이러면_'
'이러니_'
'이러는거'
'이러는'
'이랬지_'
'이라니_'
'이라구'
'이들이_'
'이들을_'
'이들과_'
'이드_'
'이동할'
'이동하자'
'이던'
'이단'
'이니'
'이년아_'
'이내'
'이끌었'
'이끌어'
'이끌고_'
'이기면_'
'이기려'
'이교도'
'이곳_'
'이고요_'
'이겼어요_'
'이겨낼_'
'이겠지_'
'이것의_'
'이것봐'
'이것만_'
'이걸'
'이건'
'이거였어_'
'이거면_'
'이거든_'
'의회가_'
'의회_'
'의해서_'
'의한_'
'의학적'
'의지가_'
'의제'
'의장'
'의자에'
'의자를_'
'의자_'
'의자'
'의원_'
'의약품'
'의심_'
'의사잖아'
'의사선생'
'의사로'
'의사라고'
'의사라'
'의사는_'
'의미인지_'
'의미로'
'의무는_'
'의리'
'의를_'
'의념_'
'의기소침'
'응급실은_'
'응급실에_'
'응급실_'
'응급'
'읍'
'음에도'
'음악이_'
'음악이'
'음식이'
'음모가_'
'읊'
'을했다_'
'을하'
'을지도_'
'을수'
'을려고_'
'을게'
'을걸_'
'을거에요_'
'을거라'
'을거'
'은행에서'
'은퇴할'
'은지_'
'은색'
'은건'
'은거야_'
'으흠_'
'으으'
'으아아'
'으실_'
'으신_'
'으신'
'으셨다'
'으세요_'
'으면서_'
'으로도_'
'으러_'
'으니깐_'
'으_'
'율을_'
'윤'
'육포'
'육신'
'육감'
'유행하는_'
'유튜브'
'유쾌하'
'유쾌'
'유죄_'
'유정'
'유전자'
'유일하게_'
'유인원'
'유엔'
'유세'
'유사'
'유물'
'유명인사'
'유머_'
'유리한'
'유리를_'
'유령이'
'유령들'
'유럽'
'유도'
'유대'
'유다_'
'유니폼_'
'유능'
'유기농'
'유감입니다_'
'유감스럽지만_'
'유감스럽게도_'
'유감'
'윌을_'
'윌슨'
'윌리'
'윌레'
'윅_'
'위협이_'
'위협이'
'위험합니다_'
'위해서요_'
'위해서라면_'
'위치한_'
'위치로_'
'위치가_'
'위층에'
'위쪽에_'
'위쪽_'
'위원'
'위스키_'
'위스'
'위성'
'위버'
'위로해'
'위로'
'위급'
'웬일이'
'웨이터'
'웨이버리'
'웨스'
'웠어요_'
'웠다_'
'웠는'
'월트'
'월리'
'월러스'
'월남_'
'원형'
'원했다'
'원할'
'원한'
'원하시'
'원하셨'
'원하세요_'
'원하는지_'
'원하는건_'
'원하는거'
'원인이'
'원의_'
'원에서_'
'원시'
'원숭이'
'원래부터_'
'원래대로_'
'원래는_'
'원들'
'원격'
'워하'
'워킹'
'워키'
'워커가'
'워치'
'워스'
'워서_'
'워드_'
'웃지_'
'웃긴_'
'웃겨_'
'웁'
'움직임이'
'움직임을_'
'움직인다_'
'움직여야_'
'울프_'
'울지'
'울음소리'
'울린'
'울게_'
'운행'
'운전해'
'운전사'
'운전기사'
'운영해'
'운영하는'
'운영하'
'운데_'
'운데'
'우회'
'우현'
'우편으로_'
'우편물이_'
'우주에_'
'우주선에_'
'우울해'
'우울'
'우연의_'
'우에'
'우세요_'
'우상'
'우병'
'우물'
'우리한텐_'
'우리측은_'
'우리쪽_'
'우리만'
'우리들이_'
'우리는'
'우리끼리_'
'우리끼'
'우라'
'우디'
'우드'
'우두머리'
'우다'
'우니'
'우그'
'우고_'
'용하'
'용어'
'용병'
'욘'
'욕하'
'욕조_'
'욕조'
'욕이'
'욕망이_'
'욕구를_'
'요한_'
'요하'
'요청했'
'요청해'
'요청한'
'요청'
'요즘은_'
'요즘엔_'
'요정'
'요점'
'요일'
'요원을_'
'요원들을_'
'요원님_'
'요양원에_'
'요새'
'요법'
'요리하는'
'요리하'
'요리도'
'요령'
'요구한다_'
'요구를_'
'왼손'
'왼'
'외투를_'
'외투'
'외웠'
'외부_'
'외무'
'외면'
'외로_'
'외람되지만_'
'외곽에_'
'외곽'
'외과의사_'
'외계인을_'
'왜이래_'
'왜그래'
'왕자님_'
'왕자님'
'왕의_'
'왕을_'
'왕국의_'
'왕과_'
'왔잖아_'
'왔잖'
'왔으니_'
'왔으'
'왔다는_'
'왔다고요_'
'왔나_'
'왔구나_'
'왔거든요_'
'완전히'
'완전한'
'완성되'
'완성됐'
'완벽히_'
'완벽했'
'왁'
'와있'
'와일드'
'와일'
'와인'
'와이파이_'
'와와'
'와선_'
'와본'
'와라_'
'옹'
'옷도_'
'옷과_'
'옳았어_'
'옳아요_'
'옳다는_'
'옮기는'
'옮'
'올해의_'
'올해는_'
'올바르'
'올림픽을_'
'올렸어'
'올래'
'올라오는_'
'올라가자'
'올라가야'
'올께'
'올거라'
'온통_'
'온것'
'옥희_'
'옥스'
'옥순'
'오해하'
'오피'
'오토봇'
'오토바이'
'오진'
'오즈'
'오자_'
'오웬스가_'
'오실'
'오신다'
'오신'
'오시죠_'
'오스왈드'
'오스본'
'오스_'
'오셨죠_'
'오셨나요_'
'오셨군요_'
'오사카'
'오면서_'
'오며_'
'오말루'
'오만한_'
'오만_'
'오마_'
'오마'
'오리지널_'
'오르면_'
'오르는'
'오르가즘'
'오려고_'
'오렌지_'
'오래되'
'오락'
'오드'
'오늘의_'
'오늘밤은_'
'오늘밤에_'
'오늘만_'
'오늘도_'
'오네'
'오나_'
'오고있'
'오거'
'옙_'
'옐'
'옌'
'예측_'
'예지'
'예정입니다_'
'예정이'
'예정된_'
'예전에'
'예이_'
'예언자'
'예약했'
'예술_'
'예상하'
'예상_'
'예쁜'
'예쁘다_'
'예쁘네요_'
'예쁘네_'
'예배'
'예를들'
'예감'
'옆집_'
'영화보'
'영혼이_'
'영혼의_'
'영향력을_'
'영향력'
'영향'
'영장이_'
'영원하'
'영원'
'영웅이라'
'영어를_'
'영수'
'영상이'
'영상_'
'영군'
'영광을_'
'영광'
'였지만_'
'였을_'
'였을'
'였으니까'
'였으니'
'였으나_'
'였는'
'였네_'
'였구'
'엿이나_'
'엿먹'
'엿같은'
'엿_'
'염화'
'염탐'
'염을_'
'염불'
'염병'
'염_'
'열하'
'열정이_'
'열을_'
'열었'
'열어야'
'열린_'
'열리는'
'열렸다_'
'열렬'
'열려'
'열대'
'열기_'
'열광'
'열게'
'열거'
'연회'
'연줄이_'
'연이_'
'연안에서_'
'연습하'
'연속_'
'연설을_'
'연방_'
'연락했어'
'연락한'
'연락하지_'
'연락도_'
'연금'
'연극_'
'연구하'
'연구소'
'연구는_'
'연관된_'
'연관됐'
'연골'
'연결해'
'연결될'
'연결된'
'연결되'
'연결됐'
'역할이'
'역에'
'역습'
'역겨워_'
'역겨운'
'여행이'
'여행은_'
'여편네'
'여태까지_'
'여태_'
'여자친구는_'
'여자요_'
'여자애를_'
'여자애들은_'
'여자애들'
'여자아이'
'여자로'
'여자라'
'여인의_'
'여우'
'여왕이_'
'여왕은_'
'여야만_'
'여성이'
'여성을_'
'여사님_'
'여부'
'여배우'
'여름에_'
'여론조사'
'여론'
'여러분은_'
'여러분에게_'
'여러분'
'여동생_'
'여기있어'
'여관'
'엠파이어를_'
'엠파이어가_'
'엠벌리'
'엠마_'
'엘비스'
'엘리스_'
'엘리베이터에서_'
'엘렌_'
'엘나_'
'엔진'
'엔이'
'엑스트라'
'엑소시즘'
'엑'
'에이프'
'에이브리_'
'에이미가_'
'에이_'
'에야_'
'에스코트'
'에스더_'
'에블린_'
'에반스_'
'에바_'
'에마'
'에린'
'에리카_'
'에리카'
'에로'
'에드워드가_'
'에드_'
'에다씨_'
'에녹_'
'에너지원'
'에게도_'
'에게'
'엉망진창이'
'었으면_'
'었었어_'
'었소_'
'었단다_'
'었다니'
'었네_'
'었나봐_'
'었군_'
'었구'
'었고'
'었거든'
'없이도_'
'없이'
'없음_'
'없을지'
'없을꺼야_'
'없을까요_'
'없을겁니다_'
'없을거라고_'
'없으셨'
'없으세요_'
'없었지만_'
'없었잖아요_'
'없었잖아_'
'없었을'
'없었으'
'없었나요_'
'없었나_'
'없었나'
'없었거든_'
'없어질'
'없어져'
'없어보'
'없어도_'
'없앨_'
'없애버'
'없애려'
'없습니까_'
'없도록_'
'없던'
'없다는'
'없는건'
'없길_'
'없기_'
'없고'
'없겠지만_'
'없겠어요_'
'없겠는'
'없겠군_'
'없거든요_'
'업소_'
'업데이트'
'업계에'
'엄연'
'엄마들'
'엄격하'
'얼어_'
'얼마입니까_'
'얼마동안'
'얼대'
'얻은_'
'얻으려'
'얻으'
'얻는_'
'언트_'
'언제쯤_'
'언제죠_'
'언제라'
'언제까지나_'
'언제가_'
'언니의_'
'억제'
'억만장자'
'어치'
'어찌하'
'어쩌지_'
'어쩌라고_'
'어쩌구'
'어째'
'어주'
'어젯밤엔_'
'어젯밤'
'어이구_'
'어음'
'어울린다고_'
'어울려요_'
'어용_'
'어에'
'어어어'
'어스'
'어서와_'
'어색하'
'어보'
'어버'
'어미는_'
'어미'
'어무이'
'어머님_'
'어머님'
'어머닌'
'어머니날'
'어머니께서_'
'어머니께_'
'어마어마'
'어림도_'
'어림'
'어리석'
'어른이_'
'어렵다_'
'어렵고_'
'어렵게_'
'어려워요_'
'어려워'
'어려울'
'어려우'
'어떻습니까_'
'어떨'
'어떤데'
'어떤거'
'어떤가_'
'어떡하지_'
'어떡'
'어떠신'
'어떠냐_'
'어땠을'
'어딨는지_'
'어딨는데_'
'어딨는_'
'어딨는'
'어딨나_'
'어딧'
'어딜'
'어딘데'
'어딘가'
'어디있나_'
'어디에도_'
'어디에'
'어디서'
'어디로요_'
'어디갔'
'어두워지기_'
'어두'
'어니'
'어가'
'얘깃'
'얘기했어_'
'얘기했다'
'얘기할게'
'얘기하는거야_'
'얘기지_'
'얘기좀'
'얘기에'
'양하'
'양키'
'양쪽_'
'양육권을_'
'양에'
'양복'
'양반은_'
'양말_'
'양과_'
'얌전히_'
'약혼자'
'약해지'
'약해졌'
'약하고_'
'약점을_'
'약점'
'약속했어_'
'약속했다'
'약속했거든요_'
'약속해줘_'
'약속해'
'약속은_'
'약속'
'약도'
'약간은'
'야할_'
'야한다'
'야한_'
'야하는'
'야영'
'야만인'
'야만'
'야드_'
'야겠어요_'
'야겠네_'
'앵'
'앱'
'앰뷸런스가_'
'앰'
'앨리슨한테'
'앨리'
'앤젤레스'
'앤서니'
'앤디_'
'앤디'
'액수'
'애한테'
'애초에_'
'애인은_'
'애이'
'애엄'
'애써_'
'애쉬_'
'애비가_'
'애비'
'애만'
'애라고_'
'애디슨_'
'애들한테_'
'애기하'
'애기_'
'앞쪽'
'앞으론_'
'앞면'
'앞날'
'았나'
'았고_'
'앗아'
'압수했'
'압박하고_'
'암호를_'
'암컷'
'암석'
'알프레'
'알튼'
'알케미'
'알츠하이머_'
'알잖니_'
'알잖'
'알았지만_'
'알았잖'
'알았었'
'알았습니다_'
'알았다면_'
'알았다고요_'
'알았네_'
'알아차리지_'
'알아야겠어'
'알아볼게'
'알아보지_'
'알아들었어_'
'알아들었'
'알아들어_'
'알아듣겠'
'알아듣'
'알아냈어_'
'알아낸'
'알아내고_'
'알수_'
'알바_'
'알몸'
'알면'
'알리지_'
'알리샤'
'알리고_'
'알루'
'알려지지_'
'알려줬어요_'
'알려줘'
'알려줄'
'알려주지_'
'알려주시'
'알려주고_'
'알려주겠다_'
'알려야_'
'알렌_'
'알렉스야_'
'알렉산더_'
'알렉'
'알레르기'
'알러지가_'
'알던_'
'알기나_'
'알기'
'알곤_'
'알고있었'
'알고보니_'
'알겠소_'
'알겠다고'
'알겠는'
'알겠네요_'
'알게될거야_'
'알게되'
'알거'
'않을래요_'
'않을꺼라'
'않을걸_'
'않을거예요_'
'않을거라_'
'않은가_'
'않으셨'
'않으면'
'않으리'
'않으려고_'
'않았음'
'않았으면_'
'않았으니'
'않았다구'
'않았네_'
'않았군'
'않았겠'
'않더군'
'않다는'
'않는다고_'
'않는군_'
'않는게_'
'않는거'
'않냐'
'않겠지만_'
'않겠지_'
'않겠어요_'
'않겠어_'
'않겠소'
'않겠다'
'앉지_'
'앉으시죠_'
'앉아있어_'
'앉아봐'
'앉아도_'
'안협집'
'안했다'
'안해도_'
'안할게'
'안할거야_'
'안할거'
'안하셨'
'안하면'
'안톤'
'안치소'
'안중에'
'안죽였어'
'안좋은'
'안좋아_'
'안좋아'
'안정됐어'
'안전할'
'안전지'
'안전벨트'
'안전가옥'
'안자'
'안에서'
'안에는_'
'안았'
'안심이'
'안부'
'안믿'
'안들려_'
'안될까_'
'안될거'
'안된다는_'
'안되죠_'
'안되는데_'
'안되는'
'안되겠어요_'
'안되겠'
'안됐어요_'
'안됐군_'
'안돼지_'
'안도'
'안달'
'안녕하신가'
'안녕하시오_'
'안내해_'
'안내하'
'안났어요_'
'안경이_'
'안건'
'악화시'
'악화되'
'악하'
'악취'
'악인'
'악마처럼_'
'악마의_'
'악마_'
'악기'
'아홉'
'아하'
'아픔'
'아픈거'
'아프리카에'
'아프리카_'
'아파하'
'아캄에'
'아칸'
'아침이에요_'
'아침으로_'
'아침에는_'
'아직까지_'
'아직까'
'아줌마가_'
'아줌마_'
'아줌마'
'아주'
'아저씨는_'
'아인슈타인이_'
'아인'
'아이스티'
'아이스크림이'
'아이만'
'아이리스'
'아이들에게_'
'아이들에'
'아우'
'아오'
'아예샤'
'아야'
'아아'
'아신'
'아시는'
'아스트라'
'아스'
'아쉬운'
'아셨죠_'
'아셔야_'
'아사'
'아빠와'
'아빠같'
'아버지처럼_'
'아바'
'아무하고도_'
'아무일도_'
'아무렴_'
'아무렇지_'
'아무데나_'
'아무나_'
'아무거'
'아멜리아_'
'아메리'
'아마라'
'아리_'
'아름답다'
'아름답네'
'아름다워요_'
'아름다움'
'아름다우신'
'아르'
'아랫'
'아래의_'
'아따_'
'아들들_'
'아들놈'
'아도_'
'아더'
'아담스'
'아닐텐데'
'아닐걸'
'아닐거야_'
'아닌지'
'아닌걸'
'아니잖'
'아니였어_'
'아니었나_'
'아니란_'
'아니라니까_'
'아니라구'
'아니더'
'아니니'
'아니냐'
'아니길_'
'아니기'
'아니구요_'
'아니구나_'
'아니겠죠_'
'아누'
'아네_'
'아내한테'
'아내의_'
'아내로_'
'아내도_'
'아나톨리'
'아끼는_'
'아기의_'
'아기에'
'아기야_'
'아그네스'
'아군'
'아가씨한테_'
'아가씨들'
'아가씨가_'
'아가리_'
'씹어'
'씹는'
'씨한테'
'씨에'
'씨께'
'씁'
'씀'
'쓸모없'
'쓸모가_'
'쓸모'
'쓸데'
'쓴다고'
'쓴다_'
'쓰죠_'
'쓰이'
'쓰여있'
'쓰신'
'쓰시'
'쓰셨'
'쓰면_'
'쓰레기를_'
'쓰러졌'
'쓰러져_'
'쓰라'
'쓰나'
'쓰게_'
'쑥'
'쐬고_'
'쐈다'
'쏠'
'쏙_'
'쏘면_'
'쏘라'
'쏘기'
'쏘고_'
'썼죠_'
'썼으면_'
'썼어'
'썼던_'
'썼는'
'썩을'
'썩은_'
'썩어'
'써주'
'써있는_'
'써야'
'써서_'
'써먹'
'썅_'
'쌤은'
'쌤'
'쌔'
'쌓인'
'쌍방'
'쌍둥이_'
'싼_'
'싸워왔'
'싸워야'
'싸움에_'
'싸움꾼이'
'싸울거'
'싸운다'
'싸우자_'
'싸우면'
'싸우라'
'싸야'
'싸매'
'싸구려_'
'싶은데_'
'싶은가_'
'싶으시'
'싶었다_'
'싶었고_'
'싶어한'
'싶소_'
'싶다는_'
'싶니_'
'싱글이'
'십자'
'십을_'
'십쇼_'
'심히_'
'심해지'
'심해_'
'심할'
'심한'
'심폐'
'심장은_'
'심장마비'
'심이란_'
'심이_'
'심은_'
'심심'
'심사'
'심각했'
'심각해_'
'심각하다고'
'싫었어_'
'싫어해'
'싫어할_'
'싫어서_'
'싫어'
'싫거든_'
'실험해'
'실험실에_'
'실험실'
'실험_'
'실패한_'
'실크'
'실전'
'실이_'
'실에서_'
'실수했'
'실수하'
'실수로_'
'실수는_'
'실수_'
'실베'
'실망하'
'실망시키지_'
'실망시켰'
'실린_'
'실력'
'실때'
'실내'
'실까'
'싣'
'신호등이_'
'신형'
'신중하'
'신장_'
'신장'
'신이다_'
'신원을_'
'신용장을_'
'신에게_'
'신속하게_'
'신속하'
'신성'
'신분증_'
'신부가_'
'신발은_'
'신문을_'
'신문은_'
'신문_'
'신뢰할_'
'신들이_'
'신두'
'신데요_'
'신다'
'신념이'
'신념을_'
'신나는'
'신께_'
'신께'
'신고하면_'
'신고하'
'신고서'
'신고가_'
'신경이나_'
'신경외과'
'신경안써_'
'신경쓰이'
'신경과'
'신거에요_'
'신거'
'신같'
'신가_'
'식해'
'식하'
'식적'
'식이_'
'식염'
'식에_'
'식사해'
'식도'
'시험에서_'
'시해'
'시키자_'
'시키기'
'시켰을'
'시켰다고_'
'시켜주'
'시켜요_'
'시켜야_'
'시켜야'
'시카고_'
'시체에'
'시체_'
'시청자'
'시종'
'시작했을_'
'시작했어요_'
'시작했습니다_'
'시작했고_'
'시작해볼까'
'시작합니다_'
'시작할까요_'
'시작할까_'
'시작한다_'
'시작하자_'
'시작하자'
'시작하는'
'시작하게_'
'시작을_'
'시작됩니다_'
'시작될_'
'시작된'
'시작되었'
'시작되면_'
'시작됐어_'
'시일'
'시인_'
'시원하'
'시여_'
'시야에서_'
'시야'
'시애틀에'
'시애틀'
'시스템이_'
'시설에'
'시선을_'
'시보'
'시민들'
'시민_'
'시모'
'시를_'
'시력을_'
'시력'
'시려고'
'시라고요_'
'시들어'
'시드니에'
'시드_'
'시동이_'
'시동을_'
'시도했어'
'시도했'
'시대에_'
'시대가_'
'시대_'
'시대'
'시달리'
'시다'
'시니_'
'시는군요_'
'시나요_'
'시나리오_'
'시끄러워'
'시끄러_'
'시군_'
'시골에'
'시골길'
'시골'
'시고니_'
'시계와_'
'시계가_'
'시계_'
'시게_'
'시간인데_'
'시간이라'
'시간여행'
'시간에'
'시간만'
'시간동안_'
'시간도_'
'시간낭비_'
'승조원들'
'승상_'
'승상'
'승리를_'
'승객_'
'승강'
'슴'
'슬픔으로_'
'슬프고_'
'슬퍼하고_'
'슬쩍'
'슬리'
'슬러'
'슬라'
'슨은_'
'스피드'
'스프레이'
'스포'
'스페인어_'
'스페'
'스팟_'
'스팍_'
'스파이더맨_'
'스파이더'
'스파게티'
'스티븐스는_'
'스트리트'
'스트레인지_'
'스트레스가_'
'스트레스'
'스톤'
'스텔라_'
'스텐'
'스터가_'
'스타크_'
'스타일이_'
'스타인'
'스콜피온'
'스코티'
'스케이'
'스캔_'
'스카웃'
'스입니다_'
'스위프트스트림'
'스씨'
'스승님'
'스미'
'스무'
'스머프'
'스럽지_'
'스럽다'
'스노'
'스나'
'슈퍼맨'
'슈트루엔제_'
'슈레더'
'쉽_'
'쉴_'
'쉴'
'쉬워질'
'쉬었다_'
'쉬면_'
'쉬게_'
'쉘'
'쉐퍼드랑_'
'쉐이크'
'숲에_'
'숲_'
'숭이'
'숭'
'숫자를_'
'숫자_'
'숫'
'숨어서_'
'숨쉬고_'
'숨길'
'숨긴_'
'숨겼어_'
'숨겼다'
'숨겨둔'
'숨겨놓'
'술집이'
'술집_'
'술이나_'
'술은_'
'술에_'
'술로_'
'순진한'
'순진'
'순조롭게_'
'순이'
'순수한_'
'순수'
'순교자'
'순간을_'
'순간도_'
'숙여요_'
'숙소'
'숙녀분들_'
'숙녀들'
'수행하는'
'수한'
'수하'
'수퍼'
'수트'
'수치다_'
'수치는_'
'수치가_'
'수출'
'수축'
'수집하'
'수준이'
'수준의_'
'수준'
'수조'
'수작_'
'수있어_'
'수있는_'
'수익을_'
'수의_'
'수원'
'수용소_'
'수요일'
'수영장에_'
'수염이'
'수염_'
'수업에'
'수업_'
'수야_'
'수액'
'수술해'
'수술할_'
'수술하러_'
'수술실_'
'수색하'
'수색_'
'수상한_'
'수상자'
'수사관'
'수백만의_'
'수배_'
'수배'
'수리해'
'수로를_'
'수련'
'수단이_'
'수다_'
'수군'
'수건'
'수개월'
'수갑'
'수감'
'숀_'
'쇼핑몰'
'쇼파'
'쇼크'
'송출'
'솟아'
'솔직해'
'솔직하'
'솔로웨이_'
'솔랑쥬'
'손톱_'
'손이'
'손에서'
'손실이'
'손수'
'손상이_'
'손상_'
'손발'
'손님들이_'
'손님'
'속이고_'
'속옷'
'속상'
'소홀'
'소파에'
'소통'
'소장'
'소유한_'
'소유지'
'소유권'
'소위_'
'소용없다'
'소용_'
'소용'
'소요'
'소아과'
'소식이군'
'소송에'
'소셜'
'소설이'
'소설가'
'소문_'
'소모'
'소멸'
'소린'
'소리쳐_'
'소리다_'
'소리네_'
'소름끼치'
'소련_'
'소란'
'소동을_'
'소독'
'소년을'
'소년에'
'소녀를_'
'소녀가_'
'소금_'
'소관'
'소개합니다_'
'소개할게요_'
'셸비_'
'셰익스피어_'
'셰리'
'셨잖아요_'
'셨을'
'셨으'
'셨어'
'셨다_'
'셨네_'
'셨나_'
'션이_'
'션이'
'션에_'
'셔츠를_'
'셔야겠네요_'
'셔먼_'
'셋째_'
'셋을_'
'셉_'
'셉'
'센트럴_'
'센트가_'
'센트_'
'센터는_'
'센터_'
'센_'
'섹시한'
'섹시'
'섹스할'
'세한_'
'세하'
'세포들'
'세포가_'
'세트_'
'세자'
'세인트루이스'
'세이프'
'세워요_'
'세상에'
'세번째_'
'세번'
'세로'
'세균_'
'세계적'
'세계의_'
'세가'
'성훈'
'성형외과'
'성형술'
'성함'
'성한_'
'성전환'
'성적인_'
'성장하'
'성의'
'성에서'
'성스'
'성사'
'성과를_'
'성과'
'성공했어_'
'성공하면_'
'성공_'
'성격이_'
'성가'
'섰을'
'섭'
'섬에'
'섬기'
'설탕을_'
'설치했'
'설치하는'
'설치_'
'설문'
'설명해주지'
'설명할게요_'
'설명할'
'설명을_'
'설득해_'
'설득력'
'설계하고_'
'설계하'
'설거지'
'선한_'
'선포'
'선택지'
'선택이_'
'선택된_'
'선출'
'선진_'
'선조'
'선입견이_'
'선이'
'선의'
'선으로_'
'선원'
'선영이'
'선에_'
'선수는_'
'선서'
'선생이'
'선생은_'
'선생님한테_'
'선생님이에요_'
'선생님이랑_'
'선생님의_'
'선생님을'
'선생님께_'
'선생님과_'
'선물이_'
'선들'
'선다'
'선거에'
'선가'
'섞여'
'석으로_'
'석유가_'
'석에'
'석션_'
'석방을_'
'서핑_'
'서핑'
'서프라이즈_'
'서쪽으로_'
'서지'
'서재'
'서장님_'
'서와_'
'서연'
'서에서_'
'서세'
'서비스'
'서부터'
'서부에'
'서부_'
'서버'
'서명했'
'서명하'
'서명을_'
'서만_'
'서로의_'
'서들'
'서든_'
'샹'
'샵'
'샴페인_'
'샨'
'샤프'
'샤이'
'샤를'
'생활은_'
'생포'
'생쥐'
'생존자'
'생존_'
'생일선물'
'생일'
'생에'
'생산_'
'생사'
'생방송'
'생물이_'
'생기는_'
'생겼잖'
'생겼을_'
'생겼는지_'
'생겼구나_'
'생강_'
'생각했단다_'
'생각했는데'
'생각했는'
'생각했나_'
'생각해야_'
'생각해봤'
'생각해봐'
'생각하지만_'
'생각하죠_'
'생각하시는'
'생각하시나요_'
'생각하던_'
'생각하는지_'
'생각하겠지_'
'생각처럼_'
'생각중'
'생각입니'
'생각이지만_'
'생각이네요_'
'생각으'
'생각만_'
'생각되'
'생각나는_'
'생각나게_'
'샘은_'
'샐리_'
'샌디'
'샌드위치를_'
'샌드위치'
'샌더'
'색의_'
'색스'
'색깔이'
'새해'
'새치'
'새의_'
'새에_'
'새빨간_'
'새벽'
'새롭'
'새들'
'새끼들이_'
'새끼는_'
'새끈'
'상황이었'
'상황에서는_'
'상황_'
'상하지'
'상하게_'
'상품은_'
'상태입니다_'
'상태예요_'
'상태에'
'상태거'
'상처주'
'상처받'
'상처가_'
'상처_'
'상자의_'
'상자_'
'상자'
'상으'
'상에서_'
'상에_'
'상세'
'상상해보'
'상상하고_'
'상사가_'
'상류'
'상대적'
'상기시켜'
'상관이'
'상관없잖아_'
'상관도_'
'샀어요_'
'삽입'
'삽'
'삼킬_'
'삼촌은_'
'삼았'
'삼아_'
'삼가'
'살해범'
'살해된'
'살펴봤'
'살짝'
'살지도_'
'살인자_'
'살인마_'
'살인마'
'살았어'
'살았던_'
'살았단다_'
'살았다_'
'살아있어요_'
'살아야지_'
'살아야'
'살아서_'
'살아라_'
'살아남지_'
'살아남을_'
'살아남았다'
'살아남는_'
'살면_'
'살릴'
'살리려'
'살렸어_'
'살려줘_'
'살려주세요_'
'살려주'
'살려고_'
'살려_'
'살라'
'살때'
'살기'
'살고있'
'산타'
'산체스'
'산책_'
'산책'
'산제이'
'산을_'
'산수'
'사흘'
'사후에_'
'사후_'
'사회에'
'사회_'
'사형수'
'사형'
'사항이_'
'사항_'
'사하'
'사투'
'사탄'
'사촌이'
'사진찍'
'사진이던_'
'사진은_'
'사진에'
'사진기'
'사주고_'
'사주'
'사정이'
'사장이_'
'사장님이_'
'사일러스_'
'사인이'
'사인을_'
'사인은_'
'사이퍼'
'사이코패스'
'사이좋'
'사이잖'
'사이였'
'사이로_'
'사이라'
'사이드_'
'사원에'
'사울_'
'사운드'
'사우스_'
'사용해_'
'사용할_'
'사용하기_'
'사오'
'사연'
'사업이_'
'사업에_'
'사업가'
'사야_'
'사실이다_'
'사슴을_'
'사슬'
'사소한_'
'사셨'
'사세요_'
'사서함'
'사생활_'
'사부님'
'사병들'
'사병'
'사방'
'사무실_'
'사모님_'
'사모'
'사망하'
'사망자'
'사막을_'
'사르만_'
'사령부'
'사랑해서'
'사랑한단다_'
'사랑한다면_'
'사랑한다는_'
'사랑하잖아'
'사랑스러운'
'사랑스'
'사람처럼_'
'사람일_'
'사람일'
'사람인_'
'사람인'
'사람이지_'
'사람이었다'
'사람이란'
'사람이니까_'
'사람만'
'사람들이에요_'
'사람들이야_'
'사라질_'
'사라진'
'사라졌다'
'사라져'
'사들'
'사달라'
'사니까'
'사니'
'사는거'
'사냥꾼이'
'사냥꾼'
'사냥개'
'사나운_'
'사귄'
'사귀는_'
'사교'
'사과했'
'사과_'
'사고였어'
'사고로_'
'사건이라'
'사건으로_'
'사건에서_'
'사건들'
'사건과_'
'사각형'
'사각지대'
'뿐이라고_'
'뿐이니까_'
'뿐이네'
'뿐야_'
'뿌렸'
'뿌'
'뾰족한_'
'뽀뽀해'
'뽀뽀'
'뼈와_'
'뻥'
'뻔하잖아'
'빼앗아'
'빼구'
'빼고는_'
'빼고'
'빴'
'빨아먹'
'빨아_'
'빨라요_'
'빨대'
'빨간색'
'빠트'
'빠진'
'빠졌을'
'빠졌어'
'빠졌다'
'빠져버'
'빠져나오지_'
'빛이_'
'빛나고_'
'빚진_'
'빚지고_'
'빚졌'
'빚이'
'빙글'
'빙고'
'빗_'
'빕니다_'
'빌어_'
'빌딩_'
'빌게_'
'빈스'
'비행기에_'
'비행기는_'
'비행기가_'
'비할_'
'비평'
'비틀'
'비트'
'비타민'
'비키'
'비켜라_'
'비츠'
'비참하'
'비좁'
'비정상적'
'비장'
'비자_'
'비위'
'비용이_'
'비용을_'
'비욘'
'비었어'
'비야_'
'비비'
'비밀이'
'비로소_'
'비디오에'
'비디오_'
'비단'
'비난했'
'비극적'
'비극이'
'비관'
'비공'
'비결이'
'비게'
'블을_'
'블은_'
'블리'
'블러드'
'블랙홀_'
'블랑'
'블라인'
'브스_'
'브리핑'
'브루스'
'브로디_'
'브로디'
'브람'
'브라운_'
'브라운'
'브라우니'
'브라더스'
'브라더'
'브는_'
'뷸'
'붙잡았'
'붙잡아_'
'붙잡아'
'붙이고_'
'붙이'
'붙은_'
'붙였다_'
'붙어서_'
'붙어_'
'붙들어_'
'붙들'
'붓'
'불확실'
'불행한_'
'불필요한_'
'불편해'
'불편하게_'
'불타'
'불쾌'
'불은_'
'불알'
'불안해'
'불안한'
'불안정해'
'불안정하'
'불쌍해'
'불복종'
'불면'
'불륜'
'불로'
'불러주세요_'
'불러요_'
'불러와'
'불러야_'
'불러야'
'불러서_'
'불량'
'불과'
'불고_'
'분할'
'분쟁'
'분위기가_'
'분위기_'
'분에_'
'분수'
'분석해'
'분부'
'분별력'
'분명해요_'
'분명한_'
'분명하'
'분리하'
'분들은'
'분들께_'
'분께'
'분기'
'분과_'
'북한의_'
'북쪽_'
'북경에_'
'부함장'
'부하들'
'부풀'
'부탁했'
'부탁할'
'부탁이니_'
'부탁이_'
'부탁이'
'부친_'
'부추'
'부채'
'부착'
'부족했'
'부족해서'
'부족한_'
'부족하다_'
'부족_'
'부위를_'
'부위_'
'부엌에'
'부엉이'
'부어서_'
'부양'
'부시_'
'부술'
'부상당'
'부사'
'부분이_'
'부분에서_'
'부문'
'부모의_'
'부모를_'
'부모님께'
'부림'
'부리지_'
'부름'
'부르신'
'부르시'
'부르셔'
'부르라'
'부르더'
'부르는지'
'부럽'
'부러진'
'부러지'
'부들이_'
'부드럽고_'
'부드럽게_'
'부두로_'
'부동산'
'부대_'
'부담이'
'부끄'
'부근'
'뵙겠'
'뵌'
'봤지'
'봤잖아요_'
'봤을거'
'봤으니'
'봤었어'
'봤단'
'봤다_'
'봤냐_'
'봐줘_'
'봐주지'
'봐주세요_'
'봐야겠어요_'
'봐선_'
'봐서'
'봉합사'
'봉지'
'봉에_'
'봅'
'봄에_'
'볼수록_'
'볼래_'
'본질'
'본인은_'
'본을_'
'본은_'
'본부에_'
'본부_'
'본부'
'본드_'
'본대'
'본다면_'
'본다고_'
'본거야_'
'본거'
'복지사'
'복장'
'복잡하고_'
'복이'
'복음'
'복은_'
'복용하'
'복용_'
'복숭아'
'복수심'
'복부_'
'복막'
'복도에서_'
'복권을_'
'보호해_'
'보호하려_'
'보호하는'
'보호하기_'
'보호를_'
'보통은_'
'보태'
'보좌관'
'보장_'
'보자꾸나_'
'보이잖아_'
'보이시'
'보이드_'
'보이던_'
'보이더군요_'
'보이거든_'
'보육'
'보였어요_'
'보였다_'
'보여준_'
'보여주자'
'보여주시'
'보여주려고'
'보여주고_'
'보여야_'
'보여드릴게'
'보야_'
'보았습니다_'
'보안이_'
'보안관이_'
'보안관이'
'보안관'
'보아'
'보신'
'보시겠어요_'
'보스가_'
'보셨어요_'
'보셔야_'
'보상을_'
'보상금'
'보복'
'보병'
'보를_'
'보라고요_'
'보도에'
'보더'
'보답'
'보다'
'보는데'
'보는거'
'보네요_'
'보냈다_'
'보낼거야_'
'보내지_'
'보내지'
'보내줄게_'
'보내준'
'보내자'
'보내실_'
'보내려'
'보내게_'
'보긴_'
'보기로_'
'보그_'
'보관소에'
'보고해야_'
'보고싶었'
'보고서에_'
'보고서를_'
'보고를_'
'보고는_'
'보건'
'보거'
'병원이'
'병원의_'
'병아리'
'병실에'
'병신이'
'병신들'
'병사'
'병력_'
'병력'
'병동'
'별장에_'
'별이_'
'별명_'
'별말씀을_'
'별로인'
'별로야_'
'별도로_'
'변호사에게_'
'변호사님_'
'변호'
'변형'
'변했어요_'
'변했어_'
'변했다'
'변할_'
'변한'
'변하'
'변이_'
'변신'
'변사체로_'
'변덕'
'변기'
'변경_'
'벽화에_'
'벽돌'
'벨라_'
'벤튼'
'베풀'
'베카'
'베일리쉬_'
'베이컨_'
'베이커'
'베이에_'
'베이비'
'베리티'
'베리_'
'베레'
'베드'
'베니아'
'베가스에'
'벙커_'
'벗은_'
'벗어났'
'벗기'
'벗고_'
'벗겨지'
'법칙이'
'법칙'
'법정에_'
'법정_'
'법적_'
'법의'
'법관'
'범죄자들'
'범죄자_'
'범인의_'
'범이'
'범벅'
'범람하'
'벌주'
'벌어질지_'
'벌어지는_'
'벌어지'
'벌어줄'
'벌어졌다_'
'벌레들'
'벌거'
'번호를_'
'번호가_'
'번호'
'번째예요_'
'번째로_'
'번지'
'번에_'
'번씩_'
'번식'
'번스'
'벅차'
'버트'
'버텼'
'버터'
'버클'
'버지니아_'
'버스는_'
'버스가_'
'버섯'
'버린다_'
'버린'
'버리기'
'버렸다고_'
'버려진_'
'버려야_'
'버려서_'
'버려두고'
'버디_'
'버드_'
'버논'
'버나드_'
'버그에'
'뱃지'
'뱃속'
'밴에_'
'백화점'
'백인'
'백이'
'백악관'
'백스'
'배포'
'배트'
'배터리_'
'배짱'
'배지_'
'배은망덕'
'배웠어'
'배워야_'
'배웅'
'배운'
'배우고_'
'배에'
'배액관을_'
'배심'
'배신자가_'
'배부'
'배로_'
'배들_'
'배들'
'배니'
'배급'
'배관공'
'배고파서_'
'밭에'
'방해가_'
'방학'
'방탄'
'방의_'
'방어선'
'방어_'
'방안'
'방식이야_'
'방식이'
'방식대로'
'방세'
'방법이라'
'방문했'
'방문_'
'방면'
'방도'
'방금'
'밧줄을_'
'밧줄_'
'밥이_'
'밥맛_'
'밤하늘'
'밤중에_'
'밟으'
'밝힐_'
'밝혀질'
'발휘'
'발포'
'발전하'
'발작이'
'발자'
'발은_'
'발성'
'발생_'
'발사해_'
'발매'
'발렌타인데이'
'발레리'
'발동'
'발견했죠_'
'발견했잖아_'
'발견했을'
'발견했습니다_'
'발견할'
'발견하지_'
'발견하게'
'발견됐'
'발걸음'
'발각되'
'발가벗고_'
'받으시'
'받으셨'
'받으려면_'
'받았죠_'
'받았을_'
'받았던_'
'받았대요_'
'받았다는'
'받았나'
'받았고_'
'받아주지_'
'받아야겠'
'받아라_'
'받아들일_'
'받아들이기가_'
'받아들여야'
'받습니다_'
'받더'
'받는다_'
'반짝이고_'
'반지가_'
'반죽'
'반절'
'반전'
'반이_'
'반응이_'
'반역자'
'반에서_'
'반면에_'
'반만'
'반대편에_'
'반대_'
'반기'
'반갑군_'
'밖_'
'박힌'
'박혀'
'박해_'
'박하'
'박테리아'
'박탈'
'박준'
'박이'
'박을_'
'박았'
'박스트롤'
'박스가_'
'박수를_'
'박살내'
'박살났'
'박사에게_'
'박사라'
'박사님이_'
'박사는_'
'박사가_'
'박물관'
'박고_'
'박_'
'바흐'
'바하'
'바티칸'
'바크'
'바카'
'바치'
'바이킹'
'바이어'
'바이러스를_'
'바위'
'바야'
'바쁜가'
'바빠_'
'바비큐'
'바보들이'
'바보같'
'바바'
'바리'
'바레'
'바래다'
'바람은_'
'바라시'
'바라는'
'바드'
'바닥_'
'바다에_'
'바다가_'
'바다_'
'바늘_'
'바늘'
'바나'
'바뀌었어'
'바뀌어_'
'바꿨어요_'
'바꿨다'
'바꿨'
'바꿔주'
'바꿔버'
'바꾸어'
'바꾸는'
'바가지를_'
'바가스_'
'바가'
'밑으로는_'
'밑으로_'
'밍을_'
'밈'
'밀짚모자_'
'밀어내'
'밀실_'
'밀스_'
'밀수꾼'
'밀수'
'밀리'
'밀대걸레'
'밀고_'
'믿음이_'
'믿음이'
'믿음을_'
'믿음은'
'믿음'
'믿을만한_'
'믿을게_'
'믿으시'
'믿으라고'
'믿어봐'
'믿는다'
'믿는거'
'믿는'
'믿기지_'
'믿기_'
'믿겨'
'믿겠'
'믿거든'
'민주'
'민이_'
'민망'
'민간_'
'민간'
'믹스'
'미확인'
'미화'
'미혼이'
'미친듯'
'미친놈이'
'미친놈들'
'미친놈'
'미친게_'
'미츠하_'
'미쳐버'
'미첼_'
'미즈'
'미의_'
'미워하'
'미워_'
'미워'
'미에'
'미안해'
'미안할_'
'미안한'
'미안하다'
'미안'
'미아_'
'미식축구'
'미시'
'미셸이_'
'미션을_'
'미성년자'
'미래와_'
'미래로_'
'미란다_'
'미디어'
'미디'
'미드'
'미군_'
'미국인들이'
'미국인'
'미국이'
'미국에'
'미국과_'
'뮤직'
'뭘하'
'뭔일'
'뭔소리'
'뭐하러_'
'뭐하니_'
'뭐하는'
'뭐어'
'뭐랬어_'
'뭐냐면_'
'뭇'
'물품을_'
'물품_'
'물자'
'물에서_'
'물었어요_'
'물었어_'
'물어봤어_'
'물어봐_'
'물어볼게'
'물어볼'
'물어본거'
'물어보시'
'물어도_'
'물살'
'물리학자'
'물리학'
'물리치'
'물리적'
'물렸다'
'물려_'
'물러서지_'
'물러서'
'물러나라_'
'묻지도_'
'묻지_'
'묻지'
'묻은'
'묻는'
'묻기'
'문제지_'
'문제입니다_'
'문제인'
'문제에요_'
'문제라고'
'문제들을_'
'문제들'
'문자로_'
'문으로_'
'문니_'
'묶여'
'묶어_'
'묶어'
'무하'
'무지하게_'
'무전기'
'무장시'
'무장_'
'무자비한_'
'무인'
'무의미한'
'무용수'
'무용'
'무역'
'무엇인지'
'무엇인가_'
'무엇이'
'무엇으로'
'무얼'
'무언가'
'무알'
'무신론자라'
'무시해'
'무슨일인'
'무섭게_'
'무서워서_'
'무서운게_'
'무사해'
'무모한_'
'무릎을_'
'무릎에'
'무력'
'무도'
'무더기'
'무너지고_'
'무너졌'
'무너져'
'무나_'
'무기가_'
'무관'
'무게'
'무감각'
'묘지'
'못했지만_'
'못했을'
'못했던_'
'못했는데'
'못했고_'
'못해서'
'못해도_'
'못할꺼'
'못한다구'
'못한다'
'못하지만_'
'못하는데_'
'못잡'
'못생'
'못버'
'못믿'
'못되게_'
'못되'
'못됐다'
'몸조심'
'몸이'
'몸매'
'몸도_'
'몰핀'
'몰랐던_'
'몰랐는데_'
'몰랐네요_'
'몰두하'
'몰_'
'목표에'
'목적지'
'목적을_'
'목적도_'
'목인'
'목요일에'
'목에서_'
'목숨이_'
'목사님_'
'목사는_'
'목사'
'목매'
'목마'
'목격한_'
'모형'
'모의'
'모으'
'모와_'
'모여서_'
'모여들'
'모양인데'
'모양을_'
'모양_'
'모았'
'모습이'
'모습'
'모셔'
'모블리_'
'모방'
'모리아티'
'모른대'
'모르핀'
'모르잖아요_'
'모르더군'
'모르는거'
'모르나'
'모르겠습니다_'
'모르겠는'
'모르겠거든_'
'모든것을_'
'모드'
'모닝'
'모님이_'
'모니카가_'
'모니카_'
'모나_'
'몇주_'
'몇일'
'몇이'
'몇시간_'
'몇시간'
'몇살이'
'몇번'
'명확하'
'명한_'
'명품'
'명중'
'명절'
'명인'
'명씩'
'명심해요_'
'명심'
'명성을_'
'명성은_'
'명성'
'명만_'
'명단에_'
'면접_'
'면적'
'면이_'
'면야_'
'면상'
'면도'
'멘토'
'멘데즈'
'메이크'
'메이즈_'
'메이슨_'
'메시지_'
'메스'
'메모리얼'
'메모를_'
'메릴'
'메르'
'메드'
'메데인'
'메그'
'멍하니_'
'멍청하니까'
'멍청이들_'
'멍청이같'
'멋지다'
'멋지군_'
'멋지구'
'멋졌어_'
'멋쟁이_'
'멋대로_'
'멈췄어'
'멈춰야_'
'멈추면_'
'멈추라'
'멈추게_'
'멀쩡해요_'
'멀쩡한'
'멀지_'
'멀리서'
'먼지가_'
'먼지_'
'먹힐'
'먹이를_'
'먹을래요_'
'먹을거야_'
'먹은거'
'먹으면서_'
'먹으려'
'먹여_'
'먹었으'
'먹었어_'
'먹었다_'
'먹었다'
'먹었는데'
'먹어요_'
'먹어야지_'
'먹어야_'
'먹어서'
'먹어보'
'먹어버렸'
'먹는다고'
'먹는다_'
'먹는'
'먹겠'
'머지'
'머시아'
'머물러'
'머물_'
'머릿속에'
'머릿속'
'머리털'
'머리카락이_'
'머리에'
'머리속에'
'머리는'
'머를_'
'머가_'
'맺었'
'맺어'
'맹세했'
'맹세해_'
'맹세할'
'맹세_'
'맹렬'
'맷'
'맴'
'맨이'
'맥코'
'맥박'
'맥기_'
'매트_'
'매춘'
'매일밤_'
'매력이'
'매력'
'매디슨_'
'매디_'
'매듭을_'
'매독'
'매달_'
'매니저'
'매니야_'
'매니는_'
'매니가_'
'매고_'
'맡을게_'
'맡는다'
'맡기셨'
'맡고'
'맡겨'
'맞췄어'
'맞춰서_'
'맞지'
'맞이하'
'맞을거'
'맞은편'
'맞으면'
'맞으'
'맞어_'
'맞았다_'
'맞아서_'
'맞아'
'맞습니'
'맞다면_'
'맞군_'
'망한'
'망하게_'
'망칠_'
'망친다'
'망치를_'
'망치는'
'망치고_'
'망쳐_'
'망이'
'망에'
'망가졌'
'망가져'
'망가'
'맛있어요_'
'맛있어_'
'맛있네'
'맛을_'
'말했는데_'
'말해줬어요_'
'말해줄거'
'말해줄'
'말해야겠어_'
'말해라_'
'말해도_'
'말할게_'
'말한대로'
'말하진_'
'말하죠_'
'말하시'
'말하려던_'
'말하라'
'말하는지_'
'말하겠'
'말콤_'
'말조심'
'말이니_'
'말이나'
'말이구나_'
'말에'
'말았'
'말씀하세요_'
'말씀이신'
'말씀이_'
'말씀은_'
'말씀드리죠_'
'말씀드리는'
'말씀드렸잖아요_'
'말씀드'
'말썽_'
'말문이_'
'말리'
'말려_'
'말랬'
'말랄라'
'말라구'
'말다툼을_'
'말끔'
'말그대로_'
'말고도_'
'말고'
'말겠'
'말걸'
'말거야_'
'많을'
'많은걸_'
'많았지'
'많았어_'
'많다_'
'많다'
'많네_'
'만하게_'
'만큼의_'
'만찬'
'만지면_'
'만지고_'
'만주'
'만족스럽'
'만이'
'만으로'
'만명'
'만만치_'
'만만'
'만들었지_'
'만들었잖아_'
'만들어진_'
'만들어줬어'
'만들어주'
'만들어내'
'만들려고_'
'만들거야_'
'만든다_'
'만든다'
'만드는거'
'만도_'
'만났군'
'만남'
'만나지'
'만나자'
'만나야'
'만나기를_'
'만나기'
'막힐_'
'막힌'
'막혀'
'막장'
'막이'
'막을'
'막으려고_'
'막으려_'
'막으'
'막았어'
'막았'
'막다른_'
'막기_'
'막고_'
'마함'
'마틴'
'마키아'
'마케일라'
'마쳤'
'마찬가지일'
'마찬가지고'
'마지막이'
'마지막에'
'마주쳤'
'마일즈'
'마일이나_'
'마일_'
'마이티_'
'마이크로프트_'
'마이_'
'마음으로'
'마음속의_'
'마음껏_'
'마음과_'
'마을에서_'
'마을로_'
'마약이'
'마야'
'마시지_'
'마시오_'
'마시기'
'마시고요_'
'마시게_'
'마스터_'
'마스터'
'마술사'
'마셨어요_'
'마셔요_'
'마셔야'
'마법이_'
'마법사'
'마마보이'
'마마'
'마린'
'마리안_'
'마리아'
'마리가_'
'마른'
'마련이'
'마디'
'마드'
'마당에_'
'마당'
'마다'
'마님'
'마니'
'마그네슘'
'마구'
'마감'
'마가렛'
'마가_'
'링크_'
'링이'
'링스_'
'립스틱'
'림이'
'릴때'
'릴께요_'
'릴까'
'릴게요_'
'린이'
'린은_'
'린에'
'린다고_'
'린거_'
'린거'
'리카'
'리차드'
'리젤'
'리자'
'리올'
'리에서'
'리쉬'
'리사'
'리비아_'
'리브스'
'리본'
'리모컨'
'리모'
'리면'
'리려'
'리나'
'리겠'
'리게_'
'릅니'
'를요_'
'를거야_'
'르도'
'르게'
'률이'
'륙'
'류를_'
'룬'
'룩해'
'루피'
'루크가_'
'루카'
'루즈'
'루이스는_'
'루시퍼는_'
'루시퍼가_'
'루비_'
'료_'
'롯'
'롤리'
'롤라'
'론이'
'론을_'
'록하'
'록시_'
'로저'
'로자'
'로이'
'로에'
'로써_'
'로서'
'로사'
'로비에'
'로비_'
'로부터'
'로봇들'
'로버트'
'로버'
'로맨틱한_'
'로맨틱하'
'로마인'
'로마로_'
'로리'
'로레'
'로드리게'
'로그인_'
'로군요_'
'로고'
'로건_'
'례를_'
'례로_'
'례_'
'령이_'
'렸지_'
'렸으니'
'렸었'
'렸소_'
'렸다고_'
'렸나'
'렵이'
'렵'
'력은_'
'려야'
'려는거야_'
'려는'
'렛이'
'렘'
'렌치'
'렌스'
'렉_'
'레프'
'레코'
'레지던트들'
'레지_'
'레즈비언'
'레일라_'
'레일'
'레이몬'
'레이드_'
'레이나_'
'레오나'
'레슬링'
'레슬리_'
'레스토랑_'
'레를_'
'렀지_'
'런스'
'런던의_'
'런던으로_'
'런던_'
'럭스_'
'러진_'
'러진'
'러지'
'러워_'
'러가_'
'량을_'
'량은_'
'량으로_'
'량_'
'랬지_'
'랬어_'
'램프'
'램퍼트_'
'램지가_'
'램지'
'랠'
'랜덤하'
'래니'
'랑자'
'랑이_'
'랑을'
'랑도_'
'람을_'
'란이_'
'란드'
'락을_'
'락거'
'라파엘'
'라틴'
'라커'
'라일리'
'라이프'
'라이터_'
'라이자'
'라이_'
'라운드_'
'라스베'
'라빗_'
'라면'
'라며_'
'라마'
'라라'
'라떼'
'라디오로_'
'라드_'
'라도'
'라던가_'
'라던'
'라뇨_'
'라과디아'
'뜻하는'
'뜻하'
'뜻입니'
'뜻인가'
'뜯어'
'뜬다_'
'뜨겁게_'
'뜨거운'
'뛸_'
'뛰었'
'뛰어내리'
'뛰어내'
'뛰는'
'뚱뚱한_'
'뚱뚱'
'똥꼬'
'똑똑하지'
'똑똑하고_'
'똑_'
'떼어내'
'떼어'
'떼가_'
'떨어질_'
'떨어진'
'떨어졌어_'
'떨어뜨리'
'떨리'
'떡_'
'떠올리'
'떠올라'
'떠오르'
'떠오'
'떠야'
'떠벌리'
'떠들고_'
'떠돌아_'
'떠돌'
'떠났을'
'떠났어요_'
'떠나왔'
'떠나신'
'떠나려'
'떠나라'
'떠나겠'
'떄'
'땜에_'
'때처럼_'
'때인'
'때와_'
'때에도_'
'때문일지도_'
'때문일'
'때문인가'
'때문이에요_'
'때면_'
'때맞춰'
'때릴_'
'때리지_'
'때리고_'
'때렸어요_'
'때렸'
'때려_'
'때까지요_'
'때까지는_'
'땅콩'
'땅은_'
'땅에서_'
'땅바닥에_'
'땄다'
'딸한테_'
'딸이야_'
'딸이란'
'딸이라'
'딸의_'
'딸에'
'딸딸'
'딸들은_'
'딸들'
'딸도_'
'딸꾹질'
'딸과'
'딱하'
'딱이'
'따위'
'따분한_'
'따르겠'
'따라왔'
'따라와'
'따라오고_'
'따라다니'
'따라다'
'따라가_'
'따뜻해'
'따뜻하'
'따뜻'
'딜런은_'
'딕슨'
'디트_'
'디와_'
'디나'
'디가'
'등하게_'
'등등'
'등대'
'듭니'
'듬'
'들한테_'
'들판'
'들키'
'들일_'
'들인_'
'들은거'
'들여서_'
'들여_'
'들었으'
'들었습니다_'
'들었던_'
'들었단'
'들었는데요_'
'들었고_'
'들었겠'
'들어왔을'
'들어왔다_'
'들어올리'
'들어오면'
'들어오려'
'들어오는_'
'들어오고_'
'들어오게_'
'들어서_'
'들어봐'
'들어본적'
'들어보지'
'들어갔을_'
'들어가지_'
'들어가실_'
'들어가시'
'들보다_'
'들릴'
'들렸어'
'들렸'
'들려줘'
'들려주'
'들렀어'
'들거'
'듣죠_'
'듣자하니_'
'듣고있'
'드웨'
'드에_'
'드에'
'드스'
'드셔'
'드문_'
'드릴수'
'드리지_'
'드리는'
'드름'
'드류'
'드루이드'
'드론'
'드로'
'드려야'
'드레스를_'
'드레_'
'드러난'
'드랙스'
'드라이브'
'드네요_'
'드네_'
'듀크'
'듀켓'
'듀로탄'
'뒹굴'
'뒷문'
'뒤편'
'뒤쳐'
'뒤쪽으로_'
'뒤쪽'
'뒤집'
'뒤죽박죽'
'뒤에'
'뒤돌아'
'뒀죠_'
'뒀어_'
'둥아_'
'둥_'
'둘째_'
'둘째'
'둘만_'
'둘렀'
'둘러_'
'둑_'
'둑'
'두자'
'두요_'
'두신'
'두세요_'
'두번째'
'두르'
'두렵지_'
'두렵고_'
'두렵'
'두려워해'
'두려워하는'
'두려워하고_'
'두려움이_'
'두들'
'두는'
'두개골_'
'됬네_'
'될지도_'
'될만한'
'될때'
'될꺼'
'될것'
'될거예요_'
'된대'
'된단_'
'된다는'
'된다구_'
'되질_'
'되지만_'
'되지는_'
'되자'
'되있어'
'되었지'
'되었을_'
'되었다고_'
'되어있어'
'되실_'
'되신'
'되셨네'
'되살'
'되돌'
'되는군'
'되는게_'
'되는것_'
'되네요_'
'되겠지'
'되겠어'
'되겠다_'
'되거든요_'
'되가고_'
'됐을거'
'됐던'
'됐다고'
'됐나'
'됐구만_'
'됐겠'
'됐거든_'
'돼야_'
'돼가_'
'돛을_'
'동창'
'동참하'
'동전'
'동일'
'동이_'
'동의할_'
'동안은_'
'동시에_'
'동생아_'
'동물의_'
'동무들'
'동맹_'
'동맹'
'동맥류_'
'동맥_'
'동료들이_'
'동료들'
'동등한_'
'동네에_'
'동결'
'돕지'
'돕는다'
'돕는'
'돔'
'돌풍'
'돌진하'
'돌이킬_'
'돌이_'
'돌이'
'돌아왔다_'
'돌아왔다'
'돌아와요_'
'돌아옵니다_'
'돌아올게_'
'돌아온'
'돌아오죠_'
'돌아오세요_'
'돌아오라고_'
'돌아오는'
'돌아갔다_'
'돌아갑'
'돌아가야_'
'돌아가신_'
'돌아가셨어_'
'돌아가라'
'돌아가는지_'
'돌아가는게_'
'돌아가기_'
'돌봐주'
'돌봐드'
'돌볼_'
'돌보고_'
'돌리지_'
'돌리자'
'돌리는_'
'돌려줘'
'돌려주'
'돌려서_'
'돌려보'
'돌고_'
'독한_'
'독특'
'독점'
'독일에'
'독이'
'독을_'
'독수리'
'독성'
'도피'
'도플러'
'도트락'
'도쿄'
'도착했다_'
'도착하지_'
'도중_'
'도저히_'
'도움_'
'도울수_'
'도우면'
'도와줬'
'도와줘야'
'도와줘'
'도와줄수_'
'도와준다'
'도와준'
'도와주려'
'도와주러_'
'도와야_'
'도와드릴_'
'도와달'
'도예요_'
'도에'
'도시이'
'도시가_'
'도서관_'
'도발'
'도박을_'
'도망쳤죠_'
'도망쳐_'
'도망쳐'
'도망갈_'
'도망가게_'
'도를_'
'도르'
'도록하지_'
'도록'
'도래'
'도랑_'
'도둑질'
'도둑놈'
'도달_'
'도달'
'도넛'
'도난당'
'도나'
'도끼'
'도가_'
'뎁'
'델가도'
'덴_'
'데이트하'
'데이터'
'데이에_'
'데이빗'
'데이비스'
'데에'
'데스몬드'
'데서'
'데비'
'데려와야_'
'데려와라_'
'데려갔어_'
'데려간'
'데려가지_'
'데려가야'
'데려가는_'
'데려가겠'
'데드'
'데니소비치'
'데기'
'덩치_'
'덩이'
'덩'
'덧붙였다_'
'덤벼_'
'던질_'
'던져버'
'던이'
'던게'
'던것_'
'던걸'
'던거지_'
'덕입니다'
'덕이'
'더해지면_'
'더한'
'더크'
'더워서_'
'더운_'
'더슨'
'더미에_'
'더럽히'
'더라니까'
'더듬'
'더구나_'
'댔잖아_'
'댔다고'
'댔'
'댓가'
'댄스_'
'댁에_'
'댁들은_'
'대화는_'
'대해주'
'대해서도_'
'대해'
'대항하'
'대할'
'대학에'
'대표님이_'
'대통령을_'
'대통령님'
'대통령께'
'대충_'
'대출금'
'대처하'
'대적'
'대장이'
'대인'
'대용'
'대열'
'대신해서'
'대신해_'
'대세'
'대상이_'
'대상_'
'대사형'
'대사님'
'대사관'
'대부분을_'
'대부_'
'대봐_'
'대변인은_'
'대박이'
'대면'
'대만'
'대립'
'대리인이'
'대륙'
'대령님_'
'대려가'
'대답이_'
'대단했어'
'대단해요_'
'대단하군'
'대기해_'
'대기_'
'대가로_'
'대가가_'
'닿으'
'당황하'
'당했고_'
'당할_'
'당할'
'당하려'
'당하게_'
'당첨'
'당직'
'당의_'
'당연해'
'당연하게_'
'당연하'
'당연'
'당신한테'
'당신이라면_'
'당신에겐_'
'당신네들은_'
'당신께'
'당시에_'
'당선인'
'당선되'
'당사'
'당당한_'
'당국에'
'닷'
'답이_'
'답은_'
'답변'
'답답해'
'답니까_'
'담을_'
'담은_'
'담요를_'
'담에_'
'담아'
'담긴_'
'담겨있'
'닮았어_'
'닭이_'
'달하'
'달콤'
'달았'
'달성하'
'달빛'
'달린'
'달리기'
'달리고_'
'달렸어_'
'달려들었다_'
'달려가서_'
'달려_'
'달러요_'
'달러에_'
'달랑_'
'달랐어'
'달랐다'
'달라요_'
'달동안_'
'달도'
'달걀_'
'닫는'
'단칼에_'
'단체들'
'단점'
'단이다_'
'단이'
'단에'
'단속'
'단서가_'
'단말야_'
'단락'
'단단한_'
'닦으'
'닦았'
'닦아줄'
'닦아'
'닥터몽고메리'
'닥쳐'
'다행입니다_'
'다행인'
'다행이네'
'다행이군'
'다행이'
'다해서_'
'다해_'
'다투'
'다치게_'
'다쳤어_'
'다정한'
'다이버전트'
'다음주_'
'다음이'
'다음으로'
'다음에는_'
'다음에'
'다음번'
'다운'
'다예요_'
'다양한_'
'다아'
'다시하'
'다시피_'
'다보'
'다면서_'
'다마'
'다른사람이'
'다른데'
'다른걸_'
'다르다는'
'다르겠죠_'
'다룰_'
'다루는'
'다루기_'
'다로'
'다람쥐'
'다락'
'다라'
'다던데_'
'다더'
'다니지_'
'다니엘'
'다니면_'
'다니다'
'다는걸_'
'다녔다_'
'다녀와_'
'다넬'
'다네_'
'다고'
'다거나'
'다간_'
'닝이'
'님께_'
'닌자'
'닌거'
'닉이_'
'닉의_'
'니키'
'니와_'
'니에'
'니언'
'니어'
'니만_'
'니라_'
'니다만_'
'니는_'
'니건'
'늦춰'
'늦지'
'늦으면_'
'늦었잖'
'늦었네_'
'늦어서_'
'늦겠어_'
'늦겠다_'
'능숙'
'능력은_'
'늠'
'늙은이'
'늘었'
'늘어진_'
'는이'
'는군요_'
'는구만_'
'는것을_'
'는걸요_'
'늑대인간'
'늑대_'
'늑골_'
'느냐고_'
'느낌일'
'느낌이야_'
'느낌을_'
'느낀'
'느끼게_'
'느껴지세요_'
'느그'
'늄'
'뉴저지'
'뉴욕으로_'
'뉴욕에서_'
'뉴욕에'
'뉴욕'
'뉴올리언스'
'뉴스에서_'
'눔'
'눈치챘'
'눈이'
'눈앞에_'
'눈동자_'
'눈길이_'
'누워있는'
'누워있'
'누워'
'누우'
'누르고_'
'누군지는_'
'누군가의_'
'누구였어_'
'누구에게_'
'누구에'
'누구보다_'
'누구는_'
'뇽_'
'뇌종양'
'뇌세포'
'뇌가_'
'놨을'
'놨다고_'
'놔줘_'
'놔줘'
'놔야겠'
'놔뒀'
'놔둬'
'놔두'
'놓친_'
'놓치고_'
'놓쳤지'
'놓쳤나'
'놓지_'
'놓으세요_'
'놓으'
'놓기'
'농장을_'
'농장에'
'놈인데_'
'놈이랑'
'놀았'
'놀아났'
'놀아_'
'놀려'
'놀랐어'
'놀랍군_'
'놀랍고_'
'놀랄만한'
'놀랄_'
'놀라_'
'놀다'
'논의하'
'논문에'
'논리적'
'녹음하'
'녹스'
'노출이_'
'노스_'
'노스'
'노먼'
'노린'
'노리는_'
'노리'
'노릇_'
'노력할'
'노력하는_'
'노력_'
'노래하고_'
'노래야_'
'노라_'
'노라'
'노는거'
'녜'
'녔다'
'년이라'
'년이나_'
'년은_'
'년간_'
'녀석은_'
'녀석아_'
'녀석들도_'
'녀석들_'
'넷이_'
'넥스'
'네크'
'네이단_'
'네빌'
'네버'
'네덜란드'
'넣을'
'넣으면_'
'넣었어_'
'넣었다_'
'넣어두'
'넘쳐나'
'넘어진'
'넘어요_'
'넘어오'
'넘어서_'
'넘어갔'
'넘어갈'
'넘기고_'
'너흴_'
'너희한테'
'너희에게_'
'너희들에게_'
'너희가_'
'너한텐_'
'너하고_'
'너지'
'너였'
'너에게'
'너스'
'너머에'
'너머'
'너리스'
'너로'
'너라_'
'너도'
'너네들'
'너네'
'너까지_'
'너그'
'냐면_'
'냉장고에'
'냈잖아'
'냈다'
'냈는데'
'냄비'
'낸시_'
'낸시'
'내팽개'
'내키'
'내줘'
'내장을_'
'내장'
'내자'
'내일이면_'
'내일은_'
'내일까지'
'내용이'
'내용을_'
'내셔널_'
'내세'
'내서_'
'내리시'
'내리면_'
'내리기_'
'내려주'
'내려라_'
'내려놓고_'
'내려가요_'
'내려가_'
'내다_'
'내는거'
'내는'
'내놓았'
'내년_'
'내꺼'
'내기에'
'내기를_'
'내겠'
'낳을_'
'낳은_'
'낯짝'
'낯이_'
'낯'
'낭비_'
'낭만적인_'
'났지'
'났었어요_'
'났던_'
'났는'
'났냐고_'
'낫죠_'
'낫겠네'
'낫겠구나_'
'납치한'
'납치됐'
'남편에_'
'남친_'
'남친'
'남쪽_'
'남자죠_'
'남자의_'
'남자에_'
'남자애'
'남자아이는_'
'남자아이가_'
'남자답게_'
'남아있어'
'남아있는'
'남아서_'
'남성의_'
'남성들'
'남성_'
'남부'
'남는다_'
'남긴_'
'남긴'
'남기고_'
'남극'
'남겨주'
'남겨둔'
'남겨두고_'
'낡은_'
'낡'
'날카로'
'날이네'
'날은_'
'날아가'
'날마다_'
'날로_'
'날렸'
'날려버릴_'
'날라갔'
'날까지_'
'난처'
'난장'
'난이'
'난도'
'난다고_'
'나한테'
'나트'
'나타내'
'나타나겠'
'나일'
'나이트_'
'나이는_'
'나은'
'나왔죠_'
'나왔다_'
'나왔는데_'
'나왔고_'
'나온거'
'나오라고_'
'나오고_'
'나에겐_'
'나에'
'나약한_'
'나아지'
'나신'
'나설'
'나사르'
'나쁘게_'
'나빠_'
'나보지_'
'나뭇가지'
'나무를_'
'나무로_'
'나머지'
'나만큼_'
'나만의_'
'나름'
'나랑'
'나라에서'
'나라가_'
'나더러_'
'나니'
'나는군'
'나눠야_'
'나눌'
'나눈_'
'나누었'
'나누어_'
'나누고_'
'나갔다'
'나갔고'
'나갑'
'나간'
'나가야해'
'나가야겠'
'나가버렸'
'나가겠다'
'낄_'
'낀_'
'끼치'
'끼워'
'끼어들_'
'끼어'
'끼리'
'끼는'
'끝장났어_'
'끝으로_'
'끝없'
'끝냈어_'
'끝냈'
'끝낼'
'끝낸'
'끝내줄_'
'끝내준다_'
'끝내주지_'
'끝내주네'
'끝내야'
'끝내면_'
'끝내고_'
'끝내_'
'끝날때까지'
'끝날'
'끝나는_'
'끝나가'
'끔찍했'
'끔찍해_'
'끔찍할'
'끔_'
'끓이'
'끌지'
'끌어당기'
'끊을'
'끊어졌'
'끊어요_'
'끊겼'
'끄고_'
'꿰'
'꿨어'
'꿍꿍'
'꿉니'
'꿈이었'
'꿈꿔'
'꿀_'
'꾼이'
'꾸준'
'꾸민'
'꾸미'
'꾸나_'
'꽃피'
'꽂았'
'꽂아'
'꼴이'
'꼭대기'
'꼬치'
'꼬박_'
'꼬맹이_'
'꼬마를_'
'꼬리를_'
'꼬리'
'꺽'
'꺼져요_'
'꺼져'
'꺼버'
'꺼내줘'
'꺼내서_'
'꺼고_'
'깨지_'
'깨어날_'
'깨버'
'깨달은_'
'깨고_'
'깨_'
'깜짝'
'깜빡했'
'깜둥이'
'깔끔하게_'
'깔끔하'
'깔고'
'까칠'
'까짓_'
'까지도'
'까먹었'
'까먹'
'까말_'
'까만_'
'까나'
'길이야_'
'길은_'
'길어_'
'길들'
'길다'
'길게_'
'길거'
'길가'
'긴박'
'긴데'
'긴다면_'
'긴가_'
'기회야_'
'기회는_'
'기할'
'기초적인'
'기차에_'
'기집애_'
'기지에서_'
'기적의_'
'기자들이'
'기이'
'기위해'
'기운'
'기에는_'
'기억해야'
'기억하는'
'기억하나_'
'기억안나'
'기억나지'
'기억나는_'
'기야_'
'기숙사'
'기수'
'기상'
'기쁜지'
'기쁘지_'
'기쁘네'
'기뻐하'
'기뻐서_'
'기분이야_'
'기본적으로_'
'기본이'
'기밀_'
'기미갤'
'기린'
'기록에'
'기록들'
'기록_'
'기라'
'기때문'
'기도할_'
'기도를_'
'기도나_'
'기대했는'
'기대했'
'기대를_'
'기다릴게_'
'기다리죠_'
'기다리셔'
'기다리라고_'
'기다리는거'
'기다리거'
'기다렸어_'
'기다렸다_'
'기다려주'
'기다려야_'
'기다_'
'기다'
'기능_'
'기네'
'기나_'
'기까'
'기계에'
'기계들'
'기계가_'
'기계_'
'기계'
'기경'
'기겁'
'긍정적이'
'급한_'
'급하게_'
'급하'
'급의_'
'급습'
'금지되어_'
'금요일에_'
'금세_'
'금년'
'금고에_'
'긁어'
'글로리아가_'
'글로'
'글래스'
'글꼴'
'근히_'
'근질'
'근을_'
'근육'
'근심'
'근본적인_'
'근본적으로'
'근무하'
'극장이'
'극을_'
'극소수'
'극복하'
'극단적'
'그토록_'
'그쪽이_'
'그쪽은'
'그쪽에서_'
'그짓'
'그지_'
'그정도'
'그전에'
'그이가_'
'그이_'
'그이'
'그외'
'그여자'
'그에게서_'
'그에'
'그애_'
'그사람_'
'그분_'
'그보다_'
'그말은_'
'그만둬'
'그만둘_'
'그만두고_'
'그림자'
'그리울_'
'그룹의_'
'그룹에'
'그루트다_'
'그루'
'그렉이'
'그레타_'
'그레이조이'
'그렇소_'
'그렇듯이_'
'그렇다니'
'그렇다는'
'그렇다고'
'그렇다'
'그렇고말고_'
'그렇겐_'
'그렇게는_'
'그럼에도_'
'그럴지도_'
'그럴수도_'
'그럴수_'
'그런말'
'그런데도_'
'그런것'
'그런거죠_'
'그러잖아_'
'그러자'
'그러실_'
'그러시면_'
'그러시겠'
'그러면'
'그러려면_'
'그러려'
'그러던가요_'
'그러다가_'
'그러는거'
'그러긴_'
'그러기엔_'
'그러곤_'
'그러겠'
'그랬잖아_'
'그랬어야'
'그랬다면_'
'그랬다간_'
'그랬고_'
'그랜드_'
'그랜'
'그래줄'
'그래야죠_'
'그래야만_'
'그래선_'
'그라미'
'그때까'
'그대의_'
'그닥'
'그니깐_'
'그녀한테_'
'그네'
'그나'
'그깟_'
'그곳이_'
'그곳으로_'
'그것의_'
'그것뿐'
'그것보'
'그것만_'
'그건'
'그거였'
'그거에_'
'그거면_'
'그간'
'그가'
'규칙은_'
'규칙_'
'규제'
'규모의_'
'귀환'
'귀하의_'
'귀찮은_'
'귀찮'
'귀염둥'
'귀여운'
'귀사의_'
'귀사'
'궤도'
'권한'
'권투'
'권에_'
'권도_'
'궈'
'궁금했었'
'궁금하'
'궁극'
'굶주림'
'굶주렸'
'굴착기'
'굴욕'
'굴에서_'
'굴었'
'굴뚝'
'군중들이_'
'군중들'
'군인_'
'군을_'
'군데'
'군대에_'
'군대도_'
'군대_'
'국회의'
'국토_'
'국방부'
'국민들'
'국무'
'국기'
'국경을_'
'국가적'
'국가의_'
'국가에'
'국가를_'
'구획'
'구했는'
'구해줬'
'구해야'
'구해_'
'구하지_'
'구하면_'
'구하려_'
'구하러_'
'구토'
'구출'
'구체적'
'구질'
'구조를_'
'구조_'
'구원'
'구역이'
'구역에'
'구에_'
'구스타'
'구분'
'구부'
'구매하'
'구매_'
'구매'
'구린'
'구리_'
'구를_'
'구로'
'구렁이'
'구들을_'
'구는_'
'구금'
'구가_'
'교회에_'
'교통_'
'교체'
'교차'
'교실에'
'교신'
'교도관'
'교감'
'교가_'
'굉장했'
'굉장'
'괴사'
'괴물이야_'
'괴물을_'
'괴물은_'
'괴물들이_'
'괴롭히는'
'괴로워'
'괜찮을꺼야_'
'괜찮을까요_'
'괜찮을거'
'괜찮아지'
'괜찮다면_'
'괜찮다는_'
'괜찮고'
'광선'
'광산에서_'
'광부들'
'광고에'
'광고_'
'관해'
'관하'
'관통'
'관중들'
'관제탑'
'관절'
'관적'
'관여하'
'관심없어_'
'관리해'
'관리인'
'관련해_'
'관련없'
'관련되'
'관둬'
'관대하'
'관념'
'과한'
'과학적'
'과학자들은_'
'과학이'
'과학_'
'과정이_'
'과정이'
'과자를_'
'과일을_'
'과의'
'과에'
'과도'
'과거를_'
'공포가_'
'공포_'
'공평한_'
'공증'
'공장을_'
'공장에서_'
'공작'
'공인'
'공유하'
'공원에서_'
'공원에'
'공연_'
'공손'
'공부해야'
'공부해'
'공부에_'
'공모자'
'공동체'
'공기가_'
'공급을_'
'공공장소'
'공격했'
'공격해'
'공격적'
'공격에_'
'공격'
'공개상장'
'공간이'
'곳이니'
'곳도_'
'곳과_'
'곱슬'
'골프_'
'골프'
'골치'
'골이_'
'골이'
'골을_'
'골에'
'골아_'
'곤란'
'곡이'
'곡은_'
'곡들'
'고향에_'
'고했'
'고통이_'
'고치는'
'고치고_'
'고쳤'
'고집이'
'고지'
'고조'
'고장나'
'고장_'
'고인'
'고의로_'
'고우'
'고용했'
'고용한_'
'고와'
'고에_'
'고에'
'고양이들'
'고안'
'고싶은'
'고싶어'
'고싶'
'고서_'
'고민_'
'고무'
'고메'
'고맙다'
'고맙네요_'
'고맙군'
'고만_'
'고마워해야'
'고마운데_'
'고마운'
'고마_'
'고른'
'고로_'
'고등학생'
'고등'
'고든'
'고담'
'고난'
'고결한_'
'고객과'
'고개'
'계획했던'
'계획했'
'계획한_'
'계획입니'
'계획이야_'
'계획에_'
'계정'
'계에'
'계실_'
'계실'
'계시니'
'계시거든'
'계셨죠_'
'계셨나요_'
'계셔'
'계란을_'
'계란'
'계단에'
'계단'
'계는_'
'계곡'
'곁으로'
'경험하'
'경험이_'
'경험에'
'경향이_'
'경찰이에요_'
'경찰이다_'
'경찰의_'
'경찰들이_'
'경찰들'
'경찰도_'
'경주를_'
'경이로'
'경이_'
'경의'
'경위님'
'경우에_'
'경우도'
'경에_'
'경사님의_'
'경비원'
'경보_'
'경멸하'
'경매에'
'경막을_'
'경련'
'경기장에'
'경기가_'
'경고_'
'겼어_'
'결혼한다'
'결혼하는'
'결혼이_'
'결혼은_'
'결혼식을_'
'결합'
'결정해'
'결정한다면_'
'결심했'
'결손'
'결석'
'결산'
'결백해'
'결백'
'결론'
'결과는_'
'결_'
'견_'
'격할_'
'격_'
'겨울에'
'겨누고_'
'겠는데요_'
'겠냐'
'겠구만'
'겠구나_'
'게임이_'
'게임이'
'게임에서_'
'게으름'
'게시판'
'게르'
'게될'
'게되면_'
'것처럼요_'
'것임을_'
'것이야'
'것이란다_'
'것이라는_'
'것이니_'
'것의_'
'것에'
'것만으'
'것들이'
'것들에_'
'것같아'
'겁주'
'겁먹지_'
'겁내'
'검찰'
'검정'
'검열'
'검사해'
'검사야_'
'검사는_'
'걸쳐_'
'걸었어'
'걸었다_'
'걸어다니는_'
'걸어나가'
'걸릴까'
'걸린다'
'걸리겠'
'걸렸지_'
'걸렸잖'
'걸렸어요_'
'걸렸다_'
'걸려'
'걸레'
'걸까요_'
'걷는'
'걷고'
'건조'
'건졌어'
'건의를_'
'건을_'
'건요_'
'건에_'
'건배'
'건방진_'
'건물이'
'건물의_'
'건물에_'
'건드린_'
'건드렸'
'건도_'
'건너편에_'
'건강_'
'걱정해야_'
'걱정할'
'걱정하지마'
'걱정하게'
'걱정이야_'
'걱정되는_'
'걱정되'
'거짓이'
'거짓말했'
'거짓말이야_'
'거지만_'
'거지같'
'거지'
'거주'
'거절한_'
'거절하'
'거인_'
'거의다_'
'거였죠_'
'거였습니다'
'거역'
'거여_'
'거슬리'
'거스'
'거봐요_'
'거머리'
'거만하게_'
'거만'
'거리지_'
'거리의_'
'거리에_'
'거리며_'
'거리로_'
'거리라'
'거리다_'
'거리고_'
'거렸'
'거라고'
'거듭'
'거둬'
'거나요_'
'거기에서_'
'거기다_'
'거구'
'거고요_'
'걔들이'
'걔들은_'
'걔들_'
'걔네들_'
'갱_'
'갤러거'
'객들'
'객관적으로_'
'객_'
'객'
'개흉'
'개피'
'개최'
'개장'
'개자식들_'
'개인의_'
'개에요_'
'개스'
'개소리_'
'개설'
'개선'
'개새끼들'
'개빈'
'개봉'
'개리_'
'개리'
'개럿_'
'개구리'
'갚아야'
'갚아'
'같잖아_'
'같을'
'같으면_'
'같았죠_'
'같았다'
'같아서요_'
'같던데_'
'같더'
'같다니까_'
'같다는_'
'같긴_'
'같구'
'갖춰'
'갖은_'
'갖다줄'
'강철'
'강이'
'강은_'
'강요당'
'강연'
'강에_'
'강에'
'강수량'
'강물'
'강렬'
'강간범_'
'갔을거'
'갔으'
'갔었어요_'
'갔었어_'
'갔었는데_'
'갔어야'
'갔습니다_'
'갔더'
'갔는지_'
'갔네_'
'갔나_'
'갔고_'
'갓난아'
'갓'
'갑옷'
'갑상'
'감췄'
'감정적이'
'감정적'
'감염자'
'감염된'
'감염되'
'감압'
'감시해_'
'감시하'
'감시를_'
'감수해'
'감수하고'
'감사해_'
'감사해'
'감사하고_'
'감사하겠습니다_'
'감사의_'
'감사드리'
'감방_'
'감도_'
'감당하'
'감기_'
'갈아입어'
'갈려'
'갈등'
'갈길'
'갈고리'
'갇힌'
'갇히'
'갇혔'
'갇혀있'
'간청'
'간직하'
'간직'
'간절히_'
'간섭'
'간대'
'간다면'
'간과'
'각오'
'가혹하'
'가하'
'가치있는_'
'가치관'
'가축'
'가차'
'가지를_'
'가지러_'
'가죽_'
'가죠_'
'가족이에요_'
'가족이야'
'가족도_'
'가졌을'
'가졌는'
'가져와요_'
'가져올게'
'가져오셨'
'가져오는_'
'가져다준'
'가져갈게'
'가져가라'
'가져가도_'
'가제'
'가정에'
'가장자리'
'가있어'
'가있'
'가이드'
'가의_'
'가을'
'가엾은_'
'가에_'
'가야할_'
'가야만_'
'가야겠'
'가스를_'
'가스가_'
'가셨'
'가셔'
'가세_'
'가설'
'가사_'
'가봤'
'가봐야겠다_'
'가봐야'
'가볼게_'
'가볍'
'가벼'
'가버렸'
'가버려_'
'가방좀_'
'가방이'
'가문에_'
'가면을_'
'가만있'
'가림'
'가르친'
'가르쳐준'
'가르시아'
'가렴_'
'가려고'
'가려_'
'가락'
'가든_'
'가득했다_'
'가득해'
'가득하'
'가되'
'가니까_'
'가능할까_'
'가능할_'
'가능할'
'가능한'
'가능하다'
'가능하겠'
'가능성은_'
'가는지'
'가냐_'
'가난할'
'가난한_'
'가난하'
'가꾸'
'가까이에_'
'가까워지면_'
'가기'
'가구'
'가고있'
'가고싶'
'가격을_'
'가겠어_'
'가겠소_'
'가게에_'
'ㅋ_'
'ㅂ'
'ま'
'　_'
'♬'
'♪ '
'’'
'​​'
'üh'
'é'
'á_'
'¶_'
'¶ ¶'
'¡± _'
'¡¯_'
'~~'
'zzi'
'zy'
'zo'
'zk'
'zies'
'zi'
'zes_'
'zero_'
'zer'
'zar'
'yöu'
'yuan_'
'yu'
'ythe'
'yse'
'yor'
'yon'
'yo'
'yne'
'ymo'
'yi'
'yg'
'yer_'
'yen'
'yelling_'
'yel'
'yah'
'xur'
'xo'
'xima'
'xed'
'ww'
'ws'
'wrinkle'
'wrestl'
'wrench_'
'wrapped_'
'worthy_'
'worm_'
'worlds_'
'workshop_'
'worker_'
'wool'
'wonder'
'wom'
'woe'
'wn'
'wling_'
'wl'
'witnesses_'
'wise_'
'wis'
'wires_'
'wings_'
'windpipe_'
'wildf'
'wig'
'widowe'
'widow_'
'whoop'
'white'
'whistle_'
'whisper'
'whiske'
'wheels_'
'whee'
'whack'
'wha'
'wel'
'wei'
'wears_'
'wealth'
'wb'
'watched_'
'washed_'
'warrant_'
'warp'
'warned_'
'warming_'
'warm'
'wandering_'
'wall'
'walker_'
'wakes_'
'waiter_'
'waited_'
'wait'
'wagon_'
'wages_'
'waffle'
'wa_'
'vul'
'voy_'
'vor'
'volume_'
'volu'
'voices_'
'voca'
'vital'
'visual_'
'vis_'
'violin_'
'violent_'
'viole'
'vince'
'villains_'
'vill'
'vil'
'vigilant'
'vict'
'vicinity_'
'vibra'
'vibe'
'viable_'
'via_'
'via'
'vi_'
'vet_'
'versus_'
'verses_'
'veri'
'vera'
'venture_'
'ventricul'
'ventricle_'
'vent'
'venge'
'vem'
'vely_'
'vehicle_'
'vegetarian_'
'vegetables_'
'vega'
'vate'
'vast'
'various_'
'variation'
'varia'
'vapid_'
'vanish_'
'vani'
'value_'
'valu'
'valid'
'vain_'
'vacu'
'ux_'
'utter'
'utin'
'usurp'
'ust_'
'uss'
'ush_'
'useless_'
'urs_'
'urnal'
'urn_'
'urgent'
'urd'
'ural_'
'upward_'
'upt'
'update_'
'uous_'
'unw'
'unus'
'unto'
'unst'
'unreal'
'unpleasant_'
'unpa'
'unload'
'unl'
'unif'
'unfortunate_'
'unfo'
'unem'
'understanding_'
'undergo'
'undercover_'
'und_'
'uncom'
'unbeliev'
'unat'
'unable_'
'umn'
'ument'
'ultimate'
'ulte'
'ult_'
'ull'
'ule'
'ulator'
'ulate'
'ular_'
'ulan'
'uglie'
'ught_'
'uf'
'ude_'
'ucin'
'uch'
'uce'
'ubs_'
'uben'
'uard'
'ualiz'
'uali'
'typi'
'two'
'twitch_'
'twin_'
'twi'
'twer'
'twelve_'
'twe'
'turf_'
'tune_'
'tuck'
'tubes_'
'ttling_'
'ttle_'
'tti_'
'tti'
'tten'
'tte_'
'tta'
'tsk_'
'trunk_'
'troubles'
'tripp'
'trip'
'trigger'
'tricks_'
'trials_'
'tria'
'tres'
'treats_'
'treat'
'treas'
'tray'
'travels_'
'trauma'
'transporte'
'transparent'
'translat'
'transg'
'transferr'
'transc'
'tran'
'tral'
'traitor'
'trail_'
'trail'
'tragedy_'
'traditional_'
'trache'
'towers_'
'tower_'
'towel'
'tourists_'
'touri'
'tough'
'tos_'
'tors_'
'torment'
'tore_'
'torche'
'tor'
'tooth_'
'tool'
'tomb_'
'toes_'
'toast_'
'tlin'
'tize'
'tisn_'
'tish'
'tip'
'tional'
'tio'
'tin_'
'tighte'
'tides_'
'ticles_'
'ticket_'
'tica'
'tibia_'
'tian_'
'tial_'
'tia'
'ti_'
'thum'
'thrust_'
'thrown_'
'throughout_'
'thri'
'threats_'
'threatening_'
'threat_'
'though'
'tho'
'thm'
'thirsty_'
'thir'
'thinner_'
'thick_'
'therm'
'theirs_'
'theater_'
'thank'
'thang_'
'tf'
'texted_'
'text_'
'text'
'testif'
'ters_'
'territory_'
'tero'
'tern'
'tension_'
'tense_'
'tendency_'
'tende'
'tempt'
'temper'
'telep'
'teenager_'
'teen'
'tect'
'techniques_'
'techni'
'tears_'
'teach'
'tax_'
'tave'
'tau'
'tat'
'tas'
'targeted_'
'tapp'
'tank_'
'tance_'
'tan_'
'talks_'
'talent'
'tak'
'tad'
'tactical_'
'tables_'
's에'
'syr'
'synthetic'
'syn'
'symp'
'symbol'
'sworn_'
'swollen_'
'swell_'
'sweating_'
'swan'
'swallowed_'
'suture'
'sustained_'
'suspen'
'suspected_'
'survives_'
'surrounding_'
'surrender'
'surp'
'surely_'
'sur'
'supportive_'
'supporting_'
'supporter'
'supers'
'supern'
'superiors_'
'superior'
'superhe'
'superco'
'sunny_'
'summ'
'suitcase'
'suggesting_'
'suggest'
'suffocat'
'sufficient_'
'suff'
'sudden_'
'sucke'
'successful'
'succeeded_'
'succeed_'
'subt'
'substan'
'subs'
'subma'
'subj'
'stupid'
'stun'
'stuff'
'studio_'
'struggle'
'stru'
'string'
'strict_'
'stretch'
'streak_'
'stre'
'straw_'
'straw'
'strati'
'strangled_'
'strain_'
'strai'
'stop'
'stoo'
'stirr'
'stimulat'
'stern'
'stenc'
'stem_'
'sted_'
'steam_'
'stations_'
'static_'
'staple'
'standards_'
'standard_'
'stand'
'stamp_'
'stalk'
'stal_'
'stake'
'staffed_'
'stabilize_'
'stabb'
'ssors_'
'ssion_'
'ssing_'
'ssi'
'sses_'
'ssa_'
'squir'
'squeeze'
'squad_'
'spre'
'spra'
'spout'
'spotlight_'
'sport_'
'spoo'
'spokes'
'spla'
'spit'
'spirit'
'spiral'
'spine_'
'spinal_'
'spilled_'
'spider_'
'spect'
'specific_'
'speci'
'sources_'
'sorts_'
'sorti'
'sop'
'soo'
'sonat'
'sometime_'
'solved_'
'solve_'
'solit'
'soft'
'sof'
'sodium_'
'sode_'
'sock_'
'soc'
'sobb'
'sob'
'soak'
'snuff_'
'snowed_'
'sno'
'sniffe'
'sneak'
'snap'
'snake_'
'smuggle'
'smother'
'smith'
'smiles_'
'smash'
'smart'
'smaller_'
'smack'
'slug'
'slightest_'
'slight_'
'slice'
'skirt_'
'skip_'
'skinny_'
'ski_'
'sizes_'
'sire'
'sion'
'sings_'
'simp'
'silence_'
'significant'
'signed_'
'signa'
'sights_'
'sigh'
'sie'
'sidelines_'
'sickness'
'sickl'
'sicario'
'sibl'
'sibilit'
'shy_'
'shutt'
'shrin'
'showers_'
'shout_'
'should'
'shortage_'
'shore'
'shiver'
'shithead'
'shipping_'
'shipm'
'shiny_'
'shin'
'shik_'
'shell_'
'shell'
'shee'
'shave_'
'sharp'
'shark'
'shari'
'shar'
'shapes_'
'shaped_'
'shakes'
'shak'
'sex'
'sew'
'severed_'
'sever'
'set'
'session_'
'series_'
'seque'
'separate_'
'sentimental_'
'sentenced_'
'sent'
'sensitiv'
'sends_'
'senator_'
'senate_'
'sen_'
'sen'
'semi'
'sells'
'selfie_'
'seco'
'seats_'
'sealed_'
'seal_'
'sda'
'scular'
'scrubs_'
'scrubb'
'screen_'
'screech_'
'screech'
'scrape'
'scrap'
'scramble'
'scra'
'scout_'
'scour'
'scorpion_'
'scientific_'
'schm'
'scheme_'
'schem'
'sch'
'scenes_'
'scenario_'
'scen'
'scatter'
'scarf_'
'scarce'
'scanner_'
'scalpel'
'sb_'
'saving'
'save'
'satisfied_'
'sar'
'sandwich'
'sand_'
'salvation_'
'sai'
'safer_'
'sadness'
'sab'
'ryin'
'rva'
'rumbling'
'ruit'
'ruin_'
'rug_'
'ruff'
'ruc'
'rubb'
'rub_'
'rts_'
'rto'
'rth'
'rt_'
'rsh'
'rry'
'rre'
'rpo'
'rp'
'royal_'
'rov'
'route_'
'rout'
'rous_'
'round'
'rotten_'
'roster_'
'ros_'
'root'
'rook'
'ront'
'roma'
'rom'
'roller_'
'roi'
'rod'
'robbe'
'rn'
'rle'
'rk_'
'ritual'
'rite'
'rising_'
'ripp'
'rim'
'righte'
'rient'
'rics_'
'riches'
'ribe_'
'ria_'
'rgi'
'revolutionary_'
'reve'
'returning_'
'rethink'
'reta'
'ret_'
'result_'
'restore'
'restor'
'ression'
'response_'
'respond'
'resp'
'residen'
'reservation'
'rescuing_'
'rescue_'
'res'
'reported_'
'report'
'replie'
'repaired_'
'rent_'
'rene'
'rend'
'removed_'
'remote_'
'remodel_'
'reminded_'
'remembered_'
'remember'
'remake'
'rely_'
'rell'
'rele'
'relaxe'
'relatives_'
'relativ'
'rejoi'
'reins'
'reinforcements_'
'regulat'
'regist'
'regiment_'
'regards_'
'refusal_'
'refresh'
'refr'
'reflect'
'refine'
'refere'
'refer_'
'ref'
'reduced_'
'reduc'
'redirect'
'recu'
'rect'
'recruit'
'recovery_'
'recover'
'recorded_'
'recons'
'recon'
'recommendation_'
'recommend_'
'recognise_'
'recogni'
'reckless_'
'rece'
'rebel'
'reacti'
'rdo'
'rdina'
'rch'
'rav'
'rattl'
'ratt'
'rats_'
'ration_'
'rami'
'rall'
'ral_'
'raising_'
'rage_'
'radiation'
'rade_'
'rad'
'ract'
'raced_'
'rabl'
'quoi'
'quitt'
'quin'
'quiet'
'questioning_'
'questi'
'ques'
'quen'
'quantity_'
'qualifie'
'quadra'
'q_'
'py_'
'push'
'pus'
'pursuing_'
'purple'
'pur'
'puppet_'
'pupil_'
'punch_'
'punch'
'pulmonary_'
'pulls_'
'pulated_'
'pudding_'
'public'
'pty_'
'ptu'
'psychologi'
'psycho'
'psychic'
'psi'
'providing_'
'provide_'
'provide'
'proved_'
'protest'
'protect'
'propert'
'prompt_'
'promote'
'programmed_'
'profound'
'profile'
'profession'
'procedures_'
'proce'
[...]
