'<pad>_'
'<EOS>_'
', _'
'._'
'the_'
'of_'
'и_'
'_'
'to_'
'в_'
''_'
'and_'
'. _'
'I_'
'in_'
'a_'
'-_'
's_'
'?_'
'you_'
'/_'
'that_'
'на_'
'for_'
'on_'
'с_'
'- _'
' (_'
'по_'
'не_'
'а_'
'что_'
'it_'
'е_'
'is_'
't_'
'The_'
') _'
'о_'
'be_'
'with_'
'!_'
'я_'
'was_'
'have_'
'as_'
'by_'
'this_'
'й_'
'для_'
'у_'
'You_'
'м_'
'к_'
'not_'
'at_'
'1_'
'are_'
'me_'
'В_'
'm_'
'Я_'
'It_'
'we_'
'..._'
';_'
'х_'
'ы_'
're_'
'or_'
'all_'
'an_'
'from_'
'2_'
'года_'
'd_'
'your_'
'A_'
'; _'
',_'
'my_'
'... _'
'ing_'
'he_'
'за_'
' "_'
'can_'
'3_'
'как_'
' - _'
'также_'
'its_'
'e_'
'know_'
'или_'
': _'
'от_'
'will_'
'это_'
'been_'
'его_'
'их_'
'were_'
'out_'
'United_'
'ed_'
'had_'
'do_'
'4_'
'Объединенных_'
'Наций_'
'ты_'
'5_'
'what_'
'го_'
')._'
'just_'
'y_'
'which_'
'из_'
'has_'
'Организации_'
'about_'
'up_'
'We_'
'And_'
'ть_'
'their_'
'one_'
'то_'
'but_'
'don_'
'(_'
'ой_'
'like_'
'Nations_'
'would_'
'there_'
'll_'
'ю_'
'get_'
'), _'
'they_'
'so_'
'should_'
'In_'
'right_'
've_'
'ая_'
'here_'
'her_'
'чтобы_'
'6_'
'Committee_'
'He_'
'бы_'
'он_'
'ом_'
'все_'
'General_'
'No_'
'him_'
'Это_'
'What_'
'ми_'
'other_'
'his_'
'got_'
'т_'
'no_'
'8_'
'ую_'
'if_'
'who_'
'lt_'
'7_'
'но_'
'That_'
'ь_'
'том_'
'будет_'
'И_'
'gt_'
'international_'
':_'
'time_'
'now_'
'мы_'
';&_'
'also_'
'которые_'
'ли_'
'go_'
'development_'
'ся_'
'А_'
')_'
'меня_'
'10_'
'ее_'
'Ты_'
'she_'
'our_'
'области_'
'us_'
'S_'
'them_'
'States_'
'9_'
'"_'
'того_'
'л_'
'think_'
'countries_'
'человека_'
'было_'
'Oh_'
'Well_'
'need_'
'work_'
'some_'
'take_'
'did_'
'es_'
'report_'
'Mr_'
'But_'
'этой_'
'был_'
'" _'
'want_'
'see_'
'more_'
'back_'
'при_'
'could_'
'мне_'
'более_'
'such_'
'Council_'
'ов_'
'This_'
'были_'
'же_'
'ый_'
'так_'
'two_'
'these_'
'gonna_'
'ей_'
'n_'
'rights_'
'going_'
'into_'
'when_'
'made_'
'развития_'
'well_'
'этого_'
'году_'
'any_'
'ых_'
'об_'
'быть_'
'only_'
'тебя_'
'So_'
'ем_'
'way_'
'b_'
'Он_'
'how_'
'C_'
'отношении_'
'good_'
'связи_'
'между_'
'всех_'
'under_'
'ые_'
'ого_'
'make_'
'может_'
'до_'
'resolution_'
'r_'
'"._'
'С_'
'session_'
'people_'
'ly_'
'со_'
'human_'
'она_'
'ет_'
'first_'
'Commission_'
'н_'
'вопросам_'
'время_'
'over_'
'прав_'
'those_'
'said_'
'Assembly_'
'&_'
'если_'
'Yeah_'
'тем_'
'new_'
'They_'
'There_'
'рамках_'
'вы_'
'years_'
'come_'
'She_'
'If_'
'30_'
'соответствии_'
'когда_'
'Мы_'
'женщин_'
'Что_'
'Да_'
'i_'
'say_'
'man_'
'14_'
'только_'
'они_'
'2000_'
'15_'
'before_'
'деятельности_'
'didn_'
'этом_'
'E_'
'1995_'
'является_'
'50_'
'12_'
'была_'
'then_'
'er_'
'Secretary_'
'? _'
'ла_'
'too_'
'support_'
'им_'
'ие_'
'where_'
'Government_'
'1994_'
'США_'
'International_'
'сессии_'
'activities_'
'му_'
'во_'
'Republic_'
'2001_'
'целях_'
'ами_'
'information_'
'including_'
'c_'
'резолюции_'
'very_'
'down_'
'against_'
'11_'
'работы_'
'долл_'
'На_'
'may_'
'l_'
'than_'
'tell_'
'must_'
'women_'
'give_'
'g_'
'1999_'
'который_'
'Не_'
'Конвенции_'
'something_'
'ng_'
'20_'
'стран_'
'Комитет_'
'through_'
'ться_'
'есть_'
'Convention_'
'13_'
'этих_'
'Как_'
'State_'
'У_'
'use_'
'per_'
'never_'
'being_'
'al_'
'000_'
'права_'
'включая_'
'national_'
'mean_'
'between_'
'Hey_'
'! _'
'чем_'
'меры_'
'еще_'
'country_'
'L_'
'своей_'
'system_'
'под_'
'Совета_'
'really_'
'o_'
'1998_'
'1996_'
'тебе_'
'секретаря_'
'нет_'
'государств_'
'безопасности_'
'much_'
'little_'
'let_'
'How_'
'19_'
'0_'
' &_'
'ое_'
'которых_'
'будут_'
'ам_'
'образом_'
'Генерального_'
'place_'
'number_'
'am_'
'At_'
'16_'
'Но_'
'day_'
'2002_'
'17_'
'ым_'
'shall_'
'23_'
'1997_'
'ных_'
'life_'
'implementation_'
'All_'
'уже_'
'после_'
'могут_'
'год_'
'meeting_'
'measures_'
'ion_'
'find_'
'Why_'
'1993_'
'18_'
'осуществления_'
'должны_'
'государства_'
'programme_'
'even_'
'cooperation_'
'системы_'
'помощи_'
'мира_'
'h_'
'21_'
'ходе_'
'issues_'
'because_'
'2003_'
'следует_'
'других_'
'thing_'
'still_'
'organizations_'
'ные_'
'страны_'
'обеспечения_'
'ах_'
'process_'
'order_'
'law_'
'after_'
'resources_'
'D_'
'Она_'
'year_'
'тся_'
'да_'
'regional_'
'able_'
'Add_'
'просто_'
'период_'
'вас_'
'Нет_'
'paragraph_'
'members_'
'draft_'
'Special_'
'те_'
'качестве_'
'world_'
'non_'
'My_'
'Don_'
'. - _'
'ют_'
'программы_'
'положения_'
'ни_'
'Генеральной_'
'look_'
'Development_'
'31_'
'."_'
'этот_'
'лет_'
'ки_'
'ка_'
'Если_'
'why_'
'night_'
'25_'
' -- _'
'которая_'
'off_'
'doing_'
'children_'
'article_'
'своих_'
'правам_'
'лиц_'
'ется_'
'three_'
'services_'
'provided_'
'22_'
'' _'
'членов_'
'частности_'
'информации_'
'Ну_'
'level_'
'Rights_'
'ной_'
'particular_'
'last_'
'health_'
'case_'
'шь_'
'них_'
'ия_'
'без_'
'О_'
'Вы_'
'social_'
'help_'
'again_'
'основе_'
'организации_'
'efforts_'
'economic_'
'Yes_'
'2004_'
'without_'
'love_'
'further_'
'Okay_'
'уровне_'
'most_'
'k_'
'de_'
'both_'
'Is_'
'December_'
'As_'
'40_'
'sure_'
'period_'
'does_'
'assistance_'
'Security_'
'Human_'
'Do_'
'2007_'
'", _'
'против_'
'международного_'
'доклад_'
'during_'
'Let_'
'этим_'
'эти_'
'числе_'
'мер_'
'ООН_'
'old_'
'each_'
'cent_'
'Just_'
'II_'
'B_'
'себя_'
'детей_'
'внимание_'
'Так_'
'Кроме_'
'within_'
'talk_'
'Conference_'
'24_'
'там_'
'сотрудников_'
'used_'
'thought_'
'taken_'
'p_'
'own_'
'okay_'
'home_'
'anything_'
'пункт_'
'дня_'
'programmes_'
'possible_'
'peace_'
'long_'
'always_'
'To_'
'Now_'
'ыми_'
'усилия_'
'средств_'
'сотрудничества_'
'случае_'
'проект_'
'обеспечить_'
'можно_'
'международных_'
'которое_'
'ий_'
'Безопасности_'
'situation_'
'security_'
'second_'
'legal_'
'better_'
'adopted_'
'49_'
'2005_'
'знаю_'
'группы_'
'ts_'
'since_'
'present_'
'political_'
'might_'
'important_'
'ation_'
'already_'
'сь_'
'сейчас_'
'свою_'
'свои_'
'решения_'
'населения_'
'нас_'
'которой_'
'вопросов_'
'reports_'
'police_'
'financial_'
'ensure_'
'community_'
'27_'
'2006_'
'результате_'
'очень_'
'вопрос_'
'По_'
'Ассамблеи_'
'special_'
'same_'
'related_'
'parties_'
'decision_'
'Group_'
'For_'
'Come_'
'статьи_'
'ресурсов_'
'ный_'
'здесь_'
'Республика_'
'working_'
'took_'
'put_'
'public_'
'part_'
'leave_'
'кто_'
'Они_'
'won_'
'held_'
'away_'
'сти_'
'политики_'
'лишь_'
'question_'
'management_'
'done_'
'areas_'
'29_'
'2009_'
'либо_'
'ить_'
'действий_'
'где_'
'г_'
'provide_'
'left_'
'call_'
'basis_'
'around_'
'action_'
'accordance_'
'стороны_'
'помощь_'
'должен_'
'вопросу_'
'trying_'
'things_'
'set_'
'persons_'
'party_'
'money_'
'New_'
');_'
'целью_'
'хотел_'
'странах_'
'проведения_'
'мой_'
'жизни_'
'деятельность_'
'данных_'
'всё_'
'больше_'
'relevant_'
'next_'
'name_'
'following_'
'Then_'
'THE_'
'Office_'
'European_'
'28_'
'такие_'
'право_'
'должно_'
'должна_'
'всем_'
'means_'
'many_'
'Not_'
'Economic_'
'Are_'
'таких_'
'расходов_'
'программ_'
'принять_'
'ного_'
'него_'
'всего_'
'вопросы_'
'ать_'
'today_'
'respect_'
'regard_'
'please_'
'ies_'
'guy_'
'found_'
'feel_'
'everything_'
'established_'
'course_'
'Your_'
'Programme_'
'Africa_'
'управления_'
'раз_'
'органов_'
'организаций_'
'нам_'
'защиты_'
'Мне_'
'son_'
'role_'
'policy_'
'la_'
'importance_'
'given_'
'developing_'
'continue_'
'coming_'
'ce_'
'building_'
'51_'
'1992_'
' $_'
'ются_'
'см_'
'поддержки_'
'подготовки_'
'Республики_'
'Комитета_'
'tion_'
'real_'
'person_'
'needs_'
'keep_'
'guys_'
'family_'
'President_'
'52_'
'2008_'
'): _'
'цели_'
'учетом_'
'один_'
'ния_'
'касающихся_'
'декабря_'
'Комиссии_'
'Г_'
'told_'
'th_'
'rs_'
'review_'
'nothing_'
'ment_'
'house_'
'great_'
'full_'
'ever_'
'education_'
'doesn_'
'cases_'
'based_'
'Working_'
'Social_'
'On_'
'Look_'
'сть_'
'потенциала_'
'необходимо_'
'людей_'
'использования_'
'информацию_'
'имеет_'
'говорит_'
'necessary_'
'less_'
'fact_'
'end_'
'Where_'
'Organization_'
') (_'
'ями_'
'тех_'
'развитию_'
'проекта_'
'поддержку_'
'нужно_'
'касается_'
'ись_'
'ии_'
'достижения_'
'д_'
'годы_'
'while_'
'every_'
'believe_'
'When_'
'T_'
' № _'
'♪ _'
'являются_'
'оружия_'
'ней_'
'ение_'
'ему_'
'доклада_'
'возможности_'
'Совет_'
'Вот_'
'meetings_'
'lot_'
'general_'
'effective_'
'called_'
'OF_'
'God_'
'Did_'
'48_'
', "_'
'ях_'
'хочу_'
'времени_'
'trade_'
'taking_'
'specific_'
'region_'
'kind_'
'group_'
'delegation_'
'agenda_'
'32_'
'услуг_'
'территории_'
'статье_'
'собой_'
'работе_'
'перед_'
'ку_'
'К_'
'wrong_'
'view_'
'st_'
'sorry_'
'population_'
'men_'
'item_'
'days_'
'concerning_'
'attention_'
'among_'
'One_'
'African_'
'26_'
'через_'
'ним_'
'ние_'
'могу_'
'даже_'
'yet_'
'whole_'
'water_'
'until_'
'together_'
'show_'
'protection_'
'point_'
'local_'
'least_'
'data_'
'care_'
'World_'
'Good_'
'Get_'
'Can_'
'60_'
'течение_'
'среди_'
'содействия_'
'национальных_'
'ло_'
'значение_'
'sustainable_'
'staff_'
'proposed_'
'particularly_'
'matter_'
'isn_'
'available_'
'armed_'
'account_'
'above_'
']_'
'These_'
'July_'
'100_'
'уровня_'
'соответствующих_'
'связанных_'
'путем_'
'пункта_'
'почему_'
'особенно_'
'образования_'
'никогда_'
'нибудь_'
'докладе_'
'группа_'
'вам_'
'technical_'
'submitted_'
'stop_'
'having_'
'enough_'
'considered_'
'came_'
'budget_'
'bodies_'
'ble_'
'best_'
'bad_'
'appropriate_'
'[_'
'R_'
'Maybe_'
'May_'
'III_'
'Governments_'
'Because_'
'); _'
'учреждений_'
'такой_'
'рекомендации_'
'проблемы_'
'общего_'
'контексте_'
'Конференции_'
'wanted_'
'third_'
'someone_'
'ry_'
'representative_'
'recommendations_'
'problems_'
'nuclear_'
'noted_'
'line_'
'issue_'
'increase_'
'future_'
'father_'
'far_'
'date_'
'Women_'
':: _'
' '_'
'числа_'
'участие_'
'различных_'
'развитие_'
'работу_'
'применения_'
'представить_'
'порядке_'
'настоящее_'
'мая_'
'другие_'
'годов_'
'Ассамблея_'
'saw_'
'project_'
'mind_'
'kill_'
'happened_'
'girl_'
'different_'
'cost_'
'capacity_'
'Rapporteur_'
'P_'
'June_'
'Department_'
'CN_'
'00_'
'ься_'
'части_'
'стране_'
'согласно_'
'развивающихся_'
'правительство_'
'персонала_'
'ось_'
'оно_'
'новых_'
'жизнь_'
'государствами_'
'status_'
'statement_'
'provisions_'
'making_'
'head_'
'getting_'
'friends_'
'change_'
'another_'
'Iraq_'
'Declaration_'
'August_'
'34_'
' _'
'счет_'
'решение_'
'проблем_'
'поскольку_'
'основных_'
'лся_'
'котором_'
'деле_'
'Однако_'
'understand_'
'training_'
'term_'
'te_'
'required_'
'representatives_'
'military_'
'ic_'
'ers_'
'decisions_'
'consider_'
'child_'
'ask_'
'November_'
'Law_'
'45_'
'2010_'
'--_'
' [_'
'—_'
'экспертов_'
'человек_'
'процесса_'
'осуществление_'
'ому_'
'необходимость_'
'ими_'
'должностей_'
'возможность_'
'various_'
'plan_'
'past_'
'once_'
'job_'
'five_'
'f_'
'en_'
'else_'
'control_'
'authorities_'
'National_'
'His_'
'целей_'
'такого_'
'средства_'
'роль_'
'рассмотрения_'
'р_'
'процента_'
'относительно_'
'ок_'
'одной_'
'лись_'
'комитета_'
'июля_'
'ию_'
'ешь_'
'борьбы_'
'Председатель_'
'ЕЭК_'
'wouldn_'
'upon_'
'subject_'
'room_'
'relating_'
'play_'
'nt_'
'member_'
'involved_'
'institutions_'
'humanitarian_'
'gone_'
'food_'
'documents_'
'deal_'
'current_'
'conditions_'
'bring_'
'area_'
'October_'
'However_'
'Article_'
'57_'
'55_'
'33_'
'2012_'
' “_'
'ч_'
'торговли_'
'странам_'
'сделать_'
'своего_'
'пока_'
'переговоров_'
'млн_'
'мере_'
'лица_'
'которым_'
'ко_'
'ен_'
'данные_'
'У'
'Председателя_'
'Все_'
'wasn_'
'reason_'
'pay_'
'lost_'
'le_'
'knew_'
'ity_'
'high_'
'hear_'
'continued_'
'contained_'
'consideration_'
'concerned_'
'bit_'
'annex_'
'Uh_'
'Report_'
'Palestinian_'
'F_'
'Action_'
'56_'
'54_'
'41_'
'2011_'
'% _'
'’_'
'ью_'
'членами_'
'хорошо_'
'участия_'
'случаях_'
'пятьдесят_'
'пункте_'
'процедуры_'
'правительства_'
'одного_'
'ная_'
'назад_'
'надо_'
'менее_'
'заседании_'
'её_'
'думаю_'
'другими_'
'вновь_'
'text_'
'systems_'
'sector_'
'problem_'
'operations_'
'office_'
'live_'
'impact_'
'groups_'
'fully_'
'example_'
'conflict_'
'boy_'
'body_'
'baby_'
'actually_'
'Who_'
'Russian_'
'N_'
'March_'
'37_'
'условиях_'
'тоже_'
'ской_'
'сегодня_'
'свой_'
'расходы_'
'ра_'
'проектов_'
'принятия_'
'конвенции_'
'всегда_'
'возможно_'
'ась_'
'Организация_'
'Для_'
'yourself_'
'uh_'
'therefore_'
'talking_'
'school_'
'research_'
'projects_'
'participation_'
'however_'
'hell_'
'hand_'
'ge_'
'few_'
'cause_'
'car_'
'alone_'
'access_'
'South_'
'Member_'
'Have_'
'D'
'? - _'
'67_'
'38_'
'35_'
'" (_'
' ♪_'
'та_'
'стратегии_'
'сказать_'
'связанные_'
'процентов_'
'продолжать_'
'правительством_'
'положений_'
'повестки_'
'ны_'
'некоторые_'
'лучше_'
'координации_'
'контроля_'
'день_'
'вот_'
'Эти_'
'Поэтому_'
'Комиссия_'
'И'
'whether_'
'went_'
'weapons_'
'ting_'
'themselves_'
'ted_'
'study_'
'received_'
'progress_'
'policies_'
'para_'
'note_'
'months_'
'global_'
'free_'
'four_'
'form_'
'field_'
'difficult_'
'death_'
'ch_'
'September_'
'M_'
'Fund_'
'Board_'
'April_'
'44_'
'1991_'
'/ _'
'"?_'
'ям_'
'эту_'
'члены_'
'решений_'
'размере_'
'процессе_'
'призывает_'
'ость_'
'организациями_'
'операций_'
'ным_'
'нищеты_'
'ничего_'
'над_'
'комитет_'
'кой_'
'документ_'
'групп_'
'Генеральная_'
'x_'
'war_'
'society_'
'six_'
'shot_'
'serious_'
'saying_'
'run_'
'promote_'
'prepared_'
'position_'
'million_'
'heard_'
'governmental_'
'gender_'
'framework_'
'follow_'
'environment_'
'developed_'
'decided_'
'civil_'
'ago_'
'] _'
'With_'
'Parties_'
'January_'
'H_'
'Chairman_'
'65_'
'58_'
'1990_'
'ядерного_'
'той_'
'тобой_'
'таким_'
'совещания_'
'представителей_'
'потребностей_'
'периода_'
'ное_'
'несколько_'
'например_'
'международной_'
'июня_'
'ит_'
'информация_'
'ещё_'
'ения_'
'дел_'
'государство_'
'вопроса_'
'Почему_'
'Группа_'
'wish_'
'um_'
'trust_'
'soon_'
'small_'
'self_'
'resolutions_'
'requested_'
'provides_'
'proposal_'
'poverty_'
'organization_'
'morning_'
'killed_'
'include_'
'half_'
'government_'
'couldn_'
'consultations_'
'close_'
'assessment_'
'agreed_'
'G_'
'Federation_'
'East_'
'Court_'
'Arab_'
'AC_'
'53_'
'42_'
'39_'
'— _'
'характер_'
'укрепления_'
'странами_'
'создания_'
'сказал_'
'сентября_'
'своем_'
'результатов_'
'представитель_'
'правах_'
'оценки_'
'общества_'
'мся_'
'конференции_'
'кого_'
'имя_'
'женщины_'
'дискриминации_'
'дело_'
'делать_'
'дела_'
'государствам_'
'возможностей_'
'Международного_'
'М_'
'Е_'
'wait_'
'total_'
'terms_'
'request_'
'objectives_'
'mother_'
'maybe_'
'market_'
'ions_'
'idea_'
'hold_'
'gotta_'
'friend_'
'face_'
'establishment_'
'environmental_'
'entitled_'
'criminal_'
'business_'
'age_'
'act_'
'Union_'
'Please_'
'M'
'Central_'
'America_'
'90_'
'47_'
'200_'
' '
'экономического_'
'условий_'
'три_'
'теперь_'
'считает_'
'степени_'
'социальной_'
'рекомендаций_'
'полиции_'
'повышения_'
'органами_'
'окружающей_'
'оказывать_'
'обеспечению_'
'моя_'
'можешь_'
'имеют_'
'имени_'
'знаешь_'
'борьбе_'
'С'
'О'
'Его_'
'violence_'
'try_'
'seen_'
'result_'
'phone_'
'personnel_'
'mine_'
'main_'
'later_'
'forces_'
'force_'
'facilitate_'
'equipment_'
'delegations_'
'court_'
'big_'
'address_'
'additional_'
'WP_'
'V_'
'TO_'
'Representative_'
'H'
'Dr_'
'., _'
'-- _'
' . _'
'января_'
'целом_'
'усилий_'
'труда_'
'сюда_'
'сфере_'
'способствовать_'
'сотрудничестве_'
'службы_'
'семьи_'
'районах_'
'преступления_'
'политических_'
'поддержанию_'
'отмечает_'
'осуществлении_'
'ости_'
'октября_'
'общей_'
'ном_'
'необходимости_'
'насилия_'
'мной_'
'место_'
'иметь_'
'друг_'
'документа_'
'вклад_'
'Этот_'
'Т'
'Соединенных_'
'После_'
'Кто_'
'yeah_'
'violations_'
'times_'
'requirements_'
'regarding_'
'recent_'
'planning_'
'needed_'
'mission_'
'minute_'
'meet_'
'land_'
'ke_'
'inside_'
'existing_'
'either_'
'document_'
'discrimination_'
'arrangements_'
'amount_'
'ally_'
'agreement_'
'T'
'Secretariat_'
'Like_'
'Israel_'
'I'
'February_'
'China_'
'Asia_'
'Affairs_'
'46_'
'36_'
'хотя_'
'тут_'
'тогда_'
'такое_'
'сторон_'
'содействовать_'
'систем_'
'себе_'
'резолюцию_'
'региональных_'
'принял_'
'подготовке_'
'п_'
'осуществлению_'
'ноября_'
'наиболее_'
'мероприятия_'
'мероприятий_'
'люди_'
'изменения_'
'выше_'
'власти_'
'Эта_'
'Африки_'
'z_'
'words_'
'wanna_'
'ty_'
'space_'
'sir_'
'section_'
'se_'
'regular_'
'reference_'
'read_'
'provision_'
'prevent_'
'outside_'
'ns_'
'nice_'
'nature_'
'monitoring_'
'ls_'
'looks_'
'list_'
'ling_'
'levels_'
'key_'
'increased_'
'ie_'
'husband_'
'hit_'
'happen_'
'communication_'
'behalf_'
'addressed_'
'York_'
'Y_'
'O_'
'O'
'Ms_'
'Mrs_'
'ECE_'
': "_'
'этому_'
'эта_'
'хочешь_'
'уровень_'
'статья_'
'соответствующие_'
'создание_'
'следующие_'
'ских_'
'регионе_'
'рассмотрение_'
'пути_'
'процесс_'
'пор_'
'первой_'
'обеспечение_'
'материалов_'
'ли'
'ке_'
'какой_'
'использование_'
'иностранных_'
'ием_'
'зрения_'
'здравоохранения_'
'должности_'
'действия_'
'два_'
'ЮНИСЕФ_'
'Специальный_'
'Просто_'
'Д'
'Америки_'
'wants_'
'w_'
'thus_'
'team_'
'stay_'
'stated_'
'service_'
'sent_'
'secretariat_'
'rules_'
'reporting_'
'reported_'
'quality_'
'proposals_'
'private_'
'practice_'
'open_'
'missions_'
'mentioned_'
'looking_'
'light_'
'led_'
'individuals_'
'hours_'
'hope_'
'fine_'
'energy_'
'dead_'
'dated_'
'comprehensive_'
'clear_'
'centres_'
'arms_'
'anyone_'
'See_'
'E'
'Director_'
'A'
'80_'
'400_'
' — _'
'” _'
'число_'
'среды_'
'свое_'
'руководящих_'
'роли_'
'разработке_'
'производства_'
'практике_'
'потому_'
'плане_'
'однако_'
'одна_'
'обеспечивать_'
'механизмов_'
'местных_'
'которого_'
'категории_'
'интересах_'
'защите_'
'другой_'
'делегация_'
'выполнения_'
'вопросах_'
'видов_'
'виде_'
'Тебе_'
'ПРООН_'
'Миссии_'
'М'
'Давай_'
'А'
'word_'
'towards_'
'ter_'
'strengthening_'
'standards_'
'ring_'
'rather_'
'procedures_'
'ons_'
'often_'
'official_'
'ne_'
'matters_'
'major_'
'letter_'
'legislation_'
'individual_'
'ii_'
'hard_'
'guess_'
'fire_'
'expressed_'
'evidence_'
'ethnic_'
'et_'
'especially_'
'ent_'
'dad_'
'context_'
'brought_'
'asked_'
'approved_'
'agencies_'
'administrative_'
'acts_'
'U'
'Thank_'
'Take_'
'Protocol_'
'Kingdom_'
'Ha'
'Federal_'
'AND_'
'; (_'
'62_'
'59_'
'43_'
'ющих_'
'чего_'
'требования_'
'точки_'
'тот_'
'состава_'
'сообщества_'
'сокращения_'
'совещаний_'
'ситуации_'
'сектора_'
'ребенка_'
'просит_'
'принципы_'
'принципов_'
'приложение_'
'потребности_'
'положение_'
'оказания_'
'обслуживания_'
'ными_'
'ну_'
'найти_'
'мои_'
'лась_'
'которую_'
'именно_'
'жа_'
'второй_'
'всей_'
'внимания_'
'Программы_'
'Может_'
'Когда_'
'Е'
'ВИЧ_'
'woman_'
'week_'
'treatment_'
'substantive_'
'steps_'
'start_'
'side_'
'remain_'
'pretty_'
'post_'
'operation_'
'na_'
'myself_'
'moment_'
'known_'
'issued_'
'investment_'
'interest_'
'initiatives_'
'heart_'
'happy_'
'girls_'
'funding_'
'fucking_'
'figure_'
'experience_'
'expected_'
'conduct_'
'commitment_'
'ck_'
'check_'
'certain_'
'book_'
'behind_'
'become_'
'air_'
'adoption_'
'People_'
'Pacific_'
'Our_'
'J_'
'IV_'
'Health_'
'First_'
'Europe_'
'Bank_'
'Ah_'
'Advisory_'
'часть_'
'цель_'
'ти_'
'технологий_'
'срок_'
'сравнению_'
'резолюция_'
'реализации_'
'разработки_'
'работа_'
'прямо_'
'приложении_'
'предоставления_'
'правило_'
'поддержке_'
'обязательств_'
'областях_'
'ную_'
'новые_'
'ними_'
'нии_'
'местах_'
'марта_'
'ль'
'комиссии_'
'касающиеся_'
'ик_'
'знать_'
'здоровья_'
'доступа_'
'главным_'
'беженцев_'
'Штатов_'
'Таким_'
'Советом_'
'Пункт_'
'К'
'Договора_'
'Декларации_'
'Группы_'
'Ассамблее_'
'young_'
'yes_'
'victims_'
'using_'
'transport_'
'tomorrow_'
'technology_'
'ss_'
'several_'
'says_'
'save_'
'safety_'
'remember_'
'recommendation_'
'previous_'
'prevention_'
'ness_'
'move_'
'minutes_'
'methods_'
'met_'
'keeping_'
'included_'
'hurt_'
'hands_'
'ground_'
'goes_'
'funds_'
'finally_'
'exactly_'
'ds_'
'door_'
'die_'
'crimes_'
'cover_'
'coordination_'
'connection_'
'carried_'
'ance_'
'West_'
'UNDP_'
'Those_'
'TRANS_'
'Party_'
'OK_'
'Ministry_'
'Israeli_'
'Information_'
'Go_'
'Charter_'
'By_'
'Agreement_'
'Agency_'
'Act_'
';._'
'64_'
'ят_'
'учета_'
'участников_'
'устойчивого_'
'твой_'
'существующих_'
'соответствующими_'
'созданию_'
'сведению_'
'профессиональной_'
'провести_'
'представления_'
'представителя_'
'правда_'
'потом_'
'помощью_'
'получения_'
'отметить_'
'отметила_'
'ответственность_'
'общин_'
'немного_'
'некоторых_'
'настоящего_'
'народов_'
'могли_'
'могла_'
'конкретных_'
'кое_'
'климата_'
'й'
'двух_'
'гражданского_'
'ва_'
'бюджета_'
'буду_'
'Хорошо_'
'П_'
'Конституции_'
'wife_'
'weeks_'
'waiting_'
'u_'
'truth_'
'supposed_'
'stuff_'
'studies_'
'statements_'
'significant_'
'results_'
'relationship_'
'recognized_'
'providing_'
'property_'
'probably_'
'principles_'
'press_'
'paragraphs_'
'month_'
'labour_'
'informed_'
'gun_'
'greater_'
'front_'
'employment_'
'emergency_'
'effect_'
'economy_'
'due_'
'discussion_'
'costs_'
'concern_'
'common_'
'chance_'
'cannot_'
'ations_'
'assist_'
'approach_'
'While_'
'Right_'
'R'
'Permanent_'
'P'
'Or_'
'Minister_'
'Meeting_'
'Japan_'
'High_'
'Da'
'68_'
'61_'
'.._'
' ($_'
'ю'
'финансовых_'
'финансирования_'
'услуги_'
'содержится_'
'силу_'
'принцип_'
'отметил_'
'овать_'
'общих_'
'обращения_'
'нем_'
'национальном_'
'национальной_'
'момент_'
'моей_'
'мог_'
'много_'
'международные_'
'ишь_'
'исследований_'
'закона_'
'домой_'
'документов_'
'действие_'
'граждан_'
'государственных_'
'взносов_'
'августа_'
'Управления_'
'Специального_'
'Ре'
'Рабочей_'
'При_'
'Во_'
'whose_'
'ways_'
'walk_'
'ure_'
'thinking_'
'strong_'
'single_'
'shit_'
'response_'
'requests_'
'questions_'
'production_'
'principle_'
'preparation_'
'potential_'
'pick_'
'parents_'
'ous_'
'ors_'
'negotiations_'
'natural_'
'makes_'
'ma_'
'loss_'
'les_'
'late_'
'introduced_'
'growth_'
'giving_'
'exercise_'
'everyone_'
'cultural_'
'create_'
'conflicts_'
'changes_'
'calls_'
'along_'
'addition_'
'active_'
'achieve_'
'V'
'Stop_'
'Regional_'
'RI'
'Plan_'
'Of_'
'Listen_'
'Kuwait_'
'Here_'
'Geneva_'
'Force_'
'Environment_'
'Dad_'
'B'
'97_'
'500_'
'. (_'
'* _'
'экономической_'
'щих_'
'членам_'
'учреждениями_'
'ту'
'та'
'ство_'
'соблюдения_'
'случаев_'
'рассмотреть_'
'прогресс_'
'преступности_'
'прежнему_'
'прежде_'
'последствий_'
'полностью_'
'подход_'
'поводу_'
'охраны_'
'отец_'
'осуществляется_'
'одно_'
'обязательства_'
'обсуждения_'
'ности_'
'национального_'
'нарушений_'
'международными_'
'международным_'
'масштабов_'
'людьми_'
'л'
'контроль_'
'источников_'
'использовать_'
'занятости_'
'дополнительные_'
'докладов_'
'деньги_'
'далее_'
'говорить_'
'вать_'
'апреля_'
'Э'
'Теперь_'
'Р_'
'При'
'Потому_'
'Верховного_'
'Б'
'value_'
'v_'
'true_'
'thank_'
'strategy_'
'sleep_'
'short_'
'sh_'
'safe_'
'reduction_'
're'
'rate_'
'pursuant_'
'promotion_'
'proceedings_'
'practices_'
'lly_'
'living_'
'lives_'
'large_'
'ks_'
'kept_'
'informal_'
'improve_'
'implement_'
'haven_'
'guidelines_'
'gave_'
'fun_'
'focus_'
'fight_'
'fifty_'
'families_'
'eyes_'
'enable_'
'em_'
'el_'
'dialogue_'
'crime_'
'communities_'
'claims_'
'brother_'
'ass_'
'aren_'
'affected_'
'administration_'
'Tell_'
'Pro'
'Only_'
'Netherlands_'
';, _'
'93_'
'900_'
'63_'
'*_'
' ..._'
'ять_'
'цы_'
'хотела_'
'факт_'
'учреждения_'
'уровнях_'
'укреплению_'
'торговле_'
'тому_'
'суд_'
'согласия_'
'ские_'
'своим_'
'сам_'
'результаты_'
'процедур_'
'проведении_'
'приняла_'
'практики_'
'помочь_'
'полной_'
'органы_'
'объема_'
'объем_'
'наш_'
'многих_'
'миссии_'
'ло'
'консультации_'
'конкретные_'
'ки'
'качества_'
'каждый_'
'информацией_'
'инвалидов_'
'идет_'
'зи'
'защиту_'
'е'
'документы_'
'доклады_'
'дней_'
'делам_'
'де_'
'де'
'государственного_'
'ги'
'Я'
'Тем_'
'Сторон_'
'По'
'Нам_'
'Израиль_'
'Гаити_'
'Африке_'
'whatever_'
'undertaken_'
'ties_'
'threat_'
'territory_'
'ten_'
'subregional_'
'stand_'
'somebody_'
'si'
'sectors_'
'road_'
'responsibility_'
'ready_'
'power_'
'phase_'
'performance_'
'parts_'
'ow_'
'officials_'
'obligations_'
'news_'
'nce_'
'murder_'
'material_'
'maintenance_'
'limited_'
'lead_'
'king_'
'kid_'
'ive_'
'invited_'
'instruments_'
'implementing_'
'iii_'
'goods_'
'former_'
'facilities_'
'experts_'
'equal_'
'eat_'
'earlier_'
'ding_'
'dealing_'
'contribute_'
'collaboration_'
'chapter_'
'centre_'
'c'
'apply_'
'aimed_'
'activity_'
'a'
'Will_'
'VI_'
'Some_'
'Other_'
'Mission_'
'Ireland_'
'During_'
'Division_'
'Code_'
'C'
'Agenda_'
'After_'
'79_'
'70_'
'66_'
'юсь_'
'эффективности_'
'экономических_'
'ту_'
'ти'
'союза_'
'сообщения_'
'слово_'
'слишком_'
'си'
'секретариат_'
'свободы_'
'свидетельствует_'
'ряд_'
'ри'
'речь_'
'региона_'
'районов_'
'различными_'
'различные_'
'проведение_'
'предложения_'
'поэтому_'
'посредством_'
'последствия_'
'положениями_'
'показателей_'
'п'
'оценка_'
'обзор_'
'неправительственных_'
'необходимые_'
'нельзя_'
'нее_'
'мужчин_'
'международном_'
'ку'
'коренных_'
'комиссара_'
'ила_'
'ил_'
'задач_'
'ена_'
'доступ_'
'договора_'
'диалога_'
'делегации_'
'две_'
'вы'
'вооруженных_'
'включить_'
'видел_'
'ведь_'
'ал_'
'Штаты_'
'Хотя_'
'Ф'
'Тогда_'
'Стороны_'
'Спасибо_'
'Рабочая_'
'Правительство_'
'П'
'Ладно_'
'Ко'
'Из_'
'Б_'
'ying_'
'workers_'
'watch_'
'vote_'
'treaty_'
'transition_'
'table_'
'suggested_'
'strengthen_'
'step_'
'statistics_'
'state_'
'sound_'
'sex_'
'ses_'
'return_'
'rest_'
'reasons_'
'professional_'
'primary_'
'participants_'
'paid_'
'o'
'mom_'
'ments_'
'maintain_'
'longer_'
'justice_'
'integrated_'
'ia_'
'hour_'
'hospital_'
'holding_'
'ended_'
'drug_'
'domestic_'
'contributions_'
'conferences_'
'conducted_'
'commitments_'
'comments_'
'city_'
'charge_'
'buy_'
'benefits_'
'below_'
'ate_'
'almost_'
'agreements_'
'actions_'
'Z'
'Wait_'
'UN_'
'Sudan_'
'Since_'
'Services_'
'Rev_'
'Ka'
'Great_'
'Global_'
'Executive_'
'Croatia_'
'Criminal_'
'Constitution_'
'Centre_'
'An_'
'300_'
'€ _'
'ция_'
'ции_'
'хочет_'
'февраля_'
'учебных_'
'участники_'
'участник_'
'управление_'
'сэр_'
'существует_'
'суда_'
'стью_'
'социального_'
'состоянии_'
'содействие_'
'снова_'
'ский_'
'ская_'
'системе_'
'секретарь_'
'самом_'
'са_'
'рассмотрении_'
'продолжает_'
'прогресса_'
'предусматривает_'
'пре'
'правила_'
'положении_'
'плана_'
'отношений_'
'операции_'
'оказанию_'
'обеспечении_'
'ность_'
'ни'
'необходимых_'
'нашей_'
'начала_'
'настоящему_'
'настоятельно_'
'нами_'
'наименее_'
'мнению_'
'мире_'
'мигрантов_'
'механизм_'
'ма_'
'любой_'
'лось_'
'лицам_'
'линии_'
'консультаций_'
'йте_'
'йся_'
'ировать_'
'инициативы_'
'изменений_'
'закон_'
'емся_'
'думаешь_'
'девочек_'
'движения_'
'дать_'
'возрасте_'
'в'
'ан_'
'ЮНКТАД_'
'Управление_'
'Со'
'Республике_'
'Р'
'Острова_'
'Не'
'Ла'
'Конго_'
'Ирака_'
'Закона_'
'Генеральный_'
'Где_'
'Вас_'
'Было_'
'y'
'works_'
'welcome_'
'useful_'
'tra'
'ton_'
'tes_'
'supported_'
'supplies_'
'started_'
'site_'
'ship_'
'sessions_'
'sense_'
'risk_'
'responsible_'
'referred_'
'red_'
'recommends_'
'protect_'
'procedure_'
'preventive_'
'peoples_'
'payment_'
'others_'
'organized_'
'ms_'
'married_'
'laws_'
'itself_'
'items_'
'inter_'
'ical_'
'ial_'
'fuck_'
'freedom_'
'forest_'
'final_'
'ey_'
'estimated_'
'essential_'
'entire_'
'easy_'
'doctor_'
'direct_'
'detention_'
'des_'
'co'
'claim_'
'black_'
'biennium_'
'bed_'
'basic_'
'authority_'
'aspects_'
'asking_'
'ar_'
'applied_'
'application_'
'ahead_'
'according_'
'ability_'
'W'
'VII_'
'Two_'
'Trade_'
'Sea_'
'Ra'
'Public_'
'Peace_'
'North_'
'N'
'Implementation_'
'From_'
'Foreign_'
'Democratic_'
'Al'
'Administrative_'
'95_'
'77_'
'75_'
'109_'
')'
'! - _'
' ?_'
'школы_'
'численности_'
'центров_'
'тысячелетия_'
'товаров_'
'твоей_'
'су'
'сти'
'ства_'
'стабильности_'
'специальных_'
'социально_'
'составляет_'
'сообщество_'
'сокращение_'
'содержатся_'
'соглашения_'
'служб_'
'сил_'
'сети_'
'семье_'
'ресурсы_'
'рекомендует_'
'расширения_'
'рас'
'раньше_'
'равно_'
'пунктов_'
'принимать_'
'преступлений_'
'представляет_'
'представителями_'
'предлагается_'
'предлагает_'
'правовой_'
'получить_'
'под'
'пере'
'от'
'осуществлять_'
'около_'
'оказание_'
'обсуждение_'
'находится_'
'народа_'
'наблюдателей_'
'месте_'
'международное_'
'конфликтов_'
'ков_'
'какие_'
'иться_'
'заявление_'
'законодательства_'
'законов_'
'задачи_'
'еся_'
'действительно_'
'гражданских_'
'государственной_'
'голосования_'
'выбросов_'
'всеми_'
'вместе_'
'весьма_'
'важность_'
'будто_'
'ас'
'анализ_'
'ала_'
'Эй_'
'Ц'
'То_'
'Там_'
'Секретариат_'
'Северной_'
'Привет_'
'Постоянного_'
'Поскольку_'
'Нью_'
'НПО_'
'Н'
'Ле'
'Ки'
'Й_'
'З'
'Европы_'
'Д_'
'yours_'
'www_'
'wide_'
'victim_'
'ves_'
'turn_'
'tried_'
'top_'
'tonight_'
'terrorism_'
'supply_'
'speak_'
'situations_'
'settlement_'
'rule_'
'resource_'
'reservations_'
'reduce_'
'rates_'
'raised_'
'purpose_'
'ps_'
'pro'
'prison_'
'possibility_'
'plans_'
'periodic_'
'opportunities_'
'ongoing_'
'offer_'
'moving_'
'missing_'
'low_'
'listen_'
'internal_'
'interests_'
'institutional_'
'indicators_'
'income_'
'in'
'illicit_'
'hot_'
'higher_'
'hate_'
'forward_'
'forms_'
'fair_'
'expenditure_'
'establishing_'
'er'
'equality_'
'efficiency_'
'early_'
'e'
'dy_'
'distribution_'
'disarmament_'
'currently_'
'couple_'
'contribution_'
'considerable_'
'conference_'
'concerns_'
'client_'
'choice_'
'capital_'
'break_'
'author_'
'assets_'
'approval_'
'ant_'
'analysis_'
'Se'
'S'
'Ro'
'Panel_'
'ON_'
'Na'
'Justice_'
'John_'
'IC'
'Hello_'
'Give_'
'French_'
'Disarmament_'
'Any_'
'American_'
'AIDS_'
'84_'
'. '
'"'
' ... _'
'– _'
'чём_'
'ческой_'
'часов_'
'функций_'
'формы_'
'участниками_'
'ут'
'укрепление_'
'требуется_'
'технологии_'
'технической_'
'текст_'
'стоит_'
'стать_'
'сотрудничать_'
'соответствующего_'
'соответствует_'
'создать_'
'содержания_'
'совсем_'
'совместно_'
'совещание_'
'ского_'
'сказала_'
'сделал_'
'своими_'
'само'
'роста_'
'ри_'
'резолюций_'
'региональном_'
'ранее_'
'рабочих_'
'работать_'
'ра'
'пять_'
'пяти_'
'протяжении_'
'просила_'
'проекты_'
'программа_'
'про'
'принимает_'
'предупреждения_'
'представители_'
'предприятий_'
'праву_'
'правовых_'
'попрежнему_'
'поощрения_'
'полного_'
'политика_'
'поддерживает_'
'план_'
'первый_'
'отношения_'
'ответ_'
'основные_'
'означает_'
'обучения_'
'обзора_'
'новой_'
'несмотря_'
'настоящем_'
'направленных_'
'назначения_'
'мо'
'многие_'
'месяцев_'
'международному_'
'материалы_'
'ля'
'лицо_'
'ком_'
'использованием_'
'исполнение_'
'значит_'
'з_'
'женщинами_'
'ж_'
'ев_'
'думал_'
'достижение_'
'дома_'
'дом_'
'должность_'
'документе_'
'докладчик_'
'деятельностью_'
'делу_'
'данному_'
'группе_'
'государством_'
'га_'
'г'
'вопросами_'
'во'
'вз'
'веществ_'
'важное_'
'важно_'
'бедствий_'
'б'
'анализа_'
'ан'
'ает_'
'Сомали_'
'Согласно_'
'Секретариата_'
'Российской_'
'Раз'
'Про'
'Пакта_'
'Кон'
'Ка'
'За_'
'Женеве_'
'Есть_'
'Думаю_'
'Г'
'Ва'
'В'
'Азии_'
'zation_'
'ya'
'workshops_'
'witness_'
'views_'
'unless_'
'ual_'
'though_'
'task_'
'takes_'
'submit_'
'sort_'
'sometimes_'
'sha'
'serve_'
'sa'
'regulations_'
'reform_'
'recommended_'
'que_'
'price_'
'perfect_'
'ped_'
'pa'
'p'
'overall_'
'oh_'
'none_'
'ne'
'medium_'
'mandate_'
'lie_'
'language_'
'knows_'
'investigation_'
'interpretation_'
'instead_'
'ins_'
'indigenous_'
'indicated_'
'improving_'
'huh_'
'housing_'
'hey_'
'gi'
'gets_'
'forget_'
'expert_'
'everybody_'
'establish_'
'elements_'
'eight_'
'economies_'
'duties_'
'dog_'
'designed_'
'demand_'
'daughter_'
'dangerous_'
'ct_'
'covered_'
'contract_'
'concluded_'
'civilian_'
'carry_'
'car'
'blood_'
'beautiful_'
'awareness_'
'art_'
'answer_'
'allowed_'
'allow_'
'ain_'
'aim_'
'ah_'
'afraid_'
'abuse_'
'Um_'
'Ti'
'Thanks_'
'Ta'
'Summit_'
'Such_'
'Spanish_'
'Sam_'
'SC_'
'Po'
'Per'
'Pakistan_'
'Non_'
'NGOs_'
'Ministers_'
'Management_'
'Lo'
'Li'
'La'
'L'
'Jordan_'
'Je'
'HIV_'
'Germany_'
'France_'
'Do'
'Covenant_'
'Countries_'
'Cooperation_'
'Chief_'
'Car'
'Canada_'
'According_'
'?"_'
'94_'
'85_'
'81_'
'76_'
'700_'
'. "_'
'.'
' – _'
'ёт_'
'экономические_'
'ье_'
'щие_'
'ши'
'ческого_'
'че_'
'цию_'
'ци'
'функционирования_'
'форм_'
'участнику_'
'ут_'
'улучшения_'
'улучшению_'
'увеличение_'
'технического_'
'терроризма_'
'твоя_'
'т'
'судебной_'
'статьей_'
'статус_'
'сотрудника_'
'соответствующим_'
'сокращению_'
'случилось_'
'следующих_'
'силы_'
'сведения_'
'с'
'родителей_'
'ресурсами_'
'расширение_'
'распространения_'
'разоружения_'
'развитых_'
'равенства_'
'р'
'пункту_'
'протокола_'
'просьбой_'
'проводить_'
'приняли_'
'предоставление_'
'предложение_'
'пред'
'постановляет_'
'пос'
'первую_'
'первого_'
'очередь_'
'оценке_'
'отчетности_'
'отсутствие_'
'основании_'
'определения_'
'опасности_'
'ол'
'обязанностей_'
'обычно_'
'национальные_'
'нарушения_'
'молодежи_'
'много'
'мин_'
'места_'
'мерах_'
'массовой_'
'м'
'ликвидации_'
'ладно_'
'куда_'
'консенсуса_'
'кодекса_'
'исследования_'
'инфраструктуры_'
'информационно_'
'ид'
'заявил_'
'заключается_'
'ете_'
'добровольцев_'
'двухгодичный_'
'государству_'
'высокого_'
'выполнению_'
'вшихся_'
'всю_'
'вообще_'
'ви'
'весь_'
'важных_'
'благодаря_'
'ари'
'активно_'
'ав'
'Х'
'Соединенные_'
'Совету_'
'Проект_'
'Пре'
'ОС'
'Несмотря_'
'Например_'
'Можно_'
'Международной_'
'МАГАТЭ_'
'Конференция_'
'Конечно_'
'Европейского_'
'Всё_'
'Возможно_'
'Вместе_'
'x'
'worry_'
'workshop_'
'welcomed_'
'violation_'
'uni'
'undertake_'
'understanding_'
'type_'
'twenty_'
'trouble_'
'tions_'
'test_'
'ta'
'successful_'
'story_'
'source_'
'shouldn_'
'send_'
'seems_'
'seem_'
'ru'
'requires_'
'remains_'
'relation_'
'receive_'
'products_'
'priority_'
'pre_'
'poor_'
'physical_'
'partners_'
'papers_'
'opportunity_'
'operational_'
'officers_'
'occupation_'
'obligation_'
'objective_'
'numbers_'
'near_'
'nd_'
'music_'
'middle_'
'meant_'
'lu'
'ley_'
'lady_'
'lack_'
'k'
'joint_'
'je'
'ja'
'independent_'
'increasing_'
'improvement_'
'goal_'
'glad_'
'generally_'
'functions_'
'foreign_'
'flight_'
'fifth_'
'emphasized_'
'effectively_'
'drink_'
'discussions_'
'discuss_'
'dis'
'developments_'
'develop_'
'destruction_'
'der_'
'd'
'cool_'
'continues_'
'construction_'
'concrete_'
'compliance_'
'combat_'
'collection_'
'clean_'
'changed_'
'challenges_'
'boys_'
'ba'
'ated_'
'articles_'
'arrest_'
'alive_'
'ad_'
'YOU_'
'X_'
'University_'
'U_'
'UNHCR_'
'UNEP_'
'Sustainable_'
'Red_'
'Officer_'
'K'
'Italy_'
'Islamic_'
'ING_'
'G'
'Everything_'
'English_'
'CD_'
'Bo'
'Belarus_'
'Ba'
'Austria_'
'Also_'
'AR'
'98_'
'73_'
'72_'
'600_'
'41'
'27'
'24'
'... - _'
', '_'
'# _'
'ём_'
'ясно_'
'энергии_'
'экономикой_'
'широкого_'
'шесть_'
'ше'
'ша'
'четыре_'
'четвертой_'
'чет'
'хозяйства_'
'хи'
'ха'
'фи'
'уют_'
'ущерба_'
'участником_'
'участника_'
'условия_'
'урегулирования_'
'ум'
'ует_'
'угрозу_'
'тро'
'трех_'
'сумму_'
'страна_'
'статей_'
'стандартов_'
'стало_'
'среде_'
'сотрудничество_'
'состав_'
'соответственно_'
'содержащиеся_'
'следующим_'
'система_'
'сер'
'се_'
'самым_'
'сама_'
'реформы_'
'рек'
'региональными_'
'расс'
'разоружению_'
'проектам_'
'программам_'
'причем_'
'приняты_'
'принятие_'
'применяются_'
'придется_'
'понимаю_'
'пользу_'
'получили_'
'положениям_'
'полномочий_'
'показатель_'
'показатели_'
'подхода_'
'планов_'
'передачи_'
'отдельных_'
'озабоченность_'
'одним_'
'обязанности_'
'объеме_'
'обучение_'
'обслуживание_'
'обмена_'
'нужен_'
'ночь_'
'нос'
'нных_'
'нию_'
'никаких_'
'ниже_'
'нему_'
'недавно_'
'наши_'
'наблюдения_'
'на'
'му'
'можем_'
'мир_'
'минут_'
'министров_'
'мест_'
'ма'
'ля_'
'лю_'
'ль_'
'кон'
'комитетом_'
'кадров_'
'ин_'
'ики_'
'и'
'значения_'
'знаний_'
'знает_'
'заинтересованных_'
'зависимости_'
'ж'
'ер_'
'ер'
'ед'
'другим_'
'дополнительных_'
'докладу_'
'добиться_'
'ди_'
'д'
'гуманитарной_'
'гражданской_'
'глобальной_'
'главы_'
'ги_'
'вших_'
'восьмой_'
'войны_'
'воздействие_'
'внутреннего_'
'включения_'
'включает_'
'взять_'
'большей_'
'безопасность_'
'ации_'
'Южной_'
'Ю'
'Чтобы_'
'Федерации_'
'Т_'
'Статья_'
'Си'
'Сейчас_'
'СР_'
'СИ'
'Ро'
'Ра'
'Программа_'
'Му'
'Мак'
'Консультативный_'
'Комитету_'
'Закон_'
'За'
'Деятельность_'
'Да'
'Вы'
'Более_'
'worked_'
'walking_'
'voluntary_'
'visit_'
'ving_'
'ver_'
'urgent_'
'ul'
'travel_'
'ters_'
'telling_'
'ta_'
'sub_'
'station_'
'states_'
'stage_'
'sit_'
'sing_'
'similar_'
'sharing_'
'sentence_'
'sell_'
'secret_'
'schools_'
'running_'
'round_'
'res_'
'require_'
'relations_'
'regime_'
'refugees_'
'refugee_'
'ra_'
'published_'
'prisoners_'
'pollution_'
'plenary_'
'placed_'
'piece_'
'perhaps_'
'os_'
'oil_'
'ning_'
'neither_'
'negative_'
'me'
'mar'
'man'
'majority_'
'ma'
'm'
'lower_'
'li'
'ko'
'killer_'
'ine_'
'ine'
'imprisonment_'
'immediately_'
'illegal_'
'hi'
'growing_'
'grounds_'
'goals_'
'go'
'gas_'
'ga'
'fu'
'fourth_'
'fied_'
'feeling_'
'favour_'
'f'
'es'
'ering_'
'elected_'
'effort_'
'efficient_'
'dollars_'
'debate_'
'dance_'
'da_'
'da'
'cy_'
'created_'
'courts_'
'consensus_'
'communications_'
'cold_'
'citizens_'
'circumstances_'
'capacities_'
'camera_'
'ca'
'build_'
'ball_'
'attack_'
'associated_'
'arrested_'
'ari'
'amp_'
'adequate_'
'acting_'
'across_'
'\u_'
'Yugoslavia_'
'Uruguay_'
'Training_'
'Sweden_'
'Staff_'
'So'
'Slovakia_'
'SA'
'Ri'
'Review_'
'Protection_'
'Preparatory_'
'Pa'
'Ne'
'Mexico_'
'Man_'
'Korea_'
'Ko'
'Inter'
'India_'
'Har'
'Guinea_'
'Forum_'
'Financial_'
'Fe'
'Even_'
'En'
'Discrimination_'
'De'
'Czech_'
'Community_'
'Chile_'
'Caribbean_'
'CEDAW_'
'Bosnia_'
'Be'
'Ar'
'74_'
'63'
'29'
'23'
'2013_'
'18'
'150_'
'11'
'05_'
'−_'
'ясь_'
'ядерных_'
'ядерной_'
'ющие_'
'этапе_'
'эксплуатации_'
'экологической_'
'ья_'
'ьного_'
'ших_'
'шестой_'
'четко_'
'ческих_'
'хся_'
'х'
'финансовые_'
'ущерб_'
'участвовать_'
'утверждения_'
'условии_'
'ус'
'указано_'
'указанных_'
'узнать_'
'удовлетворением_'
'уд'
'третьей_'
'тор'
'тен'
'твоего_'
'судов_'
'страну_'
'стол'
'сотрудничеству_'
'создании_'
'соглашение_'
'собственности_'
'смерти_'
'систему_'
'секретариатом_'
'рисков_'
'решении_'
'решением_'
'режима_'
'расовой_'
'районе_'
'разделе_'
'работает_'
'просил_'
'промышленности_'
'провел_'
'проведению_'
'принятых_'
'принципа_'
'применение_'
'приветствует_'
'привести_'
'премьер_'
'предусматривается_'
'предупреждению_'
'представляют_'
'представлять_'
'представляется_'
'представлен_'
'предложено_'
'правил_'
'потенциал_'
'постоянно_'
'последние_'
'понял_'
'получил_'
'политической_'
'политику_'
'пол'
'пойти_'
'позволяет_'
'поддерживать_'
'подготовку_'
'подготовка_'
'подготовить_'
'повышению_'
'письме_'
'пер'
'партии_'
'отсюда_'
'отношению_'
'относятся_'
'осуществляться_'
'ос'
'оружие_'
'организация_'
'опыта_'
'определенные_'
'он'
'ом'
'одну_'
'общем_'
'образование_'
'обмен_'
'обеспечивает_'
'об'
'нравится_'
'норм_'
'нового_'
'ний_'
'национальными_'
'находятся_'
'нарушение_'
'наказания_'
'надеюсь_'
'моря_'
'моего_'
'мое_'
'мого_'
'миру_'
'методов_'
'меньше_'
'мб'
'лет'
'которому_'
'конце_'
'ко'
'класса_'
'кажется_'
'ите_'
'исключительно_'
'интеграции_'
'изучения_'
'играть_'
'знаете_'
'зд'
'заявления_'
'заседания_'
'законы_'
'законодательство_'
'заключенных_'
'завтра_'
'завершения_'
'з'
'жу_'
'ец_'
'ера_'
'ению_'
'емые_'
'емого_'
'друзья_'
'дочь_'
'достижению_'
'договоров_'
'до'
'двумя_'
'данный_'
'группами_'
'гор'
'говорится_'
'гал'
'выполнение_'
'выводы_'
'выборов_'
'воз'
'вен'
'быстро_'
'ба'
'аться_'
'английски_'
'ай_'
'Целевой_'
'Франция_'
'То'
'Та'
'Су'
'Соглашения_'
'Совещания_'
'Протокол_'
'Письмо_'
'От'
'Организацией_'
'Оно_'
'Об'
'Новая_'
'Моя_'
'Мистер_'
'МСП_'
'Латинской_'
'Знаешь_'
'Ж'
'ЕС_'
'До'
'Всемирной_'
'Ассамблеей_'
'Ал'
'é_'
'é'
'zed_'
'yesterday_'
'worried_'
'wood_'
'w'
'vehicles_'
'vehicle_'
'tu'
'transfer_'
'trafficking_'
'traffic_'
'town_'
'torture_'
'to'
'tic_'
'throughout_'
'target_'
'subsequent_'
'students_'
'statistical_'
'standing_'
'soldiers_'
'shut_'
'shows_'
'share_'
'seven_'
'sea_'
'ro'
'religious_'
'relatively_'
'records_'
'record_'
'ratified_'
'quite_'
'quickly_'
'que'
'promoting_'
'priorities_'
'presented_'
'prepare_'
'points_'
'played_'
'ping_'
'pin'
'pi'
'peaceful_'
'outcome_'
'ory_'
'organs_'
'offices_'
'oc'
'ny_'
'nu'
'nor_'
'ng'
'nes_'
'multilateral_'
'movement_'
'mm_'
'mental_'
'medical_'
'mechanisms_'
'mad_'
'lose_'
'limit_'
'legislative_'
'leaders_'
'lawyer_'
'kids_'
'jurisdiction_'
'jobs_'
'ition_'
'ious_'
'initiative_'
'ings_'
'infrastructure_'
'implemented_'
'ideas_'
'hoped_'
'honour_'
'himself_'
'hair_'
'h'
'ger_'
'functioning_'
'ful_'
'followed_'
'felt_'
'fall_'
'exchange_'
'events_'
'event_'
'evaluation_'
'enhance_'
'engaged_'
'ei'
'effects_'
'dream_'
'discussed_'
'directly_'
'difficulties_'
'democratic_'
'critical_'
'considers_'
'confidence_'
'conclusions_'
'comes_'
'climate_'
'ck'
'cha'
'ces_'
'central_'
'caused_'
'calling_'
'bly_'
'bi'
'beyond_'
'base_'
'ban'
'bag_'
'appear_'
'anymore_'
'alternative_'
'alleged_'
'alia_'
'agricultural_'
'agree_'
'achieved_'
'accounts_'
'ac'
'X'
'Would_'
'Whoa_'
'Was_'
'WHO_'
'Vice_'
'VIII_'
'US_'
'UNCTAD_'
'Turkey_'
'Tunisia_'
'Treaty_'
'Third_'
'Si'
'Second_'
'SR_'
'Romania_'
'Put_'
'Pre'
'Poland_'
'Official_'
'Northern_'
'Never_'
'Most_'
'More_'
'Millennium_'
'Ma'
'London_'
'Letter_'
'Leave_'
'Joint_'
'Ja'
'Herzegovina_'
'GRB_'
'FOR_'
'F'
'Everyone_'
'Energy_'
'Education_'
'Di'
'DI'
'Cuba_'
'Coordination_'
'Congo_'
'Commissioner_'
'Children_'
'Cause_'
'Bureau_'
'Authority_'
'Australia_'
'Association_'
'Ab'
': '
'80'
'71_'
'69_'
'30'
'.. _'
', '
'ёшь_'
'ёл_'
'ё'
'ятся_'
'я'
'экономики_'
'э_'
'ь'
'школе_'
'шести_'
'ша_'
'числу_'
'чик_'
'честь_'
'часто_'
'частного_'
'час_'
'хо'
'характера_'
'ха_'
'функции_'
'фондов_'
'фо'
'финансовой_'
'финансирование_'
'ф'
'учреждениях_'
'учитывая_'
'участвующих_'
'утверждение_'
'утверждает_'
'ун'
'уж_'
'трудящихся_'
'точно_'
'топлива_'
'тесь_'
'терроризмом_'
'территорий_'
'такую_'
'сторонами_'
'сто'
'стали_'
'стал_'
'ссылаясь_'
'специальной_'
'союз_'
'социальных_'
'состоит_'
'сорок_'
'содержит_'
'совета_'
'со'
'следующий_'
'следующей_'
'следующее_'
'ско'
'сих_'
'ситуация_'
'сессия_'
'семь_'
'сельских_'
'секретарем_'
'се'
'сделала_'
'сда'
'связаны_'
'самое_'
'са'
'ряда_'
'рос'
'решила_'
'регионального_'
'ре_'
'расширению_'
'пыток_'
'прошли_'
'происхождения_'
'производство_'
'программу_'
'проблемой_'
'проблеме_'
'проблемам_'
'принят_'
'применяться_'
'при'
'президент_'
'предыдущих_'
'правосудия_'
'правительств_'
'правами_'
'полученных_'
'получать_'
'полном_'
'политике_'
'поездки_'
'пло'
'планирования_'
'перемещенных_'
'первых_'
'парень_'
'па'
'оценку_'
'ответственности_'
'особо_'
'особенности_'
'основной_'
'оружием_'
'организациям_'
'ор'
'определение_'
'оказать_'
'ового_'
'общее_'
'никто_'
'ник_'
'нес'
'непосредственно_'
'нео'
'направлены_'
'направлении_'
'мою_'
'мод'
'мнения_'
'мнение_'
'механизма_'
'местного_'
'мандата_'
'малых_'
'любые_'
'лицами_'
'ле_'
'лад'
'крайней_'
'крайне_'
'которыми_'
'контролю_'
'конвенций_'
'компании_'
'количество_'
'касающимся_'
'кал'
'к'
'использовании_'
'иск'
'идти_'
'зовут_'
'значительно_'
'знал_'
'зачем_'
'затем_'
'заключения_'
'заключение_'
'жалоб_'
'енных_'
'ении_'
'ен'
'ель_'
'ел_'
'ев'
'еб'
'довольно_'
'детьми_'
'декларации_'
'данного_'
'дал_'
'годах_'
'говорила_'
'говорил_'
'глава_'
'га'
'выхода_'
'выражает_'
'выбор_'
'вший_'
'вроде_'
'воздействия_'
'военных_'
'внутренних_'
'вне_'
'вер'
'ведения_'
'вал'
'важным_'
'будущем_'
'большой_'
'би'
'аб'
'Японии_'
'Юг_'
'ЮНФПА_'
'Ч'
'Ха'
'Украины_'
'УВКБ_'
'Только_'
'Те'
'Сьерра_'
'Сто'
'Слушай_'
'Следует_'
'СО'
'Протокола_'
'Прости_'
'Правила_'
'Похоже_'
'Помимо_'
'Пол'
'Пожалуйста_'
'ПО_'
'ОН'
'Нужно_'
'Нидерланды_'
'Надо_'
'На'
'Мексика_'
'МДП_'
'Ли'
'Л'
'Ку'
'Косово_'
'Конвенция_'
'Конвенцию_'
'Комитетом_'
'Их_'
'Ирландии_'
'Европе_'
'Другие_'
'Доклад_'
'Договор_'
'До_'
'Департамента_'
'Демократической_'
'Даже_'
'Гер'
'Генеральным_'
'Бюро_'
'Бурунди_'
'Би'
'Африка_'
'Арабская_'
'Ага_'
'zone_'
'z'
'wn_'
'whom_'
'whoa_'
'white_'
'weapon_'
'we'
'vol'
'vo'
've'
'uses_'
'ures_'
'units_'
'un_'
'ul_'
'u'
'trans'
'train_'
'traditional_'
'tor_'
'ter'
'technologies_'
'street_'
'strategic_'
'sti'
'stability_'
'sta'
'spoke_'
'spent_'
'sounds_'
'sought_'
'solution_'
'so'
'sla'
'sixth_'
'sion_'
'simple_'
'sign_'
'sick_'
'seriously_'
'sed_'
'sco'
'resulting_'
'respective_'
'represented_'
'rehabilitation_'
'regions_'
'recorded_'
'recognition_'
'ration_'
'range_'
'ran'
'race_'
'purposes_'
'pu'
'prior_'
'pre'
'positive_'
'positions_'
'po'
'paper_'
'over'
'ou'
'org_'
'occupied_'
'net_'
'nation_'
'n'
'model_'
'mines_'
'migration_'
'media_'
'med_'
'mass_'
'leaving_'
'le'
'ked_'
'ke'
'ka_'
'ju'
'introduction_'
'integration_'
'insurance_'
'industry_'
'implications_'
'ily_'
'ice_'
'guidance_'
'guarantees_'
'gra'
'gh_'
'gate_'
'gar'
'fundamental_'
'fund_'
'forced_'
'floor_'
'finding_'
'fi'
'fell_'
'extremely_'
'external_'
'export_'
'expect_'
'except_'
'ess_'
'entities_'
'ensuring_'
'en'
'emphasis_'
'ely_'
'eighth_'
'dro'
'despite_'
'defined_'
'defence_'
'deep_'
'dear_'
'damn_'
'cooperate_'
'consultation_'
'constitutional_'
'consequences_'
'competent_'
'competence_'
'committed_'
'class_'
'ci'
'charges_'
'ch'
'caught_'
'card_'
'camp_'
'cal_'
'bu'
'broke_'
'bo'
'birth_'
'bility_'
'benefit_'
'balance_'
'aware_'
'avoid_'
'average_'
'arising_'
'apartment_'
'anyway_'
'annual_'
'ani'
'although_'
'ai'
'agent_'
'afternoon_'
'advance_'
'actively_'
'achieving_'
'Za'
'WTO_'
'Ukraine_'
'TION_'
'Sub_'
'Sorry_'
'Service_'
'Say_'
'Ru'
'Rica_'
'Population_'
'Peter_'
'Paragraph_'
'Operations_'
'NO_'
'Morocco_'
'Monitoring_'
'Mm_'
'Middle_'
'Mar'
'ME'
'Lanka_'
'LE'
'LA'
'Ki'
'Keep_'
'K_'
'Iran_'
'Indigenous_'
'IN_'
'Hi_'
'Greece_'
'George_'
'Finland_'
'FAO_'
'El_'
'Day_'
'DP_'
'Could_'
'Costa_'
'Corr_'
'Colombia_'
'Civil_'
'Chapter_'
'Chairperson_'
'CONF_'
'Burundi_'
'Britain_'
'Bi'
'Bar'
'Asian_'
'Annex_'
'Angola_'
'Ambassador_'
'Ad'
'Actually_'
'Acting_'
'Ac'
'86_'
'82_'
'57'
'50'
'49'
'48'
'47'
'38'
'21'
'120_'
'105_'
'0'
'...?_'
'.'_'
'" - _'
' -_'
'“_'
'–_'
'язык_'
'эффективность_'
'эмбарго_'
'элементы_'
'экспорта_'
'ье'
'школ_'
'шка_'
'широком_'
'шаги_'
'часа_'
'ций_'
'цев_'
'хоть_'
'химических_'
'форума_'
'фа'
'установления_'
'уменьшению_'
'укреплении_'
'удовлетворения_'
'уделять_'
'удалось_'
'туда_'
'требует_'
'требованиям_'
'тре'
'технических_'
'тел'
'тан'
'такими_'
'такая_'
'сын_'
'счита'
'судебного_'
'суде_'
'структуры_'
'стен'
'статуса_'
'срока_'
'средствами_'
'состоянию_'
'совет_'
'сможет_'
'смогу_'
'см'
'служить_'
'силами_'
'серьезные_'
'серьезно_'
'секторов_'
'секторе_'
'секретариата_'
'сделали_'
'связь_'
'связей_'
'своему_'
'руководящие_'
'руководства_'
'руководителей_'
'решил_'
'рен'
'резерв'
'регулирования_'
'региональные_'
'рассмотрению_'
'рассматривать_'
'распространение_'
'разработать_'
'разнообразия_'
'размера_'
'развитии_'
'развивающимся_'
'рабочей_'
'пятой_'
'пункты_'
'пунктах_'
'пу'
'прошу_'
'проекту_'
'продолжение_'
'принятые_'
'принято_'
'приложения_'
'предоставлять_'
'предоставляет_'
'предложений_'
'поправки_'
'поможет_'
'полицейских_'
'пожалуйста_'
'подписания_'
'поддержка_'
'поддержания_'
'подготовлен_'
'пов'
'пи'
'перевода_'
'первом_'
'пе'
'охвата_'
'отца_'
'отре'
'отношение_'
'остается_'
'определенных_'
'оперативной_'
'они'
'ограничения_'
'овых_'
'овой_'
'ово'
'обратно_'
'обо_'
'обеспокоенность_'
'о'
'но'
'нный_'
'нные_'
'нного_'
'неё_'
'неправительственные_'
'нев'
'наших_'
'научно_'
'насколько_'
'наркотиками_'
'наконец_'
'надзора_'
'над'
'н'
'мых_'
'мые_'
'мужчины_'
'мост'
'мониторинга_'
'мм_'
'мистер_'
'мирного_'
'министра_'
'министр_'
'ми'
'механизмы_'
'месяца_'
'местном_'
'мер'
'мен'
'ме'
'людских_'
'лы'
'лес'
'ления_'
'ла'
'кур'
'кризиса_'
'кра'
'кост'
'кос'
'конфликта_'
'конечно_'
'ков'
'кан'
'каких_'
'каким_'
'каждой_'
'ка'
'ис'
'интерес_'
'инициатив_'
'имел_'
'илась_'
'известно_'
'из'
'значительного_'
'занимающихся_'
'законодательством_'
'законодательных_'
'задержания_'
'зад'
'женщинам_'
'ены_'
'ено_'
'егося_'
'душ'
'думала_'
'друзей_'
'другом_'
'достигнут_'
'доля_'
'должностных_'
'дол'
'докладах_'
'доверия_'
'дети_'
'денег_'
'ден'
'действовать_'
'данной_'
'давай_'
'да'
'группу_'
'границы_'
'года'
'газов_'
'высшем_'
'выполнять_'
'встречи_'
'всеобщего_'
'вперед_'
'военные_'
'воды_'
'включают_'
'вклада_'
'видеть_'
'вар'
'вами_'
'бывшей_'
'будем_'
'бро'
'большинство_'
'бер'
'аяся_'
'ат_'
'ат'
'ассигнования_'
'аспектов_'
'ал'
'акты_'
'ак_'
'административного_'
'автора_'
'ЮНИДО_'
'Ф_'
'Устава_'
'Суда_'
'Сан_'
'СПИДа_'
'Перу_'
'Ор'
'ОР'
'ОБ'
'Норвегия_'
'Необходимо_'
'Народно_'
'НРС_'
'Н_'
'Мон'
'Международный_'
'Леоне_'
'Кубы_'
'Королевство_'
'Корея_'
'КС_'
'КО'
'Исполнительного_'
'Испании_'
'Иран_'
'Ин'
'ЗА'
'Ди'
'Движения_'
'Государства_'
'Германия_'
'Га'
'Вообще_'
'Вам_'
'Бразилия_'
'Бер'
'Бангладеш_'
'Ба'
'Ар'
'zones_'
'zo'
'ze_'
'za'
'youth_'
'win'
'wedding_'
'watching_'
'warning_'
'voice_'
'vi'
'universal_'
'unemployment_'
'under'
'turned_'
'trial_'
'treaties_'
'treated_'
'topic_'
'th'
'terrorist_'
'summary_'
'success_'
'subsidiary_'
'su'
'sts_'
'stressed_'
'strategies_'
'starting_'
'ss'
'speaking_'
'skills_'
'size_'
'sites_'
'shown_'
'series_'
'seeing_'
'scientific_'
'scale_'
'ria'
'reviewed_'
'respond_'
'ren'
'religion_'
'relief_'
'released_'
'reflect_'
'reconstruction_'
'recently_'
'ratification_'
'racism_'
'racial_'
'punishment_'
'provisional_'
'prove_'
'proportion_'
'proper_'
'promise_'
'presentation_'
'populations_'
'planned_'
'pilot_'
'personal_'
'permanent_'
'pe_'
'ow'
'ot_'
'opinion_'
'ones_'
'ol'
'officer_'
'notes_'
'names_'
'namely_'
'mutual_'
'mobilization_'
'minorities_'
'minor_'
'merely_'
'mechanism_'
'measure_'
'marry_'
'marriage_'
'mandates_'
'luck_'
'losses_'
'likely_'
'lic'
'learn_'
'ld'
'latter_'
'l'
'ker_'
'judicial_'
'join_'
'ist_'
'island_'
'ish_'
'involvement_'
'introduce_'
'intergovernmental_'
'interested_'
'ins'
'identification_'
'ici'
'happens_'
'hal'
'ha_'
'ha'
'guarantee_'
'governance_'
'gen'
'forty_'
'facing_'
'eye_'
'extent_'
'existence_'
'exist_'
'evening_'
'enterprises_'
'enforcement_'
'endorsed_'
'ending_'
'encouraged_'
'enc'
'enabling_'
'emp'
'elections_'
'effectiveness_'
'ec'
'duty_'
'dry_'
'disease_'
'dies_'
'determination_'
'design_'
'described_'
'depth_'
'den'
'ded_'
'declaration_'
'damage_'
'cu'
'ct'
'crew_'
'credit_'
'creation_'
'coverage_'
'counsel_'
'coordinate_'
'conventions_'
'considering_'
'condition_'
'conclusion_'
'completely_'
'completed_'
'company_'
'command_'
'co_'
'clo'
'choices_'
'cer'
'cash_'
'cas'
'career_'
'broad_'
'bet_'
'az'
'ates_'
'assessments_'
'assess_'
'appointment_'
'appeal_'
'amounts_'
'ali'
'airport_'
'ag'
'affect_'
'affairs_'
'Which_'
'Whatever_'
'WG_'
'Vi'
'Unit_'
'Under_'
'Un'
'Tribunal_'
'Thus_'
'TI'
'Syrian_'
'Sure_'
'Star'
'Sri_'
'Spain_'
'Something_'
'Sir_'
'Resources_'
'Research_'
'RE'
'Pur'
'Prosecutor_'
'OR'
'Norway_'
'NI'
'Moreover_'
'Mon'
'Miss_'
'Min'
'Many_'
'Man'
'MA'
'Le'
'Latvia_'
'LI'
'Ku'
'Kosovo_'
'Ke'
'J'
'Isn_'
'Institute_'
'In'
'ISO_'
'IP'
'INF_'
'IN'
'Hungary_'
'Ho'
'HI'
'Go'
'GO'
'Furthermore_'
'Ethiopia_'
'Elimination_'
'ES_'
'ER_'
'Drug_'
'Deputy_'
'DE'
'Co'
'Ci'
'Cal'
'Ben_'
'Be_'
'Armenia_'
'Although_'
'Agent_'
'99_'
'99'
'87_'
'78_'
'7'
'54'
'44'
'36'
'33'
'25070_'
'22'
'2015_'
'1989_'
'1967_'
'13'
'112_'
'110_'
'00'
'. -_'
', - _'
'))._'
'") _'
'! '
'€_'
'”._'
'яя_'
'эффективной_'
'эр'
'элементов_'
'ыт'
'ыва'
'щей_'
'ще_'
'щ'
'широко_'
'шанс_'
'ш_'
'чёрт_'
'чувствую_'
'чу_'
'частично_'
'центра_'
'ц_'
'хотели_'
'хороший_'
'фонда_'
'фонд_'
'уязвимых_'
'уюся_'
'учитывать_'
'учебные_'
'усь_'
'услугам_'
'усилиях_'
'уни'
'уж'
'угрозы_'
'уголовного_'
'ть'
'тридцать_'
'третьих_'
'требование_'
'тра'
'тов_'
'тер'
'сумма_'
'строительство_'
'стратегию_'
'страной_'
'стихийных_'
'стадии_'
'ста'
'спроса_'
'способствует_'
'способности_'
'способ_'
'социальные_'
'сотрудник_'
'состоится_'
'составления_'
'соответствующий_'
'содействии_'
'соглашений_'
'совместных_'
'совещании_'
'сложности_'
'слова_'
'следующего_'
'сколько_'
'си_'
'семей_'
'секретарю_'
'свободу_'
'самого_'
'рядом_'
'ры'
'руки_'
'решению_'
'рес'
'реп'
'реинтеграции_'
'результатом_'
'результатах_'
'регистрации_'
'ратификации_'
'расследования_'
'распределения_'
'рамки_'
'разработка_'
'разнообразии_'
'ради_'
'работой_'
'работников_'
'работ_'
'пунктом_'
'противо'
'произошло_'
'причине_'
'приоритет'
'призываем_'
'представление_'
'предотвращения_'
'предоставлении_'
'пределы_'
'правительственных_'
'правительствами_'
'почти_'
'поч'
'постоянной_'
'постановила_'
'последний_'
'порядка_'
'поп'
'пользоваться_'
'полевой_'
'поддержать_'
'поговорить_'
'повышение_'
'питания_'
'пес'
'период'
'перевозки_'
'пат'
'отправления_'
'отношениях_'
'отмечено_'
'отметили_'
'отделения_'
'отда'
'основы_'
'основным_'
'основания_'
'органа_'
'орган_'
'онной_'
'ов'
'общую_'
'общий_'
'обо'
'обзор'
'оба_'
'нужна_'
'нор'
'ному_'
'новый_'
'новое_'
'неу'
'нескольких_'
'не'
'начиная_'
'настоящий_'
'нас'
'направленные_'
'направлений_'
'направлен_'
'нападения_'
'наличие_'
'наказание_'
'наказани'
'нае'
'многосторонних_'
'министерство_'
'месяц_'
'мерами_'
'меньшинств_'
'международно_'
'меж'
'медицинского_'
'ме_'
'масштабы_'
'мало_'
'людям_'
'кор'
'конца_'
'консультантов_'
'компенсации_'
'комп'
'ких_'
'кий_'
'кая_'
'касающейся_'
'какое_'
'какая_'
'каждому_'
'каждого_'
'июне_'
'иш'
'ихся_'
'иф'
'ится_'
'итогам_'
'испытаний_'
'интересов_'
'иной_'
'инвестиций_'
'имею_'
'иде'
'зр'
'зоне_'
'зе_'
'здоровье_'
'зв'
'защищать_'
'заседаниях_'
'заседаний_'
'запасов_'
'занимается_'
'заместителя_'
'жить_'
'жилья_'
'жилье_'
'жертв_'
'жа'
'ет'
'ерн'
'емых_'
'ез'
'ду'
'другую_'
'дохода_'
'достоинство_'
'достаточно_'
'документации_'
'докладчика_'
'дов_'
'дис'
'дин'
'диалог_'
'данным_'
'далеко_'
'гу_'
'группой_'
'городских_'
'гласит_'
'главе_'
'гарантии_'
'выход'
'выразил_'
'вызывает_'
'вызов'
'выборы_'
'вспомогательных_'
'восьми_'
'вооружений_'
'возвращения_'
'вне'
'вин'
'видела_'
'взаимосвяз'
'вещи_'
'вечер_'
'вет'
'вести_'
'вес'
'веб_'
'ве'
'вашего_'
'важную_'
'важной_'
'бук'
'будущих_'
'брат_'
'бор'
'биологическом_'
'бал'
'ают_'
'ация_'
'ассигнований_'
'аспекты_'
'ар'
'ам'
'али_'
'административные_'
'автор_'
'Ш'
'Чарли_'
'Центральных_'
'Центральной_'
'Центра_'
'Федерация_'
'Управлением_'
'Украина_'
'Уголовного_'
'Такие_'
'Также_'
'ТИ'
'ТА'
'Соединенное_'
'Сил'
'Сегодня_'
'СП'
'СЕ'
'Пу'
'Председателем_'
'Пока_'
'Под'
'Пар'
'Очень_'
'Оратор_'
'ОТ'
'ООН'
'Новой_'
'Ни'
'Национальной_'
'Мэ'
'Мо'
'Ми'
'Меня_'
'МООН'
'МИ'
'Лу'
'Л_'
'Коста_'
'Китай_'
'Испания_'
'Ис'
'Израиля_'
'Иди_'
'Зачем_'
'Западной_'
'Демократическая_'
'Дай_'
'Гвинея_'
'Великобритании_'
'ВС'
'ВО'
'Боже_'
'Бо'
'Бл'
'Бе'
'í'
'ys_'
'xi'
'wonderful_'
'win_'
'weren_'
'weight_'
'warrant_'
'wall_'
'wa'
'vis'
'values_'
'ut'
'ura'
'ur'
'trends_'
'totally_'
'tools_'
'tired_'
'tic'
'tasks_'
'surprise_'
'stupid_'
'ssi'
'specified_'
'specifically_'
'south_'
'sister_'
'shoot_'
'shi'
'setting_'
'separate_'
'selling_'
'selected_'
'satisfaction_'
'ron'
'rig'
'ride_'
'ric'
'resulted_'
'requirement_'
'reproductive_'
'repatriation_'
'rep'
'remaining_'
'registration_'
'registered_'
'recognize_'
'realize_'
'reaching_'
'reach_'
'ran_'
'pursue_'
'prosecution_'
'produce_'
'principal_'
'premises_'
'plu'
'plant_'
'plane_'
'pla'
'pe'
'participate_'
'paras_'
'par'
'our'
'origin_'
'option_'
'opened_'
'on'
'older_'
'occurred_'
'norms_'
'nom'
'no'
'nk'
'ngs_'
'network_'
'ned_'
'mor'
'monitor_'
'modern_'
'miss_'
'mis'
'minimum_'
'miles_'
'men'
'medi'
'maximum_'
'materials_'
'mat'
'manner_'
'mainly_'
'lying_'
'loved_'
'link_'
'lied_'
'launched_'
'languages_'
'la'
'knowledge_'
'joined_'
'jail_'
'j_'
'iv_'
'it'
'ism_'
'invasion_'
'interview_'
'inter'
'intended_'
'integrity_'
'instrument_'
'institution_'
'inform_'
'indi'
'improved_'
'il_'
'ied_'
'identified_'
'ian_'
'ht'
'hotel_'
'hor'
'honey_'
'hmm_'
'history_'
'her'
'he'
'hasn_'
'har'
'gre'
'grave_'
'globalization_'
'geo'
'gan'
'function_'
'fuel_'
'fucked_'
'forum_'
'for'
'follows_'
'fired_'
'finished_'
'financing_'
'finance_'
'file_'
'faith_'
'fa'
'experiences_'
'expenses_'
'ex_'
'ew_'
'et'
'est_'
'ery_'
'equitable_'
'env'
'enter_'
'enjoy_'
'encouraging_'
'employees_'
'employed_'
'emissions_'
'emission_'
'em'
'ele'
'ee'
'ed'
'dude_'
'drugs_'
'drinking_'
'draw_'
'do'
'distinction_'
'dinner_'
'died_'
'di'
'deserve_'
'departments_'
'den_'
'decide_'
'debt_'
'cut_'
'cur'
'culture_'
'crazy_'
'cra'
'constructive_'
'concept_'
'concentrate_'
'con'
'comply_'
'complete_'
'competition_'
'compensation_'
'combating_'
'clearly_'
'chief_'
'chap_'
'cell_'
'causes_'
'category_'
'cards_'
'bs_'
'bro'
'bra'
'books_'
'board_'
'bilateral_'
'begun_'
'beat_'
'barriers_'
'back'
'aw'
'at'
'ass'
'arrived_'
'army_'
'appreciate_'
'applicable_'
'ans_'
'and'
'amendments_'
'allowance_'
'advice_'
'accepted_'
'acceptable_'
']._'
'Yugoslav_'
'Year_'
'Y'
'Western_'
'We'
'Water_'
'W_'
'Vienna_'
'Uni'
'UNRWA_'
'UNICEF_'
'Transport_'
'Therefore_'
'Their_'
'Task_'
'Table_'
'TE'
'System_'
'Su'
'Southern_'
'Session_'
'Saudi_'
'Salvador_'
'ST'
'SO'
'SI'
'Rwanda_'
'Regulation_'
'Recalling_'
'Re'
'RA'
'Pu'
'Provision_'
'Prevention_'
'Policy_'
'Police_'
'Pi'
'Persons_'
'Palestine_'
'PE'
'Os'
'Nor'
'Ni'
'Network_'
'NE'
'NA'
'Mus'
'Movement_'
'Mom_'
'Mo'
'Mi'
'Members_'
'Mal'
'Macedonia_'
'Libyan_'
'Judge_'
'Ivoire_'
'Indian_'
'IS'
'ILO_'
'Hu'
'Hol'
'Hi'
'Head_'
'Having_'
'Han'
'Guidelines_'
'Further_'
'For'
'Fa'
'FCCC_'
'El'
'Egypt_'
'Eastern_'
'ET'
'ED_'
'Dar'
'Cyprus_'
'Cultural_'
'Claire_'
'Chi'
'Che'
'Cap'
'Can'
'Calls_'
'CO'
'CE'
'Bulgaria_'
'Both_'
'Belgium_'
'An'
'Ag'
'Administration_'
'About_'
'AT'
'AP'
'AD'
'@'
'? !_'
';'
'92_'
'89_'
'58'
'46'
'43'
'31'
'3'
'28'
'1985_'
'1974_'
'196'
'192'
'191_'
'162_'
'140_'
'123_'
'12'
'111_'
'104_'
'10'
'. [_'
'- '
'). _'
'%, _'
'!"_'
'яну'
'языке_'
'яд'
'эффективных_'
'этапа_'
'этап_'
'эк'
'э'
'ью'
'ы'
'щими_'
'щи'
'ща'
'шься_'
'штаб_'
'шо'
'шн'
'шестьдесят_'
'ш'
'чу'
'чисто'
'черт'
'чен'
'частью_'
'цо'
'цени'
'ца_'
'ху'
'ход'
'финансового_'
'финансированием_'
'фильм'
'фе'
'уч'
'ух'
'успешно_'
'управлению_'
'упа'
'уничтожения_'
'ума_'
'уется_'
'уделяться_'
'увидеть_'
'убийства_'
'убеждений_'
'тя'
'труд'
'требований_'
'торговой_'
'торговлей_'
'тк'
'тит'
'техническую_'
'тер_'
'тельных_'
'текст'
'твои_'
'твердо_'
'тва_'
'таблица_'
'считаю_'
'считать_'
'существенного_'
'суммы_'
'судебных_'
'сту'
'структур_'
'стремится_'
'стратегий_'
'стер'
'стве_'
'старше_'
'становится_'
'станет_'
'сс_'
'сроки_'
'средством_'
'средство_'
'сразу_'
'споров_'
'специального_'
'спе'
'соч'
'сохранение_'
'составляют_'
'сообщений_'
'сомнение_'
'совместного_'
'совет'
'совершения_'
'сов'
'события_'
'смысле_'
'смог_'
'смен'
'сме'
'сли'
'след'
'ситуациях_'
'системой_'
'сигнал'
'сетей_'
'семи_'
'сельского_'
'секретариату_'
'седьмой_'
'сед'
'свидетелей_'
'све'
'сбора_'
'ря'
'ры_'
'руководством_'
'рт'
'рост_'
'ровать_'
'ро'
'рис'
'рем'
'религии_'
'рекомендовал_'
'резолюцией_'
'региональной_'
'ревизии_'
'рд'
'расход'
'распространяется_'
'распространен'
'разработку_'
'раздел_'
'раз'
'рав'
'рабочем_'
'пунктам_'
'прошлом_'
'профессиональных_'
'прос'
'пропа'
'произведен'
'продуктов_'
'провинции_'
'проверки_'
'проведенных_'
'проблема_'
'про_'
'принципах_'
'принципами_'
'принимаются_'
'призывом_'
'признает_'
'привлечения_'
'преступление_'
'предусмотрено_'
'предстоит_'
'представительства_'
'предлагаем'
'пределами_'
'пребывания_'
'практика_'
'право'
'правительству_'
'правилами_'
'праве_'
'прав'
'пра'
'пот'
'поступлений_'
'постановил_'
'последующей_'
'последствиями_'
'последнее_'
'последнего_'
'порт'
'поощрение_'
'помимо_'
'пола_'
'пойду_'
'позволяют_'
'позволит_'
'подумал_'
'подробную_'
'подо'
'поблагодарить_'
'плохо_'
'плен'
'плат'
'пла'
'переходной_'
'пересмотреть_'
'переда'
'пап'
'ошиб'
'ох'
'отвечать_'
'ответы_'
'ответов_'
'осуществить_'
'остью_'
'основу_'
'основном_'
'осведомленности_'
'органах_'
'опыт_'
'определены_'
'октябре_'
'океан'
'оказании_'
'ок'
'озаглавленный_'
'од'
'овая_'
'общины_'
'общественности_'
'общественной_'
'обстоятельствах_'
'оборудования_'
'обеих_'
'обе'
'нуждается_'
'нта'
'нормы_'
'новым_'
'новую_'
'новая_'
'нов'
'нк'
'несо'
'несет_'
'нераспространении_'
'независимости_'
'независимо_'
'недо'
'неделю_'
'нед'
'нашел_'
'нашего_'
'начать_'
'начало_'
'национальным_'
'настоящей_'
'насилием_'
'насилие_'
'населенным_'
'нар'
'направленно'
'надлежащим_'
'надлежащего_'
'наверняка_'
'наблюда'
'мя'
'морской_'
'мор'
'моем_'
'моделей_'
'могло_'
'мисс_'
'миллионов_'
'мил'
'методы_'
'местными_'
'мар'
'ман_'
'любых_'
'люблю_'
'любит_'
'люб'
'луч'
'лу'
'лл'
'лишения_'
'лицом_'
'лечения_'
'лен_'
'кс'
'кро'
'кредит'
'копи'
'компьютер'
'компонент_'
'комплексной_'
'ком'
'кла'
'кем_'
'кар'
'какого_'
'каждом_'
'йств'
'йского_'
'июле_'
'иц'
'ист'
'испытания_'
'используются_'
'исключением_'
'ирование_'
'ир'
'ип'
'ио'
'информационных_'
'интер'
'имуществом_'
'имеются_'
'име'
'ился_'
'ились_'
'ика_'
'ик'
'изменить_'
'изации_'
'иден'
'игр'
'иг'
'ив'
'зу'
'зов'
'значительной_'
'земли_'
'зас'
'запрещении_'
'замечаний_'
'зал_'
'закупок_'
'закону_'
'законности_'
'заинтересованными_'
'зада'
'жив_'
'жение_'
'же'
'жда'
'ею_'
'ети'
'ерт'
'ерно'
'енной_'
'ени'
'ем'
'ел'
'ек_'
'еж'
'дя'
'думаете_'
'ду_'
'другого_'
'доли_'
'дн'
'диа'
'ди'
'деяния_'
'десят'
'демократии_'
'двухгодичного_'
'дар'
'данном_'
'дам_'
'давно_'
'гуманитарных_'
'гуманитарным_'
'гуманитарного_'
'губ'
'гражданства_'
'готовность_'
'гося_'
'города_'
'говорю_'
'го'
'глобальных_'
'гени'
'гендерного_'
'выявления_'
'выступил_'
'высокие_'
'выразили_'
'вые_'
'выбора_'
'вшейся_'
'всеобъемлющего_'
'вс'
'вр'
'впоследствии_'
'вос'
'вокруг_'
'вой_'
'возьми_'
'возраста_'
'военнослужащих_'
'военно'
'водо'
'владе'
'включенных_'
'включать_'
'взаимодействия_'
'вернуться_'
'вед'
'ват'
'вариант_'
'ва'
'бу'
'брат'
'брак_'
'бо'
'ап'
'анти'
'активов_'
'активное_'
'айн'
'администрации_'
'административным_'
'адаптации_'
'ад'
'а'
'Южная_'
'Э_'
'Ь'
'Швейцария_'
'Швейцарии_'
'Чили_'
'Чешская_'
'Центральноафриканской_'
'Хабитат_'
'Фор'
'Фонда_'
'Фонд_'
'Финансирование_'
'Фасо_'
'Участники_'
'УВКПЧ_'
'Ту'
'Тре'
'Такой_'
'ТО'
'Суд'
'Сов'
'Соб'
'Сл'
'Сальвадор_'
'Са'
'СС'
'Румыния_'
'Российская_'
'Ри'
'РО'
'РА'
'Пэ'
'Прин'
'Представитель_'
'Потом_'
'Постоянный_'
'Пере'
'Пакистан_'
'ПО'
'Ох_'
'От_'
'Основные_'
'Ог'
'Никто_'
'Никарагуа_'
'Нео'
'Настоящий_'
'Международным_'
'Ме'
'Майк_'
'Ма'
'Ло'
'Лихтенштейн_'
'Кор'
'Комп'
'Ком'
'Кл'
'Китая_'
'Катар_'
'Карибского_'
'Кар'
'Канада_'
'Кан'
'КП'
'КОН'
'Йорке_'
'Индонезия_'
'Индии_'
'Им'
'Здесь_'
'Ещё_'
'Еще_'
'Джо'
'Джибути_'
'Департамент_'
'Дар'
'ДЕ'
'Греция_'
'Государство_'
'Господи_'
'Гор'
'Гн_'
'Ги'
'Генеральному_'
'Гватемала_'
'Восточной_'
'Вен'
'ВЕ'
'Буркина_'
'Боснии_'
'Больше_'
'Благодаря_'
'Беларусь_'
'Баз'
'Африканского_'
'Афганистана_'
'Аргентина_'
'á'
'~ _'
'zi'
'ze'
'wrote_'
'writing_'
'wound_'
'wo'
'witnesses_'
'withdrawal_'
'weird_'
'wearing_'
'wake_'
'vulnerable_'
'visited_'
'verification_'
'val'
'v'
'ut_'
'usually_'
'urged_'
'up'
'una'
'ult'
'ub'
'types_'
'truck_'
'tri'
'transmitted_'
'tourism_'
'tors_'
'tle_'
'tle'
'the'
'tests_'
'tan_'
't'
'sweet_'
'suspended_'
'survey_'
'suit_'
'sufficient_'
'stuck_'
'struggle_'
'structure_'
'straight_'
'store_'
'stopped_'
'stood_'
'stick_'
'stayed_'
'stations_'
'spect'
'spa'
'solutions_'
'software_'
'slept_'
'skin_'
'sk'
'shirt_'
'shed_'
'seventh_'
'sensitive_'
'sect_'
'scope_'
'schedule_'
'scene_'
'sale_'
'salary_'
'sad_'
'rt_'
'rod'
'ro_'
'reviews_'
'reviewing_'
'restructuring_'
'responsibilities_'
'residence_'
'remained_'
'release_'
'reimbursement_'
'reflected_'
'recommend_'
'rec'
'realization_'
'reached_'
'rea'
'rd'
'r'
'quit_'
'quest_'
'publication_'
'previously_'
'preparing_'
'pointed_'
'pension_'
'peacekeeping_'
'paying_'
'pay'
'partnership_'
'pan'
'owned_'
'outstanding_'
'orders_'
'op'
'oni'
'ological_'
'og'
'offences_'
'observers_'
'nti'
'nobody_'
'nit'
'ninth_'
'ni'
'ner_'
'murdered_'
'mon'
'marketing_'
'marine_'
'maintaining_'
'maintained_'
'lor'
'looked_'
'locked_'
'location_'
'lo'
'listed_'
'lin'
'legs_'
'learning_'
'laugh'
'land'
'ky_'
'kno'
'ki_'
'kes_'
'justify_'
'judges_'
'judge_'
'jo'
'ius_'
'ir'
'instance_'
'inspection_'
'ini'
'ing'
'independence_'
'increases_'
'inc'
'imagine_'
'hum'
'huge_'
'hood_'
'hol'
'ho'
'hip_'
'hide_'
'hi_'
'helped_'
'hearing_'
'healthy_'
'headquarters_'
'handling_'
'gs_'
'ges_'
'game_'
'fun'
'ft_'
'formulation_'
'fix_'
'firm_'
'finish_'
'ff'
'feed_'
'fast_'
'fantastic_'
'extra'
'explain_'
'eti'
'eri'
'equity_'
'entry_'
'entirely_'
'enterprise_'
'enta'
'enhanced_'
'electronic_'
'election_'
'el'
'ef'
'ear'
'driving_'
'dre'
'dor'
'dispute_'
'disp'
'discovered_'
'dirty_'
'direction_'
'directed_'
'diplomatic_'
'difference_'
'dev'
'determined_'
'detailed_'
'department_'
'democracy_'
'decline_'
'database_'
'cul'
'cted_'
'crucial_'
'crisis_'
'covering_'
'corner_'
'convinced_'
'contains_'
'contain_'
'contact_'
'constitute_'
'consolidate_'
'conformity_'
'confi'
'components_'
'complaints_'
'complaint_'
'comp'
'committees_'
'commercial_'
'com'
'col'
'closed_'
'cli'
'cle'
'cho'
'che'
'cation_'
'captain_'
'cake_'
'bye_'
'bur'
'bringing_'
'bri'
'boyfriend_'
'box_'
'boss_'
'bor'
'bomb'
'bloody_'
'bite_'
'bitch_'
'bit'
'beginning_'
'begin_'
'bat'
'ba_'
'b'
'authorized_'
'au'
'attend_'
'ast'
'ary_'
'ar'
'approaches_'
'amended_'
'alter'
'allegations_'
'all'
'al'
'air'
'advances_'
'ade'
'actual_'
'achievement_'
'accused_'
'accounting_'
'acceptance_'
'absence_'
'Ye'
'Workshop_'
'Win'
'Wa'
'WE'
'Very_'
'Ver'
'VI'
'Unless_'
'UR'
'UNFPA_'
'Tu'
'Total_'
'Think_'
'Territories_'
'Technical_'
'Te'
'Tanzania_'
'Supreme_'
'Sun'
'Sub'
'Stock'
'Ste'
'Statistical_'
'Somalia_'
'Sha'
'Section_'
'Rules_'
'Room_'
'Rome_'
'Requests_'
'Q'
'Project_'
'Pla'
'Perhaps_'
'Pe'
'Pat'
'Part_'
'Pan'
'PRST_'
'PRO'
'Open_'
'ON'
'Number_'
'NT'
'NO'
'ND'
'Myanmar_'
'Mont'
'Monday_'
'Ministerial_'
'Mike_'
'Michael_'
'Me'
'Mc'
'Mary_'
'Mari'
'MI'
'ME_'
'Lu'
'Lord_'
'Lieutenant_'
'Lebanon_'
'Lau'
'Latin_'
'Ky'
'Ju'
'Jo'
'Jerusalem_'
'Its_'
'Islands_'
'IX_'
'INSTRAW_'
'Hold_'
'He'
'Gre'
'Georgia_'
'Ga'
'GE_'
'Friday_'
'Following_'
'Finally_'
'Fin'
'Fi'
'Faso_'
'Family_'
'Ex'
'Earth_'
'EN'
'Du'
'Côte_'
'Control_'
'Church_'
'Child_'
'CON'
'Burkina_'
'Bu'
'Bri'
'Brazil_'
'Bolivia_'
'Bill_'
'BU'
'BA'
'As'
'Am_'
'Albania_'
'Air_'
'Afghanistan_'
'Advancement_'
'Additional_'
'96_'
'91_'
'91'
'83_'
'800_'
'8'
'78'
'61'
'51'
'40'
'39'
'35'
'32'
'23370_'
'1988_'
'1986_'
'1980_'
'1978_'
'194'
'19'
'160_'
'16'
'156_'
'1373_'
'134_'
'113_'
'103_'
'102_'
'01_'
'...'
'- "_'
'-'
','
'))_'
')) _'
'$ _'
' − _'
' ._'
' - "_'
'ёр'
'ян'
'языках_'
'яже'
'яется_'
'являющихся_'
'явил'
'ющихся_'
'ющий_'
'ющей_'
'ющего_'
'эффективное_'
'эффективного_'
'этими_'
'эт'
'энергетики_'
'экономическому_'
'экономическом_'
'экономи'
'ья'
'ьше_'
'ьте_'
'ьные_'
'ьн'
'ыш'
'ывает_'
'ъе'
'шу_'
'широкой_'
'широких_'
'шей_'
'чрезвычайной_'
'чных_'
'членом_'
'члена_'
'численность_'
'чики_'
'чи'
'четырех_'
'ческие_'
'че'
'чаще_'
'чат'
'част'
'чал'
'ча'
'ч'
'циа'
'центр_'
'ценностей_'
'цело'
'целевых_'
'ца'
'хуже_'
'хода_'
'хе'
'хан'
'форум_'
'уязвимости_'
'ующих_'
'участк'
'участию_'
'участием_'
'утром_'
'утро_'
'уто'
'устройство_'
'устройств_'
'устранения_'
'устойчивому_'
'установление_'
'услугами_'
'уро'
'урегулированию_'
'управляющих_'
'управлении_'
'уп_'
'уля'
'улучшить_'
'указать_'
'уз'
'ужи'
'уди'
'уга'
'увеличения_'
'уважения_'
'уважение_'
'ув'
'убийство_'
'убежища_'
'убежден'
'тур'
'трудо'
'трудно_'
'транспортных_'
'транспорта_'
'традици'
'тол'
'товары_'
'тин'
'тесном_'
'теми_'
'теме_'
'тематических_'
'тельств'
'тели_'
'телей_'
'текста_'
'твоих_'
'тво_'
'тво'
'тв'
'тар'
'сына_'
'счета_'
'схем'
'сферы_'
'существ'
'суть_'
'судо'
'судей_'
'судебные_'
'строительства_'
'строго'
'стро'
'стремиться_'
'сторону_'
'сто_'
'степень_'
'ству_'
'статьям_'
'статью_'
'статистических_'
'статистике_'
'стала_'
'став'
'справедливости_'
'способ'
'специальным_'
'специалистов_'
'спасибо_'
'сохранения_'
'состояния_'
'соответствующей_'
'сообщить_'
'сообществом_'
'сол'
'сократил'
'созда'
'соблюдение_'
'снижения_'
'снижение_'
'снабжения_'
'смогут_'
'службе_'
'сложно'
'следующем_'
'следить_'
'скорее_'
'ском_'
'скими_'
'скажу_'
'ск'
'син'
'сильно_'
'серьезную_'
'сделаю_'
'связанную_'
'свобод_'
'сан'
'рынке_'
'руку_'
'руководство_'
'руках_'
'рук'
'ру'
'росту_'
'ром_'
'рода_'
'род'
'рн'
'риска_'
'риск'
'решать_'
'рет'
'рест'
'реорганизации_'
'регистр'
'ре'
'рати'
'рат'
'расширить_'
'расчете_'
'рассматриваются_'
'распределение_'
'раннего_'
'ран'
'района_'
'разрешения_'
'разо'
'различия_'
'разделу_'
'развитым_'
'развитием_'
'разве_'
'радио_'
'ради'
'равноправия_'
'равно'
'пят'
'прошло_'
'прочного_'
'прочие_'
'процессу_'
'процедура_'
'протокол_'
'просьбе_'
'просьба_'
'прок'
'происходит_'
'проживания_'
'продолжить_'
'продовольственной_'
'прогрессе_'
'программе_'
'проводились_'
'проб'
'причинам_'
'прит'
'присутствие_'
'принятии_'
'принимая_'
'принес'
'применять_'
'применяется_'
'применимы'
'признательность_'
'признание_'
'призна'
'приводятся_'
'приводится_'
'привели_'
'приведет_'
'прив'
'приблизительно_'
'прекращения_'
'предусмотренных_'
'представлено_'
'представленный_'
'представил_'
'предпринять_'
'предполагает_'
'предотвращению_'
'предложил_'
'предложении_'
'практической_'
'практикой_'
'правом_'
'правозащитных_'
'правовые_'
'похоже_'
'потребностями_'
'пострадавших_'
'постоянного_'
'поставки_'
'последующих_'
'поро'
'пора_'
'поощрению_'
'пон'
'помню_'
'пользу'
'получится_'
'политическим_'
'пол_'
'покрытия_'
'показывает_'
'показателя_'
'пока'
'позже_'
'позвол'
'подчеркнули_'
'подготовленный_'
'подготовительно'
'повестку_'
'по'
'планом_'
'персоналу_'
'перечень_'
'переговоры_'
'переговорах_'
'перевозок_'
'перевод_'
'перевод'
'перво'
'пен'
'партнерств'
'парламент'
'палестинского_'
'палестинских_'
'палат'
'ощ'
'официальных_'
'отчет'
'отражает_'
'ото'
'относится_'
'отн'
'отлично_'
'открытого_'
'оте'
'осуществлением_'
'осуществлен'
'островов_'
'островных_'
'осо'
'основой_'
'орт'
'ором_'
'органом_'
'организацию_'
'организацией_'
'опять_'
'определяется_'
'опасных_'
'она'
'оми'
'оль'
'оккупации_'
'ои'
'овк'
'ования_'
'овали_'
'овал_'
'обязаны_'
'объект'
'общая_'
'обстоятельств_'
'обращение_'
'обраща'
'оборудование_'
'обнаружен'
'обладают_'
'обеспокоен_'
'обеспечи'
'нуть_'
'ночью_'
'норма'
'номер'
'ног'
'новыми_'
'ново'
'нн'
'никого_'
'нием_'
'несовершеннолетних_'
'неоднократно_'
'необходимы_'
'необходимую_'
'незаконно'
'независимого_'
'наше_'
'наша_'
'находящихся_'
'насчёт_'
'насчет_'
'народы_'
'наличия_'
'надлежащие_'
'наб'
'мый_'
'мп'
'моих_'
'можете_'
'модели_'
'мобилизации_'
'мнений_'
'миссий_'
'мисси'
'миро'
'министерства_'
'микро'
'миграции_'
'мероприятиям_'
'мерам_'
'меньшей_'
'машине_'
'мать_'
'мандат_'
'мама_'
'любом_'
'любого_'
'личн'
'лист'
'ление_'
'легко_'
'ле'
'лам'
'кус'
'купить_'
'куп'
'культурных_'
'кори'
'конференция_'
'конференций_'
'контролем_'
'конс'
'конец_'
'комиссией_'
'ключевых_'
'ке'
'ками_'
'йск'
'йм'
'йл'
'иями_'
'истории_'
'использован'
'исп'
'ирования_'
'информационного_'
'интересы_'
'инструментов_'
'институтов_'
'иного_'
'ин'
'имущества_'
'имися_'
'имели_'
'иков_'
'измерения_'
'изменению_'
'издан'
'изв'
'идентификации_'
'игра'
'ив_'
'зне'
'знают_'
'знала_'
'здоров'
'заявляет_'
'зат'
'зап'
'зам'
'законом_'
'задачу_'
'зав'
'забрать_'
'за'
'зa'
'жо'
'жителей_'
'жил'
'жи'
'жертв'
'женщину_'
'жан'
'ешься_'
'еть_'
'есь_'
'ес'
'еро'
'ере'
'енные_'
'енное_'
'енного_'
'ела_'
'единственным_'
'евре'
'ды'
'друга_'
'др'
'достигнутый_'
'достигнуто_'
'доро'
'доноров_'
'дом'
'должное_'
'документах_'
'дожд'
'добровольных_'
'дно_'
'дить_'
'дик'
'дж'
'дет'
'держать_'
'дер'
'демо'
'делаешь_'
'делает_'
'дел'
'действующих_'
'девятой_'
'девочки_'
'дев'
'дву'
'дверь_'
'дальше_'
'дальнейшей_'
'дальнейшего_'
'дал'
'гу'
'грузов_'
'груз'
'гре'
'готовы_'
'готов'
'государственные_'
'гон'
'голод'
'говоришь_'
'глобальн'
'главн'
'гер'
'гео'
'ген'
'газ'
'высоком_'
'выгод_'
'выборах_'
'всему_'
'впредь_'
'вполне_'
'восстановления_'
'возраста'
'возможные_'
'водным_'
'внутри_'
'внешним_'
'внешней_'
'внести_'
'властей_'
'включены_'
'вк'
'виз'
'виды_'
'виду_'
'взносы_'
'верно_'
'век_'
'ввиду_'
'введение_'
'ваши_'
'вани'
'вак'
'важного_'
'бывает_'
'будешь_'
'бри'
'большую_'
'большинстве_'
'большим_'
'большая_'
'болезни_'
'бли'
'благо'
'бизнес_'
'би_'
'бел'
'бар'
'базового_'
'ато'
'ата_'
'аспектам_'
'ара'
'апреле_'
'аны_'
'анн'
'ание_'
'аль'
'ало'
'актов_'
'активизировать_'
'ай'
'аз'
'ага'
'авторитет'
'Япония_'
'ЮНЕП_'
'Ю_'
'Эн'
'Экономической_'
'Эквадор_'
'Ы_'
'Шри_'
'Ши'
'Швеция_'
'Ша'
'Ча'
'Центр_'
'Цель_'
'Ц_'
'Хорватия_'
'Хо'
'Х_'
'Франции_'
'Форума_'
'Фи'
'Фа'
'Укрепление_'
'Тунис_'
'Тот_'
'Том'
'Того_'
'Твой_'
'Тай'
'Таджикистан_'
'ТР'
'ТЕ'
'Сэ'
'Судан_'
'Стат'
'Ст'
'Со_'
'Система_'
'Сент_'
'Се'
'Св'
'СТ'
'СПИДом_'
'СВ'
'Рик'
'Разве_'
'Рад'
'РИ'
'Прошу_'
'Просьба_'
'Председателю_'
'Правда_'
'Послушай_'
'Польша_'
'Положение_'
'Па'
'ПРО'
'ПРАВ'
'Отдела_'
'Отдел_'
'Оказание_'
'Одн'
'ОА'
'Норвегии_'
'Ничего_'
'Нигерия_'
'Нигерии_'
'Ни_'
'Непал_'
'Некоторые_'
'Нас'
'НИ'
'НЕ'
'НА_'
'Монако_'
'Можешь_'
'Меры_'
'Международная_'
'Мар'
'МП'
'МОТ_'
'МООНК_'
'МО'
'Лин'
'Куба_'
'Кри'
'Королевства_'
'Кей'
'Кал'
'КА'
'Итак_'
'Интер'
'ИС'
'Значит_'
'Зеландия_'
'Затем_'
'Европейской_'
'Ду'
'Дополнение_'
'Доктор_'
'Джи'
'Джен'
'Джа'
'Делегация_'
'Гу'
'Гр'
'Го'
'Германии_'
'Вопрос_'
'Во'
'Вер'
'ВТО_'
'ВА'
'Была_'
'Бра'
'Болгария_'
'Арабской_'
'Азиатско_'
'АЯ_'
'АС'
'written_'
'worse_'
'wor'
'wishes_'
'wing_'
'widely_'
'whenever_'
'wer'
'wealth_'
'wash_'
'ward_'
'war'
'vic'
'vi_'
'ver'
'vel'
'variety_'
'va'
'utilization_'
'us'
'uri'
'urges_'
'ups'
'updated_'
'unp'
'universe_'
'unit_'
'unf'
'turning_'
'ture_'
'tro'
'transactions_'
'tor'
'tly_'
'title_'
'time'
'tial_'
'thousands_'
'thousand_'
'thereon_'
'thereby_'
'ther_'
'testing_'
'terrible_'
'ten'
'technological_'
'teaching_'
'teacher_'
'te'
'tax_'
'tam'
'systematic_'
'survive_'
'surveillance_'
'substantial_'
'submission_'
'sub'
'style_'
'stolen_'
'sto'
'stan'
'ssa'
'squa'
'sponsors_'
'spo'
'speed_'
'sp'
'southern_'
'sources_'
'sor'
'somewhere_'
'sm_'
'slo'
'sit'
'sin'
'signed_'
'signal_'
'showed_'
'sho'
'ships_'
'she'
'seminars_'
'seeking_'
'secure_'
'seconds_'
'search_'
'se'
'sch'
'scenario_'
'scared_'
'sanctions_'
'safeguards_'
'ry'
'rre'
'rn'
'rid_'
'ri_'
'revised_'
'resolve_'
'requiring_'
'represents_'
'rent_'
'reminds_'
'relax_'
'rejected_'
'regret'
'refused_'
'reforms_'
'reading_'
'rd_'
'ray'
'rat'
'rar'
'rapid_'
'raise_'
'rag'
'radio'
'ra'
'quiet_'
'quick_'
'qui'
'qua'
'putting_'
'pull_'
'prop'
'proof_'
'pres'
'preliminary_'
'pp'
'posts_'
'possibly_'
'pose_'
'port_'
'playing_'
'picture_'
'ph'
'pet'
'percentage_'
'penalty_'
'pen'
'pea'
'payments_'
'passed_'
'pass_'
'partner_'
'para'
'panel_'
'page_'
'pack'
'owner_'
'owing_'
'owe_'
'ot'
'original_'
'ord'
'options_'
'oo'
'ona'
'ole'
'ok_'
'offered_'
'object_'
'oa'
'ny'
'nts_'
'north_'
'normal_'
'night'
'neighbours_'
'neg'
'mus'
'mp_'
'mp'
'moved_'
'mortality_'
'monthly_'
'mobility_'
'mo'
'minority_'
'micro'
'method_'
'meta'
'message_'
'memory_'
'membership_'
'medicine_'
'mayor_'
'massive_'
'mandated_'
'magic_'
'lunch_'
'lucky_'
'ls'
'loves_'
'lots_'
'los_'
'logical_'
'locations_'
'lle'
'limitations_'
'lim'
'liked_'
'letters_'
'ler_'
'lea'
'lay_'
'las_'
'lan'
'ko_'
'killing_'
'kha'
'kers_'
'keeps_'
'judgement_'
'ized_'
'ization_'
'iz'
'io'
'intervention_'
'internationally_'
'inherent_'
'industrial_'
'ina_'
'imposed_'
'impl'
'impacts_'
'immediate_'
'ign'
'ight_'
'if'
'identity_'
'identify_'
'id'
'ics_'
'i'
'hundred_'
'hopes_'
'honest_'
'historic_'
'highly_'
'highest_'
'hen'
'hello_'
'headed_'
'hang_'
'guest_'
'gross_'
'grateful_'
'grant_'
'gne'
'gle'
'gives_'
'girlfriend_'
'ght_'
'gg'
'ged_'
'gained_'
'g'
'freedoms_'
'frame_'
'fra'
'forums_'
'focused_'
'fla'
'fish_'
'findings_'
'film_'
'female_'
'feelings_'
'federal_'
'favor_'
'fault_'
'false_'
'falling_'
'fair'
'facts_'
'factor_'
'facility_'
'faced_'
'express_'
'expertise_'
'expansion_'
'exp'
'executive_'
'excuse_'
'eventually_'
'ets_'
'etc_'
'era'
'ens'
'enjoyed_'
'encourage_'
'ement_'
'emb'
'element_'
'educational_'
'eating_'
'ds'
'driver_'
'drawn_'
'double_'
'director'
'des'
'dep'
'demo'
'delivery_'
'degree_'
'def'
'deeply_'
'dea'
'das_'
'dar'
'dan'
'damaged_'
'cy'
'cs_'
'cross_'
'cro'
'criteria_'
'cri'
'cow'
'counter_'
'cou'
'copies_'
'convention_'
'contributing_'
'continuation_'
'consistent_'
'conservation_'
'conclude_'
'concepts_'
'computer_'
'comment_'
'collective_'
'coffee_'
'clothes_'
'closing_'
'civilians_'
'cing_'
'choose_'
'ches_'
'check'
'changing_'
'ce'
'catch_'
'carriage_'
'campaign_'
'cal'
'built_'
'breaking_'
'bought_'
'border_'
'boo'
'bol'
'blue_'
'blo'
'bigger_'
'belonging_'
'behaviour_'
'becoming_'
'became_'
'bar_'
'bar'
'bank_'
'ay_'
'audit_'
'attacks_'
'ating_'
'assurance_'
'asse'
'aspect_'
'approximately_'
'approve_'
'appreciation_'
'appointed_'
'anti_'
'ann'
'ances_'
'an'
'am'
'alright_'
'ak'
'aid_'
'affecting_'
'advisory_'
'advise_'
'add_'
'ad'
'actors_'
'accident_'
'acce'
'ab'
'`_'
'Zambia_'
'Yo_'
'XXI_'
'XI_'
'Washington_'
'Vol'
'Until_'
'USD_'
'UNITED_'
'UNESCO_'
'UN'
'Trust_'
'Time_'
'Thi'
'TV_'
'TR'
'TA'
'Supplement_'
'Summary_'
'Sta'
'Somebody_'
'Sit_'
'Sierra_'
'Sho'
'Shar'
'Sar'
'Sa'
'STE'
'SE'
'Records_'
'Really_'
'Ray_'
'RC'
'Qui'
'Qatar_'
'Prime_'
'Pri'
'Political_'
'Planning_'
'Pen'
'Peacekeeping_'
'Para'
'PO'
'Once_'
'Oliver_'
'Ol'
'Ocean_'
'OU'
'OS'
'Notes_'
'Nic'
'NC'
'Must_'
'Met'
'Mart'
'Malta_'
'Malaysia_'
'Madagascar_'
'Lithuania_'
'Lin'
'Lia'
'Leone_'
'Lar'
'Land'
'LO'
'King_'
'Jud'
'Jesus_'
'Jane'
'Jamahiriya_'
'Jack_'
'Inter_'
'Initiative_'
'Industrial_'
'Indonesia_'
'ID'
'Hmm_'
'Her_'
'Her'
'Help_'
'Gu'
'Green'
'Gra'
'Governmental_'
'Gi'
'Gaza_'
'GR'
'Fla'
'Financing_'
'Field_'
'Father_'
'FI'
'FA'
'Est'
'ES'
'EL'
'EC_'
'Drugs_'
'Draft_'
'Does_'
'Djibouti_'
'Didn_'
'Despite_'
'Decree_'
'Decision_'
'Crime_'
'Combat_'
'Christ_'
'Charlie_'
'Captain_'
'Cameroon_'
'Cambodia_'
'CA'
'British_'
'Bet'
'Ber'
'Ben'
'Beijing_'
'Azerbaijan_'
'Au'
'At'
'Assistant_'
'Argentina_'
'Arabia_'
'Another_'
'Amy_'
'Am'
'Al_'
'AL_'
'; '
': (_'
'98'
'67'
'34'
'25'
'226_'
'1987_'
'1973_'
'1971_'
'1968_'
'195'
'186_'
'128_'
'126_'
'124_'
'118_'
'108_'
'106_'
'101_'
'08_'
'01'
'... '
'," _'
') - _'
''._'
'%._'
'". _'
' ("_'
' #_'
' !_'
'€, _'
'ѕ'
'ён_'
'яются_'
'языка_'
'яз'
'ядерным_'
'юю_'
'ющи'
'юш'
'юрисдикции_'
'юн'
'эффективно_'
'этнических_'
'этапах_'
'эн'
'эль_'
'эл'
'экспорт'
'экономическим_'
'экономике_'
'ьм'
'ыл'
'ыв'
'щик_'
'ще'
'штатов_'
'штатно'
'школах_'
'шин'
'шагом_'
'чь_'
'чувств'
'чувак_'
'чрезвычайны'
'чо'
'чные_'
'чной_'
'чн'
'четверт'
'ческую_'
'ческая_'
'чени'
'частот'
'частных_'
'цеп'
'центре_'
'цен_'
'цен'
'целев'
'це'
'ц'
'хр'
'хотят_'
'химического_'
'хими'
'хар'
'фу'
'форум'
'форме_'
'финансовым_'
'финансовый_'
'физически'
'федеральны'
'феврале_'
'факторы_'
'факторов_'
'фактов_'
'факт'
'файл'
'уя_'
'ующие_'
'уще'
'ущ'
'учащихся_'
'ухода_'
'утра'
'устойчивости_'
'установлено_'
'установлению_'
'установк'
'успе'
'усилиям_'
'ус_'
'урок'
'уровней_'
'ур_'
'ур'
'уп'
'уничтожен'
'унижающих_'
'университет'
'умер_'
'уменьшения_'
'ума'
'улучшение_'
'указанно'
'указаний_'
'указал_'
'уйти_'
'удов'
'удач'
'углерода_'
'уверен_'
'увеличению_'
'убить_'
'убила_'
'убил_'
'убива'
'убежище_'
'уб'
'у'
'ты'
'туп'
'тря'
'три'
'треть'
'требованиями_'
'транспорту_'
'транспортного_'
'точке_'
'торговлю_'
'тон'
'том'
'тов'
'то'
'тно_'
'тл'
'типа_'
'тил_'
'тил'
'техническое_'
'техническим_'
'тест'
'тесного_'
'тесно_'
'террористическ'
'терроризм_'
'тем'
'тельной_'
'тельно_'
'тело_'
'те'
'твою_'
'твоим_'
'танц'
'таб'
'сыграл'
'съе'
'сч'
'сути_'
'супругов_'
'сум'
'структуре_'
'строительн'
'стрел'
'стратегия_'
'стратегического_'
'стратегических_'
'страниц'
'стражей_'
'страда'
'сторонам_'
'столь_'
'стипендий_'
'стей_'
'сте'
'ства'
'статистики_'
'стар'
'стане'
'стандарт'
'стан'
'стабильной_'
'ссылки_'
'ссылка_'
'сси'
'средствах_'
'сред'
'ср'
'способность_'
'спорт'
'список_'
'спи'
'специальные_'
'специализированных_'
'спать_'
'спас'
'социальным_'
'сохраня'
'сохранению_'
'сотни_'
'сосредоточен'
'соп'
'соответствующую_'
'сообщил_'
'сообщи'
'сообщениям_'
'сообщение_'
'соображения_'
'сокраща'
'создают_'
'созданием_'
'содержащ'
'содействию_'
'согласованных_'
'согласен_'
'совершенные_'
'совершение_'
'собственно'
'сно'
'сначала_'
'смотреть_'
'случаи_'
'сложны'
'слоев_'
'слов'
'скую_'
'ску'
'сказали_'
'скажи_'
'ска'
'серьезных_'
'сектор_'
'северо_'
'сдержива'
'связанными_'
'связанной_'
'свин'
'свидетельствуют_'
'света_'
'свет'
'санкций_'
'сами_'
'ряд'
'рь'
'рыночной_'
'рынках_'
'рп'
'рон'
'рол'
'рождения_'
'рож'
'ров'
'решительн'
'ресурсах_'
'ресурсам_'
'религиозной_'
'религи'
'рекомендацию_'
'резюме_'
'резолюциях_'
'ред'
'регулярных_'
'регулирующие_'
'регионах_'
'регион'
'ребенок_'
'расходами_'
'рассчитыва'
'рассматрива'
'расследование_'
'распредел'
'распоряжении_'
'расп'
'рами_'
'рал'
'ракет'
'район_'
'район'
'разрешен'
'размещен'
'раздела_'
'разд'
'развивающимися_'
'развивать_'
'рад'
'равенство_'
'работают_'
'пье'
'пыта'
'путь_'
'пут'
'прошла_'
'прочего_'
'проч'
'процессов_'
'процедур'
'просьбы_'
'пространства_'
'промышленно'
'прокуратур'
'продолжительностью_'
'продажи_'
'программах_'
'проводят_'
'проводиться_'
'проводится_'
'проведены_'
'провед'
'пров'
'проблематик'
'проблемами_'
'причины_'
'причин_'
'присутствия_'
'принимают_'
'принадлежности_'
'прин'
'примирения_'
'примерно_'
'применению_'
'применении_'
'призыв_'
'признать_'
'признан'
'признается_'
'призвали_'
'призвала_'
'приду'
'прида'
'приговор'
'приверженность_'
'приб'
'преподавателей_'
'президента_'
'представлены_'
'представленные_'
'представила_'
'предприятия'
'предоставленных_'
'предметом_'
'предмет_'
'предложенны'
'предлагаемого_'
'пределах_'
'предел'
'правового_'
'правительствам_'
'правилам_'
'пошёл_'
'потребления_'
'потеря'
'потери_'
'поте'
'поступления_'
'пострадал'
'поставщиков_'
'поставить_'
'постав'
'посп'
'пособий_'
'посмотреть_'
'послед'
'пор'
'поправок_'
'поощрять_'
'понимаешь_'
'пользователей_'
'пользования_'
'полученные_'
'получение_'
'полу'
'полномочия_'
'полное_'
'политического_'
'политические_'
'поли'
'полет'
'показателями_'
'пок'
'позд'
'позволило_'
'пожи'
'подчеркнул_'
'подчеркивает_'
'подтверждения_'
'подтверждает_'
'подтвержда'
'подстр'
'подразделения_'
'подр'
'подписан'
'подпис'
'подобных_'
'подобные_'
'подлежа'
'поддержива'
'подготовленн'
'поглощ'
'погиб'
'повысить_'
'поверить_'
'пове'
'плюс_'
'планируется_'
'планирова'
'письма_'
'пират'
'персоналом_'
'переход_'
'пересмотра_'
'перес'
'переписи_'
'переве'
'первым_'
'пенсию_'
'пару_'
'партнерства_'
'партнерами_'
'партий_'
'пара'
'пар'
'ош'
'очка_'
'оци'
'официального_'
'официально_'
'отчет_'
'отцом_'
'отходов_'
'отрасл'
'отразить_'
'отр'
'относящихся_'
'отмечая_'
'отмечается_'
'открыты'
'отдельно'
'отделение_'
'отвез'
'осуществляются_'
'осу'
'остров'
'остатка_'
'остальных_'
'оставаться_'
'особое_'
'особ'
'основыва'
'основного_'
'основанием_'
'ору_'
'оров'
'организованной_'
'органам_'
'опытом_'
'определяет_'
'операция_'
'опасность_'
'онных_'
'оказываем'
'оказал'
'ой'
'ознакомиться_'
'оз'
'одо'
'один'
'оди'
'од_'
'огромное_'
'ого'
'ог'
'овые_'
'ови'
'ование_'
'обязательно'
'объектов_'
'объединя'
'объединени'
'общин'
'общественно'
'обществе_'
'обще'
'обусловлен'
'обстановки_'
'обратиться_'
'обратить_'
'обратил'
'образц'
'образованию_'
'обоих_'
'областей_'
'обл'
'ня_'
'ня'
'нь_'
'нул'
'ну'
'нски'
'нрав'
'ностью_'
'носит_'
'нормам_'
'номер_'
'нож'
'новости_'
'ников_'
'никакого_'
'низ'
'нервн'
'нераспространения_'
'неправительственными_'
'неофициально'
'необходимым_'
'необ'
'ненад'
'незаконных_'
'неза'
'неделе_'
'невы'
'невозможно_'
'нашли_'
'начального_'
'началось_'
'начале_'
'национальный_'
'находящиеся_'
'научных_'
'настоящим_'
'населению_'
'население_'
'наркотики_'
'напоминает_'
'налого'
'название_'
'назвал_'
'надеяться_'
'надел'
'надеемся_'
'наде'
'навыков_'
'нав'
'набора_'
'мы'
'мотр'
'момента_'
'молод'
'моим_'
'мно'
'млрд_'
'миссиях_'
'мировой_'
'минимальных_'
'мина'
'механизм'
'метров_'
'метод'
'мет'
'местные_'
'мес'
'мероприяти'
'мел'
'материал'
'мате'
'массового_'
'марте_'
'мани'
'ман'
'максимальной_'
'май'
'мае_'
'любим'
'лы_'
'лле'
'личной_'
'лично_'
'лич'
'лини'
'ленно'
'лени'
'лежит_'
'лег'
'лан'
'лаз'
'кци'
'кт'
'крупных_'
'кризис_'
'крат'
'красив'
'крас'
'корол'
'координацию_'
'контрактов_'
'конте'
'конт'
'консультативных_'
'консультативно'
'консенсус_'
'компания_'
'коммуникационных_'
'коммерческ'
'комитету_'
'комиссия_'
'коллег'
'количества_'
'кодекс'
'класс'
'категорий_'
'кат'
'касающееся_'
'кара'
'капитал'
'камер'
'как'
'йской_'
'йн'
'йко'
'йд'
'ича'
'ита_'
'исходя_'
'источники_'
'история_'
'исследовани'
'используется_'
'использоваться_'
'исполнения_'
'исключения_'
'иска'
'ис_'
'ион'
'иных_'
'инфраструктур'
'ину'
'интеллектуальной_'
'инспекторов_'
'индивидуально'
'инг'
'ина_'
'имеющихся_'
'имеющих_'
'имен'
'ил'
'изуч'
'изменение_'
'изложением_'
'иж'
'ией_'
'ие'
'ива'
'иан'
'зы_'
'зор'
'зоны_'
'зон'
'значительный_'
'значений_'
'знаком'
'зи_'
'звонки_'
'заявок_'
'заявлением_'
'заявить_'
'защитить_'
'защита_'
'застр'
'заставля'
'заседание_'
'заранее_'
'запрещения_'
'запрещен'
'заполнения_'
'заполн'
'запас'
'западных_'
'занят'
'занима'
'зан'
'замечания_'
'законодательные_'
'заключа'
'закл'
'заканчива'
'займ'
'заинтересованные_'
'задолженности_'
'задействован'
'задача_'
'заб'
'журналист'
'журнал'
'жу'
'жно'
'жир'
'жилищного_'
'живы'
'жи_'
'жестокого_'
'жест'
'жены_'
'жен'
'желание_'
'жаль_'
'жалобы_'
'еча'
'етр'
'ест'
'есн'
'еск'
'ес_'
'ери'
'еп'
'енным_'
'ением_'
'емой_'
'ельных_'
'ело'
'ели_'
'елей_'
'ека'
'ек'
'един'
'еди'
'евро_'
'другому_'
'дро'
'достигнутого_'
'дос'
'дополнительной_'
'дополнение_'
'донорами_'
'должн'
'долгосрочны'
'документу_'
'договоренности_'
'договор_'
'доб'
'див'
'детям_'
'детского_'
'детка_'
'держа'
'делегаций_'
'делают_'
'декабре_'
'двусторонних_'
'двадцать_'
'дам'
'дальнейших_'
'дальнейшему_'
'дает_'
'графи'
'гражданами_'
'готова_'
'гол'
'глобальном_'
'глобального_'
'глобализации_'
'гендерных_'
'ге_'
'ге'
'гат'
'ган'
'выступа'
'высокую_'
'высоко_'
'высоко'
'высказыва'
'выс'
'выполнении_'
'вып'
'выделен'
'выдви'
'выдачи_'
'вывод_'
'вывод'
'вшие_'
'вчера_'
'ву_'
'второго_'
'вт'
'встрече_'
'встреча_'
'встретил'
'вста'
'вспомогательны'
'вспомогательного_'
'временных_'
'временной_'
'временн'
'врач'
'вп'
'восточной_'
'восстановление_'
'вор'
'воп'
'вооруженными_'
'возобновления_'
'возникновения_'
'возможным_'
'возможностью_'
'вод'
'вов'
'внутренней_'
'внутренне_'
'вносить_'
'вно'
'внешних_'
'внесения_'
'вн'
'власть_'
'включена_'
'включа'
'вижу_'
'взрыв'
'взгляд_'
'взаимопонимании_'
'вещь_'
'вечером_'
'вернуть_'
'верн'
'верит'
'вдруг_'
'ввел'
'вашей_'
'ваш_'
'ваться_'
'ван'
'важные_'
'вает_'
'бюджету_'
'большинства_'
'болезн'
'богат'
'бо_'
'безработицы_'
'бе'
'бата'
'бассейна_'
'бара'
'банк_'
'бан'
'африканского_'
'аудитор'
'ау'
'ати'
'асть'
'архив'
'арабских_'
'ант'
'ани'
'английском_'
'аналитически'
'ался_'
'али'
'але'
'актах_'
'ази'
'адвокат_'
'агент'
'автор'
'ави'
'августе_'
'Юга_'
'ЮЩ'
'ЮНОПС_'
'ЮНОДК_'
'ЮНМОВИК_'
'Эфиопия_'
'Эстония_'
'Эль_'
'Экономического_'
'Эк'
'ЭС'
'ЭКА_'
'Ы'
'Штатами_'
'Швеции_'
'Чи'
'Чего_'
'Че'
'ЦИ'
'Хор'
'Хи'
'Хе'
'Хватит_'
'Финляндия_'
'Филиппины_'
'Фил'
'Фиджи_'
'Учитывая_'
'Участие_'
'Устав'
'Ур'
'Узбекистан_'
'Увеличение_'
'Турции_'
'Ти'
'Стр'
'Сторонами_'
'Стандарт'
'Среди_'
'Социального_'
'Сотрудничество_'
'Соединенными_'
'Сме'
'Словакия_'
'Скажите_'
'Сим'
'Сенегал_'
'Сен'
'Сво'
'СМ'
'С3_'
'Ряд_'
'Рио_'
'Рика_'
'Расс'
'Работа_'
'РЕ'
'Прочие_'
'Продолж'
'Пров'
'Приложение_'
'Прежде_'
'Пос'
'Поощрение_'
'Первый_'
'Парагвай_'
'Пара'
'Палестин'
'Пак'
'ПРЕДСЕДАТЕЛЬ_'
'ПИС_'
'Ос'
'Оп'
'Одним_'
'Обще'
'Обзор_'
'ОУР_'
'ОАЕ_'
'Новые_'
'Наш'
'Начиная_'
'Наконец_'
'Над'
'НТ'
'НА'
'Мой_'
'Могу_'
'Миссия_'
'Министерства_'
'Мил'
'Международное_'
'Марокко_'
'Маль'
'Май'
'МТ'
'МС'
'МК'
'МВФ_'
'Люксембург_'
'Лил'
'Ливийская_'
'ЛО'
'ЛИ'
'ЛА'
'Кувейт_'
'Кра'
'Кот_'
'Конференцией_'
'Консультативного_'
'Комиссией_'
'Колумбия_'
'Кого_'
'Карл'
'Какой_'
'Какие_'
'Казахстан_'
'Кажется_'
'КР'
'КН'
'Италия_'
'Исламская_'
'Иск'
'Ираке_'
'Информация_'
'Институт'
'Именно_'
'Зеландии_'
'Жа'
'Ему_'
'Ее_'
'Европейский_'
'ЕК'
'Др'
'Доминиканская_'
'Док'
'Доброе_'
'Дик'
'Джеймс_'
'Джамахирия_'
'Де'
'Данн'
'Дания_'
'ДО'
'Грузия_'
'Готов'
'Гондурас_'
'Глобального_'
'ГО'
'ГА'
'Высоки'
'Выс'
'Второй_'
'Вс'
'Вр'
'Востоке_'
'Ви'
'Ван'
'ВОЗ_'
'Бутан_'
'Без_'
'Бар'
'Армения_'
'Андорра_'
'Аналогичные_'
'Аль_'
'Аль'
'Азербайджан_'
'Австрия_'
'Австралии_'
'Є'
'à_'
'ys'
'xenophobia_'
'work'
'wondering_'
'wished_'
'wings_'
'willing_'
'wi'
'west_'
'welfare_'
'weather_'
'water'
'warm'
'ward'
'vital_'
'violate_'
'video_'
'via_'
'vessel_'
'ven_'
'ven'
'vely_'
'varia'
'var'
'van_'
'van'
'valid_'
'usual_'
'ur_'
'upstairs_'
'upset_'
'unfortunately_'
'un'
'um'
'ultimate_'
'ue_'
'ud'
'typically_'
'twice_'
'twi'
'tur'
'tter_'
'trip'
'tribute_'
'transparency_'
'touch_'
'ton'
'tol'
'tin'
'tim'
'till_'
'tie'
'ticket_'
'threats_'
'threatened_'
'thie'
'texts_'
'territorial_'
'temporary_'
'techniques_'
'teachers_'
'tea'
'tch_'
'sweetheart_'
'swa'
'sustained_'
'surprised_'
'surgery_'
'super_'
'summer_'
'summ'
'suggest_'
'suffering_'
'suddenly_'
'substances_'
'stress_'
'strength_'
'stocks_'
'ster_'
'ster'
'stem'
'steal_'
'standard_'
'ssion'
'square_'
'spr'
'spoken_'
'spite_'
'spi'
'spending_'
'spend_'
'specialized_'
'soil_'
'ski'
'sive_'
'simultaneously_'
'sides_'
'showing_'
'shortly_'
'shift_'
'sh'
'settlements_'
'ser'
'secondary_'
'sec'
'sea'
'science_'
'sauce_'
'san'
'sal'
'sake_'
'safeguard_'
'ruct'
'rs'
'roll'
'rock'
'ris'
'rie'
'ri'
'revision_'
'revenues_'
'return'
'restoration_'
'restaurant_'
'res'
'representation_'
'replaced_'
'relative_'
'relates_'
'relate_'
'rein'
'regimes_'
'referendum_'
'refer_'
'reduced_'
'recovery_'
'reconciliation_'
'reco'
'receiving_'
'reas'
'realized_'
'reaffirmed_'
'react'
'rc'
'raw_'
'ratio'
'rated_'
'ral'
'rai'
'rable_'
'quarters_'
'quarter_'
'py_'
'purchase_'
'pur'
'publications_'
'pt_'
'pt'
'psycho'
'protecting_'
'protected_'
'prot'
'propose_'
'properly_'
'proliferation_'
'projected_'
'product_'
'processing_'
'processes_'
'primarily_'
'pri'
'preventing_'
'pretend_'
'presence_'
'preparatory_'
'pping_'
'pp_'
'powers_'
'pot_'
'posed_'
'por_'
'por'
'pop'
'poo'
'pol'
'ple'
'planet_'
'places_'
'pil'
'pha'
'perspective_'
'pers_'
'perpetrators_'
'pending_'
'pect'
'patterns_'
'patients_'
'pass'
'partnerships_'
'participated_'
'pain_'
'ozone_'
'oversight_'
'overcome_'
'outta_'
'outer_'
'out'
'ourselves_'
'ort'
'ori'
'organize_'
'oral_'
'or'
'operating_'
'opening_'
'ond'
'ology_'
'oli'
'officially_'
'od'
'occasions_'
'obstacles_'
'observations_'
'ntly_'
'nsi'
'ns'
'notification_'
'nic_'
'nic'
'nge'
'newly_'
'neighborhood_'
'negotiating_'
'necessity_'
'nd'
'ncy_'
'named_'
'nai'
'mun'
'movie_'
'motion_'
'mothers_'
'mostly_'
'moral_'
'mood_'
'modifications_'
'mode'
'missile_'
'mir'
'metr'
'mes_'
'mer_'
'mer'
'mention_'
'mber'
'mb'
'mate_'
'master_'
'markets_'
'mark_'
'mal'
'machines_'
'machine_'
'lus'
'lovely_'
'lock_'
'ln'
'llo'
'lla'
'live'
'lit'
'lists_'
'listening_'
'linked_'
'lines_'
'library_'
'legitimate_'
'leads_'
'late'
'laid_'
'lad'
'knife_'
'kiss_'
'kin_'
'jump'
'ji'
'iti'
'is'
'ire_'
'ir_'
'io_'
'involving_'
'invitation_'
'invi'
'invest'
'interpret'
'intensive_'
'inta'
'int_'
'int'
'instructions_'
'inspect'
'initial_'
'inf'
'indicative_'
'indicate_'
'inde'
'ind'
'incurred_'
'inclusion_'
'includes_'
'incidents_'
'inci'
'imperative_'
'imm'
'image_'
'im_'
'illa'
'ility_'
'il'
'ier_'
'ide_'
'hy'
'hungry_'
'humanity_'
'hu'
'http_'
'hs_'
'hostilities_'
'host_'
'homes_'
'hole_'
'helping_'
'hel'
'happening_'
'handle_'
'han_'
'guards_'
'gu'
'granted_'
'governing_'
'glo'
'glass_'
'gge'
'get'
'funny_'
'fulfil_'
'fri'
'frameworks_'
'forth_'
'forgot_'
'forever_'
'forests_'
'foot_'
'focal_'
'fo'
'fly_'
'flow_'
'filled_'
'fill_'
'feet_'
'fe'
'failure_'
'fail_'
'fail'
'fact'
'extension_'
'extend_'
'expression_'
'exposure_'
'exposed_'
'expand_'
'execution_'
'exe'
'excluded_'
'exchanges_'
'exchanged_'
'ex'
'eva'
'ev'
'estimates_'
'esti'
'ess'
'ers'
'eradicate_'
'equally_'
'ept'
'eo'
'ents_'
'entity_'
'eni'
'enemy_'
'ena'
'embarrass'
'eliminating_'
'ela'
'een_'
'eb'
'eas'
'ea'
'dying_'
'du'
'drunk_'
'drive_'
'drew_'
'dress_'
'dreams_'
'drafted_'
'dozen_'
'doubt_'
'donor_'
'dollar_'
'distributed_'
'disputes_'
'disciplinary_'
'din'
'di_'
'dge'
'devoted_'
'deter'
'detainees_'
'destroy_'
'desire_'
'derived_'
'dera'
'deployment_'
'demobilization_'
'deli'
'delay_'
'del_'
'definitely_'
'dece'
'dealt_'
'dark_'
'cure_'
'crowd'
'cousin_'
'cour'
'council_'
'corporations_'
'core_'
'cope_'
'coordinated_'
'controls_'
'contracts_'
'continuing_'
'content_'
'conta'
'cons'
'confirmed_'
'composition_'
'complex_'
'compar'
'commodities_'
'comb'
'cock_'
'coat_'
'classification_'
'ción_'
'cities_'
'chose_'
'challenge_'
'cent'
'cells_'
'cc'
'categories_'
'cate'
'cat'
'care'
'butt'
'bus_'
'budgetary_'
'broken_'
'bridge_'
'bound_'
'bottle_'
'block_'
'blind_'
'ble'
'blame_'
'bird_'
'ber_'
'believes_'
'began_'
'beach_'
'bas'
'band_'
'background_'
'ax'
'awful_'
'ave'
'availability_'
'auto'
'attempt_'
'ative_'
'ath'
'assured_'
'assurances_'
'arrangement_'
'applications_'
'appears_'
'appeared_'
'apparently_'
'ape'
'ap_'
'anybody_'
'ants_'
'announce_'
'ange'
'amp'
'allegedly_'
'aircraft_'
'advantage_'
'advancement_'
'advanced_'
'adopt_'
'admit_'
'adapt_'
'accompanied_'
'acco'
'abs'
'abandon'
'Zimbabwe_'
'You'
'Yemen_'
'Wi'
'Wat'
'Want_'
'Wal'
'WH'
'WFP_'
'Viet_'
'VE_'
'VE'
'Ur'
'Ty'
'Tuesday_'
'Tro'
'Tri'
'Transnational_'
'Trac'
'To'
'Thought_'
'Things_'
'Technology_'
'Tara_'
'Tan'
'TRA'
'Switzerland_'
'Subcommittee_'
'Statistics_'
'Statement_'
'St'
'Sp'
'Sounds_'
'Someone_'
'Society_'
'Small_'
'Show_'
'Shi'
'She'
'Serbian_'
'Sco'
'School_'
'Sarajevo_'
'San'
'Sad'
'SS_'
'SBI_'
'Run_'
'Rob'
'Ren'
'Ref'
'Rat'
'Ram'
'Rai'
'Racial_'
'RO'
'RED'
'RD'
'Q_'
'Province_'
'Platform_'
'Pl'
'Philippines_'
'Ph'
'Pete_'
'Paul_'
'Paraguay_'
'Palais_'
'PR'
'PA'
'Out_'
'Or'
'Optional_'
'Ooh_'
'Om'
'OR_'
'OP'
'OECD_'
'OD'
'Nothing_'
'Nobody_'
'No'
'Nigeria_'
'Nice_'
'Nam_'
'NATIONS_'
'Mu'
'Mor'
'Measures_'
'Max_'
'Matt'
'Mas'
'Marg'
'Mali_'
'Malawi_'
'Ma_'
'Love_'
'Looks_'
'Legal_'
'Least_'
'Lea'
'Lan'
'Labour_'
'LL_'
'KE'
'Jun'
'Joe_'
'Japanese_'
'James_'
'Jake_'
'Inc'
'Iceland_'
'IT_'
'IT'
'IR'
'IMO_'
'IB'
'Humanitarian_'
'House_'
'Honduras_'
'Has_'
'Haiti_'
'HA'
'Greek_'
'Governing_'
'Ghana_'
'Gar'
'GC_'
'GA'
'Full_'
'Fuck_'
'Fourth_'
'Fo'
'Fil'
'Fifty_'
'Fifth_'
'Experts_'
'Everybody_'
'Estonia_'
'Emergency_'
'EU_'
'ER'
'Doctor_'
'Developed_'
'Detective_'
'Dep'
'Dec'
'Dean_'
'Data_'
'Daniel_'
'Cou'
'Com'
'Christmas_'
'Cho'
'Cha'
'Cas'
'CRP_'
'CR'
'CP_'
'COP_'
'CERD_'
'CC'
'Bye_'
'Bur'
'Bre'
'Boo'
'Black_'
'Bl'
'Bea'
'Ban'
'BL'
'BE_'
'Attorney_'
'Assistance_'
'Anyway_'
'Anything_'
'Anti'
'Algeria_'
'Alex_'
'Adoption_'
'ATION_'
'AS'
'AI'
'AC'
'://_'
': &_'
'97'
'88_'
'88'
'84'
'83'
'64'
'56'
'55'
'471_'
'42'
'4'
'260_'
'26'
'1977_'
'1975_'
'1949_'
'155_'
'151'
'15'
'142_'
'125_'
'06'
'03'
'02_'
'/'
'.]_'
'." _'
'- (_'
'**'
'), '
')); _'
'('
'%'
'";_'
'● _'
'№ _'
'• _'
'”, _'
'” (_'
'’ _'
'ћ'
'ј'
'ётся_'
'ёс'
'ёл'
'яющ'
'яще'
'ясны'
'ясно'
'яни'
'январе_'
'яли_'
'яла_'
'язы'
'яемы'
'ядерному_'
'ядерн'
'яг'
'явля'
'яв'
'ющая_'
'юстиции_'
'юрис'
'юридически_'
'юр'
'юм'
'этнической_'
'эпидемии_'
'энд'
'эм'
'элементом_'
'электронных_'
'электронн'
'экст'
'экономическ'
'экономии_'
'экологических_'
'эквивалентн'
'ьт'
'ьс'
'ьных_'
'ьной_'
'ьно_'
'ьз'
'ыр'
'ывала_'
'ывается_'
'щую_'
'щим_'
'ществ'
'щен'
'щего_'
'шу'
'шни'
'шли'
'шл'
'школьн'
'шкалы_'
'широкое_'
'широк'
'шири'
'шива'
'шер'
'шен'
'чувство_'
'что'
'чрезвычайно_'
'чно_'
'чистых_'
'числом_'
'чин'
'четкое_'
'чере'
'чер'
'человеческо'
'человеком_'
'частей_'
'чан'
'цу'
'цифры_'
'цит'
'цир'
'ционны'
'цикл'
'цией_'
'цены_'
'центром_'
'целям_'
'целый_'
'целы'
'целенаправленн'
'целевые_'
'цел'
'це_'
'цар'
'хотите_'
'хотим_'
'хотелось_'
'хорошие_'
'хорош'
'хозяйств'
'хло'
'фра'
'фотографи'
'формирования_'
'форма_'
'форма'
'фор'
'фирм'
'финансовыми_'
'финансовую_'
'финансируемы'
'фил'
'фи_'
'фермерск'
'фект'
'федерально'
'фан'
'фал'
'фактором_'
'фактор_'
'факта_'
'фа_'
'ф_'
'уязвим'
'учрежден'
'учителей_'
'учи'
'учен'
'учебн'
'участок_'
'участии_'
'участвовал'
'ухудш'
'устрои'
'устойчиво'
'устных_'
'установить_'
'установил'
'уста'
'уст'
'успехов_'
'успех'
'усо'
'усиления_'
'уровнем_'
'уре'
'упро'
'упр'
'упо'
'универсального_'
'умереть_'
'ум_'
'ульс'
'ули'
'ула'
'ул'
'укрепить_'
'указывалось_'
'указывается_'
'ука'
'уй_'
'узнал'
'уемы'
'уе'
'удовлетворение_'
'удо'
'удержива'
'уде'
'угроза'
'угроз_'
'уго'
'уверены_'
'убь'
'убит'
'убийца_'
'уби'
'уально'
'тяжело_'
'тяжело'
'тюрьме_'
'тюр'
'тыс_'
'тщательного_'
'тщательно_'
'трудоустройства_'
'труб'
'третьего_'
'требуют_'
'требова'
'транспортном_'
'транспарентности_'
'транснациональной_'
'трансляци'
'трансгранично'
'традиционно'
'точка'
'тос'
'тори'
'торговых_'
'торгов'
'тор_'
'топлив'
'толковании_'
'това'
'тия_'
'тически'
'тим'
'тив'
'тесной_'
'террористов_'
'территориях_'
'территорию_'
'терп'
'тенденция_'
'тенденции_'
'темпы_'
'температур'
'тематическ'
'тема_'
'тельно'
'тельная_'
'телефону_'
'телекоммуникаци'
'тела_'
'текущим_'
'твом_'
'твоем_'
'тат'
'таком_'
'таки_'
'так'
'тайн'
'таблице_'
'тo'
'считается_'
'считаем_'
'сформулированных_'
'существующе'
'супер'
'сумм_'
'суды_'
'судом_'
'судебн'
'судами_'
'субрегиональных_'
'ступен'
'структуру_'
'стри'
'стреми'
'страхов'
'страновых_'
'страдания_'
'стр_'
'стоят'
'стороной_'
'сторонни'
'сторона_'
'стоимость_'
'стил'
'стер_'
'ствие_'
'ств'
'статьях_'
'стат'
'старо'
'стара'
'становятся_'
'стади'
'ставки_'
'ст_'
'ссе'
'сса'
'срочны'
'среду_'
'средствам_'
'среднесрочно'
'спустя_'
'спрашивает_'
'справедливого_'
'способствовал'
'способны'
'спорта_'
'спора_'
'спор'
'списк'
'специалисты_'
'спектр'
'спал'
'социальн'
'сот'
'состоявше'
'составляющих_'
'составлял'
'составили_'
'составе_'
'сосредоточи'
'сосед'
'сос'
'сор'
'соответствуют_'
'соответствие_'
'сон_'
'солн'
'солидарности_'
'сокращен'
'созна'
'создан_'
'созван'
'сожалению_'
'сожаление_'
'содержащих_'
'содержащий_'
'содержаться_'
'содержание_'
'согласуется_'
'согласи'
'современных_'
'совместной_'
'совещани'
'советом_'
'совершенно_'
'собственный_'
'собственные_'
'собственной_'
'собрани'
'соблюдении_'
'соблюдать_'
'собираюсь_'
'собирался_'
'снять_'
'сня'
'снабжен'
'сможешь_'
'смогла_'
'смет'
'смес'
'случая_'
'случаю_'
'случа'
'службу_'
'служ'
'слова'
'сло'
'следовало_'
'скрыва'
'ское_'
'сим'
'сили'
'сила_'
'сид'
'сж'
'середин'
'сен'
'семейны'
'секунд_'
'сексуально'
'сек'
'северно'
'севере_'
'сделки_'
'сделк'
'сделано_'
'связанным_'
'связана_'
'связан_'
'своё_'
'своевременно'
'сводн'
'сво'
'свидание_'
'св'
'сб'
'санитарии_'
'самых_'
'самые_'
'самы'
'самоуправления_'
'самолето'
'самой_'
'сайте_'
'ряде_'
'рынок_'
'рынка_'
'рыб'
'рус'
'руководящими_'
'руководящ'
'ру_'
'рр'
'ром'
'рой_'
'рождаемости_'
'рова'
'рны'
'рк'
'рин'
'решить_'
'решающ'
'реч'
'реформ'
'рей'
'резолюциям_'
'рез'
'реж'
'рее'
'редко_'
'регулярной_'
'регулярного_'
'регулярно_'
'региональн'
'ревизи'
'рев'
'ребята_'
'реб'
'реа'
'рг'
'рационально'
'расширять_'
'расширении_'
'раствор'
'рассмотрением_'
'рассматривается_'
'рассматривает_'
'расположен'
'располага'
'расписание_'
'рани'
'разъяснения_'
'разряды_'
'разработа'
'размеров_'
'размер_'
'разме'
'разграничени'
'разговаривать_'
'развива'
'развертывания_'
'разве'
'разв'
'рад_'
'равны'
'равной_'
'равн'
'рабочее_'
'рабочая_'
'работниками_'
'работающих_'
'пыталась_'
'пута'
'пусты'
'пус'
'публично'
'пт'
'пс'
'прямы'
'прямого_'
'прям'
'прощения_'
'прош'
'процессы_'
'процессуальных_'
'процентно'
'процедуру_'
'профил'
'проф'
'протокол'
'просл'
'просить_'
'просили_'
'просвещения_'
'промышленность_'
'пром'
'проинформирован'
'произойдет_'
'производственны'
'производител'
'проект'
'продукции_'
'продолжают_'
'продемонстрировал'
'продав'
'прода'
'проводятся_'
'провинциях_'
'провинци'
'проверку_'
'провели_'
'проведено_'
'проведением_'
'проведена_'
'проблему_'
'проанализирова'
'пришлось_'
'пришли_'
'пришел_'
'приш'
'причина_'
'приоритетных_'
'приобретение_'
'принятое_'
'принятию_'
'принимала_'
'принимаемы'
'принести_'
'примеров_'
'приложени'
'прил'
'прик'
'прийти_'
'признания_'
'признал'
'признаку_'
'признава'
'приз'
'приводить_'
'приверженности_'
'привержен'
'привел_'
'приведен'
'приве'
'претензий_'
'преследования_'
'прекращение_'
'прекратить_'
'президентом_'
'предусмотренные_'
'предусматривающи'
'предусматривающе'
'предусматривают_'
'предусматривал'
'предстояще'
'представляющих_'
'представлению_'
'представительство_'
'представителем_'
'председательством_'
'предпринимать_'
'предпринимаемых_'
'предотвращении_'
'предоставляться_'
'предоставить_'
'предназначенных_'
'предложить_'
'предложила_'
'предложени'
'предварительной_'
'превышает_'
'превыша'
'практически_'
'правовым_'
'правильно_'
'появлени'
'почве_'
'похорон'
'похож_'
'пох'
'потерял_'
'потенциальны'
'построени'
'постоянных_'
'постоянным_'
'постоянн'
'постконфликтно'
'посте'
'постара'
'постановление_'
'пост'
'пособия_'
'послал'
'посеща'
'порта'
'пора'
'попыток_'
'попытк'
'попытаться_'
'попробовать_'
'поправк'
'попад'
'понятия_'
'понимания_'
'понимаете_'
'помощник'
'помеша'
'получила_'
'получа'
'полу_'
'полос'
'половин'
'полов'
'полную_'
'полно'
'полицию_'
'полицейского_'
'полезным_'
'поле'
'полагать_'
'поколений_'
'покл'
'показател'
'показал_'
'пой'
'позицию_'
'позиции_'
'позитивно'
'позвольте_'
'поза'
'пожелает_'
'поехал'
'подчеркива'
'подходов_'
'подтверждают_'
'подтвердить_'
'подтвердили_'
'подробно_'
'подробно'
'подпрограммы_'
'подотчетности_'
'поддержкой_'
'подготовительных_'
'подготовил_'
'подверг'
'подан'
'повышать_'
'повыша'
'повтори'
'повс'
'повестка_'
'повес'
'поведения_'
'побе'
'поанглийски_'
'плохо'
'платеж'
'планет'
'питание_'
'письм'
'пиро'
'персонал_'
'периоде_'
'перечня_'
'переходного_'
'перехода_'
'пересчета_'
'переста'
'перек'
'передовой_'
'передач'
'перед'
'первые_'
'первое_'
'пенсионные_'
'пенсии_'
'пас'
'партнер'
'паро'
'парни_'
'парков'
'папа_'
'пан'
'пакта_'
'очных_'
'очередной_'
'очевидно'
'оценить_'
'оценива'
'охране_'
'охо'
'охвачен'
'отчеты_'
'отчетов_'
'отчасти_'
'отц'
'отт'
'отсутствуют_'
'отсутствием_'
'отста'
'отсе'
'отс'
'отри'
'отра'
'отправит'
'отправ'
'отнес'
'отмечены_'
'отмечал'
'отл'
'отка'
'отделений_'
'отвеча'
'ответить_'
'ответ'
'отвер'
'осуществляет_'
'острова_'
'остаются_'
'остаться_'
'остаток_'
'остановить_'
'остан'
'остальные_'
'оставить_'
'остави'
'остав'
'особого_'
'особенно'
'основными_'
'основное_'
'оси'
'освобождения_'
'освобожден'
'освещение_'
'оружию_'
'оро'
'организовал'
'опро'
'определить_'
'определенно'
'определенн'
'определении_'
'определ'
'оправда'
'оплату_'
'описание_'
'описа'
'опи'
'оперативных_'
'оперативные_'
'оперативно_'
'оперативн'
'опасны'
'онным_'
'онный_'
'онного_'
'онер'
'ональн'
'олн'
'ола_'
'ол_'
'окладов_'
'оказывает_'
'озабочен'
'ожн'
'ожи'
'ожения_'
'оже'
'ожд'
'одно'
'одн'
'оде'
'ограниченны'
'ограничений_'
'ограничени'
'оговорки_'
'овал'
'обязательство_'
'общие_'
'обу'
'обсуждени'
'обсужда'
'обстоятельства_'
'образова'
'обоснованно'
'облегчения_'
'обладающи'
'обла'
'обеспечен'
'обвинения_'
'ню'
'нь'
'нужны_'
'нужда'
'нт_'
'нт'
'ночи_'
'нот'
'нормами_'
'нормально'
'нки_'
'нич'
'никому_'
'ники_'
'никакой_'
'низко'
'нец'
'неуст'
'неудачн'
'нести_'
'нере'
'нераз'
'неприсоединения_'
'непри'
'неправительственным_'
'непо'
'ненависти_'
'нен'
'немедленно_'
'нел'
'неко'
'незамедлительны'
'независимо'
'недост'
'недели_'
'недавне'
'нег'
'нг'
'нашу_'
'наш'
'начнется_'
'начи'
'находи'
'наук'
'наступ'
'наслед'
'населенных_'
'нарушением_'
'нарушени'
'наркотикам_'
'напряженность_'
'направлено_'
'направления_'
'напр'
'напомнить_'
'нап'
'наоборот_'
'нан'
'наличности_'
'наличии_'
'нал'
'накопленного_'
'назначенны'
'назначени'
'назнача'
'названием_'
'надцато'
'надеял'
'надежду_'
'надбавк'
'наг'
'набор_'
'наблюдение_'
'наблюдени'
'наблюдател'
'мусульман'
'морски'
'море_'
'мора'
'монт'
'мона'
'мон'
'момент'
'молодых_'
'мозг'
'моему_'
'мо_'
'многочисленные_'
'мн'
'мит'
'мистер'
'мирового_'
'мирных_'
'мирный_'
'министром_'
'министр'
'минимуму_'
'минимальны'
'милая_'
'миграционн'
'меч'
'местн'
'мероприятиях_'
'мент'
'международную_'
'междисциплинарн'
'медсестр'
'медленн'
'меди'
'мах_'
'материальных_'
'материально_'
'матери_'
'мам'
'мальчиков_'
'мало'
'мала'
'мал'
'магазин'
'любое_'
'люби'
'лю'
'льств'
'льны'
'льного_'
'лот'
'лом_'
'лов'
'лк'
'лишен'
'лицензи'
'лим'
'лик'
'лизации_'
'ливо'
'лесов_'
'лер_'
'ленных_'
'ленные_'
'лен'
'лекарств'
'лез'
'легки'
'лат'
'лаг'
'куч'
'курсов_'
'культуры_'
'культурной_'
'культурного_'
'кул'
'ктив'
'крупны'
'круг_'
'круг'
'кру'
'кровь_'
'коэффициент'
'коро'
'коренного_'
'координатор'
'концу_'
'концепцию_'
'концентраци'
'контингентов_'
'контакты_'
'контактов_'
'конкретно_'
'конвенцию_'
'кому_'
'комплексного_'
'компаний_'
'компанией_'
'комнате_'
'комнат'
'коммуникации_'
'комментарии_'
'команд'
'коло'
'колледж'
'кок'
'ково'
'книжки_'
'кн'
'км_'
'ключевым_'
'ключ_'
'кли'
'класси'
'кк'
'квартир'
'качество_'
'касающ'
'касаются_'
'кас'
'карты_'
'карт'
'канцелярии_'
'кандидатов_'
'кампании_'
'камень_'
'каком_'
'каза'
'кажд'
'кад'
'йно'
'ия'
'ища'
'ической_'
'ических_'
'ици'
'ительно_'
'ительно'
'ита'
'ит'
'источника_'
'историю_'
'историческо'
'исто'
'исправить_'
'используем'
'использованию_'
'использовал'
'исполня'
'исполнителя_'
'исполнительной_'
'испански'
'ислам'
'искоренению_'
'исключить_'
'исключительн'
'иру'
'иро'
'ира'
'иня'
'ины_'
'информировать_'
'инф'
'интерес'
'интерактивны'
'инструмента'
'инстанции_'
'ино'
'инициативу_'
'ини'
'инвестици'
'инв'
'имся_'
'импорт'
'имеющи'
'имеюще'
'имела_'
'има'
'иль'
'или'
'ике_'
'икаци'
'изучить_'
'изучение_'
'израильских_'
'изо'
'изменениями_'
'изменении_'
'изменен'
'изложен'
'изде'
'изго'
'избежать_'
'избегать_'
'изация_'
'иду_'
'идея_'
'играют_'
'ивно'
'ивать_'
'иб'
'зуб'
'зло'
'зин'
'зер'
'землю_'
'зел'
'здания_'
'звезд'
'заявлений_'
'заявки_'
'защитой_'
'зач'
'зации_'
'заци'
'затронуты'
'засух'
'зара'
'записку_'
'записка_'
'записи_'
'заняты'
'занятия_'
'занят_'
'заниматься_'
'замуж_'
'замеча'
'заметил'
'замет'
'заместитель_'
'заменить_'
'заме'
'зало'
'зале_'
'закончи'
'заключению_'
'заи'
'задержк'
'задержа'
'загрязнения_'
'загл'
'зависит_'
'зависеть_'
'заведения_'
'жь'
'жив'
'жестоких_'
'жертвы_'
'женщиной_'
'жением_'
'жени'
'жат'
'етс'
'етесь_'
'ета_'
'естр'
'еской_'
'ень_'
'ент'
'енск'
'ено'
'енный_'
'енд'
'емый_'
'еля'
'ейш'
'ейн'
'ей'
'ез_'
'ежедневн'
'ежегодно_'
'ежегодно'
'еду_'
'единственный_'
'единственно'
'единого_'
'единиц_'
'еде'
'ево'
'дяд'
'ды_'
'дс'
'друзьями_'
'доходов_'
'доход_'
'достойн'
'достигнут'
'дороге_'
'допускать_'
'допуска'
'допрос'
'дополнительного_'
'доме_'
'домашних_'
'долларов_'
'долго'
'доктор_'
'доказательств_'
'док'
'доз'
'дожде'
'договорных_'
'договоренност'
'дове'
'дно'
'дни_'
'диф'
'директор_'
'диплом'
'дил'
'джи'
'дж_'
'десятилетия_'
'держи'
'деревн'
'дем_'
'деловых_'
'делегациями_'
'делал_'
'дела'
'декларация_'
'действующими_'
'действующим_'
'действующие_'
'действует_'
'действи'
'действенно'
'деградации_'
'движени'
'двигаться_'
'дат'
'данн'
'дан'
'дали_'
'дак'
'давления_'
'давайте_'
'гуманитарную_'
'грузов'
'гром'
'гражданскому_'
'граждан'
'град'
'готовности_'
'государственно'
'государствах_'
'гос'
'городов_'
'город_'
'гори'
'гораздо_'
'голоса_'
'голос'
'годами_'
'говорили_'
'говори_'
'говори'
'гне'
'глубоко_'
'глаз_'
'гл'
'геро'
'гендерным_'
'гендерн'
'гг'
'гарантировать_'
'гарантий_'
'гаранти'
'галь'
'газа_'
'гава'
'вь'
'выходные_'
'вых_'
'высылк'
'высшего_'
'выступлени'
'выступает_'
'высоких_'
'высокий_'
'выразить_'
'выражения_'
'выработки_'
'выработать_'
'выполня'
'выполнить_'
'выполнил'
'выплаты_'
'выплате_'
'выплат_'
'вынесенны'
'вынесен'
'вынес'
'вым_'
'вый_'
'вызывать_'
'вызыва'
'вызванн'
'выдели'
'выгоды_'
'выглядит_'
'выг'
'выбрал_'
'вшись_'
'ву'
'второ'
'втор'
'встречу_'
'встреч_'
'встре'
'всп'
'всеобще'
'все'
'временно_'
'вредны'
'вразрез_'
'вра'
'восстановлению_'
'воспользоваться_'
'восемь_'
'воро'
'вон'
'воль'
'волну'
'войска_'
'возросл'
'возраст'
'возражени'
'возникновени'
'возникающих_'
'возникают_'
'возможных_'
'возможного_'
'возложен'
'воздушно'
'воздуха_'
'возвращению_'
'военными_'
'военного_'
'воду_'
'водными_'
'внутренние_'
'внешн'
'внесенны'
'внес_'
'внес'
'внедрения_'
'включение_'
'включен'
'вич'
'вит'
'виновны'
'вил'
'вик'
'видео'
'вид_'
'вид'
'взял_'
'взнос'
'веществами_'
'вещ'
'вертолетов_'
'верси'
'вернулся_'
'вери'
'верб'
'величины_'
'вел'
'ведет_'
'ведени'
'вебсайте_'
'введен'
'вают_'
'ваю'
'вашу_'
'ваше_'
'ваша_'
'вакансий_'
'вай'
'важности_'
'важнейши'
'вается_'
'бюджете_'
'бывшего_'
'бывшая_'
'бщ'
'будь_'
'будущего_'
'будучи_'
'бре'
'браке_'
'бр'
'боюсь_'
'бот'
'большое_'
'большого_'
'большие_'
'боль_'
'бок'
'бой'
'блок'
'благо_'
'бл'
'био'
'бесчеловечных_'
'бери'
'бель'
'бек'
'безопасно'
'беж'
'бед'
'барьеров_'
'баланс_'
'базовых_'
'базе_'
'база_'
'ающи'
'аю_'
'ачал'
'ач'
'ацию_'
'африканских_'
'атор'
'ател'
'асси'
'аспекта_'
'ас_'
'арт'
'арест_'
'арест'
'аренд'
'аре'
'арбитраж'
'ар_'
'аппарат'
'анов'
'ания_'
'аналогичны'
'анал'
'ана_'
'американ'
'альтернативн'
'ального_'
'алл'
'акцент'
'активных_'
'активно'
'активизации_'
'акт'
'аков'
'аи'
'ажа'
'аж'
'адрес'
'адвоката_'
'ада'
'агр'
'аг'
'автома'
'авит'
'Южном_'
'ЮНСИТРАЛ_'
'ЮНИ'
'ЮНЕСКО_'
'ЮНАМИД_'
'Эт'
'Эс'
'Эрик_'
'Эр'
'Эмират'
'Элис_'
'Эле'
'Эдди_'
'ЭСКАТО_'
'Щ'
'Штатах_'
'Ше'
'Четвертый_'
'Через_'
'Чад'
'ЧЕ'
'Ч_'
'Хочу_'
'Харт'
'Фрэнк_'
'Финляндии_'
'Фе'
'ФО'
'ФЕ'
'ФАО_'
'Уст'
'Уругвай_'
'Уд'
'Уганда_'
'УП'
'УН'
'Турция_'
'Трибунал'
'Три_'
'Тра'
'Тор'
'Тобаго_'
'Тер'
'Твоя_'
'Такая_'
'ТИ_'
'ТА_'
'Сэм'
'Судана_'
'Сторонам_'
'Стокгольмской_'
'Стив'
'Сте'
'Стар'
'Справочн'
'Соответствующ'
'Соединенного_'
'Содружества_'
'Сн'
'См_'
'Сколько_'
'Сирийская_'
'Секции_'
'Сар'
'Само'
'СР'
'СПС_'
'СЕС'
'Румынии_'
'Руководство_'
'Ру'
'Роль_'
'Рождеств'
'Роберт'
'Решение_'
'Результаты_'
'Рез'
'Расходы_'
'Ран'
'Рай'
'РК'
'Пять_'
'Прос'
'Прод'
'Прис'
'Принят'
'Президент'
'Право_'
'Пошли_'
'Послушайте_'
'Португалия_'
'Порт'
'Поп'
'Понимае'
'Пом'
'План'
'Пит'
'Пи'
'Переч'
'Пенси'
'Парламент'
'Палестине_'
'Пал'
'ПП'
'ПОС'
'ПИ'
'ПЕРЕ'
'ПА'
'Отме'
'Отлично_'
'Откуда_'
'Отец_'
'Отделение_'
'Отдел'
'Осуществление_'
'Ост'
'Организацию_'
'Органа_'
'Оман_'
'Ок'
'Ожидается_'
'Объединенная_'
'Общие_'
'ОП'
'ОН_'
'ОВ_'
'Нор'
'Неп'
'Независимо'
'Нев'
'Намибия_'
'Нак'
'Надеюсь_'
'НО'
'НАТО_'
'Молод'
'Мол'
'Мог'
'Многие_'
'Мир'
'Министерство_'
'Метод'
'Мер'
'Мен'
'Между_'
'Мартин'
'Мальта_'
'Мали_'
'Мад'
'МЕЖДУНАРОДН'
'Лиз'
'Ливан'
'Лешти_'
'Латвия_'
'ЛР_'
'ЛЕ'
'Куб'
'Кро'
'Кр'
'Контр'
'Колумбии_'
'Количество_'
'Кипр_'
'Ке'
'Канцелярия_'
'Камбодже_'
'Каждый_'
'Кабо_'
'КИ'
'КАРИКОМ_'
'КА_'
'Йо'
'Йемен_'
'Исландия_'
'Ирак_'
'Интернет_'
'Индия_'
'Или_'
'Израилем_'
'Из'
'ИТ'
'ИП'
'ИКТ_'
'ИИ_'
'ИД'
'Зо'
'Зна'
'Зимбабве_'
'Зи'
'Зам'
'Законом_'
'Заг'
'З_'
'Женщины_'
'Женева_'
'Жен'
'ЖД'
'ЕН'
'Дэнни_'
'Дост'
'Договаривающихся_'
'Директора_'
'Директор_'
'Джу'
'Джей'
'Дет'
'Дел'
'Дарфуре_'
'Дании_'
'Давайте_'
'ДР'
'ДНЯО_'
'ДИ'
'ДВ'
'Года_'
'Говоря_'
'Говори'
'Герцеговины_'
'Герцеговина_'
'Газ'
'ГС_'
'ГП'
'Всемирный_'
'Всего_'
'Вн'
'Вин'
'Вз'
'Вес'
'Верховным_'
'Верховный_'
'Верде_'
'Венесуэла_'
'Венесуэл'
'Венгрия_'
'Вед'
'Ваше_'
'Ваша_'
'Будучи_'
'Будет_'
'Бу'
'Бро'
'Бре'
'Бразилии_'
'Босния_'
'Бог'
'Ближнем_'
'Бисау_'
'Бен'
'Бельгия_'
'Барбадос_'
'Бан'
'Бал'
'БО'
'БА'
'Ах'
'Ари'
'Ап'
'Анти'
'Ант'
'Анд'
'Алекс'
'Администратор'
'Ад'
'Агентство_'
'Австралия_'
'Ав'
'Аб'
'АЦИ'
'АР'
'Ё'
'ó'
'»'
'zero_'
'zen'
'za_'
'yr'
'ym'
'yell'
'ye'
'ya_'
'wr'
'worth_'
'wl'
'window_'
'who'
'whi'
'whereby_'
'welcomes_'
'wel'
'wee'
'wed'
'wear_'
'wea'
'waste_'
'wal'
'wa_'
'visits_'
'visiting_'
'virtually_'
'villages_'
'vert'
'version_'
'vene'
'val_'
'uti'
'ush'
'users_'
'urn'
'urge_'
'urg'
'ured_'
'urban_'
'unions_'
'union_'
'unilateral_'
'unemployed_'
'une'
'uncertainty_'
'unc'
'unable_'
'ume'
'ultimately_'
'uct'
'uc'
'ua'
'ty'
'tude_'
'tte'
'truly_'
'troops_'
'tribunals_'
'tribunal_'
'transmitting_'
'transferred_'
'trained_'
'track_'
'tower'
'tough_'
'topics_'
'tooth'
'tongue_'
'toe'
'tobacco_'
'tn'
'tm'
'tis'
'timely_'
'tia'
'threaten_'
'thirty_'
'thinks_'
'thin_'
'thereof_'
'themes_'
'theme_'
'thematic_'
'testimony_'
'terror_'
'tent'
'television_'
'telecommunications_'
'tel'
'teach_'
'targets_'
'tape_'
'tangible_'
'tan'
'talked_'
'tal'
'sy_'
'sweat'
'swear_'
'sustain'
'surp'
'surface_'
'suppose_'
'supplement'
'suicide_'
'suggests_'
'suffered_'
'succeeded_'
'substance_'
'subsequently_'
'stro'
'strip'
'strike_'
'stri'
'strate'
'stra'
'stone_'
'stic_'
'stepped_'
'ste'
'staying_'
'stati'
'stands_'
'stall'
'stakeholders_'
'stages_'
'st'
'ssing_'
'sque'
'spread_'
'spouses_'
'split_'
'spirit_'
'speech_'
'speaker_'
'spare_'
'sovereignty_'
'solid_'
'soldier_'
'societies_'
'sno'
'sne'
'smile_'
'smi'
'sman_'
'slow_'
'sle'
'sitting_'
'singing_'
'simply_'
'significance_'
'signal'
'sight_'
'shr'
'shooting_'
'shape_'
'severe_'
'sets_'
'set'
'served_'
'serial_'
'sen_'
'sen'
'sel'
'seemed_'
'seek_'
'sectoral_'
'secret'
'scr'
'schemes_'
'scheduled_'
'scar'
'sc'
'sb'
'saved_'
'sales_'
's'
'rv'
'rural_'
'rum_'
'rte'
'rta'
'rt'
'rr'
'rp'
'row_'
'rop'
'roo'
'ron_'
'rit'
'ris_'
'rings_'
'rim'
'riding_'
'reward'
'revenue_'
'returned_'
'reta'
'ret'
'resumed_'
'restr'
'responded_'
'respectively_'
'respected_'
'residents_'
'rescue_'
'represent_'
'reportedly_'
'remov'
'reminded_'
'reme'
'rem'
'reintegration_'
'reinforce_'
'regulatory_'
'regulation_'
'regularly_'
'register_'
'regarded_'
'rega'
'refus'
'reflecting_'
'refers_'
'referring_'
'ref'
'reducing_'
'redi'
'recruitment_'
'recalled_'
'rb'
'rap'
'rank'
'radiation_'
'rac'
'question'
'quantitative_'
'qu'
'push_'
'push'
'purchasing_'
'pulled_'
'pti'
'psychological_'
'pse'
'province_'
'prov'
'promised_'
'prohibition_'
'programming_'
'profession'
'productive_'
'procurement_'
'proceeded_'
'prev'
'pressure_'
'press'
'pregnant_'
'preference_'
'prefer'
'preci'
'prec'
'powerful_'
'potatoes_'
'post'
'pon'
'pleasure_'
'plant'
'pit'
'pie_'
'pictures_'
'pho'
'pert'
'personally_'
'permit'
'percent_'
'per'
'pensions_'
'pat'
'participating_'
'participant_'
'partic'
'parking_'
'pants_'
'pal'
'overc'
'ove'
'ov_'
'outline_'
'ously_'
'ous'
'ote_'
'osi'
'os'
'orn'
'oriented_'
'organizational_'
'organ'
'ordinary_'
'orat'
'op_'
'ony_'
'one'
'omin'
'ola'
'ograph'
'offers_'
'offering_'
'offensive_'
'ock_'
'oci'
'occur_'
'occur'
'occup'
'occasion_'
'obviously_'
'nurse'
'numerous_'
'nt'
'not'
'nose_'
'normally_'
'nne'
'nine_'
'nie'
'ni_'
'ngu'
'new'
'netting_'
'nest'
'nervous_'
'neighbors_'
'negotiation_'
'neck_'
'nearly_'
'nds_'
'nct'
'nci'
'nations_'
'nationals_'
'nationality_'
'naked_'
'multi'
'mpa'
'mot'
'mobile_'
'mme'
'mit'
'miracle_'
'mino'
'mighty_'
'mid'
'mic'
'methodology_'
'mess'
'mercenaries_'
'memories_'
'matic_'
'match_'
'marking_'
'margin_'
'map_'
'manufacture_'
'manual_'
'mans'
'manners_'
'managed_'
'manage_'
'mail_'
'machinery_'
'loyalty_'
'lon'
'logy_'
'loc'
'load_'
'lo_'
'lls_'
'lizing_'
'lis'
'liqu'
'likes_'
'life'
'license'
'liar_'
'lf_'
'lf'
'let'
'lessons_'
'les'
'leg'
'lecture'
'leadership_'
'lay'
'lation_'
'latest_'
'las'
'lar_'
'kra'
'kilometres_'
'kick'
'ki'
'kh_'
'ken_'
'keeper_'
'kar'
'juri'
'judiciary_'
'journalists_'
'jointly_'
'ived_'
'iva'
'itu'
'itia'
'ite'
'ita'
'istic_'
'iste'
'issuing_'
'iss'
'ise_'
'ip'
'ior_'
'ion'
'involve_'
'invites_'
'invite_'
'investigations_'
'inventory_'
'introducing_'
'inten'
'inte'
'insured_'
'insufficient_'
'innocent_'
'injured_'
'initiated_'
'inflation_'
'indicates_'
'incident_'
'ina'
'impunity_'
'impose_'
'import'
'impa'
'immunity_'
'ime'
'ill_'
'ila'
'ik'
'identifying_'
'identi'
'ide'
'ida'
'id_'
'hur'
'hunt'
'hundreds_'
'hug'
'houses_'
'hos'
'hop'
'honor_'
'historical_'
'hid_'
'heritage_'
'heads_'
'hb'
'hat'
'harassment_'
'happi'
'hand'
'han'
'hall_'
'hal_'
'hadn_'
'hack'
'guilty_'
'guide_'
'gues'
'gue_'
'gue'
'guard_'
'grow_'
'gri'
'gran'
'gradual_'
'grab_'
'gori'
'gol'
'goddamn_'
'god_'
'gla'
'ging_'
'gift_'
'ghte'
'ght'
'geographical_'
'genuine_'
'gentlemen_'
'generic_'
'gat'
'garage_'
'gall'
'gal'
'gains_'
'funded_'
'fuckin_'
'fter_'
'found'
'fought_'
'formulated_'
'formed_'
'fores'
'fool'
'focus'
'flows_'
'fli'
'fixed_'
'fit_'
'fir'
'filed_'
'fil'
'figured_'
'fighting_'
'ff_'
'fer_'
'fell'
'fee'
'fear_'
'fea'
'favorite_'
'fam'
'failed_'
'facilitation_'
'eн'
'extreme_'
'extensive_'
'explo'
'expectations_'
'exceed_'
'exce'
'examined_'
'examine_'
'ewo'
'evolution_'
'eve'
'eu'
'ett_'
'eth'
'eta'
'esto'
'estate_'
'ese_'
'erated_'
'equipped_'
'envisaged_'
'environmentally_'
'entered_'
'ent'
'enrolment_'
'ends_'
'encourages_'
'emi'
'elsewhere_'
'elle'
'ell'
'eliminated_'
'eliminate_'
'eligible_'
'elect'
'elaborate_'
'ek'
'eing_'
'eco'
'durable_'
'dun'
'dumping_'
'drop_'
'drawing_'
'draw'
'dramatic_'
'dra'
'donors_'
'documentation_'
'dly_'
'div'
'dit'
'district_'
'distant_'
'distance_'
'dist'
'disposal_'
'disgusting_'
'disco'
'discharge_'
'disaster_'
'disappeared_'
'disabilities_'
'disa'
'dings_'
'dig'
'difficulty_'
'differently_'
'differences_'
'dick'
'dia'
'determine_'
'details_'
'det'
'destructive_'
'desk_'
'designated_'
'desertification_'
'der'
'deposit_'
'denied_'
'demonstrated_'
'demographic_'
'demi'
'definition_'
'defense_'
'defen'
'deepe'
'decentralization_'
'deb'
'de'
'daily_'
'customers_'
'custody_'
'cup'
'ction_'
'cting_'
'crying_'
'cry_'
'creat'
'crack'
'courses_'
'counting_'
'corresponding_'
'coordinating_'
'cook_'
'coo'
'convictions_'
'conventional_'
'convene_'
'contingent_'
'continent'
'contents_'
'conte'
'constituted_'
'consent_'
'connected_'
'conf'
'conducive_'
'condemn'
'concluding_'
'con_'
'composed_'
'component_'
'companies_'
'comm'
'combined_'
'combination_'
'com_'
'colour_'
'color_'
'collecti'
'colla'
'code_'
'clu'
'clauses_'
'claimed_'
'claimant_'
'cla'
'ckle'
'cke'
'cis'
'circum'
'cio'
'cil'
'chosen_'
'chop_'
'ching_'
'child'
'charged_'
'character_'
'chap'
'chan'
'chair'
'certainly_'
'century_'
'cease_'
'caus'
'cat_'
'carrying_'
'capture_'
'capita'
'capabilities_'
'cap'
'cand'
'can'
'calm_'
'calculated_'
'cage_'
'cab_'
'busy_'
'buried_'
'burg_'
'burden_'
'buddy_'
'bucks_'
'brea'
'bre'
'borrow'
'borne_'
'born_'
'boring_'
'blow_'
'blin'
'bli'
'bles_'
'bla'
'bis'
'birds_'
'biodiversity_'
'bio'
'biliz'
'bid'
'ber'
'beneficiaries_'
'belongs_'
'bell_'
'believed_'
'belief_'
'beings_'
'beer_'
'beat'
'bear_'
'bea'
'be'
'bb'
'battle_'
'bastard_'
'ban_'
'balls_'
'ball'
'babies_'
'att'
'asylum_'
'assumption_'
'assume_'
'association_'
'assist'
'assignment_'
'aside_'
'ash'
'ase'
'as'
'ars'
'are'
'ards_'
'ard_'
'ard'
'appli'
'apologize_'
'ant'
'answers_'
'announcement_'
'angry_'
'analyse'
'ana_'
'ana'
'ame'
'als_'
'allocation_'
'allocated_'
'ality_'
'ald_'
'ala'
'agriculture_'
'ages_'
'agents_'
'agency_'
'affair_'
'ae'
'advis'
'ado_'
'ado'
'adi'
'act'
'accountability_'
'accidents_'
'accession_'
'acc'
'academic_'
'absolute_'
'aboard_'
'abo'
'ably_'
'abi'
']'
'Zi'
'Yu'
'Ya'
'YO'
'XI'
'Wo'
'Wil'
'War_'
'War'
'Vince_'
'Vic'
'Venezuela_'
'Valle'
'Val'
'Use_'
'Up_'
'US'
'UNTAES_'
'UNMIK_'
'UNIDO_'
'UC'
'Turkish_'
'Turk'
'Tur'
'Ts'
'Tru'
'Torture_'
'Tony_'
'Tom_'
'Tom'
'Tokyo_'
'Times_'
'Thailand_'
'Th'
'Ten_'
'Tel'
'TO'
'TIR_'
'TER'
'Sy'
'Swi'
'Support_'
'Stra'
'Steering_'
'Spe'
'Son'
'Slovenia_'
'Situation_'
'Similarly_'
'Sim'
'Shit_'
'Shan'
'Shall_'
'Serb_'
'Ser'
'Select'
'Sei'
'Sect'
'Sec'
'Scientific_'
'Scho'
'Sav'
'Sarah_'
'Santa_'
'Sal'
'Saharan_'
'SU'
'SH'
'SG_'
'SC'
'SBSTA_'
'Ros'
'Rio_'
'Rich'
'Rh'
'Revi'
'Res'
'Rep'
'Rem'
'Refer'
'Red'
'Recommendation_'
'Recent_'
'Rec'
'Rea'
'Ran'
'RT'
'RE_'
'Questions_'
'Queen_'
'Que'
'Proposed_'
'Promotion_'
'Professor_'
'Professional_'
'Proce'
'Principles_'
'Pretty_'
'Portugal_'
'Port'
'Pop'
'Pas'
'Paris_'
'Papua_'
'PV_'
'PD_'
'PC_'
'Over_'
'Over'
'Ot'
'Organized_'
'Organizations_'
'Ordinance_'
'Operation_'
'Observer_'
'OO'
'OI'
'OHCHR_'
'OA'
'Nuclear_'
'Nu'
'Note_'
'Not'
'Nevertheless_'
'Nepal_'
'Nap'
'Namibia_'
'NS'
'NH'
'NGO_'
'NG'
'Multi'
'Monte'
'Mona_'
'Moldova_'
'Mod'
'Mill'
'Mich'
'Mexican_'
'Mes'
'Mental_'
'Martin_'
'Mark_'
'Luxembourg_'
'Luc'
'Lor'
'Log'
'Lit'
'List_'
'Level_'
'Less'
'Lee_'
'Lauren_'
'Last_'
'LY_'
'Kur'
'Kra'
'Kill_'
'Kenya_'
'Ken'
'Kar'
'Junior_'
'Jimmy_'
'Jim_'
'Jan'
'Issues_'
'Iraqi_'
'Int'
'Indi'
'Independent_'
'Imm'
'IS_'
'IL'
'IE'
'ICP_'
'IAEA_'
'IA'
'Huh_'
'Hope'
'Honor_'
'Hoc_'
'Hear'
'Headquarters_'
'Hea'
'Ha_'
'HE_'
'Gua'
'Grace_'
'Gr'
'Got_'
'God'
'Goals_'
'Geo'
'GPS_'
'GN'
'GI'
'GH'
'GENERAL_'
'Fun'
'Fu'
'Fri'
'Free_'
'Fre'
'Frank_'
'Foundation_'
'FROM_'
'FF_'
'FE'
'Every_'
'Eurostat_'
'Eritrea_'
'Eric_'
'Equality_'
'Enter'
'Enhancing_'
'Emp'
'Emirates_'
'Els'
'Ecuador_'
'Ear'
'Ea'
'EB_'
'Developing_'
'Desertification_'
'Denmark_'
'Den'
'Deli'
'Decides_'
'Decade_'
'Deb'
'Dear_'
'Dea'
'Dan'
'DS_'
'DR'
'DNA_'
'DG'
'DA'
'Cur'
'Cru'
'Cro'
'Crazy_'
'Country_'
'Cor'
'Cop'
'Coo'
'Congolese_'
'Comp'
'Commander_'
'Coll'
'Clo'
'Chu'
'Chinese_'
'Chairmen_'
'Case_'
'Call_'
'CRC_'
'CONS'
'CN'
'CI'
'CE_'
'CCW_'
'CCPR_'
'CA_'
'Budget_'
'Bro'
'Bring_'
'Brad'
'Bra'
'Bon'
'Body_'
'Best_'
'Besides_'
'Being_'
'Before_'
'Bahrain_'
'Bad'
'Back_'
'BO'
'BI'
'BE'
'Ay'
'Atomic_'
'Arm'
'Anti_'
'Ant'
'Anni'
'Ama'
'Alli'
'Ai'
'Af'
'Administrator_'
'Ad_'
'Activities_'
'Accounts_'
'Accordingly_'
'AT_'
'ARC'
'AN'
'AM_'
'AL'
'AIR_'
'AG'
'? '
'94'
'92'
'9'
'85'
'82'
'75'
'748_'
'72'
'71'
'68'
'65'
'62'
'60'
'6'
'53'
'52'
'2nd_'
'264_'
'252_'
'250_'
'241_'
'239_'
'223_'
'222_'
'215_'
'212_'
'202'
'198_'
'1983_'
'1982_'
'197_'
'1979_'
'194_'
'183_'
'182_'
'180_'
'177_'
'177'
'174_'
'157_'
'154_'
'141_'
'138_'
'137_'
'119'
'117_'
'116_'
'115_'
'107_'
'1'
'09_'
'02'
',"'
', № _'
', ...'
'):_'
') '
'$_'
'" '
' «_'
' -'
' " _'
'╣_'
'ёрт'
'ённы'
'ёз'
'яющих_'
'яю_'
'ящи'
'яци'
'яться_'
'ят'
'ясни'
'ясн'
'яс'
'яп'
'яно'
'ян_'
'ял_'
'ял'
'як_'
'як'
'языков_'
'языко'
'яза'
'яет_'
'яемо'
'явления_'
'явление_'
'яви'
'ющую'
'ющими_'
'ющейся_'
'ючил'
'юч'
'юридической_'
'юридических_'
'юда_'
'юд'
'югу_'
'югославской_'
'югославская_'
'юб'
'этап'
'этаж_'
'эс'
'эр_'
'энерго'
'энергетически'
'эм_'
'элемента'
'эле'
'экспорте'
'эксплуатаци'
'эксперты_'
'экспертами_'
'эксперт'
'экосистем'
'экономическую_'
'экономическими_'
'экономический_'
'экологические_'
'экологически_'
'экологи'
'эй'
'эгидой_'
'эвакуаци'
'ьш'
'ьц'
'ьски'
'ьную_'
'ьност'
'ьни'
'ьная_'
'ьма'
'ьер'
'ьб'
'ыч'
'ыха'
'ыск'
'ып'
'ык'
'ывать_'
'ывал'
'ываем'
'ъяви'
'ъя'
'щу_'
'щит'
'щина_'
'щимся_'
'щение_'
'щая_'
'щаю'
'щать'
'шут'
'штатных_'
'штата_'
'штат'
'шта'
'шр'
'шок'
'шне'
'школьно'
'шит'
'широкий_'
'ший_'
'шест'
'шенны'
'ше_'
'шая_'
'шать_'
'шанс'
'шанн'
'шал'
'шагов_'
'шага_'
'чь'
'чуж'
'чуд'
'чувствова'
'чувствительн'
'чрезмерн'
'чным_'
'чно'
'член_'
'член'
'чко'
'чки_'
'чка'
'читать_'
'читал'
'чита'
'чит'
'чист'
'числ'
'чил'
'чика_'
'чик'
'чивае'
'чив'
'чи_'
'четко'
'четвер'
'честно_'
'ческое_'
'чес'
'черно'
'ченны'
'чение_'
'человек'
'чей_'
'чев'
'чая'
'чаш'
'чать_'
'чаты'
'частными_'
'частны'
'частично'
'чай_'
'цу_'
'цки'
'центри'
'центральны'
'центральной_'
'центрально'
'центр'
'цените_'
'целями_'
'целесообразно'
'хранит'
'хранение_'
'хол'
'хозяйство_'
'ходатайств'
'хо_'
'хм'
'химической_'
'хи_'
'хвати'
'хватает_'
'хать_'
'характериз'
'характер'
'хал_'
'фф'
'функция'
'функционировать_'
'фрукт'
'французском_'
'фраз'
'фотографию_'
'фото_'
'форт'
'формулировку_'
'формул'
'формировании_'
'формирова'
'формат'
'формальн'
'фонды_'
'фон'
'флага_'
'финансов_'
'финансов'
'финансиру'
'финансировани'
'филд_'
'физи'
'фер'
'фе_'
'фактора_'
'факто'
'фак'
'ующей_'
'ующ'
'уются_'
'уэ'
'ушк'
'уша'
'учрежденно'
'учить'
'учитываются_'
'учитыва'
'учет_'
'учет'
'учебной_'
'участникам_'
'участвующим'
'участвует_'
'уход'
'уточняется_'
'уте'
'утверждений_'
'утверждении_'
'утвержден_'
'утвержден'
'утверждал_'
'утвердить_'
'ута'
'усу'
'устройства_'
'устного_'
'установок_'
'устанавливает_'
'успешно'
'усовершенствован'
'услышал'
'услови'
'ускорения_'
'усили'
'усиление_'
'уры_'
'уроков_'
'урой_'
'урож'
'ури'
'урегулировани'
'урегулирован'
'ура_'
'ура'
'упрощения_'
'упразднен'
'управля'
'управлением_'
'упорядочени'
'упор'
'упомянут'
'упомянул_'
'упомина'
'уполномочи'
'упи'
'универсально'
'ун_'
'умни'
'умен'
'уль'
'улучшении_'
'улучшен'
'уло'
'улики_'
'уле'
'укреплять_'
'укра'
'указывают'
'указывает_'
'указы'
'указаны_'
'указанным'
'указанием_'
'ук'
'уйд'
'уи'
'узу'
'узнает_'
'ужасно_'
'уем_'
'удобн'
'уделяется_'
'уделяе'
'уда_'
'уда'
'угрожа'
'угольн'
'уголовно'
'уголовн'
'углубленного_'
'уг'
'увольнени'
'увиде'
'увер'
'увеличением_'
'уведомления_'
'уве'
'уважении_'
'уважа'
'убытк'
'убы'
'убор'
'убий'
'убеж'
'убедить_'
'убеди'
'тяжест'
'тяжел'
'тюремным_'
'тысяча_'
'тысяч_'
'тысяч'
'тч'
'туризм'
'тти_'
'тт_'
'тск'
'тс'
'трудных_'
'трудности_'
'труд_'
'тру'
'трибуналами_'
'трибунала_'
'трибун'
'транспортное_'
'транспорт'
'транспарентность_'
'транс'
'транзит'
'травма'
'тр'
'тоя'
'точн'
'торо'
'тора_'
'тонн'
'тон_'
'толкования_'
'токси'
'тные_'
'тност'
'тне'
'тн'
'тки_'
'тихоокеанских_'
'тить_'
'типовы'
'тип_'
'тип'
'тили_'
'тика'
'тигр'
'тече'
'технические_'
'технически'
'тет'
'тесны'
'теря'
'территори'
'терпимости_'
'тени'
'тенденци'
'темой_'
'теля_'
'тельства_'
'тельные_'
'тельного_'
'тель_'
'телефонн'
'телевизионн'
'текущи'
'текущей_'
'тек'
'твое_'
'тарифных_'
'танцев'
'танк'
'таможенн'
'тал'
'такси_'
'таков'
'тайное_'
'тае'
'таблицу_'
'таблиц'
'сырьевых_'
'сы_'
'сы'
'счетов_'
'счет'
'счастлив'
'схем_'
'сформирова'
'сферу_'
'существующие_'
'существуют_'
'существования_'
'существенный_'
'существенно_'
'супруг_'
'сул'
'суки'
'судь'
'судн'
'судебными_'
'судебно'
'суверенн'
'суверенитет'
'субъектов_'
'субъектами_'
'субъект'
'субс'
'субрегиональн'
'стями_'
'стям_'
'сты'
'студентов_'
'студент'
'стс'
'структура_'
'стру'
'строит'
'стремятся_'
'стремлени'
'стрелкового_'
'стрелков'
'страх'
'стратегическо'
'стратегические_'
'стражу_'
'стоял'
'стоя'
'сторонн'
'столько_'
'столиц'
'стой_'
'стоимости_'
'стои'
'стно'
'стн'
'стить_'
'стимулировани'
'стереотип'
'ствуй'
'ству'
'ственны'
'статусе_'
'статистически'
'старый_'
'старше'
'стано'
'стандартами_'
'ставит'
'стабильность_'
'стабилизации_'
'ст'
'ссылку_'
'ссыл'
'сроком_'
'сроков_'
'сроках_'
'сро'
'средстве_'
'среднесрочны'
'среднем_'
'среднего_'
'сравн'
'спутник'
'спроси'
'спрос_'
'спро'
'спрашива'
'справедливо'
'справ'
'способствуют_'
'способов_'
'способных_'
'спокой'
'спло'
'специфик'
'специальными_'
'специальный_'
'специально_'
'специализированны'
'специали'
'сп'
'союзом_'
'социальном_'
'социально'
'сохранить_'
'сохранении_'
'сотрудники_'
'сотрудниками_'
'сотрудникам_'
'сотрудни'
'состоящи'
'состоят'
'состояние_'
'состоялась_'
'состоявшейся_'
'составлению_'
'составлен'
'составил'
'состав'
'соседни'
'соотношение_'
'сооружения_'
'сообщили_'
'сообще'
'сообщает'
'соображени'
'сооб'
'сокращением_'
'сократить_'
'сок'
'созданной_'
'создал_'
'создава'
'соз'
'содержащую'
'содержащейся_'
'содержать_'
'содержани'
'согласую'
'согласованные_'
'согласованно'
'согласования_'
'совр'
'совместным'
'совместные_'
'совместном_'
'совместн'
'совещаниях_'
'советник'
'соверши'
'совершенствование_'
'совершен'
'соверша'
'совали_'
'событиям'
'событий_'
'собственн'
'соблюдением_'
'соблюден'
'соблюда'
'собираешься_'
'собирае'
'собира'
'собеседования_'
'собак'
'соб'
'сны'
'сноск'
'снизить_'
'сни'
'сне'
'сна'
'смысл'
'смотри'
'смотре'
'сможем_'
'сметы_'
'смертью_'
'смертности_'
'смертно'
'слышали_'
'слышал_'
'слыш'
'слушат'
'слуша'
'случит'
'случай_'
'службой_'
'служба_'
'слу'
'сложи'
'словами_'
'сленн'
'следств'
'следова'
'сле'
'слав'
'слаб'
'скрыт'
'скр'
'скорейше'
'скому_'
'сков'
'ско_'
'ским_'
'ски_'
'скат'
'сказано_'
'ситуацию_'
'ситуаци'
'сильны'
'силе_'
'силах_'
'сил'
'сжигания_'
'сет'
'серьезным_'
'серьезност'
'серии_'
'сердце_'
'сентябре_'
'семинаров_'
'семинара'
'семейн'
'сем'
'сельскохозяйственных_'
'сельско'
'сел_'
'секунду_'
'секторальн'
'сектора'
'сексуальных_'
'секретариат'
'сег'
'север'
'сделают_'
'сделанные_'
'сделанно'
'сделан_'
'связанно'
'связ'
'сводный_'
'свободны'
'свободной_'
'свободного_'
'свобода_'
'свете_'
'свет_'
'свер'
'свадьб'
'сбр'
'сбор_'
'сбор'
'сбе'
'сат'
'санкци'
'самостоятельно_'
'самоо'
'самому_'
'само_'
'самих_'
'сал'
'сайт'
'сад'
'рэ'
'рын'
'рыв'
'рч'
'рци'
'руководители_'
'руководител'
'руковод'
'рука_'
'руем'
'руб'
'рски'
'рс'
'роз'
'родств'
'родителям_'
'рования_'
'ров_'
'ро_'
'рно'
'рл'
'рко'
'рия_'
'риц'
'рит'
'рисова'
'риск_'
'рид'
'риан'
'рже'
'рж'
'решениям'
'решен'
'референдума_'
'рет_'
'республик'
'репутаци'
'репродуктивного_'
'репатриации_'
'репатри'
'ремонт_'
'рекомендуе'
'рекомендация'
'рекомендацией_'
'рей_'
'результатам'
'резиден'
'режиме_'
'реже'
'регулирует_'
'регулируемых_'
'регулировать'
'регистрацию_'
'регионов_'
'регион_'
'ревизор'
'ребе'
'реальный_'
'реализу'
'реализова'
'реал'
'реагирова'
'реабилитации_'
'рационализации_'
'рацион'
'раунда_'
'ратифицировали_'
'ратифицирова'
'расщепляющ'
'расширя'
'расширен'
'расчета'
'расходах_'
'растуще'
'расторжени'
'раст'
'расстр'
'расста'
'рассмотрены_'
'рассмотренных_'
'рассмотрен_'
'рассмотрен'
'рассмотрел_'
'рассмотре'
'рассматриваться_'
'расследования'
'расследований_'
'рассказывать_'
'расскаж'
'распространяться_'
'распространи'
'распространенн'
'распространению_'
'распоряж'
'расположенны'
'распо'
'распл'
'расписания_'
'распада_'
'ранения_'
'рамочно'
'рамо'
'рамм'
'рам'
'рали'
'районы_'
'районами_'
'разъясн'
'разумн'
'разруши'
'разрушен'
'разрешение_'
'разработк'
'разработанн'
'разработан_'
'разра'
'разных_'
'разнообразные_'
'разнообраз'
'разно'
'разницы_'
'разминировани'
'размещения_'
'различн'
'разделяет_'
'раздели'
'разделения_'
'развитые_'
'развит'
'разбирательства_'
'разбивке_'
'разби'
'разбер'
'разб'
'раза_'
'рада_'
'равные_'
'рабочие_'
'работни'
'работающие_'
'работали_'
'работал_'
'работа'
'пятнадцат'
'пытки_'
'пыткам_'
'пытался_'
'пыл'
'путям_'
'путешеств'
'путей_'
'птиц'
'психо'
'псих'
'пря'
'проще_'
'прошлого_'
'прошл'
'процессуального_'
'процедурны'
'процветани'
'профилактике_'
'профессиональны'
'професси'
'противоречит_'
'противоречи'
'противопехотных_'
'противодействия_'
'проте'
'просьбу_'
'просты'
'проституции_'
'прости_'
'прост'
'пропуск'
'пройде'
'происходя'
'произоше'
'произвольн'
'производственно'
'производить_'
'производительности_'
'произвел'
'произв'
'проектах_'
'продолжительн'
'продолжил'
'продолжи'
'продолжающи'
'продолжали_'
'продовольствия_'
'продемонстрирова'
'продаже_'
'продаж'
'прод'
'программой_'
'программн'
'прогнозирова'
'прог'
'проводим'
'проводивш'
'проведет_'
'приют'
'причиня'
'причиной_'
'причинен'
'прич'
'приходит_'
'приходит'
'приход'
'прися'
'прису'
'приступило_'
'приступил_'
'приступи'
'прист'
'присоединились_'
'присоединении_'
'природоохранные_'
'природ'
'приостанов'
'приоритетности_'
'приобретения_'
'принятым_'
'принятого_'
'принята_'
'принципе_'
'принцип'
'принимающих_'
'примеру_'
'пример_'
'применял'
'применительно_'
'применением_'
'приме'
'приказ'
'призывы_'
'призванн'
'призвал_'
'приема_'
'приед'
'придёт'
'придерживаться_'
'придает_'
'придава'
'приговора_'
'приговор_'
'пригласи'
'приг'
'приводит_'
'привлечь_'
'привлечен'
'привлекательно'
'приви'
'приветствуем_'
'привело_'
'приведены_'
'приведени'
'прибыли_'
'прибыл'
'прибор'
'приближа'
'преференци'
'претен'
'преступлениям'
'преступлени'
'прест'
'пресс_'
'преследовани'
'прес'
'препятствия_'
'препятствие'
'препятств'
'препровожден'
'препровождающ'
'преподавания_'
'преодолению_'
'преобразования_'
'прекрати_'
'прекрасно'
'прекра'
'преимуществ_'
'президент'
'презентаци'
'прежн'
'предыдущим_'
'предыдущем_'
'предыдущей_'
'предыдущ'
'предусмотренным_'
'предусмотренного_'
'предусмотренн'
'предусматриваю'
'предупрежда'
'предстоящи'
'представьте_'
'представленности_'
'представленно'
'представлений_'
'представлении_'
'представлена_'
'представл'
'представителям_'
'представительниц'
'представили_'
'председателей_'
'предпринимают'
'предпринимательства_'
'предпринимателей_'
'предпринимает_'
'предпринима'
'предполагаемы'
'предпол'
'предотвращение_'
'предотвратить_'
'предотвра'
'предоставляю_'
'предоставляемых_'
'предоставля'
'предоставленн'
'предоставлен'
'предоставил'
'предост'
'предназначенные_'
'предназначенн'
'предметов_'
'предмет'
'предлагалось_'
'предлагаемые_'
'предварительные_'
'предварительном_'
'предварительного_'
'предварительн'
'предател'
'преда'
'превосход'
'прев'
'практического_'
'практику_'
'праздн'
'правонарушения_'
'правонарушение'
'правом'
'правозащитно'
'правовую_'
'правилу_'
'прави'
'поэ'
'пошел_'
'почт'
'похожи_'
'похож'
'потряс'
'потребу'
'потребовать'
'поток'
'потенциал'
'поступи'
'поступает_'
'поступ'
'постоянном_'
'постановляющей_'
'постанов'
'поставля'
'поставленных_'
'поставлен'
'поставил'
'пост_'
'посредство_'
'посол_'
'посо'
'послужил'
'послу'
'последующие_'
'последующ'
'последствиях_'
'последовательност'
'последнем_'
'последн'
'посетителей_'
'посетит'
'поселения'
'посе'
'посвященны'
'посвя'
'порт_'
'порождае'
'попытки_'
'попросить_'
'попроб'
'пополн'
'попе'
'попали_'
'понятно_'
'понравил'
'понимание_'
'понимани'
'понимает_'
'понима'
'понадобится_'
'помогут_'
'помогают_'
'помогает_'
'помога'
'помнит'
'помещения_'
'помест'
'пользовател'
'получит'
'получилось_'
'получены_'
'полученн'
'получению_'
'получен'
'получается_'
'получ'
'положениях_'
'полового_'
'половины_'
'поло'
'полным_'
'полн'
'полицией_'
'политик'
'полезно_'
'покупа'
'покрытие_'
'покры'
'поколения'
'покой'
'покинуть_'
'покида'
'показываю'
'показать_'
'показан'
'показала_'
'пойма'
'позитивных_'
'позднее_'
'позвонит'
'позвонил'
'позволяющих_'
'позволяющ'
'позволят_'
'позволить_'
'позволено_'
'поз'
'пожилых_'
'пожелание_'
'пожар'
'поездка'
'поездк'
'подчеркнуть_'
'подчеркивал'
'подходы_'
'подумал'
'подте'
'подсчета'
'подрядчик'
'подразделений_'
'подпункт_'
'подписи_'
'подписала_'
'подписавши'
'подп'
'подорва'
'подозрени'
'подозреваемых_'
'подозреваем'
'подожд'
'подобного_'
'подняты'
'подним'
'подме'
'подземн'
'поде'
'поддерживаем'
'поддержа'
'подготовленного_'
'подготовленно'
'подготови'
'подвергаются_'
'подве'
'подб'
'подарки_'
'подар'
'пограничного_'
'погр'
'поговорю_'
'пого'
'повысил'
'повы'
'повторя'
'повор'
'повер'
'победи'
'плю'
'пленарно'
'платформы_'
'планы_'
'плановы'
'планиру'
'планированию_'
'планах_'
'пл'
'питьевой_'
'пит'
'письмо_'
'письменно'
'писател'
'писа'
'пик'
'пи_'
'печат'
'перспективы_'
'перспектив'
'персонале_'
'периодическом'
'периодического_'
'периодический_'
'периодические_'
'перечн'
'перечисленны'
'переход'
'перестать_'
'пересмотренного_'
'пересмотре'
'пересмотр_'
'пересе'
'переп'
'перемещение_'
'перемещени'
'переме'
'перее'
'передо'
'передвижения_'
'передачу_'
'передан'
'перевоз'
'пенсионного_'
'пенсионн'
'пенси'
'пенитенциарной_'
'пел'
'пед'
'патруля_'
'паспорт'
'партнерских_'
'партнеров_'
'партнерам_'
'парти'
'парня'
'параллельно_'
'пара_'
'память_'
'пальце'
'паль'
'палестинцев_'
'па_'
'пo'
'очные_'
'очно'
'очк'
'оценок_'
'оценивают'
'оцен'
'охватывает'
'охватыва'
'оформ'
'официальным_'
'официальной_'
'официальное_'
'офис'
'отчетный_'
'отход'
'оттуда_'
'отсутствует_'
'отсутствия_'
'отрицательно'
'отражены_'
'отражена_'
'отража'
'отравл'
'отправился_'
'отпечатки_'
'отой'
'отов'
'относящиеся_'
'отмывани'
'отменить_'
'отмен'
'отличается_'
'открыть_'
'открыто_'
'открыти'
'открыл_'
'открыва'
'откр'
'откл'
'отказыва'
'отдых_'
'отдельного_'
'отделения'
'отдел_'
'отдать_'
'ответственно'
'ответа_'
'отв'
'отб'
'осуществлял'
'осуществляемых_'
'осуществляемы'
'осуществляем'
'осуществля'
'осужден'
'осторожн'
'остат'
'остановиться_'
'остальным'
'осталось_'
'оставши'
'оста'
'особые_'
'особы'
'основополагающим_'
'основани'
'основан'
'основа'
'оснащенн'
'осн'
'осле'
'оскорб'
'освоения_'
'осведомлен'
'осажд'
'оса'
'ору'
'орм'
'ориентирован'
'ориентиров'
'ориентир'
'оригинал'
'ордер'
'орд'
'органическ'
'организу'
'организовать_'
'организов'
'организационных_'
'организационной_'
'оратора_'
'оран'
'ора_'
'ора'
'опустыниванием_'
'опубликованы_'
'опубликовал'
'определяют'
'опозда'
'оплаты_'
'оплат'
'опираться_'
'операциям_'
'операция'
'операци'
'опер'
'оо'
'оня'
'онные_'
'оне'
'оме'
'ома'
'ологическ'
'окружно'
'окружающ'
'округ'
'окончательно'
'око'
'окно_'
'оккупирующ'
'оккупированных_'
'оккупированной_'
'оки'
'океана_'
'оказывается_'
'оказыва'
'оказа'
'озон'
'озн'
'озабоченностью_'
'ожидает_'
'ожидаемые_'
'ожидае'
'ожида'
'ожени'
'оедин'
'одобрения_'
'одновременно_'
'одни'
'одежд'
'ода'
'ографи'
'ограничиваются_'
'ограничении_'
'огонь_'
'оговорок_'
'оги'
'овый_'
'овско'
'овом_'
'овна'
'овл'
'ове'
'ованных_'
'ованн'
'овани'
'ова_'
'ова'
'обязательствами_'
'обязательны'
'обязательной_'
'обязательно_'
'обяза'
'обычаев_'
'объясняется_'
'объясня'
'объяснени'
'объявл'
'объемов_'
'объектах_'
'общинными_'
'общинно'
'общественных_'
'общественностью_'
'обществ'
'общесистемно'
'общения_'
'общему_'
'общаться_'
'обучени'
'обусловленны'
'обсуждении_'
'обстрела_'
'обст'
'обслуживанию_'
'обслужива'
'обследования_'
'обследование_'
'обру'
'обре'
'обращени'
'обращен'
'обращает_'
'обрат'
'обработк'
'обрабатыва'
'обоснования_'
'обоснован'
'обос'
'оборот'
'обой'
'обозначени'
'обобщен'
'обновлен'
'обнар'
'обн'
'обмену_'
'обменов_'
'обмен'
'облегчить_'
'обжалования_'
'обещани'
'обеспечивающ'
'обеспечивается_'
'обеспечением_'
'нынешни'
'нынешней_'
'нынешнего_'
'нч'
'нула_'
'нуждающи'
'нуждаются_'
'нты_'
'нской_'
'нс'
'носят_'
'носить_'
'носил'
'нормативных_'
'нормативн'
'нок'
'новость_'
'новаторски'
'нным_'
'нном_'
'нное_'
'нке_'
'нка_'
'нищетой_'
'ниче'
'нима'
'нил'
'ника_'
'ника'
'ник'
'ниж'
'неч'
'нефти_'
'неформально'
'неудовлетвор'
'нетто_'
'нета'
'нет'
'несчастных_'
'несут_'
'нестабильн'
'неспособност'
'несе'
'несанкционированн'
'неравенств'
'нера'
'нер_'
'неприсоединившихся_'
'непредв'
'непред'
'непосредственно'
'непод'
'неофициальный_'
'неофициальны'
'неотъемлем'
'неотложно'
'необходимой_'
'необходимого_'
'ненужн'
'ненавидит_'
'неме'
'неле'
'нек'
'неисп'
'неизвест'
'неи'
'незначительны'
'незаконным'
'незаконного_'
'независимых_'
'независимым_'
'независимы'
'нез'
'недостаточной_'
'недостаточно_'
'недостато'
'недель_'
'недел'
'недв'
'негативны'
'невоз'
'невин'
'небольш'
'неб'
'нде'
'нд'
'нге'
'нащ'
'нашла_'
'нашему_'
'нашем_'
'начинают_'
'начинает_'
'начинае'
'начина'
'начальны'
'начально'
'начал_'
'нацист'
'наци'
'нацелен'
'находящимся_'
'находяще'
'находящ'
'научные_'
'научной_'
'научн'
'наста'
'насилию_'
'нарушил'
'нарушаю'
'наруш'
'народу_'
'народо'
'народами_'
'народ'
'наращивать_'
'наращивания_'
'напуга'
'направляе'
'направля'
'направленн'
'направление_'
'напоминать_'
'наполн'
'напитк'
'написано_'
'нападени'
'напа'
'намерение_'
'намерен'
'налогообложения_'
'налога_'
'налево_'
'накоплени'
'наказыва'
'нак'
'найду_'
'найден'
'найде'
'наилучши'
'называть_'
'называется_'
'называем'
'называ'
'назначить_'
'назначенно'
'наз'
'надлежащих_'
'надзор_'
'надежд'
'надеется_'
'наве'
'мягко'
'мь'
'мужчинами_'
'мужчина'
'мужчин'
'мужа_'
'муж'
'мощно'
'мошенничес'
'мотив_'
'мот'
'морскому_'
'морско'
'моро'
'моно'
'мониторинг_'
'мом_'
'молча'
'молодые_'
'молодежью_'
'мол'
'модель'
'мобильн'
'мобил'
'многочисленных_'
'многое_'
'мни'
'мнениями_'
'мм'
'младш'
'миростроительству_'
'миростроительства_'
'миром_'
'мировое_'
'мирны'
'мирно'
'минуты_'
'мину'
'министерствам'
'министерств_'
'министерс'
'минимум_'
'миль_'
'миллиона_'
'микроф'
'миграцией_'
'мигра'
'меша'
'механизмом_'
'методологически'
'методологий_'
'методологии_'
'методик'
'методах_'
'мети'
'меся'
'месту_'
'местным_'
'мертвы'
'межправительственно'
'межкультурно'
'международный_'
'медицинскому_'
'медицинских_'
'медицинскими_'
'машин'
'мати'
'материала'
'масштабе_'
'масштабах_'
'маркировк'
'марк'
'мандатом_'
'мандатов_'
'мандат'
'мальчик_'
'максимально_'
'максим'
'ляет_'
'ляд'
'лючит'
'лючен'
'люд'
'любите_'
'любила_'
'льное_'
'льда_'
'лучшего_'
'лучше'
'луж'
'лу_'
'лос'
'лон'
'ложь_'
'ложн'
'лодк'
'лого'
'логич'
'лог'
'лки'
'личных_'
'личност'
'лично'
'лице'
'лицах_'
'лит'
'лин'
'лизи'
'лидеров_'
'лидер'
'лечен'
'летний_'
'лете'
'лесных_'
'лер'
'лении_'
'лек'
'лей'
'леж'
'леди'
'лев'
'леб'
'лач'
'лате'
'лас'
'лар'
'лак'
'лагерях_'
'курсы_'
'курса_'
'курс_'
'культур'
'крыл'
'крупн'
'кругов_'
'круги_'
'крово'
'крити'
'критери'
'кри'
'крест'
'кре'
'кратки'
'красн'
'крайн'
'кофе_'
'коррупции_'
'коррупцией_'
'корректиров'
'корректив'
'корпоративно'
'корм'
'коп'
'координиру'
'координационны'
'координат'
'кончи'
'концов_'
'концепции_'
'концептуальн'
'конфликты_'
'конфликт_'
'конференци'
'контрольны'
'контрольно_'
'контролиру'
'консультант'
'конструктивны'
'конструктивн'
'конституции_'
'конкуренции_'
'конкурентоспособн'
'конкретным_'
'конкретную_'
'конкретного_'
'конк'
'конечном_'
'конечно'
'конвенция_'
'компонента_'
'комплексных_'
'комплексны'
'комплекс'
'компетентны'
'компетентно'
'компенсирова'
'компенсацию_'
'компаниями_'
'коммуникационно'
'коммерческих_'
'комитетов_'
'комитете_'
'комиссиями_'
'команду_'
'колонке_'
'коллективных_'
'колл'
'количественн'
'колен'
'кол'
'книж'
'книги_'
'книг'
'ключ'
'кле'
'классифициру'
'китайско'
'кие_'
'квартиры_'
'квалификации_'
'квадратных_'
'кв'
'качеств'
'ках_'
'категория_'
'катастроф'
'карьер'
'карто'
'карте_'
'карн'
'капитала_'
'кандидатур'
'какую_'
'казыва'
'казалось_'
'каждая_'
'кадастров'
'кабин'
'йти_'
'йтесь_'
'йт_'
'йт'
'йском_'
'йских_'
'йне'
'йе'
'йди'
'йа'
'ию'
'ищущи'
'ическое_'
'ица'
'иты'
'итогово'
'итого'
'ито'
'ительным_'
'ите'
'исчезн'
'исходн'
'исследовательских_'
'исследовательск'
'исследование_'
'испытывает_'
'используют_'
'исполнител'
'исполнении_'
'исключа'
'искать_'
'искали_'
'ирует'
'ироваться_'
'ирован'
'иракски'
'иным_'
'информированности_'
'информирования_'
'информационны'
'интересует_'
'интересова'
'интересно'
'интересн'
'интервью'
'интегрирова'
'инте'
'инструменты_'
'инструкци'
'институциональном'
'институционал'
'инстанци'
'инс'
'инновационных_'
'инновационн'
'инн'
'ине_'
'ине'
'индивид'
'индекс'
'инг_'
'ина'
'имых_'
'импульс_'
'имо'
'иммунитет'
'иммигрантов_'
'имеешь_'
'имеется_'
'имевших_'
'илл'
'иком_'
'ийско'
'изменя'
'изменил'
'изм'
'изложенные_'
'изл'
'издания_'
'издание_'
'изда'
'извиниться_'
'известного_'
'изве'
'избирательно'
'изби'
'ижн'
'иду'
'иди_'
'идей_'
'идеал'
'ивы'
'ившего'
'ивны'
'ивающе'
'ивает_'
'иа'
'зыв'
'зск'
'зона_'
'зон_'
'зно'
'значительных_'
'значительную_'
'значительн'
'знач'
'знали_'
'знак'
'знаем_'
'зна'
'зм_'
'злоупотребления_'
'злоупотреблений_'
'землепользовани'
'земле'
'здравоохран'
'здоровы'
'зданий_'
'здани'
'заявлении_'
'заяв'
'защищены_'
'защитны'
'зачис'
'захоче'
'затраты_'
'зато'
'заставить_'
'заст'
'заслушал'
'заслужи'
'зарегистрирован'
'заработа'
'зарабатыва'
'зар'
'запу'
'запрошенн'
'запрос'
'запрещает'
'запрет_'
'запись_'
'записке_'
'запис'
'запад'
'заняться_'
'занимающиеся_'
'занимаюсь_'
'занимался_'
'занимал'
'занимает_'
'замор'
'замещени'
'зали'
'зал'
'закупку_'
'закупка'
'закрыты'
'закрыто'
'закреплени'
'законопроект'
'законодательству_'
'законодатель'
'законно'
'законам'
'закон'
'заключительных_'
'заключенны'
'заключением_'
'заключаю'
'заказа'
'заказ'
'зай'
'задницу_'
'задержанных_'
'задержанного_'
'загр'
'завтра'
'завис'
'завершено_'
'завершен'
'заверша'
'заве'
'заболева'
'жные_'
'жны'
'жне'
'жки_'
'жителям_'
'жительств'
'жит'
'жин'
'жилищн'
'жили_'
'жизнью_'
'жизнеспособности_'
'жизненн'
'жиданно_'
'живё'
'живущих_'
'живу'
'животно'
'живо'
'живе'
'жертвами_'
'женщина_'
'жене'
'жена_'
'желат'
'желае'
'жел'
'жду'
'жар'
'жался_'
'жал'
'еща'
'еш'
'ехать_'
'еты_'
'етн'
'ессор'
'еса_'
'ерс'
'ерв'
'ень'
'ент_'
'енс'
'енными_'
'ений_'
'емо'
'емл'
'еменн'
'еля_'
'ельс'
'ельным_'
'ельны'
'ельности_'
'ельном'
'ельной_'
'ело_'
'ели'
'елен'
'елем_'
'екци'
'ективн'
'ект'
'ейся_'
'езжа'
'ежн'
'ежегодны'
'едит'
'единства_'
'еда'
'ег'
'евых_'
'евы'
'европейских_'
'дь_'
'дь'
'душк'
'духе_'
'дух'
'дура'
'думай'
'дума'
'дублирования_'
'дск'
'друж'
'другу_'
'другое_'
'драгоценн'
'дочери_'
'доход'
'доступности_'
'доступ'
'достоинства_'
'достижении_'
'достигнуты'
'достига'
'достиг_'
'достаточных_'
'достаточной_'
'дополняющ'
'дополнительными_'
'дополнительную_'
'дополнительно_'
'дополнительная_'
'дополнит'
'домов_'
'дома'
'долю_'
'должностями_'
'должностные_'
'долг_'
'документальн'
'докладчиков_'
'докладчик'
'докладом_'
'доказательства_'
'договоры_'
'дово'
'доверие_'
'добросо'
'добровольной_'
'доброволь'
'добро'
'добра'
'добилась_'
'добиваться_'
'доби'
'добавлени'
'днем_'
'длительного_'
'дли'
'дк'
'дител'
'дит_'
'дискусси'
'директора_'
'директив'
'динамик'
'дий'
'диалог'
'джет'
'джа'
'децентрализации_'
'дефицит'
'детской_'
'десять_'
'дес'
'державы_'
'депо'
'департамент'
'денн'
'дени'
'денежны'
'денежной_'
'демон'
'демократически'
'дель_'
'делом_'
'делов'
'делами_'
'делал'
'деколонизации_'
'дек'
'действуя_'
'действующей_'
'действующ'
'действуют_'
'действиям_'
'девят'
'девушка_'
'девушк'
'двухгодичн'
'двусторонне'
'дв'
'даты_'
'даст_'
'данными_'
'дальнейши'
'дальнейшем_'
'дае'
'давать_'
'дав'
'дa'
'гуа'
'группиров'
'груз_'
'груд'
'груб'
'гри'
'граф'
'границе'
'границ'
'грамм'
'гражданским_'
'гражданин_'
'гр'
'готовить_'
'государственными_'
'государственном_'
'государ'
'городе_'
'горе'
'голосов_'
'годом_'
'годов'
'говоря_'
'говорите_'
'гов'
'гнов'
'гна'
'гн'
'глубоко'
'глу'
'глобальные_'
'гло'
'главных_'
'главного_'
'глав'
'гла'
'гк'
'гигиен'
'гибко'
'гибел'
'гиб'
'географического_'
'географически'
'генератор'
'генерал'
'гва'
'гая_'
'гаю'
'ган_'
'газов'
'газет'
'вяз'
'вь_'
'выяснить_'
'выявленны'
'выявление_'
'выше'
'выт'
'высылки_'
'высших_'
'выступлении_'
'выступит'
'выступили_'
'выступающи'
'высокой_'
'высл'
'высказан'
'выразила_'
'выраженны'
'выражение_'
'выражен'
'выража'
'выра'
'выпуск_'
'выполнением_'
'выплачива'
'выплата'
'выплат'
'выпил'
'выпи'
'вынужден'
'вызвали_'
'вызва'
'выживания_'
'выделены_'
'выделения_'
'выдаче_'
'выда'
'выд'
'выглядишь_'
'вывести_'
'выв'
'выбросы_'
'выбран'
'выбра'
'выбирать_'
'въезд'
'вшим_'
'вшийся_'
'вше'
'вшая'
'вш'
'вч'
'входят_'
'вторых_'
'всяко'
'вступления_'
'вступлени'
'вступит_'
'вступил'
'вступа'
'встреча'
'встава'
'вспять_'
'всеобъемлющие_'
'всеобъемлющей_'
'всеобъемлюще'
'всеобъемлющ'
'временны'
'вредно'
'вреда_'
'впечатление_'
'восьм'
'восточно'
'востоке_'
'восто'
'воспроизв'
'вори'
'ворени'
'вопросе_'
'вооруженные_'
'вооруженного_'
'вооруженн'
'вооруж'
'воли_'
'воле'
'вок'
'войти_'
'войн'
'возобновл'
'возобновил'
'возникающ'
'возника'
'возможное_'
'возмещения_'
'возм'
'возлагает_'
'воздержа'
'возглавля'
'возвращаться_'
'возвращае'
'возвращ'
'возбужда'
'военным_'
'военнослужащи'
'вое'
'водоснабжения_'
'водных_'
'водител'
'вода'
'вого_'
'вовлечени'
'внутрь_'
'внутренним_'
'вносит_'
'вно_'
'вниз_'
'внешние_'
'внешнего_'
'внесл'
'внесении_'
'внесен'
'внедрение_'
'внебюджетных_'
'вмеш'
'вместо_'
'влияния_'
'вле'
'властями_'
'властью_'
'владения_'
'вл'
'вкус'
'включению_'
'включали_'
'вклад'
'вка_'
'виноват'
'вино'
'видишь_'
'видит'
'видим'
'видели_'
'вида_'
'взяты'
'взял'
'взрыво'
'взрывных_'
'взаимосвязанны'
'взаимоп'
'взаимодействии_'
'взаимодействие_'
'взаимо'
'взаимн'
'вещей_'
'вечн'
'вечеринки_'
'вестн'
'верховенств'
'вероятно_'
'верны'
'вернусь_'
'вернулись_'
'веке_'
'века_'
'вей'
'вез'
'ведущую_'
'ведущ'
'ведомств_'
'ведомств'
'вебсайт'
'вающих_'
'вающи'
'варианта'
'валютн'
'вал_'
'важный_'
'вад'
'бюджеты_'
'бюджетным_'
'бюджет_'
'бю'
'быт'
'быстрого_'
'бывших_'
'бываю'
'быва'
'бур'
'бумаг'
'будете_'
'буд'
'бросил_'
'броси'
'брем'
'брака_'
'боя'
'бороться_'
'боро'
'большего_'
'больны'
'больниц'
'болезней_'
'бол'
'боеприпасов_'
'боевых_'
'бод'
'богаты'
'бог'
'бов'
'бля'
'блоко'
'блокад'
'близки'
'ближне'
'ближайш'
'благоприятн'
'благоп'
'благодари'
'благого_'
'бла'
'бит'
'биологического_'
'били'
'бил'
'бизнес'
'библиотек'
'бесс'
'беспристрастн'
'бесполезн'
'бесплатно'
'бесед'
'бес'
'беременных_'
'беременности_'
'бер_'
'бен_'
'безу'
'безработиц'
'безотлагательно'
'безо'
'без'
'бедствия'
'беднейши'
'бе_'
'бби_'
'баре_'
'бар_'
'банк'
'баланс'
'бак'
'базовой_'
'бабушка_'
'аю'
'аэропорту_'
'ашк'
'аш'
'ачива'
'аче'
'аций_'
'ах'
'аты'
'атрива'
'атри'
'атмосферы_'
'атмосфер'
'атив'
'ательно'
'атель'
'ате_'
'аст'
'аспектах_'
'аса'
'аро'
'арно'
'арестован'
'ард_'
'аном'
'ане_'
'ангел'
'аналогичн'
'американцы_'
'ама'
'альтернативные_'
'альтернатив_'
'альных_'
'альны'
'ально_'
'алк'
'ализ'
'алиби_'
'актуальным'
'активные_'
'ако'
'ак'
'аже'
'ается_'
'аемы'
'адрес_'
'администраци'
'административных_'
'административно'
'адк'
'адит'
'ади'
'адекватны'
'адекватно'
'адаптиру'
'ад_'
'аго'
'агентств'
'авши'
'автоматическ'
'аве'
'аван'
'ава'
'або'
'Ян'
'Ямайка_'
'Ямайк'
'Югославии_'
'ЮН'
'Эф'
'Этим_'
'Эритрея_'
'Эн_'
'Эм'
'Экономический_'
'Эдв'
'Эд'
'ЭСКЗА_'
'Ь_'
'ЫЕ_'
'Шо'
'Шве'
'Чу'
'Чо'
'Член'
'Чест'
'Чело'
'ЧЕТ'
'Центральн'
'Цел'
'Ца'
'ЦА'
'Хотите_'
'Хотел'
'Хорватии_'
'Хо_'
'Хан'
'Фун'
'Фре'
'Франци'
'Фран'
'Фра'
'Форум_'
'Федеративные_'
'Федера'
'Факультативного_'
'ФАКТ_'
'Устойчивое_'
'Университет'
'Украин'
'Указанн'
'Указ'
'Уильям'
'Уил'
'Уи'
'Уз'
'Уж'
'Уголовно'
'УО'
'УМ'
'Туркменистан'
'Тринидад_'
'Трибунал_'
'Три'
'Тр'
'Точно_'
'Тонга_'
'Томас_'
'Тихого_'
'Тихо'
'Тип'
'Тиморе_'
'Техн'
'Тебя_'
'Танзания_'
'Таиланд_'
'ТЫ_'
'Сч'
'Суринам_'
'Сумма_'
'Стран'
'Средне'
'Средиземного_'
'Спо'
'Специальным_'
'Специальному_'
'Сп'
'Социальный_'
'Социальн'
'Сотрудник'
'Соответственно_'
'Сообще'
'Соо'
'Соломоновы_'
'Совещании_'
'Совете_'
'Смотрите_'
'Смотри_'
'Служб'
'Слова'
'Следовательно_'
'След'
'Ску'
'Ско'
'Скажи_'
'Син'
'Сербии_'
'Сем'
'Секция_'
'Секретаря_'
'Секретариате_'
'Сек'
'Сделай'
'Свят'
'Сант'
'Сан'
'Самоа_'
'Сам_'
'Сам'
'Сад'
'СТР'
'СПИДу_'
'СОЗ_'
'СОВ'
'СК'
'САМ'
'СА'
'С4_'
'Рэйчел_'
'Рэй'
'Росси'
'Род'
'Реши'
'Решения_'
'Республику_'
'Республикой_'
'Рей'
'Резолюция_'
'Региональный_'
'Реги'
'Рассмотрение_'
'Рам'
'Раз_'
'Раб'
'РП'
'Пят'
'Проце'
'Простите_'
'Произво'
'Причин'
'Прекрасн'
'Прекра'
'Представление_'
'Представител'
'Предоставление_'
'Предложение_'
'Предлагаем'
'Предварительная_'
'Правительства_'
'Пра'
'Потребности_'
'Поста'
'Последне'
'Попро'
'Пон'
'Положи'
'Полн'
'Политика_'
'Показатели_'
'Позво'
'Подр'
'Подп'
'Подожди_'
'Подкомиссии_'
'Подкомисси'
'Подготовка_'
'Подготовительны'
'Повер'
'Пове'
'Пло'
'Плана_'
'План_'
'Питер'
'Письм'
'Первая_'
'Пер'
'Пекинской_'
'Пе'
'Папуа_'
'Пап'
'Панама_'
'Пан'
'Пакте_'
'Пакистан'
'ПРОГРАММ'
'ПРЕД'
'ПР_'
'ПОО'
'ПОЛ'
'ПИИ_'
'ПЕ'
'ПГ_'
'Ох'
'Официальные_'
'Отс'
'Ото'
'Открыт'
'Отк'
'Отделения_'
'Отделении_'
'Ответ'
'Отв'
'Островов_'
'Особенно_'
'Основн'
'Опе'
'Один_'
'Обеспечение_'
'Об_'
'ОЭСР_'
'ОПР'
'ОЙ_'
'ОБЛ'
'Номер'
'Новый_'
'Но'
'Ник'
'Нидерландов_'
'Неужели_'
'Нес'
'Непр'
'Нел'
'Независимы'
'Наши_'
'Национальный_'
'Национально'
'Национальн'
'Нах'
'Наряду_'
'Нар'
'Напротив_'
'Най'
'Наз'
'Наде'
'НОВ'
'НИЯ_'
'НД'
'Мэг'
'Мьянма_'
'Молдова_'
'Мои_'
'Мое_'
'Много'
'Митч'
'Министры_'
'Министр'
'Мин'
'Мексик'
'Мате'
'Мат'
'Марино_'
'Мари'
'Манд'
'Ман'
'Мальдивские_'
'Макс_'
'Македония_'
'Мавритания_'
'МУ'
'МСЭ_'
'МСС'
'МООНСГ_'
'МООНДРК_'
'МЕН'
'МЕ'
'МГ'
'Люсия_'
'Люби'
'Люб'
'Лон'
'Литва_'
'Лиг'
'Лар'
'Ланка_'
'ЛЬ'
'ЛЕД'
'Кыргызстан_'
'Кур'
'Кувейта_'
'Кстати_'
'Кот'
'Коро'
'Корейская_'
'Корее'
'Конвенцией_'
'Комитете_'
'Кол'
'Клар'
'Кла'
'Кент'
'Кения_'
'Кат'
'Кас'
'Карт'
'Карл_'
'Канцелярии_'
'Камерун_'
'Камбодж'
'Какого_'
'Как'
'КП_'
'КОО'
'КГ'
'Йорка_'
'Йе'
'Ит'
'Исходя_'
'Исполняющий_'
'Исполнительн'
'Исламской_'
'Ирландия_'
'Ирана_'
'Информ'
'Интересно_'
'Иногда_'
'Индонезии_'
'Извините_'
'Ид'
'Ивуар_'
'ИХ_'
'ИР'
'ИМ'
'ИК'
'ИЙ_'
'ИЕ_'
'Знаю_'
'Земле_'
'Зе'
'Здравствуйте_'
'Зас'
'Западно'
'Зап'
'Зал'
'Законодатель'
'Закон'
'Зак'
'Завтра_'
'ЗО'
'Жо'
'Жи'
'Жанейр'
'Ж_'
'Ед'
'Египет_'
'Европейским_'
'Ев'
'ЕТ'
'ЕП'
'ЕЙ_'
'Дэй'
'Дур'
'Думал'
'Доро'
'Дополнительные_'
'Дон'
'Дом'
'Должн'
'Должен_'
'Доброволь'
'Добр'
'Доб'
'Директором_'
'Дин'
'Диа'
'Джули'
'Джон_'
'Дже'
'Джакарт'
'Дж'
'Департаментом_'
'День'
'Дело'
'Делегации_'
'Деклараци'
'Дей'
'Дев'
'Два_'
'Дайте_'
'ДОК'
'ДЕЯТЕЛЬНОСТ'
'Грузии_'
'Гренад'
'Государству_'
'Государственные_'
'Государственн'
'Голо'
'Гол'
'Год'
'Главны'
'Главная_'
'Германией_'
'Ген'
'Ге'
'Гв'
'Гана_'
'ГЭ'
'Вьетнам_'
'Вуд'
'Встреч'
'Всемирн'
'Все'
'Время_'
'Временно'
'Восток'
'Вос'
'Воп'
'Вон_'
'Воз'
'Вид'
'Верховном'
'Вене_'
'Величеств'
'Велико'
'Введение_'
'Ваши'
'Ваше'
'Важно'
'ВЫ'
'ВР'
'ВП'
'ВОП'
'ВАН'
'Быстр'
'Был_'
'Бут'
'Буду'
'Британ'
'Бонн'
'Больши'
'Боливия_'
'Бог_'
'Боб'
'Блин_'
'Билл'
'Бен_'
'Бел'
'Бахрейн_'
'Бак'
'БЕ'
'БАПОР_'
'Африканский_'
'Афганистан'
'Арт'
'Арм'
'Анголы_'
'Анг'
'Ан'
'Америке_'
'Ама'
'Ам'
'Алжир_'
'Албания_'
'Албании_'
'Ак'
'Административн'
'Аг'
'Авто'
'Абу'
'АТ'
'АЛ'
'ón_'
'ño_'
'ét'
'ç'
'¬_'
'zing_'
'zil'
'zer'
'yt'
'younger_'
'yo'
'yn_'
'yn'
'yma'
'yl'
'yi'
'yd'
'yard_'
'xin'
'ws_'
'ws'
'writer_'
'write_'
'wording_'
'wondered_'
'witnessed_'
'withdraw_'
'wit'
'wise_'
'wis'
'winning_'
'wind'
'widespread_'
'wid'
'whereas_'
'wha'
'wed_'
'wat'
'warr'
'wan_'
'wan'
'walls_'
'walked_'
'wait'
'wage'
'vulnerabilit'
'vr'
'voting_'
'vote'
'volume_'
'visib'
'virtual_'
'violating_'
'vil'
'view'
'videos_'
'viability_'
'vet'
'versa'
'vers'
'vent'
'vat'
'vast_'
'vase'
'valuable_'
'uvi'
'user_'
'use'
'urs'
'uring_'
'ure'
'urage'
'update_'
'unte'
'uno'
'unm'
'unlo'
'unity_'
'undoubtedly_'
'understood_'
'underneath_'
'underg'
'und'
'unacceptable_'
'uli'
'ulen'
'ulate'
'ula'
'uk'
'ui'
'ugly_'
'ugh'
'uff'
'uat'
'tz'
'turns_'
'turb'
'tunnels_'
'tum'
'ttle'
'tting_'
'tters_'
'tt_'
'tt'
'truct'
'tru'
'troubled_'
'tropic'
'troop_'
'trip_'
'trials_'
'treat_'
'trea'
'travell'
'transmit_'
'transmission'
'translat'
'transitional_'
'transfers_'
'transboundary_'
'trainers_'
'tragedy_'
'trac'
'toward_'
'tour_'
'touche'
'tou'
'totalled_'
'tos'
'tool_'
'tiz'
'tive_'
'tiv'
'til'
'tie_'
'tical_'
'ti_'
'thy_'
'ths_'
'throw'
'threaten'
'thou'
'thir'
'therefrom_'
'there'
'therapist_'
'theft_'
'terrorists_'
'territories_'
'tensions_'
'tens'
'tend_'
'tely_'
'tele'
'teenth_'
'techni'
'tea_'
'taxes_'
'tat'
'tar_'
'tang'
'talks_'
'taliz'
'tale'
'tal_'
'tag'
'tackle'
'tabl'
'syn'
'sym'
'sy'
'swor'
'sweep_'
'sw'
'suspect_'
'survival_'
'surrounding'
'sur'
'support'
'suppliers_'
'supplie'
'supp'
'super'
'sun_'
'suitcase_'
'suitable_'
'suggestions_'
'subsistence_'
'subsidi'
'subregion_'
'subparagraph_'
'submit'
'su_'
'studied_'
'stud'
'stu'
'structures_'
'stru'
'stroke_'
'strictly_'
'strengthened_'
'streets_'
'stranger_'
'strange_'
'storms_'
'stories_'
'stipulate'
'stin'
'sten'
'stea'
'statut'
'star_'
'star'
'standardiz'
'stal'
'stable_'
'stabbed_'
'ssive_'
'sses_'
'ssed_'
'spot_'
'spir'
'spill'
'specially_'
'space'
'sovereign_'
'soul_'
'sou'
'soph'
'sooner_'
'sons_'
'sometime_'
'somehow_'
'some'
'solve_'
'soli'
'sold_'
'solar_'
'sobre_'
'sn'
'smart_'
'sma'
'sm'
'slightly_'
'sli'
'sl'
'skull_'
'sis'
'sions_'
'simplif'
'silver_'
'signs_'
'signi'
'signator'
'sia'
'shop'
'shoe_'
'shipment'
'shelter'
'shells_'
'shell_'
'shel'
'shared_'
'shape'
'sham'
'shake'
'sexual_'
'sex'
'seve'
'serving_'
'servicing_'
'serves_'
'servant'
'ser_'
'sentences_'
'sentenced_'
'sensitivit'
'send'
'seme'
'sel_'
'seism'
'sei'
'segment_'
'seeks_'
'seed'
'sed'
'seat_'
'seal_'
'sday_'
'screw'
'scream'
'scheme_'
'scap'
'scal'
'savings_'
'satisfactor'
'sation'
'sar'
'san_'
'sail'
'sa_'
'rush_'
'rude_'
'rub_'
'rtion'
'rti'
'rtain'
'rov'
'round'
'rose_'
'root_'
'roommate_'
'romantic_'
'rol'
'roads_'
'roa'
'rne'
'rm'
'rl'
'river_'
'risks_'
'rising_'
'rise_'
'rip'
'riot'
'rin'
'rgi'
'rg'
'rey_'
'revi'
'rever'
'reveal'
'retr'
'responses_'
'respon'
'resist_'
'resh'
'reserv'
'resent'
'representing_'
'reply_'
'replies_'
'repairs_'
'repair_'
'rental_'
'render'
'rena'
'remark'
'rely_'
'reliable_'
'reli'
'relevance_'
'releas'
'rel'
'reh'
'regulat'
'reform'
'redress_'
'recruit'
'recon'
'recognizing_'
'recognizes_'
'recla'
'recip'
'receives_'
'receivables_'
'receipt_'
'reasonable_'
'realiz'
'ratify_'
'ras'
'rare_'
'rapidly_'
'rant'
'ransom_'
'ral_'
'raising_'
'rain'
'radi'
'rade'
'rab'
'quir'
'quantifi'
'qualified_'
'quaint'
'q_'
'q'
'purely_'
'purchase'
'pup'
'punish_'
'pul'
'publish_'
'publicity_'
'psych'
'psy_'
'ps'
'provincial_'
'proud_'
'protocol_'
'protest'
'prospects_'
'prosecutor_'
'proposing_'
'promoted_'
'promises_'
'prohibiting_'
'progressive_'
'profi'
'productivity_'
'produced_'
'proceeds_'
'privilege'
'priva'
'prison'
'prints_'
'printing_'
'prim'
'priest_'
'pretending_'
'president_'
'presents_'
'prejudice'
'prefer_'
'predict'
'pred'
'precursors_'
'precise_'
'precious_'
'precede'
'practical'
'pped_'
'pour'
'pounds_'
'poste'
'possibilities_'
'possess'
'pos'
'portion_'
'portfolio_'
'port'
'poison'
'poe'
'plenty_'
'pleased_'
'play'
'plate_'
'placement_'
'pity_'
'pita'
'pill'
'pic'
'phrase_'
'pher'
'phase'
'pes_'
'persua'
'pers'
'period'
'perform_'
'penal'
'pee'
'peace'
'patien'
'patent'
'part'
'parent_'
'pap'
'pa_'
'oл'
'owe'
'overl'
'ova_'
'ova'
'output_'
'outlined_'
'ote'
'ost'
'orted_'
'orp'
'oro'
'orm_'
'organizing_'
'orar'
'ora'
'optional_'
'opt'
'oph'
'operative_'
'operat'
'ope'
'onto_'
'ont'
'oned_'
'ome'
'oma'
'olut'
'olo'
'ol_'
'ok'
'offence_'
'odi'
'occupying_'
'obvious_'
'obtained_'
'obst'
'observed_'
'observation_'
'observance_'
'obliged_'
'obe'
'ob'
'nz'
'nuts_'
'nutrition'
'nut_'
'nted_'
'nta'
'now'
'notify_'
'notice_'
'noti'
'nos'
'nol'
'noise_'
'nni'
'nk_'
'nis_'
'nineteenth_'
'networks_'
'networking_'
'nell'
'neighbour'
'nec'
'ndi'
'nder'
'nded_'
'nda_'
'ncies_'
'nches_'
'nb'
'navigation_'
'nation'
'nate_'
'nas'
'narrow'
'na'
'my'
'murderer_'
'murder'
'multi_'
'mu'
'mpt'
'movements_'
'mouth_'
'moreover_'
'morat'
'moo'
'monkey_'
'modality_'
'modalities_'
'mod'
'mn'
'mmy_'
'ml'
'mistake_'
'missiles_'
'missed_'
'misc'
'ministers_'
'mining_'
'ming_'
'mineral_'
'mine'
'minds_'
'mina'
'min'
'millions_'
'militia_'
'mile'
'mil'
'migrants_'
'mie'
'mid_'
'mic_'
'mi_'
'mi'
'messages_'
'mere_'
'mercy_'
'memorandum_'
'melt'
'meantime_'
'meaningful_'
'meaning_'
'mbo_'
'mbi'
'maximiz'
'maternal_'
'mass'
'manufacturing_'
'manufacture'
'manpower_'
'mals_'
'male_'
'maintains_'
'magni'
'magi'
'magazine'
'macroeconomic_'
'ly'
'lungs_'
'lt'
'loy'
'lowe'
'loving_'
'losing_'
'located_'
'lized_'
'lity_'
'lities_'
'literal'
'litari'
'linking_'
'line'
'liga'
'lig'
'lift_'
'lif'
'licence_'
'liberalization_'
'liable_'
'letting_'
'lers_'
'length_'
'len'
'lem'
'legislat'
'legally_'
'leaves_'
'leak'
'leader_'
'lc'
'lawyers_'
'launching_'
'launch_'
'lat'
'largest_'
'larger_'
'largely_'
'lar'
'lap'
'lands_'
'ladies_'
'laborator'
'label'
'ks'
'knowing_'
'kle'
'kit'
'kissed_'
'kinds_'
'kind'
'kill'
'kil'
'kie'
'kidding_'
'ket_'
'ka'
'justified_'
'jun'
'judg'
'journal'
'joining_'
'jecti'
'jam'
'jacket_'
'ja_'
'izing_'
'ize_'
'ix_'
'iu'
'itions_'
'ith_'
'ists_'
'istan'
'isla'
'ised_'
'iron'
'iro_'
'ire'
'ipal'
'ip_'
'ional_'
'ional'
'invo'
'investigating_'
'inva'
'inti'
'intern'
'interim_'
'interference_'
'interesting_'
'intera'
'intention_'
'intensity_'
'intensify_'
'integrat'
'installation_'
'insane_'
'input'
'innovative_'
'inno'
'inmate'
'ink'
'initia'
'infl'
'infe'
'ines_'
'index_'
'indeed_'
'incu'
'incredibl'
'increasingly_'
'incorporation_'
'incorporated_'
'incorporat'
'incentives_'
'incentive_'
'inat'
'inappropriate_'
'inad'
'impressi'
'impossible_'
'import_'
'implic'
'impartiality_'
'imp'
'immune_'
'immigration_'
'imag'
'ili'
'iled_'
'ile'
'iga'
'ified_'
'ificat'
'ifi'
'ier'
'ien'
'ie'
'idiot'
'ich'
'ice'
'icat'
'ica'
'ib'
'ial'
'hydro'
'hurts_'
'hunger_'
'hun'
'humans_'
'hov'
'hostil'
'hosted_'
'horse_'
'horrible_'
'hook'
'hon'
'holds_'
'hoc_'
'hm'
'hitting_'
'hired_'
'hir'
'hill'
'hila'
'highlights_'
'highlighted_'
'high'
'hie'
'hid'
'hesita'
'herself_'
'hers_'
'hen_'
'hem'
'hed_'
'heav'
'heat_'
'hearts_'
'head'
'hazardous_'
'hatred_'
'harmonize_'
'hardship_'
'hanging_'
'handsome_'
'handle'
'handed_'
'hampered_'
'ham_'
'halt_'
'hai'
'hag'
'habit'
'gui'
'gua'
'gs'
'grow'
'gro'
'grim'
'green'
'great'
'grav'
'gratis_'
'grat'
'graph'
'granting_'
'gram'
'grade_'
'governorates_'
'govern'
'gor'
'gold_'
'gna'
'gn'
'glue'
'gli'
'gie'
'gest'
'generation_'
'genera'
'gene'
'gence_'
'gem'
'gel'
'ge'
'gay_'
'gases_'
'gangs'
'games_'
'fy'
'furni'
'fulfill'
'ft'
'fruit_'
'fresh_'
'frequent'
'freeze'
'free'
'freaking_'
'fr'
'foundation_'
'foster_'
'fortun'
'forthcoming_'
'format'
'formal_'
'formal'
'forgotten_'
'forgive_'
'fore'
'ford_'
'football_'
'fly'
'flowers_'
'flew_'
'flee'
'fled'
'fle'
'flatter'
'flat_'
'flag'
'fisheries_'
'fiscal_'
'fires_'
'finds_'
'financed_'
'fin'
'files_'
'fig'
'fifty'
'fields_'
'fication_'
'ffin'
'fer'
'fem'
'fellowship'
'fel'
'feels_'
'fect'
'feasible_'
'fat_'
'farm_'
'fant'
'fancy_'
'fake_'
'factory_'
'factors_'
'facilitating_'
'eт'
'extending_'
'exten'
'ext'
'export'
'explanation_'
'explained_'
'expensive_'
'expense_'
'expend'
'expecting_'
'expectancy_'
'expe'
'expand'
'exercised_'
'executed_'
'exception_'
'exception'
'excellen'
'exc'
'examin'
'exam'
'evil_'
'evident_'
'evaluations_'
'eur'
'ette_'
'etiti'
'estimate_'
'est'
'erti'
'ert_'
'ert'
'ero_'
'erg'
'erc'
'erat'
'eradication_'
'equat'
'episode_'
'epi'
'ep'
'environments_'
'ention'
'ential'
'enti'
'enth_'
'ented_'
'ensures_'
'ens_'
'enormous_'
'enjoyment_'
'ening_'
'enhancing_'
'engineer'
'engine'
'engaging_'
'engagement_'
'ener'
'enemies_'
'ene'
'encountered_'
'ence_'
'empowerment_'
'empower'
'emphasize'
'emerging_'
'emergencies_'
'emen'
'els_'
'elo'
'ellaneous_'
'ella_'
'elimination_'
'eli'
'ein_'
'eh_'
'eet'
'ee_'
'editor'
'edit'
'edi'
'edge_'
'ect'
'ecia'
'ech'
'eastern_'
'earthquake'
'earn'
'ead'
'ea_'
'dynamic_'
'dur'
'dumped_'
'dum'
'duly_'
'dul'
'drown'
'drill'
'dri'
'dressed_'
'drawer_'
'drai'
'drag'
'doom'
'domi'
'dom_'
'dogs_'
'division_'
'diversity_'
'dition'
'disseminate_'
'disseminat'
'disre'
'displaced_'
'disparit'
'dismissal_'
'dish'
'disguise_'
'disclos'
'disappoint'
'disadvantage'
'diplomacy_'
'dimensions_'
'dil'
'diff'
'die'
'dica'
'dic_'
'dial'
'dg'
'device_'
'determin'
'detained_'
'detail_'
'dest'
'desired_'
'desirable_'
'design'
'deserved_'
'describe_'
'ders_'
'dero'
'depriv'
'depends_'
'depending_'
'denti'
'dent'
'demonstration_'
'demonstrate_'
'demon_'
'democratization_'
'demanded_'
'delivered_'
'deliver_'
'delicious_'
'dele'
'delays_'
'deg'
'definitions_'
'defining_'
'defend_'
'deem'
'decree_'
'decrease_'
'declared_'
'decides_'
'deci'
'dd_'
'dd'
'dating_'
'dare_'
'dangers_'
'danger_'
'dam_'
'dal'
'dad'
'cycle_'
'cutting_'
'cute_'
'customs_'
'curricula_'
'currenc'
'cum'
'ction'
'crush'
'crie'
'credi'
'cre'
'crap'
'craft_'
'cr'
'courage_'
'count_'
'costume_'
'cos_'
'corridor'
'correspond'
'correctly_'
'correcti'
'correct_'
'corps_'
'cor'
'cops_'
'cop_'
'coordinates_'
'cooperative_'
'cooperati'
'convince_'
'conviction_'
'convicted_'
'conversation_'
'convening_'
'convenien'
'containing_'
'contacts_'
'consumption_'
'consultative_'
'constraints_'
'constr'
'constitutional'
'consolidation_'
'consist'
'conse'
'conquer'
'cong'
'confronted_'
'confirm_'
'confe'
'cond'
'conce'
'compulsory_'
'comprise'
'complicated_'
'completion_'
'completing_'
'complain_'
'compla'
'competitive_'
'compete'
'comparable_'
'committing_'
'committee_'
'commit_'
'commissions_'
'commission_'
'commi'
'commerce_'
'commensurate_'
'commended_'
'commend'
'comme'
'command'
'column_'
'colour'
'colo'
'college_'
'colleague'
'collaborat'
'coh'
'coe'
'cod'
'coastal_'
'coalition_'
'club_'
'cloud'
'closest_'
'closer_'
'close'
'cleaning_'
'cleane'
'clean'
'classifications_'
'clarification_'
'clari'
'claim'
'cker_'
'cit'
'circulated_'
'circulat'
'circle_'
'cien'
'cia'
'choosing_'
'chicken_'
'chi'
'cher'
'ched_'
'cheated_'
'cheat'
'chase_'
'characterized_'
'channels_'
'chair_'
'chain_'
'cessa'
'certification_'
'center'
'census'
'cell'
'celebrati'
'cele'
'cel'
'ced_'
'ced'
'cave'
'cate_'
'carrie'
'carbon'
'capable_'
'cap_'
'cally_'
'calendar_'
'calculations_'
'cabinet_'
'ca_'
'buyer_'
'bust'
'businesses_'
'bury_'
'burn'
'bureau_'
'bullets_'
'bullet_'
'bull'
'budgets_'
'bud'
'brothers_'
'broadcast'
'broad'
'bro_'
'bright_'
'breach_'
'brand_'
'branch_'
'brak'
'brains_'
'bow'
'bout'
'bother_'
'borders_'
'bor_'
'book'
'bone_'
'bon'
'boat_'
'board'
'blu'
'blocks_'
'blew_'
'bless_'
'blah_'
'black'
'biological_'
'bing_'
'binding_'
'bin'
'billion_'
'bili'
'biggest_'
'bid_'
'bi_'
'bert_'
'berg_'
'belonged_'
'behavior_'
'beauty_'
'beast_'
'bears_'
'bearing_'
'beard'
'bby_'
'bathroom_'
'bath_'
'basic'
'base'
'barr'
'banks_'
'banking_'
'balanced_'
'backs_'
'bab'
'aв'
'award_'
'avoid'
'avi'
'ava'
'automated_'
'author'
'aunt_'
'audit'
'attributed_'
'atten'
'attempted_'
'attained_'
'attac'
'atr'
'ato'
'atmosphere_'
'ati'
'associate_'
'assisting_'
'assigned_'
'assess'
'asleep_'
'arts_'
'artillery_'
'arti'
'art'
'ars_'
'aro'
'arm_'
'ario'
'argu'
'arch'
'arbitrary_'
'aran'
'appropriate'
'appro'
'appraisal_'
'appr'
'applicant'
'appeals_'
'appar'
'api'
'apa'
'ap'
'anticipated_'
'ante_'
'ans'
'ano'
'annu'
'andr'
'anc'
'analytical_'
'amm'
'ami'
'ambi'
'amazing_'
'alumin'
'alt'
'allow'
'allocat'
'alle'
'alization_'
'alities_'
'alien'
'ale'
'aking_'
'aj'
'airspace_'
'airl'
'ains_'
'ain'
'ah'
'agin'
'aggression_'
'aggress'
'aged_'
'afford_'
'affi'
'aff'
'af'
'advocacy_'
'advan'
'adv'
'adults_'
'administered_'
'administ'
'admi'
'adjusted_'
'addressing_'
'addresse'
'addi'
'added_'
'adaptation_'
'acted_'
'acquired_'
'acquire_'
'acknowledged_'
'achievements_'
'accus'
'accommodation_'
'accept_'
'abuses_'
'abu'
'abst'
'aboli'
'abl'
'abat'
'aba'
'aa'
'] [_'
'[ _'
'Zealand_'
'Ze'
'Z_'
'Young_'
'Yea'
'XXVI'
'XIII_'
'Wow_'
'Works'
'Wor'
'Wonder'
'Without_'
'Within_'
'Who'
'Were'
'Well'
'Welcomes_'
'Welcome_'
'Week'
'Wednesday_'
'Web_'
'Weapons_'
'Wea'
'Wak'
'WMO_'
'WI'
'WA'
'Vie'
'Ve'
'Van'
'VOC_'
'Unfortunately_'
'Under'
'Um'
'UR_'
'UNS'
'UNP'
'UNIFIL_'
'UNCITRAL_'
'UGH'
'Tw'
'Turn_'
'Trustees'
'Trial_'
'Treat'
'Trav'
'Tow'
'Tou'
'Too'
'Togo_'
'Today_'
'Toby_'
'Tit'
'Tim_'
'Thur'
'Three_'
'Tho'
'The'
'Terrorism_'
'Terr'
'Ter'
'Tele'
'Team_'
'Tea'
'Tas'
'Talk'
'TU'
'TRI'
'TIN'
'THE'
'TE_'
'TD_'
'Sus'
'Supply_'
'Strip_'
'Stri'
'Strengthening_'
'Str'
'Sti'
'Stew'
'Steph'
'Stay_'
'Stand'
'Stan'
'Source'
'Sou'
'Somewhere_'
'Some'
'Somali_'
'Sol'
'Slow_'
'Sleep'
'Sl'
'Six_'
'Silv'
'Sign'
'Sig'
'Sid'
'Shut_'
'Shouldn_'
'Sex'
'Sergeant_'
'Serbs_'
'Senator_'
'Sc'
'Say'
'Sat'
'Sand'
'Saint_'
'Said_'
'Sah'
'Safety_'
'ST_'
'STA'
'SS'
'SM'
'SER'
'Ryan_'
'Russia_'
'Rus'
'Royal_'
'Rom'
'Robert_'
'Riv'
'Ricky_'
'Rev'
'Ret'
'Resol'
'Relations_'
'Rela'
'Rein'
'Regulat'
'Regist'
'Refugees_'
'Recommendations_'
'Rebecca_'
'Reaffirming_'
'Ras'
'Radi'
'Racism_'
'RS'
'RN'
'REPRESENTATIVE'
'REPORT_'
'REP'
'Qua'
'Provisional_'
'Proposal'
'Promise_'
'Prog'
'Prison_'
'Princ'
'Press_'
'Present'
'Prefe'
'Prec'
'Power_'
'Possible_'
'Positi'
'Pos'
'Pol'
'Plenty_'
'Phil'
'Petr'
'Peoples_'
'Pay'
'Patrick_'
'Patrici'
'Partnership_'
'Parliament_'
'Palestinians_'
'PS_'
'PRT_'
'POL'
'PLE'
'PA_'
'PAR'
'Ow_'
'Ope'
'Op'
'Old_'
'Ok_'
'Ok'
'Od'
'Ob'
'Oa'
'ONE_'
'OC'
'None_'
'Nin'
'Next_'
'Net_'
'Neither_'
'Natural_'
'Nat'
'Name_'
'NEPAD_'
'Mut'
'Muslim_'
'Move_'
'Mou'
'Mother'
'Mol'
'Moham'
'Model_'
'Mit'
'Misc'
'Mini'
'Military_'
'Mil'
'Micronesia_'
'Metohija_'
'Men'
'Mel'
'Meetings_'
'Mediterranean_'
'Me_'
'Mauritius_'
'Mau'
'Mat'
'Marshall_'
'Maria_'
'Mak'
'Mac_'
'MU'
'MS_'
'MP'
'MON'
'MB'
'Lucia_'
'Lou'
'Liz'
'Life_'
'Liechtenstein_'
'Len'
'Lecture'
'Lebanese_'
'Las'
'LU'
'LT'
'LE_'
'LDC'
'Kno'
'Kn'
'Kir'
'Kill'
'Kil'
'Khan_'
'Kha'
'Kelly_'
'Kan'
'Kal'
'KO'
'KING'
'KA'
'Juvenile'
'Julia'
'Jul'
'Judicial_'
'Josh_'
'Jos'
'Jon'
'Join'
'Ji'
'Jew_'
'Jen'
'Jason_'
'JIU_'
'Item'
'Italian_'
'Is'
'Irish_'
'Iranian_'
'Ir'
'Investment_'
'Inv'
'Internal_'
'Interior_'
'Interim_'
'Inte'
'Instead_'
'Inland_'
'Inf'
'Increase'
'Ibid_'
'Ib'
'ITU'
'IPF_'
'ION'
'INC'
'IMP'
'IMIS_'
'IC_'
'ICT'
'ICAO_'
'Hon'
'Henry_'
'Helsinki_'
'Hel'
'Hap'
'Hanna_'
'Hand'
'Hammond_'
'Habitat_'
'HEA'
'HAVE_'
'Guys_'
'Guy_'
'Grou'
'Gregor'
'Gor'
'Gon'
'Golan_'
'Gob'
'Gl'
'Gil'
'German_'
'GRRF_'
'GRE_'
'GA_'
'Friends_'
'Framework_'
'Fr'
'Four_'
'Form'
'Fly'
'Fit'
'Fisher'
'Fiji_'
'Fer'
'Feel_'
'Federated_'
'Face'
'Fac'
'FT'
'FH'
'FBI_'
'FAC'
'External_'
'Expe'
'Except_'
'Excellency_'
'Estimate'
'Establishment_'
'Er'
'Environmental_'
'Ensur'
'Eng'
'Emm'
'Emily_'
'Elizabeth_'
'Eli'
'Electoral_'
'Ele'
'Eight'
'Eff'
'Edward_'
'Ed'
'EURO'
'ESCAP_'
'EMEP_'
'ED'
'EAT'
'Dur'
'Dude_'
'Don'
'Dom'
'Dog'
'Doesn_'
'Documents_'
'Document_'
'Disp'
'Disa'
'Dig'
'Des'
'Derechos_'
'Denn'
'Deci'
'David_'
'Date_'
'Danny_'
'Dam'
'Dal'
'DE_'
'Cyrus_'
'Cy'
'Cul'
'Cross_'
'Croatian_'
'Cri'
'Cred'
'Count'
'Cooper'
'Conventions_'
'Contributions_'
'Contr'
'Cont'
'Consolidated_'
'Conse'
'Conn'
'Conferences_'
'Concern'
'Con'
'Compensation_'
'Company_'
'Compa'
'Commonwealth_'
'Commit'
'Commen'
'Command_'
'Comm'
'Col'
'Coc'
'Coal'
'Coa'
'Co_'
'Cle'
'Class_'
'Clark_'
'Claim'
'Cl'
'City_'
'Chris_'
'Chec'
'Char'
'Chamber_'
'Cham'
'Chair_'
'Cel'
'Ce'
'Cau'
'Carr'
'Caroline_'
'Carlo'
'Canadian_'
'Came'
'Cairo_'
'Cab'
'Ca'
'CTBT_'
'CSCE_'
'CS'
'CP'
'CONVENTION_'
'CONFERENCE_'
'COMMITTEE_'
'COM'
'CIS_'
'CIA_'
'CHA'
'CD'
'CB'
'Budgetary_'
'Bud'
'Bru'
'Broad'
'Brid'
'Brand'
'Boss_'
'Bosnian_'
'Bob_'
'Bla'
'Bis'
'Bethlehem_'
'Basic_'
'Based_'
'Bas'
'Barbados_'
'Barb_'
'Bangladesh_'
'BUR_'
'Aw'
'Authorit'
'Auditors_'
'Atten'
'Atlantic_'
'Assessment_'
'Ass'
'Ask'
'Articles_'
'Art'
'Army_'
'Ari'
'Arg'
'Aren_'
'Arc'
'Arabic_'
'Ara'
'Appr'
'App'
'Ann'
'Ani'
'Ang'
'Andre'
'Ande'
'Alt'
'Alon'
'Ali'
'Albanian_'
'Ah'
'Agricultur'
'Agreements_'
'Address_'
'Addi'
'Acc'
'Absolutely_'
'Abd'
'Aah_'
'AU'
'ATIONS_'
'AN_'
'ANT'
'AME'
'AM'
'AGENDA_'
'A9_'
'? -_'
'95'
'93'
'89'
'79'
'74'
'73'
'70'
'687_'
'650_'
'5'
'497_'
'458_'
'45'
'430_'
'423_'
'414_'
'370_'
'37'
'342'
'320_'
'309'
'305_'
'277'
'259_'
'236_'
'235_'
'214_'
'213_'
'211_'
'210'
'206_'
'206'
'203'
'2020_'
'2014_'
'1990s_'
'1984_'
'1981_'
'1969_'
'1951_'
'1940'
'173_'
'169_'
'167_'
'166_'
'165_'
'153_'
'152_'
'144'
'14'
'139'
'136_'
'135'
'133_'
'127_'
'126'
'119_'
'100'
'07_'
'... .._'
'.)_'
'.)'
'. &_'
'*'
')]_'
')/_'
'),_'
')*'
')(_'
') “_'
'"... _'
'"!_'
'" ("_'
' ♪ '
' ± _'
' ...'
' --_'
' +'
' *'
' ".'
'♪_'
'╦'
'╡_'
'”_'
'”;'
'“'
'‘_'
'س'
'ا'
'ќ'
'ѕр'
'ёш'
'ённо'
'ёнк'
'ём'
'ё_'
'яющи'
'яю'
'ящих_'
'ящик'
'ящиеся_'
'яче'
'яции_'
'ях'
'ято'
'ятн'
'ятил'
'ятие_'
'яри'
'яр'
'янск'
'янс'
'ям'
'ялся_'
'яко'
'яка_'
'яйца_'
'яйц'
'язычного_'
'языкам'
'язанн'
'яж'
'яе'
'ядо'
'ядк'
'яди'
'ядерные_'
'ядерны'
'ядерное_'
'яд_'
'ягчен'
'явно_'
'явн'
'являющимися_'
'являющи'
'являющ'
'являл'
'являе'
'явлениями_'
'явлени'
'яв_'
'ющимся_'
'ющее_'
'юще'
'юча'
'юс'
'юристо'
'юрисдикцию_'
'юридическим_'
'юридическ'
'юн_'
'южной_'
'юго_'
'эффективным_'
'эффективные_'
'эффективную_'
'эффективностью_'
'эффективному_'
'эффективн'
'эффекта'
'эффек'
'эф'
'этническим_'
'этики_'
'эти'
'эстонско'
'эпох'
'эпидеми'
'энергетической_'
'энергетик'
'энерг'
'эн_'
'эмоционально'
'эми'
'элементах_'
'электроэнергии_'
'электрос'
'электронной_'
'экстренно'
'экстреми'
'экстремальны'
'эксплуатация_'
'экспертны'
'экспертиз'
'эксперта_'
'экспериментальны'
'эксперимент'
'эксп'
'эксгумаци'
'экономику_'
'экономик'
'экологически'
'экологическая_'
'экзамен'
'эйр_'
'ьян'
'ьями_'
'ьф'
'ьон_'
'ьо'
'ьным_'
'ьному_'
'ьном'
'ько_'
'ько'
'ьк'
'ьи_'
'ьет'
'ьеры_'
'ьд'
'ьв'
'ышал'
'ыта'
'ыслен'
'ыне'
'ын'
'ыли'
'ывают'
'ываю'
'ывали'
'щущ'
'щрен'
'щн'
'щихся_'
'щите'
'щико'
'щика'
'щий_'
'щивани'
'щены_'
'щенного_'
'щенно'
'щения_'
'щем'
'щее_'
'щегося_'
'щад'
'ща_'
'шё'
'шую'
'штраф'
'штейн'
'штат_'
'штаба_'
'шп'
'шлен'
'шла_'
'шку_'
'школьных_'
'школьного_'
'школ'
'шко'
'шке'
'шкал'
'шк'
'шись_'
'широком'
'широки'
'шире_'
'шим'
'шие_'
'шет_'
'шестидесят'
'шеств'
'шения'
'шение'
'шени'
'шем_'
'шельф'
'шель_'
'шель'
'шел_'
'шего_'
'шев'
'шат'
'шар'
'шага'
'шаг_'
'чёрт'
'чёрны'
'чуть_'
'чудо_'
'чувства_'
'чт'
'чрезвычайно'
'чре'
'чный_'
'чност'
'чное_'
'чне'
'чная_'
'членского_'
'членск'
'членах_'
'чку_'
'чке_'
'читься_'
'читала_'
'чистый_'
'численны'
'численн'
'чили'
'чила'
'чиков_'
'чивости_'
'чивает_'
'чече'
'четырнадцатой_'
'четырех'
'четкие_'
'четверто'
'честно'
'чества_'
'ческому_'
'ческим'
'чески'
'черны'
'ченным'
'ченного_'
'чему_'
'человечеств'
'человечески'
'чело'
'чаю'
'чат_'
'частный_'
'частному_'
'частн'
'частичн'
'час'
'чар'
'чало'
'чайш'
'ча_'
'цы'
'циях_'
'цифров'
'циф'
'цитиру'
'циплин'
'цип'
'ционной_'
'ционная_'
'цикло'
'цес'
'церкви_'
'цепочк'
'центру_'
'центрами_'
'централизованно'
'цент'
'ценный_'
'ценности_'
'ценно'
'ценим'
'ценз'
'цена'
'цем'
'целесообразн'
'целенаправленно'
'целевой_'
'цей_'
'цед'
'цвета_'
'цвет_'
'цвет'
'цать_'
'цам_'
'ху_'
'хт_'
'хт'
'хруп'
'хрон'
'христиан'
'хрен'
'хранени'
'хран'
'хочется_'
'хот'
'хороши'
'хорошего_'
'хороше'
'хорошая_'
'хорватск'
'хом_'
'холодно'
'холо'
'хозяйственн'
'хозяйств_'
'хозяин'
'хожу_'
'ходят_'
'ходо'
'ходить_'
'ходит'
'ходимо'
'ходил'
'ходи'
'ходатайство_'
'хнут'
'хну'
'хне'
'хл'
'хирург'
'хими_'
'хере'
'хе_'
'хватит_'
'хватило_'
'характерн'
'характеристик'
'хала'
'ффр'
'ффи'
'функционирует_'
'функционирование'
'функционирова'
'функциональных_'
'функционально'
'фун'
'фторид_'
'фтори'
'фтор'
'фск'
'фронта'
'фро'
'фри'
'французско'
'французским_'
'французски'
'форумом_'
'форумах_'
'форн'
'формулировки_'
'формулировка'
'формулирова'
'формулиров'
'формиру'
'формированию_'
'формирование'
'формате_'
'формами_'
'формального_'
'фондом_'
'фон_'
'фм'
'фло'
'фла'
'фл'
'фицирова'
'фициальная_'
'финансовому_'
'финансируются_'
'финансирует'
'финансируемых_'
'финанс'
'фиксированн'
'фиксир'
'фикационн'
'фии_'
'физическ'
'фигурирую'
'фигур'
'ферму_'
'фермер'
'ференци'
'федеральным_'
'февраль'
'фар_'
'факультет'
'факты_'
'фактическо'
'фактических_'
'фактически'
'фаз'
'уязвимыми_'
'уязвимым_'
'ующим'
'ующе'
'ую'
'ушл'
'ушка_'
'ушива'
'уши'
'ушени'
'ушающ'
'учреждениям_'
'учреждении_'
'учреждение_'
'учреждени'
'учредить_'
'учредил'
'учитывающ'
'учител'
'учили'
'учил'
'учения_'
'ученика'
'учебная_'
'уче'
'учащи'
'учат'
'участнике_'
'участвующие_'
'участвующ'
'участв'
'уча'
'ухудшения_'
'уходить_'
'ухо'
'ухажива'
'утствие_'
'утс'
'уточнение'
'уточнен'
'уточн'
'ути'
'утвержденным_'
'утвержденны'
'утвержденной_'
'утверждают'
'утверждать_'
'утвержда'
'утвердил'
'усыновления_'
'усы'
'усугубл'
'устраня'
'устранить_'
'устранени'
'устраива'
'устр'
'устойчивых_'
'устойчив'
'устным'
'устно'
'устил_'
'усти'
'установлены_'
'установленных_'
'установленные_'
'установленны'
'установленного_'
'установлении_'
'установ'
'устанавливаю'
'устанавливать_'
'устанавлива'
'устал'
'успешны'
'усмотрению_'
'усм'
'услышит'
'услуга'
'условным_'
'условиям_'
'усло'
'ускоренно'
'ускор'
'усилиями_'
'усиливаю'
'усилени'
'усе_'
'уса'
'урс'
'уровням'
'урн'
'урге'
'ураган'
'упустил'
'упу'
'упрощению_'
'упрочения_'
'упростить_'
'управлять_'
'управленческо'
'уппо'
'употреблени'
'упомянуты'
'упомянули_'
'упоминал'
'уполномоченны'
'упл'
'упер'
'упала_'
'упал_'
'упаковки_'
'унифи'
'уникальн'
'университета_'
'универ'
'умышленн'
'умственн'
'умр'
'умира'
'умею'
'умер'
'уменьшит'
'уменьшил'
'уменьшение'
'уменьшен'
'умент'
'умее'
'уме_'
'уме'
'умби'
'ультат'
'улучш'
'улица'
'улиц'
'уладить_'
'ул_'
'укреп'
'укомплектовании_'
'уко'
'указывал'
'указанные_'
'указанном_'
'указанн'
'указания_'
'указали_'
'указал'
'указав_'
'указа'
'ук_'
'узки_'
'узк'
'ужин_'
'ужден'
'ужасны'
'ужа'
'уешь_'
'уемо'
'уезжа'
'удостоверени'
'удовольствием_'
'удовлетворять_'
'удовлетворяет_'
'удовлетворить_'
'удовлетвори'
'удовлетворены_'
'удовлетворению_'
'удовлетворен'
'удивит'
'удив'
'удерж'
'уделял'
'уделя'
'уделение'
'уделени'
'удел'
'удвоить_'
'удари'
'удар_'
'удар'
'удал'
'угрозой_'
'угрожающ'
'угрожает_'
'уголовным'
'уголовной_'
'уголовно_'
'угодно_'
'угля_'
'углубл'
'угло'
'угл'
'уган'
'увяз'
'увол'
'увлек'
'увидишь_'
'увиди'
'увидел_'
'уверенность_'
'увеличить_'
'увеличил'
'увеличивает'
'увеличи'
'увел'
'уведомлени'
'уведом'
'ува'
'убра'
'уборной_'
'ублюдк'
'убира'
'убили_'
'убийце'
'убеждена_'
'убедительны'
'убедител'
'уат'
'уар'
'уальны'
'уа'
'тятся_'
'тян_'
'тяжки'
'тяжелых_'
'тяж'
'тюрьмы_'
'тюрьму_'
'тюремно'
'тюремн'
'тый_'
'туфли_'
'турист'
'турецк'
'тупи'
'тум'
'туберкулеза_'
'туалет_'
'ттон_'
'тт'
'тству'
'труп'
'трудово'
'трудност'
'трой'
'трит'
'тринадцато'
'трибуналов_'
'трех'
'третьем'
'третий_'
'трети'
'тренир'
'трени'
'трем_'
'тревож'
'тревогу_'
'требующ'
'требуются_'
'требуемо'
'треб'
'трах'
'тратит'
'транспортны'
'транспорт_'
'транснациональных_'
'транснациональные_'
'транслир'
'трансграничн'
'транзитн'
'традиционны'
'традиций_'
'траг'
'трав'
'тояни'
'тошн'
'точность'
'точно'
'точк'
'торы_'
'торн'
'тормо'
'торговы'
'торговц'
'тона_'
'томо'
'толкова'
'ток'
'товарам_'
'товара_'
'товар_'
'тльмены_'
'тла'
'ткий_'
'тическ'
'тихоокеанск'
'тих'
'тифицирова'
'титуци'
'титул'
'тирова'
'типово'
'типо'
'тинг'
'тим_'
'тизм'
'тие_'
'тивно'
'тив_'
'течением_'
'теч'
'технологическо'
'технологических_'
'технологи'
'техническом_'
'техниче'
'технико_'
'техники_'
'техник'
'теры_'
'террористической_'
'террористических_'
'террористические_'
'террори'
'территориям'
'территориального_'
'терминологи'
'терм'
'терии_'
'тери'
'тепло_'
'теор'
'тенденций_'
'темпов_'
'темпами_'
'темн'
'темам_'
'тельство_'
'тельным'
'тельна_'
'телефоне_'
'телефона'
'телефон'
'телесных_'
'телев'
'теле_'
'текущего_'
'текущ'
'тексту_'
'тей_'
'театр'
'тг'
'твующ'
'твуе'
'твоё_'
'творческ'
'творит'
'твоему_'
'тверж'
'твердый_'
'тверды'
'твердо'
'тверд'
'тве_'
'тбол'
'тас'
'тарн'
'тарифов_'
'тариф'
'таризаци'
'тарелк'
'тап'
'тана'
'таможня'
'таможн'
'там'
'тальн'
'тала'
'тактик'
'таковыми_'
'такова'
'тайск'
'тайм'
'тай_'
'табн'
'таблицах_'
'тeбя_'
'сят_'
'сяд'
'сю'
'сье'
'сь'
'сырьевы'
'сынок_'
'сын'
'сыгра'
'считают_'
'считали'
'счетам_'
'счастливы'
'счастливой_'
'счастлива_'
'сценари'
'сцен'
'схож'
'сходить_'
'сход'
'сформулированы_'
'сформулированные_'
'сформулированной_'
'сформулирован'
'сформулирова'
'сфера'
'сфер_'
'существующи'
'существу_'
'существованию_'
'существовании_'
'существование_'
'существенную_'
'существенно'
'сухо'
'суто'
'супруга_'
'суп'
'сумасшедший_'
'судья'
'судьбы_'
'судьб'
'суду_'
'судоходства_'
'судебном_'
'судебное_'
'судах_'
'субсидий_'
'субсиди'
'субрегионе_'
'субрегиональным'
'субрегион'
'суббо'
'суб'
'сть'
'структурн'
'структурами_'
'структур'
'строя_'
'строить_'
'стрир'
'стремление'
'стрелял'
'стре'
'страшный_'
'страшно'
'страховы'
'страхования_'
'страхование'
'стратегия'
'стратегически'
'стратегией_'
'страновые_'
'страново'
'странны'
'странно'
'стран'
'страли'
'стра_'
'стра'
'стоящих_'
'сторонние_'
'стороне_'
'стор'
'столом_'
'столкновений_'
'столкн'
'столети'
'столбняк'
'стоило_'
'стов'
'стниц'
'стк'
'стически'
'стихийны'
'стител'
'стипендии_'
'стин'
'стимулировать_'
'стимулированию_'
'стимулир'
'стив'
'степ'
'стен_'
'ствует_'
'ствова'
'ствия_'
'стви'
'ственного_'
'ственно'
'ствен'
'стационарны'
'стационар'
'статута_'
'статут'
'статистическо'
'статистико'
'стати'
'старые_'
'старости_'
'старейш'
'стану_'
'стандартных_'
'стандартны'
'стандартизаци'
'стандартам_'
'стандарта'
'стами_'
'сталь'
'сталкиваются_'
'сталкивае'
'стаж'
'ставка'
'ставила_'
'стави'
'стабил'
'ста_'
'ссуд'
'ссор'
'ссо'
'ссн'
'сск'
'срочном_'
'срочно'
'средних_'
'средним_'
'средний_'
'средней_'
'средне'
'среда_'
'сравнительны'
'сработа'
'срабатыва'
'спутниковы'
'спуск'
'спрята'
'справочных_'
'справочной_'
'справочн'
'справиться_'
'справедливых_'
'способствующих_'
'способствовала_'
'способност'
'способн'
'способа'
'спорту_'
'спортивн'
'спорн'
'спори'
'спон'
'спо'
'спла'
'списке_'
'списка_'
'спин'
'спеш'
'специальную_'
'специальном_'
'специально'
'специ'
'спектакл'
'спасти_'
'спаса'
'спала_'
'союзн'
'сош'
'сочувств'
'сочтен'
'сочетани'
'социальными_'
'сохраняющи'
'сохраняются_'
'сохраняться_'
'сохраняется_'
'сохрани'
'сохранением_'
'сохран'
'сотрудничает_'
'сотруднича'
'сосуществование_'
'состоящ'
'состоянием_'
'состоялось_'
'состояли'
'состоя'
'составляющ'
'составляю'
'составляли_'
'составля'
'составлении_'
'состави'
'сосредоточить_'
'сослаться_'
'сосла'
'сорок'
'сорв'
'соразмерны'
'сопряжен'
'сопровождающи'
'сопровождаю'
'сопровождается_'
'сопровожда'
'сопро'
'сопоставлени'
'сопоставим'
'соперни'
'соотношения_'
'соответствующе'
'соответствующая_'
'соответствовали_'
'соответствовал'
'соответств'
'сооружениям'
'сообщила_'
'сообществу_'
'сообществ_'
'сообщени'
'сообща'
'соображениям_'
'сона'
'сомневаюсь_'
'сомне'
'сомалийск'
'сом_'
'солнце_'
'солнечных_'
'солдат_'
'сокращении_'
'созыве_'
'созыва'
'создаю'
'созданы_'
'созданны'
'созданно'
'создана_'
'создает_'
'создавать_'
'сожалени'
'сожалеем_'
'сож'
'соединени'
'соедин'
'содержащимся_'
'содержащийся_'
'содержащие_'
'содержащегося_'
'содержат_'
'содержал'
'содействующие_'
'содействует_'
'содействовал'
'содействием_'
'соде'
'соглашения'
'соглашении_'
'соглаша'
'согласовыва'
'согласованным'
'согласованности_'
'согласованной_'
'согласовани'
'согласован'
'согласн'
'согласиться_'
'согласилось_'
'согласились_'
'согласил'
'согласии_'
'согла'
'современны'
'совпадени'
'совокупн'
'совмещ'
'совместное_'
'совершили_'
'совершивши'
'совершенствовани'
'совершенств'
'совершено_'
'совершенны'
'совершении_'
'совершаются_'
'совершаю'
'совершали'
'совершае'
'сове'
'событиях_'
'событие'
'собственных_'
'собрал'
'собра'
'собирались_'
'собирается_'
'собе'
'сношениям_'
'сним'
'снизил'
'снижению_'
'снег'
'снаря'
'снаружи_'
'смягчения_'
'смысл_'
'смущ'
'смотрите'
'смотрел_'
'смотр'
'смогли_'
'смешанны'
'смеш'
'смету_'
'сметных_'
'смерть_'
'смерте'
'смелост'
'смежны'
'слышу_'
'слышала_'
'слушания_'
'слушай_'
'слушает'
'случивше'
'случаям_'
'случае'
'служит_'
'служебны'
'службам'
'служащи'
'служа'
'слоя'
'сломал'
'сложными_'
'сложившейся_'
'сложивш'
'слени'
'слез'
'следующими_'
'следующему_'
'следующ'
'следствием_'
'следовать_'
'следовательно_'
'следовател'
'следите_'
'следи'
'слаженн'
'слабо'
'слаба'
'сл'
'скучаю_'
'скучал_'
'скромн'
'скоростью_'
'скорость_'
'скоро_'
'скоро'
'скорейшего_'
'скоординированны'
'скон'
'скобк'
'склон'
'сказываю'
'сказа'
'сказ'
'скажете_'
'скаже'
'ск_'
'сия'
'сифи'
'ситуациям'
'сити_'
'сит_'
'систематически'
'системати'
'системам'
'сирот'
'сирийских_'
'сирийск'
'сир'
'синхронн'
'синергизм'
'симп'
'сильно'
'сильн'
'сика_'
'сиден'
'сидел'
'сеть_'
'сестра_'
'сестр'
'сессия'
'сессий_'
'серьёзн'
'серьезными_'
'серьезно'
'серьезн'
'сертификат'
'серия'
'сердц'
'сервер'
'сербов_'
'сени'
'сен_'
'семьям_'
'семья'
'семь'
'семинар_'
'семинар'
'семи'
'семейного_'
'сельскохозяйственные_'
'сельскохозяйственной_'
'сельскохозяйственно'
'селе'
'сектору_'
'секторами_'
'сект'
'сексуальной_'
'сексуальн'
'сексом_'
'секс'
'секретно'
'секретариатско'
'секретар'
'секрет_'
'сейн'
'сезонн'
'седьмая_'
'сегодняшни'
'сегодняшне'
'север_'
'сделана_'
'сделан'
'сделай'
'сделает'
'сделае'
'сго'
'святого_'
'связано_'
'связанн'
'связа'
'свыше_'
'своевременное_'
'своди'
'свод'
'свободным_'
'свободное_'
'свободн'
'свободе'
'свидетелям'
'свидетельств'
'свидетельски'
'сви'
'сверх'
'свежи'
'сборе_'
'сбежал_'
'сбежа'
'сбалансированности_'
'сбалансированн'
'саци'
'санкционирова'
'санитарн'
'сани'
'самостоятельн'
'самор'
'самоопределение_'
'самоопределени'
'самолеты_'
'самолета'
'самим_'
'сама'
'сам'
'сальны'
'сали'
'сайт_'
'рядо'
'рю_'
'рю'
'рынков_'
'рынки_'
'рынками_'
'рыболовств'
'рыба'
'руют'
'рую'
'руш'
'рул'
'руководящего_'
'руководству'
'руководителями_'
'ружени'
'руж'
'рует'
'руд'
'руг'
'рубежом'
'ртути_'
'рти'
'рта_'
'рта'
'рст'
'рс_'
'рпим'
'рочно'
'ротаци'
'рот_'
'рот'
'ростом_'
'росл'
'роса_'
'роса'
'рор'
'романтич'
'роман'
'рома_'
'рок_'
'рой'
'рождений_'
'рожде'
'рое'
'родук'
'родственника'
'родном'
'родителями_'
'родители_'
'родин'
'родил'
'роги'
'рог'
'ровод'
'рован_'
'ровал'
'роб'
'рма'
'рия'
'риску_'
'рисковать_'
'риски_'
'рисками_'
'рис_'
'рир'
'рио'
'рим'
'рика_'
'риз'
'риг'
'риа'
'ржа'
'решительно_'
'решимост'
'решил'
'решениях_'
'решающее_'
'решаются_'
'решат'
'решает'
'реш'
'реформе_'
'реформа_'
'реформа'
'реформ_'
'ретные_'
'респондентов_'
'реорганиз'
'рению_'
'рение_'
'ремонта_'
'ременн'
'реме'
'рель'
'религиозных_'
'религиозный_'
'рели'
'рел'
'реконструкци'
'рекомендовать_'
'рекомендованны'
'рекомендовала_'
'рекомендовал'
'рекомендова'
'рек_'
'рейс_'
'результативности_'
'результата_'
'резолюциями_'
'режимо'
'режим_'
'режим'
'реестре_'
'редст'
'реди'
'редакци'
'регулярны'
'регулярн'
'регулирующ'
'регулируются_'
'регулированию_'
'регулир'
'регламентиру'
'регламентации_'
'регистрирую'
'региональный_'
'рег'
'револ'
'ревн'
'ребят_'
'ребенком_'
'реальной_'
'реально'
'реалии_'
'реализаци'
'реакции_'
'рга'
'рвет_'
'рваться_'
'рв'
'ращ'
'рационального_'
'рах_'
'раунд'
'ратифицировала_'
'расы_'
'расширила'
'расширил_'
'расчистк'
'расчетн'
'расценкам_'
'растущего_'
'растущ'
'расти'
'растет_'
'растает_'
'расстройств'
'расстояние_'
'рассмотрела_'
'рассматриваемом'
'рассматриваемого_'
'рассм'
'расследовани'
'расслед'
'рассказывае'
'рассказать_'
'рассказал_'
'рассказал'
'расскажешь_'
'распространять_'
'распространя'
'распространенност'
'распространенно'
'распространении_'
'распределении_'
'распоряжение_'
'расположенных_'
'расположенн'
'расовы'
'расово'
'раскрыва'
'раскры'
'расизма_'
'рано_'
'ранне'
'ранени'
'рана_'
'рак'
'разъяснит'
'разъяснений_'
'разум'
'разу'
'разряд'
'разрыва'
'разрыв'
'разрушительн'
'разру'
'разрешает'
'разреш'
'разработок_'
'разработанные_'
'разработанны'
'разработало_'
'разработала_'
'разрабатывать'
'разрабатывается_'
'разрабатывает_'
'разрабатывае'
'разочарова'
'разоружени'
'разобраться_'
'разоб'
'разные_'
'разнор'
'разногласия_'
'размы'
'разминирование'
'размещается_'
'различий_'
'различие_'
'разли'
'разделя'
'раздело'
'разделен'
'раздела'
'раздел'
'разгр'
'разговор'
'разговаривал_'
'разговарива'
'развивающиеся_'
'развертывание'
'развернут'
'разведывательны'
'разведк'
'разбирательств'
'разбивкой_'
'ража'
'раж'
'радиоактивны'
'равного_'
'рави'
'рабочим'
'рабоче'
'работо'
'работк'
'работаю'
'работала_'
'работаешь_'
'работ'
'раб'
'пяты'
'пято'
'пятниц'
'пятилетн'
'пятидесят'
'пь'
'пытаюсь_'
'пытается_'
'пустит'
'пунктами_'
'пуль'
'пуга'
'публичны'
'публикуем'
'публикация'
'публикаций_'
'публикации_'
'публика'
'пу_'
'пск'
'психологическо'
'психологи'
'прямой_'
'прыг'
'проявляе'
'проявля'
'проявления'
'проявлен'
'прояви'
'прошлой_'
'прошло'
'прошедш'
'прочита'
'прочим_'
'прочи'
'процессом_'
'процессах_'
'процессами_'
'процесс'
'процента'
'процент_'
'процедурам_'
'проходящи'
'проходят_'
'проходит'
'проходил'
'проходившей_'
'прохо'
'профиля_'
'профилактических_'
'профилактически'
'профессор_'
'профессиональном'
'профессионально_'
'профессионально'
'профессиональная_'
'протоколо'
'противостоя'
'противоправн'
'противодействию_'
'противодействи'
'противно'
'против'
'протест'
'просыпа'
'пространственн'
'пространстве_'
'простр'
'простит'
'прости'
'проснулся_'
'просм'
'проси'
'просвещени'
'проработк'
'пропускн'
'пропорционально_'
'пропо'
'пропагандистски'
'пропагандистск'
'пропагандирова'
'проп'
'проник'
'промышленных_'
'проли'
'пролета'
'прокурора'
'проклят'
'пройти_'
'происхо'
'проис'
'проинформировал_'
'проинформирова'
'произо'
'производственных_'
'производстве_'
'производится_'
'производит_'
'производи'
'производ'
'произ'
'проигры'
'проиг'
'проз'
'проживающи'
'проживающе'
'проживани'
'прожива'
'прож'
'проектн'
'продукты_'
'продуктивно'
'продукта'
'продукт'
'проду'
'продолжительности_'
'продолжени'
'продолжающейся_'
'продолжающ'
'продолжаться_'
'продолжало_'
'продолжал'
'продолжае'
'продолж'
'продовольственн'
'продо'
'продли'
'продление_'
'продлен'
'проде'
'продвижени'
'прогул'
'прогрессивно'
'прогресс'
'программные_'
'программное_'
'программами_'
'проголо'
'прогнозируемы'
'прогноза'
'прогн'
'провокаци'
'провозгла'
'проводит_'
'проводимой_'
'проводил'
'проверя'
'проверка_'
'проверил'
'провер'
'провела_'
'проведенной_'
'проведенного_'
'провал'
'пробы'
'пробле'
'пробело'
'пробе'
'приятно_'
'прият'
'причиняе'
'причинить_'
'причинах_'
'причинами_'
'причи'
'причастн'
'прицеп'
'присяжных_'
'присутствующих_'
'присутствова'
'присутстви'
'пристально'
'присп'
'присоединиться_'
'присоединил'
'присоединения_'
'присоединени'
'присм'
'присл'
'присвоен'
'присваива'
'прис'
'природоохранным'
'природо'
'природных_'
'природе_'
'припа'
'приоритетов_'
'приоритетам'
'приобретенны'
'приобретен'
'приобрета'
'приоб'
'принятыми_'
'принято'
'принятая_'
'принят'
'приняло_'
'принципу_'
'принципиальн'
'принуждени'
'приносит'
'прино'
'принимающ'
'приниматься_'
'принимал'
'принимается_'
'принима'
'принес_'
'принадлежащ'
'принадлежат_'
'принадлежа'
'принад'
'примут_'
'прими'
'примеча'
'примет'
'примеры_'
'примером_'
'примерн'
'примера_'
'применяемы'
'применяе'
'примени'
'прилож'
'прили'
'прилете'
'прилагать_'
'прилагаемые_'
'прилагае'
'прикры'
'прико'
'прикладны'
'призыв'
'признаться_'
'признательност'
'признателен_'
'признанных_'
'признанные_'
'признанию_'
'признани'
'признал_'
'признакам_'
'признаем_'
'признаваем'
'призванных_'
'призванно'
'призван_'
'призван'
'приехал_'
'приеха'
'приемлем'
'придет_'
'придерживается_'
'прид'
'приготов'
'пригодн'
'приговоров_'
'приглашения_'
'приглашени'
'приглашен'
'приглаша'
'привыч'
'приводя'
'привод'
'привлечение'
'привлека'
'привилеги'
'прививки_'
'приветствую'
'приветствовали_'
'приветствовала_'
'приветствова'
'приветств'
'приведенным_'
'приведенно'
'прибы'
'прибрежно'
'прибег'
'претерпев'
'претензии_'
'претворению_'
'прет'
'преступно'
'преступник'
'преступн'
'преследуе'
'преследование'
'преследова'
'пресечению_'
'пресечени'
'препятствуют_'
'препятстви'
'препроводи'
'преподавани'
'препар'
'преодолени'
'преобразован'
'прения'
'премию_'
'прекращении_'
'прекратила_'
'прекрасна'
'преимущества_'
'преимуществ'
'президентск'
'през'
'прежде'
'предыдущие_'
'предъявляемы'
'предъявл'
'предшественник'
'предусмотреть_'
'предусмотрены_'
'предусмотрен'
'предусматривающий_'
'предусматривать_'
'предусм'
'предупреждении_'
'предупредить_'
'представляющий_'
'представляющ'
'представляемы'
'представленных_'
'представленным'
'представленной_'
'представленн'
'представительством_'
'представительств_'
'представительств'
'представитель'
'представите'
'представит_'
'представило_'
'представивш'
'предсказ'
'председатель'
'председател'
'предпринятые_'
'предприняты_'
'предпринял'
'предпринимательск'
'предпринимаемые_'
'предпри'
'предпоч'
'предпосыл'
'предположить_'
'предположительно'
'предполагается_'
'предполагаемых_'
'предполагаем'
'предписывае'
'предписания_'
'предписан'
'предоставляющих'
'предоставляющим'
'предоставляю'
'предоставляемые_'
'предоставляемой_'
'предоставляем'
'предоставлени'
'предоставило_'
'преднамеренн'
'предназначен'
'предложи'
'предложенная_'
'предложен'
'предлог'
'предлагают'
'предлагаемых_'
'предлагаемом_'
'предлагаемая_'
'предельных_'
'предельны'
'преддверии_'
'предвиде'
'предварительно'
'превышен'
'преврати'
'практических_'
'практические_'
'практикума_'
'практикум'
'праздновани'
'праздник'
'правосудии_'
'правосуди'
'правопримен'
'правопорядка_'
'правоп'
'правоохранительных_'
'правоохранительн'
'правонарушител'
'правонарушений_'
'правозащитников_'
'правовая_'
'правлени'
'правительственны'
'правительственной_'
'правительстве'
'правильны'
'правильн'
'правду_'
'поясни'
'появил'
'появивши'
'поя'
'пошли'
'пошла_'
'почк'
'поцеловал'
'похищенн'
'похищени'
'похи'
'потрясениям'
'потребуются_'
'потребуется_'
'потребовало'
'потребностя'
'потребность_'
'потреблени'
'потребител'
'потр'
'поторопит'
'потока_'
'потерять_'
'потерян'
'потерь_'
'потерпевшим'
'потерпе'
'потерей_'
'посяг'
'посуд'
'поступлени'
'поступил'
'поступивши'
'поступающ'
'поступат'
'посту'
'построить'
'построен'
'пострада'
'постоянный_'
'постоянное_'
'посто'
'постконфликтны'
'постановления'
'поставок_'
'поставленным'
'поставленной_'
'посредничес'
'последовательно'
'последовательн'
'последнюю_'
'последних_'
'посланник'
'послан'
'посещений_'
'посещени'
'посещали_'
'поселенцев_'
'поселен'
'посвященных_'
'посвященной_'
'посвященного_'
'посвященн'
'посвящена_'
'порядок_'
'поручи'
'поруч'
'портфел'
'порту'
'порожда'
'порог'
'поре'
'поран'
'попытке_'
'попытае'
'популяр'
'попросил_'
'попросил'
'попро'
'поправка_'
'попр'
'попл'
'поощряю'
'поощря'
'поощрении_'
'поо'
'понять_'
'понятие_'
'понял'
'поня'
'понравилось_'
'понимают'
'пониманием_'
'понесенны'
'понес'
'помощнико'
'поможешь_'
'помогае'
'помог'
'помо'
'помнишь_'
'помещений_'
'помещен'
'поме'
'поляр'
'полюби'
'пользование_'
'пользовались_'
'польз'
'получил'
'получивши'
'полученно'
'получении_'
'получают_'
'получател'
'получали_'
'получает'
'получаемы'
'получае'
'полуострове_'
'положительны'
'положительно_'
'положит'
'положил'
'положению_'
'положением_'
'положен'
'половину_'
'полны'
'полноценн'
'полномочиями_'
'полном'
'полицейски'
'политическую_'
'политический_'
'политическая_'
'политическ'
'полис'
'полиомиелит'
'полезны'
'полезной_'
'полезн'
'полевых_'
'поле_'
'полагаю_'
'покупат'
'покрываются_'
'покров'
'поконч'
'покое'
'поко'
'покинул_'
'покинул'
'показыва'
'показания'
'показаний_'
'пойму'
'пойдё'
'пойде'
'поиска'
'поиск_'
'поиск'
'позор'
'познакомил'
'познаком'
'позиций_'
'позици'
'позитивны'
'позит'
'поздравить_'
'позднем_'
'позволил'
'позва'
'позаботи'
'пожизненно'
'поживае'
'пожертвова'
'пожелают_'
'пожела'
'поже'
'пож'
'поездок_'
'поезд'
'поеде'
'пое'
'подъем'
'подчиняться_'
'подчеркнут'
'подчеркнула_'
'подч'
'подходя'
'подходи'
'подходе_'
'подход'
'подумать_'
'подум'
'подтверждение_'
'подтверждени'
'подтвержден'
'подтверждал'
'подтверждается_'
'подтвердил'
'подстрекательство'
'подстав'
'подряд_'
'подрыва'
'подружк'
'подруга_'
'подруг'
'подростков_'
'подростк'
'подробны'
'подробная_'
'подразумевает_'
'подразумева'
'подразделения'
'подразделени'
'подра'
'подпункто'
'подпунктах_'
'подпункта_'
'подписей_'
'подписанных_'
'подписал'
'подпи'
'подпадающих_'
'подпадаю'
'подозревать_'
'подождать_'
'подобны'
'поднять_'
'подлинно'
'подлин'
'подлежит_'
'подлежащие_'
'подкрепление_'
'подкоми'
'подкл'
'подк'
'подела'
'поддержании_'
'поддержание_'
'поддел'
'поддаю'
'подготовлены_'
'подготовлено_'
'подготовленных_'
'подготовкой_'
'подготовительны'
'подготавливае'
'подгот'
'подгон'
'подводны'
'подводной_'
'подво'
'подвергнут'
'подвергающи'
'подвергал'
'подвергае'
'подв'
'подач'
'подать'
'подарил'
'подал'
'подавляюще'
'подава'
'пограничны'
'погранич'
'поговор'
'погибл'
'пога'
'повышени'
'повышен'
'повторное_'
'повторного_'
'повседневн'
'повреждени'
'поврежден'
'пово'
'повлия'
'повесели'
'поверхност'
'повери'
'поведение_'
'побы'
'побужда'
'побочн'
'побольше_'
'поб'
'пн'
'площадк'
'плохих_'
'плохие_'
'плотн'
'пли'
'плет'
'племянниц'
'племенн'
'племен'
'пле'
'плать'
'платы_'
'платформ'
'платить_'
'платит_'
'платеже'
'плану_'
'планируем'
'планирование_'
'планировалось_'
'плакат'
'плав'
'пищевых_'
'пищево'
'пищ'
'пишу'
'пич'
'пиц'
'письменные_'
'письменное_'
'пистолет'
'пис'
'пира'
'пилот'
'пид'
'пив'
'печати_'
'печ'
'пестицид'
'перспективны'
'перспективе_'
'периодических_'
'периодически_'
'перечислен'
'переходный_'
'переходном'
'переходи'
'перестройки_'
'перестройк'
'пересмотренных_'
'пересмотренным_'
'пересмотренной_'
'пересмотрен'
'пересматрива'
'пересечения_'
'переселен'
'перерыв'
'перерас'
'переработк'
'переполн'
'переос'
'переоде'
'переноса_'
'перенос'
'перенес'
'перемещенны'
'перемещении_'
'перемен'
'перез'
'пережит'
'пережил'
'переж'
'передовых_'
'передн'
'передавать_'
'переговорн'
'переговор'
'перевозчик'
'перевозка'
'переводчиков_'
'переводи'
'первоочередное_'
'первоочередно'
'первоначальны'
'первоначальном'
'первоначального_'
'первая_'
'пени'
'педагогическ'
'пе_'
'пациентов_'
'пац'
'пах'
'патрульны'
'патрулирова'
'патрул'
'пассажиров_'
'партнера_'
'парниковых_'
'парка_'
'пари'
'парати'
'параметры_'
'парали'
'пани'
'пам_'
'палуб'
'палестинской_'
'палестинским_'
'палестин'
'пале'
'палатк'
'палате_'
'пакт'
'пак'
'падени'
'пад'
'пp'
'оя'
'ощути'
'ошибки_'
'оши'
'очный_'
'очного_'
'очная_'
'очки_'
'очистк'
'очи'
'очередных_'
'очер'
'очек_'
'очевидны'
'оче'
'оча'
'оценкам_'
'охраняе'
'охрану_'
'охранн'
'охрана_'
'охран'
'охотит'
'охла'
'охваченных_'
'охватываю'
'оформлени'
'официальн'
'офицер_'
'офицер'
'офис_'
'офиг'
'оу'
'отчи'
'отчетного_'
'отчетно'
'отчаян'
'отходы_'
'оту_'
'отсутствии_'
'отсутств'
'отступи'
'отстранен'
'отстр'
'отстой_'
'отстаивани'
'отсроч'
'отслеживания_'
'отряда'
'отрицат'
'отреагир'
'отражено_'
'отражение'
'отражен'
'отражающ'
'отражают_'
'отражать_'
'отпуска_'
'отпуска'
'отпу'
'отправля'
'отправить_'
'отправил_'
'отправи'
'отп'
'оторв'
'отом'
'отобра'
'относящ'
'относит'
'отно'
'отнесены_'
'отмечен'
'отмечаем'
'отмеча'
'отметк'
'отметило_'
'отме'
'отложить_'
'отложен'
'отличн'
'отличи'
'отку'
'открытых_'
'открыто'
'открыта'
'открыт'
'откровен'
'отклонени'
'откликну'
'отказывают'
'отказываться_'
'отказал'
'отказа_'
'отказ_'
'отечественн'
'отерап'
'отдыха'
'отдохнуть_'
'отдельным'
'отдельные_'
'отдельно_'
'отдельн'
'отделени'
'отдела_'
'отво'
'отвлек'
'отвечающие_'
'отвечающе'
'отвечаю'
'отвечала_'
'ответственны'
'ответны'
'ответи'
'отве'
'отбо'
'осуществлялись_'
'осуществил'
'осуди'
'острой_'
'остро'
'остр'
'осто'
'осте'
'остановит'
'останется_'
'останавливать'
'остал'
'оставляю'
'оставля'
'оставил_'
'оставал'
'ост'
'оспарива'
'осознае'
'осозна'
'особый_'
'особенн'
'основывается_'
'основополагающи'
'основная_'
'основн'
'основанных_'
'основанные_'
'основанно'
'оснований_'
'основа_'
'осмотрительно'
'осм'
'осло'
'осл'
'осен'
'освоени'
'освобождение_'
'освобожда'
'освободите'
'осво'
'освещен'
'освеща'
'освети'
'оры_'
'оры'
'оружии_'
'орского_'
'орски'
'орожно'
'орн'
'орит'
'ориентированных_'
'ориентированного_'
'ориентированн'
'ори'
'орен'
'оре'
'ордонанс_'
'ордера_'
'орд_'
'организует_'
'организовано_'
'организованны'
'организациях_'
'организационную_'
'организа'
'орган'
'орва'
'оратор_'
'орат'
'ор_'
'опыте_'
'опустынивани'
'опустит'
'опубликовано_'
'опубликованны'
'опубликованно'
'опубликован_'
'опу'
'оптимиз'
'оптимальны'
'оптимально'
'опровергнут'
'определяющ'
'определять'
'определил'
'определенным'
'определенного_'
'определению_'
'определени'
'оправдываю'
'опр'
'оппозиции_'
'оппо'
'опор'
'ополч'
'оповещения_'
'опо'
'оплачива'
'опл'
'описания_'
'описанием_'
'опира'
'оператор'
'оперативным_'
'оперативную_'
'оперативности_'
'оперативного_'
'оперативная_'
'опек'
'опе'
'опасностей_'
'опасно_'
'опасно'
'опасная_'
'опасен'
'опа'
'онско'
'оном'
'онно'
'онен'
'омост'
'омерн'
'олю'
'ологи'
'олов'
'оливк'
'оли'
'ола'
'окуп'
'октябрь'
'окс'
'окруж'
'округа'
'окра'
'окончен'
'окончательным'
'окончательны'
'окончани'
'оккупационн'
'оккупаци'
'окк'
'оказываются_'
'оказывают_'
'оказались_'
'оказала'
'окажутся_'
'окаж'
'ока_'
'ойчив'
'ойств'
'оил'
'ознаком'
'ози'
'озд'
'озаглавленного_'
'озаглавленно'
'озавр'
'озабоченности_'
'озабочен_'
'оза'
'ожидать_'
'ожидания'
'ожидал'
'оживлен'
'ож'
'одов'
'одобряет_'
'одобрила_'
'одобрил_'
'одобри'
'одобренн'
'односторонни'
'односторонне'
'однор'
'одному_'
'одном'
'одится_'
'одиночк'
'одинаково'
'оде_'
'ода_'
'огромный_'
'огромно'
'огромн'
'ограничит'
'ограничивается_'
'ограничивает_'
'ограничи'
'ограниченными_'
'ограниченн'
'ограблени'
'огра'
'оговорка'
'оговорк'
'оговоренные_'
'огня_'
'огней_'
'огн'
'овь_'
'овую_'
'овски'
'овощ'
'овод'
'овн'
'овлен'
'овение_'
'овател'
'ованный_'
'ована_'
'ован_'
'овались_'
'овала_'
'овавши'
'овав'
'обязывающ'
'обязатель'
'обязанностям'
'обязанность_'
'обязана_'
'обязан_'
'обяз'
'обычных_'
'обычны'
'обычного_'
'обычн'
'обы'
'объяснять_'
'объяснить_'
'объясн'
'объявленн'
'объявление_'
'объявлени'
'объявил'
'объемом_'
'объекты_'
'объективно'
'объекта_'
'объедини'
'объединениям'
'объединения_'
'объединен'
'общинах_'
'общим_'
'обществу_'
'общество_'
'общественные_'
'общественн'
'общеорганизационны'
'общео'
'обширные_'
'обхо'
'обучаю'
'обуча'
'обусловливает_'
'обусловленно'
'обус'
'обсуждали_'
'обсуждаем'
'обсудил'
'обсуди'
'обстрел'
'обстоятельствам'
'обстоятель'
'обстановка_'
'обследований_'
'обс'
'обращаем'
'образу'
'образовательно'
'образовании_'
'образовани'
'образован'
'образ'
'обработке_'
'обра'
'обостри'
'обоснованными_'
'оборудовани'
'обороны_'
'обоим'
'обознач'
'обожаю'
'обогащени'
'обновляе'
'обновленны'
'обновленную_'
'обновленн'
'обнов'
'обману'
'облегчи'
'облегчени'
'облег'
'областям_'
'область_'
'облада'
'облаг'
'обид'
'обзоров_'
'обжаловани'
'обжалован'
'обещаю_'
'обеща'
'обеспокоен'
'обеспечительны'
'обеспечит_'
'обеспечивая_'
'обеспечиваться_'
'обеспечивал_'
'обеспечивал'
'обеспечива'
'обеспеченных_'
'обеспеченно'
'обеспечена_'
'обес'
'обеда'
'обед'
'обвиняемый_'
'обвиняемы'
'обвиняемого_'
'обвиняе'
'обвинительн'
'обвини'
'обвинение_'
'обвинени'
'оа'
'нём_'
'нё'
'няя_'
'няты'
'нят'
'нял_'
'ню_'
'нынешних_'
'нынешне'
'нынешн'
'ны'
'нчи'
'нцы_'
'нц'
'нули_'
'нужно'
'нужд'
'нтов_'
'нти'
'нте'
'нта_'
'нством_'
'нства_'
'нств'
'нском_'
'нск'
'нси'
'нса_'
'нравил'
'нрави'
'ноябре_'
'нося'
'нормо'
'нормально_'
'нормальн'
'ном'
'нол'
'нодо'
'ноги'
'новостей_'
'новорожденн'
'новом_'
'новлени'
'новат'
'новани'
'нной_'
'нно'
'нни'
'нная_'
'нна_'
'нку_'
'ниями_'
'ния'
'нищета_'
'нищет'
'ниц'
'нить_'
'нитель'
'ните'
'нит_'
'нис'
'ниров'
'никакая_'
'никак_'
'низкой_'
'низким_'
'низкий_'
'низки'
'низк'
'неэ'
'нехватк'
'нефтяны'
'нефтеп'
'нефт'
'неформальн'
'неуклонно'
'неуд'
'нетерпимости_'
'нете'
'несущ'
'несп'
'несовершеннолетни'
'несоблюдение_'
'несоблюдени'
'несм'
'несамоуправляющихся_'
'нерегулярн'
'неприятност'
'неприят'
'неприкосновенност'
'непрерывной_'
'непрерывн'
'неправи'
'непр'
'непос'
'неполное_'
'неполн'
'неплохо_'
'неп'
'неох'
'неотложных_'
'неопределенный_'
'неопределенности_'
'неоп'
'неод'
'необходимыми_'
'необходимый_'
'необходимостью_'
'необходимая_'
'необходима_'
'ненормальн'
'ненны'
'нени'
'ненавижу_'
'ненавид'
'немецко'
'немедленн'
'нем'
'некоторым'
'некоторое_'
'некоторо'
'нейтральн'
'неизрасходованн'
'неизбирательн'
'неизбежно_'
'неиз'
'незамедлительно_'
'незаме'
'недостаточно'
'недостатки_'
'недостатка'
'недопущения_'
'недопустимо'
'недоп'
'недискриминации_'
'недействительн'
'неграждан'
'негосударственн'
'невыполн'
'невозможн'
'невес'
'невероятн'
'небольшой_'
'неблагоприятны'
'неблагоприятно'
'неблагополучных_'
'небе'
'нду'
'нда_'
'нда'
'нд_'
'нго'
'нг_'
'нашим_'
'начнё'
'начнут_'
'начну'
'начнет_'
'начнем_'
'начисленны'
'начинающ'
'начато_'
'начальника_'
'начальник'
'началу_'
'началом_'
'начала'
'начал'
'национальную_'
'национальное_'
'национально'
'нацеленн'
'нахождения_'
'находящийся_'
'находит'
'находился_'
'научит'
'научи'
'науки_'
'натрия_'
'нат'
'насчитывало'
'насчитыва'
'настроени'
'настоящ'
'настоятельн'
'насто'
'настал_'
'наставничес'
'наследия_'
'насильственно'
'насил'
'населением_'
'насекомы'
'наряд'
'нарушениям'
'нарушает'
'наручник'
'народонаселения_'
'народа'
'наркотическим'
'наркотик'
'наркомани'
'нарко'
'наращиванию_'
'наращивании_'
'нара'
'напряженн'
'напряж'
'направляю'
'направленным'
'направления'
'направлена_'
'направил'
'направ'
'напомнили_'
'напомина'
'напо'
'напит'
'написа'
'нападение_'
'нанося'
'наноси'
'нанимаю'
'нани'
'нанесени'
'нанесе'
'нан_'
'намного_'
'намеченн'
'намети'
'намеренны'
'намерения_'
'намерени'
'наме'
'налож'
'налог'
'наличн'
'налаживания_'
'налаживани'
'налаж'
'наладить_'
'накопленн'
'наклад'
'накл'
'наказ'
'нака'
'найдёт'
'найдут_'
'найди'
'най'
'наихудши'
'наилучшим'
'наибольш'
'называю'
'назначила_'
'назначенных_'
'назначение'
'назнач'
'наземных_'
'названны'
'названия'
'назван'
'назвал'
'наемни'
'надр'
'надоело_'
'надо'
'надлежащей_'
'надлежаще'
'надлежа'
'надзору_'
'надежны'
'надежност'
'надежн'
'нагрузка'
'награ'
'нагр'
'навык'
'наводнения'
'наводнений_'
'навигационн'
[...]
