'<pad>_'
'<EOS>_'
', _'
'._'
'the_'
'на_'
'во_'
'of_'
'за_'
'и_'
'and_'
'to_'
'in_'
'-_'
'a_'
'да_'
'од_'
'се_'
'for_'
'со_'
'/_'
''_'
'is_'
's_'
'дека_'
'that_'
'The_'
'on_'
'ќе_'
' (_'
'е_'
'with_'
'го_'
' -- _'
'said_'
'as_'
'will_'
'ги_'
'ја_'
'што_'
'рече_'
'be_'
'by_'
') _'
'"_'
'," _'
'are_'
'не_'
'година_'
'has_'
'“, _'
'have_'
'Kosovo_'
'EU_'
'European_'
'како_'
'at_'
'from_'
'was_'
'ЕУ_'
']_'
'it_'
' "_'
'not_'
'. [_'
' - _'
': _'
'its_'
'„_'
'кои_'
' „_'
'an_'
'беше_'
'he_'
'Serbia_'
'ти_'
'Србија_'
'which_'
'this_'
'кој_'
'Times_'
'тоа_'
'Southeast_'
'SETimes_'
',_'
'Minister_'
'биде_'
'Косово_'
'country_'
'до_'
'their_'
'така_'
'also_'
'тој_'
'government_'
'Turkey_'
'year_'
'would_'
'Во_'
'која_'
'по_'
'his_'
'10_'
'new_'
'; _'
'има_'
'исто_'
'I_'
'been_'
'отсто_'
'countries_'
'two_'
'but_'
'11_'
'. "_'
'), _'
'all_'
'000_'
'were_'
'more_'
'BiH_'
'they_'
'who_'
'Турција_'
'. „_'
'земјата_'
')_'
'1_'
'евра_'
'one_'
'“ _'
'може_'
'In_'
'Serbian_'
'we_'
'."_'
'но_'
'БиХ_'
'" _'
'Belgrade_'
'Macedonia_'
'12_'
'after_'
')._'
'or_'
'треба_'
'време_'
'(_'
'пред_'
'told_'
'political_'
'Getty_'
'Turkish_'
'other_'
'Images_'
'co_'
'оваа_'
'A_'
'околу_'
'between_'
'земји_'
'вели_'
'than_'
'about_'
'Хрватска_'
'07_'
'сите_'
'It_'
'Albania_'
'03_'
'Белград_'
'people_'
'international_'
'08_'
'euros_'
'претседател_'
'Македонија_'
'last_'
'05_'
'еден_'
'there_'
'Croatia_'
'operation_'
'милиони_'
'Од_'
'state_'
'By_'
'против_'
'can_'
'Prime_'
'President_'
'работи_'
'2_'
'или_'
'up_'
'We_'
'first_'
'"._'
' [_'
'Bulgaria_'
'многу_'
'] _'
'уште_'
'бидат_'
'NATO_'
'", _'
'“._'
'години_'
'during_'
'09_'
'06_'
'страна_'
'една_'
'а_'
'Тој_'
'НАТО_'
'5_'
'15_'
'He_'
'нема_'
'% _'
'повеќе_'
'само_'
'Montenegro_'
'years_'
'only_'
'им_'
'no_'
'against_'
'over_'
'изјави_'
' – _'
'Greece_'
'?_'
'дел_'
'04_'
'Бугарија_'
'партија_'
'беа_'
'could_'
'3_'
'мора_'
'Гора_'
'UN_'
'Романија_'
'цел_'
'овој_'
'Црна_'
'Според_'
'well_'
'says_'
'had_'
'economic_'
'ОН_'
'should_'
'Европа_'
'би_'
'Албанија_'
'поради_'
'such_'
'Romania_'
'talks_'
'some_'
'public_'
'земја_'
'meeting_'
'20_'
'time_'
'објави_'
'кон_'
'врска_'
'war_'
'својот_'
'Albanian_'
'премиер_'
'понеделникот_'
'report_'
'US_'
'додека_'
'police_'
'сé_'
'three_'
'кога_'
'per_'
'своите_'
'договор_'
'out_'
'влада_'
'most_'
'Monday_'
'тие_'
'ако_'
'member_'
'part_'
'into_'
'This_'
'Грција_'
'Europe_'
'неговата_'
'На_'
'under_'
'support_'
'му_'
'region_'
'end_'
'Но_'
'so_'
'former_'
'ова_'
'them_'
'now_'
'' _'
'својата_'
'владата_'
'process_'
'6_'
'таа_'
'Pristina_'
'if_'
'expected_'
'security_'
'including_'
'Greek_'
'30_'
'foreign_'
'elections_'
'because_'
'2007_'
'when_'
'According_'
'02_'
'.“_'
'while_'
'Croatian_'
'соработка_'
'Босна_'
'work_'
'Tuesday_'
'Bosnia_'
'AFP_'
'претседателот_'
'избори_'
'since_'
'party_'
'next_'
'01_'
'Сепак_'
'Херцеговина_'
'crimes_'
'помеѓу_'
'month_'
'International_'
'those_'
'law_'
'do_'
'Serb_'
'некои_'
'врз_'
'our_'
'според_'
'министер_'
'must_'
'cent_'
'4_'
'25_'
'претставува_'
'надворешни_'
'any_'
'among_'
'регионот_'
'week_'
'покрај_'
'имаат_'
'news_'
'before_'
'Wednesday_'
'17_'
'16_'
'13_'
'Ројтерс_'
'officials_'
'members_'
'authorities_'
'agreement_'
'Herzegovina_'
'другите_'
'други_'
'very_'
'membership_'
'Macedonian_'
'14_'
'бидејќи_'
'меѓу_'
'made_'
'important_'
'Reuters_'
'2004_'
'сега_'
'земјите_'
'future_'
'Party_'
'неколку_'
'say_'
'met_'
'leaders_'
'недела_'
'крајот_'
'воени_'
'октомври_'
'ми_'
'world_'
'still_'
'Foreign_'
'through_'
'local_'
'day_'
'reform_'
'јануари_'
'очекува_'
't_'
'number_'
'military_'
'Romanian_'
'March_'
'But_'
'9_'
'средата_'
'реформи_'
'злосторства_'
'progress_'
'issue_'
'They_'
'2008_'
'откако_'
'каде_'
'За_'
'where_'
'what_'
'both_'
'June_'
'7_'
'take_'
'system_'
'independence_'
'chief_'
'being_'
'27_'
'четвртокот_'
'овие_'
'й_'
'president_'
'held_'
'United_'
'May_'
'December_'
'претставници_'
'политички_'
'you_'
'project_'
'problems_'
'many_'
'citizens_'
'There_'
'January_'
'Council_'
'Bulgarian_'
'комисија_'
'заедница_'
'Приштина_'
'Европската_'
'these_'
'minister_'
'make_'
'Cyprus_'
'три_'
'поддршка_'
'двете_'
'based_'
'18_'
'под_'
'national_'
'leader_'
'November_'
'February_'
'Balkans_'
'. _'
'членство_'
'разговорите_'
'ноември_'
'место_'
'број_'
'visit_'
'accession_'
'States_'
'вторникот_'
'Срби_'
'months_'
'according_'
'Athens_'
'2005_'
'преку_'
'помош_'
'нови_'
'way_'
'she_'
'parties_'
'court_'
'continue_'
'Thursday_'
'2006_'
'19_'
'разговори_'
'saying_'
'policy_'
'parliament_'
'media_'
'help_'
'development_'
'called_'
'Commission_'
'И_'
'place_'
'efforts_'
'24_'
'месец_'
'Владата_'
'won_'
'decision_'
'October_'
'нивните_'
'key_'
'institutions_'
'group_'
'even_'
'corruption_'
'community_'
'case_'
'border_'
'Sunday_'
'28_'
'23_'
'неговиот_'
'декември_'
'situation_'
'problem_'
'negotiations_'
'јуни_'
'текот_'
'премиерот_'
'министерот_'
'Тие_'
'Ние_'
'Брисел_'
'status_'
'need_'
'may_'
'main_'
'issues_'
'around_'
'added_'
'Skopje_'
'April_'
'21_'
'можат_'
'Со_'
'reforms_'
'measures_'
'him_'
'crisis_'
'2010_'
'оние_'
'ние_'
'месеци_'
'април_'
'Union_'
'22_'
'сили_'
'политика_'
'додаде_'
'Ова_'
'high_'
'company_'
'та_'
'партии_'
'низ_'
'места_'
'велат_'
'Тоа_'
'САД_'
'towards_'
'announced_'
'Balkan_'
'смета_'
'парламентот_'
'минатата_'
'move_'
'long_'
'billion_'
'Serbs_'
'јули_'
'мај_'
'започна_'
'голем_'
'within_'
'vote_'
'opposition_'
'ministry_'
'full_'
'RS_'
'However_'
'8_'
'40_'
'26_'
'претставник_'
'права_'
'март_'
'луѓе_'
'извештајот_'
'група_'
'Советот_'
'По_'
'states_'
'sources_'
'right_'
'official_'
'head_'
'four_'
'Russia_'
'февруари_'
'септември_'
'процесот_'
'повторно_'
'интеграција_'
'веќе_'
'Тадиќ_'
'economy_'
'deal_'
'become_'
'If_'
'2009_'
'членки_'
'односи_'
'ви_'
'било_'
'безбедност_'
'solution_'
'signed_'
'due_'
'EC_'
'работа_'
'институции_'
'законот_'
'top_'
'regional_'
'however_'
'further_'
'financial_'
'crime_'
'Zagreb_'
'Tadic_'
'Security_'
'General_'
'Friday_'
'Bosnian_'
'развој_'
'енергија_'
'две_'
'без_'
'август_'
'Сараево_'
'Русија_'
'set_'
'her_'
'good_'
'продолжи_'
'економски_'
'град_'
'event_'
'On_'
'Brussels_'
'Bank_'
'August_'
'пристап_'
'особено_'
'криминал_'
'добие_'
'Скопје_'
'Кипар_'
'Исто_'
'Ако_'
'possible_'
'left_'
'integration_'
'energy_'
'September_'
'National_'
'July_'
'Democratic_'
'посета_'
'период_'
'trade_'
'statement_'
'rights_'
'plan_'
'organised_'
'cases_'
'agreed_'
'Tirana_'
'Istanbul_'
'сектор_'
'прашања_'
'поранешниот_'
'извори_'
'then_'
'see_'
'second_'
'cultural_'
'conference_'
'business_'
'budget_'
'50_'
'состанокот_'
'РС_'
'tribunal_'
'start_'
'relations_'
'legal_'
'get_'
'ethnic_'
'election_'
'days_'
'coalition_'
'напредок_'
'банка_'
'Ердоган_'
'programme_'
'join_'
'growth_'
'found_'
'defence_'
'500_'
'претпријатија_'
'милијарди_'
'корупцијата_'
'кое_'
'држава_'
'биле_'
'use_'
'think_'
'remain_'
'province_'
'power_'
'meet_'
'how_'
'five_'
'far_'
'down_'
'able_'
'Sofia_'
'Sarajevo_'
'Mladic_'
'29_'
'српскиот_'
'прашање_'
'ниво_'
'зголеми_'
'власти_'
'агенција_'
'without_'
'us_'
'several_'
'representatives_'
'past_'
'led_'
'centre_'
'another_'
'AP_'
'состана_'
'систем_'
'проблеми_'
'освои_'
'дали_'
'Министерството_'
'sector_'
'same_'
'recent_'
'peace_'
'life_'
'did_'
'current_'
'companies_'
'1995_'
'центар_'
'туку_'
'special_'
'social_'
'role_'
'remains_'
'open_'
'market_'
'level_'
'back_'
'During_'
'Association_'
'As_'
' $_'
'фестивал_'
'претпријатие_'
'оглед_'
'досега_'
'договорот_'
'даде_'
'бизнис_'
'opened_'
'off_'
'just_'
'gas_'
'bid_'
'State_'
'2011_'
', "_'
'). [_'
'процес_'
'нејзината_'
'косовските_'
'колега_'
'инвестиции_'
'заврши_'
'Балканот_'
'want_'
'until_'
'stability_'
'run_'
'ruling_'
'prime_'
'much_'
'early_'
'clear_'
'children_'
'Various_'
'New_'
'Ministry_'
'31_'
' ... _'
'промени_'
'проектот_'
'преговорите_'
'повика_'
'нивната_'
'неделата_'
'криза_'
'истакна_'
'државата_'
'американски_'
'Не_'
'Младиќ_'
'Загреб_'
'Анкара_'
'six_'
'major_'
'investment_'
'education_'
'conflict_'
'cannot_'
'better_'
'Parliament_'
'суд_'
'пет_'
'одржа_'
'нов_'
'напори_'
'Се_'
'quoted_'
'joint_'
'groups_'
'free_'
'difficult_'
'Western_'
'One_'
'Germany_'
'Centre_'
'1999_'
'услови_'
'патот_'
'новата_'
'можно_'
'медиумите_'
'локалните_'
'доби_'
'властите_'
'Република_'
'Како_'
'team_'
'mission_'
'few_'
'already_'
'World_'
':_'
'100_'
'стане_'
'одбрана_'
'нив_'
'војници_'
'босанските_'
'бара_'
'ЕК_'
'Букурешт_'
'tax_'
'positive_'
'position_'
'hope_'
'general_'
'final_'
'With_'
'France_'
'Cypriot_'
'Ankara_'
'улога_'
'своето_'
'проблем_'
'мерки_'
'лица_'
'голема_'
'Тирана_'
'urged_'
'standards_'
'office_'
'fight_'
'face_'
'conditions_'
'IMF_'
'For_'
'Erdogan_'
'At_'
'2001_'
'сака_'
'при_'
'почетокот_'
'потврди_'
'понатаму_'
'полицијата_'
'политичка_'
'новиот_'
'направи_'
'иднина_'
'дена_'
'АФП_'
'АП_'
'plans_'
'money_'
'include_'
'discuss_'
'city_'
'candidate_'
'came_'
'areas_'
'While_'
'Secretary_'
'ICTY_'
'Agreement_'
'целосно_'
'изборите_'
'заменик_'
'заедно_'
'едно_'
'ден_'
'Унијата_'
'Трибуналот_'
'Српскиот_'
'Софија_'
'Атина_'
'used_'
'results_'
'put_'
'presidency_'
'northern_'
'near_'
'ministers_'
'likely_'
'human_'
'euro_'
'each_'
'communities_'
'area_'
'Hague_'
'200_'
'’_'
'српските_'
'српската_'
'нејзините_'
'начин_'
'држави_'
'два_'
'ММФ_'
'took_'
'serious_'
'reported_'
'rate_'
'nations_'
'million_'
'laws_'
'information_'
'implementation_'
'goal_'
'director_'
'dialogue_'
'What_'
'That_'
'Montenegrin_'
'четири_'
'целиот_'
'стандарди_'
'секретар_'
'помогне_'
'петокот_'
'области_'
'обезбеди_'
'вид_'
'УНМИК_'
'Балкан_'
'Југославија_'
'third_'
'ten_'
'step_'
'press_'
'parliamentary_'
'give_'
'does_'
'believe_'
'agency_'
'Saturday_'
'Kurdish_'
'Agency_'
'2003_'
'0_'
'чекор_'
'српски_'
'случај_'
'скоро_'
'светот_'
'првата_'
'помеfу_'
'побара_'
'пат_'
'партијата_'
'одлука_'
'независност_'
'меѓународната_'
'дури_'
'долари_'
'Таа_'
'Разни_'
'Борис_'
'whether_'
'troops_'
'trial_'
'strong_'
'road_'
'review_'
'own_'
'order_'
'my_'
'go_'
'forces_'
'find_'
'counterpart_'
'capital_'
'ahead_'
'2002_'
'1992_'
'тим_'
'статус_'
'сме_'
'правдата_'
'посети_'
'план_'
'парламент_'
'најверојатно_'
'наводно_'
'минатиот_'
'економска_'
'Милошевиќ_'
'women_'
'prosecutor_'
'projects_'
'politicians_'
'old_'
'largest_'
'large_'
'interest_'
'every_'
'ensure_'
'change_'
'Some_'
'Deputy_'
'80_'
', „_'
'турскиот_'
'трибунал_'
'случи_'
'првиот_'
'планот_'
'пак_'
'образование_'
'ниту_'
'информации_'
'европски_'
'граѓаните_'
'врски_'
'Покрај_'
'together_'
'significant_'
'reached_'
'protection_'
'pressure_'
'majority_'
'lead_'
'expressed_'
'eight_'
'discussed_'
'democratic_'
'aimed_'
'administration_'
'activities_'
'Russian_'
'Bucharest_'
'60_'
'согласност_'
'сметаат_'
'програмата_'
'претходно_'
'политичките_'
'поврзани_'
'одлуката_'
'независноста_'
'над_'
'луѓето_'
'крај_'
'кипарските_'
'главниот_'
'Српска_'
'Овој_'
'working_'
'visa_'
'organisation_'
'needs_'
'late_'
'force_'
'following_'
'festival_'
'daily_'
'come_'
'bring_'
'arrest_'
'army_'
'Italy_'
'Albanians_'
'решение_'
'резултат_'
'помалку_'
'подоцна_'
'новинарите_'
'медиуми_'
'контрола_'
'интерес_'
'извештај_'
'закон_'
'вклучително_'
'Премиерот_'
'МКТЈ_'
'Германија_'
'БДП_'
'Албанци_'
'Југоисточна_'
'show_'
'received_'
'population_'
'organisations_'
'operations_'
'noted_'
'name_'
'like_'
'latest_'
'justice_'
'funds_'
'construction_'
'build_'
'arrested_'
'TV_'
'Rehn_'
'Meanwhile_'
'Karadzic_'
'Justice_'
'Culture_'
'Court_'
'Boris_'
'AФП_'
'трговија_'
'статусот_'
'спроведување_'
'следните_'
'ситуацијата_'
'сила_'
'сакаат_'
'раст_'
'рамките_'
'притисок_'
'прес_'
'потоа_'
'покраината_'
'победи_'
'планира_'
'пари_'
'отвори_'
'однос_'
'неговите_'
'нашите_'
'напорите_'
'меѓународните_'
'истиот_'
'имаше_'
'изјавата_'
'изјава_'
'зголемување_'
'економијата_'
'групата_'
'внатрешни_'
'бил_'
'Словенија_'
'Никола_'
'Коштуница_'
'wants_'
'tourism_'
'total_'
'term_'
'result_'
'provide_'
'present_'
'points_'
'line_'
'increase_'
'health_'
'given_'
'expect_'
'different_'
'currently_'
'control_'
'ceremony_'
'Roma_'
'Defence_'
'Also_'
'членка_'
'чекори_'
'целата_'
'турската_'
'странски_'
'стабилност_'
'состанок_'
'соочува_'
'развојот_'
'проширување_'
'пример_'
'потпишаа_'
'покажа_'
'позиција_'
'организации_'
'новите_'
'нашата_'
'можеби_'
'дојде_'
'добро_'
'групи_'
'водач_'
'борбата_'
'Иако_'
'violence_'
'round_'
'less_'
'know_'
'job_'
'includes_'
'freedom_'
'fact_'
'especially_'
'don_'
'decided_'
'best_'
'assistance_'
'address_'
'Yugoslavia_'
'Republic_'
'Kostunica_'
'Institute_'
'German_'
'1990_'
'. (_'
'слобода_'
'работат_'
'преговори_'
'организација_'
'нова_'
'нивниот_'
'изрази_'
'изградба_'
'зад_'
'вети_'
'безбедноста_'
'Тајип_'
'Претседателот_'
'Влада_'
'trafficking_'
'taken_'
'summit_'
'soon_'
'scheduled_'
'rule_'
'return_'
'proposal_'
'potential_'
'post_'
'necessary_'
'nation_'
'making_'
'global_'
'domestic_'
'create_'
'am_'
'again_'
'adopted_'
'adding_'
'Zoran_'
'B92_'
'AKP_'
'јас_'
'шефот_'
'членството_'
'член_'
'следната_'
'секоја_'
'свет_'
'реформите_'
'можност_'
'лево_'
'значи_'
'започне_'
'гас_'
'водачи_'
'бараат_'
'администрација_'
'Јовановиќ_'
'town_'
'society_'
'sides_'
'school_'
'known_'
'issued_'
'independent_'
'fully_'
'established_'
'changes_'
'campaign_'
'building_'
'begin_'
'annual_'
'along_'
'ago_'
'PKK_'
'GDP_'
'Basescu_'
'90_'
'2000_'
'сум_'
'средства_'
'постои_'
'посетата_'
'пазар_'
'официјални_'
'нешто_'
'мандат_'
'конференцијата_'
'капацитет_'
'заштита_'
'европските_'
'деца_'
'градот_'
'влијание_'
'влезе_'
'блокот_'
'Договорот_'
'Демократската_'
'Б92_'
'welcomed_'
'times_'
'steps_'
'started_'
'services_'
'response_'
'resolution_'
'particularly_'
'opening_'
'needed_'
'list_'
'judiciary_'
'involved_'
'interests_'
'illegal_'
'home_'
'film_'
'earlier_'
'democracy_'
'close_'
'challenges_'
'cabinet_'
'Yugoslav_'
'Thaci_'
'Peace_'
'OSCE_'
'KFOR_'
'BBC_'
'финансии_'
'условите_'
'страни_'
'соработката_'
'согласија_'
'секој_'
'првите_'
'право_'
'поранешна_'
'периодот_'
'организираниот_'
'напредокот_'
'меѓувреме_'
'живот_'
'живеат_'
'економија_'
'војната_'
'влез_'
'власт_'
'вклучува_'
'американскиот_'
'активности_'
'Србите_'
'Сега_'
'Оваа_'
'Истанбул_'
'young_'
'too_'
'summer_'
'recently_'
'real_'
'rather_'
'price_'
'point_'
'non_'
'meanwhile_'
'lack_'
'improve_'
'here_'
'experts_'
'establish_'
'envoy_'
'electricity_'
'criteria_'
'comes_'
'SE_'
'News_'
'Milosevic_'
'Development_'
'After_'
'300_'
'2012_'
'учествуваат_'
'стана_'
'ситуација_'
'ри_'
'различни_'
'прави_'
'подобрување_'
'отколку_'
'отворен_'
'основа_'
'народ_'
'моментно_'
'изминатите_'
'етнички_'
'договори_'
'главните_'
'генералниот_'
'Западен_'
'whose_'
'though_'
'terms_'
'stressed_'
'sign_'
'seen_'
'reports_'
'regime_'
'property_'
'production_'
'politics_'
'pay_'
'means_'
'history_'
'form_'
'family_'
'example_'
'despite_'
'deficit_'
'criminal_'
'conducted_'
'brought_'
'bloc_'
'allowed_'
'She_'
'DPA_'
'An_'
'јавноста_'
'членови_'
'центарот_'
'финансиски_'
'турските_'
'тите_'
'те_'
'совет_'
'сепак_'
'рекоа_'
'претставниците_'
'покажуваат_'
'поднесе_'
'оставка_'
'она_'
'намали_'
'мисијата_'
'истите_'
'донесе_'
'граѓани_'
'владејачката_'
'вклучувајќи_'
'веднаш_'
'близина_'
'КФОР_'
'Италија_'
'Ирак_'
'Зоран_'
'АКП_'
'weeks_'
'private_'
'passed_'
'legislation_'
'island_'
'importance_'
'higher_'
'half_'
'entry_'
'described_'
'cost_'
'allow_'
'additional_'
'across_'
'Republika_'
'Last_'
'Group_'
'British_'
'400_'
'јасно_'
'цитираше_'
'цели_'
'судот_'
'случаи_'
'резултати_'
'проект_'
'преземе_'
'потребата_'
'постигнат_'
'поддржува_'
'останува_'
'неговото_'
'него_'
'натпревар_'
'напред_'
'меѓународни_'
'користат_'
'конференција_'
'заради_'
'веб_'
'в_'
'Тачи_'
'Меѓународниот_'
'Бериша_'
'yet_'
'today_'
'ties_'
'terrorist_'
'terrorism_'
'success_'
'sports_'
'spokesman_'
'small_'
'seven_'
'risk_'
'plant_'
'planned_'
'others_'
'oil_'
'negative_'
'least_'
'launch_'
'later_'
'investigation_'
'hopes_'
'highest_'
'forward_'
'exhibition_'
'concern_'
'committed_'
'biggest_'
'anniversary_'
'Srpska_'
'Social_'
'Ponte_'
'Our_'
'Office_'
'More_'
'Federation_'
'Commissioner_'
'Alliance_'
' … _'
'режим_'
'програма_'
'пристапување_'
'предупреди_'
'прва_'
'прашањето_'
'политиката_'
'општество_'
'најмалку_'
'настани_'
'настан_'
'наоѓа_'
'можеме_'
'мисија_'
'мир_'
'коалиција_'
'економскиот_'
'грчкиот_'
'вклучени_'
'висина_'
'асоцијација_'
'Сите_'
'Реџеп_'
'Парламентот_'
'Околу_'
'Месиќ_'
'victims_'
'suspects_'
'regarding_'
'promote_'
'north_'
'municipalities_'
'minority_'
'low_'
'loan_'
'living_'
'launched_'
'keep_'
'indictees_'
'growing_'
'great_'
'failed_'
'done_'
'diplomatic_'
'constitutional_'
'coming_'
'charged_'
'boost_'
'big_'
'became_'
'asked_'
'air_'
'UNMIK_'
'Ratko_'
'Radovan_'
'Nikola_'
'Iraq_'
'Former_'
'Finance_'
'File_'
'Ahtisaari_'
'јавниот_'
'филм_'
'толку_'
'странските_'
'стандардите_'
'спроведувањето_'
'слободата_'
'си_'
'седум_'
'решавање_'
'производи_'
'претставуваат_'
'предизвика_'
'постигне_'
'половина_'
'полиција_'
'повеќето_'
'плати_'
'пазарот_'
'остане_'
'одржи_'
'обид_'
'нејзиниот_'
'најголем_'
'наскоро_'
'намалување_'
'косовскиот_'
'користи_'
'изнесува_'
'зависи_'
'жртвите_'
'европска_'
'домаќин_'
'дозволи_'
'додавајќи_'
'директор_'
'денес_'
'главен_'
'врати_'
'влијае_'
'вкупно_'
'вести_'
'борба_'
'Српската_'
'Рен_'
'ПКК_'
'Европскиот_'
'Грци_'
'Ѓул_'
'your_'
'warned_'
'votes_'
'trying_'
'taking_'
'suggested_'
'strategy_'
'session_'
'sent_'
'representative_'
'reporters_'
'reportedly_'
'religious_'
'reach_'
'published_'
'priority_'
'presence_'
'pipeline_'
'overall_'
'operate_'
'offered_'
'nearly_'
'might_'
'message_'
'men_'
'look_'
'infrastructure_'
'increased_'
'hold_'
'going_'
'enough_'
'document_'
'delegation_'
'del_'
'constitution_'
'competition_'
'call_'
'attacks_'
'Washington_'
'Solana_'
'Representative_'
'Police_'
'Gotovina_'
'EULEX_'
'1998_'
'членовите_'
'трае_'
'таму_'
'средина_'
'саботата_'
'продолжат_'
'присуствуваа_'
'пристапот_'
'предвидува_'
'правда_'
'политичкиот_'
'податоци_'
'поголем_'
'отфрли_'
'оти_'
'обвинети_'
'некој_'
'култура_'
'кандидат_'
'имаме_'
'заедници_'
'дефицит_'
'границата_'
'годишно_'
'води_'
'весник_'
'велејќи_'
'брзо_'
'Франција_'
'Понте_'
'ОБСЕ_'
'Некои_'
'Игор_'
'Ахтисари_'
'why_'
'study_'
'strategic_'
'stop_'
'responsible_'
'responsibility_'
'required_'
'registered_'
'reduce_'
'recognised_'
'protests_'
'prison_'
'ongoing_'
'never_'
'leading_'
'industry_'
'governments_'
'evidence_'
'dispute_'
'deputy_'
'debate_'
'date_'
'common_'
'attended_'
'agenda_'
'action_'
'University_'
'Since_'
'His_'
'Central_'
'Berisha_'
'55_'
'30th_'
'25th_'
'1st_'
') -- _'
'шест_'
'церемонијата_'
'хрватски_'
'усвои_'
'тогаш_'
'стратегија_'
'странство_'
'спроведе_'
'случајот_'
'регион_'
'работни_'
'проблемот_'
'прифати_'
'потег_'
'осомничени_'
'одлучи_'
'недели_'
'можноста_'
'кампања_'
'истовремено_'
'исполни_'
'имот_'
'жени_'
'етничките_'
'европската_'
'долг_'
'десет_'
'демократија_'
'времето_'
'вестите_'
'безбедносни_'
'бегалци_'
'Хашкиот_'
'Хаг_'
'Море_'
'ЕУЛЕКС_'
'Готовина_'
'Британија_'
'voters_'
'voiced_'
'various_'
'things_'
'strengthen_'
'referendum_'
'ready_'
'question_'
'proposed_'
'presented_'
'period_'
'participate_'
'opportunity_'
'opinion_'
'officially_'
'natural_'
'judges_'
'implementing_'
'happen_'
'focus_'
'facing_'
'establishment_'
'entity_'
'draft_'
'direct_'
'debt_'
'data_'
'credit_'
'considered_'
'compared_'
'commission_'
'charges_'
'central_'
'borders_'
'banks_'
'average_'
'analysts_'
'aid_'
'agreements_'
'abroad_'
'War_'
'Podgorica_'
'Ivo_'
'Hungary_'
'Enlargement_'
'Economy_'
'Both_'
'70_'
'47_'
'17th_'
'10th_'
'шеф_'
'човекови_'
'хрватскиот_'
'фаза_'
'трговијата_'
'тек_'
'став_'
'средината_'
'служба_'
'рок_'
'продажба_'
'причина_'
'правото_'
'покажува_'
'подобри_'
'оружје_'
'обвинет_'
'новинска_'
'нејзиното_'
'насилство_'
'косовската_'
'конфликтот_'
'кај_'
'казна_'
'иднината_'
'зајакнување_'
'заеднички_'
'друга_'
'државните_'
'државни_'
'двајца_'
'гласовите_'
'главни_'
'водачите_'
'висок_'
'бројот_'
'Хрватскиот_'
'Сребреница_'
'Кога_'
'whole_'
'village_'
'training_'
'supported_'
'spent_'
'short_'
'respect_'
'resources_'
're_'
'quality_'
'programmes_'
'prices_'
'presidential_'
'prepared_'
'play_'
'particular_'
'package_'
'moment_'
'me_'
'killed_'
'initiative_'
'included_'
'hard_'
'front_'
'figure_'
'documents_'
'declaration_'
'costs_'
'compromise_'
'capacity_'
'amount_'
'alleged_'
'addition_'
'achieved_'
'These_'
'Sanader_'
'SAA_'
'Maкедонија_'
'High_'
'Hashim_'
'Gul_'
'George_'
'Fund_'
'East_'
'Ali_'
'%._'
'чини_'
'финансиска_'
'структури_'
'стапка_'
'стави_'
'стабилизација_'
'состојба_'
'претпријатието_'
'предизвици_'
'официјално_'
'островот_'
'опозицијата_'
'одобри_'
'односите_'
'одбраната_'
'област_'
'обврски_'
'надвор_'
'можеле_'
'можела_'
'минатото_'
'македонскиот_'
'мажи_'
'кривичен_'
'закони_'
'заедничка_'
'друг_'
'демократска_'
'главната_'
'генерал_'
'вредност_'
'воените_'
'власта_'
'важен_'
'билатералните_'
'Турци_'
'Солана_'
'Санадер_'
'Караџиќ_'
'Иво_'
'Еден_'
'ДПА_'
'Велика_'
'Алијансата_'
'Ќе_'
'workers_'
'throughout_'
'technical_'
'share_'
'seek_'
'schools_'
'rest_'
'research_'
'request_'
'prosecutors_'
'pro_'
'parts_'
'officers_'
'offer_'
'management_'
'leadership_'
'joining_'
'involvement_'
'instead_'
'increasing_'
'fourth_'
'followed_'
'finance_'
'failure_'
'everything_'
'enter_'
'criticised_'
'completed_'
'complete_'
'commitment_'
'closer_'
'certain_'
'calling_'
'beginning_'
'began_'
'bank_'
'attack_'
'art_'
'approach_'
'accused_'
'access_'
'Tomislav_'
'Slovenia_'
'Science_'
'Radio_'
'Olympic_'
'Many_'
'Interior_'
'Festival_'
'Euro_'
'Although_'
'All_'
'12th_'
'човековите_'
'чија_'
'успех_'
'услуги_'
'точка_'
'спречи_'
'случаите_'
'резолуцијата_'
'проекти_'
'преземат_'
'преглед_'
'прв_'
'прават_'
'поени_'
'повлече_'
'па_'
'отворена_'
'осум_'
'организиран_'
'овозможи_'
'ништо_'
'ни_'
'нас_'
'народот_'
'наградата_'
'можело_'
'министрите_'
'меѓународен_'
'македонската_'
'канцеларија_'
'кандидатурата_'
'кандидати_'
'истакнувајќи_'
'името_'
'државен_'
'демократски_'
'грчката_'
'граница_'
'амбасадор_'
'Шефот_'
'Унгарија_'
'Соединетите_'
'Ратко_'
'Пред_'
'Министерство_'
'Министерот_'
'Косовската_'
'Држави_'
'Груевски_'
'Воислав_'
'ББС_'
'Анан_'
'Албанците_'
'view_'
'takes_'
'successful_'
'site_'
'senior_'
'seeking_'
'rules_'
'requirements_'
'released_'
'rates_'
'privatisation_'
'previous_'
'positions_'
'performance_'
'obligations_'
'nothing_'
'network_'
'murder_'
'mandate_'
'managed_'
'lost_'
'live_'
'journalists_'
'investors_'
'invest_'
'immediately_'
'hours_'
'hand_'
'fair_'
'events_'
'employment_'
'determined_'
'declared_'
'de_'
'critical_'
'claims_'
'changed_'
'chance_'
'bilateral_'
'benefit_'
'arrived_'
'act_'
'achieve_'
'Tribunal_'
'Stabilisation_'
'Spain_'
'Orthodox_'
'Jovanovic_'
'Iran_'
'French_'
'5th_'
'34_'
'јазик_'
'цените_'
'хрватската_'
'тука_'
'транспорт_'
'тимот_'
'станува_'
'стабилноста_'
'соочи_'
'себе_'
'самитот_'
'производство_'
'предложи_'
'предлог_'
'првично_'
'последните_'
'политичарите_'
'победа_'
'нивоа_'
'нивното_'
'неодамна_'
'немаат_'
'настанот_'
'напади_'
'намера_'
'надеж_'
'младите_'
'мирот_'
'меfу_'
'културата_'
'круг_'
'командант_'
'истата_'
'истакнува_'
'избран_'
'заедничката_'
'загриженост_'
'електрична_'
'државниот_'
'државната_'
'дополнителни_'
'доведе_'
'директно_'
'директни_'
'дела_'
'големи_'
'гласачите_'
'вработени_'
'важно_'
'безбедносните_'
'Федерацијата_'
'Москва_'
'Кина_'
'Дали_'
'Бугарскиот_'
'Башеску_'
'Александар_'
'weapons_'
'victory_'
'treatment_'
'thousands_'
'stage_'
'stable_'
'soldiers_'
'single_'
'service_'
'rise_'
'related_'
'reason_'
'providing_'
'prospects_'
'poor_'
'phase_'
'partnership_'
'outside_'
'opportunities_'
'objective_'
'neighbouring_'
'movement_'
'minorities_'
'matter_'
'land_'
'joined_'
'jobs_'
'itself_'
'fiscal_'
'exchange_'
'estimated_'
'entertainment_'
'emergency_'
'economies_'
'doing_'
'crucial_'
'continuing_'
'confirmed_'
'complex_'
'commander_'
'calls_'
'anti_'
'aims_'
'age_'
'affairs_'
'South_'
'Only_'
'Olympics_'
'Muslim_'
'Moscow_'
'Mediterranean_'
'Economic_'
'EP_'
'Czech_'
'Criminal_'
'Corruption_'
'Army_'
': „_'
'7th_'
'45_'
'35_'
'15th_'
'150_'
'120_'
' ..._'
'цела_'
'филмски_'
'успеа_'
'турски_'
'технологија_'
'споредба_'
'романскиот_'
'разговара_'
'работата_'
'проблемите_'
'претседателство_'
'пресудата_'
'пратеници_'
'потпишан_'
'последниот_'
'понуди_'
'полицајци_'
'политичката_'
'политичари_'
'поздрави_'
'подготвена_'
'поголема_'
'поглед_'
'одредени_'
'објасни_'
'образованието_'
'областа_'
'обединување_'
'обвини_'
'обвинетите_'
'никогаш_'
'најдобар_'
'нацрт_'
'наместо_'
'надева_'
'мрежа_'
'можам_'
'министри_'
'милион_'
'мерките_'
'луfе_'
'лето_'
'колку_'
'клучен_'
'километри_'
'истражување_'
'интереси_'
'интеграцијата_'
'илјадници_'
'измени_'
'извоз_'
'иако_'
'зона_'
'дрога_'
'дома_'
'добија_'
'далеку_'
'грчки_'
'градови_'
'војна_'
'воена_'
'високи_'
'ваков_'
'важност_'
'Фатмир_'
'Слободан_'
'Радован_'
'РФЕ_'
'Преглед_'
'Повеќе_'
'Новиот_'
'Меѓународната_'
'Косовскиот_'
'Њујорк_'
'win_'
'visitors_'
'visited_'
'using_'
'union_'
'tender_'
'technology_'
'specific_'
'similar_'
'signing_'
'side_'
'series_'
'resolved_'
'protest_'
'policies_'
'pledged_'
'person_'
'path_'
'owned_'
'opposed_'
'once_'
'neighbours_'
'lower_'
'longer_'
'levels_'
'investments_'
'impact_'
'idea_'
'food_'
'follow_'
'financing_'
'era_'
'ended_'
'elected_'
'develop_'
'connection_'
'confidence_'
'communist_'
'closed_'
'century_'
'basis_'
'base_'
'artists_'
'appeared_'
'al_'
'accept_'
'Sports_'
'Socialist_'
'Sea_'
'Ohrid_'
'NGOs_'
'Law_'
'Islamic_'
'Igor_'
'Gruevski_'
'Film_'
'Dayton_'
'Austria_'
'Atlantic_'
'Annan_'
'Ambassador_'
'800_'
'4th_'
'38_'
'2013_'
'1991_'
'18th_'
'шанса_'
'цена_'
'уставот_'
'трите_'
'тероризмот_'
'тврди_'
'судските_'
'судски_'
'согласи_'
'собрание_'
'следниот_'
'сигурно_'
'романски_'
'режимот_'
'ред_'
'разговараа_'
'предаде_'
'постојат_'
'порака_'
'подобро_'
'поделба_'
'поддржуваат_'
'останат_'
'одржат_'
'одреден_'
'носи_'
'неа_'
'национална_'
'надворешна_'
'многумина_'
'метри_'
'меfународната_'
'мали_'
'македонски_'
'културни_'
'исполнат_'
'институциите_'
'изградбата_'
'заштитата_'
'започнат_'
'закана_'
'економската_'
'доволно_'
'дијалогот_'
'децата_'
'делови_'
'де_'
'двата_'
'датум_'
'гледа_'
'век_'
'бугарскиот_'
'бугарската_'
'бегалците_'
'балканска_'
'Црвенковски_'
'Центарот_'
'Турскиот_'
'Трајан_'
'Сејдиу_'
'Само_'
'РЛ_'
'Партија_'
'Минатата_'
'Лука_'
'Комисијата_'
'Иран_'
'Вук_'
'Властите_'
'Вашингтон_'
'Бизнис_'
'Американскиот_'
'went_'
'water_'
'upon_'
'unemployment_'
'traffic_'
'tensions_'
'survey_'
'something_'
'shown_'
'resolve_'
'requires_'
'rejected_'
'reiterated_'
'receive_'
'push_'
'promised_'
'played_'
'partner_'
'paid_'
'nuclear_'
'negotiating_'
'mutual_'
'mass_'
'markets_'
'makes_'
'lives_'
'lawmakers_'
'internal_'
'influence_'
'industrial_'
'greater_'
'framework_'
'fall_'
'factors_'
'existing_'
'environment_'
'entire_'
'effort_'
'effect_'
'discussions_'
'decisions_'
'customs_'
'cross_'
'continues_'
'continued_'
'conflicts_'
'citing_'
'caused_'
'basic_'
'award_'
'almost_'
'], _'
'[_'
'Vuk_'
'Vojislav_'
'Under_'
'Traian_'
'Trade_'
'To_'
'Tayyip_'
'Srebrenica_'
'Slobodan_'
'Research_'
'RL_'
'RFE_'
'Partnership_'
'Most_'
'Italian_'
'II_'
'Draskovic_'
'Chief_'
'Business_'
'Bosniak_'
'Barroso_'
'Ashdown_'
'American_'
'Ahmet_'
'8th_'
'43_'
'41_'
'250_'
'22nd_'
'21st_'
'19th_'
'1990s_'
'11th_'
'јавно_'
'учествуваа_'
'требаше_'
'тиот_'
'тешко_'
'ставен_'
'спорот_'
'сочинуваат_'
'соработува_'
'соочуваат_'
'соопштение_'
'следи_'
'семејства_'
'седиште_'
'реши_'
'референдум_'
'работници_'
'приоритет_'
'премногу_'
'презеде_'
'предлогот_'
'предводена_'
'потребни_'
'портпаролот_'
'поранешен_'
'подобра_'
'поддржи_'
'подготвени_'
'планови_'
'очекуваат_'
'оценка_'
'отворањето_'
'односно_'
'објаснува_'
'објавија_'
'ново_'
'најави_'
'нации_'
'население_'
'мнозинство_'
'мислење_'
'местото_'
'медал_'
'линија_'
'корупција_'
'комесарот_'
'клучните_'
'историја_'
'иницијатива_'
'изгуби_'
'избор_'
'значително_'
'жртви_'
'жените_'
'експерти_'
'државна_'
'дијалог_'
'делегација_'
'двајцата_'
'дава_'
'годишниот_'
'гласањето_'
'втор_'
'вредности_'
'водачот_'
'армијата_'
'американската_'
'амбасада_'
'акција_'
'Што_'
'Шенген_'
'Подгорица_'
'Папандреу_'
'Оли_'
'Нема_'
'Лајчак_'
'Ешдаун_'
'Додик_'
'Горан_'
'Јас_'
'worth_'
'works_'
'ways_'
'wanted_'
'true_'
'transport_'
'tour_'
'threats_'
'threat_'
'territory_'
'supports_'
'simply_'
'seems_'
'secretary_'
'remaining_'
'range_'
'poll_'
'plants_'
'peacekeeping_'
'partners_'
'participants_'
'owner_'
'often_'
'offices_'
'modern_'
'lot_'
'located_'
'loans_'
'light_'
'lawyer_'
'language_'
'labour_'
'judicial_'
'journalist_'
'institutional_'
'initial_'
'indicted_'
'income_'
'improved_'
'implemented_'
'implement_'
'got_'
'funding_'
'forced_'
'firm_'
'fighting_'
'feel_'
'facilities_'
'faces_'
'ever_'
'eventually_'
'deadline_'
'cut_'
'currency_'
'criminals_'
'courts_'
'consider_'
'concrete_'
'concert_'
'concerning_'
'certainly_'
'candidates_'
'bridge_'
'board_'
'behind_'
'banking_'
'assessment_'
'approved_'
'acts_'
'York_'
'VOA_'
'Two_'
'Thessaloniki_'
'Tariceanu_'
'Studies_'
'So_'
'Recep_'
'Poland_'
'People_'
'Olli_'
'Mitrovica_'
'Middle_'
'Mesic_'
'Jeremic_'
'How_'
'Games_'
'FT_'
'FBiH_'
'Energy_'
'Dodik_'
'Department_'
'Britain_'
'Affairs_'
'6th_'
'65_'
'600_'
'28th_'
'1997_'
'16th_'
'13th_'
'ќор_'
'часа_'
'хрватските_'
'францускиот_'
'формирање_'
'формира_'
'фокусира_'
'фактот_'
'учество_'
'удар_'
'точки_'
'тото_'
'тема_'
'телевизија_'
'тајмс_'
'страница_'
'степен_'
'специјалниот_'
'соопшти_'
'системи_'
'силна_'
'светската_'
'простор_'
'прогласи_'
'присуство_'
'пристапувањето_'
'претседателството_'
'првпат_'
'почеток_'
'пофали_'
'последниве_'
'помага_'
'полициски_'
'платите_'
'партнерство_'
'пазари_'
'официјалните_'
'осуди_'
'оди_'
'одговорност_'
'одат_'
'можел_'
'лицето_'
'ли_'
'кризата_'
'косовски_'
'корист_'
'исполнување_'
'име_'
'затвори_'
'заем_'
'жители_'
'живее_'
'енергетски_'
'единица_'
'доверба_'
'добри_'
'добра_'
'добијат_'
'градоначалник_'
'годината_'
'гласови_'
'германскиот_'
'втората_'
'бори_'
'балкански_'
'армија_'
'апсење_'
'автомобили_'
'Шефер_'
'Централна_'
'Стипе_'
'Словачка_'
'Сали_'
'Сé_'
'Романскиот_'
'Поради_'
'Милан_'
'Либија_'
'Караманлис_'
'Канцеларијата_'
'Истиот_'
'Истата_'
'Земјата_'
'Една_'
'ВОА_'
'Бања_'
'Австрија_'
'Авганистан_'
'Јоргос_'
'value_'
'travel_'
'themselves_'
'surrender_'
'supporting_'
'students_'
'strike_'
'stand_'
'speed_'
'settlement_'
'sell_'
'seats_'
'science_'
'sale_'
'resignation_'
'residents_'
'release_'
'regulations_'
'record_'
'reasons_'
'raised_'
'quarter_'
'protect_'
'prominent_'
'professional_'
'principles_'
'planning_'
'participating_'
'night_'
'movie_'
'medical_'
'marking_'
'maintain_'
'leave_'
'introduced_'
'intelligence_'
'insurance_'
'huge_'
'hospital_'
'holding_'
'headquarters_'
'having_'
'founded_'
'forum_'
'field_'
'fans_'
'expert_'
'employees_'
'divided_'
'diplomat_'
'developed_'
'culture_'
'created_'
'council_'
'contribution_'
'concluded_'
'completely_'
'civilians_'
'civil_'
'charge_'
'challenge_'
'built_'
'book_'
'believes_'
'available_'
'authority_'
'asylum_'
'assist_'
'ask_'
'apply_'
'aim_'
'agree_'
'accepted_'
'You_'
'When_'
'Vujanovic_'
'Those_'
'Stefan_'
'SFOR_'
'Rights_'
'Political_'
'Papandreou_'
'Netherlands_'
'Milorad_'
'Mayor_'
'Josipovic_'
'Javier_'
'Following_'
'Fatmir_'
'Djukanovic_'
'Despite_'
'Committee_'
'Co_'
'Chairman_'
'Carla_'
'Beta_'
'And_'
'Among_'
'32_'
'14th_'
'%, _'
' ._'
'јавните_'
'цитира_'
'функцијата_'
'фер_'
'фабрика_'
'универзитет_'
'уапси_'
'технички_'
'студенти_'
'стока_'
'слични_'
'следат_'
'северно_'
'сакаме_'
'регионалната_'
'промена_'
'причини_'
'пристапи_'
'приватизација_'
'пречка_'
'претставникот_'
'предвид_'
'прашањата_'
'прашаое_'
'правила_'
'правата_'
'почит_'
'поранешните_'
'покажаа_'
'поддршката_'
'поддржа_'
'повикува_'
'парламентарните_'
'парламентарни_'
'отворени_'
'осомничените_'
'општини_'
'операцијата_'
'однесува_'
'одлуки_'
'одговор_'
'овогодинешниот_'
'објавена_'
'обука_'
'областите_'
'обезбедат_'
'обвинител_'
'нуди_'
'новинари_'
'националната_'
'населението_'
'надевам_'
'навистина_'
'момент_'
'мала_'
'локалната_'
'листата_'
'истражувањето_'
'истото_'
'искуство_'
'интервју_'
'инвестира_'
'издаде_'
'идеја_'
'затвор_'
'економии_'
'достигна_'
'домови_'
'докази_'
'дејства_'
'делумно_'
'дадат_'
'границите_'
'големите_'
'гледаат_'
'главно_'
'војниците_'
'волја_'
'водат_'
'владини_'
'високо_'
'веруваат_'
'верува_'
'ваквите_'
'аеродром_'
'агендата_'
'Шпанија_'
'Хоп_'
'Хавиер_'
'Српските_'
'Полицијата_'
'Планот_'
'Париз_'
'Николиќ_'
'Националниот_'
'Македонската_'
'Источна_'
'Истовремено_'
'Институтот_'
'Игрите_'
'Додека_'
'Двете_'
'Војводина_'
'Бугарската_'
'Бранко_'
'zone_'
'worked_'
'wide_'
'vowed_'
'voting_'
'values_'
'try_'
'tried_'
'train_'
'traditional_'
'track_'
'tonnes_'
'thus_'
'test_'
'structures_'
'stake_'
'speech_'
'sought_'
'signal_'
'served_'
'serve_'
'sectors_'
'reconstruction_'
'recognise_'
'prompted_'
'promoting_'
'products_'
'praised_'
'popular_'
'places_'
'personal_'
'permanent_'
'peaceful_'
'participation_'
'paper_'
'outcome_'
'operational_'
'ones_'
'moving_'
'mostly_'
'missions_'
'missing_'
'match_'
'm_'
'liberalisation_'
'killings_'
'interior_'
'individual_'
'indictment_'
'house_'
'homes_'
'holds_'
'heads_'
'gives_'
'gets_'
'football_'
'experience_'
'enlargement_'
'either_'
'editor_'
'dealing_'
'creation_'
'course_'
'controversial_'
'contract_'
'clearly_'
'cities_'
'buy_'
'businesses_'
'battle_'
'backed_'
'aware_'
'avoid_'
'approval_'
'appears_'
'allows_'
'airport_'
'account_'
'Vienna_'
'Ukraine_'
'Speaking_'
'Speaker_'
'Sejdiu_'
'Public_'
'Open_'
'Of_'
'Now_'
'No_'
'NGO_'
'Markovic_'
'Luka_'
'Ljajic_'
'Libya_'
'Integration_'
'Independent_'
'Human_'
'Goran_'
'Georgiev_'
'From_'
'Forces_'
'Every_'
'Eurovision_'
'EurActiv_'
'Djindjic_'
'Davutoglu_'
'Cup_'
'Croat_'
'Church_'
'Bloomberg_'
'Black_'
'Antonio_'
'Abdullah_'
'53_'
'51_'
'37_'
'20th_'
'" -- _'
'јавна_'
'целосната_'
'целосна_'
'форумот_'
'фабриката_'
'учествува_'
'услов_'
'унија_'
'уметност_'
'увозот_'
'туристички_'
'трошоци_'
'трговски_'
'територија_'
'судскиот_'
'судиите_'
'стори_'
'состанаа_'
'соседи_'
'сопственост_'
'создавање_'
'системот_'
'силите_'
'семејство_'
'секое_'
'седница_'
'референдумот_'
'релативно_'
'регионалните_'
'разговараше_'
'разговараат_'
'прошири_'
'протести_'
'производител_'
'припадници_'
'приклучат_'
'признава_'
'претстави_'
'претпријатијата_'
'претежно_'
'предизвик_'
'потребно_'
'потреба_'
'постигнување_'
'помогнат_'
'полициските_'
'позицијата_'
'подготви_'
'подготвеност_'
'побараа_'
'плата_'
'партнер_'
'официјална_'
'отворање_'
'оствари_'
'остави_'
'освен_'
'општите_'
'објавен_'
'обидуваат_'
'обидува_'
'обиде_'
'никој_'
'негово_'
'најпрво_'
'најголемата_'
'националните_'
'национален_'
'науката_'
'наоѓаат_'
'наведува_'
'моментов_'
'можности_'
'мини_'
'меѓународна_'
'малцинствата_'
'малцинства_'
'македонските_'
'лице_'
'листа_'
'либерализација_'
'лесно_'
'конфликт_'
'контролата_'
'колеги_'
'канцеларијата_'
'какви_'
'истрага_'
'историјата_'
'испрати_'
'инфраструктура_'
'индустриски_'
'инвеститори_'
'имаа_'
'изборна_'
'игри_'
'зошто_'
'знаат_'
'заеми_'
'задржи_'
'едноставно_'
'евро_'
'домашни_'
'договорите_'
'директорот_'
'демократијата_'
'девет_'
'движење_'
'главна_'
'војска_'
'воениот_'
'воен_'
'викенд_'
'вакви_'
'важноста_'
'буџет_'
'белградскиот_'
'американските_'
'Членовите_'
'Хрватската_'
'Хрватите_'
'Универзитетот_'
'Таричеану_'
'Саркози_'
'СФОР_'
'Претходно_'
'Претставниците_'
'Нова_'
'Настанот_'
'Многумина_'
'Митровица_'
'Мехмет_'
'Меркел_'
'Марти_'
'Културен_'
'Костас_'
'Косовските_'
'Исток_'
'Изложбата_'
'Иван_'
'ДСС_'
'Групата_'
'ВМРО_'
'Борисов_'
'Бета_'
'Ахмет_'
'Африка_'
'Американската_'
'Абдула_'
'Јеремиќ_'
'youth_'
'withdraw_'
'wing_'
'waste_'
'vice_'
'unit_'
'transition_'
'towns_'
'tourists_'
'thought_'
'suspected_'
'strongly_'
'station_'
'statements_'
'starting_'
'spring_'
'solve_'
'slow_'
'sentenced_'
'scientific_'
'rose_'
'restrictions_'
'resolving_'
'republic_'
'represents_'
'represent_'
'removed_'
'remarks_'
'prosecution_'
'primary_'
'previously_'
'prevent_'
'powerful_'
'possibility_'
'politically_'
'player_'
'nor_'
'newspaper_'
'names_'
'moves_'
'mobile_'
'medal_'
'measure_'
'killing_'
'invited_'
'interview_'
'interested_'
'intended_'
'insisted_'
'insist_'
'ideas_'
'historic_'
'hands_'
'grow_'
'gold_'
'getting_'
'game_'
'gain_'
'figures_'
'female_'
'elsewhere_'
'effective_'
'drug_'
'died_'
'detained_'
'demand_'
'decades_'
'concerns_'
'concerned_'
'code_'
'civilian_'
'cited_'
'chairman_'
'buildings_'
'break_'
'bodies_'
'becoming_'
'away_'
'autonomy_'
'attention_'
'association_'
'arrests_'
'approximately_'
'appeal_'
'annually_'
'amendments_'
'allegedly_'
'agencies_'
'affected_'
'abuse_'
'ability_'
'West_'
'Tурција_'
'Technology_'
'Talat_'
'Such_'
'Society_'
'Schengen_'
'Sali_'
'SDP_'
'Representatives_'
'OHR_'
'Linda_'
'Kurds_'
'Karadaku_'
'Iraqi_'
'Filip_'
'Fair_'
'Earlier_'
'Dutch_'
'Dragan_'
'Democracy_'
'Cypriots_'
'Crvenkovski_'
'Christmas_'
'Chamber_'
'Bush_'
'Bosniaks_'
'About_'
'9th_'
'700_'
'3rd_'
'36_'
'2020_'
'1989_'
' '_'
'јавни_'
'црква_'
'цени_'
'храна_'
'функција_'
'функционира_'
'фудбалски_'
'формирана_'
'фокусираат_'
'училиштата_'
'терористички_'
'тендерот_'
'тело_'
'сцена_'
'стратешки_'
'стапки_'
'социјални_'
'соопштението_'
'создаде_'
'служби_'
'син_'
'сериозен_'
'селото_'
'село_'
'рускиот_'
'романската_'
'ризик_'
'рејтинг_'
'резултатите_'
'разлика_'
'разбирање_'
'работите_'
'работиме_'
'промовирање_'
'провинцијата_'
'привлече_'
'приватизацијата_'
'предвремени_'
'прво_'
'првенство_'
'почна_'
'потпишувањето_'
'потпиша_'
'потврдија_'
'постојано_'
'постигна_'
'постави_'
'последната_'
'посветеност_'
'поднесоа_'
'поврзува_'
'печатот_'
'опозициски_'
'обвинителите_'
'обвиненијата_'
'независна_'
'најголемите_'
'најголемиот_'
'најголема_'
'нашиот_'
'нафта_'
'науки_'
'направат_'
'награда_'
'мојата_'
'млади_'
'мислам_'
'мерка_'
'малку_'
'локални_'
'критикуваше_'
'конфликти_'
'конкретни_'
'клучни_'
'институт_'
'индустрија_'
'изложба_'
'изгради_'
'извршени_'
'извештаите_'
'изборот_'
'знак_'
'здравство_'
'зајакне_'
'затоа_'
'започнување_'
'законите_'
'завршувањето_'
'еднаш_'
'друго_'
'документи_'
'добива_'
'доаѓаат_'
'доаѓа_'
'десно_'
'дадоа_'
'граници_'
'големина_'
'говори_'
'второто_'
'вратат_'
'војската_'
'влезот_'
'види_'
'весникот_'
'ваквиот_'
'важна_'
'бугарски_'
'британскиот_'
'била_'
'банки_'
'албанските_'
'албански_'
'акциите_'
'акции_'
'актуелниот_'
'агенцијата_'
'агенции_'
'Хашим_'
'ФБиХ_'
'Станишев_'
'Софиска_'
'Светската_'
'СДП_'
'Радио_'
'Полска_'
'Пол_'
'Партијата_'
'Овие_'
'Николас_'
'Наташа_'
'Мостар_'
'Молдавија_'
'Многу_'
'Мануел_'
'Луѓето_'
'Локалните_'
'Линда_'
'Карла_'
'Жељко_'
'Експертите_'
'Дури_'
'Дел_'
'Две_'
'ДПМНЕ_'
'Грчкиот_'
'Виена_'
'Баросо_'
'Архива_'
'Американски_'
'Али_'
'Албанскиот_'
'Агенцијата_'
'wrote_'
'words_'
'violations_'
'trip_'
'tough_'
'torture_'
'thing_'
'theatre_'
'teams_'
'submitted_'
'submit_'
'structure_'
'staff_'
'sponsored_'
'spoke_'
'spending_'
'song_'
'solutions_'
'significantly_'
'secret_'
'scientists_'
'scale_'
'sanctions_'
'salary_'
'rich_'
'respondents_'
'respectively_'
'requirement_'
'refused_'
'reconciliation_'
'really_'
'race_'
'provides_'
'provided_'
'prove_'
'proposals_'
'priorities_'
'prior_'
'prepare_'
'pre_'
'polls_'
'politician_'
'players_'
'persons_'
'pass_'
'pace_'
'overcome_'
'oppose_'
'noting_'
'nine_'
'mean_'
'marks_'
'mark_'
'looks_'
'little_'
'lines_'
'let_'
'leaving_'
'kind_'
'kicked_'
'investigations_'
'institution_'
'image_'
'hit_'
'highly_'
'headed_'
'greatest_'
'goods_'
'goes_'
'goals_'
'focused_'
'firms_'
'fire_'
'factory_'
'external_'
'explained_'
'except_'
'evening_'
'equal_'
'encourage_'
'educational_'
'drop_'
'deaths_'
'death_'
'dead_'
'damage_'
'criticism_'
'cover_'
'coup_'
'contest_'
'consequences_'
'communication_'
'comments_'
'claimed_'
'cause_'
'category_'
'carrying_'
'carried_'
'bringing_'
'bg_'
'benefits_'
'assume_'
'assets_'
'assassination_'
'aside_'
'armed_'
'argued_'
'analyst_'
'alternative_'
'agriculture_'
'administrative_'
'acting_'
'Turks_'
'Today_'
'Special_'
'SEE_'
'Rugova_'
'Regional_'
'Rama_'
'Qaeda_'
'Paris_'
'Nikolovski_'
'Natasa_'
'My_'
'Muslims_'
'Museum_'
'Mehmet_'
'League_'
'Ivanovic_'
'Ivan_'
'ICJ_'
'Free_'
'Fena_'
'Experts_'
'Even_'
'EBRD_'
'Dusan_'
'Dnevnik_'
'Day_'
'Daniel_'
'Contact_'
'Construction_'
'China_'
'Championship_'
'Branko_'
'Babacan_'
'75_'
'1980_'
'ѝ_'
'јавната_'
'шверц_'
'шампионат_'
'чин_'
'централа_'
'цената_'
'фирма_'
'финансирање_'
'филмот_'
'филмови_'
'училиште_'
'укинување_'
'убиството_'
'убиени_'
'уапсени_'
'турнеја_'
'теми_'
'судството_'
'судењето_'
'студија_'
'студии_'
'студентите_'
'стотици_'
'стапката_'
'српска_'
'среда_'
'спроведуваат_'
'спроведува_'
'спортски_'
'спорт_'
'спогодба_'
'специјални_'
'сојуз_'
'социјалните_'
'соработуваат_'
'создава_'
'слободна_'
'силен_'
'сериозно_'
'сериозни_'
'сектори_'
'секогаш_'
'самит_'
'реконструкција_'
'реката_'
'режисер_'
'регионален_'
'работничка_'
'работна_'
'противи_'
'протестите_'
'продажбата_'
'пристигна_'
'приклучи_'
'придонес_'
'пречки_'
'пратениците_'
'појави_'
'почне_'
'потпишување_'
'потенцијал_'
'посочи_'
'полициска_'
'покана_'
'поединци_'
'подготвен_'
'пати_'
'партнери_'
'парите_'
'пакет_'
'официјален_'
'отфрлија_'
'отпад_'
'организацијата_'
'општина_'
'опозициска_'
'опиша_'
'операции_'
'одржува_'
'одлучија_'
'одговори_'
'одбор_'
'овозможува_'
'обезбедување_'
'обезбедува_'
'обвинение_'
'нивото_'
'немаше_'
'недостатокот_'
'невработеност_'
'напиша_'
'намалат_'
'назначен_'
'мисии_'
'мировен_'
'мегавати_'
'критериумите_'
'криминалот_'
'косовското_'
'конгрес_'
'клучна_'
'квалитетот_'
'капацитети_'
'искористи_'
'исклучително_'
'извор_'
'извештаи_'
'изборните_'
'затворање_'
'започнаа_'
'западните_'
'заедничките_'
'забрза_'
'економските_'
'единствен_'
'државно_'
'дом_'
'добиваат_'
'добар_'
'дневник_'
'деценија_'
'дебата_'
'движењето_'
'годишнина_'
'годишната_'
'гласаат_'
'вторник_'
'врвот_'
'вниманието_'
'влади_'
'високиот_'
'визниот_'
'босанскиот_'
'бидеме_'
'барање_'
'барањата_'
'банката_'
'балканските_'
'активностите_'
'администрацијата_'
'Чеку_'
'Црното_'
'Целта_'
'ЦХП_'
'Хуријет_'
'Христофиас_'
'ХДЗ_'
'Филип_'
'УПИ_'
'Турските_'
'Радиќ_'
'Проектот_'
'Помеѓу_'
'Петерсен_'
'ПАСОК_'
'Нови_'
'Никозија_'
'Мустафа_'
'Меѓу_'
'МСП_'
'Клинтон_'
'Карадаку_'
'КараYиќ_'
'Интернет_'
'Има_'
'Земјите_'
'Затоа_'
'Жозе_'
'Досега_'
'До_'
'Дејтонскиот_'
'Демократска_'
'Двајцата_'
'ДДВ_'
'Голем_'
'Вујановиќ_'
'Буш_'
'Бучковски_'
'Блискиот_'
'Ајхан_'
'Америка_'
'Јужна_'
'Јесен_'
'ЈИЕ_'
'worst_'
'witness_'
'winning_'
'widely_'
'website_'
'voted_'
'violent_'
'views_'
'video_'
've_'
'urban_'
'upcoming_'
'turnout_'
'turned_'
'trust_'
'trials_'
'transportation_'
'task_'
'target_'
'talk_'
'sure_'
'supply_'
'structural_'
'stronger_'
'strengthening_'
'speak_'
'sovereignty_'
'source_'
'shows_'
'serving_'
'seriously_'
'self_'
'section_'
'satisfied_'
'returned_'
'reporting_'
'relationship_'
'regular_'
'regardless_'
'refugees_'
'refugee_'
'recognition_'
'reactions_'
'rating_'
'ranks_'
'raise_'
'quite_'
'quickly_'
'proof_'
'produce_'
'procedures_'
'preparations_'
'practice_'
'percentage_'
'participated_'
'owners_'
'outstanding_'
'organise_'
'option_'
'opens_'
'obstacle_'
'nationalist_'
'named_'
'moved_'
'monitoring_'
'loss_'
'limited_'
'leads_'
'introduction_'
'inside_'
'initiatives_'
'incidents_'
'improving_'
'identified_'
'hosted_'
'host_'
'honour_'
'heritage_'
'helping_'
'healthcare_'
'guarantees_'
'genocide_'
'gathered_'
'gained_'
'finding_'
'films_'
'families_'
'export_'
'expectations_'
'exist_'
'estimates_'
'equipment_'
'ensuring_'
'effectively_'
'easily_'
'dropped_'
'double_'
'doors_'
'doesn_'
'directed_'
'differences_'
'difference_'
'determine_'
'delay_'
'defined_'
'decide_'
'decade_'
'committee_'
'choose_'
'carry_'
'care_'
'body_'
'bill_'
'beyond_'
'below_'
'band_'
'awareness_'
'austerity_'
'attract_'
'attend_'
'arrangement_'
'argues_'
'adoption_'
'addressed_'
'active_'
'actions_'
'Zaman_'
'Vojvodina_'
'Vladimir_'
'Their_'
'Syrian_'
'Slovenian_'
'Relations_'
'Protection_'
'Professor_'
'Paul_'
'PSD_'
'PDK_'
'PASOK_'
'Other_'
'Opposition_'
'Nikolic_'
'Nevertheless_'
'Network_'
'Milososki_'
'Lajcak_'
'Krasniqi_'
'Karamanlis_'
'Fuele_'
'Director_'
'Diplomatic_'
'Democrats_'
'Daily_'
'DNA_'
'City_'
'Blic_'
'Banja_'
'Ban_'
'Another_'
'Aleksandar_'
'Africa_'
'Afghanistan_'
'Academy_'
'?" _'
'81_'
'62_'
'58_'
'42_'
'23rd_'
'јасна_'
'шансите_'
'централно_'
'целта_'
'функционери_'
'форум_'
'фестивалот_'
'училишта_'
'учесниците_'
'успешно_'
'уследи_'
'уметници_'
'увоз_'
'туризам_'
'тешка_'
'тензиите_'
'телефонски_'
'телеком_'
'тела_'
'театар_'
'суштинска_'
'сума_'
'страници_'
'ставање_'
'српското_'
'спроведена_'
'способност_'
'спор_'
'социјалистите_'
'соседните_'
'соседна_'
'слободни_'
'серија_'
'северниот_'
'решението_'
'републиката_'
'разгледува_'
'разбира_'
'процеси_'
'проценка_'
'просек_'
'програми_'
'приходи_'
'природен_'
'претседателските_'
'предизвиците_'
'предизвикува_'
'православна_'
'правни_'
'почитуваат_'
'потекло_'
'последици_'
'после_'
'посебно_'
'покрива_'
'покани_'
'позиции_'
'податоците_'
'поголеми_'
'повикаа_'
'побргу_'
'парламентарната_'
'очекуваме_'
'официјалната_'
'остануваат_'
'одржаа_'
'одреди_'
'оддел_'
'одби_'
'обнова_'
'обвинителството_'
'обвиненија_'
'обвинението_'
'новото_'
'никакви_'
'неопходни_'
'неодамнешните_'
'неодамнешниот_'
'нелегално_'
'началникот_'
'натпреварот_'
'наследство_'
'насилството_'
'народна_'
'наречена_'
'наоfа_'
'муслимани_'
'мост_'
'можни_'
'можеше_'
'мобилни_'
'мнозинството_'
'министерка_'
'мандатот_'
'мажите_'
'линии_'
'куп_'
'критики_'
'критериуми_'
'крие_'
'консензус_'
'конечно_'
'комунистички_'
'комитет_'
'капитал_'
'каков_'
'казни_'
'каже_'
'истражувања_'
'истакнаа_'
'исполнувањето_'
'интересите_'
'институција_'
'иницијативи_'
'иницијативата_'
'имплементација_'
'имотот_'
'имиџот_'
'имиња_'
'изминатиот_'
'изграден_'
'избегне_'
'идните_'
'знаење_'
'злоупотреба_'
'злосторници_'
'здравството_'
'збор_'
'зајакнат_'
'задача_'
'загинаа_'
'загарантира_'
'животната_'
'жал_'
'енергетските_'
'енергетскиот_'
'експерт_'
'документот_'
'документ_'
'дозволува_'
'дневниот_'
'дестинација_'
'десетте_'
'демократските_'
'дело_'
'декларација_'
'данок_'
'грчките_'
'големо_'
'годишна_'
'годишен_'
'годинава_'
'гласање_'
'геноцид_'
'гаранции_'
'вториот_'
'всушност_'
'врските_'
'воспоставување_'
'воспостави_'
'воопшто_'
'вода_'
'владеењето_'
'вклучуваат_'
'вистински_'
'високите_'
'висока_'
'ветија_'
'ветеран_'
'ваква_'
'важни_'
'бугарските_'
'босански_'
'апсењето_'
'аналитичари_'
'албанскиот_'
'автономија_'
'автомобил_'
'Шимшек_'
'Централната_'
'Хрвати_'
'Хасани_'
'Учесниците_'
'Украина_'
'Стејт_'
'Социјалистичката_'
'СоЕ_'
'Светски_'
'Романската_'
'Резултатите_'
'Разговорите_'
'Посетата_'
'ПДК_'
'Олимпијадата_'
'Одлуката_'
'ОХР_'
'Новата_'
'Мораме_'
'Мислам_'
'Милорад_'
'Меѓународен_'
'Луксембург_'
'Лаура_'
'Ксинхуа_'
'Конференцијата_'
'Калин_'
'Израел_'
'Извештајот_'
'Ивица_'
'Иванов_'
'Ибрахим_'
'ЕБРД_'
'Драшковиќ_'
'Дипломатски_'
'Де_'
'ДУИ_'
'Грчката_'
'Говорејќи_'
'Водачите_'
'В_'
'Антонио_'
'Ал_'
'А_'
'Јужен_'
'writer_'
'worldwide_'
'wins_'
'willing_'
'widespread_'
'villages_'
'verdict_'
'users_'
'unilateral_'
'unemployed_'
'turn_'
'treated_'
'transferred_'
'tournament_'
'threatened_'
'territorial_'
'tells_'
'television_'
'tackle_'
'systems_'
'supposed_'
'sufficient_'
'stay_'
'statistics_'
'stance_'
'spirit_'
'southern_'
'sold_'
'smoking_'
'ski_'
'simple_'
'separate_'
'sentences_'
'seeks_'
'secondary_'
'season_'
'salaries_'
'rising_'
'responsibilities_'
'require_'
'representing_'
'remained_'
'regard_'
'reducing_'
'recommendations_'
'readiness_'
'ranking_'
'provisions_'
'prosperity_'
'profit_'
'producers_'
'principle_'
'presidents_'
'preparing_'
'poverty_'
'pollution_'
'placed_'
'phone_'
'parents_'
'pact_'
'organising_'
'operating_'
'obtaining_'
'obtain_'
'obstacles_'
'obligation_'
'objectives_'
'numerous_'
'normal_'
'net_'
'municipality_'
'municipal_'
'moderate_'
'militants_'
'meetings_'
'meant_'
'massacre_'
'man_'
'letter_'
'larger_'
'kWh_'
'isolation_'
'involving_'
'internet_'
'inflation_'
'incident_'
'improvement_'
'impose_'
'imports_'
'immigrants_'
'hundreds_'
'hoped_'
'himself_'
'handle_'
'guests_'
'guarantee_'
'ground_'
'functioning_'
'fugitives_'
'fugitive_'
'fraud_'
'focusing_'
'floods_'
'famous_'
'factor_'
'facility_'
'faced_'
'exports_'
'expects_'
'expansion_'
'everyone_'
'entities_'
'enormous_'
'ends_'
'endorsed_'
'edition_'
'eastern_'
'drive_'
'doctor_'
'directors_'
'direction_'
'diplomats_'
'developments_'
'destruction_'
'designed_'
'department_'
'delayed_'
'dedicated_'
'dangerous_'
'controversy_'
'contracts_'
'considerable_'
'consensus_'
'confident_'
'conclusion_'
'comprehensive_'
'competing_'
'competencies_'
'collective_'
'coach_'
'club_'
'claim_'
'chosen_'
'choice_'
'chances_'
'centres_'
'cards_'
'broad_'
'bomb_'
'blocked_'
'bigger_'
'bids_'
'believed_'
'ban_'
'audience_'
'athletes_'
'asking_'
'arrival_'
'arms_'
'amid_'
'always_'
'allegations_'
'adopt_'
'accusations_'
'Young_'
'Valentin_'
'Switzerland_'
'Swiss_'
'Stream_'
'Staff_'
'Sergey_'
'SDSM_'
'Romanians_'
'Robert_'
'Report_'
'Radic_'
'Presidency_'
'Portugal_'
'PfP_'
'Petar_'
'Parvanov_'
'Palestinian_'
'Officials_'
'North_'
'Muhamet_'
'Moldova_'
'Michael_'
'Local_'
'Laura_'
'Japan_'
'Israel_'
'Islam_'
'Ireland_'
'Internet_'
'IT_'
'Hasani_'
'HINA_'
'Guardian_'
'Greeks_'
'Georgi_'
'Gazprom_'
'Eurozone_'
'Eastern_'
'Do_'
'Diary_'
'DP_'
'Currently_'
'Costas_'
'Constitutional_'
'Christofias_'
'Christian_'
'CNN_'
'Bozidar_'
'Authorities_'
'Austrian_'
'Arts_'
'Arab_'
'Adriatic_'
'64_'
'56_'
'46_'
'39_'
'33_'
'2nd_'
'2m_'
'југословенски_'
'јасен_'
'јавното_'
'јавен_'
'штета_'
'штедење_'
'човек_'
'чии_'
'често_'
'чекаат_'
'чека_'
'форма_'
'финансиската_'
'фактор_'
'факт_'
'успее_'
'успеаја_'
'усвојување_'
'усвоен_'
'управувањето_'
'улиците_'
'ужива_'
'туристи_'
'тројца_'
'трошоците_'
'трка_'
'трета_'
'транзиција_'
'тешки_'
'технологијата_'
'тест_'
'тесно_'
'тендер_'
'театарски_'
'тата_'
'таква_'
'судии_'
'струја_'
'стратегијата_'
'страницата_'
'сториме_'
'стенд_'
'стапи_'
'ставови_'
'стабилна_'
'спротивно_'
'состојбата_'
'соочат_'
'сокак_'
'согласуваат_'
'советот_'
'собраа_'
'семејството_'
'семејствата_'
'седницата_'
'седиштето_'
'сегашните_'
'северот_'
'сè_'
'романските_'
'решат_'
'решавањето_'
'регионална_'
'рангираше_'
'радио_'
'работниците_'
'процедури_'
'професор_'
'произлегуваат_'
'производството_'
'продолжува_'
'притвор_'
'пристаниште_'
'призна_'
'придонесе_'
'придвижи_'
'претставата_'
'претседателски_'
'престојните_'
'преседан_'
'премин_'
'предизвикаа_'
'почитува_'
'поттик_'
'последна_'
'пораст_'
'пораки_'
'порази_'
'популација_'
'покаже_'
'поглавја_'
'повтори_'
'плановите_'
'персоналот_'
'пакетот_'
'откри_'
'остварување_'
'општеството_'
'опрема_'
'операција_'
'оператор_'
'одобрение_'
'одобрен_'
'објекти_'
'објавени_'
'обврските_'
'обврзници_'
'нивно_'
'неодамнешната_'
'некогаш_'
'негативно_'
'невработеноста_'
'најдат_'
'највисоките_'
'најбарани_'
'нафтовод_'
'насока_'
'напушти_'
'намалува_'
'назад_'
'надмине_'
'надлежности_'
'надеваме_'
'наведувајќи_'
'мрежи_'
'мрежата_'
'моќ_'
'милијарда_'
'меѓународно_'
'меѓународниот_'
'месечно_'
'мера_'
'мене_'
'македонското_'
'локална_'
'лицата_'
'легислативата_'
'легислатива_'
'куќи_'
'критикуваа_'
'кредити_'
'конкуренција_'
'компромис_'
'компанија_'
'комисијата_'
'коалицијата_'
'карти_'
'кандидатура_'
'источна_'
'историски_'
'историска_'
'исполнува_'
'искористат_'
'инцидентот_'
'инциденти_'
'интернет_'
'интегритет_'
'инвестиција_'
'имунитет_'
'имало_'
'изразија_'
'изгледите_'
'идниот_'
'идејата_'
'идеи_'
'земјоделство_'
'зголемен_'
'засега_'
'закани_'
'заинтересирани_'
'загуби_'
'загрижени_'
'завршување_'
'жена_'
'есен_'
'експертите_'
'економист_'
'единствена_'
'единици_'
'европскиот_'
'државјанство_'
'дојдоа_'
'дополнително_'
'долго_'
'доказ_'
'додава_'
'добивање_'
'дневен_'
'дискусии_'
'големиот_'
'годишнината_'
'говор_'
'генерали_'
'вреден_'
'враќаое_'
'вработените_'
'внимание_'
'внатрешните_'
'влијанието_'
'видови_'
'верувам_'
'верските_'
'буџетски_'
'буџетот_'
'бугарското_'
'бројки_'
'бродови_'
'борат_'
'бизнисот_'
'бај_'
'барањето_'
'барања_'
'банките_'
'база_'
'анкетите_'
'албанското_'
'албанската_'
'албанска_'
'актер_'
'аеродромот_'
'агенда_'
'Холандија_'
'Харис_'
'Фондот_'
'Турската_'
'Спогодбата_'
'Сергеј_'
'Светското_'
'Светскиот_'
'Ругова_'
'Путин_'
'Процесот_'
'Потоа_'
'Поранешниот_'
'Плус_'
'Петар_'
'Партнерство_'
'Охрид_'
'Неговата_'
'Небојша_'
'Националната_'
'Настасе_'
'Мирослав_'
'Минатиот_'
'Меѓутоа_'
'Меѓународните_'
'Меfународниот_'
'Марија_'
'Косор_'
'Комшиќ_'
'Комисија_'
'Комесарот_'
'Истражувањето_'
'Истото_'
'Здружението_'
'Законот_'
'Заедно_'
'Друг_'
'Драч_'
'Драган_'
'Дојче_'
'Документот_'
'ДСА_'
'Градоначалникот_'
'Георгиев_'
'Генералниот_'
'Гадафи_'
'Владимир_'
'Високиот_'
'Бургас_'
'Божидар_'
'Би_'
'Басеску_'
'Бан_'
'Анте_'
'Аналитичарите_'
'АКИ_'
'Џон_'
'Ѓелиќ_'
'witnesses_'
'withdrew_'
'vulnerable_'
'vital_'
'visiting_'
'viewed_'
'vehicles_'
'urgent_'
'unknown_'
'units_'
'unique_'
'twice_'
'trend_'
'transformation_'
'tourist_'
'topics_'
'terror_'
'tension_'
'tennis_'
'tasks_'
'targets_'
'sustainable_'
'suspect_'
'surprise_'
'suggest_'
'successfully_'
'substantial_'
'street_'
'stood_'
'square_'
'spokesperson_'
'speaks_'
'speaker_'
'solid_'
'smuggling_'
'sites_'
'singer_'
'shut_'
'showing_'
'sense_'
'send_'
'score_'
'saw_'
'runs_'
'running_'
'rotating_'
'roads_'
'revenues_'
'reunification_'
'resigned_'
'requests_'
'replaced_'
'relevant_'
'ranked_'
'purchase_'
'protesters_'
'protected_'
'properly_'
'professor_'
'prize_'
'principal_'
'primarily_'
'preventing_'
'prefer_'
'powers_'
'perspective_'
'origin_'
'organisers_'
'ordination_'
'operator_'
'officer_'
'offers_'
'offering_'
'nurses_'
'newly_'
'multiethnic_'
'monopoly_'
'monetary_'
'model_'
'mid_'
'mayor_'
'maintained_'
'looking_'
'lists_'
'largely_'
'judge_'
'invitation_'
'investigated_'
'investigate_'
'invested_'
'inter_'
'instability_'
'initially_'
'indicated_'
'index_'
'incumbent_'
'impossible_'
'illegally_'
'housing_'
'hour_'
'hoping_'
'historical_'
'highway_'
'happened_'
'governance_'
'giving_'
'generals_'
'gave_'
'frequent_'
'formed_'
'finally_'
'fields_'
'feature_'
'favours_'
'falls_'
'fails_'
'extremely_'
'explains_'
'expand_'
'executive_'
'establishing_'
'environmental_'
'encouraging_'
'eligible_'
'easy_'
'easier_'
'earmarked_'
'duties_'
'downtown_'
'donors_'
'division_'
'district_'
'directly_'
'developing_'
'desire_'
'deputies_'
'demonstrators_'
'demonstrations_'
'demonstrated_'
'demands_'
'delays_'
'definitely_'
'defendants_'
'counter_'
'convicted_'
'considering_'
'concerts_'
'commercial_'
'command_'
'combating_'
'com_'
'closely_'
'church_'
'child_'
'chemical_'
'chapters_'
'celebrated_'
'career_'
'capacities_'
'capable_'
'camp_'
'businessmen_'
'bronze_'
'broke_'
'boycott_'
'becomes_'
'bad_'
'attending_'
'attempts_'
'argue_'
'appointed_'
'apparent_'
'ancient_'
'alone_'
'affect_'
'achieving_'
'accounts_'
'accelerate_'
'absence_'
'Zeljko_'
'Xinhua_'
'Vice_'
'VMRO_'
'VAT_'
'UPI_'
'UNDP_'
'Transparency_'
'Theatre_'
'Syria_'
'Stipe_'
'Still_'
'Spanish_'
'Slovakia_'
'Service_'
'Scheffer_'
'Sarkozy_'
'Roundup_'
'Rasim_'
'Ramadan_'
'Programme_'
'Prague_'
'Popescu_'
'Ottoman_'
'Organised_'
'Northern_'
'Nine_'
'Nano_'
'Nabucco_'
'Movement_'
'Miroslav_'
'Milovanovic_'
'Merkel_'
'Marovic_'
'MP_'
'London_'
'LDK_'
'Kosor_'
'KSF_'
'Jose_'
'Joint_'
'Israeli_'
'Iranian_'
'Inzko_'
'Investment_'
'Hoop_'
'Herald_'
'Frank_'
'Four_'
'Foundation_'
'Euobserver_'
'Cultural_'
'Croats_'
'Catholic_'
'CHP_'
'Borisov_'
'Bojana_'
'Belgium_'
'Before_'
'Asia_'
'Armed_'
'Analysts_'
'Addressing_'
'ANA_'
'900_'
'78_'
'73_'
'44_'
'29th_'
'130_'
'.), _'
','' _'
', [_'
'“ -- _'
'јасни_'
'чувствуваат_'
'четирите_'
'честопати_'
'црногорскиот_'
'цигари_'
'цивилна_'
'целото_'
'хрватска_'
'хералд_'
'функционираат_'
'фокусот_'
'фирми_'
'финансиските_'
'финалето_'
'фактори_'
'учесници_'
'успешна_'
'успехот_'
'уништување_'
'улогата_'
'турско_'
'туристичка_'
'тројцата_'
'третото_'
'тренд_'
'транспортот_'
'то_'
'тероризам_'
'судовите_'
'судир_'
'структура_'
'станица_'
'ставот_'
'справување_'
'специјален_'
'состане_'
'сопствени_'
'сомневање_'
'соберат_'
'смртта_'
'сметка_'
'сметам_'
'словенечкиот_'
'ситуации_'
'симбол_'
'силно_'
'силни_'
'серијата_'
'сериозна_'
'секторот_'
'северна_'
'себеси_'
'своја_'
'свои_'
'светски_'
'самите_'
'самиот_'
'ромските_'
'ризикот_'
'речиси_'
'ресурси_'
'рацете_'
'рамка_'
'раководство_'
'размена_'
'различните_'
'профит_'
'протест_'
'промените_'
'пролет_'
'проектите_'
'притисокот_'
'присуствуваше_'
'приказна_'
'признае_'
'приватните_'
'приватниот_'
'претседава_'
'предупредување_'
'предупредува_'
'предвремените_'
'преговара_'
'првото_'
'првенствено_'
'прашаоа_'
'пратеник_'
'правна_'
'почнаа_'
'потрошувачите_'
'потреби_'
'потребен_'
'потрагата_'
'потегот_'
'постигнаа_'
'постапки_'
'постапка_'
'посилна_'
'поранешни_'
'поранешната_'
'пописот_'
'понеделник_'
'понатамошни_'
'понатамошен_'
'помошта_'
'помошник_'
'помина_'
'полноправна_'
'политичар_'
'полесно_'
'позитивна_'
'поздравија_'
'подготвува_'
'подготвеноста_'
'повици_'
'повик_'
'победата_'
'плашат_'
'планината_'
'петок_'
'патуваат_'
'падна_'
'отворија_'
'отворено_'
'осумте_'
'осудени_'
'остров_'
'остатокот_'
'останатите_'
'основните_'
'ослободи_'
'осигурување_'
'осигури_'
'оружјето_'
'опција_'
'опишувајќи_'
'олеснување_'
'одржувањето_'
'однесуваат_'
'одложување_'
'одложи_'
'одделни_'
'одговара_'
'овластување_'
'обраќање_'
'обично_'
'обвинителка_'
'новинската_'
'неодамнешното_'
'немири_'
'независно_'
'независен_'
'негова_'
'негираше_'
'начините_'
'начини_'
'националниот_'
'научни_'
'напад_'
'наменети_'
'надеваат_'
'наведе_'
'набљудувачи_'
'н_'
'можностите_'
'можете_'
'мислеое_'
'министерството_'
'меѓусебно_'
'меfународен_'
'масакрот_'
'малцинските_'
'лично_'
'лични_'
'лична_'
'купувањето_'
'купување_'
'купи_'
'културните_'
'кризи_'
'контингент_'
'компјутерски_'
'командантот_'
'книгата_'
'клима_'
'кипарскиот_'
'килограми_'
'кандидатски_'
'кампот_'
'каква_'
'исполнети_'
'инфраструктурата_'
'инсистираше_'
'инсистираат_'
'инсистира_'
'инвеститорите_'
'имигранти_'
'изминативе_'
'изложбата_'
'издание_'
'изградат_'
'изврши_'
'извозот_'
'значајни_'
'значајна_'
'знаци_'
'зборови_'
'залага_'
'законски_'
'забраната_'
'забрана_'
'забавни_'
'животи_'
'ентитетот_'
'енергијата_'
'електричната_'
'единствената_'
'еврото_'
'еврозоната_'
'евентуалните_'
'дотурот_'
'долгот_'
'долгови_'
'дозвола_'
'довербата_'
'дипломатските_'
'дипломати_'
'дипломат_'
'дестинации_'
'демонстранти_'
'делегацијата_'
'двојно_'
'движи_'
'даноци_'
'даваат_'
'гради_'
'големината_'
'говорот_'
'гигант_'
'гасоводот_'
'втора_'
'враќање_'
'вработување_'
'волјата_'
'возраст_'
'водечки_'
'воведување_'
'воведе_'
'владите_'
'владините_'
'вицепремиерот_'
'високото_'
'вечери_'
'вечер_'
'верски_'
'вашата_'
'вас_'
'валута_'
'брани_'
'богатство_'
'блиска_'
'билатералната_'
'бизнисмени_'
'барем_'
'амбасадорот_'
'алтернатива_'
'академија_'
'Чешка_'
'Харадинај_'
'ФТ_'
'Турците_'
'Судот_'
'Ситуацијата_'
'Силајџиќ_'
'Сакаме_'
'Сад_'
'СДСМ_'
'Ромите_'
'Роберт_'
'РеYеп_'
'Рајс_'
'Рама_'
'Проди_'
'Првата_'
'Попеску_'
'Политичарите_'
'Повеќето_'
'Парванов_'
'ПСД_'
'Оттогаш_'
'Нов_'
'Неколку_'
'Неговото_'
'Нашата_'
'Напредокот_'
'Набуко_'
'Мухамет_'
'Моментно_'
'Министрите_'
'Мета_'
'Марковиќ_'
'Македонскиот_'
'Лондон_'
'Курдите_'
'Косовското_'
'Контакт_'
'Кариќ_'
'Истакнувајќи_'
'Ирска_'
'Индија_'
'Илиќ_'
'Изјавата_'
'Западна_'
'Заменик_'
'Живковиќ_'
'Жан_'
'Египет_'
'Дунав_'
'Директорот_'
'Деметрис_'
'Даниел_'
'Давутоглу_'
'ДПС_'
'Грузија_'
'Граѓаните_'
'Георги_'
'Генералштабот_'
'Г17_'
'Водачот_'
'Валона_'
'Бугарите_'
'Блумберг_'
'Без_'
'Барбутов_'
'Банката_'
'Бакојани_'
'Ангела_'
'Јосиповиќ_'
'Јап_'
'zones_'
'woman_'
'winner_'
'wake_'
'waiting_'
'wages_'
'voter_'
'visits_'
'violation_'
'via_'
'urging_'
'urges_'
'urge_'
'university_'
'unite_'
'understand_'
'unacceptable_'
'unable_'
'type_'
'trends_'
'treaty_'
'transit_'
'transfer_'
'tradition_'
'tied_'
'temporary_'
'telephone_'
'taxes_'
'tasked_'
'suicide_'
'sugar_'
'suffering_'
'student_'
'south_'
'size_'
'sixth_'
'sharing_'
'shared_'
'severe_'
'semi_'
'secure_'
'sea_'
'scene_'
'satisfy_'
'sales_'
'rural_'
'ruled_'
'room_'
'riots_'
'revenue_'
'resulted_'
'restructuring_'
'resort_'
'representation_'
'replace_'
'reduction_'
'reduced_'
'red_'
'reactors_'
'purpose_'
'proved_'
'protocol_'
'protecting_'
'proper_'
'proceedings_'
'procedure_'
'prevented_'
'postponed_'
'pose_'
'ports_'
'port_'
'poetry_'
'plays_'
'personnel_'
'performed_'
'pension_'
'penal_'
'paying_'
'outlook_'
'ordered_'
'optimistic_'
'occurred_'
'neither_'
'multi_'
'mountain_'
'modernisation_'
'minutes_'
'ministries_'
'metres_'
'mechanism_'
'material_'
'matches_'
'margin_'
'manner_'
'mainly_'
'love_'
'losses_'
'listed_'
'links_'
'linked_'
'link_'
'legitimate_'
'learn_'
'kinds_'
'kept_'
'jail_'
'investing_'
'interim_'
'intention_'
'initiated_'
'increasingly_'
'increases_'
'imposed_'
'import_'
'hurdle_'
'humanitarian_'
'hotels_'
'hotel_'
'hosts_'
'green_'
'gang_'
'fund_'
'founder_'
'formally_'
'forget_'
'fled_'
'flat_'
'firmly_'
'finished_'
'financed_'
'filed_'
'file_'
'fifth_'
'favourable_'
'fast_'
'fashion_'
'facts_'
'extradition_'
'everywhere_'
'evaluation_'
'eurozone_'
'essential_'
'envisions_'
'entered_'
'enjoy_'
'ending_'
'enable_'
'emphasised_'
'elements_'
'electronic_'
'electoral_'
'elect_'
'efficient_'
'effects_'
'economist_'
'earthquake_'
'drew_'
'doctors_'
'displaced_'
'discussion_'
'difficulties_'
'destroyed_'
'demonstrate_'
'demanding_'
'defend_'
'deep_'
'danger_'
'cuts_'
'customers_'
'creating_'
'covers_'
'covered_'
'corrupt_'
'contribute_'
'context_'
'consumption_'
'consumers_'
'constructive_'
'constant_'
'conservative_'
'congress_'
'conduct_'
'condition_'
'conclude_'
'concept_'
'completion_'
'compensation_'
'coast_'
'closure_'
'chaos_'
'changing_'
'centuries_'
'celebrations_'
'cars_'
'capture_'
'capita_'
'campaigns_'
'buying_'
'broader_'
'bought_'
'boosting_'
'books_'
'beat_'
'bear_'
'bars_'
'attempt_'
'arguing_'
'anything_'
'anyone_'
'announcement_'
'ambassador_'
'although_'
'allowing_'
'agricultural_'
'afraid_'
'advisory_'
'admission_'
'adds_'
'addressing_'
'actors_'
'activity_'
'acknowledged_'
'achievement_'
'accompanied_'
'acceptable_'
'above_'
'Youth_'
'Within_'
'Vlado_'
'Tribune_'
'Treaty_'
'Three_'
'Tetovo_'
'Sweden_'
'Svetozar_'
'Strasbourg_'
'Stanishev_'
'Southeastern_'
'Socialists_'
'Several_'
'Sciences_'
'River_'
'Rice_'
'Rexhepi_'
'Red_'
'Razvan_'
'Racan_'
'Predrag_'
'Policy_'
'Palace_'
'Over_'
'Organisation_'
'Novi_'
'Norway_'
'Nis_'
'Nimetz_'
'Mostar_'
'Mirko_'
'Mircea_'
'Ministers_'
'Milan_'
'Meta_'
'Media_'
'Marija_'
'Manuel_'
'Makfax_'
'Lisbon_'
'Leaders_'
'Komsic_'
'King_'
'Ki_'
'Journal_'
'John_'
'Its_'
'ID_'
'House_'
'Health_'
'Haradinaj_'
'Gates_'
'Gaddafi_'
'Forum_'
'Foniqi_'
'Five_'
'Finland_'
'Facebook_'
'FIFA_'
'Embassy_'
'Election_'
'Echo_'
'Durres_'
'Due_'
'Djelic_'
'Directorate_'
'Deutsche_'
'Dan_'
'DS_'
'DPMNE_'
'Coalition_'
'Club_'
'Civil_'
'Catherine_'
'Calin_'
'Buckovski_'
'Brcko_'
'Brajshori_'
'Boyko_'
'Board_'
'Blerta_'
'Berlin_'
'Beijing_'
'Because_'
'Australia_'
'Anti_'
'Ante_'
'Airport_'
'?"_'
'98_'
'85_'
'77_'
'750_'
'6m_'
'66_'
'49_'
'48_'
'31st_'
'301_'
'2014_'
'1993_'
'." _'
'- _'
'“_'
'јаз_'
'јавност_'
'шверцот_'
'чиј_'
'чинеше_'
'четврток_'
'четвртиот_'
'чело_'
'часот_'
'црногорските_'
'цркви_'
'цивили_'
'целите_'
'фотографијата_'
'фотографии_'
'формирањето_'
'фискална_'
'фински_'
'факултет_'
'учеството_'
'устав_'
'успееме_'
'услугите_'
'усвојувањето_'
'усвоена_'
'употребата_'
'употреба_'
'уништени_'
'удел_'
'убиство_'
'убиствата_'
'убиства_'
'турска_'
'турнир_'
'трибјун_'
'третман_'
'трендови_'
'требало_'
'трговските_'
'тони_'
'тимови_'
'тешкотии_'
'техничките_'
'територијата_'
'територијалниот_'
'тензии_'
'телефони_'
'телекомуникации_'
'тврдејќи_'
'тврдат_'
'тајна_'
'таков_'
'т_'
'стратешко_'
'стои_'
'станат_'
'ставени_'
'стават_'
'среќа_'
'средствата_'
'спротивставуваат_'
'спротивставија_'
'состаноци_'
'составен_'
'сопствениците_'
'соодветно_'
'сокакот_'
'содржи_'
'согласува_'
'смисла_'
'сметки_'
'слободно_'
'слика_'
'следење_'
'сиромаштија_'
'сервис_'
'седумте_'
'сегашниот_'
'свеста_'
'санкции_'
'сакате_'
'саем_'
'ротирачкото_'
'роден_'
'решени_'
'резолуција_'
'регулативи_'
'региони_'
'регионални_'
'реалноста_'
'реалност_'
'расправа_'
'располагање_'
'ранг_'
'работодавачите_'
'работните_'
'проширувањето_'
'протоколот_'
'пронајдени_'
'продолжија_'
'приходите_'
'пристаништа_'
'припадниците_'
'прилично_'
'прикажани_'
'привлекување_'
'приватна_'
'претседателската_'
'претвори_'
'пресуда_'
'пренос_'
'прекине_'
'прекин_'
'преземање_'
'преземаат_'
'предупредуваат_'
'предложениот_'
'предвидуваат_'
'предавањето_'
'преговарачки_'
'прашуваат_'
'правилата_'
'почина_'
'потребна_'
'потпише_'
'постојните_'
'постигнеме_'
'последно_'
'посетители_'
'портпарол_'
'понуда_'
'помирување_'
'помали_'
'политичко_'
'позитивен_'
'подобрувањето_'
'подобруваое_'
'подготовките_'
'погрешно_'
'повторување_'
'повредени_'
'повисока_'
'повикувајќи_'
'плаќаат_'
'писмото_'
'перспектива_'
'персонал_'
'пензиите_'
'патиштата_'
'партиите_'
'падот_'
'очекуваше_'
'офицери_'
'отворат_'
'остварувањето_'
'остана_'
'осомничен_'
'организирана_'
'организациите_'
'општините_'
'опозиција_'
'опозициската_'
'опасност_'
'онаа_'
'олимписки_'
'одржување_'
'одигра_'
'одговорни_'
'одговорна_'
'ограничувања_'
'објаснувајќи_'
'објавено_'
'обелодени_'
'обезбедени_'
'обврска_'
'обвинува_'
'обвинители_'
'нивна_'
'нестабилност_'
'нелегални_'
'негативна_'
'невладини_'
'најдобра_'
'наша_'
'национални_'
'науките_'
'натпревари_'
'настапи_'
'настаните_'
'нарекува_'
'напуштат_'
'направија_'
'направени_'
'напор_'
'намери_'
'надежите_'
'надворешната_'
'наводна_'
'музеј_'
'мојот_'
'мораме_'
'моите_'
'можна_'
'модернизација_'
'модел_'
'мировните_'
'министерствата_'
'министерства_'
'минато_'
'медиумска_'
'медали_'
'меfународни_'
'меfувреме_'
'мајка_'
'маркетинг_'
'малцинство_'
'малите_'
'мал_'
'ма_'
'локации_'
'локалниот_'
'либискиот_'
'летото_'
'куќата_'
'куќа_'
'културно_'
'криминални_'
'крајбрежје_'
'користејќи_'
'конфликтите_'
'конкурентност_'
'конвенција_'
'компании_'
'квадратни_'
'категоријата_'
'категорија_'
'карта_'
'капацитетот_'
'канцелар_'
'кажам_'
'кадар_'
'кабинетот_'
'истрагата_'
'исламски_'
'интервјуто_'
'индустријата_'
'инвестициите_'
'имунитетот_'
'имале_'
'износ_'
'изминатата_'
'измените_'
'излезе_'
'излегоа_'
'избра_'
'идната_'
'идентификација_'
'играч_'
'игра_'
'зони_'
'зоната_'
'значителен_'
'значење_'
'знае_'
'злосторствата_'
'земјиштето_'
'зголемија_'
'зголемат_'
'зборуваме_'
'зајакнувањето_'
'заштити_'
'засили_'
'започнува_'
'западниот_'
'замрзна_'
'заклучува_'
'заедницата_'
'задржат_'
'загрозена_'
'завршува_'
'завршена_'
'забрзување_'
'забележа_'
'жителите_'
'жестоко_'
'ефект_'
'етничката_'
'ентитети_'
'енергетската_'
'електронски_'
'екстрадиција_'
'евроатланска_'
'евентуално_'
'државјани_'
'драстично_'
'достигне_'
'допрва_'
'донесат_'
'домашниот_'
'документите_'
'доведува_'
'дискусија_'
'децении_'
'дете_'
'дводневна_'
'двапати_'
'датумот_'
'гувернерот_'
'грчко_'
'градоначалникот_'
'гледаме_'
'гласаше_'
'гласачи_'
'гласа_'
'глас_'
'гасовод_'
'гарантира_'
'врши_'
'вршат_'
'враќањето_'
'воспоставувањето_'
'вооружени_'
'воената_'
'водењето_'
'водечките_'
'внимателно_'
'владејачка_'
'вкупниот_'
'вклучување_'
'вклучи_'
'високата_'
'визната_'
'видео_'
'вето_'
'веруваме_'
'вежба_'
'важи_'
'буџетскиот_'
'бојкот_'
'благодарение_'
'бегство_'
'атентатот_'
'аспекти_'
'аргументи_'
'анкета_'
'англиски_'
'аналитичарите_'
'ал_'
'актуелните_'
'автоматски_'
'авиони_'
'Шчепановиќ_'
'Шкулаку_'
'Црногорската_'
'Церемонијата_'
'Центар_'
'ЦЕФТА_'
'Хари_'
'Фарук_'
'УСАИД_'
'УНДП_'
'Тузла_'
'Тркиш_'
'Треба_'
'Талат_'
'Стојановска_'
'Србин_'
'Сплит_'
'Сојузот_'
'Скоро_'
'Скопскиот_'
'Сирија_'
'Симиќ_'
'Роми_'
'Романците_'
'Романо_'
'Реџепи_'
'Програмата_'
'Првиот_'
'Охридскиот_'
'Олимписките_'
'Новите_'
'Никој_'
'Николовски_'
'Нивните_'
'НИС_'
'Муслимани_'
'Младен_'
'Миловановиќ_'
'Медиапул_'
'Марк_'
'Македонците_'
'Македонци_'
'ЛДК_'
'Курдистанска_'
'Кристијан_'
'Комитетот_'
'Канада_'
'Илјадници_'
'Ивана_'
'ИТ_'
'Запад_'
'Заман_'
'Европски_'
'Еврозоната_'
'Дубровник_'
'Другите_'
'Државната_'
'Динкиќ_'
'Дачиќ_'
'Давор_'
'Гент_'
'Гардијан_'
'ГЕРБ_'
'Владо_'
'Високи_'
'Брајшори_'
'Бразил_'
'Бојана_'
'Блиц_'
'Белгија_'
'Банка_'
'Атинската_'
'Ататурк_'
'Албанската_'
'Азија_'
'Агим_'
'Џорџ_'
'Љајиќ_'
'Јадранка_'
'Јавноста_'
'wish_'
'winter_'
'willingness_'
'wife_'
'whom_'
'western_'
'weekend_'
'websites_'
'watch_'
'wait_'
'voicing_'
'vis_'
'victim_'
'veteran_'
'venture_'
'unrest_'
'unprecedented_'
'universities_'
'transparency_'
'titled_'
'title_'
'thirds_'
'terrorists_'
'taxation_'
'suspended_'
'supporters_'
'suggests_'
'subject_'
'struggle_'
'stressing_'
'story_'
'stock_'
'statistical_'
'stands_'
'standing_'
'spot_'
'split_'
'spend_'
'species_'
'sparked_'
'space_'
'songs_'
'solidarity_'
'smaller_'
'slight_'
'sight_'
'shooting_'
'sharply_'
'serves_'
'sending_'
'secured_'
'secular_'
'screening_'
'scope_'
'safety_'
'rock_'
'risks_'
'returning_'
'respected_'
'resign_'
'represented_'
'repeatedly_'
'relatively_'
'regions_'
'regards_'
'refusal_'
'recovery_'
'receiving_'
'reality_'
'read_'
'ranging_'
'rally_'
'raising_'
'quick_'
'publicly_'
'provision_'
'proud_'
'propose_'
'promising_'
'promise_'
'procurement_'
'probe_'
'prisons_'
'pretty_'
'presents_'
'preparation_'
'preliminary_'
'potentially_'
'placing_'
'performances_'
'peacekeepers_'
'payment_'
'pave_'
'patients_'
'passing_'
'partitioning_'
'park_'
'parallel_'
'output_'
'outlines_'
'outgoing_'
'originally_'
'ordinate_'
'orders_'
'optimism_'
'opposes_'
'oldest_'
'obtained_'
'observers_'
'neighbour_'
'negotiation_'
'nature_'
'mutually_'
'music_'
'movies_'
'mounting_'
'monthly_'
'minor_'
'minimum_'
'millions_'
'medium_'
'medals_'
'matters_'
'materials_'
'marked_'
'magazine_'
'lose_'
'limit_'
'lies_'
'license_'
'laundering_'
'latter_'
'knows_'
'keeping_'
'jurisdiction_'
'jazz_'
'irregularities_'
'internationally_'
'interesting_'
'integrity_'
'instance_'
'insisting_'
'injuries_'
'informed_'
'influential_'
'individuals_'
'indictments_'
'indictee_'
'incomes_'
'immunity_'
'identify_'
'hydro_'
'hot_'
'hospitals_'
'honoured_'
'helped_'
'happy_'
'guilty_'
'governmental_'
'girls_'
'giant_'
'gap_'
'fresh_'
'founding_'
'fought_'
'forming_'
'formation_'
'flight_'
'fixed_'
'finalised_'
'filmmakers_'
'festivals_'
'fear_'
'favour_'
'faith_'
'extradited_'
'extended_'
'extend_'
'expression_'
'express_'
'expensive_'
'expenses_'
'expenditures_'
'expanded_'
'existence_'
'exceed_'
'everyday_'
'ethnicity_'
'estate_'
'equality_'
'entirely_'
'enterprises_'
'enforcement_'
'embassies_'
'element_'
'efficiency_'
'e_'
'driving_'
'dozen_'
'door_'
'donor_'
'dismissed_'
'discovered_'
'didn_'
'determination_'
'depends_'
'departure_'
'denied_'
'default_'
'decrease_'
'decline_'
'decentralisation_'
'deals_'
'dates_'
'dance_'
'damaged_'
'd_'
'crowd_'
'crossings_'
'couple_'
'correspondent_'
'contains_'
'contain_'
'conducting_'
'competitiveness_'
'communism_'
'commitments_'
'comment_'
'climate_'
'clean_'
'classes_'
'citizen_'
'chamber_'
'chairmanship_'
'census_'
'causing_'
'car_'
'captured_'
'camps_'
'burden_'
'broadcasting_'
'broadcaster_'
'branch_'
'boundaries_'
'beneficial_'
'behaviour_'
'barricades_'
'balance_'
'bailout_'
'awards_'
'awarded_'
'autumn_'
'autonomous_'
'assurances_'
'asks_'
'archaeological_'
'approve_'
'appropriate_'
'appointment_'
'appealed_'
'analysis_'
'amendment_'
'amended_'
'allies_'
'agrees_'
'ages_'
'advantage_'
'advance_'
'actual_'
'actively_'
'Zannier_'
'Welle_'
'W_'
'Vukovar_'
'UNESCO_'
'UK_'
'Tурскиот_'
'Tирана_'
'Tourism_'
'Topi_'
'Together_'
'Telekom_'
'Strategic_'
'Standard_'
'Stadium_'
'Stability_'
'Similar_'
'Sezer_'
'Sekerinska_'
'Rohan_'
'Reporting_'
'Reform_'
'Recent_'
'Radical_'
'Prosecutor_'
'Progress_'
'Prize_'
'Piraeus_'
'Papoulias_'
'Papadopoulos_'
'Pact_'
'Others_'
'Nova_'
'Mustafa_'
'Mountain_'
'Mission_'
'Metohija_'
'Mediapool_'
'Martti_'
'Marko_'
'Madrid_'
'MPs_'
'Libyan_'
'Lazarova_'
'Konjikusic_'
'KPC_'
'Journalists_'
'Japanese_'
'Jadranka_'
'Ivica_'
'Ivanov_'
'Industry_'
'ICG_'
'Her_'
'Hadzic_'
'HIV_'
'Government_'
'Geoana_'
'Frattini_'
'Fouere_'
'First_'
'Fiat_'
'Each_'
'EUobserver_'
'Dinkic_'
'Dimitrov_'
'Denmark_'
'Days_'
'Davor_'
'Dacic_'
'DUI_'
'Croatians_'
'Crime_'
'Convention_'
'Conference_'
'Condoleezza_'
'Community_'
'Commerce_'
'CoE_'
'Citing_'
'Can_'
'CEC_'
'Beqiri_'
'Barbutov_'
'BDP_'
'Award_'
'Assistant_'
'Ashton_'
'Art_'
'Armenian_'
'Andy_'
'Anadolu_'
'Amid_'
'Almost_'
'Alexander_'
'Agriculture_'
'Action_'
'AKI_'
'99_'
'94_'
'88_'
'82_'
'74_'
'72_'
'67_'
'650_'
'63_'
'5m_'
'59_'
'54_'
'52_'
'500m_'
'27th_'
'26th_'
'2015_'
'200m_'
'1996_'
'1994_'
'1974_'
'183_'
'180_'
'140_'
' “_'
' ,_'
' & _'
'’ _'
'џез_'
'љубов_'
'шпекулациите_'
'широка_'
'шири_'
'шефовите_'
'чувствува_'
'членот_'
'членките_'
'читаат_'
'чисти_'
'четиридневна_'
'чекорите_'
'час_'
'цивилни_'
'централната_'
'централна_'
'целосен_'
'царина_'
'храната_'
'хотели_'
'функционална_'
'француската_'
'формираше_'
'фонд_'
'фискалната_'
'финансискиот_'
'филмските_'
'фигура_'
'федерација_'
'успешни_'
'успеат_'
'усвојат_'
'управа_'
'употреби_'
'универзитети_'
'унгарски_'
'уметностите_'
'уметноста_'
'уверување_'
'увери_'
'убеди_'
'уапсен_'
'турското_'
'туристите_'
'туризмот_'
'трупи_'
'третата_'
'трет_'
'транша_'
'траеше_'
'траен_'
'традиционална_'
'товарот_'
'товар_'
'технологии_'
'терористичките_'
'терористи_'
'телефонија_'
'телефон_'
'телевизиски_'
'тековните_'
'театарот_'
'таквите_'
'такви_'
'суштинско_'
'судство_'
'судската_'
'суверенитетот_'
'студијата_'
'стратешка_'
'страната_'
'стојат_'
'сторат_'
'стил_'
'стигне_'
'статистика_'
'ставовите_'
'средните_'
'спротивстави_'
'спроведуваое_'
'спроведени_'
'спроведат_'
'способна_'
'социјалисти_'
'состои_'
'состанат_'
'составена_'
'соодветните_'
'соодветна_'
'совети_'
'собранието_'
'собирање_'
'снабдување_'
'смени_'
'случува_'
'службеници_'
'скандалот_'
'синдикатите_'
'сигурност_'
'сигурни_'
'сигурен_'
'сезона_'
'север_'
'светските_'
'светло_'
'сведоците_'
'самостојно_'
'сакам_'
'сабота_'
'руски_'
'руска_'
'решенија_'
'рецесија_'
'реформата_'
'реформа_'
'ресторани_'
'републики_'
'република_'
'рекордно_'
'рекле_'
'резултира_'
'регулативите_'
'реакција_'
'реакции_'
'раширена_'
'распадот_'
'раселени_'
'рангирање_'
'рамковен_'
'различен_'
'разлики_'
'разгледа_'
'радиодифузија_'
'радикална_'
'работилница_'
'публиката_'
'публика_'
'прошируваое_'
'проценува_'
'проценти_'
'професорот_'
'професионални_'
'произведува_'
'продолжуваат_'
'продолжиме_'
'продаде_'
'продавница_'
'продава_'
'пријатели_'
'причината_'
'природна_'
'припадност_'
'принцип_'
'принуди_'
'приклучија_'
'приказни_'
'признавање_'
'привлекува_'
'приватни_'
'пречките_'
'претходните_'
'претходниот_'
'претставени_'
'претседателката_'
'пресвртница_'
'препорача_'
'преостанатите_'
'премиерите_'
'прекинат_'
'презема_'
'предуслов_'
'предпристапните_'
'предложена_'
'предводи_'
'предвидено_'
'предадоа_'
'предадени_'
'предадат_'
'преговарачкиот_'
'првичната_'
'прашаоето_'
'прагот_'
'православни_'
'правобранител_'
'правно_'
'правец_'
'појавата_'
'почнувајќи_'
'почитување_'
'поттикнување_'
'поттикне_'
'потсекретар_'
'потребните_'
'потребите_'
'потекнуваат_'
'потврда_'
'постигнато_'
'постигната_'
'последиците_'
'посетија_'
'посетителите_'
'поседува_'
'понудат_'
'поништи_'
'понатамошно_'
'помогна_'
'поминува_'
'помине_'
'поминаа_'
'помагаат_'
'полноправно_'
'поле_'
'пол_'
'поканата_'
'покажат_'
'познатиот_'
'познати_'
'поздравува_'
'пожари_'
'поднесат_'
'поделбата_'
'подеднакво_'
'поддржувачи_'
'поддржан_'
'поголемиот_'
'поголемата_'
'погодени_'
'поврзана_'
'повод_'
'повисок_'
'повикуваат_'
'повелба_'
'побрзо_'
'победувајќи_'
'победија_'
'побарано_'
'писател_'
'печат_'
'петтиот_'
'песни_'
'пензионираниот_'
'патува_'
'патнички_'
'паралелните_'
'пазарите_'
'пад_'
'очигледно_'
'очекувањата_'
'охрабри_'
'отстранување_'
'отстранат_'
'откријат_'
'отвораоето_'
'осуден_'
'остро_'
'остварат_'
'останаа_'
'основана_'
'освоија_'
'организираше_'
'организирани_'
'општества_'
'оптимист_'
'опозициските_'
'опишува_'
'опасноста_'
'онлајн_'
'олесни_'
'односот_'
'оддели_'
'ограничувањата_'
'објект_'
'објавувањето_'
'обидуваме_'
'обиди_'
'обезбедуваат_'
'обвинувањата_'
'нудејќи_'
'нудат_'
'новинарство_'
'ниски_'
'нејзина_'
'неуспешни_'
'незадоволство_'
'недостаток_'
'најразлични_'
'најмногу_'
'најдобро_'
'најдобри_'
'најдоа_'
'најголеми_'
'највисок_'
'највеќе_'
'најбараните_'
'наштети_'
'наши_'
'нација_'
'национално_'
'нафтоводот_'
'натпис_'
'настрана_'
'насекаде_'
'народите_'
'наркотици_'
'напуштија_'
'нападот_'
'нападите_'
'намалуваое_'
'награди_'
'муниција_'
'музичари_'
'мостот_'
'мораше_'
'мониторинг_'
'мировниот_'
'мировни_'
'минути_'
'министерката_'
'месо_'
'меfународниот_'
'ме_'
'материјали_'
'маса_'
'маргините_'
'маж_'
'лустрација_'
'луfето_'
'личните_'
'линијата_'
'лидери_'
'лидер_'
'лига_'
'либерализацијата_'
'куќите_'
'курдското_'
'културен_'
'кубни_'
'кривични_'
'кредит_'
'користење_'
'корисници_'
'концерти_'
'концерт_'
'контролира_'
'континуираните_'
'континуираната_'
'континуирана_'
'конкурентноста_'
'конечниот_'
'комуникации_'
'комунизмот_'
'компанијата_'
'комисии_'
'команда_'
'климатските_'
'кипарското_'
'кандидатки_'
'канал_'
'кампањата_'
'кампаоа_'
'итна_'
'истражуваое_'
'историските_'
'испраќа_'
'исполнуваое_'
'испитува_'
'исламот_'
'искористени_'
'информациите_'
'интервенција_'
'инвестициска_'
'инвеститор_'
'инвестираат_'
'имоти_'
'имал_'
'изјавија_'
'изразувањето_'
'израелските_'
'изнесуваше_'
'измена_'
'издавање_'
'изгубат_'
'изведување_'
'избрани_'
'изборниот_'
'изборни_'
'избираат_'
'избере_'
'избегнување_'
'значаен_'
'златен_'
'зима_'
'земе_'
'зелено_'
'зградите_'
'зградата_'
'зголемувањето_'
'зголемена_'
'зборува_'
'заштеди_'
'затворот_'
'затворени_'
'застапеност_'
'западни_'
'заостанува_'
'залагаат_'
'заклучоци_'
'заемот_'
'заедничко_'
'задолжен_'
'загриженоста_'
'загина_'
'завршени_'
'завршат_'
'забранетата_'
'заблагодари_'
'забележуваат_'
'животните_'
'животни_'
'животна_'
'желба_'
'ефикасност_'
'ентитетите_'
'енергетска_'
'енд_'
'електродистрибуција_'
'екстрадира_'
'економско_'
'едногласно_'
'едни_'
'единствено_'
'единствениот_'
'евентуалното_'
'другиот_'
'достигнаа_'
'дополнителен_'
'дописникот_'
'донесена_'
'домашните_'
'домашната_'
'долгорочен_'
'документација_'
'документарен_'
'доколку_'
'доведоа_'
'директна_'
'дипломатијата_'
'динамика_'
'дигитални_'
'децентрализација_'
'дефицитот_'
'департмент_'
'денови_'
'демократско_'
'демократизацијата_'
'делот_'
'делегации_'
'дебатата_'
'дадена_'
'давање_'
'д_'
'губи_'
'грижи_'
'грижа_'
'градовите_'
'глобалната_'
'гласачките_'
'гласаоето_'
'германската_'
'генерација_'
'генерален_'
'вратија_'
'вратиле_'
'воено_'
'влијаат_'
'влезат_'
'влегуваат_'
'вклучуваше_'
'вклучена_'
'вицепремиер_'
'вистинскиот_'
'вистината_'
'вирусот_'
'видливи_'
'вест_'
'вежби_'
'буџетска_'
'бројни_'
'брза_'
'бомбашки_'
'блокираше_'
'блокира_'
'блогери_'
'близок_'
'билатерални_'
'бизниси_'
'берза_'
'бенефициите_'
'банкарски_'
'базата_'
'атмосфера_'
'аранжман_'
'апсолутно_'
'апликацијата_'
'анкети_'
'американска_'
'амандманите_'
'албанско_'
'актуелната_'
'активност_'
'активно_'
'азил_'
'адвокатот_'
'адвокат_'
'автори_'
'автономијата_'
'Шпириќ_'
'Шпанскиот_'
'Шеќеринска_'
'Цената_'
'Цветковиќ_'
'ХИНА_'
'Х5Н1_'
'Форд_'
'Филе_'
'Фестивалот_'
'Ферхојген_'
'Фена_'
'Турк_'
'Трајковски_'
'Томислав_'
'Тетово_'
'Терзиќ_'
'ТВ_'
'Судењето_'
'Стотици_'
'Српското_'
'Специјалниот_'
'Сојуз_'
'Социјалдемократската_'
'Симитис_'
'Сиднеј_'
'Секоја_'
'Секој_'
'Светозар_'
'Саша_'
'Санџак_'
'СПС_'
'Рускиот_'
'Расим_'
'Различни_'
'Радовановиќ_'
'Радмановиќ_'
'Проспер_'
'Прленда_'
'Претпријатието_'
'Прес_'
'Предраг_'
'Почнувајќи_'
'Постојат_'
'Последните_'
'Португалија_'
'Политичката_'
'Пет_'
'Педи_'
'Папуљас_'
'Памук_'
'Пактот_'
'Откако_'
'Оливер_'
'Обединетите_'
'Ниту_'
'Нимиц_'
'Николај_'
'Наука_'
'Народната_'
'Наместо_'
'Мун_'
'Можам_'
'Мисијата_'
'Мирчеа_'
'Мирко_'
'Министерскиот_'
'Мартин_'
'Маровиќ_'
'Марко_'
'Марина_'
'Македонските_'
'Литванија_'
'Лазарова_'
'Курди_'
'Красниќи_'
'Кофи_'
'Косуми_'
'Костов_'
'Коста_'
'Кореја_'
'Концертот_'
'Колку_'
'Ки_'
'Карл_'
'Истрагата_'
'Жак_'
'Еуопсервер_'
'Естонија_'
'Ерменија_'
'Емил_'
'Егејското_'
'Евровизија_'
'ЕП_'
'Дневник_'
'Димитров_'
'Денес_'
'Грачаница_'
'Гласот_'
'Газпром_'
'Всушност_'
'Врховниот_'
'Владејачката_'
'Весна_'
'Брчко_'
'Бојко_'
'Босанските_'
'Борислав_'
'Богдановиќ_'
'Белградскиот_'
'Бајрам_'
'Баша_'
'БСП_'
'Апсењето_'
'Анталија_'
'Анадолу_'
'Американското_'
'Александрополис_'
'Албанец_'
'Акцијата_'
'Азербејџан_'
'Адријан_'
'Џоана_'
'Љубљана_'
'Јелена_'
'Јанковиќ_'
'Јадранското_'
'Ја_'
'Ѓукановиќ_'
'Ѓоковиќ_'
'Ѓинfиќ_'
'wrong_'
'writes_'
'wrapped_'
'wounded_'
'wouldn_'
'worried_'
'workshop_'
'winners_'
'welcome_'
'wealth_'
'wave_'
'wartime_'
'warrant_'
'warn_'
'wage_'
'vision_'
'visible_'
'visas_'
'violating_'
'venues_'
'utility_'
'usual_'
'upset_'
'unlikely_'
'unless_'
'unity_'
'united_'
'unions_'
'understanding_'
'unanimously_'
'ultimately_'
'turning_'
'troika_'
'tripartite_'
'transactions_'
'toward_'
'topic_'
'tolerance_'
'thinking_'
'thermal_'
'telling_'
'telecom_'
'teaching_'
'targeted_'
'table_'
'symbols_'
'sustainability_'
'surprised_'
'supplies_'
'suit_'
'suffered_'
'sued_'
'style_'
'strikes_'
'streets_'
'stem_'
'steady_'
'star_'
'standard_'
'staged_'
'speculate_'
'sovereign_'
'sound_'
'sole_'
'sister_'
'signs_'
'significance_'
'shot_'
'shopping_'
'shocks_'
'shares_'
'setting_'
'sets_'
'sentence_'
'segment_'
'sees_'
'seemed_'
'seekers_'
'seat_'
'scoring_'
'scored_'
'scheme_'
'sake_'
'route_'
'rhetoric_'
'revolution_'
'revealed_'
'returns_'
'retired_'
'retain_'
'restaurants_'
'responded_'
'respond_'
'respective_'
'resorts_'
'repeated_'
'renewal_'
'remove_'
'religion_'
'relatives_'
'regularly_'
'register_'
'reflects_'
'referring_'
'referred_'
'recorded_'
'recognises_'
'recession_'
'realise_'
'reaffirmed_'
'react_'
'reaching_'
'ratings_'
'rare_'
'rapid_'
'railway_'
'radio_'
'quit_'
'questions_'
'puts_'
'pushing_'
'purposes_'
'provisional_'
'proves_'
'professors_'
'producing_'
'processes_'
'probably_'
'pressing_'
'prepares_'
'predicts_'
'practices_'
'posters_'
'possibly_'
'portion_'
'portfolio_'
'polling_'
'policemen_'
'pointed_'
'pledging_'
'playing_'
'planes_'
'picture_'
'perfectly_'
'perceived_'
'partition_'
'papers_'
'panel_'
'ourselves_'
'ordinary_'
'opponents_'
'opinions_'
'online_'
'notes_'
'none_'
'motion_'
'monitored_'
'monastery_'
'mine_'
'migration_'
'method_'
'mentioned_'
'meets_'
'mechanisms_'
'meaning_'
'maybe_'
'manufacturing_'
'lowest_'
'lived_'
'linking_'
'liberal_'
'legislative_'
'learned_'
'lasting_'
'languages_'
'km_'
'jump_'
'investigative_'
'introduce_'
'intervention_'
'intensify_'
'instruments_'
'insists_'
'imported_'
'imagine_'
'identity_'
'humanity_'
'holiday_'
'heavy_'
'hear_'
'hardest_'
'happens_'
'handover_'
'guaranteed_'
'grew_'
'greatly_'
'governing_'
'girl_'
'generation_'
'gathering_'
'gains_'
'fundamental_'
'function_'
'fuel_'
'friends_'
'friendly_'
'foster_'
'forged_'
'follows_'
'flights_'
'flags_'
'flag_'
'filled_'
'feeling_'
'federal_'
'featuring_'
'features_'
'father_'
'farmers_'
'farm_'
'failing_'
'fail_'
'facilitate_'
'eyes_'
'extremist_'
'extension_'
'expertise_'
'exists_'
'exchanges_'
'exception_'
'examples_'
'equally_'
'emerging_'
'emerge_'
'embassy_'
'duty_'
'drivers_'
'drawn_'
'draw_'
'donated_'
'dominated_'
'diversity_'
'disputes_'
'disappointed_'
'diplomacy_'
'details_'
'deployed_'
'delivered_'
'deliver_'
'defending_'
'defeated_'
'defeat_'
'debts_'
'cutting_'
'criticising_'
'counts_'
'correct_'
'core_'
'convince_'
'controlled_'
'contributions_'
'contained_'
'contact_'
'consultations_'
'considers_'
'consideration_'
'computers_'
'complicated_'
'complaints_'
'competitive_'
'compete_'
'combined_'
'collected_'
'colleagues_'
'collapse_'
'collaboration_'
'coastal_'
'civic_'
'churches_'
'check_'
'cheaper_'
'charging_'
'chapter_'
'celebrating_'
'capitals_'
'capabilities_'
'candidacy_'
'cancer_'
'cancelled_'
'brothers_'
'brother_'
'brings_'
'born_'
'block_'
'blame_'
'black_'
'biological_'
'bills_'
'billboards_'
'biased_'
'begins_'
'beating_'
'banned_'
'backing_'
'aviation_'
'audiences_'
'attributed_'
'attempting_'
'assured_'
'assisted_'
'assistant_'
'artist_'
'artificial_'
'arresting_'
'arrangements_'
'arguments_'
'applied_'
'applications_'
'application_'
'appear_'
'apart_'
'answer_'
'amounts_'
'amounted_'
'amnesty_'
'ambitious_'
'ambassadors_'
'ally_'
'alliance_'
'alive_'
'airports_'
'airline_'
'aircraft_'
'adviser_'
'admitted_'
'adequate_'
'acquitted_'
'accusing_'
'accordance_'
'accord_'
']“, _'
']," _'
'Zivkovic_'
'Yet_'
'Without_'
'Will_'
'Weekly_'
'Verheugen_'
'Veles_'
'Van_'
'Unity_'
'Unit_'
'Unemployment_'
'Ukrainian_'
'UNHCR_'
'Tурската_'
'Tuzla_'
'Turk_'
'Transport_'
'Trajkovski_'
'Toмислав_'
'Top_'
'Tihic_'
'Thus_'
'Though_'
'Terzic_'
'Television_'
'Telecom_'
'Tassos_'
'Sutanovac_'
'Support_'
'Stressing_'
'Street_'
'Starting_'
'Slavic_'
'Simitis_'
'Simic_'
'Selimaj_'
'School_'
'Rupel_'
'Ruecker_'
'Roman_'
'Richard_'
'Renewal_'
'Reconstruction_'
'Raufoglu_'
'RTK_'
'Pulaj_'
'Prlenda_'
'Poor_'
'Plan_'
'Petkovic_'
'Peter_'
'Peacekeeping_'
'Parliamentary_'
'Pamuk_'
'Order_'
'Obradovic_'
'Novak_'
'Not_'
'Nearly_'
'Nazi_'
'Nastase_'
'ND_'
'Mother_'
'Monetary_'
'Missing_'
'Military_'
'Maja_'
'Macedonians_'
'MPA_'
'Ljubljana_'
'Limaj_'
'Liberal_'
'Labus_'
'Kosovar_'
'Kosova_'
'Koha_'
'Kofi_'
'Karic_'
'Kalfin_'
'KPS_'
'Just_'
'Jaap_'
'Islamists_'
'Ion_'
'Index_'
'Ibrahim_'
'IOC_'
'Hurriyet_'
'Hungarian_'
'Hundreds_'
'HDZ_'
'Given_'
'Furthermore_'
'Framework_'
'Force_'
'Financial_'
'Finally_'
'Feith_'
'Faculty_'
'Executive_'
'Europol_'
'Euronews_'
'Erlis_'
'English_'
'Employment_'
'Eight_'
'Egyptian_'
'Egypt_'
'Edi_'
'Economist_'
'EUFOR_'
'ECB_'
'Dr_'
'Dnevni_'
'District_'
'Dink_'
'Dimitris_'
'Denktash_'
'Democrat_'
'Dejan_'
'De_'
'David_'
'Darko_'
'Danube_'
'Dabilis_'
'DPS_'
'Crisis_'
'Crimes_'
'Corridor_'
'Copenhagen_'
'Constitution_'
'Congress_'
'Competition_'
'Communist_'
'Citizens_'
'Ciocoiu_'
'Center_'
'Caspian_'
'Canada_'
'Brammertz_'
'Boskovski_'
'Besides_'
'Bajram_'
'Aлбанската_'
'Avaz_'
'Ataturk_'
'Assembly_'
'Article_'
'Around_'
'Ardi_'
'Antalya_'
'Annual_'
'Angela_'
'Alakbar_'
'Al_'
'Adrian_'
'Accords_'
'Accord_'
'AMBO_'
': "_'
'95_'
'93_'
'83_'
'7m_'
'76_'
'68_'
'450_'
'400m_'
'350_'
'24th_'
'220_'
'1984_'
'1970_'
'1945_'
'1244_'
'10m_'
'100m_'
'... _'
'). "_'
'''_'
'"[_'
'", "_'
'" (_'
' ''_'
'… _'
'“. [_'
'јужниот_'
'јужна_'
'јаглен_'
'јави_'
'штрајкови_'
'штрајк_'
'штетата_'
'шпекулации_'
'широки_'
'шефови_'
'швајцарскиот_'
'шанси_'
'човештвото_'
'човечки_'
'чие_'
'четворица_'
'часови_'
'цитирајќи_'
'цивилизациите_'
'церемонија_'
'централи_'
'целосни_'
'царинската_'
'царината_'
'хрватско_'
'хотел_'
'холдинг_'
'химна_'
'хектари_'
'хакери_'
'фудбал_'
'француските_'
'формираое_'
'фондови_'
'фокус_'
'финансирани_'
'финансира_'
'филмскиот_'
'физибилити_'
'фази_'
'фабрики_'
'учествуваше_'
'учеснички_'
'утврди_'
'уставно_'
'уставните_'
'условот_'
'управување_'
'управуваат_'
'универзитетот_'
'уметнички_'
'ум_'
'улица_'
'уделот_'
'туристичкиот_'
'трката_'
'трипати_'
'трипартитното_'
'трибуналот_'
'тренер_'
'требаат_'
'трговска_'
'транспарентноста_'
'товари_'
'техничка_'
'терористичката_'
'терминал_'
'територијални_'
'теренот_'
'тенденции_'
'темпото_'
'темелите_'
'телекомуникациите_'
'тековната_'
'сфати_'
'судска_'
'судијата_'
'суди_'
'судење_'
'сувереност_'
'суверена_'
'стратешкиот_'
'стравуваат_'
'степени_'
'сте_'
'старите_'
'стабилни_'
'средство_'
'средното_'
'средба_'
'спротивставување_'
'спротивставува_'
'спроведено_'
'спречување_'
'справи_'
'спортот_'
'специјално_'
'специјална_'
'спасување_'
'сојузници_'
'социјална_'
'социјалистичка_'
'социјалдемократи_'
'софтвер_'
'сосема_'
'соседни_'
'соработници_'
'соработник_'
'соодветни_'
'сообраќајот_'
'создадат_'
'создавањето_'
'снег_'
'смрт_'
'смири_'
'смиреност_'
'сметаме_'
'смена_'
'смее_'
'случуваат_'
'случија_'
'служеше_'
'слободната_'
'слободен_'
'слично_'
'слична_'
'слики_'
'сликар_'
'следеше_'
'складиште_'
'сиромаштијата_'
'сиромашните_'
'синџир_'
'синот_'
'сигнал_'
'сеуште_'
'сето_'
'сенка_'
'семинаријата_'
'секретарка_'
'секого_'
'северната_'
'северен_'
'свој_'
'светскиот_'
'санкциите_'
'самоуправа_'
'сакаше_'
'сакале_'
'руските_'
'роднините_'
'родители_'
'решителни_'
'решеност_'
'реформски_'
'реторика_'
'ретки_'
'рестрикции_'
'репрезентација_'
'рекорд_'
'реконструкцијата_'
'резултираше_'
'резервирани_'
'редовно_'
'редовните_'
'регулирање_'
'регулатива_'
'регистрирана_'
'регионално_'
'регионалниот_'
'ревизија_'
'реално_'
'реален_'
'растеж_'
'расте_'
'распоредени_'
'раководството_'
'разузнавачки_'
'разновидност_'
'разгледаат_'
'развојна_'
'работеше_'
'пушењето_'
'пушачи_'
'процентот_'
'процент_'
'проценката_'
'професионализам_'
'противник_'
'противењето_'
'просперитет_'
'прославува_'
'прослави_'
'просечната_'
'пропаднаа_'
'пронаоѓање_'
'промовира_'
'промената_'
'променат_'
'проектили_'
'продолжување_'
'продавниците_'
'продаваат_'
'прогласен_'
'провери_'
'приход_'
'прифаќа_'
'присутни_'
'присутна_'
'присуствува_'
'пристапуваое_'
'пристапат_'
'пристаништето_'
'припаѓа_'
'приоритети_'
'прими_'
'примарна_'
'приливот_'
'приклучуваое_'
'признаваат_'
'признаа_'
'прием_'
'придружи_'
'придружба_'
'приговори_'
'привремено_'
'привремениот_'
'приватно_'
'префрли_'
'префрлање_'
'претходната_'
'претставуваше_'
'претставуваа_'
'претседателствување_'
'пресуди_'
'престојниот_'
'препораки_'
'премини_'
'прекршување_'
'прекина_'
'предрасуди_'
'предмети_'
'предлозите_'
'предизвикани_'
'предизвикана_'
'предградие_'
'предводени_'
'преговарач_'
'практиката_'
'правци_'
'правните_'
'починатиот_'
'пофалби_'
'поттикнат_'
'потпишани_'
'поткопа_'
'потенцијално_'
'потенцијалните_'
'потенцијални_'
'постоењето_'
'постигнувањето_'
'постепено_'
'поставени_'
'поставена_'
'посебна_'
'посветеноста_'
'посветени_'
'порти_'
'порано_'
'пораката_'
'популарно_'
'поправи_'
'поплави_'
'попис_'
'понудата_'
'пониска_'
'понекогаш_'
'понатамошната_'
'поминат_'
'помала_'
'полковник_'
'полиња_'
'покровителство_'
'покриваат_'
'познат_'
'позитивни_'
'пожарот_'
'поефикасни_'
'подобрени_'
'подобар_'
'поднесување_'
'поднесени_'
'поделеност_'
'поддржиме_'
'подготовки_'
'подготвување_'
'подготвено_'
'погрижи_'
'пограничен_'
'погоре_'
'погоди_'
'повторното_'
'повторат_'
'поврзаност_'
'поврзан_'
'повлекува_'
'повисоки_'
'повикот_'
'плаќање_'
'плаќа_'
'плаши_'
'платформа_'
'платени_'
'платата_'
'пластични_'
'планирање_'
'планираното_'
'писмо_'
'пензии_'
'патници_'
'партиските_'
'партиски_'
'парламентарна_'
'парламентарен_'
'парк_'
'падне_'
'очекување_'
'очекувања_'
'очекувам_'
'оценки_'
'официјалното_'
'оттогаш_'
'отсуството_'
'отпуштање_'
'отпочнување_'
'откриено_'
'откаже_'
'отвориме_'
'отворајќи_'
'отвораое_'
'остри_'
'остварувањата_'
'остварувања_'
'оставката_'
'осомничениот_'
'основно_'
'основачи_'
'организирање_'
'организаторите_'
'органи_'
'општински_'
'општината_'
'опции_'
'опфаќа_'
'опфати_'
'оптимизам_'
'оператори_'
'опасна_'
'округот_'
'одѕив_'
'одржлив_'
'одредување_'
'одредена_'
'одразува_'
'одрази_'
'одобрија_'
'одземен_'
'одговорноста_'
'одбранбениот_'
'одбранбен_'
'одборот_'
'одбија_'
'одбивање_'
'одбележување_'
'одбележа_'
'одам_'
'огромни_'
'ограничени_'
'ограничена_'
'овозможувајќи_'
'овластувања_'
'овде_'
'објасниме_'
'обуката_'
'образовни_'
'образовен_'
'обнови_'
'обидите_'
'обем_'
'обвинувајќи_'
'обвинуваат_'
'нуклеарна_'
'носеа_'
'нозе_'
'новинарот_'
'никаков_'
'низок_'
'нејзино_'
'нејзин_'
'неуспехот_'
'несомнено_'
'немаме_'
'нелегалната_'
'некоја_'
'неизвесност_'
'независните_'
'независни_'
'недоволно_'
'недвижности_'
'недвижен_'
'негов_'
'невработени_'
'невин_'
'небото_'
'најновиот_'
'најниско_'
'најдеме_'
'најде_'
'највисоко_'
'начинот_'
'националистичка_'
'научниците_'
'наутро_'
'наука_'
'насловена_'
'народниот_'
'наречен_'
'нареди_'
'напуштаат_'
'направиме_'
'направена_'
'напорно_'
'наплаќа_'
'намалувањето_'
'назначување_'
'надоместок_'
'надминат_'
'надлежностите_'
'надлежност_'
'надзор_'
'надворешен_'
'навреме_'
'наводите_'
'наводи_'
'навивачи_'
'набљудувачка_'
'набргу_'
'муслимански_'
'музички_'
'музика_'
'моја_'
'монетарната_'
'монетарна_'
'момчиоа_'
'модерна_'
'младата_'
'млада_'
'мислењето_'
'мировна_'
'мирна_'
'минута_'
'минатогодишните_'
'механизам_'
'метод_'
'менаџер_'
'медицински_'
'медиумски_'
'медитерански_'
'мата_'
'масовно_'
'малтретирање_'
'лути_'
'локално_'
'личности_'
'лиценца_'
'литар_'
'лидерот_'
'летовите_'
'летови_'
'лежи_'
'куса_'
'курдската_'
'купуваат_'
'култури_'
'критикува_'
'криминалните_'
'криминална_'
'кредибилитетот_'
'крајниот_'
'кратења_'
'корпорација_'
'користењето_'
'координатор_'
'контролираат_'
'контакти_'
'конструктивен_'
'компјутери_'
'компетентност_'
'комора_'
'коментар_'
'командата_'
'кокаин_'
'коалициска_'
'книги_'
'клучно_'
'клубови_'
'климата_'
'класа_'
'клан_'
'катастрофа_'
'кариера_'
'капацитетите_'
'канцелариите_'
'кандидатка_'
'каматните_'
'итно_'
'итни_'
'истражувачки_'
'истражувачи_'
'истрагите_'
'истраги_'
'историско_'
'испратија_'
'исполнуваат_'
'исплати_'
'испитаниците_'
'испитани_'
'испита_'
'искуството_'
'искуства_'
'искористуваое_'
'ирачките_'
'инцидент_'
'инфраструктурни_'
'инфлацијата_'
'интервенцијата_'
'инструменти_'
'институционални_'
'инспектори_'
'индустриска_'
'инвестирање_'
'имплементацијата_'
'имиоа_'
'изјавите_'
'изутрина_'
'изразува_'
'изолација_'
'изнесуваат_'
'изложби_'
'излегуваат_'
'изградиме_'
'изградени_'
'изгледи_'
'изгледа_'
'извлече_'
'идентитет_'
'зрелост_'
'значителни_'
'знамиња_'
'знам_'
'знаеме_'
'земјиште_'
'земат_'
'здравствени_'
'здравствена_'
'згради_'
'зграда_'
'зголемуваое_'
'зголемениот_'
'зајакнуваое_'
'заштитни_'
'заштитени_'
'затворска_'
'затвореници_'
'затворена_'
'заработуваат_'
'занимава_'
'заминаа_'
'замени_'
'замена_'
'законска_'
'законик_'
'заклучок_'
'закажано_'
'заемите_'
'задоволни_'
'задоволи_'
'загрозени_'
'завршуваое_'
'завршија_'
'завршен_'
'зависност_'
'зависат_'
'забавување_'
'живеење_'
'живееја_'
'жестоки_'
'желбата_'
'жалење_'
'ечо_'
'ефикасно_'
'ефикасна_'
'ефикасен_'
'етничка_'
'ерлајнс_'
'ентитет_'
'енклави_'
'еднонеделниот_'
'еднакви_'
'еднаква_'
'единство_'
'единиците_'
'единицата_'
'евроазиски_'
'евентуална_'
'дух_'
'дупка_'
'другата_'
'државното_'
'државите_'
'дојдат_'
'доцна_'
'достигнат_'
'допатува_'
'домовите_'
'доменот_'
'домашното_'
'домашен_'
'долина_'
'должност_'
'долготрајниот_'
'докаже_'
'доведат_'
'добрите_'
'добил_'
'добиеме_'
'добивка_'
'дискусијата_'
'дискусиите_'
'дискриминацијата_'
'директорка_'
'дејствува_'
'дејствата_'
'дефинитивно_'
'десничарската_'
'десничарска_'
'десетици_'
'десетдневниот_'
'департментот_'
'денот_'
'двојното_'
'движеое_'
'движат_'
'данскиот_'
'дадени_'
'дадам_'
'губење_'
'грешки_'
'граѓанска_'
'граничен_'
'градењето_'
'градење_'
'градежни_'
'граfани_'
'гости_'
'глобалното_'
'глобално_'
'гледна_'
'гласини_'
'гласаа_'
'глад_'
'германски_'
'генерално_'
'галерија_'
'вреди_'
'вратите_'
'војник_'
'војни_'
'вооружените_'
'вооружена_'
'воздухот_'
'воздух_'
'водството_'
'водење_'
'вмешаност_'
'вложи_'
'владина_'
'владин_'
'владеење_'
'владееое_'
'вишок_'
'вистинската_'
'вистина_'
'виновни_'
'видиме_'
'вештини_'
'ветување_'
'ветувањата_'
'ветувања_'
'ветувајќи_'
'верската_'
'веројатно_'
'верници_'
'ве_'
'ваквата_'
'бура_'
'бунтовници_'
'бугарска_'
'бројката_'
'бродовите_'
'брод_'
'британските_'
'браќа_'
'бранот_'
'бошњачки_'
'борбите_'
'болницата_'
'болница_'
'болни_'
'болеста_'
'блокирани_'
'бележат_'
'белградското_'
'безбедносна_'
'безбедносен_'
'бевме_'
'барикадите_'
'бараа_'
'банкрот_'
'банкарскиот_'
'атланските_'
'атентат_'
'апсењата_'
'апсеоето_'
'апликации_'
'анализи_'
'анализа_'
'амнестија_'
'активна_'
'актери_'
'аеродроми_'
'авторски_'
'автомобилите_'
'Шведскиот_'
'Човиќ_'
'Чичек_'
'Чемил_'
'Црногорците_'
'Хрватските_'
'Холкери_'
'Хилари_'
'Хаџиќ_'
'Хазири_'
'ХИВ_'
'Фратини_'
'Франсоа_'
'Фотографии_'
'Фејсбук_'
'Фактот_'
'Учеството_'
'УНИЦЕФ_'
'Три_'
'Трајковиќ_'
'Трајков_'
'Тогаш_'
'Тања_'
'Стразбур_'
'Стефан_'
'Стапката_'
'Станковиќ_'
'Следните_'
'Си_'
'Северна_'
'Саудиска_'
'Самитот_'
'СНСД_'
'Ричард_'
'Рикер_'
'Рачан_'
'Преку_'
'Прво_'
'Првите_'
'Податоците_'
'Поголем_'
'ПзМ_'
'Петровиќ_'
'Пекинг_'
'ПТК_'
'Освен_'
'Одделот_'
'Обвинителите_'
'Обама_'
'ОТЕ_'
'Неговите_'
'Неговиот_'
'Набргу_'
'НС_'
'Мојсиу_'
'Мојот_'
'Мора_'
'Може_'
'Младите_'
'Милошоски_'
'Милер_'
'Миленковиќ_'
'Мексико_'
'Меfународната_'
'Мајкл_'
'Макфакс_'
'Мадрид_'
'Лукоил_'
'Латвија_'
'Курти_'
'Култура_'
'Кристина_'
'Коњикушиќ_'
'Корупцијата_'
'Коридорот_'
'Кондолиза_'
'Ковачевиќ_'
'Кемал_'
'Катар_'
'Интернешнал_'
'Интернетот_'
'Иницијативата_'
'Индекс_'
'Изразувајќи_'
'Изградбата_'
'Идејата_'
'Ивановиќ_'
'Значи_'
'Западот_'
'Заниер_'
'Ештон_'
'Ергенекон_'
'Енди_'
'Емирати_'
'Душан_'
'Другата_'
'Друга_'
'Дора_'
'Димитрова_'
'Димитрис_'
'Дејтон_'
'Дејвид_'
'Дејан_'
'Демонстрантите_'
'Дедо_'
'Двајца_'
'Двата_'
'Дваесет_'
'Дарко_'
'Да_'
'Грците_'
'Грегоријан_'
'Гостивар_'
'Глобал_'
'Главните_'
'Главната_'
'Врховен_'
'Вработените_'
'Виктор_'
'Бугарските_'
'Бугари_'
'Бошњаци_'
'Бошковски_'
'Бил_'
'Беќири_'
'Белене_'
'Белградски_'
'Бар_'
'Балканските_'
'Бабаџан_'
'Ахмети_'
'Армијата_'
'Арапски_'
'Арабија_'
'Англија_'
'Агенција_'
'Австралија_'
'Њу_'
'Јапонија_'
'Ѓинѓиќ_'
'yield_'
'www_'
'written_'
'worry_'
'withdrawal_'
'window_'
'wider_'
'whereabouts_'
'weekly_'
'web_'
'weak_'
'watched_'
'warning_'
'voluntary_'
'voluntarily_'
'voice_'
'valuable_'
'utilities_'
'usually_'
'useful_'
'upgrade_'
'unresolved_'
'unofficial_'
'unnecessary_'
'unified_'
'unfortunately_'
'undertaken_'
'understands_'
'truth_'
'truck_'
'trim_'
'tries_'
'transformed_'
'trained_'
'tragic_'
'tops_'
'tomorrow_'
'tolerant_'
'tobacco_'
'ticket_'
'themes_'
'text_'
'tens_'
'telecommunications_'
'targeting_'
'talked_'
'symbol_'
'surveys_'
'surrounding_'
'surrendered_'
'surplus_'
'sufficiently_'
'successor_'
'succeeded_'
'succeed_'
'strengthened_'
'store_'
'storage_'
'stepping_'
'stemming_'
'steel_'
'stations_'
'stated_'
'stages_'
'stabilised_'
'stabilisation_'
'spokeswoman_'
'sort_'
'son_'
'sometimes_'
'someone_'
'solely_'
'software_'
'socialist_'
'snap_'
'slightly_'
'skies_'
'situations_'
'sit_'
'signals_'
'sidelines_'
'showed_'
'shocked_'
'ship_'
'shift_'
'sends_'
'selected_'
'seized_'
'seeds_'
'seaside_'
'scores_'
'scenario_'
'scandal_'
'savings_'
'saved_'
'satellite_'
'samples_'
'safe_'
'runoff_'
'roughly_'
'roles_'
'rivers_'
'river_'
'rivals_'
'rival_'
'reveal_'
'retirement_'
'resume_'
'rests_'
'resident_'
'reserves_'
'reserve_'
'requested_'
'republics_'
'repeat_'
'renewed_'
'remember_'
'reliable_'
'reject_'
'reinforce_'
'refuses_'
'reflect_'
'recover_'
'recommended_'
'recommend_'
'realisation_'
'readers_'
'ratification_'
'rapprochement_'
'rank_'
'ran_'
'raises_'
'radar_'
'racism_'
'questioning_'
'qualify_'
'putting_'
'provider_'
'proven_'
'prospect_'
'proposes_'
'projected_'
'producer_'
'produced_'
'processing_'
'proceed_'
'privileged_'
'privatise_'
'prisoners_'
'printed_'
'prevention_'
'preserve_'
'presenting_'
'presentation_'
'prerequisite_'
'predicted_'
'precedent_'
'posts_'
'poster_'
'possibilities_'
'poses_'
'popularity_'
'pop_'
'policing_'
'pointing_'
'platform_'
'piracy_'
'piece_'
'pianist_'
'phones_'
'perpetrators_'
'performs_'
'performers_'
'peoples_'
'pensions_'
'paving_'
'patient_'
'passengers_'
'passage_'
'partly_'
'paramilitaries_'
'page_'
'overhaul_'
'outlined_'
'outcry_'
'outbreak_'
'original_'
'oriented_'
'ordinator_'
'ordinated_'
'options_'
'opt_'
'operative_'
'operates_'
'opera_'
'occurs_'
'occupied_'
'occupation_'
'obvious_'
'obliged_'
'numbers_'
'novel_'
'noticed_'
'northeast_'
'newest_'
'negotiator_'
'narrow_'
'museum_'
'murdered_'
'multiple_'
'mother_'
'mosques_'
'morning_'
'moral_'
'moon_'
'models_'
'missile_'
'mind_'
'merely_'
'memorandum_'
'mayors_'
'maximum_'
'marketing_'
'manipulation_'
'mandatory_'
'managing_'
'managers_'
'manage_'
'maintenance_'
'luxury_'
'losing_'
'logistical_'
'll_'
'litre_'
'literature_'
'listen_'
'lifting_'
'lifted_'
'licenses_'
'legitimacy_'
'legality_'
'legacy_'
'leg_'
'lawyers_'
'lasted_'
'landfill_'
'laid_'
'knowledge_'
'kids_'
'kidnapping_'
'jury_'
'joins_'
'jobless_'
'items_'
'issuing_'
'isolated_'
'irreversible_'
'involve_'
'invite_'
'investigating_'
'inventory_'
'introducing_'
'interference_'
'intellectuals_'
'intellectual_'
'integrated_'
'insulting_'
'insufficient_'
'injured_'
'initiate_'
'informal_'
'indications_'
'indicate_'
'inclusion_'
'incentives_'
'improvements_'
'implies_'
'immigration_'
'images_'
'ignored_'
'hunger_'
'houses_'
'holidays_'
'hikes_'
'hiding_'
'hectares_'
'heavily_'
'hearings_'
'hearing_'
'headscarves_'
'headscarf_'
'heading_'
'harmonised_'
'handed_'
'hampered_'
'halt_'
'guard_'
'grounds_'
'grey_'
'granting_'
'gr_'
'gone_'
'geographic_'
'generally_'
'gender_'
'gather_'
'garner_'
'functions_'
'functional_'
'fulfill_'
'fulfil_'
'frustration_'
'friend_'
'frequently_'
'freedoms_'
'fostering_'
'formal_'
'forest_'
'fly_'
'flow_'
'flotilla_'
'flexibility_'
'fires_'
'finish_'
'finds_'
'financially_'
'finalise_'
'fellow_'
'fell_'
'fee_'
'federation_'
'featured_'
'feasible_'
'fears_'
'fan_'
'factual_'
'facilitation_'
'eye_'
'extreme_'
'extensive_'
'extending_'
'expressing_'
'experiences_'
'expecting_'
'exercises_'
'excessive_'
'examine_'
'ex_'
'evasion_'
'evaluate_'
'ethnically_'
'escape_'
'engagement_'
'endeavour_'
'encouraged_'
'employers_'
'emphasising_'
'elimination_'
'elderly_'
'educate_'
'economically_'
'easing_'
'ease_'
'earthquakes_'
'earn_'
'dubbed_'
'driver_'
'drawing_'
'dramatic_'
'drafting_'
'doubt_'
'documentation_'
'documentary_'
'documentaries_'
'districts_'
'distribution_'
'dissatisfaction_'
'discussing_'
'discrimination_'
'disagreements_'
'disagreed_'
'digital_'
'dictator_'
'determining_'
'detention_'
'destroy_'
'designated_'
'describing_'
'describes_'
'deposits_'
'deposit_'
'dependence_'
'demonstration_'
'demonstrates_'
'democratically_'
'defeating_'
'declined_'
'declare_'
'debates_'
'dealt_'
'deadlock_'
'daughter_'
'dangers_'
'damages_'
'cycle_'
'custody_'
'cultures_'
'crossing_'
'creditors_'
'credibility_'
'crackdown_'
'covering_'
'coverage_'
'councils_'
'corporate_'
'controlling_'
'contributing_'
'contrast_'
'contention_'
'consumer_'
'conspicuously_'
'consortium_'
'consequence_'
'connections_'
'connecting_'
'connected_'
'confessions_'
'conditional_'
'condemned_'
'computer_'
'comprised_'
'component_'
'compliance_'
'complaint_'
'competitors_'
'combat_'
'columnist_'
'coal_'
'clubs_'
'closing_'
'clock_'
'clashes_'
'citizenship_'
'circumstances_'
'chiefs_'
'checkpoint_'
'character_'
'channels_'
'channel_'
'champion_'
'challenging_'
'celebrate_'
'caught_'
'catastrophe_'
'casts_'
'carrier_'
'card_'
'cantons_'
'calm_'
'buyers_'
'bus_'
'bureau_'
'broken_'
'bread_'
'boys_'
'bottom_'
'bonds_'
'bombings_'
'blue_'
'blow_'
'blood_'
'blocking_'
'bit_'
'birth_'
'bin_'
'belongs_'
'basketball_'
'barracks_'
'backs_'
'awaits_'
'await_'
'author_'
'auspices_'
'attractive_'
'attracting_'
'attorney_'
'attacked_'
'assumed_'
'assembly_'
'arts_'
'article_'
'arriving_'
'approached_'
'applies_'
'apartment_'
'announcing_'
'angered_'
'altogether_'
'alcohol_'
'airspace_'
'advice_'
'adopting_'
'actress_'
'actor_'
'acquire_'
'acknowledge_'
'achievements_'
'absolutely_'
']._'
'Zemun_'
'Zealand_'
'Year_'
'Wisner_'
'Wikipedia_'
'Why_'
'White_'
'Web_'
'Walter_'
'Wall_'
'Vlasic_'
'Vlad_'
'Viktor_'
'Velimir_'
'Vatican_'
'Undersecretary_'
'USAID_'
'UNICEF_'
'Turkishness_'
'Through_'
'Theodor_'
'Thanks_'
'Teresa_'
'Ten_'
'Telecommunications_'
'Tanjug_'
'Talks_'
'Taleski_'
'Supreme_'
'Sultan_'
'Sulejman_'
'Struga_'
'Strauss_'
'Steinmeier_'
'Stefanovic_'
'Status_'
'Statistical_'
'Star_'
'Stankovic_'
'Standart_'
'Split_'
'Slovak_'
'Simsek_'
'Simeon_'
'Should_'
'Shala_'
'Serge_'
'Seeking_'
'Sedat_'
'Saxe_'
'Saudi_'
'Sandzak_'
'S_'
'SRS_'
'SP_'
'Robertson_'
'Records_'
'Recently_'
'Radmila_'
'Qatar_'
'Putin_'
'Proeski_'
'Privatisation_'
'Presevo_'
'Pre_'
'Popovski_'
'Popovic_'
'Petersen_'
'Persons_'
'Passy_'
'Park_'
'Paddy_'
'Orhan_'
'Observers_'
'O_'
'Noting_'
'Nobel_'
'Nicosia_'
'Nica_'
'Nesovski_'
'Music_'
'Moon_'
'Monitor_'
'Moldovan_'
'Milo_'
'Mihajlovic_'
'Markos_'
'Market_'
'Mark_'
'Maria_'
'Mandic_'
'Malovic_'
'MIA_'
'Luxembourg_'
'Lukovic_'
'Lukic_'
'Ljubicic_'
'Life_'
'Let_'
'Leakey_'
'Later_'
'Lake_'
'Labour_'
'Kyprianou_'
'Kurti_'
'Kukes_'
'Kragujevac_'
'Kosumi_'
'Kosovars_'
'Kosanovic_'
'Key_'
'Kemal_'
'Karolos_'
'Kadare_'
'Kabashi_'
'KLA_'
'Judiciary_'
'Judge_'
'Jewish_'
'Jean_'
'Jankovic_'
'Jagodina_'
'Is_'
'Intelligence_'
'India_'
'Iliescu_'
'Ilic_'
'IPA_'
'Hotel_'
'Hollywood_'
'Holding_'
'History_'
'Hellenic_'
'Headquarters_'
'Harry_'
'Haris_'
'Gregory_'
'Great_'
'Governor_'
'Gordon_'
'Google_'
'Golden_'
'God_'
'Gashi_'
'GERB_'
'Franco_'
'Focus_'
'Final_'
'Exchange_'
'Everything_'
'Europeans_'
'Established_'
'Erwan_'
'Environment_'
'England_'
'Emil_'
'Elections_'
'Education_'
'EIB_'
'Ditore_'
'Dialogue_'
'Dervis_'
'Demetris_'
'Del_'
'Daskalaki_'
'D_'
'Cvetkovic_'
'Customs_'
'Credit_'
'Control_'
'Company_'
'Common_'
'Commander_'
'Cold_'
'Coburg_'
'Cicek_'
'Charter_'
'Chancellor_'
'Cemil_'
'Capital_'
'Buyukanit_'
'Butmir_'
'Burns_'
'Brazilian_'
'Blair_'
'Biljana_'
'Besa_'
'Beqaj_'
'Belgian_'
'Belene_'
'Bar_'
'Bamir_'
'Baghdad_'
'BSP_'
'BC_'
'Azerbaijan_'
'Assad_'
'Armenians_'
'Armenia_'
'Argentina_'
'Arabia_'
'Angelopoulos_'
'Anatolian_'
'America_'
'Amariei_'
'Alina_'
'Admiral_'
'Administrative_'
'Administration_'
'Accession_'
'ANKARA_'
'97_'
'92_'
'91_'
'87_'
'84_'
'57_'
'50m_'
'4m_'
'265_'
'1m_'
'1970s_'
'1950_'
'128_'
'126_'
'107_'
'..._'
'&_'
'%) _'
'!_'
' ... [_'
' --_'
' ($_'
'„[_'
'“. „_'
'џамијата_'
'њус_'
'југоисточниот_'
'југоисточна_'
'југ_'
'јапонската_'
'јазот_'
'јазици_'
'ѕидови_'
'ѕид_'
'штом_'
'шкрилци_'
'ширењето_'
'ширење_'
'чува_'
'човековиот_'
'четирипати_'
'четврти_'
'честитки_'
'честита_'
'челик_'
'чекаме_'
'чекам_'
'црногорското_'
'црниот_'
'црна_'
'црквите_'
'црквата_'
'цивил_'
'центри_'
'цензура_'
'целосното_'
'цврсто_'
'цврст_'
'цвеќе_'
'царинскиот_'
'царински_'
'царинска_'
'хуманитарната_'
'хотелот_'
'хероин_'
'хаус_'
'функционирањето_'
'функции_'
'фудбалскиот_'
'фудбалска_'
'фудбалер_'
'фрлање_'
'француското_'
'француски_'
'фотографиите_'
'формиран_'
'формираа_'
'форми_'
'формално_'
'фондовите_'
'фондацијата_'
'фондација_'
'фолклорни_'
'фокусираше_'
'фокусирани_'
'финансирањето_'
'филозофија_'
'филмска_'
'филијали_'
'физички_'
'физичка_'
'фестивали_'
'факто_'
'факти_'
'учи_'
'учење_'
'учениците_'
'утврдени_'
'уставни_'
'успешен_'
'условно_'
'усвојуваоето_'
'уредник_'
'управува_'
'управата_'
'упати_'
'уништуваое_'
'уништи_'
'универзитетите_'
'унапредување_'
'унапреди_'
'уметничка_'
'укине_'
'укинати_'
'укината_'
'укинат_'
'уживаат_'
'уверуваое_'
'ублажи_'
'убиен_'
'убива_'
'убедат_'
'уапсија_'
'турнирот_'
'туристичките_'
'тужба_'
'труд_'
'тројката_'
'тридневната_'
'тридневен_'
'трето_'
'третира_'
'третиот_'
'третина_'
'трговците_'
'трајно_'
'трајна_'
'трансформацијата_'
'трансформација_'
'транспарентност_'
'транспаренти_'
'трансакции_'
'традицијата_'
'традиционално_'
'традиционални_'
'точно_'
'толеранција_'
'тивка_'
'терористичка_'
'терористите_'
'терен_'
'температурите_'
'телекомот_'
'текст_'
'тегови_'
'тврдина_'
'тврдења_'
'танцот_'
'тактика_'
'таквиот_'
'таблички_'
'сфери_'
'сфаќа_'
'суштински_'
'суспендираше_'
'суспендира_'
'сумата_'
'судови_'
'субвенции_'
'стратешката_'
'стратегии_'
'странци_'
'странска_'
'стравувањата_'
'стравувајќи_'
'страв_'
'стоки_'
'стоката_'
'стигнат_'
'стигна_'
'статутот_'
'статистички_'
'стариот_'
'стапките_'
'стапица_'
'станбени_'
'стакло_'
'стагнација_'
'ставија_'
'ставена_'
'ставаое_'
'стабилно_'
'срцето_'
'српско_'
'средни_'
'средини_'
'сребрени_'
'сребрен_'
'срам_'
'спротивставени_'
'спроведуваме_'
'спроведен_'
'спречуваат_'
'спречат_'
'спрема_'
'спортските_'
'спорната_'
'спонзор_'
'споменува_'
'споменици_'
'спомена_'
'споени_'
'списоци_'
'списанието_'
'спикер_'
'специјалните_'
'специфични_'
'специфицираат_'
'сојузот_'
'сојузничките_'
'сојузник_'
'социјално_'
'софтверски_'
'состоеја_'
'состав_'
'сосед_'
'соработувале_'
'сопственикот_'
'сопственик_'
'сопствената_'
'сопствена_'
'сопруга_'
'соочувањето_'
'соочија_'
'соочени_'
'сообраќај_'
'соништа_'
'соживот_'
'согласиле_'
'современа_'
'советници_'
'советник_'
'снимки_'
'снабдувањето_'
'смирен_'
'смират_'
'сметката_'
'сметаа_'
'сместена_'
'случило_'
'служи_'
'словачки_'
'слободи_'
'сличните_'
'сличен_'
'следното_'
'следиме_'
'скопскиот_'
'скокна_'
'скијаое_'
'скептицизам_'
'скала_'
'сириската_'
'сини_'
'синдикати_'
'синдикат_'
'симболи_'
'сеќавање_'
'сеќава_'
'сестри_'
'сестра_'
'семинар_'
'семејни_'
'села_'
'секаков_'
'секако_'
'секаде_'
'сегашната_'
'североисточна_'
'северните_'
'северениот_'
'свика_'
'светско_'
'свест_'
'свесни_'
'сведоци_'
'самоубиство_'
'сакал_'
'ручек_'
'руралните_'
'рудниците_'
'рочиштето_'
'романска_'
'родителите_'
'роденден_'
'ризици_'
'решителност_'
'решаваое_'
'решава_'
'реформира_'
'ретко_'
'реструктуирање_'
'ресторан_'
'релевантните_'
'рекол_'
'резерви_'
'редови_'
'редица_'
'регистрирање_'
'регистар_'
'реална_'
'реализиран_'
'реализацијата_'
'рации_'
'раце_'
'рафинерија_'
'расчисти_'
'растот_'
'расправија_'
'распоредувањето_'
'распоредување_'
'распоредот_'
'распиша_'
'раскажува_'
'рано_'
'раните_'
'рамнотежа_'
'ракот_'
'раката_'
'разузнавање_'
'разузнавачка_'
'разочарување_'
'разни_'
'размислување_'
'размени_'
'размената_'
'разликите_'
'разговор_'
'разговараме_'
'разгледуваат_'
'развиен_'
'развие_'
'развива_'
'работното_'
'работно_'
'работник_'
'работењето_'
'работам_'
'пумпи_'
'проширените_'
'прошират_'
'проценки_'
'процедурите_'
'процедурата_'
'профитот_'
'професионалните_'
'професионална_'
'протокол_'
'противниците_'
'противење_'
'протестираа_'
'прославуваат_'
'просечни_'
'просечен_'
'променливи_'
'прокурдската_'
'производителите_'
'производите_'
'проектилски_'
'проевропски_'
'продолжувањето_'
'продолжуваое_'
'продолжение_'
'продавници_'
'продавам_'
'прогрес_'
'програмите_'
'прогласување_'
'прогласија_'
'прогласена_'
'проверка_'
'про_'
'пријателство_'
'пријателите_'
'пријател_'
'прифаќаоето_'
'прифатена_'
'прифатат_'
'пристигнувањето_'
'пристапија_'
'природно_'
'природа_'
'припишува_'
'приоритетите_'
'приод_'
'принципите_'
'принудува_'
'примери_'
'примаат_'
'прилив_'
'признание_'
'признавањето_'
'придонесува_'
'привилегирано_'
'приближно_'
'претставништво_'
'претставен_'
'претседателите_'
'претседавање_'
'претседавач_'
'претпочита_'
'претпоставува_'
'претпазливост_'
'претворање_'
'пресекување_'
'преработка_'
'препорака_'
'преостанати_'
'пренесени_'
'пренесен_'
'пренесе_'
'преминот_'
'премините_'
'преминат_'
'прекуграничната_'
'прекинати_'
'преиспита_'
'преземени_'
'преземањето_'
'предупредувајќи_'
'предупредија_'
'предностите_'
'предмет_'
'предлози_'
'предводеше_'
'предводен_'
'предаден_'
'предаваое_'
'први_'
'првенството_'
'праша_'
'практично_'
'практики_'
'практика_'
'празник_'
'правната_'
'појавија_'
'појава_'
'поширокиот_'
'поширок_'
'почнуваат_'
'почнува_'
'почнеме_'
'почнат_'
'почекам_'
'поттикнува_'
'потрошувачките_'
'потрошена_'
'потпишат_'
'потпишана_'
'поткопува_'
'построги_'
'постојната_'
'постојаните_'
'постојани_'
'постојана_'
'постоечките_'
'постигнуваое_'
'поставуваат_'
'посредува_'
'посочија_'
'послужи_'
'последното_'
'последни_'
'последица_'
'последен_'
'поскоро_'
'посилен_'
'поседуваат_'
'посветена_'
'портпаролката_'
'порталот_'
'портал_'
'попречи_'
'попречен_'
'поправат_'
'поништување_'
'понатамошните_'
'понатамошниот_'
'поморската_'
'поморска_'
'помогнаа_'
'помал_'
'полоша_'
'половите_'
'полноќ_'
'полни_'
'полна_'
'полн_'
'политичкото_'
'политики_'
'полза_'
'полето_'
'покријат_'
'покренат_'
'поканувам_'
'покажала_'
'позната_'
'позитивните_'
'позитивниот_'
'позајмување_'
'поен_'
'подобрената_'
'подобрена_'
'подобрат_'
'поднесен_'
'поделениот_'
'поделена_'
'поделби_'
'поддржувач_'
'поддржат_'
'поддржана_'
'подготвувањето_'
'подароци_'
'подалеку_'
'поголемо_'
'поглавје_'
'поврзување_'
'повисоко_'
'повикани_'
'повидок_'
'побрза_'
'победник_'
'побарувачка_'
'плус_'
'плашам_'
'платформата_'
'платат_'
'планирано_'
'планираната_'
'планирал_'
'планираат_'
'планините_'
'планина_'
'пишува_'
'писмена_'
'писма_'
'петмина_'
'песната_'
'перцепцијата_'
'перформанса_'
'патување_'
'патните_'
'патишта_'
'патеки_'
'парламентарците_'
'парламентарното_'
'парламентарно_'
'паравоената_'
'пар_'
'палатата_'
'палата_'
'пакт_'
'пакети_'
'пазарната_'
'оштетени_'
'оценката_'
'оцени_'
'официјалниот_'
'офицер_'
'отфрла_'
'отстрани_'
'отсекогаш_'
'отпочна_'
'отпатува_'
'открија_'
'откритија_'
'откритието_'
'откриени_'
'откажат_'
'откажа_'
'отиде_'
'отвораат_'
'отвора_'
'осудија_'
'острови_'
'остварливо_'
'останатиот_'
'останале_'
'остава_'
'основањето_'
'основач_'
'ослободување_'
'ослободени_'
'осигуруваое_'
'освојувањето_'
'оригиналните_'
'оригиналниот_'
'организирањето_'
'организираат_'
'организира_'
'општа_'
'оптоварува_'
'оптимисти_'
'опремата_'
'оправда_'
'операциите_'
'оперативна_'
'опасно_'
'олово_'
'олимпискиот_'
'окарактеризира_'
'одѕивот_'
'одржуваат_'
'одржлива_'
'одредуваат_'
'одредби_'
'одредбата_'
'одразуваат_'
'одобрувањето_'
'одобрување_'
'одобрени_'
'однесување_'
'одлучува_'
'одлучно_'
'одлучено_'
'одлуките_'
'одложувања_'
'одеднаш_'
'одделот_'
'одделение_'
'одговорат_'
'одбранбените_'
'одбиваат_'
'одбележува_'
'одбележи_'
'огромен_'
'ограничи_'
'ограничен_'
'оган_'
'овластуваоа_'
'објаснување_'
'обѕир_'
'образовниот_'
'обичаите_'
'обидот_'
'обидоа_'
'обемот_'
'обезбедуваое_'
'обезбедиме_'
'обединуваое_'
'обедини_'
'обединета_'
'обврската_'
'обвинија_'
'носат_'
'нормални_'
'новинар_'
'ниско_'
'ниските_'
'никому_'
'никакво_'
'нивни_'
'нешта_'
'нетрпение_'
'несогласувањата_'
'непријатна_'
'непријателски_'
'неопходно_'
'неопходните_'
'нелегалните_'
'некому_'
'некое_'
'некаде_'
'незаконски_'
'недостатоците_'
'недостатоци_'
'недоволен_'
'недоверба_'
'негативни_'
'негативната_'
'невозможно_'
'невладините_'
'небо_'
'најновите_'
'најнова_'
'најмалите_'
'најдам_'
'најголемото_'
'најголемо_'
'највисокиот_'
'највисока_'
'најважно_'
'најважните_'
'нашето_'
'научници_'
'научните_'
'научна_'
'научен_'
'натпреваруваат_'
'настапат_'
'насоки_'
'насловен_'
'наследник_'
'насилните_'
'наредија_'
'напредува_'
'напредна_'
'направен_'
'наоfаат_'
'наметнуваат_'
'наметнува_'
'намерно_'
'намалените_'
'намалена_'
'надмина_'
'надгледува_'
'надворешните_'
'навивачите_'
'наведени_'
'муслиманските_'
'муслиманскиот_'
'мото_'
'мотивација_'
'мотив_'
'морето_'
'море_'
'монетарни_'
'момчиња_'
'моментот_'
'можните_'
'можната_'
'можев_'
'моето_'
'моделот_'
'мобилните_'
'мобилниот_'
'мобилна_'
'мнозински_'
'мисли_'
'мислат_'
'мировниците_'
'мировници_'
'миот_'
'минатите_'
'милитантната_'
'меѓународното_'
'механизми_'
'методи_'
'месечна_'
'менува_'
'менаџментот_'
'менаџмент_'
'меморандум_'
'медиумските_'
'меfународните_'
'машки_'
'мачи_'
'мачат_'
'мафијата_'
'масовни_'
'манастирот_'
'малцински_'
'мало_'
'македонско_'
'макар_'
'маици_'
'магнат_'
'лута_'
'луксузни_'
'лошото_'
'лошата_'
'логично_'
'литри_'
'литературни_'
'литературата_'
'лист_'
'лидерите_'
'легитимитет_'
'легитимен_'
'лажни_'
'куси_'
'курс_'
'курдските_'
'курдскиот_'
'купувачите_'
'културното_'
'кршење_'
'критичарите_'
'критикувана_'
'критериум_'
'криминалците_'
'криминалци_'
'кризните_'
'кризна_'
'кривично_'
'крене_'
'кредитен_'
'крв_'
'крајните_'
'кратка_'
'кратењата_'
'кралски_'
'кралот_'
'краен_'
'корпорејшн_'
'користени_'
'корисниците_'
'корени_'
'копнени_'
'контроверзната_'
'контекст_'
'конкуренцијата_'
'конкретно_'
'конкретна_'
'конзервативна_'
'конечните_'
'комунални_'
'кому_'
'компјутерите_'
'компромисно_'
'компоненти_'
'комплетира_'
'комплекс_'
'компаниите_'
'комисиите_'
'коментарот_'
'коментари_'
'комедија_'
'кого_'
'коалициската_'
'книга_'
'клучната_'
'клубот_'
'кипарски_'
'квалитет_'
'категории_'
'карактеристики_'
'капиталот_'
'канцеларка_'
'канцеларии_'
'кантонот_'
'кандидатурите_'
'кандидатот_'
'кандидатите_'
'камп_'
'казната_'
'кажеме_'
'кажано_'
'кажа_'
'каеда_'
'кабинет_'
'итен_'
'италијанскиот_'
'италијански_'
'исчезнатите_'
'исходот_'
'истражувач_'
'исти_'
'истакне_'
'истакнати_'
'истакната_'
'истакнат_'
'испраќаат_'
'испратено_'
'испратени_'
'испратена_'
'исполниме_'
'испитувањето_'
'испитување_'
'испитаници_'
'испитаните_'
'исламскиот_'
'исламска_'
'искрени_'
'искористиме_'
'ископувањата_'
'исклучок_'
'искажуваат_'
'искажа_'
'инцидентите_'
'информираше_'
'интернешнал_'
'интересот_'
'интегрирање_'
'интегрираат_'
'инспекции_'
'индустриската_'
'индивидуално_'
'ингеренциите_'
'инвестициона_'
'имиџ_'
'имате_'
'имала_'
'илегалната_'
'изразувајќи_'
'израз_'
'изложени_'
'изложена_'
'извршува_'
'извршниот_'
'извршија_'
'извонреден_'
'извини_'
'известување_'
'извесно_'
'извезува_'
'избрана_'
'изборен_'
'изберат_'
'избегнат_'
'идентификуваше_'
'идентификувани_'
'играше_'
'играчки_'
'игнорира_'
'значителна_'
'значењето_'
'значеое_'
'значајно_'
'знаме_'
'земјотрес_'
'земјоделците_'
'земјак_'
'зема_'
'здруженија_'
'здружението_'
'здравје_'
'здравствен_'
'зголемувања_'
'зголемила_'
'зголемената_'
'зборовите_'
'зајакнува_'
'зајакната_'
'заштитен_'
'заштитат_'
'зачувување_'
'зачува_'
'затвориме_'
'затворен_'
'затворањето_'
'затворат_'
'затвора_'
'затајување_'
'засолниште_'
'заснована_'
'заслужува_'
'засекогаш_'
'запре_'
'започнуваое_'
'започнуваат_'
'западна_'
'заостане_'
'занимаваат_'
'замокот_'
'заминување_'
'заминуваое_'
'замина_'
'заменици_'
'заложбите_'
'законските_'
'заклучи_'
'закажани_'
'закажан_'
'заинтересирана_'
'задржа_'
'задолжени_'
'задолжена_'
'задоволство_'
'задачите_'
'задачи_'
'загуба_'
'загрози_'
'завршиле_'
'забрани_'
'жител_'
'животот_'
'животите_'
'живина_'
'живееше_'
'живеел_'
'женските_'
'жалбата_'
'етничко_'
'ерата_'
'ера_'
'енерџи_'
'енергетиката_'
'елементи_'
'електронските_'
'екстремизмот_'
'екстрадиран_'
'експлозијата_'
'експлозија_'
'експертска_'
'експанзијата_'
'ексклузивното_'
'еколошките_'
'еколошки_'
'едногодишен_'
'европско_'
'евентуален_'
'држи_'
'држат_'
'драмски_'
'доцни_'
'доход_'
'достоинство_'
'достави_'
'доста_'
'допре_'
'дополнителните_'
'донесоа_'
'доминираат_'
'должности_'
'должничката_'
'долж_'
'долготрајната_'
'докажуваат_'
'докажува_'
'докажа_'
'дознаки_'
'дозволиме_'
'дозволат_'
'доживотен_'
'додели_'
'доделени_'
'добивањето_'
'доаѓањето_'
'доаѓање_'
'доаfаат_'
'доаfа_'
'дневно_'
'дневната_'
'длабоко_'
'дијаспората_'
'дистрибуцијата_'
'дискутира_'
'дискриминација_'
'директорите_'
'директори_'
'дипломатски_'
'дипломатија_'
'динари_'
'димензија_'
'ди_'
'дејствуваат_'
'дејство_'
'дејли_'
'детали_'
'дестабилизира_'
'десетина_'
'депонија_'
'демонстрации_'
'демонстрантите_'
'демократскиот_'
'демократизација_'
'деловни_'
'делегациите_'
'делегатите_'
'декларацијата_'
'девојка_'
'девизните_'
'дебати_'
'двојна_'
'дводневната_'
'движеоето_'
'дваесет_'
'датираат_'
'датира_'
'даночното_'
'даночна_'
'грип_'
'грешка_'
'граѓанско_'
'граничните_'
'гранична_'
'градски_'
'градоначалниците_'
'градби_'
'гориво_'
'годините_'
'глетка_'
'гледачи_'
'гледам_'
'глава_'
'гест_'
'геноцидот_'
'генералот_'
'гасот_'
'гарда_'
'гаранциите_'
'г_'
'времиња_'
'вредноста_'
'врв_'
'враќаоето_'
'враќа_'
'вратата_'
'вработувањето_'
'впечаток_'
'воспоставуваоето_'
'вообичаено_'
'вонредни_'
'вонредна_'
'возрасни_'
'возможно_'
'возилата_'
'возила_'
'воздржат_'
'водеше_'
'водеое_'
'воведен_'
'внатрешен_'
'внатре_'
'вмешани_'
'влошена_'
'влегувањето_'
'влегоа_'
'владината_'
'владејачки_'
'владее_'
'вкупна_'
'вкупен_'
'вклучен_'
'вистинска_'
'високообразовен_'
'висат_'
'виновна_'
'вино_'
'вика_'
'визна_'
'визите_'
'вие_'
'видовме_'
'виделе_'
'видат_'
'ветува_'
'ветивме_'
'весници_'
'веројатноста_'
'верата_'
'вашиот_'
'важните_'
'бруто_'
'брои_'
'бригада_'
'брегот_'
'брег_'
'бојкотот_'
'бојкотираат_'
'бојкоти_'
'бориме_'
'борец_'
'бордот_'
'болнички_'
'болниците_'
'болници_'
'болести_'
'богатите_'
'блокирање_'
'блокирана_'
'блокираат_'
'блокадата_'
'блок_'
'блиски_'
'благосостојба_'
'благодарност_'
'биро_'
'билет_'
'бизнисите_'
'бидете_'
'бивша_'
'бесплатна_'
'бенефиции_'
'белградските_'
'белградски_'
'белградската_'
'белгискиот_'
'безбедна_'
'бегалецот_'
'бев_'
'барајќи_'
'бараоето_'
'банк_'
'атлетичари_'
'атлантска_'
'аспирации_'
'археолошки_'
'археолозите_'
'апсења_'
'апсеое_'
'апсеоа_'
'антички_'
'анонимен_'
'анкетата_'
'анкарскиот_'
'ангажман_'
'ангажираност_'
'аналитичарот_'
'амбасадорите_'
'амбасади_'
'амандмани_'
'алијансата_'
'актуелни_'
'активисти_'
'активен_'
'актерка_'
'академска_'
'административни_'
'адвокатите_'
'агенциите_'
'автор_'
'автопатот_'
'автопат_'
'автобуси_'
'австриски_'
'австриската_'
'Ширак_'
'Шешељ_'
'Шефицата_'
'Швајцарија_'
'Шала_'
'Шабан_'
'Членот_'
'Чикои_'
'Четири_'
'Чериќ_'
'Чаглавица_'
'Црногорскиот_'
'Црнадак_'
'Цитирајќи_'
'ЦИК_'
'Христос_'
'Хрватското_'
'Хоти_'
'Хисени_'
'Фридом_'
'Фрејзер_'
'Францускиот_'
'Франциско_'
'Франко_'
'Форум_'
'Фониќи_'
'Фондацијата_'
'Флоријан_'
'Филмот_'
'Факултетот_'
'Уставниот_'
'Убеден_'
'Трката_'
'Трите_'
'Третиот_'
'Тоска_'
'Топи_'
'Тешко_'
'Тереза_'
'Телеком_'
'Театарот_'
'Тајната_'
'Тајмс_'
'Тарчуловски_'
'Танер_'
'Сулејман_'
'Стеван_'
'Средствата_'
'Спорот_'
'Социјалдемократскиот_'
'Социјалдемократска_'
'Состанокот_'
'Сорен_'
'Солун_'
'Сокол_'
'Снежана_'
'Сметаме_'
'Сметам_'
'Слободна_'
'Силите_'
'Сигурен_'
'Серж_'
'Секое_'
'Сезер_'
'Сегашниот_'
'Светска_'
'Светла_'
'Свети_'
'Сан_'
'Самуел_'
'Самир_'
'Сами_'
'Самарџиќ_'
'Сакам_'
'Садовиќ_'
'Садику_'
'ССА_'
'СПО_'
'СЕЕЦП_'
'СДС_'
'САРС_'
'С_'
'Рупел_'
'Румјана_'
'Румен_'
'Рохан_'
'Романци_'
'Романските_'
'Родригез_'
'Роден_'
'Ријека_'
'Решението_'
'Рамадановиќ_'
'Разван_'
'Раду_'
'Радмила_'
'Радикал_'
'Работниците_'
'РТС_'
'ПфП_'
'Пулај_'
'Професорот_'
'Протестите_'
'Проески_'
'Проектите_'
'Програма_'
'Проблемот_'
'Приходите_'
'Призрен_'
'Приватизацијата_'
'Претходниот_'
'Прелиминарните_'
'Првично_'
'Прага_'
'Почетокот_'
'Потребна_'
'Постои_'
'Постигнат_'
'После_'
'Портпаролот_'
'Поранешната_'
'Поповиќ_'
'Поздравувајќи_'
'Подоцна_'
'Повелбата_'
'Плива_'
'Платите_'
'Петров_'
'Петнаесет_'
'Петков_'
'Пауел_'
'Парламент_'
'Пакистан_'
'Па_'
'ПАЦЕ_'
'Орхан_'
'Организираниот_'
'Организаторите_'
'Опреа_'
'Опишувајќи_'
'Оние_'
'Олимпик_'
'Овогодинешниот_'
'Објектот_'
'Објавувајќи_'
'Обвинетите_'
'Обвиненијата_'
'ОВК_'
'Норвешка_'
'Новинар_'
'Нивното_'
'Нивниот_'
'Нивната_'
'Ни_'
'Неџдет_'
'Нејзината_'
'Неодамна_'
'Немаме_'
'Независниот_'
'Недостатокот_'
'Најновата_'
'Нашиот_'
'Народна_'
'Нано_'
'Назначувањето_'
'Над_'
'Наградите_'
'Наградата_'
'Навистина_'
'Мудис_'
'Муамер_'
'Мраз_'
'Мојата_'
'Минхен_'
'Милош_'
'Миле_'
'Меѓународна_'
'Метју_'
'Медиу_'
'Медиафакс_'
'Медведев_'
'Мајкрософт_'
'Мајко_'
'Мајка_'
'Марнак_'
'Маркач_'
'Мариќ_'
'Максим_'
'МЦВ_'
'МКГ_'
'МИА_'
'МЕСС_'
'Лупу_'
'Лукиќ_'
'Лос_'
'Лично_'
'Лисабонскиот_'
'Лимани_'
'Лабус_'
'Кушнер_'
'Куци_'
'Курдистански_'
'Курдистанската_'
'Кузмановиќ_'
'Критикувајќи_'
'Коњановски_'
'Коха_'
'Косановиќ_'
'Кос_'
'Корча_'
'Конкордија_'
'Кои_'
'Кнежевиќ_'
'Кипарските_'
'Кипарскиот_'
'Кетрин_'
'Катимерини_'
'Карлос_'
'Канцеларија_'
'Кампањата_'
'Калфин_'
'Какви_'
'Казахстан_'
'КВП_'
'КАДЕК_'
'Истрагите_'
'Интерпол_'
'Институт_'
'Индонезија_'
'Индексот_'
'Имајќи_'
'Имаше_'
'Имаме_'
'Илир_'
'Изетбеговиќ_'
'Извори_'
'Изборите_'
'Иднината_'
'Игри_'
'Игли_'
'Ивајло_'
'Иваниќ_'
'ИНА_'
'ИАЕА_'
'Зеница_'
'Здравко_'
'ЗЕРП_'
'Женева_'
'ЕурАктив_'
'Ерменци_'
'Ер_'
'Ен_'
'Елизабета_'
'Електрика_'
'Експрес_'
'Едмонд_'
'Еди_'
'Европското_'
'Европска_'
'ЕЦБ_'
'ЕУФОР_'
'Другиот_'
'Дражен_'
'Домот_'
'Диторе_'
'Динк_'
'Димитар_'
'Дечани_'
'Децентрализацијата_'
'Даци_'
'Данокот_'
'Данило_'
'Давидовиќ_'
'ДНК_'
'ДНА_'
'Гордана_'
'Го_'
'Гети_'
'Гана_'
'Газа_'
'Војниците_'
'Војната_'
'Воениот_'
'Влаховиќ_'
'Влад_'
'Вкупно_'
'Вкупната_'
'Вицепремиерот_'
'Вицепремиерката_'
'Вимблдон_'
'Веќе_'
'Веројатно_'
'Велс_'
'Веле_'
'Ве_'
'Валентин_'
'Важно_'
'Бујар_'
'Бурса_'
'Букоши_'
'Брод_'
'Британскиот_'
'Британската_'
'Брамерц_'
'Борут_'
'Богдан_'
'Билт_'
'Бидејќи_'
'Бет_'
'Беса_'
'Бернард_'
'Берлин_'
'Белорусија_'
'Белата_'
'Баро_'
'Барнс_'
'Барбу_'
'Балканскиот_'
'Багдад_'
'Бабиќ_'
'БТА_'
'Асоцијацијата_'
'Асад_'
'Арди_'
'Арбен_'
'Анкетите_'
'Андриќ_'
'Анагностопулос_'
'Амандманот_'
'Алфред_'
'Алфа_'
'Алија_'
'Алина_'
'Албански_'
'Акдаг_'
'Академија_'
'Аднан_'
'АМБО_'
'АЕС_'
'Џејмс_'
'Џафери_'
'Јусуф_'
'Јордан_'
'Јанша_'
'Јанез_'
'Јадранската_'
'Јавното_'
'Ѓуровиќ_'
'Ѓорѓевиќ_'
'Ѓорѓе_'
'yielded_'
'yacht_'
'writing_'
'writers_'
'worse_'
'workplace_'
'worker_'
'word_'
'woke_'
'withstand_'
'wine_'
'windows_'
'white_'
'welcoming_'
'weight_'
'weighed_'
'weather_'
'weakness_'
'watching_'
'watchdog_'
'wasn_'
'warns_'
'warnings_'
'warm_'
'walls_'
'walks_'
'volume_'
'visions_'
'virus_'
'violated_'
'veto_'
'verdicts_'
'variety_'
'utmost_'
'uses_'
'usage_'
'uranium_'
'upgraded_'
'update_'
'unidentified_'
'underwater_'
'undermining_'
'underlying_'
'undergone_'
'undergoing_'
'uncovered_'
'unchanged_'
'ultranationalists_'
'ultranationalist_'
'types_'
'turns_'
'turmoil_'
'trusted_'
'truly_'
'trucks_'
'trouble_'
'triumph_'
'trees_'
'treat_'
'travelling_'
'travelled_'
'transparent_'
'transitional_'
'transferring_'
'tranche_'
'tragedy_'
'trafficked_'
'traditions_'
'trading_'
'tracks_'
'touched_'
'topped_'
'tool_'
'tone_'
'tightening_'
'tickets_'
'thrown_'
'threw_'
'threatening_'
'threaten_'
'thinks_'
'therefore_'
'theme_'
'thanks_'
'terminal_'
'tend_'
'temperatures_'
'tell_'
'teenager_'
'technologies_'
'teachers_'
'tape_'
'tangible_'
'tall_'
'systematic_'
'sworn_'
'sustain_'
'suspicion_'
'suspension_'
'survived_'
'survival_'
'surveyed_'
'surveillance_'
'supporter_'
'suppliers_'
'sums_'
'sultan_'
'suffer_'
'succession_'
'subsidies_'
'sub_'
'studying_'
'striving_'
'stringent_'
'stories_'
'stores_'
'stolen_'
'stipulated_'
'stickers_'
'steadily_'
'statesmen_'
'stars_'
'starred_'
'stabilise_'
'squad_'
'sq_'
'spreading_'
'spread_'
'spots_'
'sporting_'
'speculation_'
'specifying_'
'specialties_'
'specialist_'
'speaking_'
'sparks_'
'spark_'
'spare_'
'southwestern_'
'southeast_'
'soprano_'
'sophisticated_'
'solved_'
'soldier_'
'soil_'
'soft_'
'societies_'
'slowly_'
'slogans_'
'situated_'
'sitting_'
'singing_'
'simultaneously_'
'simultaneous_'
'silver_'
'signatories_'
'signaling_'
'sided_'
'shouldn_'
'shortcomings_'
'shops_'
'shock_'
'ships_'
'sharp_'
'shareholders_'
'shame_'
'shall_'
'shake_'
'sexual_'
'sessions_'
'separatist_'
'separation_'
'separately_'
'seminars_'
'selling_'
'selection_'
'seismic_'
'segments_'
'seemingly_'
'seem_'
'secures_'
'secularists_'
'secularism_'
'sections_'
'search_'
'saving_'
'save_'
'satisfaction_'
'rush_'
'ruins_'
'routinely_'
'routes_'
'rounds_'
'rotation_'
'roots_'
'rooted_'
'roadmap_'
'ro_'
'risky_'
'rid_'
'reward_'
'revised_'
'resulting_'
'restored_'
'restaurant_'
'respects_'
'resource_'
'resistance_'
'residence_'
'reshuffle_'
'reserved_'
'researcher_'
'rescue_'
'requiring_'
'requesting_'
'repression_'
'reporter_'
'replaces_'
'reopening_'
'renovated_'
'renewable_'
'removal_'
'remote_'
'remedies_'
'relying_'
'relation_'
'rejecting_'
'rehabilitation_'
'regulatory_'
'regulation_'
'regret_'
'registration_'
'regimes_'
'refusing_'
'reference_'
'reductions_'
'records_'
'reconsider_'
'recommends_'
'recommendation_'
'recognized_'
'reciprocity_'
'receives_'
'recalls_'
'rebuild_'
'realistic_'
'readings_'
'reaction_'
'ratify_'
'ratified_'
'rarely_'
'rapidly_'
'rail_'
'raid_'
'radical_'
'racial_'
'quiet_'
'pushed_'
'pursued_'
'purchased_'
'publisher_'
'publish_'
'psychological_'
'provoked_'
'protocols_'
'prosecuting_'
'prosecute_'
'prompting_'
'promoted_'
'profile_'
'professionals_'
'problematic_'
'prizes_'
'prestigious_'
'preserving_'
'preservation_'
'preparedness_'
'premiere_'
'precisely_'
'precise_'
'prayer_'
'pray_'
'practical_'
'poultry_'
'positively_'
'pope_'
'pool_'
'polo_'
'poets_'
'plus_'
'plot_'
'pledges_'
'pledge_'
'plea_'
'pictures_'
'pick_'
'physical_'
'photography_'
'photographs_'
'pervasive_'
'persistent_'
'permits_'
'permit_'
'permission_'
'perform_'
'perceptions_'
'perception_'
'percent_'
'pending_'
'penalties_'
'peacefully_'
'patrolling_'
'patriarch_'
'partnerships_'
'partial_'
'pardons_'
'palace_'
'painful_'
'owns_'
'ownership_'
'overthrow_'
'overnight_'
'outright_'
'outlining_'
'otherwise_'
'origins_'
'organs_'
'organization_'
'organisational_'
'ordnance_'
'ordinating_'
'opposite_'
'opponent_'
'operated_'
'occur_'
'obviously_'
'observe_'
'obliges_'
'objections_'
'nurse_'
'nowhere_'
'notorious_'
'notion_'
'note_'
'normally_'
'ninth_'
'newspapers_'
'neutrality_'
'networks_'
'neighbourhood_'
'negotiate_'
'nearby_'
'nationality_'
'nationalism_'
'namely_'
'mysterious_'
'museums_'
'murders_'
'movements_'
'mourning_'
'mosque_'
'mortality_'
'mood_'
'monuments_'
'monument_'
'monitors_'
'momentum_'
'modest_'
'modernise_'
'modeled_'
'minute_'
'mining_'
'minds_'
'milk_'
'migrants_'
'methods_'
'merger_'
'mercy_'
'mentality_'
'memory_'
'memorial_'
'medicine_'
'mediator_'
'meantime_'
'mayoral_'
'maturity_'
'massive_'
'marred_'
'maritime_'
'marched_'
'map_'
'male_'
'maintaining_'
'mainstream_'
'magnificent_'
'magic_'
'mafia_'
'macroeconomic_'
'lustration_'
'lowering_'
'lowered_'
'longtime_'
'locations_'
'lobbying_'
'liquidity_'
'lingering_'
'limits_'
'lighting_'
'lesson_'
'lengthy_'
'legislature_'
'leaves_'
'leaning_'
'lawsuit_'
'landscape_'
'landmark_'
'labeled_'
'knew_'
'keeps_'
'justifies_'
'justified_'
'judgment_'
'journalism_'
'jeopardy_'
'jeopardised_'
'isn_'
'iron_'
'involves_'
'investor_'
'invasion_'
'intervene_'
'interpretation_'
'interethnic_'
'integrate_'
'integral_'
'installed_'
'inspired_'
'inspectors_'
'insistence_'
'innocent_'
'injury_'
'influx_'
'influenced_'
'infection_'
'inevitable_'
'indirect_'
'indicating_'
'indebted_'
'inconsistent_'
'inciting_'
'inauguration_'
'inability_'
'impressive_'
'impression_'
'impressed_'
'importantly_'
'implications_'
'impacts_'
'immediate_'
'illicit_'
'ill_'
'ignore_'
'identities_'
'hypocrisy_'
'hydropower_'
'husband_'
'hurt_'
'hundred_'
'hub_'
'hr_'
'hosting_'
'honest_'
'hole_'
'highlights_'
'herself_'
'heron_'
'hence_'
'helps_'
'hedge_'
'heating_'
'heated_'
'heart_'
'haven_'
'hatred_'
'hate_'
'harmful_'
'handing_'
'hamper_'
'hailed_'
'gunned_'
'guidelines_'
'guided_'
'guess_'
'gross_'
'grid_'
'greenhouse_'
'graves_'
'granted_'
'gradual_'
'gov_'
'golden_'
'gesture_'
'generated_'
'games_'
'gaining_'
'functionality_'
'fulfils_'
'fulfilling_'
'fulfilled_'
'fuels_'
'fuelled_'
'fruit_'
'froze_'
'foundations_'
'foundation_'
'formula_'
'formidable_'
'formerly_'
'foresees_'
'footing_'
'foot_'
'folklore_'
'folk_'
'flu_'
'flew_'
'fleet_'
'fledged_'
'fixing_'
'fish_'
'fired_'
'fines_'
'fine_'
'finals_'
'fewer_'
'feels_'
'feasibility_'
'favorite_'
'fate_'
'farms_'
'faltered_'
'false_'
'fairly_'
'extraordinary_'
'extradite_'
'exporter_'
'explosion_'
'exploit_'
'experienced_'
'exit_'
'exhibit_'
'exercised_'
'exercise_'
'execution_'
'excited_'
'excellent_'
'exceeds_'
'exceeded_'
'excavation_'
'evolution_'
'evil_'
'eve_'
'escalation_'
'equivalent_'
'entrepreneurs_'
'entitled_'
'enthusiasm_'
'enjoying_'
'engaged_'
'engage_'
'enforce_'
'encourages_'
'enact_'
'enables_'
'employee_'
'employed_'
'employ_'
'emissions_'
'emerged_'
'embargo_'
'eliminate_'
'electric_'
'editorial_'
'economics_'
'east_'
'eased_'
'drought_'
'driven_'
'draws_'
'dramatically_'
'drama_'
'downturn_'
'doubts_'
'donations_'
'divide_'
'distant_'
'distance_'
'display_'
'discusses_'
'discovery_'
'disaster_'
'disappointment_'
'dinar_'
'die_'
'detainees_'
'destinations_'
'destination_'
'deportation_'
'deployment_'
'dependent_'
'departments_'
'denounced_'
'demanded_'
'delivery_'
'degree_'
'defunct_'
'defeats_'
'deepen_'
'deemed_'
'decreased_'
'declaring_'
'decisive_'
'debating_'
'curricula_'
'curb_'
'cubic_'
'crossed_'
'crises_'
'crew_'
'credits_'
'counterparts_'
'costly_'
'corps_'
'convinced_'
'convention_'
'convened_'
'contributes_'
'contributed_'
'contrary_'
'contracted_'
'contingent_'
'contents_'
'contender_'
'contemporary_'
'containing_'
'contacts_'
'consultation_'
'constructed_'
'consolidation_'
'consolidate_'
'consist_'
'conservation_'
'confiscation_'
'confiscated_'
'confirm_'
'confidential_'
'conclusions_'
'concluding_'
'concessions_'
'comply_'
'complied_'
'completes_'
'complain_'
'competent_'
'comparison_'
'committees_'
'commit_'
'commissions_'
'commissioner_'
'comfortable_'
'collection_'
'collecting_'
'collect_'
'colleague_'
'collaborated_'
'coincided_'
'clearer_'
'cleared_'
'class_'
'claiming_'
'civilisation_'
'circles_'
'choices_'
'checkpoints_'
'charter_'
'championship_'
'chain_'
'celebration_'
'celebrates_'
'cautioned_'
'causes_'
'cast_'
'careful_'
'carbon_'
'cannabis_'
'café_'
'busy_'
'burned_'
'burgeoning_'
'brutal_'
'broadcast_'
'broadband_'
'bribes_'
'bribery_'
'breaking_'
'breach_'
'branches_'
'boycotted_'
'borrowing_'
'bombing_'
'bold_'
'bloodshed_'
'bloggers_'
'blasts_'
'blamed_'
'bidders_'
'bias_'
'belonged_'
'believers_'
'belief_'
'behalf_'
'begging_'
'beautiful_'
'battling_'
'bargaining_'
'bar_'
'ballet_'
'background_'
'baby_'
'awaited_'
'authors_'
'attracted_'
'attitude_'
'atmosphere_'
'associations_'
'associate_'
'assessments_'
'assesses_'
'assess_'
'assemble_'
'aspirations_'
'aspect_'
'articles_'
'artefacts_'
'arrive_'
'arm_'
'argument_'
'archaeologists_'
'apprehend_'
'appoint_'
'applicable_'
'appearance_'
'apartments_'
'annulled_'
'announce_'
'animal_'
'analyses_'
'ambitions_'
'alarming_'
'afford_'
'affects_'
'advocates_'
'advancing_'
'advances_'
'actually_'
'activists_'
'acquired_'
'accounted_'
'accountability_'
'accident_'
'accede_'
'abuses_'
'absentia_'
'abolition_'
'abolish_'
'abide_'
'abandoned_'
'Zlatko_'
'Zilei_'
'Zdravko_'
'Zbogar_'
'Zastava_'
'Zadar_'
'Yes_'
'Years_'
'Yasar_'
'Workers_'
'Work_'
'Women_'
'Wolfgang_'
'Whether_'
'Were_'
'Welcoming_'
'Week_'
'WTO_'
'Voulgarakis_'
'Voice_'
'Visitors_'
'Visa_'
'Victor_'
'Vetevendosje_'
'Veselinovic_'
'Valley_'
'Uzbekistan_'
'UDF_'
'Tunisia_'
'Trust_'
'Troika_'
'Traykov_'
'Trajkovic_'
'Tourist_'
'Tose_'
'Topalli_'
'Tito_'
'Thousands_'
'Tax_'
'Talabani_'
'Sydney_'
'Svetla_'
'Summit_'
'Stock_'
'Stobi_'
'Steering_'
'Statistics_'
'Stari_'
'Stara_'
'Stambolic_'
'Srbije_'
'Srbija_'
'Square_'
'Spiric_'
'Soviet_'
'Southern_'
'Song_'
'Solomon_'
'Snezana_'
'Silajdzic_'
'Schwarz_'
'Schilling_'
'Savings_'
'Sava_'
'Santa_'
'Samardzic_'
'Sad_'
'SPS_'
'SOFIA_'
'Rudovic_'
'Rocen_'
'Riga_'
'Resolution_'
'Republican_'
'Reforms_'
'Ramush_'
'Railways_'
'Radovanovic_'
'Rade_'
'RWE_'
'RTRS_'
'Protesters_'
'Prosper_'
'Prosecutors_'
'Property_'
'Project_'
'Progressive_'
'Process_'
'Prizren_'
'Prince_'
'Press_'
'Power_'
'Powell_'
'Poverty_'
'Potter_'
'Portal_'
'Port_'
'Popular_'
'Pope_'
'Polish_'
'Podujevo_'
'Plus_'
'Plavsic_'
'Planning_'
'Planina_'
'Petrov_'
'Petkov_'
'Peres_'
'Peninsula_'
'Pavlevski_'
'Papademos_'
'Palestine_'
'Pale_'
'Pakistan_'
'P_'
'PBS_'
'Out_'
'Orchestra_'
'Online_'
'Once_'
'Oliver_'
'Ocalan_'
'Obviously_'
'Obama_'
'OECD_'
'Norwegian_'
'Nokia_'
'Nobody_'
'Niko_'
'Nicolae_'
'Nicholas_'
'Next_'
'Nenad_'
'Negotiations_'
'Nedjeljko_'
'Necdet_'
'Nebojsa_'
'Navy_'
'Naumovski_'
'NS_'
'NIS_'
'Municipalities_'
'Municipal_'
'Morina_'
'Moreover_'
'Moody_'
'Montenegrins_'
'Monitoring_'
'Money_'
'Mobile_'
'Mladjan_'
'Misko_'
'Miroljub_'
'Miranda_'
'Minority_'
'Mine_'
'Milanovic_'
'Mihai_'
'Meron_'
'Membership_'
'Members_'
'Mehmedovic_'
'Meglena_'
'Meeting_'
'Mediafax_'
'Maкедонскиот_'
'Martin_'
'Maric_'
'Marathon_'
'Manual_'
'Managing_'
'Management_'
'Makedonija_'
'Majlinda_'
'Macovei_'
'MRF_'
'MOL_'
'MARRI_'
'Lucas_'
'Long_'
'Like_'
'Lieutenant_'
'Lawrence_'
'Lavrov_'
'Latvia_'
'Lamberto_'
'Laden_'
'Kuzmanovic_'
'Kusturica_'
'Kurdistan_'
'Kuneva_'
'Kumanovo_'
'Krajina_'
'Kozloduy_'
'Kovacevic_'
'Kotor_'
'Kostov_'
'Korea_'
'Konjanovski_'
'Kingdom_'
'Kermabon_'
'Kastrati_'
'KESH_'
'KADEK_'
'Jusuf_'
'Judges_'
'Joseph_'
'Jordan_'
'Jones_'
'Joining_'
'Jocic_'
'Joachim_'
'Jihad_'
'Jews_'
'Jessen_'
'James_'
'Jalal_'
'Izmir_'
'Irish_'
'Investigators_'
'Investigative_'
'Inter_'
'Instrument_'
'Instead_'
'Insight_'
'Initiative_'
'Independence_'
'IV_'
'ICO_'
'ICC_'
'HotNews_'
'Hayssam_'
'Having_'
'Hasan_'
'Haliti_'
'Half_'
'HEP_'
'Grand_'
'Gracanica_'
'Goshev_'
'Gianna_'
'Georgia_'
'Gaza_'
'Gaz_'
'Gabriel_'
'Freedoms_'
'Ford_'
'Food_'
'Finnish_'
'Federal_'
'Fatos_'
'FER_'
'FC_'
'EУ_'
'Expo_'
'Evenimentul_'
'Eurostat_'
'Eurasian_'
'Establishing_'
'Eroglu_'
'Environmental_'
'Engin_'
'Emirates_'
'Elektroprivreda_'
'Electronic_'
'Early_'
'EUSR_'
'EUCOM_'
'Dubrovnik_'
'Drama_'
'Donors_'
'Djokovic_'
'Disciplinary_'
'Dimitrova_'
'Describing_'
'Declaration_'
'Data_'
'Danish_'
'Dance_'
'Dalmatian_'
'Daianu_'
'DSS_'
'Crete_'
'Corporation_'
'Contest_'
'Contemporary_'
'Consulate_'
'Commenting_'
'Code_'
'Clinton_'
'Classical_'
'Claiming_'
'Civic_'
'Children_'
'Century_'
'Celibashi_'
'Caucasus_'
'Canadian_'
'Camp_'
'Calling_'
'CERN_'
'CEO_'
'CEFTA_'
'Butler_'
'Burgas_'
'Bulgarians_'
'Bujar_'
'Boxing_'
'Bosanski_'
'Border_'
'Boost_'
'Book_'
'Bogoljub_'
'Bogdanovic_'
'Bogdan_'
'Blaga_'
'Biden_'
'Beth_'
'Best_'
'Basha_'
'Barbu_'
'Baku_'
'Bakoyannis_'
'Bakoyanni_'
'BIRN_'
'Aлбанското_'
'Aлбанскиот_'
'AП_'
'Astronomy_'
'Arena_'
'Are_'
'Anna_'
'Ana_'
'Americans_'
'Alsat_'
'Alevi_'
'Albert_'
'Agerpres_'
'Against_'
'Aegean_'
'Adnan_'
'Acknowledging_'
'AAK_'
'A1_'
'?“, _'
'999_'
'86_'
'800m_'
'79_'
'71_'
'550_'
'440_'
'3D_'
'360_'
'330_'
'30m_'
'300m_'
'279_'
'25m_'
'255_'
'230_'
'20m_'
'2016_'
'1985_'
'1980s_'
'1969_'
'1963_'
'1930_'
'190_'
'170_'
'142_'
'131_'
'125_'
'124_'
'110_'
'100th_'
'.[_'
'. ..._'
') - _'
'%), _'
'") _'
'!“_'
'!" _'
' -- „_'
' , _'
' ("_'
' ", _'
'“. (_'
'“,_'
'“, „_'
'ќелии_'
'љубљанска_'
'љубителите_'
'јужно_'
'јужната_'
'јужен_'
'југословенските_'
'југословенскиот_'
'југословенската_'
'југословенска_'
'је_'
'јапонски_'
'јазикот_'
'јадења_'
'ѕвезда_'
'штити_'
'штетите_'
'штетат_'
'шпекулираат_'
'шпански_'
'шоу_'
'шокираше_'
'шишиња_'
'широкото_'
'широката_'
'широк_'
'шират_'
'шеќер_'
'шефица_'
'шестмина_'
'шестиот_'
'шенген_'
'шеми_'
'шема_'
'шверцерите_'
'шверцери_'
'швајцарската_'
'шампион_'
'шамии_'
'чувствуваме_'
'чувствувам_'
'чувството_'
'чувство_'
'чувствителност_'
'чувствителните_'
'човечката_'
'членката_'
'члена_'
'читателите_'
'чита_'
'чиста_'
'чешкиот_'
'четиримесечје_'
'четиригодишен_'
'четвртинско_'
'четвртини_'
'четвртина_'
'четврта_'
'четворицата_'
'честиташе_'
'чест_'
'црпи_'
'црногорската_'
'црвена_'
'црвен_'
'цифри_'
'цитиран_'
'цинк_'
'цигарите_'
'цивилното_'
'цивилен_'
'центристичката_'
'централата_'
'целост_'
'целокупното_'
'цело_'
'целина_'
'царинските_'
'цариници_'
'хумор_'
'хуманитарна_'
'хуманитарен_'
'христијанско_'
'христијанските_'
'христијански_'
'хрватското_'
'хотелите_'
'холандските_'
'холандскиот_'
'хидроцентрали_'
'хидро_'
'хероинот_'
'хеликоптери_'
'хаос_'
'функционерите_'
'функционер_'
'функциите_'
'фундаментализам_'
'фудбалските_'
'фудбалот_'
'фронт_'
'фрлаат_'
'фрекфенцијата_'
'франк_'
'фотографија_'
'фотографите_'
'формула_'
'формирано_'
'формираат_'
'фондот_'
'фокусирање_'
'фокусирајќи_'
'фискално_'
'фирмите_'
'финансиран_'
'финалниот_'
'финалната_'
'финализираое_'
'финализирани_'
'финален_'
'финале_'
'филтри_'
'филмовите_'
'физика_'
'федерацијата_'
'федералниот_'
'фаќањето_'
'фаќање_'
'фајлови_'
'фашизмот_'
'фатен_'
'фармери_'
'фалат_'
'фактите_'
'фаворитите_'
'фаворизира_'
'училиштето_'
'учат_'
'уцена_'
'утро_'
'утре_'
'утврдување_'
'утврден_'
'уставен_'
'успешната_'
'успеси_'
'успеала_'
'успеал_'
'усогласување_'
'усогласи_'
'усогласат_'
'условувањето_'
'условна_'
'усвојуваое_'
'уредничката_'
'уредникот_'
'урбан_'
'ураниум_'
'управниот_'
'управен_'
'употребени_'
'употребат_'
'упади_'
'уништувајќи_'
'унилатерално_'
'универзитетски_'
'универзалните_'
'унгарските_'
'унгарскиот_'
'унгарската_'
'унапредувањето_'
'унапредуваоето_'
'умерен_'
'улици_'
'укинуваое_'
'укажува_'
'уживаше_'
'удвои_'
'уверливо_'
'уверија_'
'увезува_'
'убија_'
'убил_'
'убиваоа_'
'убедена_'
'убеден_'
'убавина_'
'уапсените_'
'турнејата_'
'тур_'
'трупа_'
'трудот_'
'трпи_'
'трошењето_'
'триумф_'
'тридневниот_'
'тридневна_'
'трејд_'
'треска_'
'трендот_'
'требал_'
'тргува_'
'трговци_'
'трговскиот_'
'трговската_'
'трансфер_'
'транспортните_'
'транспортниот_'
'транспарент_'
'трансакциите_'
'транзицијата_'
'транзитна_'
'траеја_'
'траеое_'
'традиционалните_'
'трагедијата_'
'тортура_'
'торби_'
'тон_'
'толпата_'
'толерира_'
'токму_'
'титулата_'
'титула_'
'типот_'
'тип_'
'тинејџер_'
'тима_'
'техники_'
'тесните_'
'тесна_'
'терор_'
'термоцентралата_'
'термоцентрала_'
'територијална_'
'теренски_'
'тепањето_'
'теорија_'
'тениска_'
'тендери_'
'темпо_'
'темите_'
'темата_'
'телевизиска_'
'текстот_'
'тековниот_'
'тежок_'
'тежина_'
'тврдење_'
'тврдењата_'
'тврдеше_'
'тајните_'
'таткото_'
'талент_'
'таксистите_'
'сцени_'
'сцената_'
'сценарио_'
'сферата_'
'суштинските_'
'суштината_'
'суштина_'
'суша_'
'сурова_'
'супер_'
'судско_'
'судрија_'
'судирот_'
'судења_'
'судеоето_'
'суден_'
'сувереноста_'
'субвенционира_'
'субвенциите_'
'студентките_'
'студентка_'
'студент_'
'струјата_'
'стреми_'
'стрелаштво_'
'стратегиски_'
'странците_'
'страните_'
'странец_'
'стравот_'
'столб_'
'стихови_'
'стипендија_'
'стимулира_'
'стигмата_'
'степенот_'
'статуата_'
'статија_'
'старата_'
'стар_'
'станувајќи_'
'стануваат_'
'станици_'
'стандард_'
'станбен_'
'станала_'
'стабилизирање_'
'стабилизацијата_'
'стабилен_'
'срцев_'
'среќни_'
'среќна_'
'среќен_'
'сретне_'
'среднорочни_'
'средновековен_'
'средно_'
'средбата_'
'сребро_'
'спротивни_'
'спротивен_'
'спроведуваоето_'
'спроведоа_'
'спречувањето_'
'спречуваое_'
'спречија_'
'справувањето_'
'справам_'
'способностите_'
'способности_'
'способноста_'
'спортисти_'
'спореди_'
'спонзорирани_'
'споменуваат_'
'споменикот_'
'споменати_'
'сподели_'
'списание_'
'специјалитети_'
'специјалист_'
'специфичните_'
'спектар_'
'спектакуларна_'
'спас_'
'сојузнички_'
'сојузи_'
'сочувство_'
'социјалната_'
'социјалистичката_'
'социјален_'
'социјалдемократите_'
'софтверските_'
'софиската_'
'состојби_'
'состаноците_'
'состави_'
'сослушување_'
'сопствен_'
'сопирачка_'
'соочуваме_'
'соочуваа_'
'соочиме_'
'соодветен_'
'сомнение_'
'сомнежи_'
'сомневањата_'
'сомнева_'
'солунскиот_'
'солзавец_'
'соларни_'
'соколи_'
'сознанија_'
'содржат_'
'согласат_'
'современ_'
'совпадна_'
'советува_'
'советниците_'
'собрани_'
'соборување_'
'собираое_'
'собира_'
'снимките_'
'снимка_'
'снимањето_'
'снабдувачите_'
'смртоносно_'
'смртните_'
'смртна_'
'смотра_'
'смирување_'
'сместување_'
'сместија_'
'сместен_'
'смеат_'
'слушнат_'
'слушнав_'
'слушаат_'
'слуша_'
'случуваоа_'
'службеник_'
'службата_'
'сложено_'
'сложена_'
'слогани_'
'словачкиот_'
'слободните_'
'слободите_'
'сликички_'
'следна_'
'следен_'
'следеа_'
'следбеници_'
'слабостите_'
'слабиот_'
'слаби_'
'слабата_'
'слаба_'
'скулптури_'
'скриено_'
'скрати_'
'скопската_'
'скок_'
'скијање_'
'скијачки_'
'скијачи_'
'ски_'
'скапоцен_'
'скапо_'
'скандал_'
'системите_'
'систематски_'
'систематска_'
'сирискиот_'
'синагоги_'
'сина_'
'симболична_'
'силното_'
'силната_'
'сигурноста_'
'сигурна_'
'сигнализира_'
'сеопфатните_'
'сеопфатни_'
'сеопфатна_'
'сеопфатен_'
'сензација_'
'сенатор_'
'семинарот_'
'семејна_'
'секојдневниот_'
'секои_'
'сезонски_'
'сегашен_'
'северноисточниот_'
'свртат_'
'свеќи_'
'свештеникот_'
'свечена_'
'светска_'
'светла_'
'свесна_'
'сведочеоето_'
'сведочеа_'
'сателитска_'
'самата_'
'сала_'
'сакаа_'
'рушевините_'
'рушевини_'
'руската_'
'рудникот_'
'рудник_'
'ротација_'
'романското_'
'романсиер_'
'роман_'
'рокот_'
'родното_'
'родно_'
'роднини_'
'роднина_'
'ризиците_'
'решително_'
'решителна_'
'решиме_'
'решеноста_'
'решено_'
'реципроцитет_'
'рециклирање_'
'рехабилитација_'
'реформскиот_'
'реформска_'
'реформираое_'
'реториката_'
'реструктуирањето_'
'рестрикциите_'
'репрезентацијата_'
'реорганизација_'
'реновирани_'
'религија_'
'религиозна_'
'рекордна_'
'реконстукцијата_'
'реконструирани_'
'рекламирањето_'
'река_'
'реинтеграција_'
'резултираа_'
'резултатот_'
'резервна_'
'резервите_'
'режија_'
'режисерот_'
'режисери_'
'редовите_'
'редефинира_'
'регистрирањето_'
'регистрирани_'
'регистрираат_'
'регистрација_'
'регистарските_'
'ревидираат_'
'ревидира_'
'реализирани_'
'реализира_'
'реакцијата_'
'реакциите_'
'реакторот_'
'реагираа_'
'реагира_'
'рајтс_'
'рашири_'
'раширено_'
'рација_'
'рафинеријата_'
'ратификација_'
'расходи_'
'растурање_'
'растечки_'
'растенија_'
'растежот_'
'растат_'
'расправии_'
'распоред_'
'распише_'
'рангирана_'
'рангира_'
'рана_'
'рамнотежата_'
'ракети_'
'рак_'
'разрешуваое_'
'разочарани_'
'разочаран_'
'разновидноста_'
'размислуваое_'
'размислувам_'
'размислуваат_'
'размислува_'
'размисли_'
'размер_'
'разменуваат_'
'разменува_'
'разменат_'
'различно_'
'разгоре_'
'разговарано_'
'разговарал_'
'разгледување_'
'разгледани_'
'развијат_'
'развиле_'
'развивање_'
'развиваат_'
'разви_'
'разбивање_'
'радост_'
'радиотелевизиски_'
'радиодифузна_'
'радикализмот_'
'радикали_'
'радарски_'
'работната_'
'работилници_'
'работење_'
'работен_'
'работев_'
'ра_'
'р_'
'пушат_'
'пур_'
'пункт_'
'пукање_'
'психолошко_'
'проширува_'
'проширени_'
'проширен_'
'прошетка_'
'процентно_'
'процентни_'
'процедура_'
'профитите_'
'профитираат_'
'професорите_'
'противпожарната_'
'противници_'
'противкандидат_'
'противат_'
'протестираат_'
'протекторат_'
'протега_'
'просторот_'
'просто_'
'прослават_'
'прослава_'
'просечниот_'
'просекот_'
'пропусти_'
'пропадне_'
'пропаднат_'
'пронајден_'
'пронајде_'
'пронаоfаое_'
'промовираоето_'
'промовираое_'
'промовираат_'
'променил_'
'променета_'
'прокурдска_'
'произлегоа_'
'производствените_'
'производители_'
'производ_'
'произведуваат_'
'проектилска_'
'проектил_'
'проекта_'
'продуценти_'
'продуцент_'
'продукција_'
'продуктивноста_'
'продолжувајќи_'
'продадат_'
'продавање_'
'проговори_'
'прогласувањето_'
'прогласени_'
'прогласат_'
'провинција_'
'проверува_'
'проверки_'
'проверена_'
'пријателството_'
'пријавуваат_'
'пријавија_'
'пријави_'
'пријавени_'
'пријават_'
'приштинскиот_'
'причините_'
'прифаќање_'
'прифаќам_'
'прифатливи_'
'прифатлив_'
'прифатени_'
'притоа_'
'прито_'
'притворените_'
'притворени_'
'присутните_'
'присутен_'
'присуствуваат_'
'пристигнаа_'
'пристаништата_'
'пристанишен_'
'приспособуваое_'
'прислушуваое_'
'припишуваат_'
'припаѓаат_'
'припадник_'
'припаfаат_'
'приоритетните_'
'примирје_'
'примероци_'
'примена_'
'примањата_'
'примања_'
'прилог_'
'прилика_'
'приклучуваоето_'
'приклучени_'
'прикажува_'
'прикажано_'
'прикажан_'
'признале_'
'признаениот_'
'признаен_'
'приемот_'
'придружуваше_'
'придружија_'
'придружат_'
'придонесоа_'
'придобивки_'
'придвижува_'
'приговорите_'
'привремените_'
'привремена_'
'привремен_'
'привлечноста_'
'привлечат_'
'привлекуваое_'
'привлекуваат_'
'привлекоа_'
'приватноста_'
'приватизира_'
'приближувањето_'
'приближуваое_'
'приближуваат_'
'префрлен_'
'префрлат_'
'претставувајќи_'
'претставничко_'
'претставил_'
'претставена_'
'претстават_'
'претстава_'
'претседателското_'
'претседателскиот_'
'претседателка_'
'претседавањето_'
'претседавачот_'
'претрпи_'
'претријатијата_'
'претресот_'
'претприемачки_'
'претприемачите_'
'претпостави_'
'претворени_'
'претворат_'
'претвора_'
'пресудите_'
'престојното_'
'престој_'
'престанат_'
'пресврт_'
'пренесувањето_'
'пренесуваат_'
'пренесува_'
'премине_'
'премиерката_'
'премиерка_'
'премиери_'
'прелиминарните_'
'прекршувања_'
'прекршија_'
'прекршени_'
'прекинување_'
'прекинуваат_'
'прекините_'
'прекини_'
'прекинаа_'
'презентира_'
'преземаа_'
'презедоа_'
'преживување_'
'предусловите_'
'предуслови_'
'предупредувањата_'
'предупредувања_'
'предност_'
'предложија_'
'предложените_'
'предложени_'
'предложен_'
'предизвикуваат_'
'предизвикано_'
'предизвикало_'
'предизвикаат_'
'предизборна_'
'предвидени_'
'предавник_'
'преговарачите_'
'преговараат_'
'превенција_'
'првична_'
'прашува_'
'прашалник_'
'пратенички_'
'практичната_'
'правосудството_'
'православните_'
'православен_'
'правниот_'
'правило_'
'правилно_'
'правам_'
'појасот_'
'појавување_'
'појавуваат_'
'појават_'
'пошти_'
'пошироко_'
'пошироката_'
'почитуваое_'
'почести_'
'почесната_'
'почесен_'
'почва_'
'пофалија_'
'потфат_'
'поттикнато_'
'потсетувајќи_'
'потрошувачки_'
'потрошувачката_'
'потрошувачка_'
'потрошувачи_'
'потреси_'
'потресе_'
'потребниот_'
'потребната_'
'потрае_'
'потполно_'
'потполковник_'
'потпишуваоето_'
'потпишано_'
'потпира_'
'поткопување_'
'потерниците_'
'потенцијалот_'
'потенцијална_'
'потекнува_'
'потези_'
'потврдува_'
'постројка_'
'постојан_'
'постигнувањата_'
'постигнати_'
'постигнам_'
'постигнала_'
'пости_'
'постат_'
'постари_'
'поставување_'
'посредство_'
'посредничка_'
'посредник_'
'посочуваат_'
'посочува_'
'посетуваат_'
'посетат_'
'посебни_'
'посебен_'
'посветен_'
'посакува_'
'порасне_'
'порасна_'
'поразувајќи_'
'поразена_'
'популарниот_'
'популарна_'
'попречуваат_'
'попречува_'
'поправка_'
'поправени_'
'попозитивен_'
'поплавите_'
'пописна_'
'поп_'
'понудена_'
'поништуваое_'
'поништена_'
'понеделниците_'
'понатамошното_'
'понапред_'
'поморските_'
'помогнам_'
'помлади_'
'помирувањето_'
'помируваоето_'
'поминување_'
'поминуваат_'
'поминале_'
'помагање_'
'помагале_'
'полуостров_'
'положува_'
'полноправното_'
'полициската_'
'полицаец_'
'покриен_'
'покривањето_'
'покривање_'
'покренуваат_'
'покрене_'
'покренал_'
'покрена_'
'покраина_'
'покори_'
'покачување_'
'поканивме_'
'поканети_'
'поканета_'
'покажувајќи_'
'покажало_'
'поинаков_'
'познатите_'
'позитивно_'
'пожали_'
'поет_'
'поезијата_'
'поезија_'
'поединците_'
'подредени_'
'подразбира_'
'подобрувања_'
'подобруваоето_'
'подобрените_'
'поднесуваат_'
'поднесол_'
'поднесле_'
'подмири_'
'подложна_'
'подигнат_'
'подигнаа_'
'подигна_'
'поделен_'
'поделат_'
'поддржуваме_'
'поддржани_'
'поддржаа_'
'подготвуваат_'
'подарок_'
'погрешни_'
'погрешна_'
'погранични_'
'погледнат_'
'поглавјата_'
'повторувајќи_'
'повторува_'
'повторната_'
'површина_'
'поврзат_'
'поврзано_'
'повреден_'
'поволна_'
'поволен_'
'повлекување_'
'повлекуваое_'
'повлекуваат_'
'повлекоа_'
'повиците_'
'повикуваме_'
'повикувам_'
'повелбата_'
'побуна_'
'поблиски_'
'поблиска_'
'победничка_'
'побегна_'
'побараат_'
'плоштадот_'
'плоштад_'
'плод_'
'платиле_'
'платен_'
'планираше_'
'планираое_'
'планираните_'
'планирани_'
'планинските_'
'планинарите_'
'плажата_'
'пиштоли_'
'писатели_'
'пилот_'
'пиварница_'
'пејачка_'
'пејач_'
'печатените_'
'петти_'
'петте_'
'петтата_'
'петгодишен_'
'песна_'
'песимист_'
'перцепција_'
'перцепции_'
'перењето_'
'перење_'
'пензија_'
'пензиски_'
'пензиониран_'
'пензионира_'
'пензионери_'
'пенетрација_'
'паѓа_'
'пациентите_'
'пауза_'
'патувањето_'
'патувања_'
'патуваше_'
'патролираат_'
'патриотизам_'
'патни_'
'пасошот_'
'пасоши_'
'партискиот_'
'партиска_'
'парламентарци_'
'паркот_'
'парични_'
'парична_'
'паричен_'
'паралелни_'
'пандемија_'
'пан_'
'палење_'
'пазарните_'
'пазарна_'
'паднаа_'
'очи_'
'очекуваното_'
'очекуваната_'
'очекувавме_'
'охрабрувачки_'
'охрабруваме_'
'охрабрува_'
'офанзивата_'
'офанзива_'
'отфрлање_'
'отсуство_'
'отстрането_'
'отстранети_'
'отстранета_'
'отстапки_'
'отпуштени_'
'отпуштањето_'
'отпуштања_'
'отпочнувањето_'
'отпочне_'
'отпорот_'
'отоманскиот_'
'откриена_'
'открие_'
'откривањето_'
'откриваат_'
'открива_'
'отворените_'
'от_'
'осудува_'
'осуденици_'
'осудена_'
'осуда_'
'остра_'
'остварлив_'
'останати_'
'оставки_'
'оставија_'
'оставиме_'
'оставил_'
'остават_'
'оставаат_'
'особена_'
'особен_'
'основното_'
'основни_'
'основите_'
'основи_'
'основачот_'
'осмислен_'
'осмиот_'
'ослободен_'
'ослободат_'
'осигурат_'
'осврна_'
'освојувајќи_'
'освоил_'
'орден_'
'организираме_'
'организираа_'
'општото_'
'општо_'
'општинските_'
'општинскиот_'
'општи_'
'општествените_'
'општествата_'
'опфатени_'
'определен_'
'оправдано_'
'опозиционата_'
'оперска_'
'оперативен_'
'опаѓање_'
'опасностите_'
'оној_'
'омразата_'
'омраза_'
'олимпиското_'
'олимписките_'
'окупираат_'
'окрузи_'
'околности_'
'околните_'
'одржани_'
'одржал_'
'одредба_'
'одраз_'
'одобруваое_'
'одобрено_'
'одобрена_'
'однесувањето_'
'однесоа_'
'однапред_'
'одмор_'
'одмазда_'
'одлучуваат_'
'одлучат_'
'одложуваое_'
'одложено_'
'одложени_'
'одложена_'
'одложен_'
'одлична_'
'одликуваше_'
'одликуван_'
'одливот_'
'одиграа_'
'одзема_'
'одделна_'
'одделенија_'
'одделен_'
'оддалеченост_'
'оддаде_'
'оддадат_'
'одговорот_'
'одговорностите_'
'одговорно_'
'одговорен_'
'одговараат_'
'одгледуваат_'
'одвојат_'
'одвива_'
'одбраниме_'
'одбојка_'
'одбила_'
'одбивањето_'
'одбива_'
'одбележувањето_'
'одбегне_'
'оданочување_'
'огромно_'
'огромните_'
'огромна_'
'ограничуваоа_'
'ограничените_'
'ограничениот_'
'овозможуваат_'
'овозможил_'
'овозможат_'
'овогодинешната_'
'овластувањата_'
'овластен_'
'објектите_'
'објективен_'
'објаснил_'
'објаснат_'
'објавуваат_'
'објавува_'
'објавената_'
'обучени_'
'обраќаоето_'
'обрачи_'
'обрати_'
'образовните_'
'обработливо_'
'обновувањето_'
'обновлива_'
'обновени_'
'обновената_'
'облечени_'
'обидувајќи_'
'обидуваше_'
'обидат_'
'обезбедувањето_'
'обезбедуваоето_'
'обезбеден_'
'обединет_'
'обвинувања_'
'обвинителство_'
'обвинителот_'
'обвинителката_'
'обвинетиот_'
'обвинета_'
'нуклеарно_'
'нуклеарни_'
'нуклеарната_'
'ноќните_'
'ноќна_'
'ноќ_'
'носејќи_'
'носеле_'
'норми_'
'нормална_'
'нормализира_'
'номинација_'
'никого_'
'никаква_'
'никаде_'
'низа_'
'нивоата_'
'неформалниот_'
'неутралност_'
'нетолеранција_'
'нестрпливи_'
'нестабилноста_'
'нестабилен_'
'несрпско_'
'неспособноста_'
'несоработката_'
'несоодветно_'
'несоодветни_'
'несогласувања_'
'нерешениот_'
'нерегуларности_'
'непријатели_'
'неприфатливо_'
'непречено_'
'непрекината_'
'непотребно_'
'непослушност_'
'неочекувано_'
'неопходна_'
'неопределен_'
'неодамнешна_'
'немирите_'
'немањето_'
'немам_'
'немал_'
'немаа_'
'некого_'
'некаков_'
'некакви_'
'неизбежен_'
'незадоволни_'
'неексплодирани_'
'недостасува_'
'недопрени_'
'недозволената_'
'неделно_'
'негови_'
'негира_'
'негативните_'
'негативен_'
'невозможен_'
'невини_'
'најсиромашните_'
'најсилната_'
'најпопуларните_'
'најпопуларната_'
'најпознатите_'
'најнови_'
'најлош_'
'најкус_'
'најискрени_'
'најиновативните_'
'највисоки_'
'најважна_'
'најбогатите_'
'најбараниот_'
'најавува_'
'најавија_'
'наштетило_'
'началник_'
'националност_'
'националистички_'
'националистичката_'
'националисти_'
'национализмот_'
'нафтениот_'
'нафтени_'
'нафтата_'
'научниот_'
'научната_'
'научат_'
'натпреварите_'
'натаму_'
'наталитетот_'
'настојува_'
'настап_'
'наспроти_'
'насочи_'
'насочени_'
'насочен_'
'наслови_'
'наследството_'
'наследен_'
'населби_'
'населбата_'
'населба_'
'нарушување_'
'нарушувањата_'
'нарушени_'
'народи_'
'народен_'
'наречени_'
'нарече_'
'наредните_'
'наредби_'
'напуштиле_'
'напредуваат_'
'направите_'
'направиле_'
'направам_'
'направа_'
'напната_'
'написи_'
'напаѓачи_'
'нападнати_'
'нападнат_'
'нападнаа_'
'нападна_'
'наоѓање_'
'наметнат_'
'наменет_'
'намалувањата_'
'намалија_'
'намаливме_'
'намалено_'
'намалени_'
'намален_'
'накусо_'
'назначени_'
'наесен_'
'надолен_'
'надминувајќи_'
'надминати_'
'надлежни_'
'надлежна_'
'надежта_'
'награден_'
'нагоре_'
'нагласи_'
'нагазни_'
'навредуваат_'
'навреда_'
'наводното_'
'наводните_'
'наводниот_'
'навивачки_'
'навести_'
'наведуваат_'
'наведоа_'
'набљудувачки_'
'набљудувачите_'
'набавки_'
'нé_'
'муфтија_'
'муслиманското_'
'муслиманска_'
'мултинационалните_'
'мултиетничко_'
'мултиетничката_'
'музиката_'
'музејот_'
'мртва_'
'мошне_'
'мотото_'
'мотор_'
'мотиви_'
'морската_'
'морална_'
'морален_'
'морале_'
'мораа_'
'монопол_'
'монитор_'
'момчето_'
'моменти_'
'моментално_'
'молитва_'
'молдавските_'
'молдавскиот_'
'мозоци_'
'можен_'
'можевме_'
'мобингот_'
'мобилноста_'
'мобилен_'
'мнозинските_'
'мнозинскиот_'
'млеко_'
'младински_'
'младина_'
'митрополитот_'
'митото_'
'митингот_'
'мислите_'
'мислиме_'
'мислеше_'
'мисиите_'
'мировната_'
'мирно_'
'мирни_'
'мирен_'
'минус_'
'минувачите_'
'министерство_'
'минимизираше_'
'минималната_'
'минатогодишниот_'
'мина_'
'миграција_'
'меѓутоа_'
'меѓусебни_'
'меѓуетничкиот_'
'мешани_'
'мешана_'
'мешавина_'
'меша_'
'механизмот_'
'метеоролошка_'
'местење_'
'местата_'
'месечни_'
'месечната_'
'менуваме_'
'менуваат_'
'менаџерот_'
'мека_'
'медицинска_'
'медиумскиот_'
'мед_'
'меfународна_'
'мафија_'
'матрица_'
'матични_'
'масовните_'
'масло_'
'масите_'
'марки_'
'маргинализирана_'
'манипулирани_'
'манипулации_'
'мандати_'
'манастир_'
'малолетните_'
'малкумина_'
'малиот_'
'малата_'
'максимум_'
'максимални_'
'макроекономските_'
'макроекономската_'
'магнет_'
'лут_'
'лоцирана_'
'лотарија_'
'лондонската_'
'локалитети_'
'локалитет_'
'локален_'
'лози_'
'логистичка_'
'личност_'
'личен_'
'лиценцирање_'
'литература_'
'листите_'
'листи_'
'лижат_'
'ливчиња_'
'либиските_'
'либерални_'
'либерализира_'
'лечење_'
'летувалишта_'
'летната_'
'летна_'
'лесни_'
'лекување_'
'лекови_'
'лекари_'
'лек_'
'легитимно_'
'легализација_'
'левичарската_'
'лаборатории_'
'лабава_'
'кујни_'
'куршуми_'
'курдски_'
'купат_'
'купам_'
'културна_'
'крст_'
'крос_'
'критичната_'
'критичари_'
'критиките_'
'критика_'
'криењето_'
'кривичните_'
'кривична_'
'крем_'
'кредиторите_'
'кредитори_'
'кредитно_'
'кредитниот_'
'кредитите_'
'кредибилитет_'
'кревачка_'
'крајно_'
'крајната_'
'кратки_'
'кратење_'
'кралица_'
'крал_'
'кражба_'
'кошаркарска_'
'косовска_'
'корпус_'
'користиме_'
'користена_'
'користеа_'
'корисен_'
'координирање_'
'координиран_'
'концесии_'
'концертот_'
'конфронтација_'
'контролниот_'
'контроверзност_'
'контроверзниот_'
'континуитетот_'
'континуирано_'
'континуираниот_'
'континуирани_'
'контактираат_'
'контакт_'
'консултации_'
'констатира_'
'конкурира_'
'конкурентните_'
'конкретен_'
'конзулат_'
'конзорциумот_'
'конзорциум_'
'конзервативците_'
'конзервативната_'
'конечни_'
'конечната_'
'конечна_'
'конвергенција_'
'комунистичка_'
'комунистите_'
'комунисти_'
'комуникациите_'
'компромиси_'
'компонента_'
'комплицирана_'
'комплетирање_'
'комплетирани_'
'компензација_'
'комори_'
'комесарката_'
'комесар_'
'комерцијалните_'
'коментирам_'
'командоси_'
'командантите_'
'колекција_'
'колективна_'
'колегата_'
'колапс_'
'коалициските_'
'коалициски_'
'коалицирање_'
'коалициите_'
'ко_'
'клучниот_'
'клуб_'
'клиент_'
'клаузула_'
'километарската_'
'киловатчасови_'
'квотите_'
'кворум_'
'кво_'
'квалификува_'
'квалификации_'
'кафулиња_'
'кафе_'
'категорично_'
'категоризира_'
'катастрофи_'
'касарна_'
'картон_'
'картички_'
'кардинал_'
'карактерот_'
'карактер_'
'капитални_'
'капитална_'
'капитализам_'
'кандидира_'
'канализација_'
'канадската_'
'камповите_'
'кампаоата_'
'камионите_'
'камион_'
'камен_'
'камати_'
'камата_'
'кал_'
'какво_'
'казнат_'
'кажаа_'
'каење_'
'кабелска_'
'италијанското_'
'исчезнувањето_'
'исчезнати_'
'исцрпен_'
'исфрлаое_'
'истражуваоето_'
'истражното_'
'истражните_'
'истражителите_'
'истражен_'
'источниот_'
'историскиот_'
'историската_'
'истовремениот_'
'истовремени_'
'истече_'
'истанбулскиот_'
'истанбулската_'
'истакнуваат_'
'иста_'
'ист_'
'испраќањето_'
'испраќање_'
'испраќаое_'
'испрашување_'
'испратен_'
'испораката_'
'исполнија_'
'исполнила_'
'исполнет_'
'исплатат_'
'испитуваше_'
'испитана_'
'испитаат_'
'испит_'
'исламистичка_'
'искреноста_'
'искрено_'
'искористување_'
'искоренување_'
'исклучиво_'
'искажува_'
'искажат_'
'искажаа_'
'ирачката_'
'иранскиот_'
'ирански_'
'информирање_'
'информацијата_'
'информатичко_'
'информатичка_'
'информативна_'
'информативен_'
'инфлација_'
'интернетот_'
'интензитетот_'
'интензивира_'
'интелигенција_'
'интегрирана_'
'инструмент_'
'инструкции_'
'институционалните_'
'инсистираа_'
'инсајт_'
'иницијативите_'
'инженеринг_'
'индустријализирани_'
'индивидуален_'
'индекс_'
'ингеренции_'
'инвестициските_'
'инвестирањето_'
'имплементира_'
'империја_'
'имотни_'
'имотите_'
'имиграцијата_'
'имиграција_'
'имигрантите_'
'имиYот_'
'имејл_'
'имено_'
'имавме_'
'илјади_'
'илузии_'
'илегални_'
'икони_'
'изрече_'
'изразување_'
'израелски_'
'изработка_'
'изработени_'
'изолирана_'
'изнесувал_'
'изнајмени_'
'изнаоѓање_'
'измешани_'
'изменетото_'
'измената_'
'измами_'
'изложеност_'
'излезат_'
'излез_'
'излегување_'
'излегувајќи_'
'излегува_'
'издадоа_'
'издава_'
'изгубија_'
'изгубиле_'
'изградија_'
'изготвување_'
'изготвена_'
'изгласуваое_'
'изгласан_'
'извршуваат_'
'извршна_'
'извршителите_'
'извршен_'
'извлечат_'
'извести_'
'изведувањето_'
'изведувач_'
'изведуваат_'
'изведе_'
'изведбата_'
'изведба_'
'изведат_'
'изборната_'
'избијат_'
'избија_'
'избирачкото_'
'избирачко_'
'избирачките_'
'избирачки_'
'избираа_'
'избега_'
'избалансирани_'
'идна_'
'идеолошка_'
'идентификуван_'
'идеал_'
'играчите_'
'играчи_'
'значителниот_'
'значителната_'
'значеше_'
'значел_'
'знамето_'
'знаеле_'
'знаел_'
'знаев_'
'злоупотребата_'
'злото_'
'злато_'
'зимски_'
'земјотреси_'
'земјоделството_'
'земјоделските_'
'земјоделскиот_'
'земено_'
'зедоа_'
'здружија_'
'здружение_'
'здравствено_'
'здравствените_'
'здравствениот_'
'здравствената_'
'зголемува_'
'зголемиле_'
'зголемил_'
'звучеше_'
'зборот_'
'зајакна_'
'заштитува_'
'заштитените_'
'заштитената_'
'заштитена_'
'зацртани_'
'затоплување_'
'затворениците_'
'затворениот_'
'затвораоето_'
'застрелан_'
'застане_'
'заснова_'
'заслугата_'
'заситени_'
'засилување_'
'засилат_'
'заработувачка_'
'заработи_'
'запретуваоа_'
'започнуваоето_'
'започнете_'
'започнеме_'
'започнавме_'
'записи_'
'запалени_'
'западната_'
'заостануваат_'
'заостанатите_'
'занимаваа_'
'замрзнување_'
'заминувањето_'
'заминуваоето_'
'заминат_'
'заменикот_'
'заложија_'
'заложби_'
'залив_'
'законската_'
'законитоста_'
'заклетва_'
'заканува_'
'заканите_'
'закаже_'
'заинтересираност_'
'заинтересираните_'
'заземе_'
'заземат_'
'зазеде_'
'заздравување_'
'заедничкиот_'
'заедниците_'
'задржување_'
'задолжителното_'
'задолжителна_'
'задолжениот_'
'задоволна_'
'задоволени_'
'задоволена_'
'задоволен_'
'задоволат_'
'загубија_'
'загубата_'
'загрозуваат_'
'загрозен_'
'загрижува_'
'заговорот_'
'заглавени_'
'загарантирани_'
'загарантирана_'
'загадуваат_'
'загадува_'
'завршиме_'
'забрануваат_'
'забранува_'
'забрането_'
'забранети_'
'забранет_'
'забелешки_'
'забележано_'
'забележала_'
'забавен_'
'жртва_'
'жирито_'
'животно_'
'живо_'
'живееме_'
'жешки_'
'жестока_'
'железо_'
'железничко_'
'железнички_'
'железничка_'
'желби_'
'жалби_'
'жалба_'
'жалат_'
'ефикасното_'
'ефикасноста_'
'ефикасни_'
'ефектот_'
'етничкото_'
'ескалација_'
'ерменските_'
'епилепсија_'
'епидемијата_'
'ентитета_'
'емитување_'
'емитуваоето_'
'емисиите_'
'електроцентрала_'
'електротехнички_'
'екстремно_'
'екстремистички_'
'екстремистите_'
'екстремисти_'
'екстрадицијата_'
'експлозии_'
'експлозивна_'
'експериментална_'
'екологисти_'
'еко_'
'екипажот_'
'езерото_'
'едукација_'
'еднострана_'
'еднодневната_'
'едната_'
'еднаков_'
'еднаквоста_'
'еднаквост_'
'еднакво_'
'единственото_'
'единствените_'
'едвај_'
'егзил_'
'евроценти_'
'европарламентарците_'
'евроатланската_'
'еврејска_'
'евентуалниот_'
'духот_'
'другото_'
'дроги_'
'дробови_'
'држеше_'
'државјанин_'
'државноста_'
'државност_'
'дрвјата_'
'дрвја_'
'дрвото_'
'дрвен_'
'драстични_'
'драстичен_'
'драматичен_'
'дојдовме_'
'дофат_'
'достигнувајќи_'
'достигнала_'
'достигнал_'
'достапни_'
'доставена_'
'дополнителна_'
'донесување_'
'донесуваое_'
'донесени_'
'донација_'
'донаторска_'
'донатори_'
'домот_'
'домино_'
'доминира_'
'домаќини_'
'должничките_'
'должничка_'
'должина_'
'долгорочно_'
'долгорочните_'
'долгорочниот_'
'долгорочната_'
'долгометражен_'
'долгогодишниот_'
'долговите_'
'долги_'
'документацијата_'
'документарци_'
'документарец_'
'докторат_'
'доказите_'
'докажат_'
'дозволам_'
'доживее_'
'доделувањето_'
'доделување_'
'доделува_'
'доволни_'
'доволен_'
'доведуваое_'
'доведен_'
'доброто_'
'добротворните_'
'добротворна_'
'добрососедските_'
'доброволно_'
'доброволната_'
'добредојдено_'
'добредојде_'
'доближувањето_'
'доближување_'
'добиток_'
'добитници_'
'добитник_'
'добиени_'
'добиваше_'
'добиваме_'
'добиваа_'
'длабоката_'
'дијаметрално_'
'дисциплина_'
'дистрибуција_'
'дискутираа_'
'дискриминаторски_'
'дискови_'
'диск_'
'директниот_'
'директната_'
'дипломирал_'
'дипломатска_'
'диоксид_'
'динарот_'
'динамична_'
'динамиката_'
'дин_'
'диета_'
'диви_'
'диверзификација_'
'дејствуваме_'
'дејствувале_'
'дефинирањето_'
'дефиниран_'
'детски_'
'детето_'
'детално_'
'десетгодишната_'
'депонии_'
'денешната_'
'денешен_'
'демонстрираа_'
'демонстрација_'
'демократии_'
'демократи_'
'деминираое_'
'деликатна_'
'дели_'
'делегати_'
'делеа_'
'делат_'
'декретот_'
'девојки_'
'деби_'
'двојката_'
'двоуми_'
'дводневниот_'
'движиме_'
'движеше_'
'даночните_'
'даночни_'
'данокот_'
'дамка_'
'далноводот_'
'дале_'
'дала_'
'дадете_'
'дадеме_'
'давајќи_'
'давачки_'
'гувернер_'
'губат_'
'грчкото_'
'грчка_'
'групите_'
'групации_'
'груп_'
'грубо_'
'гробница_'
'гробишта_'
'грејс_'
'граѓански_'
'граѓанин_'
'грант_'
'граничната_'
'граничи_'
'граната_'
'гран_'
'грама_'
'градското_'
'градската_'
'градоначалничката_'
'градоначалници_'
'градеое_'
'градени_'
'градежните_'
'градат_'
'готово_'
'гостин_'
'горната_'
'гордее_'
'горат_'
'гони_'
'гонење_'
'големото_'
'годишни_'
'говореше_'
'глумеше_'
'глобалните_'
'глобална_'
'глобален_'
'гласачки_'
'гласам_'
'главите_'
'главата_'
'гитарист_'
'германска_'
'герилци_'
'генерира_'
'генерации_'
'генерална_'
'генералите_'
'гасови_'
'гаранција_'
'гарантирањето_'
'гарант_'
'вторпат_'
'второ_'
'вторите_'
'вршеше_'
'вршел_'
'вршеа_'
'вроди_'
'врзат_'
'врзани_'
'временските_'
'временски_'
'вредностите_'
'вредни_'
'вредна_'
'врева_'
'врвни_'
'враќаат_'
'вратени_'
'вратен_'
'вработуваат_'
'вработува_'
'вработеноста_'
'воч_'
'вото_'
'востание_'
'воспоставено_'
'вообичаена_'
'вонредната_'
'вон_'
'возењето_'
'воздушниот_'
'воздушни_'
'воздушна_'
'воздржуваат_'
'возврати_'
'воз_'
'водовод_'
'водејќи_'
'водечкиот_'
'водечка_'
'водела_'
'водата_'
'воведувањето_'
'воведуваое_'
'воведоа_'
'воведени_'
'внимателна_'
'внатрешно_'
'внатрешниот_'
'внатрешна_'
'влошување_'
'вложат_'
'влијателните_'
'влеземе_'
'влегува_'
'владици_'
'владиниот_'
'владејачките_'
'владееоето_'
'вкупната_'
'вкоренет_'
'вишокот_'
'вице_'
'вистинско_'
'вистинските_'
'висококвалитетни_'
'виси_'
'виновниците_'
'винови_'
'виновен_'
'вината_'
'визи_'
'виза_'
'видоа_'
'видлив_'
'взаемното_'
'взаемно_'
'взаемна_'
'вжештува_'
'вечно_'
'вечерва_'
'ветувачки_'
'ветуваоа_'
'ветуваат_'
'ветераните_'
'ветерани_'
'ветениот_'
'веста_'
'весниците_'
'верско_'
'верска_'
'верниците_'
'венец_'
'векот_'
'векови_'
'вашите_'
'вашето_'
'ватерполо_'
'варираат_'
'ван_'
'вакцина_'
'важат_'
'буџетските_'
'буџети_'
'букурешкиот_'
'буквално_'
'бројките_'
'бројка_'
'бројат_'
'бронзениот_'
'бронзен_'
'бронзата_'
'бродот_'
'бродоградилиштето_'
'британски_'
'британската_'
'брзото_'
'брзи_'
'брзата_'
'брз_'
'братството_'
'бојкотира_'
'боја_'
'босанското_'
'бореше_'
'борел_'
'борбени_'
'борачи_'
'борач_'
'борам_'
'бонуси_'
'бомбашките_'
'бомбата_'
'бомба_'
'болно_'
'болна_'
'бои_'
'божица_'
'богатства_'
'богат_'
'блокираа_'
'блискиот_'
'близу_'
'близината_'
'благороден_'
'битка_'
'бирократијата_'
'биометрички_'
'бизнисменот_'
'бидам_'
'библиотеки_'
'берзата_'
'бензин_'
'белите_'
'бела_'
'безвизниот_'
'безвизен_'
'безбедносниот_'
'безбедносната_'
'безбедни_'
'бегалец_'
'бариери_'
'бариера_'
'бараое_'
'бараоата_'
'бар_'
'банкарските_'
'банкари_'
'балтичките_'
'балканскиот_'
'базирано_'
'бази_'
'бавното_'
'бавно_'
'афера_'
'аукции_'
'атлетичарка_'
'атинскиот_'
'аташе_'
'аспиранти_'
'аспект_'
'архитектура_'
'артефакти_'
'армии_'
'аргументите_'
'арапските_'
'аранжманот_'
'аранжманите_'
'аранжмани_'
'апсорпција_'
'аплицираше_'
'апликација_'
'апелираа_'
'апартмани_'
'апарати_'
'антитерористичките_'
'антикорупциска_'
'антивладини_'
'аналитичар_'
'американско_'
'аматерски_'
'алуминиум_'
'алудирајќи_'
'алтернативните_'
'алтернативни_'
'алкохол_'
'албуми_'
'акционер_'
'акцентираше_'
'акцент_'
'актуелен_'
'азиските_'
'адреса_'
'адекватен_'
'адвокати_'
'авторите_'
'автономни_'
'австриското_'
'австрискиот_'
'авиопревозник_'
'авионска_'
'аваз_'
'Штип_'
'Штефан_'
'Штетата_'
'Шилинг_'
'Шестиот_'
'Шест_'
'Шенѓин_'
'Шеврон_'
'Шведска_'
'Шварц_'
'Шантек_'
'Шансите_'
'Чове_'
'Чиочиу_'
'Чикаго_'
'Чигдем_'
'Чешката_'
'Четиринаесет_'
'Четиридневниот_'
'Четвртиот_'
'Четврта_'
'Чакир_'
'Чавиќ_'
'Црквата_'
'Црвена_'
'Ценков_'
'Цените_'
'ЦЕРН_'
'ЦББХ_'
'Хусеин_'
'Хуверс_'
'Хуан_'
'Христо_'
'Хоџај_'
'Хотел_'
'Хоакин_'
'Хејс_'
'Херцег_'
'Хелсиншкиот_'
'Хеленик_'
'Хаџинасто_'
'Хајредин_'
'Хауард_'
'Ханес_'
'Хамбург_'
'Халки_'
'Халит_'
'Хакери_'
'ХРВ_'
'ХНС_'
'Фуере_'
'Фрушка_'
'Фрид_'
'Франк_'
'Фоча_'
'Форумот_'
'Формирањето_'
'Фокусот_'
'Фокус_'
'Фишер_'
'Фич_'
'Финска_'
'Филиповиќ_'
'Фестивал_'
'Фатос_'
'Факултет_'
'Фактор_'
'ФБИ_'
'ФT_'
'Уставната_'
'Уставен_'
'Успеавме_'
'Унгарци_'
'Улемек_'
'УНИФИЛ_'
'УНЕСКО_'
'УЕФА_'
'Турско_'
'Турски_'
'Турска_'
'Туризмот_'
'Тупрас_'
'Тука_'
'Трпчевски_'
'Тројцата_'
'Тројца_'
'Тројката_'
'Триполи_'
'Триесет_'
'Трибунал_'
'Третата_'
'Трговијата_'
'Транспортот_'
'Тракијците_'
'Тоше_'
'Точно_'
'Топола_'
'Топиќ_'
'Топали_'
'Токес_'
'Тодоров_'
'Тихиќ_'
'Тито_'
'Тимор_'
'Тим_'
'Тибет_'
'Тетовскиот_'
'Тесла_'
'Тероризмот_'
'Теодор_'
'Тензиите_'
'Телото_'
'Телевизијата_'
'Татлисес_'
'Татковинската_'
'Тарик_'
'Танјуг_'
'Талески_'
'Таквите_'
'Така_'
'ТИ_'
'ТАК_'
'Сфаќам_'
'Суштината_'
'Супер_'
'Судските_'
'Судската_'
'Студентите_'
'Студената_'
'Струшките_'
'Струга_'
'Стојановски_'
'Стојановиќ_'
'Стокхолм_'
'Стоби_'
'Стајнмаер_'
'Статистичките_'
'Старите_'
'Стариот_'
'Стара_'
'Станиќ_'
'Станишиќ_'
'Станичиќ_'
'Стандард_'
'Стамболиќ_'
'Ставрос_'
'Ставрески_'
'Српско_'
'Српски_'
'Српске_'
'Среќко_'
'Специјален_'
'Спахиу_'
'Сољом_'
'Социјалистичка_'
'Социјалистите_'
'Софијански_'
'Софискиот_'
'Состојбата_'
'Сорса_'
'Сомалија_'
'Советскиот_'
'Совет_'
'Случајот_'
'Слоновата_'
'Словенечкиот_'
'Слободните_'
'Слободата_'
'Слични_'
'Скелетот_'
'Скалине_'
'Сити_'
'Системот_'
'Синодот_'
'Синдикатот_'
'Синдикатите_'
'Сингапур_'
'Симо_'
'Симеон_'
'Сиетл_'
'Сигисоара_'
'Сибиу_'
'Сето_'
'Сериозноста_'
'Сенатот_'
'Сем_'
'Селмани_'
'Селимовиќ_'
'Селимај_'
'Секретаријатот_'
'Седмиот_'
'Северен_'
'Свобода_'
'Сахин_'
'Сараевскиот_'
'Самиот_'
'Самаст_'
'Саксобурготски_'
'Сакајќи_'
'Саем_'
'СРС_'
'СРИ_'
'СОЦА_'
'СНН_'
'СЕРДА_'
'СДИ_'
'СДА_'
'СА_'
'Руската_'
'Рувас_'
'Роснефт_'
'Ромела_'
'Романско_'
'Романа_'
'Родос_'
'Ровињ_'
'Робинсон_'
'Ристиќ_'
'Рингас_'
'Риме_'
'Рим_'
'Републиката_'
'Републиканска_'
'Реорганизацијата_'
'Рено_'
'Реката_'
'Резолуцијата_'
'Режисерот_'
'Регионот_'
'Регионалната_'
'Регионален_'
'Рахим_'
'Рауфоглу_'
'Расмусен_'
'Расмузен_'
'Рамуш_'
'Рамковниот_'
'Рамадан_'
'Радовиќ_'
'Радикалната_'
'Работите_'
'Работевме_'
'РТТЊус_'
'РЕКОМ_'
'Пјер_'
'Пуховски_'
'Пуканиќ_'
'Процес_'
'Просечната_'
'Продажбата_'
'Прогресот_'
'Про_'
'Приштинскиот_'
'Присуството_'
'Прешевската_'
'Претходните_'
'Претставништвото_'
'Претставникот_'
'Претставник_'
'Претседателството_'
'Преродба_'
'Премиерката_'
'Премиерите_'
'Предложениот_'
'Предлогот_'
'Предлог_'
'Предизвиците_'
'Предвремените_'
'Предвидувањата_'
'Преда_'
'Прашањето_'
'Пратениците_'
'Правниот_'
'Правилата_'
'Потребни_'
'Потребен_'
'Поток_'
'Потврдувајќи_'
'Посочувајќи_'
'Последниот_'
'Посетителите_'
'Поранешните_'
'Попов_'
'Попа_'
'Поп_'
'Помошта_'
'Помеfу_'
'Полскиот_'
'Политичките_'
'Покажавме_'
'Познатиот_'
'Поделбата_'
'Поддршката_'
'Поградец_'
'Повторувајќи_'
'Повикот_'
'Побарувачката_'
'Пловдив_'
'Плевља_'
'Пламен_'
'Плавшиќ_'
'Питер_'
'Пилот_'
'Пеќ_'
'Петтиот_'
'Петак_'
'Перишиќ_'
'Перес_'
'Пензионираниот_'
'Пендаровски_'
'Пахор_'
'Патниците_'
'Патен_'
'Пат_'
'Партнерството_'
'Партиите_'
'Партизан_'
'Парламентарното_'
'Парламентарните_'
'Парламентарниот_'
'Парите_'
'Паравац_'
'Паравантес_'
'Папата_'
'Панчево_'
'Пандели_'
'Пале_'
'Пакетот_'
'Пак_'
'Павле_'
'ПИК_'
'ПДП_'
'ПАРП_'
'П_'
'Оџалан_'
'Очигледно_'
'Очекувам_'
'Официјалните_'
'Отфрлајќи_'
'Отоманската_'
'Откриен_'
'Отворено_'
'Осуммина_'
'Острови_'
'Остатокот_'
'Оставката_'
'Ослобоѓење_'
'Оскар_'
'Осетија_'
'Орбовиќ_'
'Орбан_'
'Опозицијата_'
'Опозициските_'
'Опозицискиот_'
'Она_'
'Олимпијада_'
'Олимпискиот_'
'Олдаши_'
'Озкок_'
'Оддел_'
'Овчара_'
'Овојпат_'
'Обсервер_'
'Обраќајќи_'
'Обвинителот_'
'ОРА_'
'ОЕЦД_'
'Норац_'
'Новоизбраниот_'
'Новините_'
'Новак_'
'Ниш_'
'Никшиќ_'
'Никол_'
'Никогаш_'
'Нејзините_'
'Нешовски_'
'Неретва_'
'Непосредно_'
'Непал_'
'Неодамнешните_'
'Нему_'
'Независноста_'
'Неждет_'
'Негирајќи_'
'Невработеноста_'
'Најпрво_'
'Најпосле_'
'Најмалку_'
'Најдобра_'
'Најголемиот_'
'Најголемата_'
'Нашите_'
'Националното_'
'Научниците_'
'Насилството_'
'Нан_'
'Намалувањето_'
'Назим_'
'Нада_'
'Наградената_'
'Навредата_'
'Навивачите_'
'Набљудувачите_'
'НДС_'
'НД_'
'Мухамед_'
'Мустафај_'
'Муса_'
'Музејот_'
'Морина_'
'Моратинос_'
'Момчило_'
'Можете_'
'Можеби_'
'Млаѓан_'
'Младински_'
'Младенов_'
'Млаfан_'
'Мишчевиќ_'
'Мишко_'
'Мишел_'
'Мициќ_'
'Михаи_'
'Михаел_'
'Митровиќ_'
'Митиќ_'
'Митев_'
'Мирсад_'
'Мирза_'
'Мило_'
'Милинковиќ_'
'Милевска_'
'Милановиќ_'
'Методиј_'
'Мерките_'
'Меморандум_'
'Мемети_'
'Мелбурн_'
'Мекси_'
'Мек_'
'Медиумскиот_'
'Меfународни_'
'Масуд_'
'Мармарис_'
'Мармара_'
'Мариан_'
'Мареза_'
'Мандатот_'
'Манга_'
'Малта_'
'Македонското_'
'Македонска_'
'МХП_'
'МУП_'
'МТВ_'
'МОЛ_'
'МБМД_'
'Лутфи_'
'Лукшиќ_'
'Лугар_'
'Локхид_'
'Локален_'
'Лисабон_'
'Липонен_'
'Лилјана_'
'Лидерите_'
'Лигата_'
'Либерман_'
'Либан_'
'Лејла_'
'Лех_'
'Леонард_'
'Леон_'
'Лека_'
'Ле_'
'Ламберто_'
'Лалиќ_'
'Лазло_'
'Ладен_'
'Лагендијк_'
'Лагард_'
'Ла_'
'ЛАОС_'
'Кушадаси_'
'Купер_'
'Куманово_'
'Култур_'
'Кукс_'
'Ксавиер_'
'Критичарите_'
'Кредитот_'
'Крајниот_'
'Крајишник_'
'Крас_'
'Краина_'
'Котрочени_'
'Костелиќ_'
'Косоварите_'
'Косовари_'
'Коска_'
'Користењето_'
'Коридор_'
'Копенхаген_'
'Конузин_'
'Констанца_'
'Конзорциумот_'
'Коне_'
'Конгресот_'
'Коментирајќи_'
'Комбинацијата_'
'Клан_'
'Кирил_'
'Кипарците_'
'Кипарското_'
'Кипарската_'
'Кибет_'
'Кермабон_'
'Кенија_'
'Катиќ_'
'Катанец_'
'Кастрати_'
'Каролос_'
'Карло_'
'Карефор_'
'Капацитетот_'
'Канческа_'
'Канал_'
'Кан_'
'Кампшрор_'
'Калмета_'
'Калифорнија_'
'Калетовиќ_'
'Каков_'
'Каи_'
'Казната_'
'Кавказот_'
'Кавадарци_'
'Кабаши_'
'КРП_'
'КПА_'
'КЕСХ_'
'Источен_'
'Исламската_'
'Исламот_'
'Ирина_'
'Ирена_'
'Инцко_'
'Интеграцијата_'
'Инвестицијата_'
'Имиџис_'
'Имавме_'
'Или_'
'Измирли_'
'Измир_'
'Излезноста_'
'Изградени_'
'Изборната_'
'Игњатовиќ_'
'Ив_'
'ИСАФ_'
'ИПАП_'
'ИДЦ_'
'Зур_'
'Зукорлиќ_'
'Зубин_'
'Знам_'
'Злетово_'
'Златко_'
'Златен_'
'Зимски_'
'Земунски_'
'Земун_'
'Збогар_'
'Заштитата_'
'Запатеро_'
'Западните_'
'Заемот_'
'Заедничкиот_'
'Загриженоста_'
'Загребскиот_'
'Забраната_'
'Жужул_'
'Животот_'
'Жените_'
'Жена_'
'Желева_'
'Жбогар_'
'Жал_'
'Еуроњус_'
'Еурактив_'
'Ерјугур_'
'Ерол_'
'Ерменскиот_'
'Ермелинда_'
'Ерлис_'
'Еркан_'
'Ерван_'
'Ени_'
'Енергетските_'
'Енгин_'
'Енвер_'
'Елис_'
'Електропривреда_'
'Електропренос_'
'Економските_'
'Економски_'
'Еиде_'
'Езерото_'
'Едниот_'
'Едит_'
'Единствено_'
'Европските_'
'Европејците_'
'Евентуалната_'
'ЕЦХР_'
'ЕУопсервер_'
'ЕПС_'
'ЕБУ_'
'Дулиќ_'
'Други_'
'Државните_'
'Државна_'
'Државата_'
'Драгослав_'
'Доналд_'
'Долго_'
'Доколку_'
'Договор_'
'Доволно_'
'Добро_'
'Дневни_'
'Дијарбекир_'
'Дијалогот_'
'Директните_'
'Дилберовиќ_'
'Дик_'
'Ди_'
'Десило_'
'Денот_'
'Денови_'
'Денкова_'
'Дениз_'
'Демократските_'
'Демократија_'
'Демир_'
'Делта_'
'Делегацијата_'
'Деветтиот_'
'Деветнаесет_'
'Дебатата_'
'Дебар_'
'Движењето_'
'Дан_'
'Далмација_'
'Даиану_'
'Давид_'
'Дабилис_'
'Дабене_'
'ДТП_'
'ДС_'
'ДП_'
'ДЕХАР_'
'Д_'
'Гури_'
'Грчките_'
'Грифитс_'
'Граховац_'
'Границите_'
'Градењето_'
'Гошев_'
'Гордон_'
'Големата_'
'Годишниот_'
'Годинава_'
'Главниот_'
'Главен_'
'Гинтер_'
'Ги_'
'Гејтс_'
'Герхард_'
'Германци_'
'Германската_'
'Георгиевски_'
'Георге_'
'Генералштаб_'
'Генералот_'
'Генералното_'
'Гевгелија_'
'Гверо_'
'Гаспром_'
'Гасоводот_'
'Галуп_'
'Галичник_'
'Габриела_'
'Габриел_'
'Г_'
'Вучетиќ_'
'Вуковар_'
'Ву_'
'Втората_'
'Времето_'
'Време_'
'Волфганг_'
'Волтер_'
'Воените_'
'Водафон_'
'Влијанието_'
'Властимир_'
'Владеењето_'
'Вистинските_'
'Вистинскиот_'
'Висок_'
'Винчи_'
'Видеану_'
'Видал_'
'Ви_'
'Ветон_'
'Ветевендосје_'
'Ветвендосје_'
'Веста_'
'Весникот_'
'Верувам_'
'Велимир_'
'Велики_'
'Веднаш_'
'Ваљево_'
'Василије_'
'Ванчо_'
'Ван_'
'Валентина_'
'Ваквите_'
'Ваквата_'
'Буџетските_'
'Буџетот_'
'Бујуканит_'
'Бутрос_'
'Булент_'
'Буковица_'
'Бугдајчи_'
'Бугарски_'
'Бројот_'
'Брзиот_'
'Брегот_'
'Браун_'
'Бранковиќ_'
'Бош_'
'Боц_'
'Босанци_'
'Босански_'
'Борбата_'
'Бонските_'
'Божиќни_'
'Богоsуб_'
'Блокадата_'
'Блерта_'
'Бланка_'
'Битичи_'
'Билјана_'
'Билд_'
'Бизнисмените_'
'Бејрли_'
'Беше_'
'Бесник_'
'Берлинскиот_'
'Белгискиот_'
'Бектел_'
'Беким_'
'Бедрана_'
'Бегај_'
'Бајиќ_'
'Бајден_'
'Баучер_'
'Баумгартен_'
'Басбуг_'
'Барзани_'
'Баоа_'
'Бандиќ_'
'Бамир_'
'Балканска_'
'Бакир_'
'Б_'
'Ајде_'
'Аустралијан_'
'Атланта_'
'Аталај_'
'Аселборн_'
'Аруна_'
'Артур_'
'Артемида_'
'Арена_'
'Аргентина_'
'Апелационата_'
'Антонела_'
'Антарктикот_'
'Анкетата_'
'Андрија_'
'Андерс_'
'Анализа_'
'Ана_'
'Амнести_'
'Американска_'
'Амариеи_'
'Алексиќ_'
'Александра_'
'Албин_'
'Албанското_'
'Албанско_'
'Алан_'
'Алакбар_'
'Актар_'
'Акропол_'
'Акиф_'
'Адеми_'
'Адвокатот_'
'Адвокати_'
'Адани_'
'Агрон_'
'Агенциите_'
'Агендата_'
'Австријците_'
'Авни_'
'Абрум_'
'АФКС_'
'АРМО_'
'АРМ_'
'АНСА_'
'АНА_'
'ААК_'
'Џули_'
'Џо_'
'Џек_'
'Џамијата_'
'Џ_'
'Љуљзим_'
'Југословенската_'
'Јост_'
'Јон_'
'Јовчев_'
'Јилмаз_'
'Јилдиз_'
'Јианг_'
'Јашар_'
'Јасно_'
'Јапонската_'
'Јаница_'
'Јанис_'
'Јакупи_'
'Јагодина_'
'ЈУ_'
'Ѓурчани_'
'Ѓорге_'
'Ѓорfевиќ_'
'Ѓирокастро_'
'Ѓилас_'
'© _'
'youngest_'
'younger_'
'yogurt_'
'yes_'
'yearly_'
'wrestling_'
'wrestler_'
'wounding_'
'worsening_'
'worrisome_'
'workshops_'
'workplaces_'
'wonderful_'
'woes_'
'witnessed_'
'wind_'
'widow_'
'whatever_'
'welfare_'
'welcomes_'
'weightlifter_'
'weigh_'
'weapon_'
'wealthier_'
'weaknesses_'
'weakened_'
'wary_'
'warrants_'
'warplanes_'
'warmth_'
'wanting_'
'wall_'
'waited_'
'vulnerability_'
'von_'
'volunteer_'
'volatility_'
'voices_'
'vocational_'
'vivendi_'
'virtual_'
'violate_'
'vineyards_'
'vigilant_'
'viable_'
'veterinary_'
'vessels_'
'vessel_'
'version_'
'valid_'
'vaccines_'
'uprising_'
'updated_'
'unwillingness_'
'unveiling_'
'unveiled_'
'unusual_'
'unsustainable_'
'unstable_'
'unsatisfactory_'
'unnamed_'
'universality_'
'unfair_'
'unearthed_'
'underworld_'
'undertaking_'
'undertake_'
'underscored_'
'undermined_'
'undermine_'
'underground_'
'unconstitutional_'
'uncertainty_'
'uncertain_'
'unbiased_'
'unarmed_'
'unanimous_'
'typical_'
'turnover_'
'tunnel_'
'tsunami_'
'truce_'
'troupe_'
'trophy_'
'troop_'
'trips_'
'triple_'
'trio_'
'trillion_'
'triggered_'
'tree_'
'treasures_'
'traveling_'
'travelers_'
'trash_'
'transponders_'
'transplant_'
'transform_'
'transfers_'
'traits_'
'trails_'
'trail_'
'tracking_'
'towers_'
'tougher_'
'totals_'
'torturing_'
'toppled_'
'tonne_'
'tongue_'
'tomb_'
'tomatoes_'
'tolerated_'
'tolerate_'
'timing_'
'timetable_'
'timely_'
'timeframe_'
'tighter_'
'tight_'
'throwing_'
'threatens_'
'thousand_'
'thoughts_'
'thorough_'
'thorny_'
'thereby_'
'theory_'
'thanked_'
'tests_'
'testimony_'
'testimonies_'
'testify_'
'termination_'
'terminated_'
'tempered_'
'temperature_'
'televised_'
'telephony_'
'teeth_'
'teenagers_'
'technological_'
'technique_'
'technically_'
'tear_'
'teacher_'
'taxpayers_'
'taste_'
'tariffs_'
'tapped_'
'tanks_'
'tally_'
'talking_'
'talented_'
'tactics_'
'tackling_'
'tables_'
'synagogues_'
'switching_'
'switch_'
'swift_'
'swap_'
'suspicions_'
'survivors_'
'surroundings_'
'surpass_'
'surgery_'
'surge_'
'suppress_'
'supplying_'
'supervision_'
'supervised_'
'superior_'
'suits_'
'suggestion_'
'suggesting_'
'substantially_'
'substandard_'
'subscriptions_'
'subscribers_'
'subordinated_'
'subjects_'
'subjected_'
'stunning_'
'stuffed_'
'studies_'
'struggling_'
'struggles_'
'structured_'
'struck_'
'strongman_'
'strides_'
'strength_'
'strategies_'
'strategically_'
'strained_'
'straight_'
'stopping_'
'stopped_'
'stone_'
'stir_'
'stimulus_'
'stimulates_'
'sticking_'
'stems_'
'steering_'
'statue_'
'stating_'
'statehood_'
'starts_'
'standoff_'
'standby_'
'stances_'
'stalled_'
'staging_'
'stadiums_'
'stadium_'
'stabilising_'
'springboard_'
'sport_'
'sponsorship_'
'spite_'
'spiritual_'
'spills_'
'sphere_'
'speculations_'
'spectrum_'
'spectacular_'
'specifically_'
'specialised_'
'sow_'
'southwest_'
'sorts_'
'sorely_'
'sooner_'
'sons_'
'somewhat_'
'sociology_'
'socially_'
'soccer_'
'sniper_'
'smokers_'
'smoke_'
'slogan_'
'slim_'
'sleep_'
'slave_'
'slated_'
'slash_'
'slammed_'
'sky_'
'skills_'
'skilled_'
'skater_'
'sized_'
'sins_'
'singled_'
'simplify_'
'simplified_'
'silence_'
'signaled_'
'sights_'
'siege_'
'showcase_'
'shoulders_'
'shorts_'
'shortly_'
'shortages_'
'shortage_'
'shooter_'
'shocking_'
'shipyard_'
'shelve_'
'shareholder_'
'shale_'
'shakes_'
'shady_'
'settling_'
'settle_'
'setbacks_'
'servicemen_'
'servants_'
'separatists_'
'separating_'
'sensitive_'
'seminar_'
'selective_'
'seizures_'
'seizure_'
'seize_'
'securing_'
'seconds_'
'secession_'
'searching_'
'sculptures_'
'screens_'
'screened_'
'screen_'
'scientist_'
'scholars_'
'scent_'
'scenarios_'
'scandals_'
'scan_'
'sat_'
'salmonella_'
'salesman_'
'safeguards_'
'sad_'
'sacking_'
'sacked_'
'rulings_'
'rulers_'
'ruined_'
'royal_'
'row_'
'routine_'
'roundup_'
'root_'
'rogue_'
'rocky_'
'rocked_'
'riverbeds_'
'rivalry_'
'risen_'
'rings_'
'rightist_'
'rig_'
'rifles_'
'rife_'
'ride_'
'rewarded_'
'revolutions_'
'revolutionary_'
'revoked_'
'revived_'
'revival_'
'revise_'
'reverse_'
'revered_'
'revamp_'
'retreat_'
'retire_'
'retained_'
'resumed_'
'restricting_'
'restraint_'
'restoration_'
'restitution_'
'responsibly_'
'responding_'
'resignations_'
'residing_'
'resides_'
'residential_'
'residences_'
'researchers_'
'reputation_'
'repressive_'
'replacing_'
'repercussions_'
'repaired_'
'rent_'
'renowned_'
'renew_'
'renaming_'
'reminiscent_'
'remark_'
'remainder_'
'rely_'
'relief_'
'reliability_'
'releasing_'
'relationships_'
'relate_'
'rejects_'
'rejection_'
'reinvigorate_'
'reinforced_'
'rein_'
'regulator_'
'registry_'
'regiments_'
'refutes_'
'refuge_'
'refrain_'
'reformists_'
'reformed_'
'refinery_'
'referendums_'
'referenda_'
'refer_'
'reduces_'
'recycling_'
'recovering_'
'reconstruct_'
'recognising_'
'recipient_'
'reception_'
'recall_'
'rebels_'
'rebellion_'
'reassured_'
'reasoning_'
'reasonable_'
'realised_'
'reading_'
'reacted_'
'reaches_'
'rationale_'
'rapporteur_'
'rankings_'
'rains_'
'radioactive_'
'racist_'
'quotas_'
'quo_'
'queuing_'
'questioned_'
'quash_'
'quarters_'
'quarrel_'
'quantity_'
'quantities_'
'qualifying_'
'qualification_'
'pyramids_'
'purchasing_'
'punished_'
'pumped_'
'pull_'
'publishing_'
'publication_'
'proximity_'
'provocative_'
'proving_'
'provinces_'
'protestors_'
'protesting_'
'protester_'
'protested_'
'protects_'
'prosperous_'
'prosecuted_'
'proponent_'
'propaganda_'
'pronounced_'
'pronged_'
'prompt_'
'promotional_'
'promotion_'
'promises_'
'projections_'
'profits_'
'professions_'
'professionalism_'
'productivity_'
'productive_'
'product_'
'proclaimed_'
'probable_'
'privileges_'
'privatising_'
'privatised_'
'privacy_'
'preventive_'
'prevails_'
'prevailed_'
'pressured_'
'presiding_'
'presently_'
'prejudice_'
'preferred_'
'prefecture_'
'predominantly_'
'precondition_'
'precautionary_'
'praises_'
'postponement_'
'postpone_'
'positioned_'
'pork_'
'poorly_'
'poorest_'
'politicised_'
'policymakers_'
'polarised_'
'poisoning_'
'poet_'
'plurality_'
'pleased_'
'pleaded_'
'platforms_'
'plastic_'
'planted_'
'plagued_'
'pistol_'
'pipelines_'
'pine_'
'pilot_'
'pillars_'
'pies_'
'pieces_'
'photos_'
'photo_'
'philosophy_'
'phenomenon_'
'phases_'
'phased_'
'pharmaceutical_'
'petrol_'
'petition_'
'pertinent_'
'persuading_'
'personally_'
'permanently_'
'performing_'
'performer_'
'perceive_'
'pensioners_'
'pensioner_'
'pays_'
'payments_'
'patron_'
'patriotism_'
'paths_'
'patent_'
'passports_'
'passport_'
'passes_'
'passenger_'
'passages_'
'parliaments_'
'parking_'
'pardoned_'
'paramilitary_'
'painter_'
'pain_'
'packed_'
'packages_'
'overtime_'
'overshadowed_'
'overlooking_'
'outdoor_'
'outbreaks_'
'orientation_'
'organized_'
'organiser_'
'organic_'
'orchestra_'
'orange_'
'opposing_'
'operators_'
'openness_'
'openly_'
'onto_'
'ombudsman_'
'older_'
'offensive_'
'offence_'
'occasions_'
'observes_'
'objection_'
'object_'
'obey_'
'novelist_'
'notified_'
'noticeable_'
'northwestern_'
'northeastern_'
'norms_'
'normalisation_'
'nominated_'
'nobody_'
'nightclubs_'
'newer_'
'newcomers_'
'newcomer_'
'nevertheless_'
'neo_'
'neighbourhoods_'
'neighboring_'
'negotiators_'
'negotiable_'
'negligence_'
'neglected_'
'navigation_'
'nationals_'
'nationalists_'
'narrowing_'
'naming_'
'myself_'
'muster_'
'mud_'
'mountains_'
'mount_'
'motivated_'
'motivate_'
'mothers_'
'mortgages_'
'mortgage_'
'moribund_'
'morale_'
'monitor_'
'moments_'
'modus_'
'modernity_'
'modernising_'
'mixing_'
'mixed_'
'mitigate_'
'misuse_'
'mistreatment_'
'mistaken_'
'missed_'
'miss_'
'ministerial_'
'mini_'
'mines_'
'miners_'
'milestone_'
'miles_'
'meter_'
'messages_'
'merit_'
'mental_'
'medieval_'
'medics_'
'mediate_'
'measuring_'
'meals_'
'meal_'
'maternity_'
'master_'
'married_'
'manager_'
'mammoth_'
'malls_'
'magistrate_'
'machinery_'
'machine_'
'maNga_'
'lyrics_'
'loud_'
'lottery_'
'looked_'
'longstanding_'
'logical_'
'location_'
'locals_'
'listing_'
'lira_'
'liquidation_'
'likes_'
'lifts_'
'lift_'
'lifestyle_'
'liaison_'
'lessons_'
'lending_'
'lend_'
'legally_'
'lectures_'
'leaks_'
'lays_'
'layoffs_'
'layers_'
'lawsuits_'
'lawmaker_'
'lawlessness_'
'laundered_'
'launching_'
'lauded_'
'landslide_'
'lag_'
'lacks_'
'lacked_'
'laboratory_'
'kitchen_'
'king_'
'kilometres_'
'kilometers_'
'killers_'
'kill_'
'kidnapped_'
'keys_'
'keen_'
'jumping_'
'journey_'
'jointly_'
'jobseekers_'
'issuance_'
'islands_'
'invites_'
'invitations_'
'investigators_'
'intractable_'
'intolerance_'
'intervened_'
'interpreted_'
'interpretations_'
'interdependence_'
'interceptors_'
'interactive_'
'intentions_'
'intensity_'
'intensified_'
'intends_'
'instructors_'
'institute_'
'instalments_'
'inspectorate_'
'inspector_'
'inspection_'
'insolvency_'
'insignia_'
'insane_'
'inquiry_'
'innovations_'
'inmates_'
'inform_'
'infighting_'
'infections_'
'infected_'
'infantry_'
'inefficient_'
'induce_'
'indoor_'
'indicators_'
'indicates_'
'independently_'
'indeed_'
'incursion_'
'incorrect_'
'incidence_'
'incentive_'
'inadequate_'
'improves_'
'improper_'
'imprisonment_'
'imposing_'
'importers_'
'impetus_'
'impartial_'
'immoral_'
'ignoring_'
'idyllic_'
'ideology_'
'identifies_'
'identification_'
'identical_'
'hydroelectric_'
'husbands_'
'hunt_'
'humidity_'
'humans_'
'humane_'
'households_'
'household_'
'horizon_'
'hometown_'
'homeland_'
'holders_'
'hits_'
'historians_'
'hire_'
'hinting_'
'hinges_'
'hinge_'
'hills_'
'hike_'
'highways_'
'highlighted_'
'highlight_'
'hide_'
'hidden_'
'helpless_'
'heightened_'
'heard_'
'healthy_'
'headlines_'
'headline_'
'hazardous_'
'hasn_'
'harm_'
'harem_'
'hardened_'
'harbour_'
'handouts_'
'handled_'
'handicap_'
'handball_'
'halting_'
'halted_'
'hails_'
'guns_'
'guitarist_'
'guide_'
'guest_'
'guards_'
'gruparegina_'
'groom_'
'greets_'
'greeting_'
'greener_'
'grave_'
'grants_'
'grant_'
'grand_'
'goodwill_'
'globalisation_'
'glass_'
'geopolitical_'
'geographical_'
'generate_'
'gates_'
'gasoline_'
'garden_'
'garbage_'
'gamble_'
'gallery_'
'furniture_'
'funded_'
'fundamentalist_'
'fulfilment_'
'fronts_'
'freeze_'
'freely_'
'founders_'
'forts_'
'fortress_'
'forms_'
'forgiveness_'
'forever_'
'forests_'
'forestry_'
'foreigners_'
'forecast_'
'forcing_'
'forcibly_'
'forceful_'
'footage_'
'followers_'
'flying_'
'flows_'
'flowers_'
'flooding_'
'flood_'
'flexible_'
'flee_'
'fledgling_'
'flawed_'
'flare_'
'fix_'
'fits_'
'findings_'
'fill_'
'files_'
'fiercely_'
'feta_'
'ferrous_'
'felt_'
'feed_'
'favourite_'
'favoured_'
'fastest_'
'faster_'
'falsely_'
'falling_'
'fairness_'
'facilitated_'
'extremists_'
'extremism_'
'extra_'
'extent_'
'exposure_'
'exporting_'
'exporters_'
'exported_'
'explosive_'
'explosions_'
'exploring_'
'explores_'
'explore_'
'exploitation_'
'exploded_'
'explaining_'
'expires_'
'experiments_'
'experiment_'
'experiencing_'
'expelled_'
'expectancy_'
'expanding_'
'exhumed_'
'executions_'
'excuse_'
'excluding_'
'excluded_'
'exclude_'
'excavations_'
'excavated_'
'exactly_'
'evident_'
'eventual_'
'evacuated_'
'eurocents_'
'ethical_'
'essence_'
'error_'
'eroding_'
'equipped_'
'epoch_'
'envisioned_'
'envisaged_'
'environmentalists_'
'enters_'
'entering_'
'ensured_'
'enrolled_'
'enjoys_'
'enjoyed_'
'enhancing_'
'enforcing_'
'enforced_'
'enemy_'
'enemies_'
'endured_'
'endorsement_'
'endeavours_'
'encountered_'
'enclaves_'
'enacted_'
'enabled_'
'employing_'
'emphasise_'
'emigrants_'
'emigrant_'
'embracing_'
'embankments_'
'else_'
'elite_'
'eliminating_'
'eliminated_'
'electronically_'
'electing_'
'effectiveness_'
'educated_'
'eco_'
'echoed_'
'eat_'
'earth_'
'earnings_'
'earning_'
'earned_'
'dynamics_'
'dynamic_'
'duration_'
'dubious_'
'dual_'
'drugs_'
'drink_'
'dreams_'
'dream_'
'drain_'
'dozens_'
'downsizing_'
'download_'
'doubtful_'
'dominant_'
'dogs_'
'dog_'
'documented_'
'dock_'
'divers_'
'distributors_'
'distributed_'
'distinction_'
'dissolved_'
'disrupting_'
'disputed_'
'disposal_'
'disperse_'
'disorder_'
'dismissal_'
'disinflation_'
'dishes_'
'discriminatory_'
'discriminated_'
'discrepancies_'
'discoveries_'
'discover_'
'discourage_'
'discounts_'
'disclose_'
'discipline_'
'disbursed_'
'disagrees_'
'disagreement_'
'disagree_'
'disadvantage_'
'disabled_'
'disability_'
'directives_'
'directive_'
'dire_'
'dioxide_'
'diminish_'
'dimension_'
'dilemmas_'
'dilemma_'
'digits_'
'digit_'
'differs_'
'differently_'
'differ_'
'diaries_'
'devoted_'
'devastating_'
'deterioration_'
'deter_'
'detection_'
'detailed_'
'destabilise_'
'designate_'
'design_'
'deserves_'
'deserve_'
'des_'
'derail_'
'depot_'
'deposited_'
'depending_'
'dental_'
'denomination_'
'demons_'
'demographic_'
'democratising_'
'democracies_'
'demarcation_'
'deliveries_'
'delicate_'
'deliberately_'
'delegations_'
'delegates_'
'degrees_'
'defining_'
'define_'
'deficiencies_'
'defiant_'
'defense_'
'defendant_'
'defamation_'
'deeply_'
'decree_'
'decorative_'
'declining_'
'decent_'
'deadly_'
'deadlines_'
'dating_'
'database_'
'dances_'
'dancers_'
'dam_'
'cyber_'
'curiosity_'
'crushing_'
'cruel_'
'crude_'
'crowded_'
'criterion_'
'crediting_'
'credited_'
'credible_'
'crack_'
'courses_'
'couples_'
'countryside_'
'counterterrorism_'
'corridor_'
'cooperation_'
'convoy_'
'convicts_'
'conversation_'
'conventions_'
'conventional_'
'contributor_'
'contradiction_'
'contractors_'
'contractor_'
'continuously_'
'contested_'
'contagious_'
'constitute_'
'consists_'
'consisting_'
'consistent_'
'consent_'
'conscription_'
'congratulated_'
'confront_'
'confirms_'
'confirmation_'
'conducts_'
'condemnation_'
'concludes_'
'concession_'
'conceived_'
'compromised_'
'comprising_'
'composite_'
'composer_'
'components_'
'complicating_'
'complexity_'
'complained_'
'compiled_'
'competitions_'
'compatible_'
'comparatively_'
'commuter_'
'communications_'
'commonly_'
'committing_'
'commercially_'
'commented_'
'commentator_'
'commended_'
'commemorate_'
'commandos_'
'commanded_'
'combine_'
'coloured_'
'collaborators_'
'coins_'
'coincide_'
'cohesion_'
'coexistence_'
'coefficient_'
'codes_'
'clinics_'
'climbed_'
'clients_'
'clearing_'
'cleaning_'
'clause_'
'classrooms_'
'classified_'
'clash_'
'clarify_'
'circus_'
'circulate_'
'circle_'
'cinematography_'
'cinema_'
'childcare_'
'chemicals_'
'cheese_'
'cheap_'
'chats_'
'characterising_'
'characterised_'
'chaotic_'
'channeled_'
'championships_'
'challenger_'
'chairs_'
'chaired_'
'center_'
'ceiling_'
'cease_'
'cautious_'
'caution_'
'catastrophic_'
'catalyst_'
'castle_'
'casinos_'
'cash_'
'carriers_'
'captives_'
'cancelling_'
'cancellation_'
'camera_'
'calendar_'
'cake_'
'cafes_'
'bypassing_'
'buyer_'
'bureaucracy_'
'budgets_'
'broadcasts_'
'briefly_'
'briefed_'
'brief_'
'bridges_'
'bride_'
'breakup_'
'breaks_'
'breakaway_'
'brand_'
'brain_'
'box_'
'boundary_'
'bound_'
'bookings_'
'bonuses_'
'bonus_'
'bone_'
'bombs_'
'blueprint_'
'blogger_'
'blog_'
'blockade_'
'blast_'
'bishops_'
'births_'
'birthplace_'
'biometric_'
'billions_'
'bidder_'
'besides_'
'beside_'
'beneficiaries_'
'benchmarks_'
'belt_'
'begun_'
'bed_'
'beatings_'
'beans_'
'beaches_'
'bay_'
'bastion_'
'basin_'
'barrels_'
'banning_'
'banners_'
'banner_'
'ballots_'
'ballot_'
'ball_'
'balanced_'
'bakery_'
'bail_'
'backlog_'
'ba_'
'automatically_'
'authorised_'
'authorisations_'
'authorisation_'
'auction_'
'attracts_'
'attraction_'
'attitudes_'
'attends_'
'attendance_'
'attempted_'
'attainable_'
'attain_'
'attacking_'
'attached_'
'associated_'
'assigned_'
'asset_'
'assessed_'
'assemblies_'
'assault_'
'assassins_'
'aspects_'
'artistic_'
'artifacts_'
'arrives_'
'arrivals_'
'armies_'
'archives_'
'architecture_'
'apprehended_'
'appreciation_'
'appreciate_'
'appealing_'
'apathy_'
'anyway_'
'anticorruption_'
'anticipates_'
'anticipate_'
'answers_'
'answered_'
'anonymous_'
'announces_'
'angry_'
'amounting_'
'ammunition_'
'amidst_'
'alongside_'
'alluding_'
'allocation_'
'allocated_'
'allocate_'
'alleges_'
'alike_'
'alert_'
'album_'
'alarm_'
'aiming_'
'ailments_'
'aiding_'
'aided_'
'aggression_'
'agents_'
'aged_'
'aftermath_'
'affiliation_'
'affiliated_'
'affecting_'
'affair_'
'advocating_'
'advocated_'
'advocate_'
'advised_'
'advise_'
'advanced_'
'adults_'
'adoptions_'
'admitting_'
'admits_'
'administrator_'
'adjustments_'
'adjusted_'
'adequately_'
'add_'
'activate_'
'acted_'
'acquainted_'
'acknowledging_'
'accurate_'
'accreditation_'
'accomplishments_'
'accomplished_'
'accommodation_'
'accidents_'
'accepting_'
'acceptance_'
'accelerated_'
'academy_'
'academics_'
'absolute_'
'absent_'
'abolishing_'
'abolished_'
'aboard_'
'].“_'
']."_'
'Zvornik_'
'Zuzul_'
'Zupljanin_'
'Zone_'
'Zeri_'
'Zenica_'
'Zarko_'
'Zahir_'
'Yves_'
'YouTube_'
'Ylber_'
'Yildiz_'
'Yatirim_'
'X_'
'Would_'
'Works_'
'Working_'
'Wolfowitz_'
'Wire_'
'Wimbledon_'
'Who_'
'Where_'
'Well_'
'Weightlifting_'
'Weeks_'
'Weather_'
'Watch_'
'Wahhabism_'
'WHO_'
'WEF_'
'Vukelic_'
'Vukasin_'
'Vujic_'
'Vuckovic_'
'Vranje_'
'Voter_'
'Vojin_'
'Voices_'
'Vodafone_'
'Vlahovic_'
'Vladan_'
'Vinko_'
'Vijesti_'
'Victory_'
'Veselin_'
'Verso_'
'Veljanovski_'
'Velija_'
'Vekaric_'
'Vecernje_'
'Vasile_'
'Vasic_'
'Vardar_'
'Vakuf_'
'VRS_'
'Usually_'
'Ursula_'
'Urges_'
'Urged_'
'Up_'
'Unlike_'
'Ungureanu_'
'Unfortunately_'
'Understanding_'
'Uka_'
'USS_'
'USAK_'
'UEFA_'
'UBP_'
'Tурските_'
'Tzanis_'
'Twitter_'
'Turnout_'
'Tupras_'
'Tuncel_'
'Tudjman_'
'Tsenkov_'
'Trnopolje_'
'Tripoli_'
'Trial_'
'Trepca_'
'Traycho_'
'Trajkov_'
'Traikov_'
'Trafficking_'
'Total_'
'Topics_'
'Tony_'
'Tomic_'
'Tokes_'
'Tobacco_'
'Time_'
'Thracian_'
'Therefore_'
'Then_'
'Theater_'
'Thailand_'
'Text_'
'Terselic_'
'Tensions_'
'Tens_'
'Tehran_'
'Team_'
'Tbilisi_'
'Tasovac_'
'Tarculovski_'
'Talent_'
'T_'
'TRT_'
'Systems_'
'Syntagma_'
'Sustainable_'
'Super_'
'Summer_'
'Sullivan_'
'Suleyman_'
'Sts_'
'Strumica_'
'Strpce_'
'Strong_'
'Strategies_'
'Stoyanov_'
'Storm_'
'Stolojan_'
'Stojkovic_'
'Stojanovic_'
'Stip_'
'Steps_'
'Steiner_'
'Statue_'
'Stanko_'
'Stanic_'
'St_'
'Sreten_'
'Srecko_'
'Springer_'
'Sport_'
'Speira_'
'Soren_'
'Soon_'
'Sometimes_'
'Sokol_'
'Slavko_'
'Slavica_'
'Sjeverin_'
'Sixteen_'
'Sitel_'
'Sisecam_'
'Sibenik_'
'Shortly_'
'Shmatko_'
'Shkullaku_'
'Shimon_'
'Shevciuk_'
'Seventeen_'
'Sergei_'
'Senior_'
'Senate_'
'Semneby_'
'Selmani_'
'Selimi_'
'Self_'
'Securitate_'
'Scotsman_'
'Scepanovic_'
'Sasa_'
'Samuel_'
'Salzburg_'
'Saltzman_'
'Sakik_'
'Sahin_'
'SPO_'
'SNSD_'
'SNA_'
'SI_'
'SEECP_'
'SDS_'
'SARS_'
'SAP_'
'Russians_'
'Rumsfeld_'
'Royal_'
'Rowing_'
'Rouvas_'
'Rosenborg_'
'Rompuy_'
'Rompres_'
'Rome_'
'Roganovic_'
'Roads_'
'Riza_'
'Rimet_'
'Rijeka_'
'Revolution_'
'Review_'
'Residents_'
'Researchers_'
'Reporters_'
'Renault_'
'Remains_'
'Religious_'
'Regina_'
'Regardless_'
'Regarding_'
'Refugees_'
'Reduction_'
'Rauf_'
'Ratings_'
'Rasmussen_'
'Ramkovski_'
'Ramadanovic_'
'Rajko_'
'Radovic_'
'Radmanovic_'
'Radikal_'
'Radicals_'
'RTCG_'
'ROL_'
'RECOM_'
'Quoting_'
'Queen_'
'Qatari_'
'Pukanic_'
'Prospects_'
'Proposed_'
'Promotion_'
'Production_'
'Prodi_'
'Problem_'
'Pro_'
'Prior_'
'Prijedor_'
'Prifti_'
'Previously_'
'Previous_'
'Presidential_'
'Predoiu_'
'Post_'
'Portuguese_'
'Popova_'
'Popov_'
'Pop_'
'Poortman_'
'Polt_'
'Politics_'
'Polat_'
'Poised_'
'Poetry_'
'Podravka_'
'Pljevlja_'
'Platanista_'
'Plassnik_'
'Plans_'
'Pitesti_'
'Pieter_'
'Physics_'
'Photos_'
'Phoenix_'
'Philharmonic_'
'Petrovic_'
'Petroleum_'
'Petrescu_'
'Personally_'
'Period_'
'Perceptions_'
'Perception_'
'Pentecost_'
'Pendarovski_'
'Peja_'
'Pazar_'
'Pavlovic_'
'Patrick_'
'Partners_'
'Partizan_'
'Participants_'
'Papandropoulos_'
'Pan_'
'PRM_'
'PIC_'
'PDP_'
'PAMECA_'
'PACE_'
'OХР_'
'Osman_'
'Oslo_'
'Osijek_'
'Oscar_'
'Osama_'
'Oric_'
'Organising_'
'Organisers_'
'Organisations_'
'Organ_'
'Or_'
'Opinion_'
'Operations_'
'Operation_'
'Opera_'
'Omarska_'
'Olldashi_'
'Ohio_'
'Official_'
'OK_'
'Novosti_'
'Novinite_'
'Novine_'
'Nothing_'
'Nigeria_'
'Nicolas_'
'Nezavisne_'
'Never_'
'Neven_'
'Neither_'
'Nazim_'
'Natasha_'
'Nash_'
'NUNS_'
'NHQSa_'
'Munk_'
'Municipality_'
'Multimedia_'
'Muammar_'
'Mrksic_'
'Mravak_'
'Mr_'
'Morningstar_'
'Montpellier_'
'Momcilo_'
'Moldpres_'
'Moisiu_'
'Modern_'
'Mladenov_'
'Mitev_'
'Missions_'
'Miro_'
'Mirjana_'
'Mirel_'
'Miomir_'
'Minic_'
'Mina_'
'Milutin_'
'Milliyet_'
'Miller_'
'Milic_'
'Miletic_'
'Mile_'
'Mihailovic_'
'Microsoft_'
'Micic_'
'Michalis_'
'Mi_'
'Meдиапул_'
'Mexico_'
'Metropolitan_'
'Metro_'
'Menounos_'
'Memorandum_'
'Memeti_'
'Member_'
'Mehmeti_'
'Mediu_'
'McLin_'
'Maybe_'
'Maxime_'
'Matthew_'
'Matijasevic_'
'Matic_'
'Matache_'
'Marking_'
'Mario_'
'Marina_'
'Mantovanelli_'
'Manolis_'
'Manager_'
'Malaysia_'
'Major_'
'Majko_'
'Main_'
'Magnificent_'
'Madonna_'
'MVR_'
'MOU_'
'MESS_'
'MEPs_'
'MCV_'
'MAP_'
'Lulzim_'
'Luksic_'
'Lugar_'
'Lovci_'
'Loncar_'
'Ljiljana_'
'Litvinenko_'
'Lithuania_'
'Line_'
'Likewise_'
'Light_'
'Library_'
'Liaison_'
'Less_'
'Lehtinen_'
'Lehne_'
'Legion_'
'Lebanon_'
'Lazic_'
'Lazarevic_'
'Lazar_'
'Late_'
'Lambrinidis_'
'Laboratory_'
'Kuwait_'
'Kutlesa_'
'Kurd_'
'Kultur_'
'Kuci_'
'Kristina_'
'Krimo_'
'Kovach_'
'Kouchner_'
'Kostic_'
'Kos_'
'Korean_'
'Koran_'
'Konrad_'
'Koci_'
'Kljajevic_'
'Kjurciev_'
'Khalifa_'
'Kewell_'
'Keraterm_'
'Keeping_'
'Kathimerini_'
'Karin_'
'Karadzoski_'
'Kandic_'
'Kampschror_'
'Kamenica_'
'Kalmeta_'
'KM_'
'KGK_'
'KEK_'
'Jury_'
'Julian_'
'Jules_'
'Judicial_'
'Jozefina_'
'Jovan_'
'Josip_'
'Jonilda_'
'Jonathan_'
'Johnson_'
'Johann_'
'Jenness_'
'Jelena_'
'Jankulovska_'
'Janjic_'
'Jandrokovic_'
'Jan_'
'Jakup_'
'Jaksic_'
'JRC_'
'Izetbegovic_'
'Izet_'
'Ivaylo_'
'Ivanka_'
'Ivanic_'
'Ivana_'
'Issues_'
'Ismet_'
'Ismail_'
'Island_'
'Irena_'
'Ioannina_'
'Investors_'
'Investments_'
'Internal_'
'Insurance_'
'Information_'
'Indoor_'
'Indian_'
'Implementation_'
'Impaler_'
'Imer_'
'Ilir_'
'Ilija_'
'Ilham_'
'Igman_'
'Idol_'
'Iceland_'
'ISG_'
'ISAF_'
'INA_'
'IFC_'
'ICMP_'
'IAEA_'
'Hypo_'
'Hungarians_'
'Hrant_'
'Hoti_'
'Home_'
'Holbrooke_'
'Here_'
'Herceg_'
'Hemofarm_'
'Helsinki_'
'Heinz_'
'Hatip_'
'Hasanovic_'
'Has_'
'Harvard_'
'Handball_'
'Hamza_'
'Hamas_'
'Hall_'
'Halili_'
'Hajredin_'
'Hailing_'
'Hadjicostis_'
'Had_'
'HSS_'
'H5N1_'
'Gymnastics_'
'Gunay_'
'Guler_'
'Guenter_'
'Guard_'
'Grozdeva_'
'Growth_'
'Gross_'
'Gregorian_'
'Gredelj_'
'Grad_'
'Gordana_'
'Gorazde_'
'GoodNews_'
'Goals_'
'Go_'
'Globally_'
'Global_'
'Gjorge_'
'Gjirokastra_'
'Gjergji_'
'Giorgos_'
'Giorgio_'
'Gheorghe_'
'Gevgelija_'
'Germans_'
'Georgiou_'
'Georgieva_'
'Gent_'
'Geneva_'
'Gene_'
'Gasparovic_'
'Gareth_'
'Gani_'
'Game_'
'Gallipoli_'
'Galeria_'
'Gadhafi_'
'Future_'
'Further_'
'Fule_'
'Fuel_'
'Friends_'
'Freedom_'
'Fraser_'
'Frankfurt_'
'Franjo_'
'Fortress_'
'Formula_'
'Forbes_'
'Football_'
'Fogh_'
'Fitch_'
'Firstly_'
'Fine_'
'Filat_'
'Fikret_'
'Fenerbahce_'
'Fehmiu_'
'Fashion_'
'Faruk_'
'Family_'
'Failure_'
'Facing_'
'EурАктив_'
'Express_'
'Export_'
'Expatica_'
'Evros_'
'Everyone_'
'Evenings_'
'Eurobank_'
'Ethnic_'
'Estonian_'
'Estimates_'
'Eruygur_'
'Ermal_'
'Ergin_'
'Ergenekon_'
'Envoy_'
'Entitled_'
'Enterprise_'
'Ensuring_'
'Enescu_'
'Endorsed_'
'Endeavour_'
'Emportal_'
'Empire_'
'Emma_'
'Emir_'
'Emergency_'
'Elez_'
'Elementary_'
'Electrica_'
'Either_'
'Efforts_'
'Edward_'
'Educational_'
'Echoing_'
'Easter_'
'Earth_'
'EXIT_'
'ESM_'
'ESI_'
'EPP_'
'EPCG_'
'EFT_'
'EBU_'
'Dusko_'
'Dumitru_'
'Droutsas_'
'Drinka_'
'Drenica_'
'Dragomir_'
'Dragana_'
'Dozens_'
'Downer_'
'Dora_'
'Domestic_'
'Dojran_'
'Does_'
'Documentation_'
'Dobrovoljacka_'
'Dobre_'
'Djurisic_'
'Djordjevic_'
'Diyarbakir_'
'Direct_'
'Dinamo_'
'Dimitrijevic_'
'Die_'
'Dicle_'
'Dervishi_'
'Deniz_'
'Demos_'
'Demir_'
'Delta_'
'Declining_'
'Decentralisation_'
'Davidovic_'
'Dardan_'
'Damjanovic_'
'Damascus_'
'Dajti_'
'DSB_'
'DOS_'
'DEA_'
'Cuk_'
'Criticising_'
'Cristian_'
'Creation_'
'Creating_'
'Cowen_'
'Covic_'
'County_'
'Country_'
'Countries_'
'Councils_'
'Could_'
'Corps_'
'Cooper_'
'Considering_'
'Conflict_'
'Concerns_'
'Comparing_'
'Communists_'
'Communications_'
'Commercial_'
'Command_'
'Combined_'
'Colonel_'
'College_'
'Colak_'
'Close_'
'Clan_'
'Civilian_'
'Christopher_'
'Christians_'
'Choir_'
'Chiefs_'
'Chiarini_'
'Chertoff_'
'Chemical_'
'Championships_'
'Certain_'
'Centar_'
'Ceku_'
'Ceber_'
'Cavic_'
'Catholics_'
'Catalin_'
'Case_'
'Carlos_'
'Cardinal_'
'Card_'
'Canton_'
'Cankaya_'
'Canak_'
'Cana_'
'Calls_'
'Caka_'
'Cairo_'
'CafÃ_'
'Cacak_'
'CSD_'
'CRPC_'
'CIA_'
'CEI_'
'CAP_'
'Byzantine_'
'Bytyci_'
'Butrint_'
'Bureau_'
'Bulgargaz_'
'Bugojno_'
'Bryza_'
'Bruno_'
'Brod_'
'Broadcasting_'
'Brezovica_'
'Bregu_'
'Bregovic_'
'Brazil_'
'Brankovic_'
'Branimir_'
'Brace_'
'Bozo_'
'Bozic_'
'Botas_'
'Bosphorus_'
'Borislav_'
'Bolivia_'
'Bojan_'
'Boc_'
'Bobi_'
'Bllaca_'
'Bitola_'
'Big_'
'Beyoglu_'
[...]
